<unk>	0
<s>	0
</s>	0
▁	-2.39418
。	-3.11905
、	-3.85353
の	-4.00427
・	-4.23725
。「	-4.52237
を	-4.55032
」	-4.56284
に	-4.61505
が	-4.89832
は	-4.90887
する	-4.92085
こと	-5.05056
で	-5.07942
と	-5.36285
)	-5.5469
▁彼は	-5.59568
る	-5.61304
た	-5.70937
」「	-5.95518
人	-5.9685
した	-5.99473
また	-6.03975
や	-6.04584
な	-6.05819
だ	-6.08551
から	-6.11303
(	-6.2358
て	-6.28688
その	-6.3737
して	-6.4502
い	-6.46242
も	-6.46375
もの	-6.55254
し	-6.59559
か	-6.68112
など	-6.72971
である	-6.76317
▁その	-6.76567
す	-6.78797
物	-6.82133
った	-6.82448
□	-6.83151
をする	-6.83217
者	-6.83545
り	-6.84635
▁(	-6.92195
く	-6.92578
」(	-6.93263
▁彼女は	-6.96122
▁この	-6.97091
1	-6.98294
特に	-7.01788
すること	-7.05197
になる	-7.07379
などの	-7.10497
がある	-7.12284
さま	-7.16354
には	-7.17103
または	-7.18544
所	-7.20371
家	-7.21839
って	-7.23057
手	-7.23424
ない	-7.24266
ること	-7.25399
として	-7.26817
時	-7.27887
▁彼の	-7.28241
▁...	-7.29873
している	-7.34663
▁〔	-7.36629
心	-7.37475
う	-7.38495
ある	-7.38579
大	-7.3978
などを	-7.40192
日	-7.40729
語	-7.41087
水	-7.4222
一	-7.43881
き	-7.44248
〕	-7.44549
目	-7.44843
子	-7.45293
ている	-7.45386
いた	-7.45406
さ	-7.46306
よ	-7.46791
お	-7.47286
本	-7.47288
的	-7.47369
力	-7.49235
だった	-7.49545
転じて	-7.53556
です	-7.5378
;	-7.5387
2	-7.53886
地	-7.54248
事	-7.54783
という	-7.55704
み	-7.55902
色	-7.56498
用	-7.56711
ように	-7.58178
金	-7.58828
ら	-7.58868
では	-7.59622
国	-7.62366
気	-7.65221
口	-7.65597
3	-7.67433
道	-7.67778
上	-7.68094
年	-7.6816
中	-7.69142
つ	-7.70616
風	-7.70844
などが	-7.74642
まで	-7.74673
いる	-7.75417
にする	-7.75703
法	-7.76197
へ	-7.76692
む	-7.77313
によって	-7.78681
▁彼らは	-7.79126
名	-7.80486
的な	-7.81428
▁大	-7.81619
体	-7.81867
させる	-7.82102
された	-7.82105
方	-7.82197
見	-7.82609
分	-7.82758
俗	-7.82961
などで	-7.83457
書	-7.84438
性	-7.85023
の一つ	-7.85558
のある	-7.869
より	-7.87751
下	-7.87996
点	-7.88712
!	-7.88714
音	-7.89894
話	-7.91012
数	-7.91208
ような	-7.91213
▁「	-7.91383
取り	-7.92116
め	-7.92677
仏	-7.93495
木	-7.94441
会	-7.94572
学	-7.95823
よく	-7.97313
...	-7.98304
5	-7.98629
車	-7.99515
船	-7.99958
出	-8.00531
ほど	-8.01039
▁それは	-8.01282
小	-8.01283
仕事	-8.01422
長	-8.01731
生	-8.02057
▁人の	-8.02575
▁一	-8.02697
時間	-8.0289
「	-8.03108
月	-8.0326
の一種	-8.03895
紙	-8.04071
ね	-8.04159
言葉	-8.04175
考え	-8.04244
線	-8.04293
場	-8.05014
がない	-8.05214
山	-8.05955
間	-8.05974
だろう	-8.06246
のない	-8.06935
ご	-8.07198
文	-8.07247
火	-8.0798
女	-8.08688
彼は	-8.08797
になった	-8.09001
形	-8.10127
▁お	-8.10361
頭	-8.10525
例	-8.11586
品	-8.1161
声	-8.11788
人の	-8.11913
足	-8.11934
こ	-8.1232
行	-8.1375
ず	-8.13944
様子	-8.14518
などに	-8.14795
海	-8.14991
前	-8.15046
それ	-8.15066
される	-8.15617
▁手	-8.17245
屋	-8.17517
ために	-8.18055
え	-8.19172
▁私は	-8.1967
ていた	-8.20008
▁人を	-8.20745
着	-8.20924
よい	-8.21091
戦	-8.21213
この	-8.21389
かった	-8.22323
のように	-8.22341
男	-8.22791
の略	-8.2283
先	-8.23487
に対して	-8.24099
花	-8.24277
よう	-8.25015
馬	-8.25082
状態	-8.25242
10	-8.26193
っている	-8.26639
じ	-8.2666
なく	-8.26696
のために	-8.28615
んだ	-8.28657
神	-8.29289
石	-8.29551
度	-8.29887
いて	-8.2991
切り	-8.30041
面	-8.30467
れ	-8.30538
(=	-8.30876
そう	-8.31002
後	-8.3137
世	-8.31532
▁無	-8.31751
▁彼が	-8.32755
出す	-8.33214
論	-8.33246
彼の	-8.33306
顔	-8.33681
ー	-8.34488
靴	-8.35195
▁小	-8.35373
自分の	-8.35377
言	-8.35398
問題	-8.36586
内	-8.37248
身	-8.38563
食	-8.39474
▁水	-8.39874
等	-8.39926
式	-8.4009
高	-8.40579
だけ	-8.40665
なかった	-8.41321
白	-8.41579
なさい	-8.41725
ですか	-8.4215
ます	-8.4221
業	-8.42339
的に	-8.42489
▁人に	-8.43204
時に	-8.43625
歌	-8.43757
にも	-8.4397
熱	-8.44136
二	-8.44244
)「	-8.44586
草	-8.45299
▁彼はその	-8.45817
となる	-8.4626
三	-8.46341
それを	-8.46399
空	-8.46761
来	-8.47104
をつける	-8.47364
部	-8.47594
役	-8.47638
ため	-8.48111
ながら	-8.48211
薬	-8.48225
板	-8.4848
できる	-8.48746
店	-8.49215
流	-8.50703
表	-8.50759
作	-8.50767
服	-8.50854
台	-8.51026
量	-8.51032
ち	-8.51414
による	-8.51557
でも	-8.51565
にある	-8.51601
の総称	-8.51638
なら	-8.51752
外	-8.51869
骨	-8.51879
▁不	-8.52094
引き	-8.52111
死	-8.52152
部分	-8.5218
言う	-8.52197
4	-8.52251
夜	-8.52379
毛	-8.5243
酒	-8.52884
のため	-8.53002
ば	-8.53319
代	-8.53508
書き	-8.5362
場所	-8.5384
け	-8.54184
光	-8.54748
しない	-8.54749
もと	-8.55014
字	-8.55207
そ	-8.55327
に対する	-8.5537
ものだ	-8.55918
とする	-8.5637
わ	-8.56389
生活	-8.567
主義	-8.56746
雨	-8.56881
込む	-8.56937
天	-8.57484
ま	-8.57784
いい	-8.58222
ス	-8.58491
態度	-8.59189
垢	-8.59372
主	-8.5952
任	-8.59521
味	-8.59688
権	-8.59735
のような	-8.59944
植物	-8.59994
ぐ	-8.6004
▁私の	-8.60129
っ	-8.60153
病	-8.60202
魚	-8.60308
ん	-8.6112
▁金	-8.61211
関係	-8.61368
無	-8.61442
病気	-8.61509
土	-8.61574
兵	-8.61757
意	-8.62395
をした	-8.62594
布	-8.62652
ための	-8.6279
ところ	-8.6282
入れ	-8.62868
器	-8.63001
状	-8.63101
室	-8.63803
はない	-8.64569
運動	-8.64839
職	-8.65114
の人	-8.65268
▁彼女の	-8.65318
上の	-8.65335
行為	-8.65469
がいい	-8.65528
ぞ	-8.65561
について	-8.65864
前に	-8.66063
機	-8.66716
られた	-8.66921
であること	-8.67621
していた	-8.67773
大きな	-8.67781
油	-8.67815
せ	-8.6785
装置	-8.67859
をとる	-8.68038
曲	-8.68508
葉	-8.68599
音楽	-8.68615
悪	-8.68881
角	-8.68984
▁自分の	-8.69118
鳥	-8.69274
客	-8.69382
中に	-8.69566
行く	-8.6963
雲	-8.69895
髪	-8.69958
肉	-8.70162
愛	-8.70292
▁これは	-8.70408
他の	-8.70427
られる	-8.70517
用の	-8.70849
血	-8.71086
五	-8.71118
もう	-8.71254
波	-8.71578
▁本	-8.71966
動	-8.72038
もない	-8.72114
持ち	-8.72156
感	-8.72172
何	-8.72306
筆	-8.72351
命	-8.72533
比ゆ的に	-8.72607
組織	-8.72806
料理	-8.72846
を出す	-8.73127
部屋	-8.73139
元	-8.7322
人に	-8.74195
腹	-8.7443
学校	-8.74744
性質	-8.74827
化	-8.7483
立	-8.74897
でない	-8.74933
発	-8.75018
絵	-8.75032
人を	-8.75072
道具	-8.75201
人が	-8.75327
米	-8.75346
物を	-8.75638
御	-8.76241
種	-8.76341
める	-8.76624
ぶ	-8.76687
になっている	-8.76832
を受ける	-8.76963
図	-8.76984
▁新	-8.76988
不	-8.77022
ください	-8.77072
付け	-8.7709
思い	-8.77124
入	-8.77534
える	-8.77997
根	-8.78016
ど	-8.78053
実	-8.78136
位	-8.78269
』	-8.78285
時代	-8.78447
であった	-8.78633
座	-8.79057
を作る	-8.79061
門	-8.79181
説	-8.79261
合	-8.79374
相	-8.79434
その人	-8.79465
▁口	-8.79915
/	-8.801
れる	-8.80235
ルビ	-8.80269
▁彼には	-8.80407
砲	-8.80722
になって	-8.80873
イ	-8.81013
▁『	-8.81019
さん	-8.81072
類	-8.81211
会社	-8.81337
意見	-8.81496
ル	-8.81505
歩く	-8.81538
犬	-8.81546
制	-8.81669
回	-8.8191
ぎ	-8.82036
ものを	-8.82072
を取る	-8.82108
私の	-8.82135
計画	-8.82236
土地	-8.82278
▁山	-8.82393
▁私	-8.826
罪	-8.82654
席	-8.82752
重	-8.83361
打ち	-8.83392
節	-8.83432
▁ある	-8.837
▁我々は	-8.83832
雪	-8.83842
▁あの	-8.83922
べき	-8.83925
▁君は	-8.83934
官	-8.83983
文字	-8.84754
師	-8.84964
▁1	-8.85123
私	-8.85134
こう	-8.85353
とは	-8.85371
期	-8.85585
に使う	-8.8567
$	-8.85748
食用	-8.85991
町	-8.8638
川	-8.86388
画	-8.86545
つき	-8.86671
のは	-8.86882
番	-8.87003
そういう	-8.87048
質	-8.87056
まだ	-8.87212
々	-8.87383
▁出	-8.87706
様	-8.87768
眼	-8.87816
箱	-8.87833
界	-8.87993
リ	-8.88134
ろ	-8.88525
たち	-8.88531
通り	-8.88666
▁内	-8.88669
▁彼	-8.8871
すぐ	-8.88858
▁もう	-8.8934
君	-8.89421
立ち	-8.89684
首	-8.89766
とも	-8.89768
なる	-8.89938
別	-8.90059
敵	-8.90142
糸	-8.90391
軍	-8.90976
事実	-8.91107
行動	-8.91129
夏	-8.91507
茶	-8.91746
事を	-8.91986
傷	-8.92688
をかける	-8.92692
社会	-8.92834
ではない	-8.9301
ラ	-8.93028
額	-8.93186
のか	-8.93356
路	-8.9348
印	-8.93492
入り	-8.93525
美しい	-8.93613
新しい	-8.9368
小説	-8.93847
管	-8.94017
なこと	-8.94021
刀	-8.94357
虫	-8.94802
んで	-8.94991
然	-8.95079
6	-8.95109
詩	-8.9544
▁夜	-8.95529
れば	-8.95566
売り	-8.95572
つく	-8.95807
中の	-8.95828
出し	-8.95835
劇	-8.95892
ぬ	-8.9591
旅行	-8.95991
事柄	-8.96045
び	-8.96315
に行く	-8.96522
見る	-8.96571
棒	-8.96611
ける	-8.96745
▁2	-8.96995
姿	-8.97681
をすること	-8.97705
輪	-8.97752
高い	-8.97755
しい	-8.98146
教育	-8.98181
▁木	-8.98285
玉	-8.98666
父	-8.98671
歯	-8.98683
六	-8.98692
新	-8.98704
縁	-8.98907
っていた	-8.99078
ン	-8.99238
かす	-8.99587
母	-8.99907
帯	-9.00091
映画	-9.00097
きた	-9.0015
僧	-9.00479
たり	-9.00546
したもの	-9.00566
ばかり	-9.0057
古	-9.00635
▁下	-9.00661
親	-9.00794
値	-9.00996
句	-9.01147
されている	-9.01242
▁空	-9.01255
つけ	-9.01492
子供	-9.01533
定	-9.01603
筋	-9.01604
円	-9.01617
知	-9.01717
湯	-9.01869
情	-9.01893
人間	-9.01899
あり	-9.01966
できない	-9.01969
妻	-9.02262
立て	-9.02355
感じ	-9.02423
言い	-9.02567
}	-9.02586
直	-9.02648
が悪い	-9.02676
強	-9.02726
辰	-9.02747
ト	-9.02989
よりも	-9.0301
通	-9.03124
柱	-9.03181
正	-9.03228
の中に	-9.03228
とり	-9.03434
星	-9.03533
里	-9.0393
非常に	-9.041
事件	-9.04188
背	-9.0433
札	-9.04347
戦争	-9.04457
約束	-9.0465
げ	-9.04752
文章	-9.05017
村	-9.05056
▁生	-9.05068
員	-9.05202
記	-9.05205
試験	-9.05263
動物	-9.05404
原	-9.05672
なり	-9.05774
覆	-9.05776
建物	-9.05872
を与える	-9.06013
があった	-9.06094
版	-9.06137
利	-9.06214
ドル	-9.0641
計	-9.06606
同じ	-9.06694
ア	-9.06713
春	-9.0674
▁後	-9.07047
粉	-9.07164
そういう人	-9.07605
▁神	-9.07626
掛け	-9.07726
▁君の	-9.07728
タ	-9.08081
▁目	-9.08177
四	-9.08238
柄	-9.08275
あと	-9.0828
らない	-9.08375
尾	-9.08406
かけ	-9.08524
▁三	-9.0879
▁上	-9.08878
事業	-9.08947
煙	-9.0906
らしい	-9.09081
合い	-9.0921
試合	-9.09385
赤	-9.09475
製	-9.09616
難	-9.09659
▁自	-9.09665
楽	-9.09876
団	-9.0988
成	-9.09962
日本	-9.09986
腰	-9.09996
地方	-9.10161
地位	-9.10194
私は	-9.10385
竹	-9.10462
袋	-9.1064
▁気	-9.10706
活動	-9.10756
押し	-9.10756
すこと	-9.10864
ないこと	-9.10961
▁高	-9.10988
機械	-9.1113
かい	-9.11141
次	-9.11166
になること	-9.11187
への	-9.11338
とき	-9.11345
田	-9.11374
を示す	-9.11382
ひと	-9.11571
費	-9.11732
人物	-9.11811
相手	-9.11888
造	-9.11907
長い	-9.11964
たる	-9.1199
黒	-9.12062
の中で	-9.12199
に対し	-9.12268
戸	-9.12315
網	-9.12338
写真	-9.12366
▁御	-9.12409
杯	-9.1252
一番	-9.12738
研究	-9.12779
をして	-9.12798
耳	-9.12842
書物	-9.12856
断	-9.1301
税	-9.1307
調子	-9.13122
が多い	-9.13379
型	-9.13522
小さな	-9.13541
だけで	-9.13682
をしている	-9.13895
マ	-9.14154
あ	-9.14464
穴	-9.14471
カ	-9.14531
▁天	-9.14584
害	-9.14796
▁白	-9.14957
術	-9.15178
▁彼に	-9.15261
公	-9.15356
オ	-9.15749
政治	-9.15776
s	-9.15795
ナ	-9.15881
取引	-9.15893
感情	-9.16411
強い	-9.16421
となった	-9.1644
▁心	-9.16461
▁前	-9.16512
電	-9.16607
皮	-9.16701
ひ	-9.1747
でしょう	-9.17487
半	-9.17819
寝	-9.17911
民	-9.18113
まい	-9.18253
制度	-9.18293
弁	-9.1836
▁同	-9.18409
▁中	-9.18596
まる	-9.18684
っと	-9.18786
美	-9.1888
。↓	-9.18892
料	-9.19242
同	-9.19381
しか	-9.19543
と思う	-9.19822
ゆ	-9.19926
遊び	-9.20107
方法	-9.20241
八	-9.20257
20	-9.20285
能力	-9.20698
広く	-9.20719
案	-9.212
報	-9.213
▁僕は	-9.21401
30	-9.2146
ッ	-9.21523
ロ	-9.21658
▁二	-9.21895
平	-9.22071
読	-9.22098
学者	-9.22124
乗	-9.22131
多	-9.22174
進む	-9.22188
調	-9.22238
議論	-9.22384
何か	-9.22388
ろう	-9.22449
のに使う	-9.22535
乗り	-9.2262
作用	-9.22629
に入る	-9.2273
塩	-9.22732
気持	-9.22785
横	-9.22828
焼き	-9.22844
大学	-9.23005
上げる	-9.23008
てしまった	-9.23067
欲	-9.23343
鼻	-9.23357
王	-9.23424
学問	-9.23604
抜き	-9.23816
合う	-9.23837
シ	-9.23855
隊	-9.23922
悪い	-9.23942
幕	-9.23975
詰め	-9.24159
下さい	-9.24316
規則	-9.24333
小さい	-9.24353
談	-9.24382
を入れる	-9.24448
違い	-9.24544
号	-9.24562
手紙	-9.24601
物質	-9.24623
秋	-9.24651
▁ご	-9.24655
野	-9.24729
▁～	-9.24808
他	-9.24813
つける	-9.24859
どう	-9.24883
士	-9.25049
夫	-9.25085
くる	-9.25173
▁何	-9.25204
にして	-9.25266
壁	-9.25484
|	-9.25591
彼に	-9.25649
卵	-9.25733
ウ	-9.25752
をもつ	-9.25808
なし	-9.2587
行う	-9.25953
経験	-9.25998
いつも	-9.26026
ひどく	-9.2603
得	-9.26097
運	-9.26148
産	-9.26164
自動車	-9.26212
7	-9.26299
払い	-9.26347
▁火	-9.26388
に関する	-9.26436
食事	-9.26542
張り	-9.26564
新聞	-9.26798
出した	-9.26822
起	-9.26888
▁外	-9.26896
うまく	-9.2692
なければならない	-9.26932
鉄	-9.27003
明	-9.27098
ケ	-9.27107
朝	-9.2725
▁全	-9.27342
しなさい	-9.27363
像	-9.27415
▁先	-9.27473
牛	-9.2755
▁風	-9.27572
法律	-9.27589
当	-9.27638
窓	-9.27678
真	-9.27686
万	-9.27819
深い	-9.27857
出る	-9.27942
言った	-9.28055
表現	-9.28217
球	-9.28238
針	-9.28358
?	-9.28622
形の	-9.2866
毒	-9.28695
彼が	-9.28704
を言う	-9.28823
立つ	-9.28971
歩	-9.2906
一定の	-9.29123
笑い	-9.29143
のうち	-9.29277
ずる	-9.29412
経済	-9.29579
社	-9.29626
そうな	-9.29678
込み	-9.29814
かた	-9.29965
	-9.30037
させた	-9.30044
港	-9.30063
命令	-9.30155
十	-9.30181
局	-9.30253
使い	-9.30261
歳	-9.30388
史	-9.3063
チ	-9.30727
政	-9.30729
城	-9.30795
白い	-9.30828
'	-9.30877
競技	-9.30967
財産	-9.30991
ほう	-9.31172
長く	-9.31232
息	-9.31253
回り	-9.31272
ク	-9.31418
変化	-9.31495
世界	-9.31523
取る	-9.31703
和	-9.31711
英語	-9.31752
すっかり	-9.31844
時の	-9.31913
時計	-9.32033
権利	-9.3216
娘	-9.32246
機関	-9.3228
居	-9.32401
▁真	-9.32423
▁―	-9.32475
の間	-9.32513
話す	-9.32531
▁船	-9.32556
化する	-9.32611
がよい	-9.32646
道路	-9.32669
使う	-9.32706
▁国	-9.32858
模様	-9.32923
科の	-9.32926
一般に	-9.33097
有	-9.33229
ますか	-9.33322
ふ	-9.33393
くなる	-9.33396
多くの	-9.334
数学	-9.3344
層	-9.33509
せる	-9.33608
肩	-9.33732
彼	-9.3376
8	-9.33888
盛り	-9.33936
	-9.33967
かな	-9.33982
▁何か	-9.33985
結婚	-9.34107
乱	-9.34256
危険	-9.34291
進	-9.34338
たい	-9.34488
の上	-9.34561
を起こす	-9.34801
切る	-9.34821
II	-9.34839
落ち	-9.34852
老	-9.34872
全	-9.34886
あった	-9.34995
連	-9.35017
私に	-9.35051
▁まだ	-9.35071
証拠	-9.35095
殺	-9.35141
策	-9.35195
▁悪	-9.35341
算	-9.35401
付ける	-9.35412
信	-9.35419
地域	-9.35449
▁第	-9.35466
説明	-9.35481
ません	-9.35521
記号	-9.35557
メートル	-9.35624
これ	-9.35851
条件	-9.35994
七	-9.36099
児	-9.36172
文書	-9.36199
燭	-9.36244
安	-9.36248
50	-9.36249
ニ	-9.36266
立てる	-9.36285
大きく	-9.36295
少年	-9.36497
d	-9.36625
片	-9.36738
技術	-9.36751
100	-9.36836
菓子	-9.36856
団体	-9.36862
▁茶	-9.36867
党	-9.36969
やる	-9.37151
才	-9.37476
切	-9.37533
全部	-9.37536
指	-9.37615
切れ	-9.37637
橋	-9.37661
やすい	-9.37767
▁非常に	-9.37855
電気	-9.37869
失	-9.37894
とても	-9.37986
なった	-9.38151
フ	-9.38177
金銭	-9.384
働き	-9.38521
剤	-9.38523
手段	-9.38576
来た	-9.38637
薄	-9.38648
行き	-9.38678
苦	-9.38727
多く	-9.38914
雑誌	-9.39149
影	-9.39324
の上に	-9.39334
旗	-9.39555
島	-9.39714
率	-9.3972
心配	-9.39758
株	-9.39776
あい	-9.39812
気が	-9.40029
に向かって	-9.40089
▁日本	-9.40218
とした	-9.40337
いない	-9.40346
▁3	-9.40376
たもの	-9.40412
巻	-9.40434
分の	-9.40539
対	-9.4062
ごと	-9.40658
の部分	-9.40663
差	-9.40711
を立てる	-9.40761
▁こう	-9.40774
作った	-9.40779
レ	-9.40816
▁日	-9.40839
約	-9.4085
ぼ	-9.40853
品物	-9.40855
失敗	-9.40893
教	-9.41028
思想	-9.41089
向き	-9.41112
付き	-9.41133
されて	-9.41142
伝	-9.41166
すぐれた	-9.41207
目的	-9.41378
損	-9.41412
らす	-9.41505
うち	-9.41555
付	-9.41696
万円	-9.41914
作品	-9.41984
庭	-9.4206
流れ	-9.42357
がなく	-9.42463
▁重	-9.42603
があり	-9.42617
徳	-9.42642
利益	-9.42673
を守る	-9.42726
訳	-9.42804
努力	-9.42808
食べる	-9.42835
吹き	-9.42874
望	-9.42887
大きい	-9.42991
色の	-9.43027
を見	-9.43089
ずっと	-9.43193
▁正	-9.43224
工場	-9.43304
酸	-9.43398
皿	-9.43415
に出る	-9.43417
込んだ	-9.43463
ました	-9.43501
▁雪	-9.43528
▁同じ	-9.43551
もなく	-9.43719
ちょっと	-9.43778
のよい	-9.43841
⇒	-9.43851
飯	-9.4392
しく	-9.4392
一つ	-9.43974
▁花	-9.44003
▁実	-9.44099
日に	-9.44178
段	-9.44188
▁月	-9.44389
意味	-9.4444
じる	-9.44443
週間	-9.44445
▁海	-9.44468
普通	-9.44564
花が咲く	-9.44694
端	-9.4479
▁古	-9.45024
を使って	-9.45069
散	-9.45111
だと	-9.45156
そんな	-9.45162
を見る	-9.45292
変	-9.45296
あまり	-9.45316
だけの	-9.45338
▁有	-9.45353
工	-9.45402
すべき	-9.45466
せず	-9.45485
つか	-9.45574
家族	-9.45778
好	-9.45798
わけ	-9.46012
現象	-9.46032
床	-9.46042
注意	-9.46106
はまだ	-9.46158
つけた	-9.46162
ひどい	-9.46186
送	-9.46209
ころ	-9.46305
入れる	-9.46395
そうだ	-9.46403
破	-9.46504
の下	-9.46549
題	-9.46682
称	-9.46688
折	-9.46706
の名	-9.46782
理	-9.46841
個	-9.46865
▁そんな	-9.4689
コ	-9.46904
宿	-9.46924
▁見	-9.46978
結果	-9.47019
陣	-9.47029
ものが	-9.4704
▁初	-9.47068
辞	-9.47125
建築	-9.4717
▁昔	-9.47179
どんな	-9.47247
早く	-9.4744
▁平	-9.47464
転	-9.47468
返す	-9.47479
派	-9.47569
葉は	-9.47706
目に	-9.47749
勢力	-9.47762
▁彼は私に	-9.47773
列	-9.47825
女性	-9.47861
両	-9.47862
▁公	-9.47908
降り	-9.48021
砂	-9.48089
かん	-9.48166
他人の	-9.48182
を失う	-9.48217
解	-9.48272
事情	-9.48385
落	-9.48386
習	-9.48414
なんて	-9.48454
を持つ	-9.4854
陰	-9.48558
てきた	-9.48584
金を	-9.48609
大いに	-9.48773
今	-9.48862
▁他人の	-9.489
胸	-9.48902
千	-9.49044
韻	-9.49117
ということ	-9.49157
やり	-9.49264
▁血	-9.49273
引	-9.49291
ド	-9.49322
らせる	-9.49388
価値	-9.49423
を得る	-9.49444
▁長	-9.49565
灯	-9.496
▁物事の	-9.49633
礼	-9.49815
取	-9.49822
夢	-9.49867
演説	-9.49945
受け	-9.50085
{	-9.50187
組	-9.50374
婦人	-9.50427
腕	-9.5054
記録	-9.50595
分け	-9.50668
キ	-9.50837
肌	-9.50913
理論	-9.51052
来る	-9.51215
さない	-9.51231
▁今	-9.51241
行った	-9.51297
ミ	-9.51365
好き	-9.5147
余	-9.5148
起こる	-9.51659
全く	-9.51696
銀	-9.51805
▁酒	-9.51839
▁雨	-9.51844
により	-9.51845
強く	-9.51847
位置	-9.51928
向	-9.51944
言うこと	-9.52171
投げ	-9.52206
▁名	-9.52328
衣	-9.52357
判断	-9.52391
くて	-9.52396
ほどの	-9.52462
一つの	-9.52502
され	-9.52519
具	-9.52568
の一	-9.52582
液	-9.52614
辺	-9.52637
高く	-9.52672
、「	-9.5272
質問	-9.52722
しよう	-9.52764
市	-9.52882
読み	-9.52932
電話	-9.52944
うそ	-9.5322
程度	-9.53232
のですか	-9.53249
します	-9.53299
離	-9.53369
がつく	-9.53393
入る	-9.5349
成功	-9.53492
営	-9.53523
岩	-9.53583
氷	-9.537
▁ひと	-9.53713
▁よく	-9.53747
空気	-9.53784
衣服	-9.53798
友	-9.53801
職業	-9.53815
釮	-9.53857
れた	-9.53873
政府	-9.53935
不足	-9.54
格	-9.54183
相手の	-9.54204
前の	-9.54204
見える	-9.54224
弱	-9.54276
くれ	-9.54291
矢	-9.54295
さえ	-9.54373
末	-9.54436
飾り	-9.54555
倍	-9.54599
寺	-9.54612
▁横	-9.54663
岸	-9.54688
箸	-9.54766
▁戦争	-9.54776
場合	-9.54797
としての	-9.54875
彼女は	-9.54928
跡	-9.54938
間に	-9.54948
反対	-9.54951
材	-9.54975
パン	-9.54978
▁多	-9.54989
ごろ	-9.5505
責任	-9.55056
のいい	-9.55117
羽	-9.55122
速	-9.55141
いや	-9.55177
検査	-9.5525
t	-9.55265
かね	-9.55267
でなく	-9.55326
科	-9.55404
そば	-9.5561
▁ちょっと	-9.55627
すり	-9.55741
茲	-9.55873
激しく	-9.5611
芸	-9.56146
はっきり	-9.56236
解決	-9.56279
校	-9.56304
氏	-9.56322
皆	-9.56405
政策	-9.56407
はその	-9.56407
炎	-9.56502
いった	-9.56514
▁川	-9.56529
それに	-9.56555
上げ	-9.56688
持	-9.56901
追い	-9.56924
略	-9.56942
自	-9.56955
逆	-9.56979
者が	-9.5706
示	-9.57096
いること	-9.57156
近	-9.57214
彼女の	-9.57271
青	-9.57343
せん	-9.57347
内容	-9.57358
▁女	-9.57381
知識	-9.57395
階級	-9.5741
互いに	-9.57518
のだ	-9.57545
と言った	-9.57564
精神	-9.57661
少し	-9.5788
北	-9.57946
修	-9.58093
当たり	-9.58171
枚	-9.58208
契約	-9.58329
の類	-9.5837
賞	-9.58441
込んで	-9.58446
そこ	-9.58448
援助	-9.58579
工業	-9.58608
滅	-9.58655
～	-9.58658
まえ	-9.58743
を見て	-9.58842
良	-9.58903
健康	-9.59048
ことだ	-9.59085
まったく	-9.59135
打	-9.59156
かどうか	-9.59204
反	-9.59218
織物	-9.59292
しまった	-9.59309
価格	-9.59328
と言う	-9.59341
義	-9.59341
人は	-9.59365
金属	-9.59368
抜け	-9.59368
期間	-9.59378
かさ	-9.59378
がないこと	-9.594
材料	-9.59424
裏	-9.59462
才能	-9.59508
乳	-9.59574
距離	-9.59605
幅	-9.59656
軸	-9.59686
A	-9.59734
装	-9.59937
便	-9.59981
ざ	-9.60042
院	-9.60058
放送	-9.60071
状の	-9.6012
べ	-9.60125
聞き	-9.60196
かかる	-9.60307
最も	-9.60335
等の	-9.60406
見て	-9.60515
素	-9.60539
書類	-9.60548
できた	-9.60565
彼を	-9.60596
会議	-9.60638
善	-9.60653
聞	-9.60654
習慣	-9.60792
の中	-9.60808
商売	-9.60834
に住む	-9.60837
天気	-9.60863
働く	-9.60877
一方	-9.61052
おり	-9.61214
つる	-9.61432
▁赤	-9.61471
息子	-9.61524
程	-9.61524
恩	-9.61596
学生	-9.61625
に当たる	-9.61657
すべて	-9.61709
州	-9.61787
すれば	-9.61833
綿	-9.61859
飲む	-9.61913
泥	-9.62044
もっと	-9.6217
などに使う	-9.62172
にした	-9.62193
食物	-9.62198
犯罪	-9.62201
知恵	-9.62278
委員会	-9.62482
選	-9.62525
なって	-9.62545
希望	-9.62622
攻撃	-9.62664
飛び	-9.6273
▁君が	-9.62731
やった	-9.62734
死んだ	-9.62741
自然	-9.62743
計算	-9.62766
原因	-9.62835
苦労	-9.62848
列車	-9.6286
仕事を	-9.62905
手を	-9.6302
▁それ	-9.63094
▁新しい	-9.63108
墨	-9.63112
作る	-9.63149
おく	-9.63239
配	-9.63303
経	-9.63313
寒	-9.6337
意識	-9.63373
食い	-9.63455
▁早	-9.6359
給	-9.63646
弾	-9.63665
問	-9.63733
堂	-9.63775
のもの	-9.63803
気分	-9.63864
▁親	-9.63932
をもって	-9.63967
▁直	-9.64014
性の	-9.64044
ぶり	-9.64097
ガラス	-9.64136
もち	-9.6416
中である	-9.64175
、...	-9.64233
を打つ	-9.64253
物事の	-9.64364
収	-9.64373
ばか	-9.64374
られて	-9.64501
の悪い	-9.64522
▁これらの	-9.64537
教え	-9.6454
死ぬ	-9.64557
境	-9.64577
割り	-9.64752
作り	-9.64768
▁逆	-9.64799
係	-9.64805
言語	-9.64843
批評	-9.64861
▁野	-9.64877
紅	-9.64963
昔	-9.64989
言い方	-9.65084
事故	-9.65123
結	-9.65138
深く	-9.65215
▁朝	-9.65245
要	-9.65286
潮	-9.65307
剣	-9.65318
犯	-9.65345
討	-9.65351
帽子	-9.65413
かり	-9.65415
祭	-9.65467
たちは	-9.65549
▁年	-9.65626
▁再	-9.65647
仲間	-9.65681
都市	-9.65894
積	-9.65986
判	-9.6608
▁総	-9.66164
返事	-9.66264
痛	-9.6629
食品	-9.66315
期待	-9.66467
念	-9.66484
バ	-9.66511
集	-9.66554
ほとんど	-9.66597
残	-9.66599
舌	-9.66622
仕	-9.66696
は何	-9.66721
▁そう	-9.66753
予定	-9.66783
属	-9.66844
細工	-9.66856
に達する	-9.66938
さし	-9.66987
すぎる	-9.6699
枝	-9.67056
▁強	-9.67084
商	-9.67098
ページ	-9.67142
キロ	-9.67208
マイル	-9.67274
者は	-9.6732
章	-9.67408
旅	-9.67463
もある	-9.67586
が彼の	-9.67682
体を	-9.67773
につく	-9.67781
年齢	-9.67798
立派な	-9.67849
急	-9.67873
製品	-9.67931
られている	-9.67932
離れ	-9.67969
銃	-9.68022
産業	-9.68023
底	-9.68071
次の	-9.68109
の多い	-9.68113
正しい	-9.68142
▁他	-9.68351
願	-9.68378
を使う	-9.68397
顔つき	-9.68398
ム	-9.6847
罰	-9.68475
うちに	-9.6848
に似た	-9.68508
茎	-9.68509
▁土	-9.68515
それが	-9.68726
観	-9.68756
まず	-9.68807
ガス	-9.68822
▁足	-9.68879
▁入	-9.689
黄	-9.6891
所に	-9.68911
れて	-9.68966
九	-9.69025
望み	-9.69028
▁君	-9.69034
飛行	-9.69078
立場	-9.6917
人だ	-9.69195
へ行く	-9.69209
別の	-9.69281
を張る	-9.69309
▁とても	-9.69316
笑う	-9.69333
考える	-9.69355
黒い	-9.69468
服装	-9.69484
差し	-9.69623
理由	-9.69702
をやる	-9.69734
側	-9.69755
ようにする	-9.69787
商品	-9.69822
ましたか	-9.69853
患者	-9.6988
晩	-9.6997
置き	-9.69982
15	-9.69983
器具	-9.69996
趣味	-9.70005
初めて	-9.70025
芸術	-9.70025
何の	-9.70068
銭	-9.70172
上がる	-9.70194
綱	-9.70226
在	-9.70266
思う	-9.70273
▁それが	-9.70325
汁	-9.70329
勢い	-9.70398
撃	-9.70444
冠	-9.70448
文学	-9.70455
スト	-9.70532
とう	-9.7059
編	-9.70632
雄	-9.70703
軍隊	-9.70731
資金	-9.70764
な人	-9.70798
各	-9.70912
わざ	-9.70921
▁青	-9.7093
言って	-9.70944
泣く	-9.70966
ひも	-9.70994
ついて	-9.71155
▁それを	-9.71171
駅	-9.71327
霊	-9.71333
領	-9.71335
ネ	-9.71343
籍	-9.71427
芝居	-9.71443
▁熱	-9.71457
は彼の	-9.71461
国家	-9.71557
圧	-9.71579
売	-9.71612
Δ	-9.71614
水を	-9.71631
がよく	-9.717
みな	-9.71726
評判	-9.7188
▁自動車	-9.71936
東	-9.7202
留	-9.72041
狂	-9.7205
走る	-9.72197
▁主	-9.7225
生物	-9.72296
蔵	-9.72335
極	-9.72346
を行なう	-9.72427
生徒	-9.72436
冬	-9.72439
心が	-9.72479
勢	-9.72547
体の	-9.72588
炭	-9.72602
物事	-9.72645
ちゃ	-9.72747
部隊	-9.72809
家に	-9.72829
丸	-9.72897
ずに	-9.7302
屋根	-9.73027
合わせ	-9.73028
があって	-9.73165
蝿	-9.73198
と同じ	-9.73357
▁鉄	-9.7345
わら	-9.73486
▁多くの	-9.73501
納	-9.73508
我々の	-9.73526
十分	-9.73551
必要	-9.73626
ハ	-9.73631
階	-9.7367
助	-9.73676
▁黒	-9.73685
癖	-9.7371
省	-9.73752
保護	-9.73761
ができる	-9.73798
知っている	-9.73812
▁身	-9.73827
条	-9.73829
]	-9.73926
販売	-9.7394
チーム	-9.73995
上に	-9.74049
過	-9.74066
▁彼は私の	-9.74111
交	-9.74161
泙	-9.74205
ブ	-9.74228
▁肉	-9.74259
従	-9.74269
人形	-9.74287
が出る	-9.74318
突き	-9.74389
たくさん	-9.74477
▁半	-9.74539
▁自然	-9.74619
短い	-9.74629
振り	-9.74855
パ	-9.74883
を受けて	-9.74913
メ	-9.74957
9	-9.75077
かもしれない	-9.75163
密	-9.75173
林	-9.75269
治	-9.75283
南	-9.75317
ホ	-9.75344
の称	-9.7537
ポンド	-9.75417
やか	-9.75437
かわ	-9.75488
テ	-9.755
を入れて	-9.75542
▁片	-9.75554
涙	-9.75701
ほ	-9.75751
うこと	-9.75766
印刷	-9.75831
全体	-9.75847
香	-9.75884
志	-9.75886
替え	-9.75893
友人	-9.75917
動作	-9.7596
脚	-9.75966
▁両	-9.75995
苦しい	-9.76124
くず	-9.76143
勇	-9.76157
裁判所	-9.76178
を取り	-9.7618
宮	-9.76187
務	-9.76253
舟	-9.76271
そこに	-9.76286
したり	-9.76287
鵑	-9.76293
物語	-9.76419
収入	-9.76507
▁電気	-9.76526
放	-9.76541
回る	-9.76581
B	-9.76598
畑	-9.7661
松	-9.76674
死ぬこと	-9.76702
家の	-9.76707
サ	-9.76758
受	-9.76805
豆	-9.76854
させて	-9.76862
らず	-9.76966
ていない	-9.77059
諸	-9.77115
わからない	-9.77176
▁5	-9.77227
一人	-9.77267
割	-9.77269
けた	-9.77358
自分	-9.77359
▁馬	-9.77394
動き	-9.77411
症	-9.7743
設備	-9.77499
左	-9.77552
たら	-9.77587
選手	-9.77674
調査	-9.77786
でき	-9.78025
走	-9.78057
▁急	-9.7809
紋	-9.78216
後に	-9.78296
性格	-9.78357
費用	-9.78359
傾向	-9.78414
を求める	-9.78521
飲み	-9.78528
弟	-9.78586
絶	-9.78597
心を	-9.78702
きり	-9.78704
手で	-9.78711
縄	-9.78715
▁石	-9.78745
彼女	-9.78836
君の	-9.78861
直接	-9.78906
相談	-9.7894
級	-9.78995
を引く	-9.79012
なかなか	-9.79098
達	-9.79164
となって	-9.7918
巻き	-9.79196
られない	-9.79201
秘密	-9.79203
景	-9.79268
手に	-9.79355
さっと	-9.79398
▁一つの	-9.79441
がら	-9.79557
めた	-9.79615
▁物事を	-9.79634
ないように	-9.79694
▁旧	-9.79759
あの	-9.7976
▁試験	-9.79818
典	-9.79818
ヒ	-9.79902
電車	-9.7994
をつけた	-9.79982
症状	-9.79988
食べ	-9.8003
態	-9.80043
議	-9.8006
の言葉	-9.80168
ガ	-9.80177
二つの	-9.80193
呂	-9.80288
現	-9.80408
急に	-9.80436
▁男	-9.80453
▁こ	-9.8049
令	-9.80522
勝	-9.80547
いく	-9.80616
兄	-9.80631
範囲	-9.80632
ようだ	-9.80653
交渉	-9.80679
単に	-9.80759
近く	-9.80776
間違い	-9.80838
織り	-9.80844
ついた	-9.80854
行い	-9.8087
情報	-9.80874
決定	-9.80947
に立つ	-9.8095
年間	-9.80971
▁かん	-9.81108
見た	-9.81112
俳優	-9.81173
▁地	-9.81193
はもう	-9.81203
重い	-9.81254
能	-9.81387
始めた	-9.81411
やつ	-9.8142
まま	-9.81455
徒	-9.8149
遊	-9.8153
聞く	-9.81536
作家	-9.81592
勉強	-9.81623
一日	-9.81634
▁引き	-9.81727
物事を	-9.81761
殿	-9.81876
絹	-9.81933
をさす	-9.81933
単位	-9.81961
の間に	-9.82135
止め	-9.82242
際	-9.82375
▁和	-9.82577
▁腹	-9.826
効果	-9.82644
主に	-9.82655
以上	-9.82804
バス	-9.82808
蕕	-9.82827
▁彼女が	-9.82886
リー	-9.82891
要求	-9.83017
▁彼らの	-9.83019
何も	-9.83135
百	-9.8314
自分で	-9.83257
ぐらい	-9.83337
勝利	-9.83383
甲	-9.8347
露	-9.83492
が強い	-9.83504
渡し	-9.83514
選挙	-9.8354
票	-9.83597
教授	-9.83604
料金	-9.83664
の時	-9.83678
財	-9.8372
▁老	-9.83722
労働者	-9.83775
▁sho	-9.83792
退	-9.83882
▁転	-9.83908
当て	-9.83922
を持っている	-9.83975
中で	-9.84005
報告	-9.84049
資格	-9.84084
発する	-9.84096
漢	-9.84246
守	-9.8425
▁客	-9.84281
答え	-9.84318
とか	-9.84432
ボール	-9.84479
ずつ	-9.84653
工事	-9.84682
施設	-9.84703
ましょう	-9.84706
早	-9.84741
▁反	-9.84787
ニュース	-9.84793
ul	-9.84799
させ	-9.84801
福	-9.84908
砂糖	-9.84977
▁あの人は	-9.84984
元気	-9.85014
▁寝	-9.85018
▁文	-9.85048
飛ぶ	-9.85058
総	-9.85126
方向	-9.85159
哲学	-9.85311
処理	-9.85385
▁もっと	-9.85413
順	-9.85499
▁原	-9.85504
▁愛	-9.85532
願い	-9.85592
のことを	-9.85645
初	-9.85659
るように	-9.85661
雑	-9.85677
ひき	-9.85684
菜	-9.85692
券	-9.8576
を切る	-9.85781
考え方	-9.85784
しても	-9.85801
臭	-9.85877
多くは	-9.85894
ごとに	-9.85898
勘定	-9.85937
反応	-9.85969
細	-9.86003
麦	-9.86023
革	-9.86024
刃	-9.86037
精	-9.86091
丁	-9.86121
間の	-9.86127
荷	-9.86139
一杯	-9.86141
化学	-9.86151
させること	-9.86184
▁非	-9.86214
につける	-9.86247
▁ア	-9.8625
若い	-9.86259
役目	-9.86279
谷	-9.86357
をなす	-9.86392
▁しょう	-9.86512
激しい	-9.86531
管理	-9.86552
のための	-9.86596
▁雑	-9.8662
ヤ	-9.86642
▁ひ	-9.86674
ていること	-9.86723
旧	-9.86813
筒	-9.86901
決	-9.8692
時期	-9.86926
湖	-9.86947
ておく	-9.8708
出すこと	-9.8713
身分	-9.87359
遠	-9.87467
▁きょうは	-9.87552
あたり	-9.87599
まき	-9.87602
じゃない	-9.87663
民族	-9.87683
塔	-9.87696
細い	-9.87719
扱い	-9.87773
していない	-9.87779
覚え	-9.87804
合って	-9.87873
またその	-9.87978
パーティー	-9.87979
らい	-9.87982
▁あ	-9.87986
深	-9.87992
襪	-9.88034
人々	-9.8812
▁牛	-9.88123
通信	-9.88209
忘れ	-9.88303
んでいる	-9.88338
テレビ	-9.88363
▁どんな	-9.88392
太陽	-9.88441
緑	-9.88455
置	-9.88536
▁彼は自分の	-9.88543
知らせ	-9.88553
e	-9.88582
▁別	-9.88586
銀行	-9.88604
目を	-9.88644
普通の	-9.88652
かげ	-9.88672
譴	-9.88688
私が	-9.88718
うつ	-9.88872
を表す	-9.88886
だよ	-9.88889
▁自由	-9.88895
孫	-9.88906
教師	-9.88983
かき	-9.8906
評	-9.89118
イン	-9.89118
眠	-9.89127
清	-9.89242
作業	-9.89276
▁社会	-9.89292
みんな	-9.89305
猫	-9.89319
池	-9.89381
を敬って言う	-9.89443
ツ	-9.89525
将来	-9.89557
▁未	-9.89621
をつけて	-9.89644
がん	-9.89654
モ	-9.89755
ただ	-9.89788
こんな	-9.8979
▁健康	-9.89844
において	-9.89868
文句	-9.89961
ても	-9.89962
わき	-9.90146
▁死	-9.90162
灰	-9.90172
づけ	-9.90173
心に	-9.90183
右	-9.90237
得意	-9.9028
企業	-9.90297
で作った	-9.90326
闘	-9.90341
▁鼻	-9.90359
宝	-9.90362
▁魚	-9.90378
任務	-9.90516
困	-9.90526
自由に	-9.90532
喜び	-9.90535
合わせる	-9.90535
狭い	-9.9054
科学	-9.90554
▁腕	-9.9065
金額	-9.90661
▁胸	-9.90661
弔	-9.90719
と彼は	-9.90724
暗	-9.90746
めて	-9.9079
しみ	-9.90826
しなければならない	-9.90872
られ	-9.90924
▁そ	-9.91017
が高い	-9.91063
▁耳	-9.9109
なくなる	-9.91107
ことを言う	-9.91123
になり	-9.91184
われ	-9.91276
しん	-9.91391
あなた	-9.91423
打つ	-9.91432
録	-9.91437
変わった	-9.91549
気持ち	-9.91583
出して	-9.9165
刑	-9.91657
宗教	-9.91667
盤	-9.91687
載	-9.91709
障害	-9.91735
一生	-9.9177
一時	-9.9178
限り	-9.91782
運命	-9.91789
▁を用いないことが多い	-9.91808
演技	-9.91811
名前	-9.9185
▁連	-9.91862
をつけ	-9.91894
勇気	-9.91928
▁詩	-9.91958
▁銀	-9.92079
▁歯	-9.92149
▁物事が	-9.92153
他人	-9.92179
▁仮	-9.92227
わかる	-9.92256
それは	-9.92376
▁明	-9.92453
話を	-9.9255
▁ひどく	-9.92552
むし	-9.9257
怒り	-9.92584
▁ス	-9.92603
許	-9.92607
粒	-9.92615
しながら	-9.92619
臣	-9.9264
こむ	-9.92686
かし	-9.92704
がうまい	-9.92793
樹	-9.92803
待ち	-9.9286
▁薄	-9.92921
迫	-9.92927
を行う	-9.92964
系	-9.92994
源	-9.93014
儀	-9.93054
さらに	-9.93088
かみ	-9.93092
があること	-9.93153
規定	-9.93195
連絡	-9.93211
系統	-9.93213
細長い	-9.93222
道を	-9.93273
をあげる	-9.93291
しないこと	-9.93307
芽	-9.93346
ことができる	-9.93377
少しも	-9.93397
国民	-9.93406
▁大きな	-9.93486
まわり	-9.9351
形式	-9.93548
縫い	-9.93581
みち	-9.93594
鏡	-9.93609
年の	-9.93629
▁塩	-9.93686
西	-9.93703
私を	-9.93717
にかける	-9.93727
▁背	-9.93745
投票	-9.93757
▁相手の	-9.93827
盛んに	-9.93849
これを	-9.93919
物体	-9.93955
あること	-9.94044
美人	-9.94086
▁変	-9.94185
の木	-9.94194
突	-9.94222
年に	-9.9426
▁こんな	-9.94276
写し	-9.9428
益	-9.94291
きちんと	-9.94303
古い	-9.94349
匹	-9.94392
指導	-9.94472
小屋	-9.94473
異	-9.94579
膜	-9.94603
恥	-9.94607
▁国際	-9.94611
▁根	-9.94619
ようにして	-9.94626
再	-9.94676
勝負	-9.94772
男だ	-9.9488
ドレス	-9.95131
処置	-9.95278
▁the	-9.9529
▁新聞	-9.95298
接	-9.95367
射	-9.95433
信号	-9.9547
運転	-9.95481
不安	-9.95496
出た	-9.95643
楽器	-9.95766
!、	-9.95777
買い	-9.95797
調べ	-9.9583
▁法	-9.95835
ようにした	-9.95874
を受けた	-9.95876
恐れ	-9.95887
▁旅	-9.95906
生産	-9.95917
以外の	-9.95923
商人	-9.95933
感覚	-9.95935
宗	-9.95946
べきだ	-9.95986
塗り	-9.9602
戮	-9.96083
休み	-9.96108
越し	-9.96112
ぐあい	-9.96126
テーブル	-9.96133
口を	-9.9616
小さく	-9.96177
▁軽	-9.96198
脈	-9.96201
▁来	-9.96226
労働	-9.96231
話題	-9.96244
戦う	-9.96271
におい	-9.96288
▁さあ	-9.96293
だから	-9.96364
うわさ	-9.96418
製の	-9.96426
目の	-9.96464
思い出	-9.96483
▁あなたの	-9.96492
子供たち	-9.96493
▁彼を	-9.96495
にとって	-9.96592
我	-9.96656
族	-9.96712
とし	-9.96761
▁分	-9.96807
関	-9.96845
かえる	-9.969
の家	-9.96976
あき	-9.97018
作物	-9.97061
市場	-9.97158
負け	-9.97186
を上げる	-9.97203
▁春	-9.97217
釣り	-9.97218
くなった	-9.97281
のみ	-9.97288
暗い	-9.97306
型の	-9.9738
尺	-9.97406
ませんか	-9.97453
▁学問	-9.97482
翼	-9.97507
満足	-9.97575
揚げ	-9.9758
に入れる	-9.97582
のです	-9.97593
をよく	-9.97638
賛成	-9.97648
実験	-9.97685
死に	-9.97742
常	-9.97808
速度	-9.97824
帰り	-9.97825
▁カ	-9.97843
地帯	-9.97857
の音	-9.97932
焼	-9.97979
巣	-9.98009
はとても	-9.98035
▁これ	-9.9804
渡	-9.98102
▁コ	-9.98116
住む	-9.98142
寒さ	-9.98205
歩いて	-9.98273
誤り	-9.98355
荷物	-9.98384
の日	-9.98404
必ず	-9.98412
防	-9.9842
▁五	-9.98455
相手に	-9.98469
かぎ	-9.98512
温	-9.98545
解釈	-9.98558
なければ	-9.98581
▁発	-9.98671
河	-9.98724
忠告	-9.98746
因	-9.98818
美しく	-9.98823
出発	-9.98895
泣き	-9.98902
子寬	-9.98908
液体	-9.98913
ったり	-9.98943
貨幣	-9.99041
署名	-9.99043
コート	-9.99063
暮らす	-9.99078
脱	-9.99104
祭り	-9.9919
手続き	-9.99194
事務	-9.99314
していること	-9.99372
理解	-9.99376
容器	-9.99389
▁病気	-9.99399
時代の	-9.99409
の道	-9.99414
ビ	-9.99423
▁私が	-9.99509
▁油	-9.99514
一面に	-9.99539
役所	-9.9956
ドア	-9.99562
ホテル	-9.99677
除	-9.99707
煮	-9.99767
返	-9.99869
うまい	-9.99879
薄く	-9.99887
グ	-10.0004
先に	-10.0008
初め	-10.0017
静かに	-10.0017
利用	-10.0017
▁草	-10.0025
君は	-10.0027
肥料	-10.0032
環境	-10.0035
われる	-10.0041
払う	-10.0042
減	-10.0043
▁{	-10.0043
偏	-10.0044
貿易	-10.0044
たけ	-10.0047
講	-10.0048
菌	-10.0048
涼	-10.0048
戦闘	-10.0049
および	-10.0051
構造	-10.0052
閑	-10.0053
実は	-10.0053
きょう	-10.0056
殻	-10.0056
笛	-10.0057
あるいは	-10.0061
敗	-10.0067
▁砂	-10.0069
むこと	-10.0069
コーヒー	-10.0069
品種	-10.007
レース	-10.0079
の子	-10.0084
▁取り	-10.0084
価	-10.0089
薄い	-10.0089
分ける	-10.0094
の数	-10.0097
びん	-10.01
つり	-10.0115
とる	-10.0116
野菜	-10.0125
かかった	-10.0135
東京	-10.0143
ット	-10.0144
そうに	-10.0146
つま	-10.0147
結び	-10.0151
づ	-10.0155
ジ	-10.0155
▁宿	-10.0159
の方	-10.016
ことのたとえ	-10.0161
折り	-10.0171
げる	-10.0173
詩人	-10.0175
どおりに	-10.0181
立った	-10.0194
寒い	-10.0195
廃	-10.0195
しなかった	-10.0198
紫	-10.0199
出来事	-10.0199
義務	-10.0202
外出	-10.0203
予算	-10.0204
ってしまった	-10.0206
エ	-10.0206
炉	-10.021
共和国	-10.0211
千円	-10.0215
食べ物	-10.0217
暑い	-10.0218
思	-10.0222
送り	-10.0224
家具	-10.0225
▁いい	-10.0227
営業	-10.023
自由	-10.0231
殺す	-10.0232
実に	-10.0242
a	-10.0252
中国	-10.0254
軽く	-10.0254
立っている	-10.0261
使	-10.0265
歴史	-10.0267
科の多年生植物	-10.0268
あて	-10.0272
始め	-10.0275
しま	-10.0276
主張	-10.0278
掛ける	-10.0282
物事が	-10.0283
發	-10.0284
段階	-10.0286
いだ	-10.0287
演	-10.0297
▁軍	-10.0298
さら	-10.0302
寄り	-10.0303
▁-	-10.0306
してください	-10.0307
のある人	-10.031
塁	-10.0311
▁我々の	-10.0313
垂れ	-10.0317
幸福	-10.0322
そのまま	-10.0323
の中の	-10.0323
張	-10.0326
方針	-10.0326
見え	-10.0328
帳	-10.0332
を出して	-10.0337
抵抗	-10.0341
上がり	-10.0342
状態になる	-10.0346
名声	-10.0352
本の	-10.0355
刺激	-10.0357
落とす	-10.0358
若	-10.0359
犯人	-10.0364
真実	-10.0367
瓩	-10.0367
餅	-10.0367
番号	-10.0368
獣	-10.037
紳士	-10.037
写	-10.0373
世間	-10.0374
▁深	-10.0376
区	-10.0376
焼け	-10.0381
袖	-10.0382
でしょうか	-10.0389
広い	-10.0392
観賞用	-10.0397
銅	-10.0405
返し	-10.0406
まった	-10.0407
やって	-10.0409
ノ	-10.0411
はい	-10.0419
それぞれ	-10.0422
集団	-10.0424
ソ	-10.0426
奪	-10.0428
恋	-10.0428
刻	-10.0438
いと	-10.0439
ことがある	-10.0439
降	-10.0441
ダ	-10.0446
の実	-10.0446
医者	-10.0447
区域	-10.0449
を加える	-10.0454
咲く	-10.0454
仕事をする	-10.0455
せき	-10.0465
開	-10.0468
災難	-10.0472
上着	-10.0473
建	-10.0478
答	-10.0489
訪問	-10.0495
続き	-10.0505
功	-10.0509
値段	-10.051
街	-10.0513
┐	-10.0514
魂	-10.0514
の下に	-10.0516
をお	-10.0519
華	-10.0519
ごみ	-10.0522
エネルギー	-10.0526
そうした	-10.0532
目標	-10.0537
裁判	-10.0546
存在	-10.0547
▁開	-10.0553
良い	-10.0555
まり	-10.0557
業者	-10.056
きず	-10.056
でないこと	-10.0564
直す	-10.0566
がなかった	-10.0567
机	-10.0567
悲しみ	-10.0568
締め	-10.0573
触れ	-10.0575
疑い	-10.0579
▁彼はいつも	-10.0583
かなり	-10.0588
内に	-10.059
ふるまい	-10.0595
に近い	-10.0596
争い	-10.0598
黄色	-10.0599
冷	-10.0599
なっている	-10.0606
の大	-10.0609
地震	-10.0609
彼女に	-10.0624
生まれ	-10.0624
ごく	-10.0644
資本	-10.0646
いたずら	-10.065
まじ	-10.0653
腸	-10.0655
と言って	-10.0655
歳だ	-10.0657
センチ	-10.0658
だろうか	-10.0661
の結果	-10.0662
n	-10.0663
▁人間	-10.0666
案内	-10.0667
繊維	-10.0667
時刻	-10.0669
屈	-10.0671
▁紙	-10.0673
忙しい	-10.0674
壇	-10.0674
医学	-10.0676
売買	-10.0676
発音	-10.068
とび	-10.0682
弦	-10.0687
抜く	-10.0689
広告	-10.0694
いっぱい	-10.0698
神経	-10.07
勝ち	-10.0701
外国	-10.0702
種類の	-10.0704
荒	-10.0706
▁10	-10.0707
視	-10.0708
鐘	-10.0714
舞台	-10.072
信仰	-10.0721
してある	-10.0722
の仕事	-10.0723
▁頭	-10.0724
-	-10.0731
なくなった	-10.0732
風に	-10.0732
出来	-10.0734
出版	-10.0749
鬼	-10.075
遠い	-10.075
器官	-10.0751
用意	-10.076
好きな	-10.0762
がる	-10.0769
ようとする	-10.0769
課	-10.077
鉄道	-10.077
と思った	-10.0773
いろいろな	-10.0782
ていった	-10.0786
身を	-10.0788
かご	-10.0788
▁冬	-10.0788
水が	-10.0788
周	-10.079
▁腰	-10.0791
保証	-10.0791
っぱ	-10.0793
の意	-10.0798
▁互いに	-10.0799
▁筆	-10.0802
いている	-10.0806
揚	-10.0806
▁対	-10.0808
都	-10.0813
実際に	-10.0814
表情	-10.0819
想	-10.0822
変わり	-10.0822
高さ	-10.0822
頂	-10.0823
方式	-10.0825
過ぎる	-10.0829
行って	-10.083
かける	-10.0831
寄せ	-10.0832
房	-10.0832
さす	-10.0846
吟	-10.0847
籠	-10.085
个	-10.0851
あって	-10.0854
長さ	-10.0854
▁好	-10.0857
発見	-10.0866
▁湯	-10.0867
▁丸	-10.0871
事が	-10.0872
で彼は	-10.0873
ズ	-10.0874
くら	-10.0875
鬚	-10.0875
欠点	-10.0876
▁裏	-10.0877
論文	-10.0878
□・	-10.0879
会員	-10.0882
▁着	-10.0884
交通	-10.0884
なること	-10.089
縦	-10.089
てください	-10.0893
動詞	-10.0896
▁思い	-10.0896
鋭い	-10.0899
けが	-10.09
広	-10.0907
見込み	-10.0908
頃	-10.0915
▁極	-10.0921
薬品	-10.0923
役人	-10.0926
つぎ	-10.0929
▁自分	-10.0931
書いた	-10.0931
かない	-10.0933
機会	-10.0938
についての	-10.0938
時には	-10.094
組み	-10.0944
っぽ	-10.0951
さき	-10.0954
▁敵	-10.096
以上の	-10.0963
地面	-10.0965
取った	-10.0975
湿	-10.0975
信頼	-10.0979
仲	-10.0983
はよく	-10.0986
譲	-10.0988
つけて	-10.0998
△	-10.1003
軽	-10.101
借り	-10.1015
つめ	-10.1015
以下	-10.1016
下の	-10.1017
講演	-10.1018
はこの	-10.1019
気候	-10.102
▁この本は	-10.1023
▁子寬	-10.1031
養	-10.1031
のついた	-10.1033
いき	-10.1033
ものである	-10.1041
洗い	-10.1043
▁胃	-10.1045
使用	-10.1057
起こった	-10.1064
途	-10.1065
▁I	-10.1066
▁ひどい	-10.1066
身の	-10.1071
一定	-10.1073
踏み	-10.1073
非	-10.1075
▁光	-10.1075
方面	-10.108
に応じて	-10.1085
を開く	-10.1085
やり方	-10.1092
出て	-10.1094
尻	-10.1101
脳	-10.1101
ダンス	-10.1102
あいさつ	-10.1104
痛み	-10.111
を書く	-10.1112
もうけ	-10.1114
スポーツ	-10.1116
突然	-10.1119
みそ	-10.1119
▁古い	-10.112
わかった	-10.1123
▁奇	-10.1128
参	-10.1128
汗	-10.1133
どこ	-10.1138
栽培	-10.1141
君主	-10.1147
▁あなたは	-10.1149
帰	-10.1152
笑	-10.1155
二つ	-10.1155
つまらない	-10.1157
左右	-10.1157
回し	-10.1158
にくい	-10.1161
こそ	-10.1162
容	-10.1165
▁現代	-10.1167
技	-10.1168
ひとり	-10.117
人たち	-10.1172
館	-10.1178
非難	-10.1184
訓	-10.1185
いなか	-10.1185
でした	-10.1185
▁常	-10.1186
智	-10.1187
更に	-10.1188
弟子	-10.1191
▁選挙	-10.1192
の形	-10.1192
続く	-10.1194
注	-10.1197
困難	-10.1198
練習	-10.1211
臭い	-10.1211
奥	-10.1213
どり	-10.122
平和	-10.1222
と共に	-10.1222
細く	-10.1223
興	-10.1223
順に	-10.1224
▁骨	-10.123
証	-10.1231
議会	-10.1238
を保つ	-10.1239
▁差し	-10.1241
件	-10.1241
記憶	-10.1244
英	-10.1249
漁	-10.125
に乗る	-10.125
プ	-10.1251
次第に	-10.1253
▁政	-10.1253
になっていた	-10.1256
るような	-10.1256
休暇	-10.126
▁秋	-10.1263
未	-10.1266
にかけて	-10.1267
進歩	-10.127
ピ	-10.127
血液	-10.1278
愚	-10.1281
▁大学	-10.1282
クラス	-10.1283
▁唐	-10.1291
の本	-10.1293
下げ	-10.1294
▁低	-10.1297
顔を	-10.1299
すばらしい	-10.13
富	-10.1304
意志	-10.1304
ズボン	-10.1304
貸し	-10.1304
興奮	-10.1306
武士	-10.1307
いつ	-10.1313
手が	-10.1317
大形の	-10.1322
の前に	-10.1327
だって	-10.1328
遅れ	-10.1336
▁石油	-10.1342
走り	-10.1342
増	-10.1344
重要な	-10.1345
落ちる	-10.1347
▁交通	-10.1348
▁ふ	-10.135
マン	-10.135
▁人が	-10.1353
聴	-10.1354
みる	-10.1359
秒	-10.1359
かく	-10.1361
がその	-10.1365
かえって	-10.1365
第	-10.1366
注文	-10.1367
白く	-10.1368
わせる	-10.1372
じゃないか	-10.1372
赤い	-10.1376
過ぎ	-10.1379
▁まったく	-10.138
文化	-10.138
けんか	-10.1383
ポ	-10.1384
にあって	-10.1385
▁異	-10.1391
暮らし	-10.1397
親切	-10.1398
行動する	-10.1403
洋	-10.1405
▁彼らはその	-10.1411
▁世間	-10.1417
▁映画	-10.1429
なんか	-10.1431
▁米	-10.1432
かど	-10.1437
しき	-10.144
▁定	-10.1441
に従って	-10.1444
声で	-10.145
歌手	-10.1451
君に	-10.1457
12	-10.1459
交際	-10.1465
魔	-10.1466
の世界	-10.1466
▁近	-10.1467
競走	-10.1475
まね	-10.1475
種類	-10.1475
▁ラジオ	-10.1475
っこ	-10.1481
当然	-10.1483
▁物の	-10.1485
肺	-10.1486
伝え	-10.1486
一本	-10.1488
▁言い	-10.1492
都合	-10.1492
すべての	-10.1496
太	-10.1497
胃	-10.15
医	-10.1502
▁乳	-10.1503
体が	-10.1508
具合	-10.1508
の状態	-10.1511
盛	-10.1516
真理	-10.1517
開いた	-10.1519
給料	-10.1525
人口	-10.1526
自身	-10.1527
郷	-10.1528
違う	-10.1529
刈り	-10.153
競争	-10.1532
本当に	-10.1533
苦しみ	-10.1533
緊張	-10.1534
の声	-10.1535
輸送	-10.1535
形で	-10.1537
家庭	-10.1539
に用いる	-10.1542
▁学校	-10.1544
▁鉄道	-10.1546
までに	-10.1548
▁東	-10.1548
しないで	-10.1548
ないで	-10.1554
らなかった	-10.1558
いう	-10.156
▁彼女はその	-10.1565
ひとつ	-10.1571
電流	-10.1574
を送る	-10.1575
意気	-10.1576
正直	-10.158
僕	-10.1581
満	-10.1584
国の	-10.1589
温度	-10.1591
動く	-10.1592
▁夏	-10.1592
であろう	-10.1593
微	-10.1602
回復	-10.1602
包み	-10.1604
かせる	-10.1605
肥	-10.1613
外に	-10.1617
くれた	-10.1623
演奏	-10.1629
攻め	-10.1631
▁氷	-10.1632
持つ	-10.1632
梅	-10.1634
花を	-10.1635
の一部	-10.1637
方の	-10.1638
挙	-10.1639
まし	-10.1641
れない	-10.1642
者に	-10.1642
しり	-10.1655
並み	-10.1657
切った	-10.1658
あか	-10.1662
▁国家	-10.1667
を抜く	-10.1678
勉強する	-10.1678
ようになる	-10.1679
興行	-10.1682
愛情	-10.1683
激	-10.1685
幸	-10.1687
報道	-10.1688
羊	-10.1689
胴	-10.1691
化粧	-10.1696
くじ	-10.1696
継ぎ	-10.1697
冊	-10.1698
いろいろ	-10.1699
▁放	-10.1699
してくれた	-10.1703
▁庭	-10.1705
嫌	-10.1709
えて	-10.1712
楽しみ	-10.1713
彫刻	-10.1714
パーセント	-10.1714
栄養	-10.172
▁千	-10.172
十分に	-10.1721
限	-10.1723
差別	-10.1725
賃	-10.173
▁特	-10.1732
車を	-10.1734
トン	-10.1736
付く	-10.1736
感謝	-10.174
続けて	-10.1742
の自由	-10.1744
気体	-10.1748
持っている	-10.175
書く	-10.1757
▁聖	-10.1759
細かい	-10.176
鳴る	-10.1761
なしに	-10.1763
かけた	-10.1766
おけ	-10.1768
婦	-10.1769
▁薬	-10.1771
▁粗	-10.1772
流し	-10.1777
練	-10.1781
▁フ	-10.1787
鋼	-10.1787
ほか	-10.1788
逃げ	-10.1793
▁パ	-10.1803
導	-10.1804
なくて	-10.181
簡単に	-10.1819
o	-10.182
あし	-10.1821
なお	-10.1824
先生	-10.183
▁美	-10.1831
がけ	-10.1834
亡	-10.184
穂	-10.1846
夫婦	-10.1848
相手を	-10.1853
修行	-10.1854
エンジン	-10.1858
雷	-10.1866
住	-10.1867
阿	-10.1867
霜	-10.1867
だめだ	-10.1868
ものだった	-10.1871
教会	-10.1873
天井	-10.1877
拍子	-10.1878
甘い	-10.188
道徳	-10.1881
m	-10.1882
手当	-10.1883
ふるまう	-10.1885
好み	-10.1886
詩歌	-10.1887
の花	-10.1889
進んで	-10.189
慮	-10.189
準備	-10.1891
舎	-10.1891
前後	-10.1891
ピアノ	-10.1892
あらゆる	-10.1893
まって	-10.1894
役者	-10.1895
附	-10.1896
ひそかに	-10.1896
英雄	-10.19
▁きょう	-10.19
さび	-10.1901
生命	-10.1903
▁単	-10.1904
知らず	-10.1905
読む	-10.1905
場面	-10.1906
そのように	-10.1906
出席	-10.1907
勤務	-10.1909
道理	-10.1909
火事	-10.1911
てある	-10.1928
▁万	-10.1928
たとえ	-10.193
だが	-10.1932
奏	-10.1932
生活をする	-10.1933
建て	-10.1939
▁人間の	-10.1945
を入れた	-10.1945
番組	-10.1946
▁日本の	-10.1946
禁止	-10.1949
すぎて	-10.1953
りして	-10.1956
ぼう	-10.1964
ずいぶん	-10.197
余り	-10.1972
すじ	-10.1978
▁左	-10.198
越	-10.198
見ること	-10.1988
いたします	-10.1989
補	-10.199
じっと	-10.199
戒	-10.1992
別れ	-10.1994
らん	-10.1995
聞いて	-10.1996
受ける	-10.2002
▁立ち	-10.2003
を引き	-10.2005
▁弱	-10.2006
信用	-10.2014
同情	-10.2014
すぎ	-10.2015
なあ	-10.2019
狩り	-10.2025
ならぬ	-10.203
光景	-10.2032
職人	-10.2034
製造	-10.2035
▁あの男は	-10.2039
ものと	-10.2047
くさ	-10.2047
れている	-10.2049
浮	-10.2051
の皮	-10.2051
将	-10.2053
をとり	-10.2054
▁電話	-10.2056
体に	-10.2057
事態	-10.2058
比	-10.2059
▁王	-10.2062
主として	-10.2063
臨	-10.2064
帽	-10.2067
青年	-10.2069
姓	-10.207
しておく	-10.2076
奇	-10.2076
の手紙	-10.2078
圓	-10.208
ゲーム	-10.2081
訓練	-10.2081
話をする	-10.2082
ボタン	-10.2082
少女	-10.2082
▁切り	-10.2086
しやすい	-10.2086
しめ	-10.2087
呼び	-10.2102
心の	-10.2112
後ろ	-10.2114
儀式	-10.2118
▁清	-10.2123
逃げる	-10.2123
興味	-10.2123
あげる	-10.2125
来て	-10.2125
▁よい	-10.2135
するさま	-10.2145
他に	-10.2151
妙	-10.2158
くり	-10.2161
バー	-10.2162
の前	-10.2165
▁僕の	-10.2165
下に	-10.2167
▁世界	-10.217
を持って	-10.2173
▁改	-10.2173
ほかの	-10.2174
の原料	-10.2174
を述べる	-10.2177
どろ	-10.2178
は私の	-10.2179
日の	-10.2182
をはかる	-10.2185
▁密	-10.2189
取って	-10.2198
しろ	-10.2201
去	-10.2201
訴	-10.2204
一般	-10.2206
舞	-10.2213
成分	-10.2213
寝る	-10.2214
確	-10.2218
ばかりの	-10.2219
▁泥	-10.2221
迷	-10.2225
盗	-10.2232
たま	-10.2234
の人々	-10.2235
髪の毛	-10.2237
はあまり	-10.2237
老人	-10.2238
翻訳	-10.224
構え	-10.2241
航	-10.2243
貧乏	-10.2244
隠し	-10.2246
なす	-10.225
の手	-10.225
労	-10.225
行くこと	-10.2251
毎日	-10.2254
を払う	-10.2255
にすること	-10.2257
重要	-10.2259
本を	-10.226
厚い	-10.2261
欄	-10.2261
天候	-10.2266
細胞	-10.2266
終わり	-10.2267
染め	-10.2268
の色	-10.2269
ケーキ	-10.227
元素記号	-10.227
ものか	-10.227
踊り	-10.2272
500	-10.2272
60	-10.2273
集合	-10.2273
頭の	-10.2273
秘	-10.2274
います	-10.2276
勢いよく	-10.2277
病院	-10.2278
頭を	-10.2279
地に	-10.228
ワ	-10.2286
丘	-10.2288
将軍	-10.229
住宅	-10.2295
倒	-10.2296
向こう	-10.2298
▁一度	-10.2305
未来	-10.2307
2、3	-10.2314
の単位	-10.2314
ようになった	-10.2315
人生	-10.2317
大変	-10.2319
▁精神	-10.2319
成績	-10.232
提案	-10.2322
ひざ	-10.2324
標準	-10.2327
であるさま	-10.2327
物が	-10.2334
最後	-10.2335
▁オ	-10.2341
▁西	-10.2353
▁これで	-10.2354
くらい	-10.2354
灯火	-10.2355
そんなに	-10.2357
アメリカ	-10.236
個人	-10.2361
のないこと	-10.2362
布地	-10.2363
頭に	-10.2366
▁コーヒー	-10.237
ール	-10.2376
▁当	-10.2376
▁現	-10.2381
もとの	-10.2384
整理	-10.2388
▁追	-10.2394
はし	-10.2403
するために	-10.2406
まるで	-10.2407
残り	-10.2413
錠	-10.2418
▁陰	-10.2426
すみ	-10.2432
▁数	-10.2437
全然	-10.2437
の上で	-10.2439
▁機械	-10.2439
襲	-10.244
に従う	-10.2446
がき	-10.2449
雅	-10.2452
傘	-10.2453
祝い	-10.2453
の選手	-10.2454
会合	-10.2456
一度	-10.2457
急いで	-10.2457
ザ	-10.2458
が違う	-10.2459
▁角	-10.2461
坐	-10.2462
以来	-10.2462
公園	-10.2464
40	-10.2466
微笑	-10.2466
つつ	-10.247
▁焼き	-10.2472
ひげ	-10.2473
▁首	-10.2474
制限	-10.2477
▁いつも	-10.2478
軒	-10.248
あら	-10.2482
想像	-10.2482
予想	-10.2483
特定の	-10.2483
画家	-10.2487
▁彼女	-10.2493
留め	-10.2493
▁昔の	-10.2496
▁北	-10.2497
ゴ	-10.2499
の葉	-10.25
貝	-10.25
贈り物	-10.2501
の先	-10.2503
ところで	-10.2504
完成	-10.2505
ものではない	-10.251
ゴム	-10.2512
辞書	-10.2514
引く	-10.2517
▁道路	-10.2517
▁東京	-10.2519
こわ	-10.2521
損害	-10.2521
若者	-10.2522
仕事に	-10.2522
爆発	-10.2524
ボ	-10.2525
至	-10.2531
いかにも	-10.2532
してしまった	-10.2538
が早い	-10.2543
▁学生	-10.2545
▁遺	-10.2547
実行	-10.2548
いろ	-10.2552
しようと	-10.2555
てくれた	-10.2555
f	-10.2556
文法	-10.2559
くぎ	-10.2559
侮辱	-10.2566
倒れ	-10.2567
承知	-10.2578
を取って	-10.2583
青い	-10.2589
男子	-10.259
▁すぐれた	-10.259
▁遠	-10.2591
おじ	-10.2594
はじめ	-10.2596
いろいろの	-10.2596
刊	-10.2596
標	-10.2606
をかけ	-10.2614
形に	-10.2616
▁少し	-10.2617
▁荒	-10.2623
実力	-10.2624
驚いた	-10.2633
多年生植物	-10.2638
インド	-10.2642
艦	-10.2643
双	-10.2644
円形	-10.2645
否	-10.2648
▁在	-10.2655
銘	-10.2655
時代に	-10.2655
蓋	-10.2656
詠	-10.2657
泳ぎ	-10.2659
酸素	-10.266
損失	-10.2661
で行く	-10.2663
を買う	-10.2666
風景	-10.2668
組合	-10.2676
彼らは	-10.2683
いますか	-10.2687
▁一定の	-10.2689
y	-10.2692
行かない	-10.2696
をかけて	-10.2697
人と	-10.2698
ところだった	-10.2701
クラブ	-10.2703
監督	-10.2703
大きさ	-10.2706
▁過	-10.2707
▁ガス	-10.2708
条約	-10.2708
気質	-10.2708
▁劇	-10.271
保険	-10.2713
タバコ	-10.2715
終	-10.2716
かれ	-10.2719
▁サ	-10.272
珍しい	-10.2722
などから	-10.2723
いっしょに	-10.2723
切符	-10.2724
宇宙	-10.2727
ヨーロッパ	-10.2728
を見た	-10.2729
方が	-10.273
備え	-10.273
経営	-10.2732
ばら	-10.2733
▁私には	-10.2737
赤ん坊	-10.2738
ようと	-10.2738
ラジオ	-10.2739
敷	-10.274
をつく	-10.2741
に似て	-10.2741
いす	-10.2757
乾	-10.2759
要素	-10.2761
b	-10.2762
のことで	-10.2763
熟	-10.2768
▁私たちは	-10.2783
そり	-10.2784
権力	-10.2784
▁罪	-10.2784
▁廃	-10.2786
の強い	-10.2787
固	-10.2787
唱	-10.2787
文明	-10.2789
週	-10.279
呼ぶ	-10.2793
までの	-10.2794
▁夢	-10.2803
日本の	-10.2809
▁脱	-10.2813
運ぶ	-10.2815
現在	-10.2815
帆	-10.2815
世話	-10.2817
覧	-10.2822
の中を	-10.2825
はまったく	-10.2827
しかった	-10.2827
干し	-10.2829
しるし	-10.2829
治療	-10.2832
軽い	-10.2837
安全	-10.2837
っぽい	-10.2843
でいる	-10.2848
護	-10.2851
対象	-10.2853
に富む	-10.2858
に乗って	-10.2858
印象	-10.2858
児童	-10.2858
刑罰	-10.2859
少々	-10.2859
革命	-10.286
カード	-10.286
名詞	-10.286
強盗	-10.2861
通知	-10.2864
たて	-10.2871
眼鏡	-10.2872
だね	-10.2873
近い	-10.2876
はずれ	-10.2881
やめ	-10.2884
短	-10.2886
をつけること	-10.2887
一層	-10.289
寸	-10.2893
首を	-10.2894
皮膚	-10.2897
始める	-10.2898
錣	-10.2903
中心	-10.2906
合った	-10.2906
▁素	-10.2911
開き	-10.2911
のど	-10.2911
薬用	-10.2914
緑色	-10.2915
証明	-10.2916
▁余	-10.2917
物の	-10.2919
勤	-10.292
頭が	-10.292
▁母	-10.2921
種種の	-10.2931
流行	-10.2936
▁きわめて	-10.2938
▁若	-10.2939
ベッド	-10.2942
枕	-10.2943
律	-10.2943
ちょう	-10.2944
燃料	-10.2945
ほお	-10.2947
編集	-10.2949
等を	-10.2949
記事	-10.2956
▁肩	-10.2959
生涯	-10.2965
足を	-10.2967
電報	-10.2967
通し	-10.2969
女の子	-10.2972
に出かける	-10.2975
▁江戸時代	-10.2977
中央	-10.2978
あれ	-10.2978
▁アメリカ	-10.298
口に	-10.298
腐	-10.2983
▁しん	-10.2983
▁もし	-10.2984
筋肉	-10.2985
金持ち	-10.2988
そのもの	-10.2994
照	-10.2994
英国	-10.2999
せい	-10.3006
えり	-10.3008
ペン	-10.3009
とげ	-10.3009
上がった	-10.3015
しましょう	-10.3022
あわ	-10.3031
▁指	-10.3034
ゆく	-10.3036
覆い	-10.3037
▁端	-10.3037
婚	-10.3039
ぜ	-10.3042
坂	-10.3043
庁	-10.3044
勘	-10.3044
束	-10.3044
歴	-10.3054
▁駅	-10.3057
塊	-10.306
ディ	-10.3062
すなわち	-10.3062
レンズ	-10.3062
アルコール	-10.3062
友だち	-10.3062
よくない	-10.3063
暑さ	-10.3065
決意	-10.3065
▁通	-10.3066
封	-10.3066
再び	-10.3068
代わり	-10.3069
我々は	-10.3071
ひな	-10.3071
から成る	-10.3073
たく	-10.3077
からだ	-10.3078
相場	-10.3088
主人	-10.309
▁共	-10.3093
助け	-10.31
カー	-10.3101
大工	-10.3108
▁苦	-10.3109
象	-10.3113
結晶	-10.3115
負	-10.3118
不幸	-10.3122
ギ	-10.3125
はり	-10.3133
を打ち	-10.3139
趣	-10.3139
欠	-10.3141
かる	-10.3143
劇場	-10.3148
空間	-10.3149
なん	-10.315
正月	-10.315
蛇	-10.3152
▁共同	-10.3153
にかかる	-10.3154
に置く	-10.3159
における	-10.3162
原稿	-10.3164
生き	-10.3165
庭園	-10.3165
のもとに	-10.3167
カメラ	-10.3168
弓	-10.3168
住んでいる	-10.317
いくら	-10.3173
ビル	-10.3174
物に	-10.3174
ふく	-10.3176
丸く	-10.3176
幾ら	-10.3177
麻	-10.3177
風呂	-10.3178
生まれた	-10.3178
きわめて	-10.3179
懐	-10.3181
▁激しい	-10.3181
合わせて	-10.3182
粗	-10.3186
ロンドン	-10.3193
取ること	-10.3194
▁綿	-10.3198
果	-10.32
▁退	-10.3201
傾	-10.3201
触	-10.3202
をとって	-10.3203
加	-10.3205
どこか	-10.3206
止	-10.3207
泉	-10.3208
多数	-10.3209
▁鳥	-10.3209
現実	-10.3212
▁レ	-10.3214
府	-10.3217
求	-10.3218
あらし	-10.3218
▁政治	-10.322
意にも	-10.3224
文体	-10.3232
▁漢字の	-10.3241
はすべて	-10.3242
咲き	-10.3247
▁精	-10.3248
謀	-10.3249
住民	-10.325
述べる	-10.3252
▁代	-10.3254
流れる	-10.3254
ビール	-10.3255
壮	-10.3256
了	-10.3259
むだ	-10.3259
掌	-10.3262
謝	-10.3262
上で	-10.3264
分析	-10.3266
内閣	-10.3267
一体	-10.3268
▁ど	-10.3269
椅子	-10.327
クリーム	-10.327
瓦	-10.327
元素	-10.3271
協定	-10.3272
▁国民	-10.3274
飛行機	-10.3275
▁マ	-10.3282
着物	-10.3283
々に	-10.3289
暑	-10.3293
殺人	-10.3295
季節	-10.3298
▁結婚	-10.3301
▁四	-10.3305
歩くこと	-10.3307
▁荷	-10.3311
積み	-10.3312
発展	-10.3315
群	-10.3318
身に	-10.3321
▁あなた	-10.3322
心から	-10.3325
▁面	-10.3325
はね	-10.3325
不満	-10.3325
▁you	-10.3327
眠り	-10.3329
やみ	-10.3334
擦	-10.3334
の姿	-10.3336
兵士	-10.3336
▁末	-10.3341
はえ	-10.3344
▁町	-10.3344
人間の	-10.3345
はいつも	-10.3345
ジョーク	-10.3345
多い	-10.3346
を解く	-10.3349
ちょうど	-10.3352
らか	-10.3352
演劇	-10.3356
はなかった	-10.336
棚	-10.3362
切って	-10.3363
燃え	-10.3363
19	-10.3369
張る	-10.337
情勢	-10.3375
ですね	-10.3376
分類	-10.3383
セ	-10.3385
最初の	-10.3385
濃	-10.3386
ながめ	-10.3392
分野	-10.3394
進行	-10.3395
漬け	-10.3397
琴	-10.3403
名誉	-10.3406
すそ	-10.3407
告	-10.3408
頼み	-10.3408
直し	-10.3409
ベ	-10.341
回す	-10.3414
安い	-10.3419
得た	-10.3421
威	-10.3421
鍋	-10.3424
最	-10.3425
分子	-10.3429
専	-10.3435
▁右	-10.3437
半分	-10.3439
本当の	-10.344
佑	-10.3442
▁皆	-10.3445
遠く	-10.3448
事を言う	-10.3449
判決	-10.3453
の生活	-10.3453
停止	-10.3453
しきりに	-10.3454
事は	-10.3457
有名	-10.3458
身体	-10.3459
追	-10.346
買	-10.3463
▁陸	-10.3464
ほんの	-10.3465
振	-10.3465
紀	-10.3468
事項	-10.3477
丈	-10.3481
役に立たない	-10.3481
舛	-10.3481
白色	-10.3481
蝋	-10.3482
勤め	-10.3482
盛んな	-10.3482
寮	-10.3482
どんどん	-10.3483
ざっと	-10.3486
堅く	-10.3491
言い訳	-10.3493
簡単な	-10.3495
賃金	-10.3498
半ば	-10.3498
失敗した	-10.3505
休	-10.3506
の際	-10.351
鉢	-10.3514
水素	-10.3514
を受け	-10.3521
自慢	-10.3523
難しい	-10.3527
状に	-10.3527
りする	-10.3528
の高い	-10.353
の力	-10.353
議員	-10.3532
じゃ	-10.3539
▁人生の	-10.3541
▁エ	-10.3545
わない	-10.3547
それで	-10.3549
を知らない	-10.3555
示す	-10.3557
ですよ	-10.356
ついで	-10.3562
が多く	-10.3564
落ちた	-10.3566
早い	-10.357
部屋に	-10.357
を避ける	-10.3574
医師	-10.3578
▁急に	-10.358
を破る	-10.3581
▁今まで	-10.3583
たつ	-10.3584
を変える	-10.3592
衆	-10.3602
力を	-10.3603
▁合	-10.3605
似	-10.3606
▁普通	-10.3609
そのような	-10.3609
植	-10.361
が起こる	-10.3611
▁甘	-10.3616
ますます	-10.3617
わす	-10.3618
賊	-10.3621
シャツ	-10.3622
何でも	-10.3622
被害	-10.3622
脂	-10.363
倒す	-10.363
とおり	-10.363
の大きさ	-10.363
鉱	-10.3631
農	-10.3633
県	-10.3634
得点	-10.3637
つぼ	-10.3637
を求めて	-10.3637
柳	-10.3637
を作ること	-10.3642
継	-10.3643
相撲	-10.3645
弾丸	-10.3646
普通は	-10.3647
ところだ	-10.3647
平均	-10.3649
ここ	-10.3653
測	-10.3658
官庁	-10.3658
▁a	-10.3659
更	-10.366
すぐに	-10.3661
開く	-10.3662
立てた	-10.3671
祖	-10.3677
▁すぐ	-10.3678
成功する	-10.368
▁病	-10.3681
ナイフ	-10.3683
▁霊	-10.3684
少ない	-10.3687
持って	-10.3688
垣	-10.3688
羅	-10.3695
根拠	-10.3696
げた	-10.3696
第一	-10.3697
▁聞き	-10.3699
せずに	-10.3699
なわ	-10.37
糞	-10.37
掃除	-10.3701
200	-10.3701
期限	-10.3702
情況	-10.3702
協力	-10.3702
友情	-10.3703
ことができなかった	-10.3708
▁虫	-10.3709
必要な	-10.371
葬	-10.371
タン	-10.371
者の	-10.3711
役に立つ	-10.3713
向け	-10.3713
▁諸	-10.3715
最後の	-10.3718
学習	-10.3723
知らない	-10.3724
やっと	-10.3725
▁西洋	-10.3726
うす	-10.3727
▁泣き	-10.3727
新しく	-10.3729
時間の	-10.3731
の神	-10.3734
▁店	-10.3737
晴れ	-10.374
浅い	-10.374
▁流行	-10.3741
▁それで	-10.3741
おい	-10.3745
最高	-10.3747
ここに	-10.3747
c	-10.3749
▁結	-10.376
幹	-10.376
▁ひざ	-10.3761
人民	-10.3763
へい	-10.3764
連れ	-10.3778
を置く	-10.3782
▁あまり	-10.3784
▁突然	-10.3791
▁大統領	-10.3791
交換	-10.3794
数量	-10.3808
おう	-10.381
やや	-10.3818
織	-10.382
天皇	-10.3822
食う	-10.3822
やぶ	-10.3822
用具	-10.3827
行われる	-10.3828
低く	-10.3829
ゆっくり	-10.3846
ワイン	-10.3853
▁いかにも	-10.3855
尊	-10.3856
▁雲	-10.3858
くこと	-10.3859
猟	-10.386
ねじ	-10.3863
あるもの	-10.3867
定めた	-10.3869
▁壁	-10.3873
の男	-10.3876
がたい	-10.3879
▁英国	-10.3881
ひじ	-10.3881
聴衆	-10.3882
処	-10.3884
航海	-10.3885
禁	-10.3886
無用	-10.3891
数字	-10.3893
▁暗	-10.3895
面目	-10.3899
きめ	-10.3904
帰る	-10.3905
を掛ける	-10.3906
▁ハ	-10.3908
神社	-10.3909
に陥る	-10.3911
▁野球で	-10.3916
鈴	-10.3918
おもちゃ	-10.3922
▁to	-10.3922
ヌ	-10.3923
	-10.3923
玄関	-10.3923
推測	-10.3923
ことはできない	-10.3923
待遇	-10.3924
陸	-10.3925
っていない	-10.3925
欲望	-10.3926
解説	-10.3927
電波	-10.3932
合図	-10.3934
走った	-10.3938
かず	-10.3938
発言	-10.3938
▁洋	-10.3941
言えば	-10.3945
集まり	-10.3946
家屋	-10.3949
きまり	-10.395
分量	-10.3952
去る	-10.3957
が起こった	-10.3961
▁糸	-10.3961
の中心	-10.3964
にならない	-10.3965
聖	-10.397
尊敬	-10.397
人気	-10.3971
こん	-10.3971
地図	-10.3974
▁船が	-10.3976
西洋	-10.3977
できなかった	-10.3982
コース	-10.3988
したりする	-10.3988
ぬか	-10.3989
内の	-10.3993
だい	-10.3996
暦	-10.3998
到着	-10.401
いこと	-10.401
▁動物	-10.401
▁絵	-10.4014
▁石炭	-10.4015
をする人	-10.4019
呼吸	-10.4027
だれも	-10.4027
にあった	-10.4028
目的で	-10.403
を食う	-10.4032
恨み	-10.404
風の	-10.4044
したい	-10.4047
に入って	-10.4053
われた	-10.4058
つら	-10.4061
違反	-10.4065
泊	-10.4066
真っ	-10.4067
かつ	-10.4067
▁教育	-10.4068
まれる	-10.4068
を調べる	-10.4071
あなたの	-10.4078
状況	-10.4087
面積	-10.4087
▁竹	-10.4092
牛乳	-10.4096
かけて	-10.41
得る	-10.4107
発表	-10.4108
にいる	-10.4109
遺	-10.411
ほこり	-10.412
がついている	-10.4122
申し	-10.4124
自分が	-10.4126
掛かり	-10.4126
畳	-10.4127
決心	-10.4131
タイ	-10.4131
かま	-10.4134
借	-10.4134
兄弟	-10.4134
恐ろしい	-10.4135
駆け	-10.4138
鶏	-10.414
糖	-10.414
弁護士	-10.414
朱	-10.414
竜	-10.4141
僕は	-10.4141
勅	-10.4141
承	-10.4142
入った	-10.4142
負担	-10.4142
随	-10.4144
i	-10.4144
両親	-10.4145
世の中	-10.4146
好意	-10.4146
秩序	-10.4148
男の子	-10.4148
桃	-10.4149
くび	-10.4149
のお	-10.4149
餌	-10.415
看護婦	-10.415
闘争	-10.415
」(↓	-10.4151
衣装	-10.4152
概念	-10.4153
反射	-10.4154
りすること	-10.4157
石炭	-10.4157
を付ける	-10.4158
漁業	-10.4158
▁A	-10.4159
様式	-10.416
枯れ	-10.416
言う語	-10.416
政党	-10.4161
かばん	-10.4163
待つ	-10.4164
課程	-10.4164
▁破	-10.4167
▁経済	-10.4169
こんで	-10.417
地球	-10.4173
さや	-10.4175
警察	-10.4179
▁回	-10.4181
に暮らす	-10.4181
異なる	-10.4183
初夏	-10.4184
記者	-10.4188
の種	-10.4193
明日	-10.4196
違った	-10.4196
方に	-10.4197
原料	-10.4199
洗	-10.42
水面	-10.4201
に住んでいる	-10.4203
つまり	-10.4204
しわ	-10.4207
ひら	-10.4209
▁寒	-10.421
論理	-10.4212
職務	-10.4213
困る	-10.4216
だめ	-10.4216
決め	-10.4219
どうも	-10.4221
仕立て	-10.4223
特別	-10.4226
▁太陽	-10.4235
評価	-10.4238
の念	-10.424
太い	-10.4242
通じ	-10.4246
修理	-10.4249
▁警	-10.425
きれ	-10.4251
re	-10.4252
せよ	-10.4253
▁痛	-10.4256
浸	-10.4256
共	-10.4267
霧	-10.4267
えた	-10.4268
▁短	-10.427
▁矢	-10.4273
他人に	-10.428
▁宇宙	-10.4283
眠る	-10.4287
かえ	-10.4292
〇	-10.4295
隠れ	-10.4297
態度で	-10.4299
もつ	-10.43
立てて	-10.4301
にあたる	-10.4305
だれ	-10.4305
どの	-10.4307
▁残	-10.4313
▁ロンドン	-10.4321
何を	-10.4328
育	-10.433
改	-10.4331
嘆	-10.4336
躍	-10.4341
保	-10.4345
▁猫	-10.4349
淡	-10.435
諸国	-10.4352
暇	-10.4352
てん	-10.4354
をし	-10.4355
為	-10.4355
さず	-10.4355
▁潮	-10.4356
京	-10.4356
外交	-10.4356
欠席	-10.436
則	-10.4363
併	-10.4364
請求	-10.4364
往	-10.4365
きっと	-10.4365
あの人	-10.4366
大統領	-10.4367
見物	-10.4372
捨てる	-10.4372
関心	-10.4376
仕掛け	-10.4378
塵	-10.4378
はどう	-10.4381
食糧	-10.4382
残っている	-10.4382
唇	-10.4382
諒	-10.4383
爾	-10.4383
くちびる	-10.4383
官吏	-10.4384
改革	-10.4384
鉛	-10.4385
貯金	-10.4385
▁今は	-10.4386
名を	-10.4387
形勢	-10.4389
藩	-10.4389
批判	-10.439
見解	-10.4397
ほうがよい	-10.4397
らせ	-10.4399
▁床	-10.4399
証人	-10.4401
▁雄	-10.4401
基準	-10.4402
裸	-10.4404
中毒	-10.4407
▁飛行	-10.4409
仕事が	-10.4409
▁犬は	-10.441
目が	-10.4411
気の	-10.4413
の半分	-10.4419
さく	-10.4419
▁急いで	-10.4424
葉が	-10.4424
目つき	-10.4425
まれ	-10.4429
ところに	-10.443
▁浮き	-10.4431
石油	-10.4432
を通して	-10.4437
ック	-10.4438
読者	-10.4438
置く	-10.4439
物理	-10.444
大臣	-10.4446
▁君に	-10.4447
警官	-10.4447
▁間	-10.4447
特	-10.445
設けた	-10.445
静	-10.445
構成	-10.4451
催	-10.4451
▁安	-10.4451
つの	-10.4452
敵を	-10.4452
話が	-10.4454
としている	-10.4456
歓迎	-10.4457
ましい	-10.4458
死んで	-10.4459
▁細	-10.4459
▁命	-10.4461
両者	-10.447
時は	-10.447
の変化	-10.4473
みた	-10.4473
さい	-10.4477
顔に	-10.448
▁尻	-10.448
無し	-10.4487
▁黙	-10.4489
意見を	-10.449
装飾	-10.4495
▁だれも	-10.4496
そで	-10.45
供給	-10.4502
▁列車は	-10.4505
するように	-10.4506
▁彼女に	-10.4508
はら	-10.4518
衣類	-10.4519
完全に	-10.4521
存	-10.4524
▁せい	-10.4528
▁黄	-10.4528
▁職業	-10.4529
キー	-10.4532
▁心配	-10.4534
歩き	-10.4536
丈夫	-10.4536
おいて	-10.4538
屋敷	-10.4538
そっと	-10.4541
厚く	-10.4549
手術	-10.4554
▁メ	-10.4555
ーク	-10.4556
預	-10.4556
定め	-10.4556
その他	-10.4559
圧力	-10.4561
種子	-10.4565
事実を	-10.4565
してくれ	-10.4565
▁船の	-10.4565
無理	-10.4567
▁彼は私	-10.4568
忌	-10.4569
▁振り	-10.4569
気性	-10.457
野球	-10.4571
創	-10.4575
にお	-10.4582
私には	-10.4582
などにする	-10.4584
やら	-10.4588
すき	-10.4589
充分	-10.4591
▁家庭	-10.4592
男性	-10.4593
政権	-10.4594
用心	-10.46
の間で	-10.46
▁減	-10.4601
赤く	-10.4601
▁is	-10.4602
▁パン	-10.4602
烈	-10.4608
ったもの	-10.4609
▁ただ	-10.4611
一言	-10.4611
▁板	-10.4613
迷惑	-10.4615
権限	-10.4615
姿勢	-10.4616
髄	-10.4619
禄	-10.462
棟	-10.4621
フィルム	-10.4621
別に	-10.4621
スカート	-10.4621
承認	-10.4621
ホーム	-10.4621
▁漢字の偏	-10.4621
災害	-10.4622
を結ぶ	-10.4622
てくる	-10.4622
ちゃんと	-10.4624
区分	-10.4625
観察	-10.4625
つけること	-10.4627
自信	-10.4629
郵便	-10.463
療法	-10.4631
乱れ	-10.4632
▁波	-10.4632
女の	-10.4632
くだ	-10.4633
▁戦	-10.4633
代表	-10.4634
▁息	-10.4635
かえること	-10.4638
に基づいて	-10.464
大陸	-10.4642
世紀	-10.4644
を施す	-10.4644
行事	-10.4645
講義	-10.4647
わい	-10.4647
などに用いる	-10.4649
業務	-10.465
収穫	-10.4652
置いて	-10.4653
短く	-10.4655
現代	-10.4655
ことはない	-10.4656
ありません	-10.4658
近くに	-10.4659
りんご	-10.4659
わず	-10.4661
▁バ	-10.4662
なまり	-10.4665
堅い	-10.4666
▁英語	-10.4668
ひま	-10.467
卒業	-10.467
伸び	-10.467
夕方	-10.4671
大衆	-10.4672
なべ	-10.4675
が非常に	-10.4678
イギリス	-10.4683
消え	-10.4684
か月	-10.4684
小切手	-10.4685
;...	-10.4685
よかった	-10.4686
こちら	-10.4691
こっそり	-10.4704
の所	-10.4705
ショー	-10.4711
を切って	-10.4714
▁どうも	-10.4715
たん	-10.4717
信じ	-10.4717
緒	-10.4726
低い	-10.4729
▁これが	-10.4733
▁七	-10.4742
ではなかった	-10.4745
明け	-10.4745
のまま	-10.4746
の働き	-10.4748
▁まあ	-10.4753
の意味	-10.4754
届け	-10.4755
まれた	-10.4757
▁帰	-10.4761
続ける	-10.4761
しょう	-10.4764
と思って	-10.478
は今	-10.4781
沈	-10.4782
作法	-10.4783
招待	-10.4783
切れない	-10.4784
▁毒	-10.4794
すぐれていること	-10.4806
られていた	-10.4814
▁尊	-10.4814
の地	-10.4816
の端	-10.482
▁商売	-10.4824
▁将来	-10.4826
主な	-10.4827
授業	-10.483
一緒に	-10.4834
森	-10.4837
帝	-10.4837
父親	-10.4838
化合物	-10.4839
▁電	-10.4843
胆	-10.4844
わずか	-10.4845
宅	-10.4848
しばらく	-10.4851
むら	-10.4852
▁万事	-10.4852
季	-10.4852
と彼女は	-10.4853
実現	-10.4853
に当たって	-10.4853
▁天皇	-10.4854
おもしろい	-10.4854
審	-10.4857
湾	-10.4857
▁そんなに	-10.4859
隣	-10.4861
芋	-10.4865
功績	-10.4865
往復	-10.4865
境遇	-10.4865
の俗称	-10.4865
観測	-10.4866
ホール	-10.4866
同盟	-10.4866
農民	-10.4867
機能	-10.4867
延	-10.4868
によく	-10.4871
テープ	-10.4871
いなかった	-10.4872
わる	-10.4872
家を	-10.4873
専門	-10.4875
編み	-10.4875
内で	-10.4876
▁満	-10.4879
果実	-10.4883
の長さ	-10.4884
へび	-10.4884
濁	-10.4888
意図	-10.4894
拝	-10.4897
寄せる	-10.4901
あま	-10.4902
on	-10.4908
あげ	-10.4908
独	-10.4909
降る	-10.4911
稲	-10.4911
無い	-10.4912
奴	-10.4913
索	-10.4914
▁科学	-10.4914
あなたに	-10.4917
股	-10.4917
太鼓	-10.4918
共に	-10.4918
与	-10.4919
▁せん	-10.492
まさに	-10.492
を始める	-10.4922
まつ	-10.4922
出血	-10.4923
乾燥	-10.4923
恐怖	-10.4926
▁脳	-10.493
これは	-10.4935
に属する	-10.4936
宝石	-10.4936
事の	-10.4938
所で	-10.4939
使って	-10.4939
切手	-10.4939
▁けん	-10.4941
詞	-10.4942
唐	-10.4942
くずれ	-10.4944
▁物を	-10.4945
着る	-10.4947
同意	-10.495
州の人	-10.4952
▁火事	-10.4957
区別	-10.4959
▁スポーツ	-10.4963
敬	-10.4978
r	-10.4979
はしない	-10.4979
足で	-10.4981
△□	-10.4983
貴	-10.4986
順序	-10.499
は全く	-10.4992
▁宗教	-10.4996
しようとする	-10.4996
▁落	-10.4999
▁二つの	-10.5003
▁けい	-10.5007
締める	-10.5007
出入り	-10.501
虎	-10.5014
つもり	-10.5015
事だ	-10.5017
手形	-10.5019
首相	-10.502
を知る	-10.5022
その問題	-10.5024
▁人と	-10.5025
産物	-10.5025
粋	-10.5029
▁軽い	-10.5034
足りない	-10.504
となっている	-10.5047
につれて	-10.5049
てしまう	-10.5056
参加	-10.506
ロー	-10.506
通す	-10.5062
同時に	-10.5062
渡る	-10.5067
許可	-10.5075
を通す	-10.5075
徴	-10.5075
京都	-10.5076
園	-10.5084
過ぎて	-10.5091
述	-10.5094
名簿	-10.5094
途中で	-10.5095
どうして	-10.5095
築	-10.5098
犠牲	-10.5099
卒	-10.5101
むく	-10.5103
▁米国の	-10.5104
腓	-10.5105
旋	-10.5106
欧	-10.5109
u	-10.511
しょ	-10.5112
参り	-10.5113
を通じて	-10.5113
沼	-10.5114
栓	-10.5115
オーバー	-10.5115
すばやく	-10.5115
	-10.5115
ing	-10.5115
観念	-10.5117
あります	-10.5117
加工	-10.5117
討ち	-10.5119
るさま	-10.512
障子	-10.512
いつまでも	-10.5121
事物	-10.5122
高木	-10.5123
ええ	-10.5126
形態	-10.5127
どおり	-10.5127
どちら	-10.5128
▁円	-10.5137
厳	-10.5143
日間	-10.5148
投手	-10.515
あぶら	-10.5151
がって	-10.5152
p	-10.5153
背中	-10.5154
統一	-10.5154
らないこと	-10.5156
通る	-10.516
基	-10.5161
▁一般	-10.5163
提	-10.5163
特徴	-10.5167
細かく	-10.5167
ばらばら	-10.5169
▁橋	-10.5172
▁彼女には	-10.5173
負ける	-10.5175
▁どうぞ	-10.5177
と読む	-10.5179
のり	-10.5179
上から	-10.5182
刺	-10.5186
易	-10.5192
そら	-10.5192
軍人	-10.5193
政治家	-10.5195
h	-10.5196
してはいけない	-10.5201
理想	-10.5202
昆虫	-10.5202
自ら	-10.5202
あご	-10.5204
開け	-10.5204
承諾	-10.5205
美術	-10.5206
それと	-10.5207
▁きのう	-10.5209
をつくる	-10.5209
造り	-10.5211
酔	-10.5214
死後	-10.5216
▁少年は	-10.5218
所得	-10.5221
ではなく	-10.5221
▁純	-10.5226
までは	-10.5227
らしく	-10.5228
▁議論	-10.5228
その他の	-10.5228
▁南	-10.5228
▁彼と	-10.5237
▁舞台	-10.5238
を全部	-10.524
致	-10.524
▁銀行	-10.5241
まゆ	-10.5244
読書	-10.5245
▁テレビ	-10.5246
がわからない	-10.5248
しかた	-10.5248
おし	-10.5259
クロ	-10.5264
今の	-10.5271
▁音楽	-10.5275
▁十	-10.5277
漏	-10.5278
以後	-10.5279
日本人	-10.528
▁いろいろな	-10.528
表面	-10.5286
不注意	-10.5286
吸い	-10.5292
不思議	-10.5292
項	-10.5293
の代わりに	-10.5294
▁輪	-10.5296
主君	-10.5298
が大きい	-10.5305
たりする	-10.5308
域	-10.5309
やろう	-10.531
表す	-10.531
になるだろう	-10.5315
さお	-10.5315
▁居	-10.532
▁風が	-10.532
関連	-10.5321
会話	-10.5323
コン	-10.5327
なめ	-10.533
怠	-10.5333
採	-10.5337
惨	-10.5338
卓	-10.5339
バター	-10.5341
家が	-10.5341
ひとりで	-10.5342
▁彼は彼女の	-10.5344
合っている	-10.5348
私も	-10.5349
惑	-10.5349
たか	-10.5349
司	-10.5349
借金	-10.5352
止める	-10.5355
母親	-10.5359
まく	-10.536
気味	-10.5362
停	-10.5362
やま	-10.5363
を出した	-10.5364
ふり	-10.5365
しっかり	-10.5366
塀	-10.5366
飼い	-10.5368
笋	-10.537
盆	-10.537
符号	-10.5371
レストラン	-10.5371
たっぷり	-10.5371
遒	-10.5371
サービス	-10.5371
K	-10.5371
僂	-10.5371
爆弾	-10.5372
〕↓	-10.5372
わけにはいかない	-10.5372
思わず	-10.5372
インチ	-10.5373
黒く	-10.5373
原理	-10.5374
世の	-10.5374
太刀	-10.5374
▁とう	-10.5375
仕方	-10.5375
越す	-10.5376
ぜん	-10.5377
事務所	-10.5377
種類が多い	-10.5377
職員	-10.5378
を図る	-10.5379
▁買い	-10.538
ぼろ	-10.5381
兵器	-10.5383
きれいな	-10.5383
フィート	-10.5393
果物	-10.5395
その仕事	-10.5396
木材	-10.5398
連合	-10.5399
しまい	-10.5402
言葉で	-10.5404
▁遊	-10.5405
▁検	-10.5407
作ること	-10.5412
利子	-10.5415
ならない	-10.5418
生活の	-10.5424
たより	-10.5428
目で	-10.5431
並べ	-10.5435
ピン	-10.5437
無事	-10.5438
▁父	-10.5439
▁復	-10.5445
申し出	-10.5448
▁その本は	-10.5448
部下	-10.5448
▁乱	-10.5449
の方が	-10.545
の事	-10.5454
武	-10.5454
少しずつ	-10.5454
▁ズボン	-10.5455
茶色	-10.5456
ども	-10.5465
の様子	-10.5465
止まる	-10.5467
跳び	-10.5472
▁副	-10.5473
もらう	-10.5476
▁相	-10.5476
たくない	-10.5477
に自生する	-10.5478
江戸	-10.5478
襟	-10.5479
▁航空	-10.5479
スープ	-10.5483
侍	-10.5484
厳しい	-10.5486
きびしい	-10.5487
如	-10.5491
鳴らす	-10.5492
昨日	-10.5493
階段	-10.5493
野原	-10.5494
を聞いて	-10.5497
警	-10.5498
▁門	-10.5499
がなくて	-10.5499
替える	-10.5502
起こり	-10.5502
式の	-10.5504
心地	-10.5505
続いて	-10.5506
副	-10.5508
々と	-10.5509
待	-10.5511
すわる	-10.5511
みて	-10.5511
がありますか	-10.5514
おお	-10.5518
たくさんの	-10.5519
格好	-10.552
体は	-10.5523
しゃべる	-10.5525
▁こういう	-10.553
を防ぐ	-10.5533
見えない	-10.5535
▁ばら	-10.5536
▁銅	-10.5537
ほうが	-10.554
ぼく	-10.5541
託	-10.5542
著	-10.5542
話し	-10.5544
納める	-10.5547
▁食い	-10.5549
漢字	-10.5549
あわせ	-10.555
ート	-10.5554
三味線	-10.5555
全身	-10.5557
▁悪い	-10.5561
後の	-10.5565
をかく	-10.5567
幾	-10.5568
▁ロ	-10.5571
世間の	-10.5572
などのため	-10.5572
は彼に	-10.5572
度の	-10.5573
▁友人	-10.5575
ってきた	-10.5578
現場	-10.558
一年生植物	-10.5583
十二	-10.5588
▁激	-10.5596
俳句	-10.5597
一致	-10.5597
▁善	-10.5606
部屋を	-10.5608
を覚える	-10.5608
に出	-10.561
が長く	-10.5613
憂	-10.5614
障	-10.5615
ネクタイ	-10.5616
軌道	-10.5617
住所	-10.5618
靴討い	-10.5619
しました	-10.5619
セット	-10.5624
▁外国	-10.5626
まあ	-10.5626
無色	-10.5627
体裁	-10.5628
碑	-10.5628
驚く	-10.5629
立って	-10.5629
麗	-10.5631
縞	-10.5633
蜂	-10.5634
妹	-10.5634
鼎	-10.5634
認識	-10.5634
モデル	-10.5634
わり	-10.5634
染料	-10.5635
せりふ	-10.5635
故障	-10.5635
機構	-10.5635
通貨	-10.5636
操作	-10.5637
討論	-10.5637
▁あらゆる	-10.5638
▁広	-10.5638
伝説	-10.5641
力がある	-10.5641
平たい	-10.5642
むしろ	-10.5645
▁気が	-10.5647
子供を	-10.5651
散歩	-10.5653
活	-10.5655
によれば	-10.5657
大小	-10.5658
残った	-10.5659
勝つ	-10.566
の底	-10.566
ふき	-10.566
使うこと	-10.5664
▁神社	-10.5666
だて	-10.5667
l	-10.5667
かれる	-10.5668
▁人から	-10.567
利益を	-10.5671
おかしい	-10.5678
何とか	-10.5679
ないさま	-10.5682
移	-10.569
一回	-10.5692
▁霧	-10.5693
景色	-10.5697
自殺	-10.5701
身なり	-10.5702
途中	-10.5704
がたくさん	-10.571
山の	-10.5712
を入れ	-10.5713
誓い	-10.5713
の中から	-10.5714
開発	-10.5715
用語	-10.5724
▁百	-10.5728
を争う	-10.5732
をやめる	-10.5734
はどんな	-10.5742
かじ	-10.5744
その時	-10.5744
白色の	-10.5745
戦い	-10.5746
風俗	-10.5747
を感じる	-10.5748
がつかない	-10.5753
ニューヨーク	-10.5753
会社の	-10.5753
はず	-10.5754
検	-10.5758
▁舌	-10.5758
電線	-10.576
▁夫婦	-10.576
おど	-10.5762
を含む	-10.5765
にわたる	-10.5767
酢	-10.5767
テスト	-10.5767
行政	-10.5768
多少	-10.5769
大名	-10.5771
名前を	-10.5771
蚕	-10.5771
眉	-10.5772
▁船は	-10.5775
幸運	-10.5776
わざと	-10.5776
残る	-10.578
守り	-10.578
▁市	-10.5781
かしら	-10.5782
復	-10.5783
灰色	-10.5783
農業	-10.5785
奉	-10.5786
▁少しも	-10.5789
天下	-10.5789
まん	-10.5801
まだら	-10.5802
言え	-10.5802
考えて	-10.5804
固く	-10.5806
よごれ	-10.5812
渡り	-10.5813
直線	-10.5813
後で	-10.5814
▁自分で	-10.5814
沈黙	-10.5815
速く	-10.5816
浪	-10.5817
あう	-10.5818
最大の	-10.5819
張った	-10.5822
退屈	-10.5823
貨	-10.5823
渡す	-10.5832
はほとんど	-10.5833
きん	-10.5836
わか	-10.5838
せない	-10.5839
以前	-10.5841
さけ	-10.5841
ていて	-10.5842
統	-10.5843
つい	-10.5848
扇	-10.5849
言葉を	-10.585
落とし	-10.5852
なさま	-10.5852
が一番	-10.5854
の裏	-10.5854
▁秘密	-10.5855
▁画	-10.5856
▁いや	-10.5857
僕の	-10.5859
▁山の	-10.5865
▁しゃ	-10.5865
我々	-10.5866
安定	-10.5868
住み	-10.5869
書くこと	-10.587
を食べる	-10.5871
顔をする	-10.5873
飲食	-10.5873
▁ある事	-10.5873
人人	-10.5873
騒ぎ	-10.5876
ベル	-10.588
▁虚	-10.5881
こんだ	-10.5881
三角形	-10.5882
伴	-10.5883
の内容	-10.5885
比べ	-10.5889
雇	-10.589
援	-10.5896
尿	-10.5897
酷	-10.5901
鹿	-10.5901
姉	-10.5902
奮	-10.5903
摂	-10.5903
蜜	-10.5904
予防	-10.5904
錦	-10.5904
峰	-10.5904
雰囲気	-10.5904
支出	-10.5904
雀	-10.5904
槍	-10.5904
滝	-10.5904
侵入	-10.5904
支配	-10.5905
に違いない	-10.5905
射撃	-10.5906
旧称	-10.5907
絶えず	-10.5907
紙幣	-10.5907
朝廷	-10.5908
残らず	-10.5909
疑	-10.5909
ちり	-10.5909
ります	-10.5909
曲芸	-10.5909
▁折り	-10.5909
一家	-10.5911
を好む	-10.5912
企て	-10.5913
に見える	-10.5913
制御	-10.5913
ふろ	-10.5917
を落とす	-10.5922
▁表	-10.5922
鉄砲	-10.5922
車輪	-10.5923
▁事実	-10.593
食堂	-10.593
ぐら	-10.593
あけ	-10.5936
デ	-10.5936
を抱く	-10.5936
バック	-10.5943
歩いた	-10.5943
子ども	-10.5948
聞こえる	-10.595
びる	-10.5952
彼には	-10.5956
痛い	-10.5956
▁乾	-10.5957
社員	-10.5957
を捨てる	-10.5957
ふた	-10.5959
にはいること	-10.5964
の表面	-10.5965
▁かい	-10.5965
彼ら	-10.5966
期日	-10.5967
でもない	-10.5967
だす	-10.5969
▁アン	-10.5969
色が	-10.5975
低	-10.5976
▁奥	-10.5982
▁心臓	-10.5983
一切の	-10.5984
うけ	-10.5984
気に	-10.5987
▁危険	-10.599
アップ	-10.5993
物資	-10.5993
黄色の	-10.5993
▁商業	-10.5995
するための	-10.5995
てる	-10.5996
ねえ	-10.5996
▁金銭	-10.5999
を決める	-10.6001
▁物事	-10.6002
むき	-10.6005
たまえ	-10.6008
程度の	-10.6008
されていた	-10.601
台所	-10.6012
所有	-10.6013
▁長い	-10.6016
はずれた	-10.6017
▁玉	-10.6018
掛	-10.6023
の肉	-10.6026
外部	-10.6027
鉱物	-10.6028
花が	-10.6031
悪事	-10.6034
自然に	-10.6035
ポケット	-10.6037
男の	-10.6039
消化	-10.6041
▁個人	-10.6042
過ぎた	-10.6042
とその	-10.6045
▁彼女は彼の	-10.6045
食べた	-10.6048
▁戸	-10.6048
供	-10.6051
の人たち	-10.6051
暴	-10.6054
を知っている	-10.6056
常に	-10.606
が足りない	-10.6062
俗に	-10.6063
物や	-10.6068
g	-10.6068
を招く	-10.607
絶対に	-10.6072
さか	-10.6072
肝	-10.6072
選択	-10.6074
はかりごと	-10.6075
合わせた	-10.6079
表面に	-10.6079
細長く	-10.6079
事に	-10.608
がきく	-10.6081
分けて	-10.6086
くれる	-10.6088
レコード	-10.6089
時から	-10.6089
体操	-10.6091
遠慮	-10.6092
▁布	-10.6094
海岸	-10.6095
前もって	-10.6096
▁機	-10.6096
診	-10.6098
てはいけない	-10.6103
国際	-10.6106
ますよ	-10.6106
場合に	-10.6115
スター	-10.6117
のび	-10.6119
もり	-10.6119
発明	-10.612
寄る	-10.6122
義理	-10.6123
特有の	-10.6123
珍	-10.6126
仏教で	-10.6129
両手	-10.613
利害	-10.6131
▁優	-10.6133
▁彼はまだ	-10.6133
花は	-10.6134
扱う	-10.6134
▁そのような	-10.6138
で彼の	-10.6141
分解	-10.6147
原産	-10.6148
なか	-10.615
読むこと	-10.615
▁テニス	-10.6151
のあたり	-10.6153
を待つ	-10.6153
高度	-10.6154
を聞く	-10.6154
▁散	-10.6156
彼女を	-10.6156
▁あんな	-10.6158
喜んで	-10.6158
誤解	-10.6162
膳	-10.6164
折れ	-10.6168
担	-10.6172
とじ	-10.6174
鎖	-10.6175
くい	-10.6175
▁さい	-10.6176
▁借金	-10.6177
配当	-10.6177
潔	-10.6178
よろしい	-10.6178
投資	-10.618
圏	-10.6181
憤	-10.6181
遺伝	-10.6181
ランプ	-10.6181
丹	-10.6182
枠	-10.6182
逐	-10.6182
	-10.6182
つながり	-10.6182
やさしい	-10.6182
交替	-10.6182
絵の具	-10.6183
理屈	-10.6183
疾	-10.6183
設計	-10.6183
ベルト	-10.6184
関節	-10.6185
証言	-10.6186
▁禁	-10.6187
柔らかい	-10.6188
最後まで	-10.6189
足が	-10.6189
視線	-10.619
▁冗談	-10.619
口から	-10.6193
▁普通の	-10.6195
干	-10.6195
食欲	-10.6195
ぶち	-10.6195
合計	-10.6199
いけ	-10.6199
水中に	-10.62
▁平和	-10.6201
困った	-10.6202
にしている	-10.6203
頼む	-10.6203
みずから	-10.6203
感心	-10.621
といって	-10.6211
きれいに	-10.6213
▁星	-10.6213
混乱	-10.6214
無知	-10.6218
与えられた	-10.6218
インク	-10.6219
明るく	-10.622
ボート	-10.6222
ねん	-10.6223
らぬ	-10.6228
▁窓	-10.6228
▁リ	-10.6231
移り	-10.6236
あとに	-10.6237
完全な	-10.6239
上げた	-10.624
すきま	-10.6241
行うこと	-10.6243
飲食物	-10.6243
はいない	-10.6244
▁ばか	-10.6246
味方	-10.625
候補者	-10.6251
日光	-10.6251
とめる	-10.6253
▁絶	-10.6256
▁生き	-10.6256
けて	-10.6257
たばこ	-10.626
一年	-10.6262
用紙	-10.6264
リン	-10.6265
仏教	-10.6266
手足	-10.6266
あや	-10.6268
見かけ	-10.6269
だという	-10.627
うんと	-10.6271
▁毛	-10.6274
申	-10.6275
没	-10.6277
っか	-10.6279
石を	-10.628
▁たくさんの	-10.628
その仕事を	-10.6284
売る	-10.6285
本当	-10.6286
ものは	-10.6287
勝手に	-10.6287
▁シ	-10.6288
集まって	-10.629
お礼	-10.6292
金属製の	-10.6298
あせ	-10.6303
いま	-10.6304
▁至	-10.6307
つや	-10.6309
▁民	-10.631
草木	-10.632
踏	-10.6326
事件の	-10.6327
瞬間	-10.6327
航空機	-10.6328
うれしい	-10.6328
絵画	-10.6329
二人	-10.6329
▁最	-10.6334
▁岩	-10.6335
ったら	-10.6338
を加えて	-10.634
自転車	-10.6341
▁直接	-10.6343
宴会	-10.6347
▁商	-10.6348
捕	-10.6357
▁敵の	-10.6357
お金	-10.636
体長	-10.636
の利益	-10.6362
▁補	-10.6362
を選ぶ	-10.6363
即	-10.6364
渋	-10.6372
以前に	-10.6377
▁ピアノ	-10.638
等級	-10.6381
武器	-10.6382
魅力	-10.6382
者を	-10.6386
貫	-10.6388
生きている	-10.639
集まる	-10.639
浮き	-10.6391
詰める	-10.6392
最近	-10.6395
凍	-10.6397
になると	-10.6399
じり	-10.6399
暮	-10.6402
いつでも	-10.6403
▁元	-10.6407
を得た	-10.6409
フェ	-10.641
しまう	-10.6411
を出すこと	-10.6411
パリ	-10.6412
貸	-10.6412
かれた	-10.6414
幾つかの	-10.6414
に備えて	-10.6415
需要	-10.6415
しゃれ	-10.6421
▁人口	-10.6421
細菌	-10.6422
氏の	-10.6425
考	-10.6425
そういうもの	-10.643
を加え	-10.643
心理	-10.643
低木	-10.6432
人柄	-10.6437
獄	-10.6438
理由で	-10.6438
彼らの	-10.6439
慢	-10.6442
の値段	-10.6442
よそ	-10.6443
▁銃	-10.6444
博士	-10.6445
過ごす	-10.6445
▁愚	-10.6445
委員	-10.6447
めがね	-10.6447
はずだ	-10.6448
のところ	-10.6449
▁利	-10.6449
私たち	-10.6449
ペ	-10.645
日本語	-10.6452
向かい	-10.6453
をかけた	-10.6453
録音	-10.6453
瓶	-10.6455
進んだ	-10.6458
井	-10.6458
▁底	-10.646
どのくらい	-10.6461
喪	-10.6467
腺	-10.6467
紺	-10.6467
津	-10.6467
硬貨	-10.6468
操縦	-10.6468
沙	-10.6468
顕微鏡	-10.6468
紛争	-10.6468
技能	-10.6469
塗料	-10.6469
を持ち	-10.6469
更に広く	-10.647
はさみ	-10.647
廊下	-10.647
だいぶ	-10.647
教訓	-10.647
▁知識	-10.6472
対策	-10.6472
鳴く	-10.6472
▁現金	-10.6472
▁多くの人	-10.6472
過失	-10.6473
市民	-10.6473
公衆	-10.6475
うるさい	-10.6476
見識	-10.648
っていること	-10.648
となり	-10.6483
外の	-10.6484
のあまり	-10.6485
米国	-10.6486
合格	-10.6491
本能	-10.6491
作戦	-10.6491
さまざまな	-10.6491
▁その家は	-10.6497
天体	-10.6501
伝染病	-10.6501
確かに	-10.6502
消	-10.6503
▁会社	-10.6505
ありさま	-10.6506
及ぶ	-10.6506
▁どの	-10.6506
しめる	-10.6507
▁身分	-10.6507
▁緑	-10.6509
明かり	-10.6517
を感じた	-10.6517
なければならなかった	-10.6521
罪人	-10.6522
に会う	-10.6528
の女	-10.6529
すい	-10.6531
したら	-10.6531
原子	-10.6533
▁運動	-10.6533
▁絶対	-10.6535
▁地球	-10.6535
▁流	-10.6536
こい	-10.6536
夕	-10.6539
今まで	-10.6541
▁国内	-10.6544
▁車の	-10.6544
こめ	-10.6546
現れ	-10.6547
▁彼は私を	-10.6548
ぬき	-10.6549
男女	-10.655
受けた	-10.6557
を描く	-10.6559
の後	-10.656
▁縦	-10.6561
小鳥	-10.6566
の終わり	-10.6567
80	-10.6567
▁あの人	-10.6569
▁現在	-10.6573
の長	-10.6576
▁防	-10.6576
▁歴史	-10.6578
日が	-10.658
その家	-10.658
しているさま	-10.6581
もん	-10.6581
▁要	-10.6581
人格	-10.6582
悔	-10.6582
私たちに	-10.6586
の跡	-10.6588
してきた	-10.6589
述べること	-10.6592
▁家の	-10.6595
そこで	-10.6595
るだろう	-10.6597
事をする	-10.6598
最高の	-10.6599
漏れ	-10.6602
殺し	-10.6603
きわ	-10.6605
沖	-10.6606
水分	-10.6606
倒れた	-10.6607
昔の	-10.6609
主義者	-10.661
を利用して	-10.6616
が立つ	-10.6619
その計画	-10.6622
ゲ	-10.6624
招	-10.6625
▁ニューヨーク	-10.6631
合わない	-10.6635
地上	-10.6638
を売る	-10.6643
備	-10.6645
主題	-10.6648
16	-10.665
左右に	-10.6651
必要がある	-10.6651
▁夕食	-10.6651
ぶどう酒	-10.6651
語る	-10.6652
を見せる	-10.6653
ぶっ	-10.6654
点で	-10.6654
なみ	-10.6655
▁空気	-10.6657
動機	-10.6658
見本	-10.6659
執	-10.6659
ほしい	-10.666
染み	-10.6664
責任を	-10.6665
の夜	-10.6666
▁私はその	-10.6673
もう一度	-10.6674
を要求する	-10.6674
しばしば	-10.6679
わく	-10.6679
失敗する	-10.6681
▁微	-10.6683
▁仕事を	-10.6684
栄	-10.6687
贈	-10.669
ふう	-10.669
行列	-10.6692
▁刀	-10.6694
が私の	-10.6695
計略	-10.6699
平面	-10.6702
被	-10.6703
かぜ	-10.6707
C	-10.6709
▁こん	-10.6711
泥棒	-10.6713
何とも	-10.6714
楽しい	-10.6716
不運	-10.6717
▁すっかり	-10.6717
争	-10.6726
▁過去	-10.6729
▁献	-10.673
▁核	-10.673
いち	-10.6734
社長	-10.6735
塗	-10.6735
全員	-10.6735
問題を	-10.6735
▁ゴルフ	-10.6737
悲しい	-10.6737
新たに	-10.6739
いけない	-10.6743
測定	-10.6743
活字	-10.6745
論じ	-10.6747
以上に	-10.6748
▁だれが	-10.675
賀	-10.675
比較	-10.6751
還	-10.6751
ついている	-10.6753
斑	-10.6754
介	-10.6754
▁法律	-10.6754
稿	-10.6754
リズム	-10.6757
均	-10.6759
貨物	-10.676
とすること	-10.6761
棺	-10.6761
ほぼ	-10.6761
ヨ	-10.6761
ユーモア	-10.6762
佞	-10.6762
硫酸	-10.6762
太平洋	-10.6762
ごちそう	-10.6762
保存	-10.6762
飲料	-10.6763
寿命	-10.6763
幕府	-10.6763
酔い	-10.6763
代名詞	-10.6765
腕を	-10.6766
考えを	-10.6769
結合	-10.6769
結論	-10.677
体温	-10.6771
配達	-10.6774
質の	-10.6775
美味	-10.6775
有名な	-10.6777
生ずる	-10.6777
に反する	-10.6778
鳴	-10.6779
ときに	-10.6779
飲	-10.6782
まして	-10.6784
▁旅行	-10.6784
遊女	-10.6785
以外に	-10.6786
▁その時	-10.6786
刃物	-10.6787
彫り	-10.6788
幸い	-10.6788
が出た	-10.6791
済	-10.6792
景気	-10.6796
かつて	-10.6797
法則	-10.6798
裁	-10.68
はなかなか	-10.6801
は彼	-10.6801
て来た	-10.6802
一部	-10.6802
国会	-10.6805
お客	-10.6807
弱い	-10.6807
廻	-10.6807
て下さい	-10.6808
みず	-10.681
世間に	-10.6813
筋道	-10.6818
▁冷	-10.6823
らずに	-10.6823
仕上げ	-10.6823
浴	-10.6825
かわり	-10.6833
▁天皇の	-10.6834
すか	-10.6834
▁官	-10.6835
げに	-10.6835
一同	-10.6836
速力	-10.6838
横に	-10.6842
打って	-10.6843
▁絹	-10.6845
今日	-10.6845
はっきりと	-10.6846
物理学	-10.6849
体力	-10.6851
▁富	-10.6851
入れること	-10.6851
作者	-10.6853
に行って	-10.6853
飛ばす	-10.6853
ちっとも	-10.6857
▁屋根	-10.6861
▁英	-10.6863
苦痛	-10.6863
にわたって	-10.6864
相当	-10.6864
大変な	-10.6865
白髪	-10.6865
手紙を	-10.6868
混ぜ	-10.6869
知る	-10.6873
へ行って	-10.6875
着陸	-10.6875
▁最後の	-10.6876
人情	-10.6876
込むこと	-10.6878
まっすぐに	-10.6878
応	-10.6881
に入れて	-10.6882
態度が	-10.6885
の程度	-10.6887
授	-10.6895
出ること	-10.6895
世辰	-10.6898
実際	-10.6899
▁あれ	-10.6899
▁進	-10.69
の前で	-10.6901
しお	-10.6901
▁ここ	-10.6902
出かける	-10.6902
▁種	-10.6903
続	-10.6906
顔色	-10.6909
時間を	-10.6915
あれこれと	-10.6916
▁麦	-10.6916
▁加	-10.6919
売れ	-10.6922
▁もと	-10.6924
垂	-10.6927
ねば	-10.693
音声	-10.693
任垢	-10.6932
懸	-10.6934
光線	-10.6935
をつかむ	-10.6937
つとめ	-10.6941
▁煙	-10.6942
次第	-10.6944
たび	-10.6945
夏の	-10.6945
げん	-10.6946
の目	-10.6951
並	-10.6952
▁列車	-10.6956
静かな	-10.6956
死者	-10.6956
非常	-10.6965
なくなること	-10.6967
▁増	-10.6968
▁しゅう	-10.6969
▁党	-10.697
寄付	-10.697
木の	-10.697
ねずみ	-10.6976
で書く	-10.6978
▁髪を	-10.6978
▁試	-10.6978
小型の	-10.6982
雨が	-10.6984
で働く	-10.6985
が大きく	-10.6988
著者	-10.6988
暮れ	-10.6988
仰	-10.6994
育て	-10.6997
崩	-10.6999
まくら	-10.7002
冗談	-10.7002
▁事務	-10.7003
わしい	-10.7004
を定める	-10.7005
脂肪	-10.7006
くも	-10.7006
▁打ち	-10.7008
どき	-10.701
の位置	-10.7013
は我々の	-10.7013
過去	-10.7015
が長い	-10.7015
結構	-10.7016
縫	-10.7017
反対の	-10.7019
▁えん	-10.7024
当たる	-10.7026
つぶ	-10.7035
を見ると	-10.7036
滴	-10.7037
に行う	-10.7038
巡	-10.7041
駆	-10.7044
豚	-10.7044
ふる	-10.7045
ばた	-10.7045
▁このような	-10.705
うま	-10.7052
マッチ	-10.7054
下げる	-10.7054
核	-10.7055
弊	-10.7055
▁釣り	-10.7057
つらい	-10.7057
恵	-10.7057
ているさま	-10.7058
民主	-10.7059
宣	-10.7059
▁父は	-10.706
禍	-10.706
を集める	-10.706
▁政府	-10.7061
▁タクシー	-10.7061
偶然	-10.7061
繰り	-10.7061
及ばない	-10.7062
塞	-10.7063
手本	-10.7063
慶	-10.7063
話した	-10.7063
叙	-10.7064
ってしまう	-10.7064
嚢	-10.7064
摩	-10.7064
楼	-10.7064
虐	-10.7065
よろしく	-10.7065
鶴	-10.7065
缺	-10.7065
	-10.7065
独占	-10.7065
描写	-10.7065
ゴルフ	-10.7065
セント	-10.7066
300	-10.7066
業績	-10.7066
古くから	-10.7066
宿泊	-10.7067
統制	-10.7067
空中	-10.7067
限界	-10.7067
座敷	-10.7068
めぐり	-10.7068
気を	-10.707
便利	-10.707
行儀	-10.707
刷り	-10.707
綴じ	-10.707
立ち上がる	-10.7071
箇所	-10.7073
議長	-10.7073
筆跡	-10.7073
どうぞ	-10.7074
干渉	-10.7074
虚	-10.7076
車両	-10.7077
上昇	-10.7078
油断	-10.7081
▁渋	-10.7082
官職	-10.7084
▁身体	-10.7084
すぐれている	-10.7086
ではありません	-10.7087
▁漁	-10.7087
▁ここから	-10.7091
予約	-10.7094
▁ちょっとした	-10.7098
伏	-10.7101
に住み	-10.7102
迷い	-10.7102
▁他人	-10.7103
▁縁	-10.7104
小形の	-10.7107
敵に	-10.7109
鉱石	-10.7109
のたとえ	-10.7109
▁混	-10.7112
走者	-10.7112
▁霜	-10.7113
芸術家	-10.7113
火山	-10.7114
実際の	-10.7114
召	-10.7115
安心	-10.7117
▁食	-10.7118
独立	-10.7118
冷え	-10.7119
▁秘	-10.712
甘	-10.713
時間に	-10.7132
資産	-10.7134
進むこと	-10.7135
▁昼	-10.7135
事柄を	-10.7138
後ろに	-10.7139
品質	-10.7139
温泉	-10.7139
の差	-10.714
ング	-10.7141
不思議な	-10.7143
賭け	-10.7145
まわる	-10.7148
黒色	-10.7151
対照	-10.7154
方がいい	-10.716
長いこと	-10.7161
一種の	-10.7163
をたたく	-10.7167
▁妻	-10.7168
を失った	-10.7169
抜ける	-10.7174
移動	-10.7177
▁当時	-10.7179
糸を	-10.7184
今は	-10.7184
うみ	-10.7185
そうする	-10.7185
▁彼ら	-10.7185
生活を送る	-10.7186
隠	-10.7186
幸せ	-10.7187
のような形	-10.7189
いくつ	-10.7193
を止める	-10.7194
科の落葉高木	-10.7197
ごう	-10.7198
おき	-10.7198
がついた	-10.7199
ようとした	-10.72
ミリ	-10.7203
▁どちら	-10.7204
識	-10.7205
優	-10.7205
最大	-10.7206
坊	-10.7209
根性	-10.7209
けること	-10.721
を誤る	-10.7211
現在の	-10.7214
スタ	-10.7214
なもの	-10.7215
なぐる	-10.7216
成立	-10.7218
その言葉	-10.7221
▁仕事の	-10.7223
▁行き	-10.7226
抱	-10.7226
物品	-10.723
驚き	-10.7231
あらわ	-10.7234
四方	-10.7236
側の	-10.7244
▁彼はもう	-10.7244
壁に	-10.7249
を研究する	-10.725
回った	-10.7251
▁郵便	-10.7251
ならず	-10.7252
にあう	-10.7253
終わった	-10.7253
運送	-10.7254
▁書き	-10.7255
ものです	-10.7256
述べた	-10.7261
終わる	-10.7261
姿を	-10.7263
の水	-10.7264
設	-10.7268
を踏む	-10.7269
入って	-10.727
吹く	-10.7271
まずい	-10.7277
仮	-10.7282
だらけの	-10.7283
フル	-10.7284
▁卑	-10.7287
▁世間の	-10.7288
以外	-10.7289
ぬく	-10.7295
▁ほ	-10.7296
▁次の	-10.7297
ばね	-10.7298
あげた	-10.7299
上下	-10.73
詰	-10.7301
数値	-10.7301
丸い	-10.7303
書いてある	-10.7306
を果たす	-10.7306
午後	-10.7308
やつだ	-10.7309
のとおり	-10.731
領土	-10.7315
おこる	-10.7316
▁ビール	-10.7317
樹木	-10.732
▁僕	-10.732
異常	-10.7323
力士	-10.7327
祝	-10.7328
▁卵	-10.7328
あん	-10.7329
成長	-10.733
ばし	-10.7334
ドアを	-10.7336
上がって	-10.7337
所へ	-10.734
震	-10.7343
▁はん	-10.7343
浅	-10.7344
影響	-10.7344
決断	-10.7346
含	-10.7346
ぱっと	-10.7346
存在する	-10.7348
▁裸	-10.7349
を追って	-10.7353
庫	-10.7353
するため	-10.7354
権威	-10.7357
兵隊	-10.7358
は実に	-10.7359
▁地震	-10.7361
のようなもの	-10.7363
勤勉	-10.7365
譜	-10.7365
どころ	-10.7366
すごい	-10.7367
倉	-10.7367
共同	-10.7368
沢	-10.7369
▁神経	-10.7369
▁質	-10.737
破壊	-10.737
療	-10.7372
▁女性	-10.7372
人や	-10.7372
循環	-10.7372
ミルク	-10.7373
きなさい	-10.7374
審議	-10.7375
並び	-10.7375
していて	-10.7375
惜	-10.7375
▁生産	-10.7375
並ぶ	-10.7376
著作	-10.7376
範	-10.7377
述べ	-10.7377
罎	-10.7377
妊	-10.7377
椎	-10.7378
溝	-10.7378
磴	-10.7378
"	-10.7378
アジア	-10.7378
訂正	-10.7378
束縛	-10.7378
診察	-10.7378
やたらに	-10.7378
オレンジ	-10.7379
救助	-10.7379
保管	-10.7379
給与	-10.738
味わい	-10.738
▁バス	-10.7381
牢	-10.7381
合唱	-10.7382
童	-10.7382
っても	-10.7382
をかき	-10.7382
入場	-10.7383
水準	-10.7383
しゃく	-10.7384
▁顔	-10.7384
党派	-10.7385
前提	-10.7385
喜劇	-10.7385
アフリカ	-10.7385
群衆	-10.7386
べる	-10.7386
教員	-10.7386
▁被	-10.7386
疎	-10.7386
なま	-10.7388
どれ	-10.7388
請	-10.7389
男女が	-10.7389
気温	-10.7391
ウイスキー	-10.7394
付属	-10.7394
十分な	-10.7395
言わない	-10.7395
風習	-10.7395
献	-10.7395
健	-10.7395
掻き	-10.7396
図書館	-10.7397
項目	-10.7397
ジョン	-10.7398
ませた	-10.7398
バラ	-10.7399
買う	-10.74
確実な	-10.74
言ったこと	-10.7401
曲線	-10.7403
鈍	-10.7404
岩石	-10.7405
粘土	-10.7405
▁それには	-10.741
例外	-10.7411
暖かい	-10.7412
缶	-10.7412
テニス	-10.7413
無礼	-10.7413
▁研究	-10.7414
を発する	-10.7414
電灯	-10.7417
臣下	-10.7418
仮名	-10.7419
読んだ	-10.7421
を鳴らす	-10.7421
非常な	-10.7423
親切に	-10.7424
大事な	-10.7424
らせた	-10.7425
いていた	-10.7426
郊外	-10.7429
▁そんなこと	-10.7431
がみ	-10.7432
▁なぜ	-10.7434
赤色	-10.7434
財産を	-10.7435
▁スキー	-10.7436
少	-10.7437
st	-10.7437
らせて	-10.7437
▁がん	-10.7439
威力	-10.7439
じて	-10.7439
一面	-10.744
を重ねる	-10.7441
死亡	-10.7441
▁新しく	-10.7442
家柄	-10.7443
面会	-10.7443
集中	-10.7446
風流	-10.7447
やってみる	-10.745
70	-10.745
たな	-10.745
▁牛乳	-10.7451
火薬	-10.7452
あうこと	-10.7455
▁松	-10.7456
▁故	-10.7456
支持	-10.7456
他方	-10.7457
不正	-10.7458
傾斜	-10.7458
集会	-10.7462
に言う	-10.7465
たりして	-10.7466
てしまうこと	-10.7468
三つ	-10.747
付きの	-10.7473
たれ	-10.7473
▁巨	-10.7475
ごま	-10.7476
▁運	-10.7481
▁名誉	-10.7481
かたく	-10.7482
の土地	-10.7482
発生	-10.7485
鉛筆	-10.7487
一点	-10.7487
ティー	-10.7489
いました	-10.7489
▁座	-10.749
カル	-10.7491
▁立派な	-10.7492
▁デ	-10.7495
与える	-10.7498
こつ	-10.7499
所を	-10.7501
やけ	-10.7502
明るい	-10.7502
▁あらし	-10.7502
不平	-10.7504
▁100	-10.7505
に生える	-10.7506
迎え	-10.7508
打撃	-10.7512
ませる	-10.7514
指を	-10.7517
全体の	-10.7525
わかり	-10.7526
としても	-10.7527
に必要な	-10.7529
が強く	-10.7531
常識	-10.7532
地点	-10.7536
▁鬼	-10.7537
病人	-10.754
大体	-10.7542
えない	-10.7546
▁労働	-10.7547
▁いつ	-10.7549
▁安全	-10.7552
ックス	-10.7553
▁雌	-10.7554
消し	-10.7554
▁せき	-10.7558
科目	-10.7559
出された	-10.7564
▁自分が	-10.7566
▁歌	-10.7566
▁権力	-10.7567
最後に	-10.7568
▁室内	-10.7577
前から	-10.7578
燃える	-10.7582
歌う	-10.7582
チャ	-10.7583
▁墓	-10.7583
春の	-10.7585
確かな	-10.7587
▁棒	-10.7595
上り	-10.7598
▁学校の	-10.7598
についている	-10.7598
丈夫な	-10.7599
引っ	-10.7602
▁人生	-10.7606
▁じょう	-10.7606
を捕える	-10.7608
□□	-10.7608
▁ちょうど	-10.7608
行こう	-10.761
責	-10.7614
▁先生は	-10.7615
嫌い	-10.7617
客の	-10.7618
矛盾	-10.7621
確か	-10.7623
君が	-10.7625
否定	-10.7625
つもりだ	-10.7625
構	-10.7627
既に	-10.7627
二度と	-10.7637
生まれつき	-10.7638
せた	-10.764
▁死に	-10.7641
形は	-10.7644
まと	-10.7646
辞職	-10.7647
資料	-10.7649
埋め	-10.765
ところがある	-10.7651
してやる	-10.7655
煩	-10.7655
単	-10.7657
ろうとする	-10.7658
ざら	-10.7662
難い	-10.7664
▁温	-10.7666
▁順	-10.7666
とまる	-10.7671
帝国	-10.7674
▁義	-10.7675
の問題	-10.7675
離婚	-10.7675
騷ぎ	-10.7675
彩	-10.7676
桜	-10.7676
▁午後	-10.7677
縛	-10.7678
将校	-10.7682
重大	-10.7685
熱い	-10.7686
余地	-10.7687
裁判官	-10.7688
孔	-10.769
大切な	-10.7691
却	-10.7692
▁農業	-10.7693
先の	-10.7693
訪	-10.7693
めし	-10.7693
見せる	-10.7695
に過ぎない	-10.7696
呪	-10.7697
焼いた	-10.7698
発行する	-10.7698
の話	-10.7698
されない	-10.7698
を欠く	-10.7698
相続	-10.7699
叫ぶ	-10.7699
捜査	-10.7699
貌	-10.7699
あきらめ	-10.77
▁ぼう	-10.77
ハンカチ	-10.77
▁議長	-10.77
ごたごた	-10.77
娯楽	-10.77
偉大な	-10.77
屬	-10.77
くちばし	-10.77
居る	-10.7701
証券	-10.7701
悩み	-10.7701
ろうそく	-10.7702
示すこと	-10.7702
わし	-10.7702
▁コン	-10.7702
農場	-10.7704
こみ	-10.7704
▁道理	-10.7704
はるかに	-10.7704
獲物	-10.7706
運び	-10.7706
坊主	-10.7706
執行	-10.7707
々しい	-10.7707
狂言	-10.7709
▁暴	-10.771
▁偏	-10.7712
を作り	-10.7712
念仏	-10.7712
面白い	-10.7713
を失って	-10.7715
平らな	-10.7716
▁だれでも	-10.7717
ぞっとする	-10.7718
敵の	-10.7718
を洗う	-10.7718
目録	-10.7718
戦術	-10.772
不在	-10.772
あめ	-10.772
投	-10.7721
まめ	-10.7723
単語	-10.7723
むずかしい	-10.7724
軽蔑	-10.7724
ブラ	-10.7725
駄	-10.7731
弱点	-10.7731
あげよう	-10.7733
家は	-10.7735
母音	-10.7735
を出し	-10.7735
語句	-10.7736
を読む	-10.7736
当てる	-10.7737
いやな	-10.7738
は私	-10.7738
▁配	-10.7738
じん	-10.7739
むち	-10.7739
のうちに	-10.7739
とく	-10.774
ロープ	-10.7742
きびしく	-10.7744
危機	-10.7744
けない	-10.7744
小川	-10.7744
幼児	-10.7744
所帯	-10.7744
もみ	-10.7746
仁	-10.7746
その場に	-10.7749
お願い	-10.7749
脇	-10.7751
O	-10.7751
爪	-10.7752
演ずる	-10.7754
▁きゅう	-10.7756
▁狂	-10.7756
18	-10.7757
預金	-10.7757
消す	-10.7758
財政	-10.776
自己	-10.7762
なぐり	-10.7762
乱暴な	-10.7763
雑草	-10.7764
に多い	-10.7764
あさ	-10.7767
のなか	-10.7767
▁土地	-10.7768
▁その子は	-10.7769
▁最高	-10.7771
ほめ	-10.7772
ふけ	-10.7772
穀物	-10.7776
両端	-10.7776
濃い	-10.7778
談話	-10.7778
無罪	-10.778
第三	-10.7781
山脈	-10.7782
。「―	-10.7783
訴え	-10.7783
動かす	-10.7785
を吹く	-10.7786
▁能	-10.7788
容易に	-10.7789
などによって	-10.779
の出来事	-10.7791
ものがある	-10.7792
▁動物の	-10.7792
▁涙	-10.7793
に出す	-10.7795
▁文学	-10.7795
水路	-10.7796
▁粉	-10.7797
が来る	-10.7798
変え	-10.7801
音節	-10.7804
以前の	-10.7811
縮	-10.7812
▁すばらしい	-10.7813
木綿	-10.7814
フランス語	-10.7817
▁だれか	-10.7822
っておく	-10.7824
映	-10.7829
▁猿	-10.7829
墓	-10.7832
▁激しく	-10.7833
しかない	-10.7835
感動	-10.7837
上手	-10.7843
▁印刷	-10.7844
国を	-10.7848
こり	-10.7854
▁長く	-10.7855
成功した	-10.7855
んです	-10.7856
生え	-10.7857
▁寸	-10.7864
耳に	-10.7865
せり	-10.7865
▁自動車の	-10.7866
もしない	-10.7866
不意	-10.7869
気譴	-10.787
押	-10.7872
▁全身	-10.7876
片方	-10.7884
符	-10.7884
生地	-10.7885
はわからない	-10.7887
みぞ	-10.7888
然たる	-10.789
返すこと	-10.7891
▁超	-10.7894
されること	-10.7894
かに	-10.7894
▁ヨーロッパ	-10.7899
ロン	-10.7905
かけている	-10.7905
をとった	-10.7912
▁後ろ	-10.792
捜し	-10.7921
の小	-10.7923
認められる	-10.7923
知った	-10.7923
ed	-10.7923
書いて	-10.7926
宣伝	-10.7929
残念	-10.793
スーツ	-10.793
材は	-10.793
クリスマス	-10.7931
勝手	-10.7934
有様	-10.7936
するような	-10.7936
私たちの	-10.7939
につき	-10.794
▁インド	-10.7944
▁工場	-10.7949
▁葉	-10.795
が好きだ	-10.795
効	-10.7951
なぞ	-10.7952
月に	-10.7954
下ろす	-10.7956
へ行った	-10.7961
大きいこと	-10.7961
鳴り	-10.7962
は彼を	-10.7965
▁煮	-10.7967
時間が	-10.7967
美しさ	-10.7968
考えが	-10.7968
▁あなたが	-10.7969
その知らせ	-10.7969
▁いろいろの	-10.7969
きて	-10.797
だんだん	-10.7972
を用いて	-10.7975
宮中	-10.7978
の関係	-10.798
立っていた	-10.798
代理	-10.7985
向きの	-10.7987
ゆう	-10.7988
▁犬	-10.7988
しないように	-10.799
▁他の	-10.7991
まとまり	-10.7994
こま	-10.7999
▁参	-10.8
の間の	-10.8
えん	-10.8001
▁トムは	-10.8002
不明	-10.8002
トム	-10.8006
ぴったり	-10.8008
曲がった	-10.8013
もらった	-10.8014
調和	-10.8016
▁露	-10.8017
▁家族	-10.8017
呼び名	-10.8018
おれ	-10.8021
おいで	-10.8022
はできない	-10.8023
▁彼はこの	-10.8024
の縁	-10.8025
うちの	-10.8025
▁化学	-10.8026
遣い	-10.8027
▁雷	-10.8028
忍	-10.8028
書簡	-10.8028
旨	-10.8028
▁生命	-10.803
鼓	-10.803
陸地	-10.8031
吏	-10.8031
公務員	-10.8031
紊	-10.8032
に沿って	-10.8033
ストライキ	-10.8033
Г	-10.8033
兇	-10.8033
婿	-10.8033
▁of	-10.8034
陳述	-10.8034
樹脂	-10.8034
しつこく	-10.8034
欠陥	-10.8034
わざわい	-10.8034
教科書	-10.8034
どうにか	-10.8034
及び	-10.8034
グラス	-10.8035
陶器	-10.8035
ゴール	-10.8035
辞典	-10.8035
社交	-10.8036
技師	-10.8036
編成	-10.8037
補給	-10.8037
工夫	-10.8037
照明	-10.8037
分裂	-10.8038
最終	-10.8038
働いて	-10.8039
仮定	-10.8039
順番	-10.8042
間違っている	-10.8042
帳面	-10.8043
害虫	-10.8043
親しみ	-10.8045
正午	-10.8048
ができた	-10.8053
やってきた	-10.8054
髪を	-10.8056
▁福	-10.8058
洗う	-10.8058
もっとも	-10.8058
ちょっとした	-10.806
出される	-10.806
がち	-10.8061
ダース	-10.8061
牛肉	-10.8061
それから	-10.8062
体制	-10.8063
くわ	-10.8064
一行	-10.8065
包	-10.8072
▁墨	-10.8076
部品	-10.8077
遅れて	-10.808
通りに	-10.8082
一枚	-10.8083
ですが	-10.8085
出する	-10.8086
読んで	-10.8093
については	-10.8095
靴下	-10.8096
いくらか	-10.8098
危険な	-10.8099
を塗る	-10.8103
部門	-10.8103
覚	-10.8103
上げて	-10.8107
上等	-10.8107
菊	-10.8108
知り	-10.8108
だけだ	-10.8108
陽気	-10.8111
これで	-10.8113
と思っている	-10.8115
じゅう	-10.8117
こわい	-10.8117
▁都市	-10.8118
90	-10.8119
に手を	-10.8119
さなかった	-10.8122
野心	-10.8122
▁厳	-10.8124
▁台風	-10.8124
を計る	-10.8126
▁財産	-10.8126
人数	-10.8126
腕前	-10.8127
前途	-10.8128
ぎわ	-10.8128
天才	-10.8129
ふだん	-10.813
じょう	-10.8131
られなかった	-10.8135
なっていた	-10.8135
結婚式	-10.8137
があれば	-10.814
先例	-10.8142
▁終	-10.8144
中国の	-10.8145
法案	-10.8145
重大な	-10.8146
ときの	-10.8146
我々に	-10.8146
資	-10.8148
口論	-10.815
を助ける	-10.8152
ことをする	-10.8154
を進める	-10.8156
しっかりした	-10.8159
繭	-10.816
聞かせ	-10.8161
とれる	-10.8162
とど	-10.8163
あお	-10.8163
遅れる	-10.8164
年代	-10.8164
まわること	-10.8165
物価	-10.8166
盲	-10.8167
で売る	-10.8169
夜明け	-10.817
の空	-10.8171
口実	-10.8171
はち	-10.8172
方向に	-10.8176
▁ちょう	-10.8177
が必要だ	-10.818
れん	-10.8182
わん	-10.8185
遅れた	-10.819
のもと	-10.8194
▁投	-10.8195
▁写真	-10.8195
申し上げます	-10.8196
座席	-10.8197
▁皮膚	-10.8198
天子	-10.8198
あとで	-10.8201
床に	-10.8203
納め	-10.8207
本来	-10.8208
固めた	-10.8208
▁米国	-10.8215
居住	-10.8218
根本	-10.8219
と一緒に	-10.822
優勝	-10.822
▁目の	-10.8223
の低い	-10.8226
ゆき	-10.8229
▁怒り	-10.8231
観客	-10.8231
▁なん	-10.8232
▁炭	-10.8236
指図	-10.8237
の材料	-10.8241
っくり	-10.8242
りっぱな	-10.8245
を指す	-10.8245
回転	-10.8247
四つ	-10.8248
外れ	-10.8249
出かけ	-10.8249
ぶる	-10.825
黙って	-10.8251
輸出	-10.8253
トラック	-10.8254
▁ふた	-10.8255
▁旗	-10.8257
絶え	-10.8257
それぞれの	-10.8258
▁太	-10.8259
うず	-10.8259
▁ガラス	-10.8259
違	-10.8261
っきり	-10.8261
時などに	-10.8265
さずに	-10.8269
察	-10.8269
▁その事	-10.8271
吐	-10.8273
っています	-10.8273
その結果	-10.8274
用いる	-10.8274
づく	-10.8276
指定	-10.8278
三度	-10.8283
さる	-10.8284
いじ	-10.8288
ありますか	-10.8289
のころ	-10.8293
下手	-10.8294
▁池	-10.8294
▁京都	-10.8295
いないこと	-10.8297
邪魔	-10.8299
等が	-10.8303
閉	-10.8304
どこで	-10.8306
▁節	-10.8308
ード	-10.8309
誠実	-10.8311
抗議	-10.8313
アパート	-10.8315
土台	-10.8315
▁中国	-10.8316
あぶ	-10.8316
▁彼女は彼	-10.8317
ましょうか	-10.8317
望む	-10.8318
▁利益	-10.8318
合うこと	-10.8321
させない	-10.8324
届	-10.8324
を用いる	-10.8327
に入った	-10.8327
カン	-10.8327
秘密を	-10.8328
▁言語	-10.833
以	-10.8332
裂	-10.8333
▁武	-10.8337
ュ	-10.8338
問い	-10.8338
▁鈍	-10.8339
おどし	-10.8342
換	-10.8343
四角	-10.8343
めでたい	-10.8345
睡眠	-10.8349
区画	-10.835
結ぶ	-10.835
天皇の	-10.835
うっとり	-10.8352
に関して	-10.8352
衛	-10.8354
況	-10.8355
の基礎	-10.8355
処理する	-10.8355
に着く	-10.8358
を少し	-10.836
永	-10.836
▁婦人	-10.8362
水道	-10.8366
にふける	-10.8369
看板	-10.8371
とること	-10.8372
は決して	-10.8373
何時	-10.8373
を作った	-10.8375
防止	-10.8375
蝶	-10.8375
喜ぶ	-10.8376
瀬	-10.8376
キャ	-10.8377
まない	-10.8377
某	-10.8377
よろい	-10.8377
ばち	-10.8377
顕	-10.8378
変わって	-10.8378
艇	-10.8378
聯	-10.8378
梁	-10.8378
壺	-10.8378
ハムレット	-10.8378
瑠	-10.8378
器械	-10.8378
璽	-10.8378
科の海魚	-10.8378
タイプライター	-10.8378
陶磁器	-10.8378
休憩	-10.8379
陳列	-10.8379
を救う	-10.8379
封筒	-10.8379
解雇	-10.838
圧迫	-10.838
んこ	-10.838
体験	-10.8381
注意して	-10.8381
ようやく	-10.8381
ライン	-10.8382
うら	-10.8383
忠実	-10.8384
いって	-10.8388
頭痛	-10.839
針金	-10.8391
観音	-10.8392
仕切り	-10.8392
敬称	-10.8393
▁胴	-10.8395
間もなく	-10.8396
布団	-10.8397
▁戦闘	-10.8397
出勤	-10.8401
手先	-10.8401
ラー	-10.8401
▁建築	-10.8402
ほうがいい	-10.8403
まもなく	-10.8404
うわ	-10.8404
▁二重	-10.8406
を呼ぶ	-10.8406
▁クロ	-10.8409
特別の	-10.841
感ずる	-10.8414
雌	-10.8417
あぶない	-10.8417
▁ボート	-10.8418
を受けること	-10.8418
題目	-10.8419
▁大いに	-10.842
複雑な	-10.8422
知らせる	-10.8423
指導者	-10.8423
重量	-10.8424
紙を	-10.8427
柔らかく	-10.843
占め	-10.8431
敷き	-10.8432
▁接	-10.8432
めん	-10.8433
不良	-10.8433
すべきだ	-10.8433
正しく	-10.8435
0	-10.8437
▁うまい	-10.8438
▁盲	-10.8439
ばい	-10.8445
▁心の	-10.8446
飽き	-10.8447
をうまく	-10.8447
会う	-10.8448
をふるう	-10.8451
つくり	-10.8453
の方向	-10.8453
多数の	-10.8454
施	-10.8456
道楽	-10.8461
▁子供たちは	-10.8468
免	-10.847
身の上	-10.8479
最初	-10.8479
▁ベ	-10.8481
手袋	-10.8481
明らかに	-10.8484
▁心に	-10.8484
説き	-10.8486
大会	-10.8486
を明らかにする	-10.8486
▁懐	-10.8486
縫う	-10.8487
書いたもの	-10.8488
のほうが	-10.8488
空想	-10.8489
腹が	-10.8491
プレー	-10.8492
▁元気	-10.8493
邪	-10.8494
刑務所	-10.8495
周囲	-10.8495
夕食	-10.8498
を越えて	-10.8498
ある事	-10.8501
▁教会	-10.8502
来ること	-10.8503
品物を	-10.8504
序	-10.8505
有効	-10.8506
科の常緑高木	-10.8511
▁ロケット	-10.8511
漫	-10.8511
地獄	-10.8512
失礼	-10.8514
ろうと	-10.8515
理性	-10.8516
の面	-10.8516
超	-10.8517
▁押し	-10.8517
▁登山	-10.8517
蚊	-10.8519
小型	-10.852
ほん	-10.8523
をあげて	-10.8523
乗る	-10.8523
近代	-10.8524
先生の	-10.8525
室内	-10.8526
をもち	-10.8529
ティ	-10.853
太郎	-10.853
くち	-10.853
▁帯	-10.8531
かのように	-10.8531
礼服	-10.8534
ひく	-10.8535
妙な	-10.8538
最初に	-10.8539
定められた	-10.8542
▁浮	-10.8551
▁寺	-10.8553
やく	-10.8555
は彼女の	-10.8555
▁世界の	-10.8557
▁約束	-10.8558
平等	-10.8558
▁雨が	-10.856
発射	-10.8561
状態にある	-10.8563
引け	-10.8564
情報を	-10.8568
もなかった	-10.8568
ばん	-10.8569
▁女の	-10.8569
聞いた	-10.857
▁軍隊	-10.8571
衰え	-10.8575
処分	-10.8578
を行うこと	-10.858
程度が	-10.8582
▁弓	-10.8583
▁医学	-10.8585
歌い	-10.8585
えび	-10.8586
境界	-10.8589
11	-10.8589
の動き	-10.859
▁うちの	-10.8593
高熱	-10.8593
爆	-10.8594
昇	-10.8597
▁選	-10.8598
が少ない	-10.8599
を取り除く	-10.8602
通行	-10.8605
木に	-10.8607
アル	-10.8607
旅行する	-10.8607
のもとで	-10.8611
おしゃべり	-10.8611
精力	-10.8612
の光	-10.8618
▁ゴム	-10.8618
てい	-10.8622
賢	-10.8622
は何も	-10.8623
方へ	-10.8624
和歌	-10.8624
▁戦い	-10.8624
あげること	-10.8626
女性の	-10.8628
を引いて	-10.8629
代金	-10.8629
そのことを	-10.8632
の絵	-10.8634
起こす	-10.8636
を立てて	-10.8639
に打ち	-10.8642
黙	-10.8643
頼	-10.8646
▁君主	-10.8647
だし	-10.8648
実物	-10.865
のそばに	-10.8651
とらえる	-10.8653
刺し	-10.8656
騒	-10.8657
当局	-10.8657
国語	-10.866
をもっている	-10.866
器物	-10.8662
最低	-10.8664
のち	-10.8664
焦	-10.8664
▁三つ	-10.8669
▁集団	-10.8672
はっきりしない	-10.8678
▁私に	-10.868
年月	-10.8682
胸に	-10.8682
に設けた	-10.8683
くそ	-10.8688
▁硬	-10.8688
▁中間	-10.8689
指揮	-10.8691
いで	-10.8693
助言	-10.8695
加減	-10.8698
一節	-10.87
支払い	-10.8701
▁短い	-10.8705
つきの	-10.8706
報酬	-10.8707
負傷	-10.8709
悟	-10.8711
▁パリ	-10.8712
▁全く	-10.8712
がまだ	-10.8716
揺れる	-10.8717
けば	-10.8717
見通し	-10.8717
拡大	-10.8717
の性質	-10.8717
環	-10.8718
頂上	-10.8719
廷	-10.8719
願います	-10.8721
▁村	-10.8722
がよくない	-10.8722
便宜	-10.8722
se	-10.8723
財布	-10.8723
わずかに	-10.8723
柔	-10.8724
▁毎日	-10.8726
をとること	-10.8726
気圧	-10.8727
渡した	-10.8727
にかかわる	-10.8728
陶	-10.8728
皮肉	-10.8728
つれ	-10.8728
滞	-10.8728
▁降	-10.8728
洗たく	-10.873
あがった	-10.873
お父さん	-10.873
を持った	-10.8731
原則	-10.8731
▁ドア	-10.8732
拳	-10.8733
膿	-10.8734
▁わら	-10.8734
妄	-10.8735
ショック	-10.8735
味噌	-10.8735
冒	-10.8735
どっち	-10.8735
汚染	-10.8735
塾	-10.8735
従業員	-10.8735
博物館	-10.8735
熊	-10.8735
纏	-10.8735
グループ	-10.8735
うろこ	-10.8735
狼	-10.8735
貯蔵	-10.8736
覚悟	-10.8736
殺到	-10.8736
対抗	-10.8736
泳ぐ	-10.8736
警備	-10.8737
経歴	-10.8737
御用	-10.8737
志願	-10.8737
を起こさせる	-10.8737
街路	-10.8738
書斎	-10.8738
ばり	-10.8738
汽車	-10.8738
策略	-10.8739
香料	-10.8739
接近	-10.8739
人の心	-10.8739
法規	-10.874
内臓	-10.8741
命題	-10.8743
曇り	-10.8744
ドン	-10.8746
さげ	-10.8746
指輪	-10.8747
▁彼は彼女	-10.8747
わからなかった	-10.8748
▁その男は	-10.8748
へん	-10.8749
囲い	-10.875
女房	-10.875
基地	-10.8751
土砂	-10.8751
鱗	-10.8751
化した	-10.8752
現われた	-10.8752
学術	-10.8754
釮呂	-10.8754
けい	-10.8755
ために使う	-10.8756
局面	-10.8757
神聖な	-10.8757
ができない	-10.8758
の量	-10.8758
動植物	-10.8759
間隔	-10.8759
良心	-10.876
豊かな	-10.8761
労力	-10.8763
めく	-10.8763
角度	-10.8765
の社会	-10.8766
を合わせる	-10.8767
勝った	-10.8768
おくこと	-10.8768
助力	-10.877
血管	-10.877
平行	-10.8771
は大	-10.8771
無限	-10.8775
心理学	-10.878
を造る	-10.8784
▁のど	-10.8784
各地	-10.8785
遺憾	-10.8786
クラ	-10.8786
実質	-10.8788
植え	-10.8788
▁各	-10.8789
ざん	-10.879
標本	-10.8794
表紙	-10.8798
怒	-10.8798
くし	-10.8799
おきて	-10.88
の食事	-10.8801
相応	-10.8801
警戒	-10.8805
掛かる	-10.8805
時まで	-10.8806
はだれ	-10.8806
だけを	-10.8806
暖	-10.8807
生存	-10.8809
留める	-10.881
頭から	-10.8811
手前	-10.8812
生み	-10.8813
所属	-10.8813
▁植物の	-10.8814
おおい	-10.8821
近所	-10.8821
音を	-10.8821
結局	-10.8826
拍手	-10.8826
ごらん	-10.883
荒れ	-10.8832
その本	-10.8832
組み立て	-10.8835
▁世論	-10.8836
▁文章	-10.884
▁4	-10.8841
擦れ	-10.8841
▁消	-10.8843
尽	-10.8843
を言って	-10.8844
画面	-10.8846
▁深く	-10.8846
すす	-10.8847
ほかに	-10.8849
▁希望	-10.885
一歩	-10.885
▁警察	-10.8851
▁飯	-10.8854
してもらう	-10.8854
進め	-10.8855
なんだ	-10.8856
休日	-10.886
飲んで	-10.8862
連中	-10.8866
受信	-10.8868
対立	-10.8869
▁目を	-10.8869
人相	-10.887
金で	-10.8872
▁生活	-10.8873
きき	-10.8875
が出ている	-10.8876
を営む	-10.888
抜	-10.8883
浄	-10.8886
▁殺人	-10.8886
登る	-10.8887
逸	-10.889
適当な	-10.8891
▁物価	-10.8892
の調子	-10.8896
鬱	-10.8897
戒め	-10.8898
を放つ	-10.8901
としては	-10.8902
うっかり	-10.8903
スパイ	-10.8903
日数	-10.8904
かび	-10.8907
きく	-10.8909
寺院	-10.891
一切	-10.8911
説教	-10.8912
ねり	-10.8913
蔵書	-10.8913
▁貴	-10.8914
くだらない	-10.8914
が高く	-10.8914
▁自動	-10.8917
見方	-10.8918
くない	-10.8918
緩	-10.8919
▁自己	-10.8922
軍事	-10.8923
ふと	-10.8925
どういう	-10.8928
思った	-10.893
▁相手を	-10.8931
結構です	-10.8935
▁心が	-10.8936
人種	-10.8937
わが	-10.8937
を迎える	-10.8937
を与えた	-10.8939
▁証拠	-10.894
のですが	-10.8944
で行う	-10.8949
態度をとる	-10.8951
を許す	-10.8952
に引き	-10.8952
▁どんなに	-10.8955
民間	-10.8955
大勢	-10.8958
▁演劇	-10.8958
任せ	-10.8965
それより	-10.8966
古代	-10.8967
もらい	-10.8968
正面	-10.8971
あんな	-10.8974
感ずること	-10.8975
を立て	-10.8977
考えること	-10.8981
▁読み	-10.8981
正体	-10.8981
かわからない	-10.8982
が広い	-10.8982
女王	-10.8985
無料	-10.8985
▁夕	-10.8988
大量	-10.8989
ついていた	-10.8989
おか	-10.8997
▁彼女は私に	-10.8999
がわかる	-10.9
は全部	-10.9
▁かく	-10.9001
▁ピ	-10.9004
晴	-10.9007
年度	-10.9009
▁都	-10.9009
音を立てて	-10.901
機嫌	-10.9011
様子だ	-10.9012
の者	-10.9013
彼も	-10.9013
に合わせて	-10.9014
▁臨時	-10.9015
から出る	-10.9015
の深い	-10.9015
偽	-10.9018
人生の	-10.902
▁経験	-10.9021
囚	-10.9022
金品	-10.9025
壊	-10.9026
を十分に	-10.9029
取れ	-10.9033
正確に	-10.9034
偉	-10.9035
将棋	-10.9036
そうして	-10.9038
農作物	-10.9041
えさ	-10.9045
▁一日	-10.9045
▁規則	-10.9046
収益	-10.9048
事故で	-10.905
扱	-10.9051
改善	-10.9051
配置	-10.9052
女子	-10.9052
雨で	-10.9057
胸が	-10.9057
の儀式	-10.9057
そこから	-10.9059
▁はい	-10.906
顔が	-10.9061
の最高	-10.9062
換え	-10.9063
望遠鏡	-10.9063
を演ずる	-10.9063
主権	-10.9064
▁恋	-10.9066
可能性	-10.9067
包帯	-10.9072
彼女が	-10.9072
分布	-10.9073
▁営業	-10.9079
なおす	-10.9079
▁名声	-10.908
▁神の	-10.9082
についた	-10.9085
証書	-10.9086
出来た	-10.9087
▁てい	-10.9087
知らぬ	-10.9087
ッと	-10.9087
のあと	-10.9088
溶液	-10.9089
語り	-10.9089
方角	-10.909
▁だれ	-10.9095
大将	-10.9095
昨年	-10.9096
父母	-10.9096
入れた	-10.9099
藻	-10.9099
ライ	-10.91
論争	-10.9102
冥	-10.9103
宜	-10.9104
愁	-10.9104
妥協	-10.9105
食器	-10.9105
いずれ	-10.9105
寡	-10.9106
杖	-10.9106
蘭	-10.9106
データ	-10.9106
栗	-10.9106
窒素	-10.9106
ストーブ	-10.9106
姫	-10.9106
餡	-10.9106
澆	-10.9106
衝撃	-10.9106
舞踊	-10.9106
雌雄異株	-10.9106
かっこう	-10.9106
栄誉	-10.9106
急速に	-10.9106
留守	-10.9106
と思います	-10.9106
ポンプ	-10.9106
輪郭	-10.9106
見事な	-10.9107
直ちに	-10.9107
鑑定	-10.9107
恩恵	-10.9107
未熟	-10.9107
立派に	-10.9108
シェ	-10.9108
検討	-10.9108
▁この絵は	-10.9108
信念	-10.9109
育ち	-10.9109
思案	-10.9109
を認める	-10.9109
怪しい	-10.9109
過程	-10.9109
失望	-10.911
ニア	-10.911
ホン	-10.911
はありません	-10.911
難儀	-10.911
▁最近	-10.9111
よし	-10.9111
宗派	-10.9111
絶対	-10.9111
血統	-10.9112
▁弾	-10.9112
判定	-10.9112
を満たす	-10.9112
後悔	-10.9113
同士	-10.9113
正規	-10.9115
下がり	-10.9115
改めて	-10.9115
サイン	-10.9115
粉末	-10.9116
楽曲	-10.9116
方法で	-10.9117
容疑者	-10.9117
の流れ	-10.9118
根は	-10.9118
を追う	-10.912
意味を	-10.9121
▁明日	-10.9121
格式	-10.9121
素質	-10.9122
分離	-10.9122
▁本当に	-10.9125
生活費	-10.9126
ぐち	-10.9126
広がる	-10.9128
▁目的	-10.9129
永久	-10.9129
ある事柄	-10.913
はずれる	-10.9132
辰討い	-10.9133
親類	-10.9134
金具	-10.9135
すぎた	-10.9136
つなぎ	-10.9136
釣	-10.9136
直角	-10.9137
世代	-10.9137
つづ	-10.9137
意向	-10.9137
ければ	-10.9138
▁帆	-10.9139
行われた	-10.9139
▁料理	-10.914
市長	-10.914
はん	-10.9141
毛皮	-10.9143
ジュ	-10.9143
からとった	-10.9145
上級	-10.9146
規模	-10.9146
地区	-10.9146
格子	-10.9147
んだろう	-10.9148
かまわない	-10.9149
ファ	-10.9152
ろりと	-10.9152
増し	-10.9156
そうと	-10.9157
によって起こる	-10.9158
冬の	-10.9158
▁休	-10.9158
かという	-10.9159
を共にする	-10.916
達者	-10.9161
通った	-10.9161
▁老人	-10.9163
んじ	-10.9164
彼らに	-10.9165
きている	-10.9166
名の	-10.9166
二度	-10.9167
場合には	-10.9167
用いること	-10.9169
作られた	-10.917
はいかがですか	-10.917
▁相撲で	-10.9172
ございます	-10.9175
っ子	-10.918
心身	-10.918
おかし	-10.9184
▁潜	-10.9186
に来る	-10.9187
水で	-10.9188
に合わない	-10.9189
を通る	-10.9189
にあること	-10.9189
視力	-10.9191
▁自転車	-10.9193
▁既	-10.9193
▁ほんの	-10.9197
限度	-10.92
▁へい	-10.9209
▁すべて	-10.921
パイ	-10.9211
水中	-10.9211
となるもの	-10.9212
心配事	-10.9213
▁傷	-10.9216
家来	-10.9216
さめ	-10.9217
さば	-10.9221
わび	-10.9221
きざ	-10.9221
▁前もって	-10.9226
子の	-10.9229
▁反対	-10.9233
クリ	-10.9233
重ね	-10.9235
あけた	-10.9237
かち	-10.9239
すえ	-10.9242
かせ	-10.9243
で買う	-10.9243
木製の	-10.9244
使える	-10.9245
困難な	-10.9245
許し	-10.925
▁良	-10.9251
呼んで	-10.9253
集めること	-10.9253
▁S	-10.9255
動かない	-10.9255
決めること	-10.9256
仕方がない	-10.9258
▁離	-10.9258
しゅ	-10.9259
▁仕	-10.926
おこ	-10.926
大した	-10.9261
▁ごく	-10.9262
誤	-10.9263
学校へ	-10.9263
の女性	-10.9264
▁稲	-10.9264
安楽	-10.9266
気力	-10.9268
▁一番	-10.9268
を唱える	-10.9272
ものもある	-10.9273
それをした	-10.9273
昼	-10.9274
快	-10.9275
はいけない	-10.9277
憲	-10.9279
潜	-10.928
日本では	-10.928
それをする	-10.9284
▁深い	-10.9284
打者	-10.9288
▁月の	-10.9293
砕	-10.9293
度合	-10.9294
▁荷物	-10.9296
ようだった	-10.9297
ぶらぶら	-10.9297
入れて	-10.9297
子供の	-10.9298
が見えた	-10.9301
かめ	-10.9302
立候補	-10.9304
両方	-10.9306
伝統	-10.9307
▁割り	-10.9312
労働組合	-10.9312
が彼	-10.9313
口が	-10.9314
決して	-10.9314
詳しく	-10.9314
本を読む	-10.9315
立てること	-10.9317
郎	-10.9317
スミス	-10.9318
買って	-10.9318
疑問	-10.9319
ミサイル	-10.932
にしたもの	-10.9321
注射	-10.9321
しそう	-10.9321
決めた	-10.9322
碁	-10.9325
るほど	-10.9326
用品	-10.9326
憲法	-10.9327
地位に	-10.9328
悪魔	-10.9328
募集	-10.9328
医療	-10.9329
大部分	-10.933
混	-10.933
▁勘定	-10.9331
大分	-10.9333
▁蚊	-10.9334
▁飛び	-10.9334
▁空腹	-10.9335
の出	-10.9335
S	-10.9336
▁読書	-10.9336
者たち	-10.9338
猿	-10.9338
行ける	-10.9338
どん	-10.9339
にやる	-10.9341
水泳	-10.9342
言葉に	-10.9345
はある	-10.9345
て作った	-10.9346
▁若い	-10.9356
だということ	-10.9356
奏者	-10.9356
だち	-10.9356
in	-10.9357
ネズミ	-10.9359
▁一体	-10.9359
ではないが	-10.9359
説明する	-10.936
染める	-10.9365
が少し	-10.9365
くみ	-10.9366
一人の	-10.9367
▁お前	-10.9367
秋に	-10.9372
▁浅	-10.9372
こともある	-10.9373
お金を	-10.9374
多分	-10.9377
輩	-10.9378
車で	-10.9379
全国	-10.938
▁立	-10.9381
の品	-10.9382
けち	-10.9382
の席	-10.9383
中です	-10.9383
ーン	-10.9384
あがる	-10.9386
家から	-10.9387
▁電車	-10.9387
いい加減	-10.9387
通っている	-10.9388
拾い	-10.939
▁結局	-10.9393
開ける	-10.9393
恐	-10.9396
水平	-10.9397
が低い	-10.9398
囚人	-10.9402
っちり	-10.9402
▁彼は彼女に	-10.9405
ボールを	-10.9405
ものとして	-10.9408
▁会議	-10.9409
母の	-10.9409
▁何の	-10.941
採用	-10.9411
帳簿	-10.9411
ままに	-10.9412
▁ああ	-10.9413
聖人	-10.9414
しら	-10.9415
▁晩	-10.9418
けん	-10.942
比例	-10.9421
▁民間	-10.9422
アウト	-10.9426
戻	-10.9427
それだけ	-10.9428
にすぎない	-10.9429
はしばしば	-10.943
かかって	-10.9431
吹	-10.9432
結婚する	-10.9433
こけ	-10.9435
▁野球	-10.9435
馬の	-10.9437
ルート	-10.9437
パイプ	-10.9437
▁現在の	-10.9439
▁明るい	-10.9444
▁世の中	-10.9444
を使い	-10.9444
ありがとう	-10.9445
をもらう	-10.9445
光る	-10.9446
攻	-10.9447
体系	-10.9447
まじめ	-10.9448
にしよう	-10.9449
滞在	-10.9449
▁景気	-10.945
知れ	-10.9451
どうか	-10.9451
酒を飲む	-10.9454
▁訴訟	-10.9454
話だ	-10.9456
▁群	-10.9456
地中に	-10.9457
宿題	-10.9457
のほか	-10.9457
人人の	-10.9458
物事に	-10.9458
モン	-10.9459
珠	-10.946
くつ	-10.9461
火災	-10.9463
磨	-10.9463
さわ	-10.9464
▁鶏	-10.9464
耕	-10.9467
外側	-10.9467
話は	-10.9467
技芸	-10.9469
をもたらす	-10.9469
そっくり	-10.947
たえ	-10.9471
に入れた	-10.9471
フライ	-10.9472
すごく	-10.9473
物事をする	-10.9473
消費	-10.9474
用いられる	-10.9476
忠	-10.9477
沸	-10.9478
経過	-10.9479
▁多数の	-10.948
倒れる	-10.948
ことば	-10.948
を入れておく	-10.9481
簡	-10.9482
争う	-10.9483
歌舞伎	-10.9484
自分に	-10.9484
覇	-10.9486
閲	-10.9486
まとまった	-10.9487
祖父	-10.9487
秀	-10.9488
曹	-10.9488
免許	-10.9489
隆	-10.9489
姦	-10.949
渦	-10.949
捕虜	-10.949
崇拝	-10.949
姉妹	-10.949
はいけません	-10.949
桁	-10.949
ウサギ	-10.949
凌	-10.949
悗	-10.949
繋	-10.949
デザイン	-10.949
紹介	-10.949
陵	-10.949
ダイヤモンド	-10.949
釘	-10.949
▁for	-10.949
皇后	-10.9491
脅迫	-10.9491
修繕	-10.9491
タイム	-10.9491
にかなう	-10.9491
多量の	-10.9491
当事者	-10.9491
ネット	-10.9492
議決	-10.9492
試み	-10.9492
に比べて	-10.9492
民主主義	-10.9493
突起	-10.9493
豆腐	-10.9493
▁教	-10.9493
随意	-10.9494
によらず	-10.9494
育つ	-10.9494
うそをつく	-10.9494
原始	-10.9495
ブル	-10.9496
慣れ	-10.9496
てやる	-10.9497
衆生	-10.9497
撃ち	-10.9498
産卵	-10.9498
よりどころ	-10.9499
が集まって	-10.95
交代	-10.95
近ごろ	-10.9501
誓う	-10.9501
縁起	-10.9503
こぶし	-10.9503
風刺	-10.9504
身振り	-10.9504
樹皮	-10.9505
無駄	-10.9505
占領	-10.9506
体格	-10.9507
学部	-10.9508
薬剤	-10.9509
伝言	-10.951
特色	-10.951
どっと	-10.9512
解剖	-10.9513
いたり	-10.9513
かということ	-10.9513
寝室	-10.9517
魚を	-10.9518
▁はしご	-10.9518
きまった	-10.9519
立つこと	-10.952
年ごろ	-10.9521
▁衣服	-10.9523
固い	-10.9525
を抑える	-10.9528
▁りょう	-10.9528
べた	-10.9532
有利な	-10.9533
の型	-10.9534
目方	-10.9537
図形	-10.9537
境地	-10.9541
眠っている	-10.9545
を書いた	-10.9545
発達	-10.9547
確認	-10.9551
中から	-10.9556
犬を	-10.9556
その日	-10.9557
頭部	-10.9558
本位	-10.9559
心は	-10.9559
機械の	-10.956
飾	-10.956
親切な	-10.9561
ばな	-10.9562
主要な	-10.9562
▁正直	-10.9562
疲れた	-10.9563
ことができた	-10.9566
▁遊び	-10.9567
をいだく	-10.9568
訴訟	-10.9571
してくれる	-10.9574
農家	-10.9575
が上がる	-10.9577
通ずる	-10.9577
そうなる	-10.9578
▁警察は	-10.9579
▁どうして	-10.9581
その事	-10.9586
怒る	-10.9587
遊ぶ	-10.9587
▁流れ	-10.9589
を下げる	-10.9589
並べて	-10.9589
▁議会	-10.9596
▁理	-10.9596
知れない	-10.9598
時々	-10.96
三十	-10.96
親子	-10.9601
▁情	-10.9602
時節	-10.9602
診断	-10.9603
▁遠く	-10.9605
あちこち	-10.9605
▁夜間	-10.9605
にしておく	-10.9605
との間	-10.9606
▁略	-10.9606
▁その問題は	-10.9606
花火	-10.9606
割れ	-10.9607
を忘れ	-10.9607
▁麻	-10.9607
輸入	-10.9608
形が	-10.9611
青色	-10.9612
続けた	-10.9612
▁それでは	-10.9613
降りる	-10.9616
学年	-10.9619
書面	-10.9619
きび	-10.9619
で死ぬ	-10.9621
個個の	-10.9623
を向ける	-10.9624
ということは	-10.9629
年末	-10.963
のほう	-10.9632
▁水中	-10.9634
抱え	-10.9634
のあるもの	-10.9643
▁仲	-10.9643
欲しい	-10.9644
押して	-10.9647
かたち	-10.9647
生きる	-10.9648
宴	-10.9648
連続	-10.9649
冷たい	-10.9651
攻撃する	-10.9652
致しま	-10.9656
除け	-10.9656
向かう	-10.9658
地下	-10.9659
▁豆	-10.9661
休む	-10.9662
こむこと	-10.9663
▁うまく	-10.9665
を伸ばす	-10.9665
女中	-10.9666
はみな	-10.9668
とりで	-10.9668
▁親の	-10.9669
重み	-10.9671
にかかっている	-10.9673
つば	-10.968
速い	-10.9684
▁紅	-10.9685
知性	-10.9686
ここで	-10.9688
にあり	-10.9689
電球	-10.969
解決する	-10.9692
トレ	-10.9695
で使う	-10.9697
は皆	-10.97
▁彼はそれを	-10.9702
しも	-10.9703
ています	-10.9704
一座	-10.9705
とめること	-10.9707
年金	-10.9707
り込む	-10.9711
整	-10.9711
候補	-10.9712
塗った	-10.9712
▁一時	-10.9715
かおり	-10.9716
I	-10.9716
ヘビ	-10.9717
などのために	-10.9717
▁馬の	-10.9718
始	-10.9719
を敷く	-10.9721
極めて	-10.9722
▁インフレ	-10.9722
受け取る	-10.9723
連れて	-10.9725
ようになっている	-10.9725
鋼鉄	-10.9725
▁長期	-10.9726
だれか	-10.9732
快楽	-10.9732
▁空中	-10.9734
有毒	-10.9735
補助	-10.9735
ヘ	-10.9736
に与える	-10.9739
たちまち	-10.9739
飛	-10.974
の一番	-10.9742
振る	-10.9743
見当	-10.9747
洋服	-10.9747
▁モ	-10.9748
強硬	-10.9748
を離れて	-10.9749
闇	-10.9751
すね	-10.9752
の時に	-10.9752
に入れ	-10.9752
動力	-10.9755
奉仕	-10.9755
▁病人	-10.9755
だま	-10.9756
の頭	-10.9756
じま	-10.9758
▁受け	-10.9758
▁この種の	-10.9759
ものはない	-10.976
とんでもない	-10.9761
▁地下	-10.9761
▁りんご	-10.9761
森林	-10.9762
▁おお	-10.9763
軍艦	-10.9763
との間に	-10.9765
競馬	-10.9766
固体	-10.9769
の外	-10.9769
に働く	-10.977
するもの	-10.9771
気風	-10.9772
向ける	-10.9773
二つ以上の	-10.9773
納得	-10.9773
記念	-10.9774
しまって	-10.9774
▁机	-10.9775
グラフ	-10.9776
を教える	-10.9776
心臓	-10.9777
▁恐怖	-10.9777
乗客	-10.9777
囲	-10.9779
直すこと	-10.9782
おさめ	-10.9783
一方の	-10.9783
紅色	-10.9785
▁ホ	-10.9791
一人で	-10.9793
人類	-10.9794
かたい	-10.9795
ダイ	-10.9797
中国で	-10.9801
▁給料	-10.9801
認める	-10.9803
見えた	-10.9804
▁我々	-10.9805
▁あちこち	-10.9806
演奏する	-10.9808
まらない	-10.9808
の三	-10.981
▁盛	-10.9816
▁土地の	-10.9817
一般の	-10.982
建てた	-10.9821
▁海上	-10.9821
▁向こう	-10.9825
が同じ	-10.9826
うん	-10.9827
植える	-10.9828
分けること	-10.9829
▁割	-10.9829
▁夕方	-10.983
▁広く	-10.983
▁大衆	-10.983
に着いた	-10.9832
づき	-10.9833
言い分	-10.9836
変化する	-10.9838
に満ちた	-10.9838
あとから	-10.9839
▁ハイ	-10.9842
▁あの人の	-10.9843
▁乗り	-10.9848
美しいこと	-10.9848
▁何となく	-10.9848
仕上げる	-10.9849
党の	-10.9852
酸化	-10.9852
踊る	-10.9853
ょ	-10.9853
アン	-10.9855
込んでいる	-10.9856
の異称	-10.9856
その人の	-10.9857
ウイルス	-10.9859
吉	-10.986
だれが	-10.986
それ以上	-10.9864
災	-10.9866
醜	-10.9866
▁書物の	-10.9869
はお	-10.9872
ばかな	-10.9873
けれど	-10.9875
絞	-10.9876
締まった	-10.9876
収集	-10.9877
煮た	-10.9879
洞	-10.988
敏	-10.9881
引用	-10.9881
▁たとえ	-10.9881
乙	-10.9882
ェ	-10.9883
節約	-10.9885
糧	-10.9886
芳香	-10.9886
あく	-10.9886
に当たった	-10.9886
どうしても	-10.9887
燐	-10.9887
▁受	-10.9887
に出ている	-10.9887
ふち	-10.9888
予期	-10.9888
▁あれは	-10.9889
希	-10.9889
瞭	-10.9889
蓮	-10.9889
廃止	-10.9889
旬	-10.989
資源	-10.989
監視	-10.989
笠	-10.989
蛾	-10.989
遍	-10.989
椶	-10.989
▁実験	-10.989
動揺	-10.989
柿	-10.989
桶	-10.989
を握る	-10.989
北海道	-10.989
颪	-10.989
鮓	-10.989
散らす	-10.989
の持ち主	-10.9891
漢方薬	-10.9891
領域	-10.9891
叩き	-10.9892
警告	-10.9892
接触	-10.9892
超過	-10.9892
成果	-10.9893
討議	-10.9893
直径	-10.9893
ヒット	-10.9893
登録	-10.9893
カラー	-10.9894
往来	-10.9894
弁舌	-10.9894
付近	-10.9895
を有する	-10.9895
に多く	-10.9896
赤ちゃん	-10.9896
石けん	-10.9896
炭素	-10.9896
運営	-10.9896
を奪う	-10.9896
入浴	-10.9897
▁偶然	-10.9897
やわらかい	-10.9897
▁国家の	-10.9897
茶わん	-10.9897
上位	-10.99
ぐっと	-10.9902
▁びん	-10.9902
歳の	-10.9903
飲んだ	-10.9904
あだ	-10.9906
磁石	-10.9906
自治	-10.9907
不景気	-10.9907
外観	-10.9907
▁人工	-10.9908
雇用	-10.991
▁車は	-10.9911
▁この車は	-10.9911
▁子供	-10.9911
会談	-10.9911
んでいた	-10.9912
があります	-10.9912
たての	-10.9913
台風	-10.9915
フランス	-10.9916
街道	-10.9917
切れる	-10.9918
情熱	-10.9919
延べ	-10.9919
▁町の	-10.9919
質量	-10.9921
代表的な	-10.9921
状態で	-10.9923
それをする人	-10.9926
はじめて	-10.993
焦げ	-10.993
ついに	-10.9931
相違	-10.9935
骨折り	-10.994
日中	-10.9941
またその人	-10.9941
大使	-10.9942
地所	-10.9942
これが	-10.9943
麻薬	-10.9945
落葉	-10.9945
名称	-10.9946
割引	-10.9947
点を	-10.9947
▁甲	-10.995
れていた	-10.9951
生計	-10.9952
現世	-10.9952
を増す	-10.9955
栽培する	-10.9956
取り上げる	-10.9957
かかり	-10.9958
▁貸し	-10.9958
に答える	-10.9959
ファン	-10.9961
客に	-10.9961
臭気	-10.9962
巧みな	-10.9963
並んで	-10.9965
すわった	-10.9965
▁使い	-10.9965
帽子を	-10.9967
目的地	-10.9969
は必ず	-10.9972
は私に	-10.9973
を支配する	-10.9974
たたく	-10.9975
水に	-10.9976
▁ローマ	-10.9976
いかない	-10.9977
周囲に	-10.9979
とされる	-10.998
▁金を	-10.998
伝わる	-10.9981
の第	-10.9981
▁人民	-10.9984
成り	-10.9988
精神的	-10.9991
トロ	-10.9991
だと思う	-10.9992
住まい	-10.9993
に訴える	-10.9994
の建物	-10.9996
▁わき	-10.9996
ないでください	-10.9997
をしない	-11
マイ	-11.0001
▁高い	-11.0001
ぐさ	-11.0002
の間を	-11.0003
の準備	-11.0003
費用を	-11.0004
▁飛行機	-11.0005
社会的	-11.0006
は我々	-11.001
リスト	-11.0011
▁海外	-11.0017
に思う	-11.0017
出ている	-11.002
巧みに	-11.0021
意を表す語	-11.0022
ようにすること	-11.0022
思いやり	-11.0024
まっすぐ	-11.0026
武家	-11.0027
▁大勢	-11.0029
添え	-11.0031
正式に	-11.0034
用事	-11.0037
法定	-11.0037
を聞いた	-11.0038
関数	-11.0042
を組む	-11.0044
▁熟	-11.0046
ばかりだ	-11.0047
薬を	-11.0048
▁新たに	-11.0048
▁トランプ	-11.0051
に従事する	-11.0059
香気	-11.0062
▁壁に	-11.0064
へりくだって言う語	-11.0064
▁羽	-11.0065
ぼんやり	-11.0067
直接に	-11.0067
の部屋	-11.0069
登	-11.007
は非常に	-11.0076
うる	-11.0077
もとになる	-11.0078
すら	-11.0079
覚えている	-11.008
伸びる	-11.0081
去った	-11.0081
くさい	-11.0081
乗り物	-11.0081
ものであること	-11.0084
追放	-11.0085
立ち去る	-11.0086
面に	-11.0087
剥	-11.0087
昇進	-11.0087
しています	-11.0087
議事	-11.0087
ふさが	-11.009
服従	-11.0093
茂	-11.0093
はなれ	-11.0095
を忘れる	-11.0095
長官	-11.0096
描いた	-11.0096
報い	-11.0097
間に合う	-11.0098
を傷つける	-11.0102
品を	-11.0104
▁あなたに	-11.0105
利き	-11.0105
をさし	-11.0107
バイ	-11.011
▁水が	-11.0112
▁掛け	-11.0113
みつ	-11.0113
その金を	-11.0113
ように見える	-11.0114
等しい	-11.0115
うんざり	-11.012
▁医者	-11.0124
似た	-11.0125
煮る	-11.0125
会った	-11.0125
▁猛	-11.0126
さまざま	-11.0126
▁沈	-11.0126
おうと	-11.0127
探	-11.0127
呼	-11.0128
▁川の	-11.0129
動脈	-11.013
まち	-11.013
▁裁判	-11.0132
▁ユ	-11.0141
誘惑	-11.0143
▁近代	-11.0144
戻す	-11.015
かなかった	-11.0152
▁プロ	-11.0153
の形式	-11.0154
はだめだ	-11.0156
上品	-11.0156
わずかな	-11.0159
要点	-11.0159
を伴う	-11.0159
▁ぶどう	-11.016
再生	-11.0162
▁わが国	-11.0167
このごろ	-11.0169
たまった	-11.017
▁実際の	-11.0171
盗み	-11.0171
変わらない	-11.0172
25	-11.0172
かわい	-11.0174
土地を	-11.0175
と言い	-11.0175
が悪いこと	-11.0179
▁標準	-11.0179
ためしに	-11.0181
依頼	-11.0182
を捜す	-11.0183
下り	-11.0183
作ったもの	-11.0185
▁はっきりと	-11.0185
斜面	-11.0186
▁堅	-11.0187
を持たない	-11.0188
を作って	-11.0191
見ると	-11.0192
小道	-11.0193
を飲む	-11.0195
泡	-11.0196
浜	-11.0196
生える	-11.0197
不法	-11.0197
償	-11.0197
▁ゆう	-11.0198
お手	-11.0198
▁悲しみ	-11.0202
膝	-11.0204
危	-11.0205
並べた	-11.0205
誕生日	-11.0206
礼儀	-11.0206
貧困	-11.0206
▁速	-11.0207
の成績	-11.0208
禅	-11.0211
お世辞	-11.0211
昼食	-11.0211
を詰める	-11.0212
▁国会	-11.0212
総合	-11.0214
を見つける	-11.0214
蒸気	-11.0215
恋愛	-11.0217
は一	-11.0217
ちょうどよい	-11.0218
巨	-11.0218
文芸	-11.0218
を振る	-11.0219
礼拝	-11.0219
カーテン	-11.0222
つくった	-11.0222
▁古代	-11.0222
を隠す	-11.0223
▁幼	-11.0224
暴力	-11.0226
形を	-11.0226
▁商品	-11.0227
を得て	-11.0232
発生する	-11.0233
を寄せる	-11.0234
規	-11.0235
刑事	-11.0238
意を表す	-11.024
▁折	-11.024
が出	-11.0243
先が	-11.0244
ゼ	-11.0246
スキー	-11.0247
▁上着	-11.0248
許す	-11.0249
▁猫は	-11.0253
出世	-11.0254
複雑	-11.0256
▁可	-11.0256
維持	-11.0257
を表す語	-11.0257
合併	-11.0258
金を使う	-11.0261
▁彼は今	-11.0261
▁準	-11.0262
万物	-11.0262
工学	-11.0264
▁逃げ	-11.0266
た人	-11.0266
賛	-11.0268
ことには	-11.0268
▁貧	-11.0269
借りた	-11.027
守ること	-11.027
英語の	-11.0271
崩れ	-11.0272
▁液体	-11.0272
有利	-11.0273
をあけて	-11.0273
制服	-11.0276
悪いこと	-11.0278
団結	-11.0278
を貸す	-11.028
ジャ	-11.0281
つかない	-11.0281
存する	-11.0281
速さ	-11.0282
巻く	-11.0285
拠	-11.0286
▁からだ	-11.0287
▁手紙を	-11.0288
うわべ	-11.029
儒	-11.029
審判	-11.0293
送ること	-11.0293
斜	-11.0293
▁フランス	-11.0294
なくてはならない	-11.0295
飾る	-11.0297
を置いて	-11.0298
▁まったくの	-11.0298
偶	-11.0298
一文	-11.0299
長所	-11.0299
設ける	-11.03
▁キリスト教	-11.03
鑑	-11.03
僚	-11.03
由	-11.0301
▁me	-11.0301
を祝う	-11.0301
爵	-11.0301
兆	-11.0301
模範	-11.0303
括	-11.0303
江	-11.0303
天地	-11.0303
久	-11.0303
賦	-11.0304
邸	-11.0304
れんが	-11.0304
石灰	-11.0305
▁it	-11.0306
サラダ	-11.0306
誌	-11.0306
開始	-11.0306
櫃	-11.0307
詐欺	-11.0307
疑わしい	-11.0307
督	-11.0307
唾	-11.0307
佳	-11.0307
適応	-11.0307
ゾ	-11.0307
鷲	-11.0307
嵐	-11.0307
余裕	-11.0307
屑	-11.0307
鮗	-11.0307
にもかかわらず	-11.0307
落ち着かない	-11.0307
せっけん	-11.0307
広がり	-11.0307
流す	-11.0308
採決	-11.0308
供養	-11.0308
プール	-11.0308
移植	-11.0308
サイズ	-11.0308
拒絶	-11.0308
思慮	-11.0308
土壌	-11.0308
審理	-11.0308
冷却	-11.0308
断わる	-11.0309
麻酔	-11.0309
起訴	-11.0309
を高める	-11.031
詳しい	-11.031
ダム	-11.031
弁当	-11.031
陣営	-11.0311
▁食糧	-11.0311
ほし	-11.0311
セ氏	-11.0311
感想	-11.0311
がっている	-11.0312
ならわし	-11.0312
方は	-11.0312
諸島	-11.0312
困っている	-11.0313
追跡	-11.0313
定まった	-11.0313
推論	-11.0313
▁競	-11.0314
配給	-11.0314
科の鳥	-11.0316
何時間も	-11.0316
色彩	-11.0316
ペンス	-11.0317
熱狂	-11.0317
共有	-11.0317
指示	-11.0318
祖先	-11.0318
▁魔	-11.0319
働いている	-11.0319
奥さん	-11.0319
を固める	-11.0319
側面	-11.0319
馬車	-11.0321
を振るう	-11.0321
一心に	-11.0322
死体	-11.0322
日付	-11.0322
優先	-11.0323
までの間	-11.0323
の中には	-11.0323
にまで	-11.0324
のではない	-11.0324
▁竜	-11.0324
善悪	-11.0324
なぜ	-11.0325
中国原産	-11.0325
自在	-11.0325
どうやって	-11.0326
伝えること	-11.0326
気象	-11.0327
外国人	-11.033
▁子供を	-11.0331
校長	-11.0332
代わりに	-11.0334
▁すべての	-11.0336
ぶつ	-11.0336
毛布	-11.0337
画像	-11.0338
なくても	-11.034
氏名	-11.0341
やってくる	-11.0341
▁相撲	-11.0341
重なる	-11.0342
一気に	-11.0343
▁干	-11.0344
▁子供の	-11.0345
親しい	-11.0345
料理屋	-11.0346
ある人	-11.0347
かぎり	-11.035
パス	-11.0352
用に	-11.0352
子孫	-11.0352
ねらい	-11.0356
交差	-11.0357
スク	-11.0357
むりに	-11.0357
一族	-11.0357
出さない	-11.0357
学校で	-11.0359
音を立てる	-11.0362
▁あす	-11.0365
あける	-11.0365
たって	-11.0365
子供が	-11.0368
▁張り	-11.0368
に向けて	-11.0371
酸性	-11.0373
商品を	-11.0374
太り	-11.0374
木の枝	-11.0375
を犯す	-11.0375
ずること	-11.0376
月の	-11.0377
ことがない	-11.0377
どうした	-11.0379
ar	-11.0379
▁ろう	-11.038
▁賃金	-11.0382
用法	-11.0383
に応じる	-11.0384
▁やっと	-11.0388
あな	-11.0388
▁笑い	-11.0389
ご親切	-11.039
発車	-11.039
やってみ	-11.0391
両面	-11.0392
国民の	-11.0395
落とした	-11.0397
数の	-11.0397
文を	-11.0399
だけだった	-11.04
の布	-11.0401
退く	-11.0401
なまけ	-11.0403
専門家	-11.0403
▁二つ以上の	-11.0404
▁城	-11.0405
道は	-11.0406
支払う	-11.0411
食べて	-11.0412
大事に	-11.0413
死を	-11.0414
▁機会	-11.0417
ざる	-11.0418
ガン	-11.0418
▁男の	-11.0419
巻いた	-11.042
を言い	-11.0422
▁観	-11.0422
こな	-11.0423
の少ない	-11.0424
飲み物	-11.0427
とかく	-11.0428
▁夏の	-11.043
ぬけ	-11.043
すわり	-11.0431
口調で	-11.0431
そこまで	-11.0432
ってくれ	-11.0433
の一人	-11.0433
▁計画	-11.0434
光の	-11.0436
▁人気	-11.0437
なしで	-11.0438
になるもの	-11.0441
▁その計画は	-11.0444
▁市場	-11.0444
▁この仕事は	-11.0445
キス	-11.0445
太く	-11.0446
当地	-11.0446
のしかた	-11.045
所がある	-11.045
を消す	-11.045
字形	-11.0451
合金	-11.0451
全面	-11.0455
変更	-11.0457
の身	-11.0458
▁そいつは	-11.0461
ひた	-11.0462
▁奉	-11.0464
いれる	-11.0465
割合	-11.0465
アメリカ人	-11.0465
差し出す	-11.0467
▁食卓	-11.0471
▁天皇が	-11.0471
遠くまで	-11.0473
暗やみ	-11.0474
家で	-11.0474
▁全部	-11.0475
▁君たち	-11.0475
きたない	-11.0475
消毒	-11.0479
定めること	-11.048
▁水泳	-11.0481
返る	-11.0482
をひどく	-11.0484
っていく	-11.0486
を覆う	-11.0486
▁もう少し	-11.0486
金は	-11.0488
▁早く	-11.0488
金の	-11.0488
がさ	-11.0488
やむ	-11.0489
席を	-11.0497
▁何を	-11.05
an	-11.0502
▁ある人	-11.0504
停車	-11.0506
てゆく	-11.0507
去ること	-11.0508
が見える	-11.0509
故	-11.0509
逃	-11.051
対等	-11.0514
▁踏み	-11.0514
一部分	-11.0515
▁本を	-11.0517
あえ	-11.0517
▁売	-11.0518
に耐える	-11.052
帰って	-11.052
が激しく	-11.0521
千人	-11.0525
▁中央	-11.0525
▁産	-11.0527
受け入れる	-11.0531
の妻	-11.0533
繰り返して	-11.0534
テレビで	-11.0535
社会主義	-11.0535
の病気	-11.0536
がいる	-11.0537
▁中国の	-11.0537
腫	-11.0537
▁階段	-11.0537
▁筋肉	-11.0539
新年	-11.054
遇	-11.0541
▁彼は英語	-11.0548
▁風は	-11.0548
側に	-11.0551
ところを	-11.0552
たれる	-11.0552
を伝える	-11.0553
さを	-11.0553
目下	-11.0555
▁シャ	-11.0559
▁従	-11.0565
狭く	-11.0566
務め	-11.0567
に直接	-11.0568
ものを言う	-11.0569
吸	-11.0577
近づく	-11.058
安く	-11.058
枯	-11.058
ビー	-11.0582
ちゃん	-11.0584
もって	-11.0588
離れた	-11.0591
と思っていた	-11.0591
こぶ	-11.0591
▁強く	-11.0593
―	-11.0593
学ぶ	-11.0595
吐き	-11.0596
▁勢い	-11.0598
おち	-11.0599
与えること	-11.0599
されていない	-11.0599
喜	-11.0599
てもらいたい	-11.06
をもった	-11.06
いか	-11.0601
に終わる	-11.0601
注目	-11.0603
▁助	-11.0605
リング	-11.0606
我々を	-11.0607
品位	-11.0607
を始めた	-11.0608
▁全体	-11.0609
そく	-11.061
毛織物	-11.061
▁順序	-11.0611
▁そんなことは	-11.0612
いれ	-11.0613
大体の	-11.0613
の意見	-11.0615
▁三角	-11.0618
▁彼は病気	-11.0619
▁返	-11.0619
いやだ	-11.0619
ボートを	-11.0622
地面に	-11.0623
続け	-11.0623
冒険	-11.0623
焼いて	-11.0623
▁推	-11.0624
▁食事	-11.0624
選び	-11.0628
▁雪が	-11.063
争うこと	-11.0633
じゃま	-11.0636
求める	-11.0639
苦心	-11.0642
図書	-11.0645
学説	-11.0647
本来の	-11.0647
にふさわしい	-11.0648
痛む	-11.0649
すわって	-11.0649
んぼ	-11.0652
ぜいたく	-11.0652
調節	-11.0654
飽	-11.0657
同様	-11.0657
他国	-11.0658
の高さ	-11.0659
わずかの	-11.066
かけら	-11.0661
集まった	-11.0661
真の	-11.0662
at	-11.0662
▁少年	-11.0663
▁だれかが	-11.0664
工作	-11.0664
▁時計を	-11.0664
申し込み	-11.0664
テレビの	-11.0667
w	-11.0667
腕に	-11.0668
隔	-11.0668
家事	-11.067
みせ	-11.067
いすに	-11.0671
▁ほかの	-11.0671
▁□・	-11.0673
▁皇	-11.0674
三人	-11.0675
なが	-11.0676
いくつかの	-11.0676
すべり	-11.0676
▁うわさ	-11.0677
亀	-11.0677
硬	-11.0678
▁新年	-11.0678
繁	-11.0678
タイヤ	-11.0678
を下す	-11.0679
初期	-11.0679
統計	-11.068
▁第一	-11.0681
故郷	-11.0684
民衆	-11.0685
▁ほう	-11.0686
とった	-11.0687
でん	-11.069
拙	-11.069
頬	-11.069
電信	-11.0691
傍	-11.0692
▁列	-11.0692
井戸	-11.0692
を引き起こす	-11.0693
賞賛	-11.0695
▁貸	-11.0695
充	-11.0696
の法則	-11.0696
学期	-11.0699
入学	-11.0699
担当	-11.0701
りょう	-11.0701
▁今の	-11.0702
陸軍	-11.0702
ll	-11.0702
仏像	-11.0703
役割	-11.0704
トンネル	-11.0705
返り	-11.0708
うそつき	-11.0709
ままで	-11.071
と言っても	-11.0712
弁解	-11.0714
患	-11.0715
を言った	-11.0717
遅刻	-11.0717
▁大声で	-11.0717
おば	-11.0718
パーティーに	-11.0718
異議	-11.0718
▁捨て	-11.0719
楽に	-11.072
漆	-11.0721
▁ねじ	-11.0724
寿	-11.0724
一生懸命	-11.0724
サン	-11.0726
法人	-11.0726
巾	-11.0729
▁手紙の	-11.073
架	-11.073
もく	-11.0731
及	-11.0731
教室	-11.0731
祈り	-11.0732
もてなす	-11.0732
謡	-11.0732
釈	-11.0735
規準	-11.0735
えている	-11.0736
ヨット	-11.0736
為替	-11.0736
するだろう	-11.0737
意思	-11.0737
撮影	-11.0738
頻	-11.0739
己	-11.074
諾	-11.074
かかっている	-11.074
辱	-11.0741
楽しむ	-11.0741
篤	-11.0741
改良	-11.0741
岡	-11.0741
糊	-11.0742
撫	-11.0742
疲労	-11.0742
に適した	-11.0742
オランダ	-11.0742
ジョーンズ	-11.0742
ヲ	-11.0742
蟻	-11.0742
鮨	-11.0742
配偶者	-11.0742
茶碗	-11.0742
センター	-11.0742
プログラム	-11.0742
省略	-11.0742
俸給	-11.0742
こつこつ	-11.0742
稽古	-11.0742
運搬	-11.0742
暖房	-11.0742
ぼろぼろ	-11.0742
企画	-11.0743
開閉	-11.0743
やかましい	-11.0743
ジャック	-11.0743
起伏	-11.0743
ダブル	-11.0743
感染	-11.0743
チュ	-11.0744
1000	-11.0744
迷信	-11.0744
住居	-11.0744
融通	-11.0744
返答	-11.0744
弦楽器	-11.0744
水晶	-11.0744
助かる	-11.0744
英語を話す	-11.0744
孝行	-11.0744
給仕	-11.0745
宮殿	-11.0745
羽織	-11.0745
肺炎	-11.0745
航路	-11.0745
バンド	-11.0745
しきたり	-11.0745
暴風雨	-11.0745
たいへん	-11.0746
敗北	-11.0746
に基づく	-11.0746
わがまま	-11.0746
測量	-11.0746
講師	-11.0747
学識	-11.0747
あわてて	-11.0747
牧師	-11.0748
道ばた	-11.0749
ーション	-11.075
別称	-11.075
旅館	-11.075
もう少し	-11.075
にわか	-11.075
女優	-11.0751
およそ	-11.0751
すこし	-11.0751
を離れる	-11.0752
警報	-11.0752
同じであること	-11.0753
寂しい	-11.0754
特性	-11.0754
うちわ	-11.0756
五十	-11.0756
南部	-11.0757
回路	-11.0758
▁不思議な	-11.0758
うた	-11.0758
けれども	-11.0759
複数	-11.0761
艦船	-11.0761
微妙な	-11.0762
退職	-11.0763
▁私は彼に	-11.0763
化石	-11.0768
▁精神的	-11.0769
判事	-11.077
小銃	-11.077
試	-11.077
面から	-11.0771
好機	-11.0771
▁金属	-11.0771
社会の	-11.0773
にせ	-11.0773
二階	-11.0774
万ドル	-11.0775
あす	-11.0776
の祝い	-11.0777
案外	-11.0777
▁休暇	-11.0777
馴れ	-11.0778
食物を	-11.0778
▁体を	-11.0779
早春	-11.078
▁重い	-11.0781
▁独	-11.0784
まっている	-11.0784
済む	-11.0785
▁独り	-11.0785
代代	-11.0785
不快	-11.0787
必要である	-11.0787
▁陸軍	-11.0788
の便	-11.079
全体が	-11.0791
指名	-11.0795
を振り	-11.0795
むり	-11.0795
香り	-11.0796
紅葉	-11.0797
合わせること	-11.0798
入りの	-11.0804
めい	-11.0804
ぬれ	-11.0805
それとも	-11.0806
個人の	-11.0806
暖か	-11.0807
を要する	-11.0808
水辺	-11.0808
を越える	-11.0809
は私には	-11.081
発達した	-11.0812
何度	-11.0815
よみ	-11.0816
体質	-11.0816
いいえ	-11.0817
体つき	-11.0818
▁たん	-11.0818
疲れる	-11.0818
▁八	-11.0819
の形に	-11.0819
はしご	-11.082
時に使う	-11.0821
通話	-11.0822
染色	-11.0823
万人	-11.0824
・△	-11.0824
っていった	-11.0825
ブレーキ	-11.0825
かぶり	-11.0829
を強めて言う	-11.083
▁カーテン	-11.0832
関係がある	-11.0832
与えられる	-11.0834
会見	-11.0835
を打って	-11.0837
おこす	-11.0837
むやみに	-11.0837
認め	-11.0839
▁頭を	-11.084
なのか	-11.0842
パー	-11.0842
お前	-11.0845
努力して	-11.0846
結婚した	-11.0848
▁平均	-11.0849
▁飛	-11.0851
の動物	-11.0852
送る	-11.0852
波が	-11.0855
シン	-11.0857
手紙を書く	-11.0858
使用する	-11.0858
園芸	-11.0861
▁相手に	-11.0864
▁何でも	-11.0864
ばく	-11.0866
は日本	-11.0866
集める	-11.0867
頑	-11.0869
るために	-11.0871
言論	-11.0871
に見	-11.0873
の命令	-11.0875
鬚垢	-11.0875
ずれ	-11.0876
信者	-11.0877
▁つい	-11.0878
果実は	-11.0879
ボン	-11.088
を与えて	-11.0884
りません	-11.0886
重さ	-11.0887
バン	-11.0887
問題だ	-11.0888
完全	-11.0888
▁浄	-11.0889
て行く	-11.0894
▁偽	-11.0895
▁しゅ	-11.0897
うしろ	-11.0898
漫画	-11.0898
大勢の	-11.09
気持が	-11.0902
▁ボ	-11.0905
いろいろと	-11.0906
▁あの男	-11.0906
形成	-11.0908
張って	-11.0912
のうわさ	-11.0913
動くこと	-11.0913
▁蹴	-11.0913
▁月が	-11.0914
を示した	-11.0914
整理する	-11.0915
の根	-11.0917
につけた	-11.0921
▁in	-11.0921
▁彼女は彼に	-11.0923
まかせ	-11.0924
はだれも	-11.0924
を受けている	-11.0926
に代わって	-11.0926
に通じ	-11.0926
前線	-11.0927
二十	-11.0927
につくこと	-11.0934
ふな	-11.0935
意外	-11.0938
窓から	-11.0938
ほめる	-11.0939
▁いなか	-11.094
いません	-11.094
▁凡	-11.0941
クラスの	-11.0942
をやめて	-11.0942
茶色の	-11.0943
教える	-11.0943
レン	-11.0945
▁逸	-11.0948
▁攻撃	-11.095
行け	-11.0952
時半	-11.0952
あれこれ	-11.0953
よけ	-11.0955
のだろう	-11.0955
▁手紙	-11.0956
▁ドイツ	-11.0956
▁香	-11.0959
es	-11.096
たびに	-11.096
▁田舎	-11.096
二人の	-11.0962
を変えること	-11.0962
の幅	-11.0964
物音	-11.0968
分に	-11.0969
苗	-11.0973
▁人は	-11.0973
へた	-11.0973
帰った	-11.0977
のように見える	-11.0979
慎重に	-11.0981
▁二人	-11.0981
の先に	-11.0983
▁ここは	-11.0983
てくれ	-11.0989
を聞き	-11.0991
いり	-11.0991
働きをする	-11.0992
守備	-11.0992
本式	-11.0993
に向かう	-11.0994
▁宣伝	-11.0996
▁うそ	-11.0997
に似る	-11.0997
天然	-11.1
▁ぜひ	-11.1001
荷車	-11.1001
▁予備	-11.1004
少数	-11.1004
面倒	-11.1005
骨折	-11.1005
そなえ	-11.1008
効力	-11.1008
が終わる	-11.1009
よくなる	-11.1009
へと	-11.101
▁宝	-11.101
行きの	-11.1011
似ている	-11.1014
▁会員	-11.1015
▁汗	-11.1016
厚	-11.1017
を並べて	-11.1018
一対	-11.1022
を広げる	-11.1026
対立する	-11.1026
耳を	-11.1029
芸人	-11.103
十字	-11.1032
染	-11.1032
▁人体	-11.1033
▁引っ	-11.1033
けつ	-11.1034
▁水上	-11.1035
むだな	-11.1036
に分ける	-11.1039
こび	-11.104
多いこと	-11.104
一等	-11.104
つもりで	-11.1041
▁拝	-11.1045
現れる	-11.1045
確かめ	-11.1045
してから	-11.1046
ゆっくりと	-11.1046
▁授業	-11.1047
作文	-11.1048
指で	-11.1052
出ない	-11.1056
の時代	-11.1057
心中	-11.1058
▁陰暦	-11.106
▁彼はよく	-11.1061
をあける	-11.1062
海面	-11.1063
▁英語の	-11.1063
貧しい	-11.1063
保つ	-11.1064
食事をする	-11.1066
のかたまり	-11.1066
つもりです	-11.1066
起こること	-11.1067
出発する	-11.1068
とれた	-11.107
▁フォ	-11.1071
辛	-11.1073
変な	-11.1075
▁頭の	-11.1079
下着	-11.1079
英語で	-11.1081
加える	-11.1082
優劣	-11.1082
報告書	-11.1086
en	-11.1086
さっぱり	-11.1088
慕	-11.109
総計	-11.1092
▁夫	-11.1094
▁ぼく	-11.1096
当選	-11.11
零	-11.1108
長い間	-11.1108
ことのできる	-11.1108
先端	-11.111
催し	-11.1111
詩文	-11.1112
▁静	-11.1113
ばかりで	-11.1117
のがれ	-11.1117
を教え	-11.1123
すべ	-11.1123
家畜	-11.1125
探検	-11.1125
を組んで	-11.1126
▁梅	-11.1126
驚	-11.1126
▁照	-11.1127
▁ペン	-11.1128
テン	-11.113
斬	-11.1133
遅く	-11.1137
のほかに	-11.1137
な話	-11.1137
▁今度	-11.1138
存じます	-11.114
堀	-11.1143
決まった	-11.1143
を見つけた	-11.1146
添	-11.1147
慈悲	-11.1147
医者に	-11.115
で見る	-11.1156
幼	-11.1158
▁粘土	-11.1159
佐	-11.116
都会	-11.116
気配	-11.1161
▁巡	-11.1162
はやり	-11.1163
熱病	-11.1164
買った	-11.1164
掃	-11.1167
トル	-11.1171
磁	-11.1172
和服	-11.1172
なければいけない	-11.1173
を流す	-11.1175
つくこと	-11.1175
とがめ	-11.1176
惑星	-11.1176
鼠	-11.1178
▁四つ	-11.1178
好奇心	-11.1178
会計	-11.1178
▁人種	-11.118
嫁	-11.1181
▁みかん	-11.1182
そちら	-11.1182
殺すこと	-11.1185
厭	-11.1186
豪	-11.1186
淫	-11.1187
署	-11.1187
仙	-11.1188
教養	-11.1189
商店	-11.1189
衛生	-11.1189
怨	-11.119
億	-11.119
たりすること	-11.1191
押さえ	-11.1191
険	-11.1191
▁信用	-11.1191
妊娠	-11.1191
幣	-11.1192
慣習	-11.1192
堕落	-11.1194
酌	-11.1194
劼	-11.1194
ッシュ	-11.1194
書類を	-11.1194
さつ	-11.1195
寛	-11.1195
痴	-11.1195
営利	-11.1195
渇	-11.1195
強制	-11.1195
はなはだしい	-11.1195
撰	-11.1195
発揮	-11.1196
粛	-11.1196
妓	-11.1196
ユ	-11.1196
錫	-11.1196
糠	-11.1196
チェス	-11.1196
叉	-11.1196
遮	-11.1196
平安時代	-11.1196
葦	-11.1196
恐ろしさ	-11.1196
鞍	-11.1196
讚	-11.1196
×	-11.1196
を汚す	-11.1196
ワイシャツ	-11.1196
瓜	-11.1196
じゃがいも	-11.1196
廚	-11.1196
慾	-11.1196
狐	-11.1196
蝕	-11.1196
January	-11.1196
チャンス	-11.1196
キツネ	-11.1196
システム	-11.1196
▁船舶	-11.1196
杭	-11.1196
セールスマン	-11.1197
審査	-11.1197
措置	-11.1197
ひたすら	-11.1197
簡易	-11.1197
燃焼	-11.1197
スケート	-11.1197
工芸	-11.1197
貧	-11.1197
形容詞	-11.1197
救済	-11.1197
あやまち	-11.1197
おもむき	-11.1197
装備	-11.1198
ソース	-11.1198
類似	-11.1198
防衛	-11.1199
あやしい	-11.1199
雨が降る	-11.1199
著しい	-11.1199
まあまあ	-11.1199
砂漠	-11.1199
▁その船は	-11.1199
冷淡	-11.12
まともに	-11.12
プラス	-11.12
▁去年	-11.12
にかなった	-11.12
々しく	-11.1201
雌雄	-11.1201
視野	-11.1202
調理	-11.1202
円満	-11.1202
電池	-11.1202
コップ	-11.1202
一日中	-11.1203
誇り	-11.1205
各自	-11.1205
建造物	-11.1206
空港	-11.1206
辞任	-11.1206
漬物	-11.1207
雄弁	-11.121
伴奏	-11.1211
着物の	-11.1212
不機嫌	-11.1212
倫理	-11.1213
平たく	-11.1213
一時的に	-11.1213
たとえば	-11.1214
の世話をする	-11.1214
下がる	-11.1214
裂く	-11.1215
▁彼らは彼を	-11.1216
▁朱	-11.1216
偉い	-11.1216
▁芝居	-11.1218
食塩	-11.1218
うまくいった	-11.1219
▁実際に	-11.1219
海軍	-11.1219
道義	-11.1219
人員	-11.1219
田氏	-11.122
土を	-11.1223
▁長い間	-11.1224
流通	-11.1225
伏せ	-11.1227
申し立て	-11.1228
育てる	-11.1228
どれほど	-11.1228
続いている	-11.1229
個ある	-11.123
驚いて	-11.123
月給	-11.1231
現われる	-11.1232
統治	-11.1232
こじき	-11.1232
▁鉱山	-11.1232
光沢	-11.1233
組んだ	-11.1234
経文	-11.1235
▁蛇	-11.1235
含み	-11.1235
へたな	-11.1236
離す	-11.1237
向上	-11.1239
▁そら	-11.124
きし	-11.1241
出来る	-11.1242
記憶力	-11.1244
▁これから	-11.1246
批評家	-11.1247
見張り	-11.1248
延び	-11.1248
偽り	-11.1249
所在	-11.1249
自分たち	-11.125
協会	-11.125
毛糸	-11.1253
の壁	-11.1255
課税	-11.1255
を吐く	-11.1256
書かれた	-11.1256
の内部	-11.1257
▁彼は自分が	-11.1257
打った	-11.1258
ぞう	-11.1259
目盛り	-11.126
わが国	-11.126
▁彼女はいつも	-11.126
が多くて	-11.1262
関係にある	-11.1263
▁トラック	-11.1268
っけ	-11.1268
戦線	-11.127
専用	-11.1271
るもの	-11.1272
ということを	-11.1275
現状	-11.1275
世に	-11.1275
数える	-11.1276
おかね	-11.1277
刊行	-11.1281
をねらって	-11.1282
ふるい	-11.1282
▁森	-11.1286
24	-11.1287
現金	-11.1287
外国から	-11.1288
▁彼女は夫	-11.1289
▁凍	-11.1289
▁夜の	-11.1291
ところです	-11.1291
を運ぶ	-11.1292
▁この本	-11.1292
▁遅	-11.1293
の転	-11.1293
不快な	-11.1294
なんと	-11.1297
寄	-11.1299
につけて	-11.13
賢い	-11.13
の全	-11.1301
▁海岸	-11.1301
捨て	-11.1302
手腕	-11.1302
うるさく	-11.1304
いも	-11.1305
科の哺乳動物	-11.1305
▁be	-11.1308
▁主人	-11.1309
しすぎる	-11.1309
▁漢字	-11.131
▁切	-11.1316
本人	-11.1318
▁今から	-11.1321
の立場	-11.1321
万円の	-11.1321
魚類	-11.1323
▁彼らが	-11.1324
悲し	-11.1326
愛する	-11.1327
客が	-11.1327
▁高く	-11.1329
三つの	-11.1329
耐え	-11.1329
▁遠慮	-11.133
▁法廷	-11.1332
▁染め	-11.1335
▁年の	-11.1336
を養う	-11.1336
行進	-11.1336
▁本の	-11.1337
目玉	-11.1337
▁凝	-11.1338
をまく	-11.1339
特別な	-11.134
宿屋	-11.134
▁森林	-11.134
性的	-11.1342
半分に	-11.1343
離れない	-11.1344
▁彼はなかなか	-11.1344
▁針	-11.1348
話に	-11.1356
固定	-11.1362
意地悪	-11.1362
知らせること	-11.1365
▁欠	-11.1365
の群れ	-11.1366
行きたい	-11.1367
さして	-11.137
心得	-11.1372
繰り返し	-11.1373
改め	-11.1374
後ろから	-11.1377
通して	-11.1378
は少しも	-11.1378
▁寒さ	-11.1381
もっともな	-11.1382
を免れる	-11.1386
▁行政	-11.1389
に強い	-11.1392
なき	-11.1393
ふし	-11.1393
まわし	-11.1396
寝ること	-11.14
できません	-11.1405
でございます	-11.1405
車に	-11.1405
▁高級	-11.1406
を強く	-11.1407
をつかさどる	-11.1408
主体	-11.1408
に変える	-11.141
楽な	-11.1412
ないようにする	-11.1412
しだ	-11.1412
と考えた	-11.1413
飯を	-11.1413
を張って	-11.1414
とん	-11.1415
▁ここで	-11.1416
のこ	-11.1418
▁何も	-11.1418
が弱い	-11.1419
▁彼女は私の	-11.143
世界の	-11.143
▁そこに	-11.1432
絵を	-11.1432
身につける	-11.1432
の表面に	-11.1433
二本の	-11.1433
▁登	-11.1434
に伴う	-11.1435
共通	-11.1436
は何ですか	-11.1438
江戸時代	-11.1438
庶民	-11.1439
の方法	-11.1439
▁追い	-11.1439
りますか	-11.144
産の	-11.1441
▁山野に自生	-11.1441
無言	-11.1442
競売	-11.1446
煮て	-11.1446
感じられる	-11.1453
ずり	-11.1453
まじり	-11.1454
極め	-11.1454
純粋	-11.1454
心の中	-11.1455
狂い	-11.1455
ラム	-11.1459
▁できるだけ	-11.1459
貴族	-11.146
▁ビ	-11.146
防御	-11.1461
▁交	-11.1464
が変わる	-11.1464
づかい	-11.1467
規律	-11.1467
▁閉	-11.1467
約一	-11.1467
などについて	-11.1468
▁弾丸	-11.1469
個の	-11.1469
逮捕	-11.1469
間を	-11.1471
ステ	-11.1471
売ること	-11.1474
昔から	-11.1476
てき	-11.1478
▁注文	-11.1478
つぶし	-11.1481
飛行機の	-11.1482
妨害	-11.1483
▁海底	-11.1486
▁美術	-11.1487
▁付け	-11.1488
▁毎	-11.1489
だけが	-11.149
が欲しい	-11.1496
の原因	-11.1496
向く	-11.1498
澈	-11.1501
▁難	-11.1502
▁彼は金	-11.1505
貴人の	-11.1506
一度に	-11.1507
▁輸出	-11.1507
卵を	-11.1509
有罪	-11.1509
▁何もかも	-11.1512
急ぐ	-11.1512
▁オリンピック	-11.1512
▁それは君の	-11.1513
▁歳の	-11.1514
▁ごみ	-11.1515
▁酒を	-11.1515
眼球	-11.1516
▁7	-11.1516
▁正しい	-11.1518
悦	-11.1519
▁艶	-11.1522
▁太陽が	-11.1524
▁税金	-11.1524
とがある	-11.1526
▁ダ	-11.1527
消息	-11.1527
▁投票	-11.1528
挑戦	-11.1531
先生は	-11.1533
▁病気の	-11.1533
いても	-11.1534
机の上に	-11.1538
▁事故	-11.154
嫌いだ	-11.1541
生じた	-11.1542
機関車	-11.1551
文字を	-11.1551
▁馬に	-11.1552
載せる	-11.1552
▁相手	-11.1553
煮え	-11.1562
座る	-11.1564
チン	-11.1565
ささ	-11.1565
▁書物	-11.1569
▁不幸	-11.157
そのための	-11.1571
空き	-11.1571
続いた	-11.1572
励	-11.1572
▁十分に	-11.1572
us	-11.1574
かば	-11.1575
主張する	-11.1575
▁パーティー	-11.1577
遣	-11.1578
を決め	-11.1579
▁整	-11.158
こえ	-11.1582
回って	-11.1583
変わる	-11.1584
うえ	-11.1585
▁英国の	-11.1586
▁財政	-11.1586
▁桜	-11.1587
数を	-11.1587
熱帯	-11.1588
言っている	-11.1591
なしの	-11.1593
皮膚が	-11.1596
吸収	-11.1597
くらいの	-11.1599
健康に	-11.1602
蒼	-11.1603
緑色の	-11.1603
平気で	-11.1604
地形	-11.1605
宣言	-11.1606
に富んだ	-11.1608
▁情報	-11.1609
をひく	-11.1609
よせ	-11.161
▁特許	-11.1612
何もない	-11.1613
▁医者は	-11.1614
タイプ	-11.1615
▁ソ	-11.1617
すぐれて	-11.1619
がきかない	-11.1619
たてる	-11.162
その本を	-11.1624
忠義	-11.1625
視する	-11.1628
凡	-11.163
の内側	-11.1632
▁歩	-11.1634
ないでくれ	-11.1635
付けた	-11.1635
友達	-11.1637
歯が	-11.1637
間違って	-11.1638
うらみ	-11.1639
果て	-11.164
衝突	-11.1641
鉄の	-11.1642
木造	-11.1642
川の	-11.1643
あがり	-11.1644
▁野菜	-11.1644
▁その場	-11.1645
常用	-11.1646
損なう	-11.1646
啓	-11.1648
欠乏	-11.1649
を尽くす	-11.165
特殊	-11.165
▁彼女は私	-11.165
を経て	-11.1651
▁特別に	-11.1651
不自由	-11.1652
大声で	-11.1652
解放	-11.1653
勝つこと	-11.1653
真偽	-11.1654
ダイヤ	-11.1654
齢	-11.1655
を頼む	-11.1656
お話し	-11.1658
陽	-11.1659
の精神	-11.1659
のない人	-11.166
簿	-11.166
従うこと	-11.166
尚	-11.1661
食事を	-11.1661
▁化粧	-11.1662
剛	-11.1662
▁家具	-11.1662
▁演説	-11.1663
そうとする	-11.1664
▁慈善	-11.1664
削り	-11.1664
輿	-11.1665
▁肌	-11.1666
スペイン	-11.1666
胎	-11.1667
くする	-11.1667
穏	-11.1667
落ち着いて	-11.1667
からぬ	-11.1668
潔白	-11.1668
曲がり	-11.167
伐	-11.167
かねて	-11.167
生死	-11.167
肋	-11.167
呉	-11.167
著述	-11.1671
さかずき	-11.1671
爆撃	-11.1671
蛋白質	-11.1672
紡	-11.1672
舵	-11.1672
誦	-11.1672
拡張	-11.1672
鍵	-11.1672
オペラ	-11.1672
喧	-11.1672
刺繍	-11.1673
メキシコ	-11.1673
猶予	-11.1673
マラリア	-11.1673
諺	-11.1673
鞘	-11.1673
コンクリート	-11.1673
方程式	-11.1673
稀	-11.1673
錬	-11.1673
よろこび	-11.1673
屁	-11.1673
びっくりした	-11.1673
暁	-11.1673
臥	-11.1673
釜	-11.1673
ぐるぐる	-11.1673
まなざし	-11.1673
▁喫煙	-11.1673
唄	-11.1673
はらわた	-11.1673
宣誓	-11.1673
是非	-11.1673
焦点	-11.1673
箇条	-11.1673
硫黄	-11.1673
威厳	-11.1673
専攻	-11.1673
▁たい	-11.1673
思考	-11.1673
ほんとに	-11.1673
を請う	-11.1674
訪ねて	-11.1674
収縮	-11.1674
のまわり	-11.1674
茶の湯	-11.1674
応援	-11.1674
予告	-11.1674
科の昆虫	-11.1674
楽譜	-11.1675
一定期間	-11.1675
節操	-11.1675
演芸	-11.1675
スタート	-11.1675
仲裁	-11.1675
のぞく	-11.1675
殺菌	-11.1675
知覚	-11.1675
軍備	-11.1676
うさぎ	-11.1676
コール	-11.1676
といった	-11.1676
推理	-11.1677
公債	-11.1677
済んだ	-11.1677
ひび	-11.1677
たたいた	-11.1678
組合せ	-11.1678
ふとん	-11.1678
を職業とする人	-11.1679
音階	-11.1679
カバー	-11.1679
げない	-11.1679
通勤	-11.1679
文献	-11.1679
▁魚の	-11.1679
船の	-11.168
煙突	-11.1681
つめた	-11.1681
うどん	-11.1681
延長	-11.1681
のうちで	-11.1681
恵み	-11.1681
表示	-11.1682
ゆとり	-11.1682
改正	-11.1682
機密	-11.1684
選んだ	-11.1685
親族	-11.1685
ンド	-11.1685
動かし	-11.1685
いやしい	-11.1686
救	-11.1687
用途	-11.1688
暗記	-11.1688
曲がる	-11.1688
つまみ	-11.169
領地	-11.1691
▁国連	-11.1692
造った	-11.1692
皇	-11.1692
高校	-11.1692
意義	-11.1693
▁弁護士	-11.1694
機知	-11.1695
▁火の	-11.1695
浴び	-11.1695
▁お茶	-11.1695
運ばれ	-11.1695
甲板	-11.1696
もうける	-11.1696
特殊な	-11.1697
縁側	-11.1697
北部	-11.1697
を働く	-11.1697
長調	-11.1699
線路	-11.17
持ち上げる	-11.17
を催す	-11.1701
結び目	-11.1701
噴火	-11.1702
▁失業	-11.1703
黙ってい	-11.1704
整った	-11.1704
おそ	-11.1705
ききめ	-11.1705
シュ	-11.1706
ことに決めた	-11.1706
善行	-11.1707
▁w	-11.1708
時速	-11.1708
準	-11.1708
種々	-11.1709
する時	-11.171
風邪	-11.171
コンピューター	-11.1711
の巣	-11.1711
卑	-11.1713
透	-11.1713
に欠ける	-11.1716
魚肉	-11.1717
活気	-11.1717
知能	-11.1717
田畑	-11.1718
陰暦	-11.1719
可	-11.1719
いちばん	-11.172
泣いて	-11.1721
移住	-11.1722
寝床	-11.1723
当たって	-11.1723
とも言う	-11.1726
思いがけない	-11.1727
何となく	-11.1727
朝食	-11.1728
結う	-11.1728
しぼ	-11.1728
ああ	-11.1728
政府が	-11.173
▁ぼ	-11.1731
赤字	-11.1732
よこ	-11.1735
なのだ	-11.1735
正反対	-11.1738
消える	-11.1739
を改める	-11.1739
やがて	-11.1739
忍び	-11.174
▁はっきり	-11.174
たばこを	-11.1742
乗った	-11.1743
名高い	-11.1743
これらの	-11.1744
品行	-11.1745
買い物	-11.1745
▁ワ	-11.1745
とがった	-11.1746
▁砂糖	-11.1746
興奮する	-11.1748
ター	-11.1749
一組	-11.1749
小児	-11.175
敷物	-11.1752
どうだ	-11.1753
をたてる	-11.1754
▁競馬	-11.1755
ったりして	-11.1756
国家が	-11.1756
五月	-11.1756
▁事件	-11.1758
かせた	-11.1758
職場	-11.176
生まれる	-11.176
上部	-11.1761
下落	-11.1763
▁体の	-11.1764
運転手	-11.1766
から出た	-11.1767
ようとして	-11.1768
とら	-11.1768
通俗	-11.1768
使者	-11.177
▁あの子は	-11.177
の学生	-11.1771
番をする	-11.1772
▁手を	-11.1773
泊まり	-11.1773
割り当て	-11.1774
手落ち	-11.1774
風が	-11.1775
っちゃ	-11.1776
この世に	-11.1777
▁つる	-11.1778
運んだ	-11.1778
で私は	-11.1779
▁昔から	-11.1781
ーター	-11.1781
顔の	-11.1782
の士	-11.1782
高等	-11.1783
加え	-11.1783
何度も	-11.1786
▁この問題	-11.1786
▁伝	-11.1788
ゆくこと	-11.1789
蕕覆	-11.179
▁貧乏	-11.179
の罪	-11.179
の場合	-11.1793
力で	-11.1794
初めから	-11.1795
▁自己の	-11.1795
尽くす	-11.1796
のそば	-11.1796
とって	-11.1797
▁命令	-11.1798
その場の	-11.1799
を防ぐために	-11.1799
をあらわす	-11.1801
聞こえ	-11.1801
17	-11.1802
いったん	-11.1802
に耐え	-11.1804
出席者	-11.1806
誤って	-11.1807
何よりも	-11.181
声が	-11.1813
▁凶	-11.1815
急な	-11.1817
▁格	-11.1817
飛んで	-11.1817
ぜいたくな	-11.1818
腹に	-11.1818
▁これ以上	-11.1819
進み	-11.1821
格別	-11.1822
▁他の人	-11.1826
に任せる	-11.1826
大切	-11.1826
合せ	-11.1829
候	-11.1831
せて	-11.1831
をはる	-11.1835
▁物が	-11.1837
▁レコード	-11.1837
▁体操	-11.1837
で話す	-11.1837
時機	-11.1839
を大きく	-11.184
▁心を	-11.1841
はっきりした	-11.1841
主語	-11.1842
ロック	-11.1845
来客	-11.1845
自分自身	-11.1848
てやった	-11.1848
けり	-11.1848
の中央	-11.1849
する装置	-11.1849
などによる	-11.1851
▁さて	-11.1851
吹いて	-11.1853
▁人々は	-11.1857
色素	-11.1858
▁アメリカの	-11.1859
にも使う	-11.186
事務を	-11.1863
様子が	-11.1864
論者	-11.1865
両側	-11.1865
他から	-11.1865
独身	-11.1865
コーヒーを	-11.1868
▁契約	-11.1869
の強さ	-11.187
返事をする	-11.187
▁着物	-11.1872
支払いを	-11.1875
▁警官は	-11.1879
木の葉	-11.1879
万事	-11.1881
現れること	-11.1882
を焼く	-11.1883
がついて	-11.1884
△・	-11.1885
▁完全	-11.1887
千万	-11.1887
働か	-11.1888
▁きん	-11.1888
を見せて	-11.1889
▁わずかな	-11.1893
こじ	-11.1896
兼ね	-11.1896
それについて	-11.1897
分間	-11.1898
してしまう	-11.1898
しらせ	-11.1899
人間が	-11.1901
愉快	-11.1901
共通の	-11.1901
▁彼はとても	-11.1902
のだが	-11.1902
慎重	-11.1905
▁ほとんど	-11.1906
おもしろ	-11.1907
絹織物	-11.191
はえている	-11.1911
神仏	-11.1911
は彼が	-11.1912
▁それは私	-11.1916
しようという	-11.1916
遠方	-11.1917
▁鉛筆	-11.1917
に役立つ	-11.192
ドルの	-11.1922
を飾る	-11.1924
▁教師	-11.1926
▁母は	-11.1926
守る	-11.1927
海外	-11.1929
篠つつ	-11.1929
たくさんある	-11.1932
忘れる	-11.1934
▁実際	-11.1936
▁その後	-11.1937
なよ	-11.1938
▁うら	-11.1939
盛る	-11.1939
どこへ	-11.1941
下男	-11.1942
酒を	-11.1944
▁野原	-11.1947
苦しむ	-11.1947
を利用する	-11.1948
▁哀	-11.1948
生じ	-11.1949
ゆで	-11.1949
負けた	-11.195
足に	-11.1952
知らなかった	-11.1952
東方	-11.1953
今にも	-11.1953
番目の	-11.1955
はすっかり	-11.1956
を表わす	-11.1956
▁皮	-11.1956
わかれ	-11.1959
▁即	-11.1959
手柄	-11.1959
研究する	-11.196
受け入れ	-11.1962
普通に	-11.1963
にかかった	-11.1964
遠くに	-11.1966
トラ	-11.1969
の進行	-11.1969
▁そのことは	-11.1971
きつい	-11.1972
につけ	-11.1973
山地	-11.1974
役に立	-11.1977
しっかりと	-11.1982
▁軟	-11.1983
にたとえ	-11.1985
便で	-11.1986
考えた	-11.1987
を得ること	-11.1988
を取り戻す	-11.1988
肉体	-11.1989
がたくさんある	-11.199
くま	-11.1991
聞くこと	-11.1992
はすぐ	-11.1994
▁擬	-11.1994
残りの	-11.1994
さじ	-11.1994
▁一年	-11.2
して行く	-11.2001
は少し	-11.2002
▁食事の	-11.2005
▁エンジン	-11.2009
▁政府の	-11.2013
できている	-11.2014
気分が	-11.2015
▁神仏	-11.2016
置いた	-11.2017
おこった	-11.2021
入口	-11.2023
穏やかな	-11.203
の範囲	-11.2031
議案	-11.2034
ということだ	-11.2037
が彼女の	-11.2037
遅い	-11.2037
舞い	-11.2038
▁その仕事は	-11.2039
動物の	-11.2039
情事	-11.204
庭に	-11.204
比較的	-11.2044
▁その土地	-11.2046
病気が	-11.2046
てはならない	-11.2046
押す	-11.2052
に同じ	-11.2054
を高く	-11.2054
▁金属元素	-11.2056
海の	-11.2058
が悪かった	-11.2058
しあわせ	-11.206
▁地面	-11.206
高低	-11.2061
▁しっかり	-11.2063
▁文化	-11.2067
顧	-11.2068
日常生活	-11.207
起きる	-11.2071
称号	-11.2071
▁初めて	-11.2071
▁どうか	-11.2072
使った	-11.2075
のけ	-11.2076
どことなく	-11.2079
▁質問	-11.2079
いぼ	-11.2083
てくれる	-11.2084
延ばす	-11.2086
ーズ	-11.2091
▁付	-11.2092
外へ出	-11.2096
泊まる	-11.2097
末期	-11.2099
▁なべ	-11.2101
行きます	-11.2101
▁広い	-11.2103
こね	-11.2103
タオル	-11.2107
▁金融	-11.2108
それによって	-11.2109
詳細	-11.211
荒荒しい	-11.2111
▁原子力	-11.2114
人工	-11.2115
人や物	-11.2117
or	-11.2119
その地位	-11.2121
その場所	-11.2122
忙しく	-11.2122
ぶつぶつ	-11.2122
結核	-11.2124
のかね	-11.2124
法廷	-11.2125
別別	-11.2126
後れ	-11.2131
の気持	-11.2131
夫人	-11.2132
おろし	-11.2132
験	-11.2133
いてください	-11.2135
ラン	-11.2135
ようか	-11.2137
重く	-11.2137
いかに	-11.2137
浮かんだ	-11.2138
以下の	-11.2138
▁賢	-11.2138
織った	-11.2138
毎	-11.2139
▁ひとり	-11.2141
忘	-11.2141
担保	-11.2145
=	-11.2145
勇敢	-11.2146
孝	-11.2148
破る	-11.215
複製	-11.2151
をたくさん	-11.2152
▁豪	-11.2153
就	-11.2153
いいですか	-11.2157
ってくる	-11.2158
のあいだ	-11.2159
笑った	-11.216
分からない	-11.216
を買って	-11.2161
ぐいと	-11.2161
軌	-11.2162
盟	-11.2163
口をきく	-11.2164
動いて	-11.2164
潤	-11.2165
展	-11.2165
しようとした	-11.2166
隙	-11.2167
呑	-11.2167
あばれ	-11.2168
まげ	-11.2168
散らし	-11.2168
迫る	-11.2169
拒否	-11.2169
斎	-11.2169
模	-11.2169
開拓	-11.217
頸	-11.217
堪	-11.217
ぺ	-11.2171
ソーダ	-11.2171
びょう	-11.2171
扇動	-11.2172
弄	-11.2172
談判	-11.2172
舷	-11.2172
奸	-11.2172
兎	-11.2172
碧	-11.2172
衛星	-11.2172
宇	-11.2172
部類	-11.2173
尖	-11.2173
適当に	-11.2173
莫大な	-11.2173
ハワイ	-11.2173
綾	-11.2173
みじめな	-11.2173
宛	-11.2173
に適する	-11.2173
芯	-11.2173
X	-11.2173
ぞんざい	-11.2173
歎	-11.2173
歪	-11.2173
鉤	-11.2173
鵐	-11.2173
妾	-11.2173
篇	-11.2173
罵	-11.2173
嵩	-11.2173
▁あん	-11.2173
ow	-11.2173
過剰	-11.2173
マイナス	-11.2173
普及	-11.2173
俳諧	-11.2173
唯一の	-11.2173
急激に	-11.2173
インディアン	-11.2173
乗車券	-11.2173
整頓	-11.2173
派閥	-11.2173
一つ一つ	-11.2173
疑惑	-11.2173
めいめい	-11.2173
落ちぶれ	-11.2173
標識	-11.2173
決まり	-11.2173
顧問	-11.2173
を使わず	-11.2173
▁あの店は	-11.2174
ゼロ	-11.2174
守護	-11.2174
路傍	-11.2174
統率	-11.2174
おとなしく	-11.2174
ノート	-11.2174
吹雪	-11.2175
復活	-11.2175
確率	-11.2175
雨が降った	-11.2175
検閲	-11.2175
音響	-11.2175
汲み	-11.2175
対応	-11.2175
遺跡	-11.2175
▁水道	-11.2175
っていて	-11.2175
大型	-11.2175
譲歩	-11.2176
講和	-11.2176
やって来た	-11.2176
のありさま	-11.2176
冷酷	-11.2176
中枢	-11.2176
▁どこ	-11.2176
▁その犬は	-11.2176
垣根	-11.2176
新たな	-11.2176
情緒	-11.2177
ハエ	-11.2177
落第	-11.2178
講座	-11.2178
かわいがる	-11.2178
絶滅	-11.218
をしていた	-11.218
楽観	-11.2181
流儀	-11.2181
花嫁	-11.2181
地理	-11.2181
しばる	-11.2182
の女神	-11.2183
定義	-11.2183
郵便局	-11.2184
加熱	-11.2184
お宅	-11.2184
▁同情	-11.2185
▁何と	-11.2185
▁空港	-11.2185
作成	-11.2185
の口	-11.2186
の下部	-11.2186
一連の	-11.2186
小形で	-11.2187
多年	-11.2187
▁全国	-11.2187
ことになっている	-11.2188
結んだ	-11.2188
不況	-11.2188
羊毛	-11.2188
流派	-11.219
放電	-11.2191
平野	-11.2192
敵陣	-11.2193
災い	-11.2193
どころか	-11.2193
特権	-11.2194
を打った	-11.2194
乳児	-11.2194
待った	-11.2194
巡回	-11.2195
黄色い	-11.2196
辰討	-11.2196
羽毛	-11.2197
低下	-11.2199
首席	-11.2199
論説	-11.22
体積	-11.22
引力	-11.2202
▁成人	-11.2203
こく	-11.2203
から降りる	-11.2203
のごとく	-11.2204
撃つ	-11.2205
操	-11.2205
▁本当	-11.2205
よいか	-11.2206
▁枝	-11.2206
er	-11.2207
魚の	-11.2208
左側	-11.2208
もらおう	-11.2209
▁貿易	-11.2209
ろく	-11.2211
忘れない	-11.2214
乱暴	-11.2215
の第一	-11.2216
慣用	-11.2217
熱湯	-11.2217
てもらう	-11.2219
欠けた	-11.2221
続けざまに	-11.2222
に乏しい	-11.2223
を告げる	-11.2223
長年	-11.2224
三角	-11.2226
非行	-11.2226
当時	-11.2227
答える	-11.2227
V	-11.2227
こころ	-11.2229
十六	-11.2229
学業	-11.2231
午前	-11.2233
度胸	-11.2234
帰ること	-11.2234
告げ	-11.2234
フランスの	-11.2236
回転する	-11.2236
うね	-11.2236
我が国	-11.2238
に出て	-11.2238
▁冷や	-11.2239
何でもない	-11.2241
を直す	-11.2248
一見	-11.2248
帰宅	-11.2249
あふれる	-11.2249
邦	-11.2249
粗末な	-11.2249
小僧	-11.225
紫色	-11.2251
▁日光	-11.2252
毎年	-11.2253
葉を	-11.2253
よく知っている	-11.2253
にできる	-11.2254
を除く	-11.2254
を占める	-11.2255
怪	-11.2255
に通じている	-11.2255
▁彼の顔は	-11.2258
真珠	-11.2258
▁誤	-11.2258
推	-11.2259
中傷	-11.2259
大和	-11.2261
召使	-11.2261
髪の毛を	-11.2261
▁ぶどう酒	-11.2261
基本	-11.2262
経費	-11.2262
言いなさい	-11.2263
ガソリン	-11.2264
葬儀	-11.2265
の字	-11.2266
▁聴衆は	-11.2266
同一	-11.2267
秘書	-11.2267
のが好きだ	-11.2268
を動かして	-11.2268
書物を	-11.2269
▁豊	-11.2271
歌を	-11.2272
ぬる	-11.2273
バイオリン	-11.2273
触れる	-11.2275
猛	-11.2275
職業の人	-11.2278
▁九	-11.2279
養子	-11.2282
▁家を	-11.2282
内側に	-11.2283
内外	-11.2285
まねをする	-11.2285
ぶた	-11.2285
世俗	-11.2286
やって来る	-11.2286
到着した	-11.2288
▁楽	-11.2288
無事に	-11.2289
の誤り	-11.2289
その知らせを聞いて	-11.2291
▁その話は	-11.2291
キリスト教	-11.2292
こういう	-11.2293
▁この家は	-11.23
をおおう	-11.2302
の所に	-11.2302
率直に	-11.2304
▁病気で	-11.2304
▁6	-11.2306
向いて	-11.2308
▁肺	-11.2312
▁兄	-11.2313
宝物	-11.2314
を積み	-11.2317
混ぜる	-11.2319
初めの	-11.2319
便り	-11.2319
▁借り	-11.232
求め	-11.232
香水	-11.232
▁供	-11.2322
に接する	-11.2322
逆に	-11.2324
▁正義	-11.2325
していないこと	-11.2326
はぎ	-11.2326
悪口	-11.2328
したりして	-11.2328
いらっしゃい	-11.2329
がえ	-11.2331
類の	-11.2332
はいい	-11.2332
設け	-11.2333
を張った	-11.2334
を残す	-11.2334
当然の	-11.2335
調べる	-11.2337
人材	-11.2337
好きなように	-11.234
たまる	-11.234
外出する	-11.2341
金が	-11.2344
つかず	-11.2345
カリ	-11.2347
で人を	-11.2347
▁強い	-11.2349
物を言う	-11.2351
がわ	-11.2351
然として	-11.2351
▁そこで	-11.2353
ナー	-11.2354
乗物	-11.2355
が多かった	-11.2355
そうでない	-11.2355
▁必	-11.2356
▁完全に	-11.2356
▁その事故	-11.2357
てきている	-11.2357
相場が	-11.2359
の作品	-11.236
身体の	-11.236
を続ける	-11.236
過去の	-11.2361
と思われる	-11.2361
降って	-11.2362
がどんなに	-11.2363
まるい	-11.2366
を重んずる	-11.2369
討い	-11.2369
大事	-11.2369
▁天体	-11.237
▁彼は我々に	-11.237
繩	-11.2371
擦り	-11.2371
離して	-11.2371
治める	-11.2372
とめ	-11.2373
しますか	-11.2374
▁校	-11.2376
よいこと	-11.2376
に似ている	-11.2376
取れる	-11.2376
でいた	-11.2377
その音	-11.2381
の練習	-11.2381
法律で	-11.2382
はかり	-11.2382
やれ	-11.2384
付いて	-11.2386
一流の	-11.2387
▁医療	-11.2388
門の	-11.2392
続くこと	-11.2393
▁専門	-11.2394
振動	-11.2395
外へ	-11.2397
まけ	-11.2402
▁日曜	-11.2404
本部	-11.2404
動的	-11.2406
月光	-11.2409
なだれ	-11.2411
含む	-11.2412
弱く	-11.2413
手首	-11.2414
の町	-11.2415
▁子供は	-11.2416
割に	-11.2417
の形容	-11.2418
敬意	-11.2418
▁それらの	-11.2424
身代	-11.2425
たちに	-11.2425
めったに	-11.2427
いやになる	-11.2428
▁イタリア	-11.2428
性質が	-11.2428
は私が	-11.2428
大型の	-11.2429
▁小麦粉	-11.2429
そうもない	-11.2429
熱意	-11.2429
▁焼け	-11.2432
手に入れ	-11.2432
▁地図	-11.2434
ばかりに	-11.2434
寺の	-11.2434
から見て	-11.2434
▁責任	-11.2435
しかる	-11.2435
負けて	-11.2435
一瞬	-11.2436
ないだろう	-11.2437
感じた	-11.2437
国旗	-11.2438
りました	-11.2439
はだか	-11.2439
鋳	-11.244
出家	-11.244
▁回転	-11.2441
ませて	-11.2442
暗く	-11.2442
の四	-11.2443
に入っている	-11.2443
神話	-11.2445
実例	-11.2446
掘り	-11.2447
を授ける	-11.2447
もつれ	-11.2448
ダー	-11.2448
日曜日に	-11.2449
を助け	-11.2452
▁寂	-11.2453
▁まっ	-11.2455
▁判	-11.2457
戯	-11.2459
使われる	-11.246
は約	-11.246
▁脂肪	-11.2462
▁陽	-11.2464
事件を	-11.2465
▁野外	-11.2468
▁知恵	-11.2468
決議	-11.2469
ことではない	-11.2469
年は	-11.2471
大金	-11.2471
シー	-11.2472
ごし	-11.2475
おくれ	-11.2475
▁序	-11.2476
やること	-11.2476
債務	-11.2479
ことができない	-11.2479
その地方	-11.248
を成す	-11.2483
▁洪水	-11.2484
仕事の	-11.2486
隠して	-11.2489
を添える	-11.249
祈願	-11.2491
▁立体	-11.2492
賭	-11.2492
▁軍事	-11.2493
ップ	-11.2494
▁抜き	-11.2495
▁よそ	-11.2495
▁資本	-11.2499
ve	-11.2503
▁君には	-11.2504
▁主君	-11.2504
と思い	-11.2506
導体	-11.2507
の方へ	-11.2509
荷物を	-11.2511
確信	-11.2514
▁陸上	-11.2517
海水	-11.2518
▁彼は彼女を	-11.2518
そんな事	-11.2519
▁切符	-11.252
ぐらいの	-11.2524
になってしまった	-11.2524
暮らしを	-11.2526
助けること	-11.2528
フレ	-11.2529
に合う	-11.253
垂れる	-11.253
たたき	-11.253
描	-11.2531
聞かせる	-11.2532
として使う	-11.2534
の中間	-11.2536
▁あいつ	-11.2537
やりなさい	-11.2538
と水	-11.2539
七日	-11.2539
たいてい	-11.2539
▁季節	-11.2542
やり方で	-11.2543
に戻る	-11.2544
▁喜び	-11.2544
の研究	-11.2545
後世	-11.2545
一般の人	-11.2545
▁ふだん	-11.2546
とは君も	-11.2547
はいくら	-11.2551
▁いま	-11.2552
に会った	-11.2552
笑って	-11.2552
▁重大な	-11.2553
をひき	-11.2553
行われ	-11.2556
▁訳	-11.2556
事態が	-11.2557
生糸	-11.256
会うこと	-11.2562
文章の	-11.2566
を積む	-11.2567
駒	-11.2569
▁吹き	-11.257
すみません	-11.2572
りたい	-11.2573
▁スト	-11.2573
る様子	-11.2574
をふさぐ	-11.2576
ってくれた	-11.2578
に落ちる	-11.2578
山々	-11.2579
ぶき	-11.2581
▁彼女と	-11.2582
ふえ	-11.2584
地下茎	-11.2587
悟り	-11.2588
勢いで	-11.2588
▁林	-11.259
しつけ	-11.259
こも	-11.259
▁気の	-11.259
ふれ	-11.2591
中間	-11.2592
えら	-11.2592
▁知	-11.2592
物だ	-11.2593
がすっかり	-11.2593
▁8	-11.2597
もし	-11.2598
▁みんな	-11.2598
がひどく	-11.26
▁天子の	-11.2601
と違って	-11.2601
しうる	-11.2602
に出た	-11.2602
▁突き	-11.2605
こっけいな	-11.2607
の長い	-11.2609
が速い	-11.2609
本性	-11.2613
銀行に	-11.2613
ってはいけない	-11.2613
くせ	-11.2615
無理に	-11.2615
して作った	-11.2617
どのように	-11.2618
調べること	-11.2619
属する	-11.2619
基礎	-11.2621
▁住宅	-11.2622
十五	-11.2623
の勢い	-11.2624
こしらえ	-11.2627
に触れる	-11.2628
して下さい	-11.263
▁年齢	-11.263
厄介	-11.2632
を含んだ	-11.2633
を休む	-11.2637
内容を	-11.2641
ニュ	-11.2641
の相違	-11.2643
昨	-11.2646
を帯びる	-11.2646
▁いちばん	-11.2647
▁思いがけない	-11.2647
今や	-11.2647
隔て	-11.2649
▁彼女は自分の	-11.265
▁快	-11.265
言動	-11.265
だした	-11.2651
秋の	-11.2653
地主	-11.2653
▁特別	-11.2653
やりかた	-11.2655
気づか	-11.2656
つかみ	-11.2657
船が	-11.2658
んだり	-11.2658
▁建物の	-11.2658
の空気	-11.2659
せること	-11.2659
▁高等	-11.2661
▁暖かい	-11.2661
▁冷たい	-11.2661
車は	-11.2661
の人が	-11.2662
そんなことを	-11.2663
▁予	-11.2665
のしるし	-11.2666
豪雨	-11.2666
が起こって	-11.2666
所にある	-11.2672
透明	-11.2672
増加	-11.2672
気管	-11.2672
ともに	-11.2674
新作	-11.2676
▁東京の	-11.2676
を祈る	-11.2677
誠	-11.2678
の敬称	-11.2678
槽	-11.2679
耕作	-11.268
惜しい	-11.268
▁儀式	-11.268
の印	-11.2681
が低く	-11.2682
▁紫	-11.2682
釣り合い	-11.2685
寵	-11.2686
わけではない	-11.2687
成功の	-11.2687
▁フランス語	-11.2688
に強く	-11.2688
熟練	-11.269
摘	-11.269
衰えた	-11.2691
グラ	-11.2692
申告	-11.2692
を目的とする	-11.2692
が出て	-11.2692
内閣の	-11.2693
百万	-11.2693
幾何学	-11.2693
気持だ	-11.2694
散る	-11.2694
坑	-11.2694
▁金の	-11.2694
の娘	-11.2694
止まった	-11.2695
▁経	-11.2695
蕩	-11.2695
荘	-11.2695
研	-11.2696
視界	-11.2696
陳	-11.2696
免疫	-11.2696
にはいって	-11.2696
要領	-11.2697
飼育	-11.2697
盾	-11.2697
を帯びた	-11.2698
昂	-11.2698
因果	-11.2698
信じられない	-11.2698
薪	-11.2698
決勝	-11.2698
阻	-11.2699
かっさい	-11.2699
スズメ	-11.2699
病原体	-11.2699
きっかけ	-11.2699
櫛	-11.2699
虹	-11.2699
叛	-11.2699
W	-11.2699
おだやかな	-11.2699
みょう	-11.2699
瑞	-11.2699
おめでとう	-11.2699
のんびり	-11.2699
ソファー	-11.2699
梨	-11.2699
植民地	-11.2699
裾	-11.2699
.	-11.2699
コンサート	-11.2699
ペーパー	-11.2699
塚	-11.2699
ぎゅっと	-11.2699
ぅ	-11.2699
桑	-11.2699
当てはまる	-11.2699
ジョージ	-11.2699
のこぎり	-11.2699
申請	-11.2699
囃子	-11.2699
舗装	-11.2699
摩擦	-11.2699
デパート	-11.27
容貌	-11.27
僧侶	-11.27
酒を飲んで	-11.27
盗賊	-11.27
粘液	-11.27
my	-11.27
包装	-11.27
閉鎖	-11.27
付き合い	-11.27
悲惨	-11.27
到来	-11.27
スタイル	-11.2701
戯曲	-11.2701
モーター	-11.2701
爵位	-11.2701
釈迦	-11.2701
ひれ	-11.2701
たまたま	-11.2701
態勢	-11.2702
見積もり	-11.2702
を襲った	-11.2702
協議	-11.2702
生殖	-11.2702
のろい	-11.2703
厳しく	-11.2704
こまかい	-11.2704
▁その日	-11.2704
ともかく	-11.2704
実は食用	-11.2704
の子供	-11.2704
揃い	-11.2704
予言	-11.2705
添う	-11.2705
それとなく	-11.2705
不吉	-11.2705
風采	-11.2705
響き	-11.2706
感じだ	-11.2706
実業家	-11.2706
▁羊	-11.2706
交わり	-11.2706
栄光	-11.2707
奉公	-11.2707
成行き	-11.2707
開放	-11.2707
仲よく	-11.2708
させられた	-11.2708
思い切って	-11.2708
東西	-11.2708
左翼	-11.2708
不動産	-11.2708
未婚	-11.2709
登場	-11.271
風味	-11.271
って行く	-11.271
施行	-11.271
軍勢	-11.271
写生	-11.2711
ひいき	-11.2711
社寺	-11.2711
▁海軍	-11.2711
主成分	-11.2711
彩色	-11.2712
を利用した	-11.2712
絞り	-11.2712
ラテン語	-11.2712
変種	-11.2712
下駄	-11.2713
とするもの	-11.2713
▁物事に	-11.2713
概して	-11.2713
通商	-11.2714
若葉	-11.2714
性能	-11.2715
上映	-11.2715
転覆	-11.2716
奇跡	-11.2717
って来る	-11.2718
出入口	-11.2718
▁マッチ	-11.2718
遠慮なく	-11.272
がうまく	-11.272
との関係	-11.2721
は君の	-11.2721
割れ目	-11.2722
▁それだけ	-11.2722
変動	-11.2724
砕く	-11.2725
合同	-11.2725
任意	-11.2726
▁隣	-11.2726
歩き方	-11.2726
歩行	-11.2727
▁わずかの	-11.2727
たやすく	-11.2728
分け前	-11.2728
無視	-11.2729
万歳	-11.273
ありがたい	-11.2731
たね	-11.2732
あえて	-11.2732
子宮	-11.2732
▁何とか	-11.2734
▁シン	-11.2735
るようにする	-11.2736
▁その車は	-11.2737
まひ	-11.2737
▁犬が	-11.2738
想像力	-11.2739
小舟	-11.2739
はさんで	-11.2739
敵軍	-11.274
チームは	-11.2741
入札	-11.2741
祈る	-11.2741
に起こる	-11.2741
▁二つ	-11.2742
贈物	-11.2742
きのこ	-11.2742
▁顔を	-11.2742
日から	-11.2742
内内	-11.2742
不要	-11.2742
古来	-11.2742
元来	-11.2743
▁クリスマスの	-11.2744
さわやかな	-11.2744
最上	-11.2744
おそれ	-11.2744
食肉	-11.2744
相当な	-11.2745
すむ	-11.2745
した人	-11.2747
恋人	-11.2747
木炭	-11.2748
価値がある	-11.2749
公害	-11.275
手順	-11.275
ふくれ	-11.2751
よめ	-11.2752
すう	-11.2752
言行	-11.2753
先生に	-11.2754
▁傍	-11.2754
もてなし	-11.2755
▁しかし	-11.2755
▁日本は	-11.2756
止ま	-11.2756
男が	-11.2757
食用にする	-11.2757
うすい	-11.2758
いなさい	-11.276
刻み	-11.2761
真相	-11.2761
▁牧	-11.2763
生えている	-11.2763
▁別に	-11.2765
彼から	-11.2765
借りること	-11.2765
だれにも	-11.2766
開会	-11.2767
野生	-11.2768
横木	-11.2769
のにおい	-11.277
せみ	-11.2771
▁危	-11.2773
ミス	-11.278
を変えて	-11.2781
▁すい	-11.2781
を測る	-11.2783
大形で	-11.2783
余分	-11.2783
つくす	-11.2784
木を	-11.2786
二重	-11.2786
▁産業	-11.2789
捕え	-11.279
居間	-11.2791
力量	-11.2791
発火	-11.2791
人込み	-11.2792
会長	-11.2793
間違いない	-11.2793
それら	-11.2794
鉄製の	-11.2795
をなくした	-11.2795
板を	-11.2796
を持つこと	-11.2796
曜	-11.2799
物腰	-11.28
上等の	-11.2801
科学者	-11.2802
▁古典	-11.2802
▁かぎ	-11.2803
エル	-11.2803
の美しさ	-11.2804
大洋	-11.2804
▁無線	-11.2805
論理学	-11.2805
を生ずる	-11.2805
いとこ	-11.2806
▁禅	-11.2809
をさっと	-11.2811
少なく	-11.2812
▁病人は	-11.2816
▁必ず	-11.2817
目立つ	-11.2817
からなる	-11.2819
細工物	-11.2819
検事	-11.2822
▁申し	-11.2824
余所	-11.2825
起源	-11.2825
辛い	-11.2825
できるように	-11.2826
たちの	-11.2827
▁社	-11.2827
▁組み	-11.2828
▁おい	-11.2828
君には	-11.2829
▁暴力	-11.2831
学生たち	-11.2833
▁ポ	-11.2833
を踊る	-11.2834
異常な	-11.2835
▁官庁	-11.2836
気球	-11.2839
削	-11.2841
▁漫	-11.2842
純	-11.2843
は彼女	-11.2843
整える	-11.2844
で暮らす	-11.2844
倉庫	-11.2846
チーズ	-11.2846
けし	-11.2846
走って	-11.2848
ピストル	-11.2849
あらかじめ	-11.2849
腰を	-11.285
掛けて	-11.2851
穏やか	-11.2852
尽くし	-11.2852
M	-11.2852
▁死刑	-11.2853
〕「	-11.2853
逃れる	-11.2854
カップ	-11.2854
陥	-11.2854
がれる	-11.2855
居所	-11.2858
頭脳	-11.2858
ワン	-11.2858
烏	-11.2861
応用	-11.2861
累	-11.2862
これに	-11.2862
▁記憶	-11.2863
滑り	-11.2864
合成	-11.2866
艶	-11.2866
大丈夫	-11.2867
▁いつもの	-11.2867
君子	-11.2869
青銅	-11.287
見られる	-11.2874
つえ	-11.2875
自分の意見を	-11.2876
法令	-11.2876
和紙	-11.2876
ばった	-11.2877
書籍	-11.2879
紛れ	-11.2881
の階級	-11.2883
▁けんか	-11.2887
物質の	-11.2889
何だか	-11.2893
透明な	-11.2894
がだんだん	-11.29
▁事態は	-11.29
末に	-11.2901
しゅう	-11.2902
に言えば	-11.2903
午前中	-11.2907
なので	-11.2907
▁完	-11.2907
電子	-11.2907
▁碁	-11.291
今年	-11.2911
出世する	-11.2911
▁声を	-11.2912
印刷物	-11.2913
をよくする	-11.2914
をまぜて	-11.2915
見ている	-11.2915
砕け	-11.2916
▁ド	-11.2916
上手に	-11.2918
▁別の	-11.2919
▁タ	-11.2919
移し	-11.292
▁信号	-11.2922
をたく	-11.2923
をつぐ	-11.2923
▁意味	-11.2923
▁外国語	-11.2926
産する	-11.2928
感じがする	-11.293
こちらの	-11.293
上流	-11.293
定期	-11.293
の少年	-11.2932
野党	-11.2933
▁食べ	-11.2935
はねる	-11.2937
りやすい	-11.2938
ジー	-11.2939
あて名	-11.294
行動を	-11.294
外面	-11.294
を失うこと	-11.2943
▁珍	-11.2943
さくら	-11.2944
▁箱	-11.2946
を防ぎ	-11.2946
となること	-11.2947
うまくいく	-11.2948
一度も	-11.2949
締	-11.2949
▁一緒に	-11.2951
寸法	-11.2952
▁島	-11.2957
▁記念	-11.2961
▁荒れ	-11.2962
の目的で	-11.2962
その話	-11.2963
これだけ	-11.2963
下書き	-11.2965
甘味	-11.2967
になれ	-11.2968
▁緩	-11.2969
正しくない	-11.297
▁口で	-11.2972
ハイ	-11.2972
住むこと	-11.2973
天国	-11.2973
に仕える	-11.2973
平らに	-11.2974
▁ダンス	-11.2974
そろって	-11.2975
進める	-11.2976
一個	-11.2976
▁内部	-11.2978
▁水平	-11.2978
を除いた	-11.298
引かれ	-11.2982
▁六	-11.2983
度に	-11.2984
▁ほかに	-11.2986
しがたい	-11.2986
▁どこか	-11.2987
のぼる	-11.2987
型に	-11.2988
木の葉が	-11.2988
被告人	-11.2989
没する	-11.299
▁鳥が	-11.299
▁寺院	-11.2991
▁如	-11.2992
ないもの	-11.2995
▁かなりの	-11.2998
トリ	-11.2998
他と	-11.3
今までの	-11.3
着いた	-11.3001
▁どう	-11.3001
▁私は彼の	-11.3002
入り乱れ	-11.3003
所がない	-11.3007
生活を	-11.3007
のだから	-11.3008
プロ	-11.3009
それまで	-11.3009
ぶどう	-11.3011
▁核兵器	-11.3011
示している	-11.3012
ラブ	-11.3015
材木	-11.3016
思うように	-11.3016
▁座席	-11.3016
声を	-11.3017
の寸法	-11.3018
▁鋭い	-11.3018
宗教的	-11.302
楽しむこと	-11.3022
をおろす	-11.3026
どちらか	-11.3027
だまして	-11.303
あれば	-11.3033
なれて	-11.3036
陰で	-11.3037
をつくること	-11.3037
だます	-11.3037
現物	-11.3037
聞こえない	-11.3037
売れる	-11.3038
母親の	-11.3043
世を	-11.3043
希望を	-11.3046
がなくなる	-11.3046
▁男女の	-11.3047
聞こえた	-11.3047
みなさい	-11.3047
づら	-11.3048
花びら	-11.3052
を集めて	-11.3052
迎える	-11.3055
雄は	-11.3057
を整える	-11.3057
埋	-11.306
急ぎの	-11.306
その内容	-11.3061
ース	-11.3066
泣	-11.3066
▁朝食	-11.3066
られます	-11.3067
ルト	-11.3068
のあること	-11.3069
やっている	-11.3071
を遂げる	-11.3074
直る	-11.3075
切断	-11.3076
決める	-11.3076
▁小さい	-11.3077
を減らす	-11.3077
中で一番	-11.3081
を並べる	-11.3082
▁おし	-11.3083
▁太鼓	-11.3085
動作が	-11.3088
▁悲しい	-11.3088
一端	-11.3089
取り決め	-11.309
▁小便	-11.309
自分から	-11.3091
ておきなさい	-11.3091
散歩する	-11.3093
ゆり	-11.3096
尋ね	-11.3096
ことが多い	-11.3097
を獲得する	-11.3097
輝く	-11.3097
▁畑	-11.3099
流れている	-11.3102
誇	-11.3102
らなければならない	-11.3104
▁隠	-11.3107
▁B	-11.311
間に合わせ	-11.3111
▁ガ	-11.3113
告げる	-11.3114
個体	-11.3114
びき	-11.3114
変だ	-11.3117
▁宝石	-11.3118
反抗	-11.312
のまわりに	-11.3121
を害する	-11.3122
高温	-11.3122
▁辞書	-11.3123
わな	-11.3125
まっ	-11.313
調子で	-11.3131
捜索	-11.3133
初めに	-11.3133
訪問する	-11.3135
▁僕が	-11.3135
寂	-11.3138
▁家畜	-11.3139
変えること	-11.3139
蒸留	-11.314
に身を	-11.3141
の心	-11.3141
違える	-11.3141
枝を	-11.3143
を求めること	-11.3151
どけ	-11.3155
人に対して	-11.3159
▁ト	-11.3161
弾力	-11.3163
▁ギリシャ	-11.3163
いかがですか	-11.3164
保守	-11.3165
見せかけ	-11.3165
ばかげた	-11.3167
▁緊急	-11.3168
商品の	-11.3168
給水	-11.3168
マス	-11.3171
を書いて	-11.3172
をこめて	-11.3173
戸口	-11.3173
あがること	-11.3175
下宿	-11.3175
地表	-11.3176
▁ボール	-11.3177
ダン	-11.318
小学校	-11.3181
染めた	-11.3183
を発揮する	-11.3183
が異なる	-11.3185
▁生徒	-11.3186
▁そこへ	-11.3187
伝染	-11.319
が来た	-11.3193
いし	-11.3193
▁いったん	-11.3193
組んで	-11.3195
なんとか	-11.3196
▁心身	-11.3196
中身	-11.3197
考えている	-11.3198
刷	-11.3198
▁猛烈な	-11.32
▁童	-11.32
▁過去の	-11.3202
百年	-11.3205
力が	-11.3205
▁ヘ	-11.3207
▁終わり	-11.3207
いるさま	-11.3208
本質	-11.3211
おとな	-11.3215
自国	-11.3217
まれな	-11.3217
を脱ぐ	-11.3219
可能	-11.322
ほれ	-11.322
隠れた	-11.322
狭	-11.3223
おろす	-11.3224
▁続	-11.3224
▁十分な	-11.3225
国籍	-11.3225
過ごした	-11.3226
本日	-11.3227
の広い	-11.3228
壊れ	-11.3228
楽しく	-11.3229
▁暇	-11.3229
▁じゅ	-11.3229
▁はち	-11.3229
甚	-11.323
のところで	-11.323
伸	-11.3231
尽き	-11.3232
揚げる	-11.3234
径	-11.3234
学生が	-11.3235
すわっている	-11.3236
▁抜	-11.3236
全体に	-11.3238
▁欲	-11.3239
そこなう	-11.324
活動する	-11.3241
恥ずかしい	-11.3243
海産	-11.3243
さらさら	-11.3243
抑制	-11.3244
この世	-11.3244
ほどに	-11.3248
均衡	-11.3249
をたたき	-11.3249
駐	-11.325
嫡	-11.3251
だらだら	-11.3251
推進	-11.3251
継続	-11.3252
班	-11.3252
黄褐色	-11.3252
藤	-11.3252
独創	-11.3253
伯	-11.3253
んじゃない	-11.3253
家へ	-11.3253
恒	-11.3253
イオン	-11.3253
相手が	-11.3253
田園	-11.3253
契	-11.3254
牙	-11.3254
すぐれた人	-11.3254
殴	-11.3254
ョ	-11.3254
尋問	-11.3254
k	-11.3254
誕生	-11.3254
須	-11.3254
カルシウム	-11.3254
交互に	-11.3254
桐	-11.3254
乗組員	-11.3254
帥	-11.3254
籤	-11.3254
竿	-11.3254
咳	-11.3254
転換	-11.3254
すさまじい	-11.3254
チョーク	-11.3254
蔓	-11.3254
薫	-11.3254
鯛	-11.3254
ブランデー	-11.3254
擇	-11.3254
濫	-11.3254
カナダ	-11.3254
仲たがい	-11.3254
卜	-11.3254
敬意を表する	-11.3254
燗	-11.3254
飴	-11.3254
ケーブル	-11.3254
扉	-11.3254
莫	-11.3254
行なわれた	-11.3254
びっくりして	-11.3254
ドラマ	-11.3254
篭	-11.3254
鰐	-11.3254
庵	-11.3254
猛烈に	-11.3255
スプーン	-11.3255
▁この上なく	-11.3255
群れをなして	-11.3255
やかましく	-11.3255
独特の	-11.3255
培養	-11.3255
子寬燭舛	-11.3255
を築く	-11.3255
包囲	-11.3255
堤防	-11.3255
キング	-11.3255
粘膜	-11.3255
わかりません	-11.3255
誇張	-11.3255
いただけませんか	-11.3255
停泊	-11.3255
補佐	-11.3255
効能	-11.3255
に次ぐ	-11.3255
規格	-11.3255
助詞	-11.3255
たくましい	-11.3256
人工衛星	-11.3256
祝賀	-11.3256
苦悩	-11.3256
遊戯	-11.3256
少なくとも	-11.3256
あらまし	-11.3256
予測	-11.3256
慣例	-11.3256
恒星	-11.3256
征服	-11.3256
接待	-11.3256
知り合い	-11.3256
▁その事件	-11.3257
われわれ	-11.3257
調停	-11.3257
貝殻	-11.3257
富士	-11.3257
何らかの	-11.3257
記載	-11.3257
かなわない	-11.3257
仕組み	-11.3257
就業	-11.3257
未知の	-11.3257
患部	-11.3257
タンク	-11.3257
屈折	-11.3257
誤差	-11.3257
わざわざ	-11.3258
混雑	-11.3258
とらわれ	-11.3258
やりくり	-11.3258
残忍	-11.3258
いっそう	-11.3258
静脈	-11.3259
▁へたな	-11.3259
勝手な	-11.3259
往生	-11.3259
単独	-11.326
威光	-11.326
きっぱり	-11.326
解散	-11.326
酒に酔って	-11.3261
必ずしも	-11.3261
座標	-11.3261
信託	-11.3261
真似	-11.3261
▁国境	-11.3261
強制的に	-11.3262
信頼できる	-11.3262
値上げ	-11.3262
世襲	-11.3262
オール	-11.3262
絶縁	-11.3262
浄土	-11.3263
さいころ	-11.3263
発育	-11.3263
の上の	-11.3263
著書	-11.3263
笑顔	-11.3263
四季	-11.3263
政務	-11.3263
異なった	-11.3263
武術	-11.3263
を構成する	-11.3263
剣術	-11.3263
鳥獣	-11.3264
強烈な	-11.3264
難破	-11.3265
連結	-11.3265
食べられる	-11.3266
ののしる	-11.3266
令状	-11.3266
食べること	-11.3266
感じを与える	-11.3267
連邦	-11.3267
へだて	-11.3268
いたしました	-11.3268
定期的に	-11.3268
順位	-11.3268
全集	-11.3269
きめる	-11.3269
話し方	-11.3269
▁一家の	-11.327
をさせる	-11.327
取扱い	-11.3271
やっかいな	-11.3271
苦難	-11.3272
公務	-11.3272
走っている	-11.3273
漢文	-11.3273
声明	-11.3274
三日	-11.3275
▁蒸気	-11.3275
喜んだ	-11.3275
▁げん	-11.3275
はく	-11.3275
廻り	-11.3275
無臭	-11.3276
を申し込む	-11.3276
からといって	-11.3276
▁僧	-11.3277
▁さく	-11.3278
▁観光	-11.3278
障り	-11.3278
悪党	-11.3278
無効	-11.3278
すがた	-11.3278
伝達	-11.3279
ほぐ	-11.3279
泣いた	-11.328
観光客	-11.328
修正	-11.328
まぶた	-11.328
を免れ	-11.3281
とされている	-11.3281
連隊	-11.3282
通用	-11.3282
器量	-11.3285
ひそ	-11.3286
ていく	-11.3286
服を着て	-11.3286
一段と	-11.3287
性欲	-11.3287
らっぱ	-11.3287
のに用いる	-11.3288
答えた	-11.3289
合奏	-11.3289
ときは	-11.3289
過ち	-11.3289
乗船	-11.329
自称	-11.329
見渡す	-11.3291
▁恐ろしい	-11.3291
▁その問題	-11.3292
気絶	-11.3293
くぎり	-11.3294
店員	-11.3295
を扱う	-11.3296
堅	-11.3296
体内に	-11.3296
距離を	-11.3297
に浮かぶ	-11.3297
生まれて	-11.3297
これこれ	-11.3298
唱える	-11.33
びれ	-11.3301
ねばならない	-11.3301
荒い	-11.3301
を過ごす	-11.3302
こわれた	-11.3302
尋ねる	-11.3303
なさけ	-11.3303
▁年をとって	-11.3304
滑	-11.3304
読み方	-11.3305
平凡な	-11.3306
退学	-11.3306
独自の	-11.3307
▁ドアが	-11.3309
書きしるす	-11.3309
▁えい	-11.331
外界	-11.3312
書画	-11.3313
相談する	-11.3313
の雨	-11.3315
定規	-11.3315
放す	-11.3318
の際に	-11.3321
▁井戸	-11.3321
しょうゆ	-11.3322
▁恩	-11.3322
まさ	-11.3323
広げ	-11.3323
破り	-11.3323
▁人情	-11.3328
▁トラ	-11.333
ほのか	-11.3333
所有者	-11.3333
▁人間は	-11.3335
重ねて	-11.3342
一刻	-11.3343
立法	-11.3343
▁すぐに	-11.3343
ためになる	-11.3344
▁゚	-11.3345
やめる	-11.3345
▁活	-11.3345
▁彼は父親	-11.3345
▁議論の	-11.3346
武者	-11.3347
のではないかと	-11.3348
歌劇	-11.3348
走ること	-11.3348
ていないこと	-11.3349
の責任	-11.335
無関係	-11.335
換える	-11.3351
音便	-11.3354
▁不可	-11.3354
の割合	-11.3355
腕力	-11.3357
た時	-11.3357
離れて	-11.3357
大学で	-11.3359
熱心な	-11.3362
足音	-11.3366
▁ペ	-11.3366
磁気	-11.3367
いわれ	-11.3368
風土	-11.3368
本体	-11.337
無作法	-11.3372
▁彼から	-11.3373
並べる	-11.3373
のドレス	-11.3373
浄化	-11.3374
上方	-11.3375
の大きい	-11.3376
祝う	-11.3377
かむ	-11.3378
登り	-11.3379
内輪	-11.338
▁赤ん坊は	-11.338
▁兄弟	-11.3384
積み重ね	-11.3385
漢字の	-11.3385
植物の	-11.3386
関係がない	-11.3386
知事	-11.3391
を掘り	-11.3392
▁幾	-11.3394
▁兼	-11.3394
あの世	-11.3395
しめた	-11.3396
すらすらと	-11.3397
フィ	-11.3401
暴動	-11.3402
を妨げる	-11.3402
がね	-11.3402
ふたり	-11.3403
法会	-11.341
▁大便	-11.3411
日の出	-11.3412
サー	-11.3412
月末	-11.3413
削る	-11.3413
慣れる	-11.3414
マイク	-11.3415
▁チ	-11.3416
一種	-11.3416
▁悲	-11.3417
こっそりと	-11.3418
▁断	-11.3418
▁さっさと	-11.3421
仕える	-11.3423
▁勇気	-11.3423
体重	-11.3424
の支払い	-11.3424
周囲の	-11.3427
靴討	-11.3429
違っている	-11.3429
耐	-11.3431
を飛ばす	-11.3431
を勤める	-11.3433
通う	-11.3434
に加わる	-11.3438
▁とんでもない	-11.3439
をひいて	-11.3442
の形で	-11.3443
国王	-11.3443
けがれ	-11.3443
▁複	-11.3443
▁その仕事	-11.3445
暮らしている	-11.3454
前方	-11.3455
悪人	-11.3456
固有の	-11.3457
ローマ	-11.3457
▁地上	-11.3458
ぼし	-11.3458
すでに	-11.3458
タクシー	-11.3459
請け	-11.3459
有機	-11.346
ひざを	-11.3461
▁恐れ	-11.3461
さまざまの	-11.3461
▁はるか	-11.3467
▁貴人	-11.347
寄って	-11.347
D	-11.347
いよいよ	-11.3471
たびたび	-11.3471
▁送	-11.3471
に現れた	-11.3472
かねる	-11.3473
▁セ	-11.3475
▁日常	-11.3475
年ごとに	-11.3475
▁疑問	-11.3476
▁養	-11.3476
洪水	-11.3476
▁会合	-11.3477
ビタミン	-11.3477
をうつ	-11.3479
公開	-11.348
の仲間	-11.348
ばくち	-11.3482
そう言った	-11.3482
優しい	-11.3482
就職	-11.3483
▁台所	-11.3484
ld	-11.3485
と考えている	-11.3485
どうやら	-11.3485
T	-11.3485
熱心	-11.3485
めちゃめちゃに	-11.3485
建設	-11.3486
▁小さな	-11.3486
に足りない	-11.3488
涙を流す	-11.3488
固め	-11.3488
梅雨	-11.3489
哀	-11.3489
の体	-11.3489
山頂	-11.349
偏見	-11.349
国土	-11.3491
シャ	-11.3491
国外	-11.3492
ぜひ	-11.3493
▁出産	-11.3494
インフレ	-11.3495
メートルの	-11.3496
予備	-11.3501
▁彼はどんな	-11.3503
そうしたもの	-11.3503
悪意	-11.3505
心の中に	-11.3505
海底	-11.3506
▁彼は我々	-11.3508
▁大体	-11.3511
群がって	-11.3512
繁殖	-11.3513
皮を	-11.3513
▁戦争の	-11.3513
二人以上	-11.3514
言ったり	-11.3516
酸味	-11.3517
地味	-11.3518
その問題について	-11.3519
明治	-11.352
▁裁縫	-11.3524
六つ	-11.3526
▁文章の	-11.3526
正常	-11.3531
集めて	-11.3533
芸者	-11.3533
の下で	-11.3533
ずく	-11.3535
▁風呂	-11.3536
はかない	-11.3537
接する	-11.3539
外見	-11.354
チョウ	-11.354
腹を立てる	-11.3541
てから	-11.3541
引き出し	-11.3542
の諸	-11.3545
立体	-11.3546
▁どん	-11.3549
▁彼も	-11.3553
▁老い	-11.3553
まさか	-11.3556
高等学校	-11.3557
▁彼はひどく	-11.356
間柄	-11.356
いくさ	-11.3562
意味の	-11.3565
▁公共	-11.3566
▁網	-11.357
みえ	-11.3571
月日	-11.3578
セーター	-11.3578
大根	-11.3579
▁部屋の	-11.3579
たない	-11.3581
▁燃料	-11.3581
□・・	-11.3581
たず	-11.3582
厳重に	-11.3583
綴	-11.3583
高値	-11.3583
▁よし	-11.3583
があまり	-11.3583
さも	-11.3586
▁女子	-11.3588
の旅	-11.3591
かなりの	-11.3592
同等	-11.3593
集まっている	-11.3594
▁解	-11.3595
を求め	-11.3595
▁巻き	-11.3596
大砲	-11.3596
やってみた	-11.3597
▁妻の	-11.3597
あがって	-11.3597
私にとって	-11.3599
熟した	-11.36
千万円	-11.3603
の母	-11.3603
▁do	-11.3604
しょく	-11.3605
▁くず	-11.3607
を取った	-11.3608
仏道	-11.361
▁国の	-11.361
もよい	-11.3612
が無い	-11.3613
as	-11.3615
▁種種の	-11.3619
▁この問題は	-11.3622
はっと	-11.3622
▁昨夜は	-11.3623
通過	-11.3624
語った	-11.3624
成る	-11.3624
先日	-11.3625
くわえ	-11.3627
▁和歌	-11.3629
組む	-11.363
の薬	-11.3631
炎症	-11.3633
悪口を言う	-11.3634
通ってい	-11.3634
▁昆虫	-11.3635
を開始する	-11.3638
過労	-11.3639
の新	-11.3639
をちょっと	-11.364
▁聴覚	-11.364
▁めでたい	-11.3645
南北	-11.3646
▁彼は妻	-11.3646
▁筋	-11.3648
▁我	-11.3649
一撃	-11.365
鷹	-11.3657
してはならない	-11.3657
打ち解け	-11.366
をあて	-11.3661
▁累	-11.3661
事を行う	-11.3662
ようなことを	-11.3662
武士の	-11.3662
▁彼はドア	-11.3663
▁烏	-11.3664
着く	-11.3667
を注ぐ	-11.3668
散り	-11.367
の温度	-11.367
▁江戸時代に	-11.367
もともと	-11.367
自動車の	-11.367
テント	-11.367
見掛け	-11.3672
本心	-11.3673
警察に	-11.3673
▁広告	-11.3674
▁運命	-11.3675
の者が	-11.3676
▁敬	-11.3677
を加えた	-11.3678
▁だれにも	-11.3679
できるだけ	-11.3681
乱暴に	-11.3683
科の落葉低木	-11.3685
意見を述べる	-11.3686
最新の	-11.3687
主人の	-11.3688
噴	-11.3689
▁厚	-11.369
あとの	-11.3691
話して	-11.3692
平地	-11.3693
て言う語	-11.3693
グレ	-11.3694
自殺する	-11.3697
方言	-11.37
切に	-11.3701
行か	-11.3701
ぐり	-11.3701
勝敗	-11.3702
に添える	-11.3702
さあ	-11.3703
▁ある物	-11.3703
▁事業	-11.3704
土曜日	-11.3706
の羽	-11.3706
の顔	-11.3707
▁熱帯	-11.3709
の山	-11.371
▁こんなに	-11.371
の糸	-11.3711
▁貝	-11.3714
溶け	-11.3716
問題について	-11.3717
の発達	-11.3719
此	-11.3719
ならなかった	-11.3719
だれの	-11.372
供える	-11.3721
作られる	-11.3722
であり	-11.3724
ほほえみ	-11.3724
手荷物	-11.3724
ter	-11.3725
▁バイオリン	-11.3725
▁応	-11.3725
▁費用は	-11.3731
の花が	-11.3733
作物の	-11.3734
いすを	-11.3734
▁情け	-11.3736
▁穀物	-11.3738
▁新聞の	-11.3738
甘く	-11.374
けもの	-11.3741
公平に	-11.3743
せなかった	-11.3743
溶	-11.3744
選ぶ	-11.3745
生理	-11.3746
を見捨て	-11.3747
▁ほら	-11.3747
説得	-11.3748
の骨	-11.3752
こわす	-11.3753
管轄	-11.3753
切ること	-11.3754
▁灰	-11.3755
党員	-11.3756
かぬ	-11.3756
を動かす	-11.3758
がとれる	-11.3759
▁講義	-11.3761
十一	-11.3762
無く	-11.3763
この点	-11.3763
取り入れ	-11.3764
に及ぶ	-11.3765
ことがわかっ	-11.3765
日常の	-11.3765
ないうちに	-11.3766
浮かぶ	-11.3768
ポン	-11.3768
を知らせる	-11.3768
送金	-11.3769
簡略	-11.3769
呈	-11.3769
模型	-11.3771
▁大丈夫	-11.3772
▁堅い	-11.3772
▁小麦	-11.3772
何事も	-11.3774
ーム	-11.3775
監禁	-11.3776
強いこと	-11.3776
▁先生	-11.378
俗人	-11.378
概	-11.3782
燃	-11.3783
焼ける	-11.3783
を乱す	-11.3785
せられた	-11.3785
つる草	-11.3785
上陸	-11.3786
の月	-11.3787
に関すること	-11.3789
抜いて	-11.3789
貼	-11.3791
お辞儀	-11.3792
を愛する	-11.3792
水の	-11.3796
▁健	-11.3799
▁火山	-11.38
せば	-11.3803
滅び	-11.3804
▁非常な	-11.3806
胎児	-11.3807
飼	-11.3808
ウエスト	-11.3809
ずし	-11.3812
こし	-11.3812
徹	-11.3813
▁約	-11.3813
を浴びる	-11.3813
尋ねた	-11.3814
あんなに	-11.3816
嘆願	-11.3817
になるような	-11.3817
を晴らす	-11.3817
配り	-11.3818
なう	-11.3819
たがる	-11.3819
明らか	-11.382
の中へ	-11.3821
漠	-11.3821
戦争で	-11.3821
でこぼこ	-11.3821
破れ	-11.3822
▁じゃ	-11.3823
認	-11.3824
をすっかり	-11.3824
始末	-11.3824
提供	-11.3825
徹底	-11.3825
自尊心	-11.3825
絹布	-11.3826
永遠	-11.3826
宣告	-11.3826
不定	-11.3827
多くの人	-11.3827
一か所に	-11.383
媒	-11.3831
▁みだらな	-11.3831
▁エレベーター	-11.3832
注ぎ	-11.3832
を断つ	-11.3833
隅	-11.3834
へや	-11.3834
に値する	-11.3835
鋒	-11.3836
査	-11.3836
を禁じ	-11.3837
le	-11.3837
と見	-11.3838
▁当て	-11.3838
▁相互	-11.3838
委	-11.3839
を帯びて	-11.384
推定	-11.384
芳	-11.384
蹐	-11.384
日常	-11.384
混合	-11.384
▁嫁	-11.384
の仲	-11.384
錯	-11.384
尼	-11.3841
に達した	-11.3841
武装	-11.3841
F	-11.3841
需	-11.3841
弥	-11.3841
杉	-11.3842
せっせと	-11.3842
苛	-11.3842
を払って	-11.3842
拳銃	-11.3842
肖像画	-11.3842
を禁ずる	-11.3842
款	-11.3843
奨	-11.3843
紗	-11.3843
胚	-11.3843
喝	-11.3843
誼	-11.3843
にかかわらず	-11.3843
いわゆる	-11.3843
文房具	-11.3843
朴	-11.3843
次から次へと	-11.3843
燕	-11.3843
G	-11.3843
L	-11.3843
うろたえ	-11.3843
ちゅうちょ	-11.3843
を慰める	-11.3843
タッチ	-11.3843
痔	-11.3843
詮	-11.3843
▁飢え	-11.3843
ジャングル	-11.3843
トマト	-11.3843
奨学金	-11.3843
ホルモン	-11.3843
大げさに	-11.3843
曚	-11.3843
をきわめる	-11.3843
閨	-11.3843
コルク	-11.3843
辛抱	-11.3843
スイッチ	-11.3843
吾	-11.3843
郡	-11.3843
徐々に	-11.3843
ばさみ	-11.3843
を仰ぐ	-11.3843
たぶん	-11.3843
表彰	-11.3843
▁二十四気	-11.3843
煩悩	-11.3843
催促	-11.3843
夜が明け	-11.3843
たきぎ	-11.3843
イングランド	-11.3843
カーブ	-11.3843
巡査	-11.3843
暖炉	-11.3843
潜水艦	-11.3843
五月ごろ	-11.3844
発酵	-11.3844
外套	-11.3844
ミシン	-11.3844
周旋	-11.3844
放射線	-11.3844
セメント	-11.3844
ウェ	-11.3844
激励	-11.3844
腐敗	-11.3844
やさしく	-11.3844
功労	-11.3844
関東	-11.3844
簿記	-11.3844
艦隊	-11.3844
ギヤ	-11.3844
となえる	-11.3844
ブック	-11.3844
賃上げ	-11.3844
をたどる	-11.3844
誠意	-11.3845
結末	-11.3845
郷里	-11.3845
光栄	-11.3845
デート	-11.3845
土俵	-11.3845
婚礼	-11.3845
休止	-11.3845
皇族	-11.3845
冷凍	-11.3846
国家の	-11.3846
球技	-11.3846
デモ	-11.3846
長い年月	-11.3846
ジャム	-11.3846
に含まれる	-11.3846
ソン	-11.3847
レール	-11.3847
たくみに	-11.3847
發里	-11.3847
浜辺	-11.3847
住んでいた	-11.3847
▁都会	-11.3848
因縁	-11.3848
工具	-11.3848
▁まるで	-11.3848
達成	-11.3848
百姓	-11.3848
ほんの少し	-11.3849
テレ	-11.3849
突破	-11.3849
失策	-11.3849
農夫	-11.3849
▁妊娠	-11.3849
情景	-11.3849
ある種の	-11.385
自動的に	-11.385
危害	-11.385
草稿	-11.3851
売り上げ	-11.3851
▁この部屋は	-11.3851
殺害	-11.3851
卒業生	-11.3851
に相当する	-11.3851
に報いる	-11.3851
はげしく	-11.3852
荒廃	-11.3852
カット	-11.3852
実施	-11.3852
メモ	-11.3853
体育	-11.3853
のでなく	-11.3854
砂糖を	-11.3854
見出し	-11.3854
歴史的	-11.3854
平静	-11.3854
こぼし	-11.3854
会わない	-11.3855
高貴	-11.3855
減少	-11.3855
成句	-11.3855
不愉快	-11.3855
可能な	-11.3855
禁煙	-11.3855
クマ	-11.3856
沈む	-11.3856
要約	-11.3856
定刻	-11.3857
皮膚病	-11.3857
断定	-11.3857
くらべ	-11.3857
おおもと	-11.3857
反省	-11.3857
合議	-11.3857
生育	-11.3857
不便	-11.3858
パンチ	-11.3858
にあずかる	-11.3858
生きて	-11.3858
手がかり	-11.3858
一晩中	-11.3858
利息	-11.3859
▁中古	-11.3859
火鉢	-11.3859
みがき	-11.3859
逆転	-11.3859
神秘的な	-11.3859
真価	-11.3859
重荷	-11.3859
くじら	-11.386
九州	-11.3861
計器	-11.3861
長生き	-11.3861
原野	-11.3862
考えてみ	-11.3863
▁処女	-11.3863
黄色で	-11.3863
すっきり	-11.3863
▁電力	-11.3863
緑色で	-11.3864
せられる	-11.3865
ちがい	-11.3866
音を出す	-11.3866
上司	-11.3866
純白	-11.3866
開業	-11.3867
あげく	-11.3867
読み書き	-11.3868
けがをした	-11.3869
もはや	-11.3869
ところがあった	-11.387
粒子	-11.387
選手権	-11.3871
単なる	-11.3871
行けば	-11.3871
たぐい	-11.3872
ぶね	-11.3872
暗示	-11.3873
土地の	-11.3874
群集	-11.3874
出帆	-11.3875
にあてる	-11.3875
今では	-11.3875
化粧品	-11.3876
きる	-11.3876
兵役	-11.3877
をなしている	-11.3878
はずいぶん	-11.3878
砂利	-11.3878
半島	-11.3879
整数	-11.3879
陣地	-11.388
▁東洋	-11.3882
あざやかな	-11.3883
▁脊椎動物の	-11.3883
をこしらえる	-11.3883
一まとまり	-11.3884
示した	-11.3884
確実	-11.3884
翌日	-11.3885
一年中	-11.3885
▁れい	-11.3886
不和	-11.3886
助けてくれ	-11.3886
歌曲	-11.3887
当座	-11.3888
ちがう	-11.3889
好ましくない	-11.3889
直立	-11.389
▁困難	-11.389
坊や	-11.389
▁疲れ	-11.3891
学位	-11.3891
▁結果は	-11.3892
▁幽	-11.3893
▁漸	-11.3894
▁シェイクスピア	-11.3896
に帰する	-11.3897
正直に	-11.3897
はかま	-11.3898
と言われる	-11.3898
通例	-11.3898
を確かめる	-11.3899
との中間	-11.3899
▁ペンキ	-11.39
帆船	-11.39
資本家	-11.3901
正確	-11.3901
えば	-11.3901
穂状	-11.3901
斜めに	-11.3902
主役	-11.3902
の役	-11.3902
自分を	-11.3902
浅く	-11.3904
▁足の	-11.3905
不完全	-11.3905
に参加する	-11.3905
▁仲間	-11.3906
た食品	-11.3907
が切れ	-11.3908
々たる	-11.3908
▁食物	-11.3908
方策	-11.3908
しぼり	-11.3909
柔らかな	-11.391
の鳥	-11.391
▁身長	-11.3911
実が	-11.3911
音程	-11.3912
▁頬	-11.3912
谷間	-11.3912
主任	-11.3912
▁拙	-11.3913
この計画	-11.3914
支配者	-11.3915
脚本	-11.3916
帰国	-11.3917
そうな様子	-11.3917
▁水は	-11.3918
▁こちら	-11.3918
ある場所	-11.392
第三者	-11.3921
下院	-11.3921
酔う	-11.3921
才気	-11.3921
会社に	-11.3921
にそむく	-11.3923
くだもの	-11.3924
▁こく	-11.3927
にすむ	-11.3927
▁私は彼女	-11.3928
説く	-11.3931
つな	-11.3932
に分けて	-11.3933
に似ているが	-11.3933
あいている	-11.3934
半期	-11.3934
▁興行	-11.3935
ふところ	-11.3935
もらって	-11.3937
おかず	-11.3937
▁°	-11.3939
獲得	-11.3939
▁秋の	-11.394
▁身分の高い人	-11.3941
▁男性	-11.3942
休息	-11.3942
蕕譴	-11.3943
仮に	-11.3943
育てること	-11.3944
がちだ	-11.3944
度数	-11.3944
▁没	-11.3944
創作	-11.3945
不明の	-11.3946
▁女性の	-11.3946
杯の	-11.3948
▁頓	-11.3949
▁聖書	-11.395
の荒い	-11.395
全世界	-11.3952
歩道	-11.3953
に話す	-11.3953
金持	-11.3953
くれませんか	-11.3953
枝が	-11.3955
包む	-11.3955
▁ロープを	-11.3956
よくよく	-11.3958
王国	-11.3958
▁春の	-11.396
政界	-11.3964
の政治	-11.3965
詩の	-11.3968
小説家	-11.3968
寄せ集め	-11.397
を上げて	-11.397
霧が	-11.3972
時刻に	-11.3973
▁私たちの	-11.3973
血が	-11.3974
の模様	-11.3974
を巻く	-11.3975
▁昨夜	-11.3976
▁昼食	-11.3977
ント	-11.3977
かぶと	-11.3978
船を	-11.3978
乗せて	-11.3978
の景色	-11.3978
と聞いて	-11.398
方方	-11.398
▁ジョン	-11.398
加わる	-11.398
その上	-11.3981
をごまかす	-11.3982
を起こし	-11.3982
ギター	-11.3982
腐れ	-11.3984
はいる	-11.3985
▁不平	-11.3985
▁彼は友人	-11.3986
くてたまらない	-11.3986
▁肥	-11.3987
物事を行う	-11.3987
日曜	-11.3988
大家	-11.3989
越年生	-11.399
活動の	-11.399
つやがある	-11.3992
米を	-11.3992
銃声	-11.3993
▁車を	-11.3993
を見ること	-11.3995
生物が	-11.3996
点数	-11.3996
あふれてい	-11.3997
ぞっとし	-11.3998
割れた	-11.3999
貯え	-11.4001
▁表面	-11.4003
▁寄	-11.4004
を楽しむ	-11.4006
不作	-11.4006
上演	-11.4007
降った	-11.4009
▁責め	-11.4009
ができ	-11.401
とどめ	-11.4011
東洋	-11.4012
涙を	-11.4013
大笑い	-11.4014
を抜いて	-11.4014
▁絵画	-11.4015
に悩む	-11.4018
投げる	-11.4021
▁P	-11.4021
▁衆	-11.4021
▁株式	-11.4023
▁食物を	-11.4024
平方	-11.4025
▁穴	-11.4029
的には	-11.403
▁なお	-11.4032
が落ちる	-11.4033
すわること	-11.4034
伝える	-11.4034
▁警戒	-11.4036
▁むり	-11.4036
▁軍艦	-11.404
▁濃	-11.4041
をいう	-11.4042
小便	-11.4042
かって	-11.4042
ならす	-11.4044
海上	-11.4048
もも	-11.4049
によい	-11.405
の客	-11.405
どく	-11.4052
年生	-11.4055
会場	-11.4056
計画を立てる	-11.4057
▁ジャ	-11.4058
のないように	-11.4058
に立ち	-11.406
▁馬を	-11.4062
日本に	-11.4063
誓	-11.4063
をつなぐ	-11.4063
出発した	-11.4065
でもある	-11.4068
〇〇	-11.4069
▁かわいい	-11.407
すくい	-11.4075
スピード	-11.4075
急所	-11.4076
その日の	-11.4079
を証明する	-11.408
▁水の	-11.4081
してよい	-11.4081
分別	-11.4082
下にある	-11.4083
▁人類	-11.4084
巻きつけ	-11.4084
▁又	-11.4085
▁狩猟	-11.4085
かれて	-11.4086
を他の	-11.4086
▁運賃	-11.4088
その場	-11.409
斜め	-11.4091
ねばり	-11.4091
よる	-11.4092
かろう	-11.4092
ったりする	-11.4094
▁釣	-11.4096
共鳴	-11.4097
おぼれる	-11.4098
リス	-11.4098
その上に	-11.41
▁軍人	-11.41
▁意志	-11.4101
▁出来	-11.4101
をつけない	-11.4103
▁悪魔	-11.4108
▁言葉を	-11.4108
日曜日	-11.4109
グル	-11.4109
▁この世	-11.411
だらけ	-11.411
▁しょ	-11.411
しません	-11.4112
一派	-11.4112
去って	-11.4112
を望む	-11.4113
ドイツ	-11.4114
大気	-11.4115
メン	-11.4116
を貸して	-11.4116
衣類を	-11.4116
になります	-11.4117
細君	-11.4117
論ずる	-11.4119
の作用	-11.412
▁彼女を	-11.412
▁まさか	-11.412
求めること	-11.412
▁舟	-11.4121
の要求	-11.4122
皮膚に	-11.4125
ができて	-11.4125
通じている	-11.4127
すぐれたもの	-11.4127
実体	-11.4127
▁排水	-11.4129
もしなかった	-11.413
ふん	-11.413
かざ	-11.4137
▁つめ	-11.4139
▁カメラ	-11.4141
に属し	-11.4141
私たちは	-11.4141
▁ジョンは	-11.4141
陰謀	-11.4144
ジャズ	-11.4147
紛	-11.4147
鳩	-11.4147
英文学	-11.4149
N	-11.415
凶	-11.415
幾つ	-11.415
歩調	-11.415
とらえ	-11.4151
▁職務	-11.4152
をかむ	-11.4152
君も	-11.4153
行ない	-11.4154
飼う	-11.4155
イタリア	-11.4156
小麦粉	-11.4156
不幸な	-11.4159
▁邪	-11.4159
食卓	-11.4162
を述べた	-11.4163
田舎	-11.4163
状態にする	-11.4164
のほうへ	-11.4166
食料	-11.4167
の車	-11.4168
をなして	-11.4168
▁雲が	-11.4171
航空	-11.4171
▁会場	-11.4171
当日	-11.4172
野外	-11.4172
外から	-11.4174
僕に	-11.4177
忘れた	-11.4177
一筆	-11.4177
そろえ	-11.4179
番目	-11.4183
税金	-11.4184
▁赤道	-11.4184
で打つ	-11.4185
から離れて	-11.4187
便所	-11.4187
っぽく	-11.4188
▁侍	-11.4188
▁呼び	-11.4189
一通り	-11.419
全体を	-11.419
表現する	-11.4191
▁20	-11.4191
がたまる	-11.4191
▁正面	-11.4192
▁まめ	-11.4194
を結び	-11.4194
▁家屋	-11.4195
それでも	-11.4195
したりすること	-11.4196
道が	-11.4198
液体の	-11.4199
に残る	-11.42
▁ベッド	-11.4202
▁怪	-11.4202
▁枕	-11.4202
済み	-11.4203
焼けて	-11.4204
▁鉄道の	-11.4204
▁技術	-11.4204
▁事件の	-11.4207
てもいい	-11.4207
▁誤った	-11.4207
いただき	-11.421
の価格	-11.421
お話	-11.4211
▁T	-11.4213
▁建設	-11.4214
もんか	-11.4214
降ろ	-11.4215
に走る	-11.4215
を与えること	-11.4215
▁ほお	-11.4216
運動をする	-11.4218
つみ	-11.4218
電話をかけ	-11.4219
その場で	-11.422
夏に	-11.4221
小石	-11.4221
任命	-11.4221
こもって	-11.4221
したものだ	-11.4222
▁すでに	-11.4225
金属を	-11.4225
に変わる	-11.4226
の豊かな	-11.4226
仕入れ	-11.4226
赤道	-11.423
味が	-11.4231
経済的	-11.4235
▁次	-11.4235
▁洗濯	-11.4236
その辺	-11.4237
見えること	-11.4238
本国	-11.4239
なれば	-11.4239
神道	-11.4239
赤ん坊を	-11.4243
信じる	-11.4243
端に	-11.4249
▁英語を	-11.4252
じき	-11.4253
分の一	-11.4253
版画	-11.4256
吹く風	-11.4257
をきれいに	-11.426
言いつけ	-11.4261
動物が	-11.4261
西部	-11.4261
▁保険	-11.4265
人人が	-11.4265
等で	-11.4265
▁禁酒	-11.4265
告白	-11.4266
▁排	-11.4266
青空	-11.4267
召し	-11.4269
もありません	-11.4269
の一派	-11.4271
飛んでい	-11.4272
▁原子	-11.4273
虫が	-11.4274
▁白い	-11.4274
▁工事	-11.4275
流出	-11.4276
な男	-11.4277
▁書籍	-11.428
の保護	-11.428
▁かき	-11.4281
力学	-11.4282
かぶる	-11.4283
北方	-11.4283
の回転	-11.4284
貯	-11.4285
の力で	-11.4286
頑張	-11.4286
馬に乗って	-11.4286
▁これを	-11.4288
くっつく	-11.429
▁昨日	-11.4295
の着物	-11.4297
▁長さ	-11.4297
持っていること	-11.4298
▁かぜ	-11.4299
大人	-11.43
ありのまま	-11.4301
打ち明け	-11.4301
じた	-11.4303
新聞で	-11.4304
下がった	-11.4304
察する	-11.4306
尊重	-11.4306
はじき	-11.4306
▁天才	-11.4308
恐れて	-11.431
始まる	-11.431
学士	-11.4312
多くの人が	-11.4313
きれない	-11.4314
フォー	-11.4314
六月	-11.4318
▁抗	-11.4318
に立って	-11.4321
僕が	-11.4323
に書く	-11.4325
結婚の	-11.4325
の地位	-11.4328
▁なぞ	-11.4331
の順序	-11.4331
▁成功	-11.4331
▁靴を	-11.4333
当時の	-11.4334
女だ	-11.4334
新人	-11.4336
糸で	-11.4337
債	-11.4337
の小説	-11.4341
▁仙	-11.4343
から成り	-11.4343
の午後	-11.4343
▁予想	-11.4345
値打ち	-11.4345
▁いつか	-11.4345
▁パイプ	-11.4347
同類の	-11.4348
の和	-11.4351
ホテルに	-11.4352
簡単	-11.4352
をたたいて	-11.4354
ローマ字	-11.4355
ハー	-11.4357
▁憲法	-11.4357
▁かなり	-11.4358
大都市	-11.4358
▁駄	-11.4359
は薬用	-11.436
じょうずに	-11.436
つぐ	-11.4362
一番よい	-11.4363
▁爪	-11.4365
を引いた	-11.4365
の戦い	-11.4365
▁特別の	-11.4365
時だ	-11.4369
据え	-11.4371
をもらって	-11.4372
をつぶす	-11.4372
なくては	-11.4373
暖地	-11.4373
の意志	-11.4376
旗を	-11.4376
計算する	-11.4376
▁田	-11.4376
▁濃い	-11.438
部屋の中	-11.4386
はまるで	-11.4386
に分かれて	-11.4387
の重さ	-11.4388
に来た	-11.4389
ドライブ	-11.439
掘	-11.439
の主人	-11.4391
たいした	-11.4391
▁キリスト教で	-11.4392
延期	-11.4393
言われる	-11.4393
右手	-11.4394
公認	-11.4394
の幼虫	-11.4394
休め	-11.4395
努力した	-11.4398
があったら	-11.4403
もせず	-11.4403
五弁	-11.4404
▁婚約	-11.4406
別れる	-11.4406
▁彼らは彼の	-11.4408
▁通信	-11.4408
突き出た	-11.441
▁袖	-11.441
書物の	-11.441
▁やがて	-11.4412
まとめた	-11.4412
ひっくり返	-11.4415
飛行機が	-11.4416
を挙げる	-11.4417
がほしい	-11.4417
▁書物を	-11.4418
を捜した	-11.4418
つかまえる	-11.442
▁値段	-11.4422
あじ	-11.4422
▁まっすぐ	-11.4423
出入	-11.4423
が残る	-11.4424
が悪く	-11.4424
ぶった	-11.4426
恨	-11.4426
腰掛け	-11.4426
▁地球は	-11.4426
▁船を	-11.4427
やすく	-11.4428
▁手術	-11.4428
ぐれ	-11.4429
の成功を	-11.443
▁図書館	-11.443
未開	-11.443
軽率	-11.4431
そこへ	-11.4433
▁準備	-11.4433
をしないこと	-11.4434
山道	-11.4436
御所	-11.4436
すまい	-11.4437
▁いか	-11.444
歩き回る	-11.444
じょうず	-11.4441
募	-11.4441
でたらめ	-11.4442
分割	-11.4443
反逆	-11.4443
が切れる	-11.4443
婦人用	-11.4443
の中にある	-11.4444
▁たいていの	-11.4447
にぶい	-11.4447
見ても	-11.4447
共産主義	-11.4447
ドリ	-11.4447
履	-11.4447
にはいる	-11.4447
ひろ	-11.4448
般	-11.4448
記した	-11.4448
正当	-11.4449
厄	-11.4452
気になった	-11.4452
意味で	-11.4452
征	-11.4452
こっち	-11.4452
縁組	-11.4453
稼ぎ	-11.4455
をせず	-11.4456
究	-11.4458
出資	-11.4458
汽	-11.4459
威勢	-11.4459
痕	-11.446
出てくる	-11.4461
に産する	-11.4462
囲碁	-11.4462
婆	-11.4462
絵をかく	-11.4462
申しあげます	-11.4463
をねらう	-11.4463
を支える	-11.4463
傑	-11.4464
臼	-11.4464
▁並	-11.4464
は僕の	-11.4464
さらし	-11.4464
まんまと	-11.4465
容赦	-11.4465
キュ	-11.4465
謹	-11.4465
肢	-11.4466
リットル	-11.4466
いかがわしい	-11.4467
スピーチ	-11.4467
爐	-11.4467
遡	-11.4468
悊	-11.4468
瘡	-11.4468
屠	-11.4468
欺	-11.4468
漿	-11.4468
窟	-11.4468
聾	-11.4468
x	-11.4468
廓	-11.4468
畔	-11.4468
稜	-11.4468
躯	-11.4468
あこがれ	-11.4468
丁寧に	-11.4468
准	-11.4468
幾重にも	-11.4468
俊	-11.4468
斧	-11.4468
註	-11.4468
途方もない	-11.4468
ボクサー	-11.4468
只	-11.4468
吠	-11.4468
祥	-11.4468
誅	-11.4468
鄙	-11.4468
ぐるりと	-11.4468
そろばん	-11.4468
そわそわ	-11.4468
ちょっぴり	-11.4468
オーケストラ	-11.4468
ステレオ	-11.4468
猥	-11.4468
疵	-11.4468
謙遜	-11.4468
とは限らない	-11.4468
オフィス	-11.4468
灌	-11.4468
ナトリウム	-11.4468
▁握り	-11.4468
未亡人	-11.4468
アルミニウム	-11.4468
びっくりする	-11.4468
いろんな	-11.4468
プラスチック	-11.4468
昭和	-11.4468
グラム	-11.4468
孟	-11.4468
認可	-11.4468
か否か	-11.4468
膨張	-11.4468
けしからぬ	-11.4468
正方形	-11.4468
用途が広い	-11.4468
かろうじて	-11.4468
伸縮	-11.4468
採掘	-11.4468
崩壊	-11.4468
徴候	-11.4468
調味料	-11.4468
頑固	-11.4468
進退	-11.4468
至る所	-11.4468
ブラック	-11.4468
強引に	-11.4468
ラッパ	-11.4468
▁妙	-11.4468
問答	-11.4469
充実	-11.4469
実践	-11.4469
誓約	-11.4469
きく科の多年生植物	-11.4469
イエス	-11.4469
包丁	-11.4469
を越えた	-11.4469
諸侯	-11.4469
同種の	-11.4469
お願いします	-11.4469
何年も	-11.4469
完結	-11.4469
のぞき	-11.4469
預かり	-11.4469
語彙	-11.447
意匠	-11.447
隔たり	-11.447
喪失	-11.447
索引	-11.447
傑作	-11.447
こまかく	-11.447
設けられた	-11.447
傍聴	-11.447
弊害	-11.447
謝礼	-11.447
しのぎ	-11.447
容積	-11.447
了解	-11.447
保有	-11.447
参照	-11.447
どなた	-11.4471
堅固	-11.4471
例えば	-11.4471
限定	-11.4471
わきまえ	-11.4471
海苔	-11.4471
曇った	-11.4471
ペット	-11.4471
▁会計	-11.4471
を売って	-11.4471
僕には	-11.4471
引退	-11.4472
全般	-11.4472
炊事	-11.4472
小作	-11.4472
担任	-11.4472
ちょろ	-11.4472
あんまり	-11.4472
身分の低い	-11.4472
ジム	-11.4472
溶接	-11.4473
▁その川は	-11.4473
ノン	-11.4473
の度合	-11.4473
呑み	-11.4473
特質	-11.4475
偽造	-11.4475
荷造り	-11.4476
▁部屋を	-11.4476
返礼	-11.4476
を刈る	-11.4476
逃亡	-11.4476
ジェット機	-11.4476
を備えた	-11.4476
しかたがない	-11.4476
酒宴	-11.4477
選挙区	-11.4477
になりたい	-11.4477
映画館	-11.4477
言葉づかい	-11.4477
採点	-11.4478
容量	-11.4478
▁その劇は	-11.4478
優良	-11.4478
指紋	-11.4478
無分別	-11.4479
女郎	-11.4479
泳いで	-11.4479
不振	-11.4481
敵意	-11.4481
に至る	-11.4481
美容	-11.4481
天災	-11.4482
中年	-11.4482
破滅	-11.4482
手を振って	-11.4482
忌み	-11.4482
不可能だ	-11.4483
答案	-11.4483
牢屋	-11.4483
羽根	-11.4483
伝記	-11.4484
片づける	-11.4484
あたま	-11.4484
占い	-11.4484
技法	-11.4484
こども	-11.4484
即席	-11.4484
合い図	-11.4485
骨組	-11.4486
昼夜	-11.4486
▁内閣	-11.4486
出ていた	-11.4486
学級	-11.4487
複写	-11.4487
愛好	-11.4488
▁費用	-11.4488
豊富な	-11.4489
金庫	-11.449
をなくす	-11.449
建築物	-11.449
傷害	-11.449
▁品質	-11.449
▁余計な	-11.4491
文壇	-11.4491
平常	-11.4491
に気をつけ	-11.4491
好んで	-11.4492
引っぱる	-11.4493
倍の	-11.4493
増大	-11.4493
なすべき	-11.4494
ぴったり合う	-11.4494
権力を	-11.4495
煎じ	-11.4495
打ち上げ	-11.4496
今頃	-11.4496
競技場	-11.4496
学校へ行く	-11.4496
しかけ	-11.4496
を引き出す	-11.4496
▁畳	-11.4498
消費者	-11.4498
食料品	-11.4498
領主	-11.4498
婦人服	-11.4498
和解	-11.4499
額面	-11.4499
通常	-11.4499
▁山野	-11.45
汗を	-11.45
は言えない	-11.45
▁にわかに	-11.4502
霊魂	-11.4502
草原	-11.4502
債権者	-11.4502
話し合う	-11.4502
地盤	-11.4503
靴覆	-11.4503
考えられる	-11.4504
遺産	-11.4505
実在	-11.4505
後退	-11.4505
血筋	-11.4505
が伴う	-11.4506
できます	-11.4506
▁ある事を	-11.4507
旅費	-11.4507
エン	-11.4507
年頃	-11.4507
年寄り	-11.4508
を生む	-11.4508
我慢する	-11.4509
ずき	-11.4509
着用	-11.4509
慣れた	-11.4509
天罰	-11.451
国防	-11.451
魔法	-11.4511
救い	-11.4511
優美な	-11.4511
っ面	-11.4512
▁探	-11.4514
晴れた	-11.4516
渡った	-11.4516
高級	-11.4517
あわせて	-11.4518
にしても	-11.4518
海辺	-11.4518
下ろし	-11.4518
に気づいた	-11.452
▁戦場	-11.452
▁側	-11.4521
買手	-11.4521
▁彼は何	-11.4521
はめ	-11.4522
がかり	-11.4522
ないかと	-11.4522
病気になった	-11.4524
腹は白	-11.4524
第二	-11.4526
棒を	-11.4528
言う言葉	-11.4529
呂覆	-11.4529
防火	-11.453
をつくして	-11.453
解き	-11.4532
力のある	-11.4533
ある期間	-11.4534
設立	-11.4534
水や	-11.4534
ニュー	-11.4536
▁幸運	-11.4538
▁得	-11.4538
┐	-11.4539
▁群衆は	-11.4539
▁原文	-11.454
船乗り	-11.454
誰	-11.4541
見張る	-11.4541
一般的な	-11.4541
している人	-11.4542
▁冷静	-11.4542
なことをする	-11.4542
▁独立	-11.4542
の全体	-11.4543
ブリ	-11.4544
歩み	-11.4544
▁ニュース	-11.4544
に反して	-11.4545
陸上	-11.4546
文筆	-11.4548
その物	-11.4548
引き抜く	-11.4549
が最も	-11.455
との間の	-11.4552
▁貨物	-11.4553
下る	-11.4555
野鳥	-11.4555
なかま	-11.4556
斬り	-11.4556
を捜して	-11.4556
▁何が	-11.4558
などで作った	-11.4558
をふ	-11.4558
どぶ	-11.4559
好きだ	-11.456
映画の	-11.456
▁きょうの	-11.4562
に上る	-11.4562
あわせること	-11.4562
道化	-11.4563
罰金	-11.4563
直行	-11.4564
今後	-11.4564
親等	-11.4564
▁彼らに	-11.4565
▁体重	-11.4566
じろ	-11.4566
個人的な	-11.457
質が	-11.4571
で遊ぶ	-11.4572
周期	-11.4573
妨げ	-11.4573
プレ	-11.4574
一塁	-11.4575
哀れな	-11.4576
と言えば	-11.4577
たので	-11.4578
問題が	-11.4578
の周り	-11.4578
淡水	-11.4581
して歩く	-11.4584
至急	-11.4585
関税	-11.4587
の側	-11.4588
苦しめる	-11.4588
一か月	-11.4588
看護	-11.459
近くの	-11.459
▁芝居で	-11.459
▁ちゅう	-11.4592
高め	-11.4592
放送局	-11.4592
防水	-11.4592
あらい	-11.4593
噴出	-11.4594
▁平面	-11.4594
▁近頃	-11.4594
方々	-11.4594
表した	-11.4595
を吸う	-11.4596
真空	-11.4598
▁スピード	-11.4601
出なかった	-11.4603
▁酸	-11.4603
かべ	-11.4603
▁インク	-11.4604
かんで	-11.4604
右側	-11.4607
の時間	-11.4607
▁浜	-11.4607
の計画	-11.4609
顔をして	-11.4609
じょうずな	-11.4616
さかい	-11.4616
▁恋愛	-11.4616
が短い	-11.4618
開けた	-11.4618
個性	-11.4618
ひる	-11.462
お茶を	-11.4623
ためには	-11.4623
信心	-11.4624
▁修	-11.4624
進路	-11.4624
結果として	-11.4625
絶望	-11.4626
」、「	-11.4628
首に	-11.4629
たちが	-11.463
悪い事	-11.4631
▁あの男の	-11.4632
あいだ	-11.4634
▁その人の	-11.4635
それらの	-11.4635
分けた	-11.4638
指先	-11.4639
応じ	-11.464
を探る	-11.4641
に帰る	-11.4642
▁紅茶	-11.4643
▁話の	-11.4643
花の	-11.4643
引いた	-11.4644
上にある	-11.4645
大学の	-11.4646
雑用	-11.4647
論点	-11.4647
戻り	-11.4649
来世	-11.4651
そうだった	-11.4651
大波	-11.4651
絹糸	-11.4652
かたまり	-11.4652
▁サン	-11.4654
待ってい	-11.4654
▁酔っぱら	-11.4655
が合わない	-11.4655
みがく	-11.4658
そのため	-11.4658
ところは	-11.4659
沈んで	-11.466
あたる	-11.4662
まが	-11.4662
刺す	-11.4662
生意気な	-11.4665
▁長距離	-11.4667
言を言う	-11.4669
▁そこは	-11.4671
▁受験	-11.4672
が上手	-11.4674
▁彼は仕事	-11.4675
の技術	-11.4675
をつけたもの	-11.4677
見切り	-11.4677
もちろん	-11.4679
とうてい	-11.4681
▁いん	-11.4682
▁天地	-11.4685
▁彼は彼ら	-11.4686
洗って	-11.4686
▁彼は僕	-11.4687
▁喜んで	-11.4687
なのです	-11.4688
コック	-11.4688
よごれた	-11.469
▁同一	-11.4692
倒し	-11.4692
語法	-11.4696
を感ずる	-11.4697
製本	-11.4698
ひとみ	-11.4698
到着する	-11.47
つなぐ	-11.4701
固める	-11.4703
▁射	-11.4704
演習	-11.4705
生徒たち	-11.4706
▁海の	-11.4706
っこい	-11.4709
として用いる	-11.471
▁他人が	-11.4711
いっぱいに	-11.4711
▁琴	-11.4712
あの子	-11.4714
料理の	-11.4715
円の	-11.4715
支配人	-11.4716
に少し	-11.4716
▁おれ	-11.4716
を借りる	-11.4717
分担	-11.4718
圧倒	-11.4719
に出かけた	-11.4719
を無視して	-11.472
▁軒	-11.4721
▁支払い	-11.4722
を証明し	-11.4723
の季節	-11.4725
状態である	-11.4725
▁天気	-11.4727
はま	-11.4728
子音	-11.4731
▁おや	-11.4732
聞いている	-11.4733
債券	-11.4733
に出席する	-11.4739
亜	-11.474
廃物	-11.4741
高いこと	-11.4742
てもらえ	-11.4742
仏事	-11.4742
つけている	-11.4742
▁湖	-11.4744
かかっていた	-11.4744
進化	-11.4744
この仕事	-11.4747
▁しばらく	-11.4748
尽きる	-11.4752
▁武力	-11.4753
▁他のもの	-11.4753
▁江戸時代の	-11.4754
犬に	-11.4759
に苦しむ	-11.4759
説明した	-11.4759
▁計算	-11.4762
まつる	-11.4763
遅	-11.4765
▁軍隊の	-11.4766
ゲル	-11.4766
▁食料	-11.4771
手に入れた	-11.4772
味をつけた	-11.4776
になるまで	-11.4776
▁ここに	-11.4776
熱心に	-11.4779
になりますか	-11.478
世間で	-11.4782
時期に	-11.4785
うれしそう	-11.4787
▁彼は仕事に	-11.4788
まとめて	-11.4789
死者の	-11.479
小数	-11.4792
肩を	-11.4792
▁悪い事	-11.4793
すぐ近く	-11.4793
犯罪者	-11.4793
るため	-11.4795
▁N	-11.4796
めかし	-11.4798
ばか者	-11.4798
列車に間に合	-11.4798
くれない	-11.48
▁別れ	-11.48
訴える	-11.4802
が痛む	-11.4802
▁仏教	-11.4803
のおかげで	-11.4805
気持で	-11.4808
決算	-11.4808
きました	-11.4811
などして	-11.4818
めったにない	-11.4818
種目	-11.4819
きいた	-11.482
車が	-11.482
の機会	-11.4823
共同で	-11.4824
に変わった	-11.4824
を離れた	-11.4825
映え	-11.4825
▁暑さ	-11.4826
▁我々が	-11.4828
を加えること	-11.4829
▁劇場	-11.4831
▁スープ	-11.4832
▁he	-11.4833
のだろうか	-11.4835
▁きびしい	-11.4835
振って	-11.4835
親に	-11.4836
んば	-11.4836
▁耐	-11.4836
面が	-11.4839
▁僕には	-11.4839
またはその	-11.484
天性	-11.4842
群れ	-11.4843
▁ついに	-11.4844
くじけ	-11.4845
というものは	-11.4848
考慮	-11.4849
分配	-11.4849
秘蔵	-11.485
に備える	-11.485
キン	-11.485
トップ	-11.485
愛想	-11.4851
凝	-11.4851
が大嫌い	-11.4851
▁波が	-11.4853
おぼれ	-11.4853
りするのに使う	-11.4854
必	-11.4854
冷たく	-11.4854
ドイツ語	-11.4855
召集	-11.4855
非難する	-11.4856
▁労	-11.4856
のに必要な	-11.4857
マー	-11.4858
目上の人	-11.4858
小枝	-11.4858
▁細かい	-11.4859
音を立て	-11.486
放射能	-11.4862
家に帰	-11.4862
▁就職	-11.4862
かぶ	-11.4863
努力する	-11.4864
完	-11.4865
山の中	-11.4865
又	-11.4866
狩猟	-11.4866
▁どうやら	-11.4866
気持を表す	-11.4867
二枚	-11.4867
運賃	-11.4867
を送って	-11.4867
人類の	-11.4868
▁月に	-11.4868
両方の	-11.4869
なめらかで	-11.4871
のを防ぐ	-11.4872
柔道	-11.4874
がとても	-11.4874
蹴	-11.4874
流感	-11.4875
▁梅雨	-11.4876
▁ボートは	-11.4877
に注意	-11.4878
に等しい	-11.4879
ひもで	-11.4879
ロケット	-11.4879
いう音	-11.488
乏しい	-11.4883
下級の	-11.4884
▁国王	-11.4884
にひた	-11.4885
の茎	-11.4885
登山	-11.4886
をまぜ	-11.4887
▁動物が	-11.4887
間接	-11.4887
きのう	-11.489
武力	-11.489
▁刺	-11.4893
の知識	-11.4894
商業	-11.4895
同点	-11.4896
外国語	-11.4896
きらう	-11.4896
▁弔	-11.49
鳥類	-11.49
してやった	-11.4901
我慢できない	-11.4901
ボス	-11.4905
から離れた	-11.4906
を合わせて	-11.4906
核実験	-11.4907
いつか	-11.4907
▁はく	-11.4907
株式	-11.4909
回した	-11.491
▁ゆっくり	-11.4912
組み合わせ	-11.4912
▁藪	-11.4912
彼女の顔	-11.4913
さびしい	-11.4914
禁止する	-11.4916
極度	-11.4918
から落ちる	-11.492
明け方	-11.492
万年	-11.4922
ノー	-11.4922
▁細かく	-11.4922
に勝つ	-11.4923
底に	-11.4923
湿気	-11.4924
▁締め	-11.4924
▁世に	-11.4926
見せること	-11.4927
▁ろく	-11.4928
場合の	-11.4928
胸を	-11.4929
▁あいにく	-11.4931
を設ける	-11.4933
を包む	-11.4933
らせること	-11.4933
と違った	-11.4936
重病	-11.4936
穴をあける	-11.4936
の生産	-11.4938
▁法令	-11.4939
〕(	-11.494
実を結ぶ	-11.4941
ばかりだった	-11.4942
おそい	-11.4944
▁代金	-11.4946
に思うこと	-11.4947
朝早く	-11.4948
横たわる	-11.4951
▁手足	-11.4953
式に	-11.4953
をかわす	-11.4953
乗り換え	-11.4956
意地	-11.4959
晴れる	-11.4959
▁博	-11.4963
事情が	-11.4963
▁今までに	-11.4964
科の魚	-11.4966
▁刀を	-11.4966
人から	-11.4966
気をつける	-11.4969
奇妙な	-11.4969
その年の	-11.4969
▁救	-11.497
▁少女	-11.497
つむ	-11.4971
ある場所に	-11.4971
▁彼の目	-11.4972
監督する	-11.4973
を業とする	-11.4976
を投げる	-11.4976
をはずす	-11.4979
やせ	-11.498
▁もち	-11.4981
▁陸地	-11.4981
を登る	-11.4981
で旅行する	-11.4982
もいい	-11.4983
変える	-11.4983
あざ	-11.4983
言う事	-11.4983
しなければならなかった	-11.4986
▁アイ	-11.4987
んでしょう	-11.4988
照らし	-11.4992
派遣する	-11.4993
本文の	-11.4994
の特徴	-11.4995
ボクシング	-11.4995
▁彼らは我々	-11.4995
裁断	-11.4995
天文	-11.4995
▁ほこり	-11.4996
山腹	-11.4997
集まること	-11.4998
生きた	-11.4999
を与え	-11.4999
▁水銀	-11.4999
より先に	-11.4999
突く	-11.5001
何人かの	-11.5001
投票で	-11.5001
服用	-11.5002
一時に	-11.5003
つくる	-11.5004
まぜて	-11.5005
電話をかける	-11.5007
すてき	-11.5009
唱え	-11.5011
しるした	-11.5011
ごまかし	-11.5012
▁攻め	-11.5013
そうな顔	-11.5016
を認めた	-11.5017
翻	-11.5023
▁脇	-11.5024
卒業する	-11.5024
駅で	-11.5027
上品な	-11.5028
一致しない	-11.5029
賢明	-11.503
▁透	-11.5031
放つ	-11.5031
▁収穫	-11.5032
はただ	-11.5033
学生の	-11.5034
は大変な	-11.5036
▁労働者	-11.5036
の弱い	-11.5037
即座に	-11.5038
言っても	-11.5041
金色の	-11.5042
スコットランド	-11.5042
▁治安	-11.5046
▁明かり	-11.5047
▁かすかな	-11.505
五センチ	-11.5053
も同然だ	-11.5055
おもて	-11.5057
抑え	-11.5058
▁飲み	-11.5058
悲しむ	-11.5058
斯	-11.5062
に当てる	-11.5062
をしのぐ	-11.5063
▁低い	-11.5066
玄	-11.5067
▁鳥の	-11.5067
塗る	-11.5067
▁町中	-11.5068
技巧	-11.5069
もらいたい	-11.507
ィ	-11.507
付いた	-11.5073
▁土木	-11.5074
▁淡	-11.5074
芸能	-11.5075
三位	-11.5076
▁田畑	-11.5077
町を	-11.5078
▁知能	-11.5078
▁もとの	-11.5079
▁農	-11.5079
発作	-11.5081
出てきた	-11.5083
うぬぼれ	-11.5084
おこって	-11.5084
一般的	-11.5086
▁最初	-11.5086
かわいい	-11.5086
▁テ	-11.5087
▁圧力	-11.5088
尽くした	-11.5088
自宅	-11.509
▁詩歌	-11.5091
の発生	-11.5091
を問わず	-11.5091
金銭を	-11.5092
の一部分	-11.5094
▁ホテル	-11.5095
裁ち	-11.5096
▁掻き	-11.5097
▁いっしょに	-11.5097
▁死者の	-11.5099
▁問題を	-11.5099
▁意地	-11.5099
がよかった	-11.51
悪事を	-11.51
▁一人	-11.51
▁才	-11.51
ておいた	-11.5102
帝王	-11.5102
▁辛	-11.5102
内容が	-11.5102
新聞社	-11.5103
そと	-11.5103
首位	-11.5104
たまらない	-11.5104
▁岩石	-11.5105
越え	-11.5106
やすいこと	-11.5106
潰	-11.5108
▁その人が	-11.5108
▁臨	-11.5108
単純	-11.5109
鳴き	-11.511
はかなり	-11.511
死者の霊	-11.511
少しもない	-11.511
燐酸	-11.511
おろか	-11.5111
▁批判	-11.5112
委任	-11.5112
▁藩	-11.5113
放射	-11.5114
勲章	-11.5115
すすめる	-11.5116
、000	-11.5116
互いの	-11.5117
忙	-11.5118
音の	-11.5118
倒産	-11.5119
拭	-11.5121
閣	-11.5122
に移る	-11.5123
粘	-11.5123
隻	-11.5123
神聖	-11.5123
+	-11.5124
余計	-11.5125
歩いていった	-11.5125
監	-11.5125
苦労して	-11.5126
▁きっと	-11.5126
殖	-11.5127
紐	-11.5127
惰	-11.5127
くれと	-11.5127
をこうむる	-11.5127
生き生き	-11.5128
看	-11.5128
▁もう一度	-11.5128
賓	-11.5129
遷	-11.5129
を失わせる	-11.513
頼んで	-11.513
浪費	-11.513
疾患	-11.513
叢	-11.513
骸	-11.5131
四十	-11.5131
君を	-11.5132
あらわす	-11.5132
臆	-11.5132
寓	-11.5132
是	-11.5133
斗	-11.5133
爛	-11.5133
拘	-11.5133
租	-11.5133
ぎりぎり	-11.5133
仕返し	-11.5133
はなはだ	-11.5134
にぎやかに	-11.5134
鎌	-11.5134
をそそる	-11.5134
断わった	-11.5134
癌	-11.5134
歿	-11.5134
ぎざぎざ	-11.5134
沃	-11.5134
に付する	-11.5134
挿	-11.5134
眩	-11.5134
R	-11.5134
》	-11.5134
把	-11.5134
肘	-11.5134
萌	-11.5134
輝かしい	-11.5134
鯉	-11.5134
名古屋	-11.5134
芥	-11.5134
▁濡れ	-11.5134
アクセント	-11.5134
柵	-11.5134
盂蘭盆	-11.5134
ふすま	-11.5134
伽	-11.5134
劫	-11.5134
思わぬ	-11.5134
檀	-11.5134
轍	-11.5134
カウント	-11.5134
盃	-11.5134
蠅	-11.5134
鉾	-11.5134
鞭	-11.5134
大げさな	-11.5134
撚	-11.5134
眺める	-11.5134
訛	-11.5134
遥	-11.5134
けばけばし	-11.5134
のろのろ	-11.5134
ブラジル	-11.5134
抄	-11.5134
歓喜	-11.5134
著名な	-11.5134
寛大な	-11.5134
たくらみ	-11.5134
むなしく	-11.5134
もっぱら	-11.5134
参詣	-11.5134
に先立って	-11.5135
go	-11.5135
閣僚	-11.5135
スーツケース	-11.5135
のなら	-11.5135
何回も	-11.5135
醤油	-11.5135
最良の	-11.5135
蛙	-11.5135
ざらざら	-11.5135
なじみ	-11.5135
始終	-11.5135
ボストン	-11.5135
選ばれた	-11.5135
協同	-11.5135
じりじり	-11.5135
虐待	-11.5135
ビロード	-11.5135
澱粉	-11.5135
シーツ	-11.5135
ジェ	-11.5135
屈辱	-11.5135
繁栄	-11.5135
The	-11.5135
プリント	-11.5135
リンゴ	-11.5135
といわれる	-11.5135
旋律	-11.5135
メント	-11.5135
ケース	-11.5135
ベース	-11.5135
つまらぬ	-11.5136
隔離	-11.5136
増進	-11.5136
とは思えない	-11.5136
ハンドル	-11.5136
憎しみ	-11.5136
どろぼう	-11.5136
持続	-11.5136
ミング	-11.5136
とにかく	-11.5136
堂々と	-11.5136
淡水魚	-11.5136
視覚	-11.5136
彫像	-11.5137
レーダー	-11.5137
士官	-11.5137
石器時代	-11.5137
記述	-11.5137
装束	-11.5137
▁じゅん	-11.5137
考案	-11.5137
失敬	-11.5137
規制	-11.5137
誤植	-11.5137
思う存分	-11.5137
こわくて	-11.5137
かまわず	-11.5137
▁この辞書は	-11.5137
お断わり	-11.5137
出生	-11.5137
晴天	-11.5138
低気圧	-11.5138
けいれん	-11.5138
課題	-11.5138
リボン	-11.5138
を持たず	-11.5138
を混ぜて	-11.5138
ろうばい	-11.5138
あわれみ	-11.5138
絶頂	-11.5138
静止	-11.5138
助動詞	-11.5138
官僚	-11.5138
石膏	-11.5139
会いたい	-11.5139
通り過ぎる	-11.5139
になりそうだ	-11.5139
欲求	-11.5139
湾曲	-11.5139
謝罪	-11.5139
テレビ番組	-11.5139
男女間の	-11.514
依存	-11.514
さえすれば	-11.514
ごろごろ	-11.514
重複	-11.514
立ち上がった	-11.514
きめられた	-11.514
呼吸器	-11.514
祝辞	-11.514
通告	-11.514
落胆	-11.514
機関銃	-11.514
軽快	-11.514
悪くない	-11.514
ドルで	-11.5141
暴徒	-11.5141
幹部	-11.5141
余暇	-11.5141
駐車場	-11.5141
感激	-11.5141
探知	-11.5141
にらむ	-11.5141
堅苦しい	-11.5142
雑貨	-11.5142
小言	-11.5142
ぜんまい	-11.5142
順次	-11.5142
▁彼の行為は	-11.5142
判明	-11.5142
祖母	-11.5143
断片	-11.5143
改造	-11.5143
種をまく	-11.5143
若く	-11.5143
圧制	-11.5144
組立て	-11.5144
を指した	-11.5144
根本的な	-11.5145
しばらくの間	-11.5145
の種子	-11.5145
技量	-11.5145
図案	-11.5145
申し分	-11.5145
▁フットボール	-11.5146
並んでいる	-11.5146
右翼	-11.5146
多大の	-11.5146
を拾う	-11.5146
繰り返す	-11.5146
上皇	-11.5147
授業料	-11.5147
けわしい	-11.5147
電圧	-11.5147
処方	-11.5147
高齢	-11.5147
かまど	-11.5148
▁民族	-11.5148
平気だ	-11.5148
証明書	-11.5148
曲がっている	-11.5148
主婦	-11.5148
▁淫	-11.5149
戸籍	-11.5149
夏休み	-11.5149
首都	-11.5149
選ばれる	-11.5149
検定	-11.515
の苦しみ	-11.515
▁教養	-11.515
極秘	-11.515
仕様	-11.5151
よく似ている	-11.5151
尽力	-11.5151
つぼみ	-11.5151
▁水を	-11.5152
畜	-11.5152
▁海水	-11.5152
嘆き	-11.5152
留学	-11.5152
アジ	-11.5153
は人間	-11.5153
溜め	-11.5153
勤めている	-11.5154
有限	-11.5154
作り出す	-11.5154
配合	-11.5154
▁その国は	-11.5155
というたとえ	-11.5155
禁制	-11.5155
所持	-11.5156
なりゆき	-11.5156
むかし	-11.5156
石英	-11.5157
能楽	-11.5157
水蒸気	-11.5158
こぼれた	-11.5158
告げ知らせる	-11.5158
不当な	-11.5158
体長約	-11.5158
性交	-11.5158
おいしい	-11.5158
直した	-11.5158
通訳	-11.5159
武芸	-11.5159
▁便	-11.5159
やなぎ	-11.5159
見世物	-11.5159
おおわれ	-11.516
はげしい	-11.516
風紀	-11.5161
作曲	-11.5161
文脈	-11.5163
を採る	-11.5163
▁彼は私が	-11.5165
感じる	-11.5165
▁予算	-11.5165
引き続いて	-11.5166
水溶液	-11.5166
まじない	-11.5166
摺り	-11.5167
断言	-11.5167
抽象	-11.5168
に起こった	-11.5168
の端に	-11.5168
を早める	-11.5168
風潮	-11.5169
球面	-11.5169
が互いに	-11.5169
▁テーブル	-11.5169
黄緑色	-11.517
そこら	-11.517
歳月	-11.517
が上手だ	-11.5172
いのち	-11.5172
大きさは	-11.5172
早朝	-11.5172
類を	-11.5173
ざお	-11.5174
をほどく	-11.5174
なしだ	-11.5175
照会	-11.5175
種種	-11.5175
引き受けた	-11.5176
女性が	-11.5176
官位	-11.5176
をうかがう	-11.5176
一応	-11.5177
小さいこと	-11.5178
明白	-11.5178
構内	-11.5178
明朝	-11.5178
良く	-11.5179
のぼり	-11.518
▁市内	-11.5181
学び	-11.5181
取り柄	-11.5181
断面	-11.5181
本当だ	-11.5181
ずくで	-11.5182
ふくらませ	-11.5183
家系	-11.5183
しましたか	-11.5183
のふち	-11.5184
それに使う	-11.5184
チック	-11.5184
が出来	-11.5184
大騷ぎ	-11.5184
調達	-11.5184
その道	-11.5185
生活している	-11.5185
政治上の	-11.5186
空模様	-11.5186
雑音	-11.5188
人夫	-11.5189
きざし	-11.5191
現役	-11.5191
三〇センチ	-11.5192
をなめる	-11.5193
こない	-11.5195
を習う	-11.5196
▁大変な	-11.5196
度量	-11.5196
▁芝生	-11.5196
散文	-11.5197
有料	-11.5198
▁戦略	-11.5198
ふくら	-11.5198
順順に	-11.52
熱情	-11.52
わきへ	-11.5201
ランド	-11.5202
を曲げる	-11.5203
知ること	-11.5203
かかわり	-11.5203
点検	-11.5204
減ること	-11.5204
相手方	-11.5204
口語	-11.5206
斯く	-11.5206
▁洋服	-11.5206
▁何事も	-11.5207
箱根	-11.5207
穴から	-11.5209
打たれ	-11.521
▁主要	-11.5211
無精	-11.5211
形式の	-11.5212
恋の	-11.5212
つつある	-11.5213
出産	-11.5215
▁敗	-11.5215
とんぼ	-11.5216
下品な	-11.5216
が始まる	-11.5217
▁官職	-11.5218
年間の	-11.5218
で読む	-11.5218
出費	-11.5219
爆薬	-11.5221
総会	-11.5221
でやる	-11.5221
▁彼は自分	-11.5222
拝む	-11.5222
しわざ	-11.5223
から見た	-11.5223
悲劇	-11.5223
浮気	-11.5223
お返し	-11.5223
今のところ	-11.5224
インター	-11.5224
▁穂	-11.5224
木戸	-11.5226
はいり	-11.5227
腕白	-11.5228
あっ	-11.5229
問い合わせ	-11.523
疑う	-11.5231
を大いに	-11.5232
命名	-11.5232
公平な	-11.5232
山田	-11.5233
ふやすこと	-11.5235
見られた	-11.5235
助手	-11.5236
を許さない	-11.5237
が一つ	-11.5239
▁自然の	-11.5242
▁阿	-11.5242
すわ	-11.5243
装飾用	-11.5243
だけでも	-11.5244
の前兆	-11.5246
だな	-11.5246
できる限り	-11.5246
をふく	-11.5247
を二つ	-11.5247
もその	-11.5248
した食品	-11.5249
して行う	-11.5251
正式の	-11.5251
病気で	-11.5251
値段が	-11.5253
熱帯地方	-11.5253
まぜ	-11.5254
▁バラ	-11.5254
のを見た	-11.5255
点火	-11.5255
▁はな	-11.5256
あなたが	-11.5259
を決する	-11.5261
▁航海	-11.5261
ふえる	-11.5261
▁しゃく	-11.5262
話すこと	-11.5265
縮める	-11.5265
埋葬	-11.5265
ものがない	-11.5266
▁仏法	-11.5269
大層	-11.527
この本	-11.527
▁アイス	-11.5271
極端	-11.5274
原子核	-11.5276
しゅん	-11.5276
豊か	-11.5276
空軍	-11.5276
ージ	-11.5277
無数の	-11.5281
頭上に	-11.5281
詩を	-11.5281
北に	-11.5282
認めること	-11.5282
彼にとって	-11.5282
受け取った	-11.5285
▁金銭を	-11.5286
▁道路の	-11.5287
かすり	-11.5289
うとうと	-11.529
捜す	-11.5291
ここにい	-11.5291
▁走り	-11.5292
に終わった	-11.5292
▁芸術	-11.5296
二次	-11.53
地元	-11.53
台本	-11.53
▁なるほど	-11.53
▁文語	-11.5301
▁刑事	-11.5303
人出	-11.5305
水夫	-11.5307
をはく	-11.5308
羽の	-11.5308
▁細菌	-11.531
▁最も	-11.5313
業とする人	-11.5313
意外な	-11.5313
▁アラビア	-11.5316
をまねる	-11.5316
やめろ	-11.5317
all	-11.5318
を捨て	-11.5318
を突く	-11.532
悲観	-11.5323
資力	-11.5327
含まれている	-11.5328
の出身	-11.5328
職につく	-11.5328
正式	-11.5329
系の	-11.5329
▁誤り	-11.5329
んだね	-11.5331
▁交渉	-11.5331
▁柳	-11.5335
のかしら	-11.5338
のうちの	-11.534
▁賞	-11.5341
しかも	-11.5341
評価する	-11.5341
酒場	-11.5342
その時の	-11.5343
▁幽霊	-11.5343
▁きつね	-11.5343
あるものを	-11.5346
が急に	-11.5347
肥え	-11.5348
その後	-11.5352
使用者	-11.5354
▁競走	-11.5354
安心した	-11.5359
支配する	-11.5362
実地に	-11.5364
▁スミス	-11.5364
らないで	-11.5369
ひだ	-11.537
製作	-11.537
地震で	-11.5371
能力がある	-11.5371
光が	-11.5374
まっすぐな	-11.5374
▁ちょ	-11.5376
吐き気	-11.5376
用など	-11.5378
▁公式	-11.5378
くだく	-11.5378
▁どうしても	-11.5379
は君に	-11.5379
終わりまで	-11.5379
おります	-11.538
近寄	-11.538
▁二人の	-11.538
にはまだ	-11.5382
急性	-11.5382
そんな事を	-11.5383
不当	-11.5383
つきあい	-11.5383
かゆ	-11.5383
▁狭	-11.5385
を当てる	-11.5386
▁資金	-11.5386
人前で	-11.5389
を使った	-11.5391
▁中世	-11.5394
▁幾ら	-11.5394
を示すため	-11.5399
▁顔の	-11.54
おさめる	-11.54
でしたか	-11.54
大半	-11.5401
▁この薬は	-11.5401
伝えた	-11.5402
▁初め	-11.5403
の後に	-11.5404
どちらも	-11.5405
なぎ	-11.5406
生んだ	-11.5409
前後に	-11.541
桜の	-11.5412
▁文明の	-11.5414
▁放射能	-11.5415
こぎ	-11.5415
取得	-11.5416
あつ	-11.5418
▁翻	-11.5419
▁愛想	-11.5419
▁帽子	-11.542
本文	-11.542
を願う	-11.542
北アメリカ	-11.5421
ふるまいをする	-11.5421
いつまで	-11.5421
交わ	-11.5421
の先生	-11.5424
はありませんか	-11.5424
人目	-11.5425
ようなものだ	-11.5425
▁実用	-11.5427
の象徴	-11.5427
川が	-11.5428
▁胡	-11.5429
天下に	-11.5429
を回す	-11.5432
▁方方	-11.5434
現れた	-11.5434
いじめ	-11.5438
箱に	-11.5438
▁ミサイル	-11.544
さげる	-11.5441
▁ちり	-11.5441
▁ドレス	-11.5441
の両	-11.5443
歓迎する	-11.5444
がかかる	-11.5447
に構える	-11.5448
▁太陽の	-11.5449
木の実	-11.5454
はげ	-11.5455
最中	-11.5458
ith	-11.5458
月曜日	-11.5459
水の流れ	-11.5463
▁午前	-11.5463
乗っている	-11.5464
機械など	-11.5465
閉め	-11.5465
を私に	-11.5465
ばって	-11.5467
糸で織った	-11.5467
▁眠り	-11.5471
▁木の	-11.5471
われている	-11.5473
本物の	-11.5475
出頭	-11.5476
呂い	-11.5476
などに対して	-11.5477
▁たった	-11.5477
の列車	-11.5478
責め	-11.5479
をもらった	-11.5479
引いて	-11.548
▁遠い	-11.548
数日	-11.5481
▁段	-11.5483
ぶつかる	-11.5484
戻る	-11.5485
激怒	-11.5485
いられない	-11.5485
の緒	-11.5486
印刷した	-11.5487
▁彼らには	-11.5488
借金の	-11.5488
目の前に	-11.5488
錐	-11.5488
ひと組	-11.5488
▁鳩	-11.5489
らくら	-11.5489
▁ジャズ	-11.549
労働者の	-11.549
の涙	-11.549
だったので	-11.5493
の出る	-11.5494
戦場で	-11.5495
に使った	-11.5496
▁剣	-11.5501
▁施	-11.5502
▁明治	-11.5503
目は	-11.5504
▁女王	-11.5504
▁とん	-11.5505
▁正常	-11.5505
▁特定の	-11.5506
法律上	-11.5506
▁せつ	-11.5506
安く買	-11.5509
順調に	-11.551
の上を	-11.5512
取り除く	-11.5514
できず	-11.5515
来るだろう	-11.5518
探り	-11.5519
から作る	-11.552
をめぐらす	-11.552
戦場	-11.552
等に	-11.5522
の店	-11.5525
▁あいつは	-11.5525
▁彼は私より	-11.5525
に倒れる	-11.5527
内部の	-11.5528
▁鏡	-11.5528
仏教の	-11.5528
腹の中	-11.5528
快感	-11.553
だめになる	-11.553
つぶれる	-11.5532
残した	-11.5532
微生物	-11.5532
り込んだ	-11.5533
▁感謝の	-11.5534
▁厳しい	-11.5535
賞金	-11.5537
▁キャンプ	-11.5537
を集めた	-11.554
を使ってする	-11.5541
▁地獄	-11.5543
警察の	-11.5544
▁地方	-11.5544
▁襟	-11.5545
得られる	-11.5547
泣くこと	-11.5547
洗濯	-11.5547
相当の	-11.5549
▁we	-11.5549
の通り	-11.5552
くどく	-11.5552
じゅうたん	-11.5553
▁女の子	-11.5555
その作品	-11.5555
▁その事件は	-11.5556
▁最低	-11.5557
に出ること	-11.5559
呼び出し	-11.5561
被告	-11.5562
活発な	-11.5563
つある	-11.5563
にひどく	-11.5565
生気	-11.5565
の所で	-11.5567
▁公開	-11.5567
▁優しい	-11.5567
▁芸者	-11.5567
▁むだ	-11.5568
取れた	-11.5571
▁フィ	-11.5573
頭髪	-11.5578
▁時計の	-11.5578
小包	-11.5581
の場所	-11.5582
知っていた	-11.5583
今週	-11.5584
込んでいた	-11.5585
やかん	-11.5586
てんで	-11.5586
▁ここでは	-11.5586
▁有効	-11.5587
調整	-11.5588
衰	-11.5589
がなくなった	-11.559
あげて	-11.5591
書き入れる	-11.5592
の不足	-11.5592
▁p	-11.5595
の報道	-11.5596
▁勢いよく	-11.5596
長時間	-11.5597
寒中	-11.5601
▁易	-11.5603
新車	-11.5604
兼	-11.5604
▁経済学	-11.5604
だつ	-11.5604
を得ようと	-11.5606
額を	-11.5608
▁用意	-11.5609
始めて	-11.5609
適切な	-11.5611
鮮	-11.5611
▁肛門	-11.5612
▁大ばか	-11.5613
月曜日に	-11.5613
▁宮	-11.5613
▁定期	-11.5615
鎮	-11.5615
演奏会	-11.5618
柔らか	-11.5618
に分け	-11.5619
ペンキ	-11.562
洗礼	-11.562
徹底的に	-11.562
電子計算機	-11.5622
利口	-11.5623
▁その町	-11.5623
ぬれる	-11.5623
の人口は	-11.5623
▁会は	-11.5624
かなければならない	-11.5624
境目	-11.5625
幻	-11.5625
すし	-11.5625
おしろい	-11.5625
普通より	-11.5627
を生じ	-11.5628
下剤	-11.5628
▁前途	-11.5628
▁珍しい	-11.5629
満員	-11.563
を送った	-11.563
幽霊	-11.5631
ったりすること	-11.5631
とりこ	-11.5632
▁スミスさん	-11.5632
馬鹿	-11.5632
刀剣	-11.5633
どこまでも	-11.5634
が広く	-11.5635
P	-11.5635
▁私の考え	-11.5635
▁彼は新しい	-11.5635
きつね	-11.5635
してもらった	-11.5635
ワシ	-11.5637
言い伝え	-11.5637
さっさと	-11.5637
昨夜	-11.5637
体面	-11.5637
達する	-11.5638
ように作った	-11.564
山林	-11.5641
▁祝	-11.5641
目の前	-11.5641
仮の	-11.5644
をみがく	-11.5646
▁勝ち	-11.5646
正義	-11.5648
騎	-11.5648
▁徳	-11.5651
▁きょ	-11.5652
受験	-11.5652
悩む	-11.5652
旅客	-11.5653
特売	-11.5655
勤める	-11.5655
利く	-11.5656
おび	-11.5658
味の	-11.566
を割る	-11.5661
これ以上	-11.5661
生徒に	-11.5662
持っていた	-11.5663
▁週	-11.5663
飛行機など	-11.5664
五つの	-11.5664
変わること	-11.5664
生意気	-11.5665
練り	-11.5666
方面に	-11.5666
いん	-11.5666
法廷で	-11.5666
通路	-11.5667
はまず	-11.5672
結果を	-11.5672
惨事	-11.5674
精一杯	-11.5674
は十分	-11.5675
展覧会	-11.5676
はいつ	-11.5677
を通って	-11.5678
と私は	-11.5679
▁年代	-11.568
▁股	-11.568
単数	-11.568
のよしあし	-11.5682
正確な	-11.5684
幹線道路	-11.5685
万一	-11.5686
服装をしてい	-11.5686
▁盛り	-11.5686
▁ウイスキー	-11.5687
からずっと	-11.5689
▁豊作	-11.569
規模の	-11.5693
すまない	-11.5694
行っても	-11.5695
をかいて	-11.5696
の影響	-11.5697
になっていること	-11.5697
ぷ	-11.57
言いたい	-11.5701
▁子供に	-11.5702
▁我が	-11.5703
▁痛み	-11.5704
寬	-11.5704
味わう	-11.5705
ション	-11.5705
のとき	-11.5705
クル	-11.5706
わずに	-11.5708
▁以前	-11.5708
世論	-11.571
生物学	-11.5712
を判断する	-11.5712
負債	-11.5713
量を	-11.5713
の手段	-11.5721
▁いね科の	-11.5722
▁人生は	-11.5725
やせて	-11.5726
ジャー	-11.5727
灯台	-11.5729
したまえ	-11.5729
もろ	-11.5732
二本	-11.5732
将来に	-11.5732
▁O	-11.5733
の本質	-11.5734
茎は	-11.5734
▁文法	-11.5735
きら	-11.5736
▁被告	-11.5737
者だ	-11.5737
▁言葉の	-11.5741
なるように	-11.5743
学科	-11.5744
を敬っ	-11.5745
▁あら	-11.5745
▁忍び	-11.5745
輝	-11.5746
じきに	-11.5746
しているのか	-11.5747
▁目が	-11.5748
などがある	-11.5748
▁詳	-11.5748
従来の	-11.575
モー	-11.575
を去る	-11.5751
わたし	-11.5753
確実に	-11.5754
の段	-11.5754
を凝らす	-11.5755
▁今にも	-11.5757
▁写真を	-11.5758
澄	-11.5758
▁罪人を	-11.5759
▁苦痛	-11.5759
▁健全な	-11.576
だん	-11.576
を表し	-11.5762
他のもの	-11.5762
外国に	-11.5762
▁ぜいたく	-11.5762
底の	-11.5762
を維持する	-11.5763
▁そろそろ	-11.5763
▁雁	-11.5763
前へ	-11.5766
定める	-11.5766
粉にしたもの	-11.5768
▁衣服の	-11.5768
▁皆さん	-11.5768
フィートの	-11.5769
は嫌いだ	-11.5771
▁書画	-11.5772
の主	-11.5772
ざと	-11.5774
アイロン	-11.5775
条件を	-11.5776
目立って	-11.5777
▁空中に	-11.5778
巧	-11.5779
たいと思う	-11.5779
アリ	-11.578
▁予約	-11.5781
他の事	-11.5781
▁男子	-11.5781
騒ぐ	-11.5784
あちこちに	-11.5787
割れる	-11.5787
▁終身	-11.5788
どうし	-11.5789
▁機械の	-11.5789
はますます	-11.579
平凡	-11.579
を着ている	-11.5791
穀	-11.5791
▁コンピューター	-11.5793
から受ける	-11.5793
社会的地位	-11.5794
▁それは彼の	-11.5796
寝て	-11.5799
だけでなく	-11.5799
活用	-11.5801
はならない	-11.5801
▁正気	-11.5802
てみた	-11.5803
泳	-11.5804
▁大気	-11.5805
郵便物	-11.5805
豊富	-11.5806
第二次大戦	-11.5807
遊びに	-11.5808
をくじく	-11.5809
捲	-11.581
しつつある	-11.581
▁そのことで	-11.581
沈んだ	-11.5811
訪れる	-11.5811
ある所	-11.5812
▁たいそう	-11.5812
りながら	-11.5814
▁無理に	-11.5814
思わない	-11.5818
服を着	-11.5819
導く	-11.5819
得ない	-11.5821
医薬	-11.5821
あしら	-11.5822
倫	-11.5822
ではないか	-11.5822
午	-11.5823
学課	-11.5823
カトリック	-11.5824
の上部	-11.5824
唯	-11.5825
雪が	-11.5825
の収入	-11.5825
地下の	-11.5827
▁ぐずぐず	-11.5827
大胆	-11.5828
▁他から	-11.5828
▁はっきりした	-11.5828
を知って	-11.5828
文章を	-11.5829
寄生	-11.5829
相手と	-11.5831
とすぐ	-11.5833
許さない	-11.5833
苦しんで	-11.5834
免除	-11.5834
しかめ	-11.5835
つち	-11.5835
でひどく	-11.5836
試し	-11.5837
捻	-11.5837
を認め	-11.5837
到	-11.5838
やわらかく	-11.5839
桂	-11.5839
秤	-11.5839
兵卒	-11.584
采	-11.584
▁過ぎ去った	-11.584
裏付け	-11.584
メダル	-11.584
か月間	-11.584
洋風の	-11.584
やってのける	-11.5841
メアリー	-11.5841
ちゃら	-11.5842
に加えて	-11.5842
背中に	-11.5842
▁故郷	-11.5842
播	-11.5842
E	-11.5843
に通ずる	-11.5843
匠	-11.5843
猪	-11.5843
決まる	-11.5844
飼料	-11.5844
言わなかった	-11.5844
硫	-11.5844
芝	-11.5844
績	-11.5845
奔	-11.5845
▁丁	-11.5845
着るもの	-11.5845
釈迦の	-11.5846
返済	-11.5846
砥	-11.5846
呼ばれ	-11.5846
亭	-11.5847
確証	-11.5847
普	-11.5847
繊	-11.5847
見えなかった	-11.5847
廟	-11.5847
▁男女	-11.5847
諭	-11.5847
峠	-11.5847
促	-11.5847
危うく	-11.5847
絃	-11.5847
禽	-11.5847
貪	-11.5848
争議	-11.5848
舗	-11.5848
薦	-11.5848
漕	-11.5848
皺	-11.5848
螢	-11.5848
坪	-11.5848
痘	-11.5848
蒙	-11.5848
厚かましい	-11.5848
虜	-11.5848
篆	-11.5848
ギリシア	-11.5848
ぎっしり	-11.5849
宙	-11.5849
楚	-11.5849
ぢ	-11.5849
礫	-11.5849
大言壮語	-11.5849
撥	-11.5849
ばかばかしい	-11.5849
廃棄物	-11.5849
皇太子	-11.5849
殺虫剤	-11.5849
ちょうちん	-11.5849
オルガン	-11.5849
オートバイ	-11.5849
サッカー	-11.5849
些	-11.5849
湧	-11.5849
琶	-11.5849
苑	-11.5849
鴨	-11.5849
	-11.5849
にぎやかな	-11.5849
ぴかぴか	-11.5849
カクテル	-11.5849
匂	-11.5849
▁遭難	-11.5849
ギャンブル	-11.5849
汎	-11.5849
蹟	-11.5849
U	-11.5849
スモッグ	-11.5849
スーパー	-11.5849
チャンネル	-11.5849
ボーイ	-11.5849
咾	-11.5849
旁	-11.5849
樽	-11.5849
痰	-11.5849
ソフト	-11.5849
パレード	-11.5849
櫓	-11.5849
癪	-11.5849
穢	-11.5849
取っ手	-11.5849
はどちらですか	-11.5849
昧	-11.5849
をめざして	-11.5849
管弦楽	-11.5849
喝采	-11.5849
識別	-11.5849
ふざけて	-11.5849
ライター	-11.5849
篩	-11.5849
冷蔵庫	-11.5849
接続詞	-11.5849
マレー	-11.5849
履歴	-11.5849
墜落	-11.5849
day	-11.5849
以内に	-11.5849
否認	-11.5849
邸宅	-11.5849
なければなりません	-11.5849
の尊称	-11.5849
公然と	-11.5849
しゃくにさわる	-11.5849
閲覧	-11.5849
アーチ	-11.5849
養殖	-11.5849
テンポ	-11.5849
トランク	-11.5849
驚異	-11.5849
朽ち	-11.585
を呈する	-11.585
概略	-11.585
▁あるもの	-11.585
敏感	-11.585
斑点	-11.585
に囲まれて	-11.585
を募る	-11.585
概算	-11.585
悲鳴	-11.585
バッター	-11.585
象牙	-11.585
くよくよ	-11.585
攻勢	-11.585
展望	-11.585
使われた	-11.585
憲章	-11.585
告訴	-11.585
双眼鏡	-11.585
農耕	-11.585
謹んで	-11.585
おのおの	-11.585
封建	-11.585
財貨	-11.585
疑念	-11.585
▁熱烈な	-11.585
封鎖	-11.585
▁少年たちは	-11.5851
ロシア	-11.5851
暗礁	-11.5851
十干	-11.5851
一覧表	-11.5851
称賛	-11.5851
提灯	-11.5851
快活	-11.5851
に伴って	-11.5851
づめ	-11.5851
徹夜	-11.5851
反響	-11.5851
下等な	-11.5851
決められた	-11.5851
ばけもの	-11.5851
立証	-11.5851
険悪	-11.5851
短縮	-11.5851
請負	-11.5852
こわがる	-11.5852
をそらす	-11.5852
にもどる	-11.5852
やっとのことで	-11.5852
陪審員	-11.5852
ペスト	-11.5852
オーストラリア	-11.5852
シーン	-11.5852
制裁	-11.5852
▁暗号	-11.5852
スイス	-11.5853
ボルト	-11.5853
残念なこと	-11.5853
にん	-11.5853
雷鳴	-11.5853
損益	-11.5853
めぐって	-11.5853
飲酒	-11.5853
放浪	-11.5853
▁海洋	-11.5853
怒りを抑える	-11.5853
▁吸	-11.5853
老婆	-11.5854
就学	-11.5854
メートルある	-11.5854
呼んだ	-11.5854
徴兵	-11.5854
多忙	-11.5854
飲食店	-11.5854
離陸	-11.5854
評論	-11.5854
買物	-11.5855
▁その少年は	-11.5855
エキス	-11.5855
あらため	-11.5855
全快	-11.5855
紅茶	-11.5855
めぐらし	-11.5855
売店	-11.5855
受精	-11.5855
信義	-11.5855
にこにこ	-11.5855
使節	-11.5855
平行線	-11.5855
独力で	-11.5855
オックスフォード	-11.5856
杯の水	-11.5856
富士山	-11.5856
重要でない	-11.5856
ゆかり	-11.5856
▁透き	-11.5856
そのとおり	-11.5856
おやじ	-11.5857
断絶	-11.5857
けだもの	-11.5857
の入口	-11.5857
の中で最も	-11.5857
白い花が咲く	-11.5857
精霊	-11.5857
お手伝い	-11.5857
▁高圧	-11.5857
ごくわずか	-11.5858
言わずに	-11.5858
言い回し	-11.5858
識見	-11.5858
解明	-11.5859
うなずく	-11.5859
うまくいっている	-11.5859
投球	-11.5859
もう一つ	-11.5859
▁兵士たちは	-11.5859
動物園	-11.5859
革新	-11.5859
部族	-11.5859
執着	-11.586
速達	-11.586
射る	-11.586
つやのある	-11.586
権能	-11.586
機雷	-11.586
温度計	-11.586
泙靴	-11.586
発動機	-11.586
いきなり	-11.5861
極限	-11.5861
低温	-11.5861
清める	-11.5861
背広	-11.5861
会衆	-11.5861
乾杯	-11.5862
痛みが	-11.5862
▁やり	-11.5862
をそろえる	-11.5862
具体的な	-11.5862
正統	-11.5863
没頭	-11.5863
ご機嫌	-11.5863
に接して	-11.5863
調印	-11.5863
まわす	-11.5863
氷河	-11.5863
やりとり	-11.5864
大して	-11.5865
憎む	-11.5865
湿地	-11.5866
▁蔵	-11.5866
神経質	-11.5866
気擦	-11.5866
口径	-11.5866
800	-11.5866
禁欲	-11.5866
翌年	-11.5867
▁衛生	-11.5867
番地	-11.5867
に襲われる	-11.5867
けている	-11.5867
衣食	-11.5867
満潮	-11.5867
証文	-11.5867
の必要	-11.5868
人々が	-11.5868
ぞうり	-11.5868
を考える	-11.5868
も言う	-11.5868
▁鼠	-11.5869
ご返事	-11.5869
功名	-11.5869
乾し	-11.5869
清らかな	-11.5869
敷地	-11.5869
浸水	-11.5869
▁強制	-11.587
の情	-11.587
何もしないで	-11.587
▁彼らは彼に	-11.587
旧友	-11.587
▁執	-11.5871
情欲	-11.5871
立案	-11.5871
旋回	-11.5871
名刺	-11.5871
主将	-11.5871
用件	-11.5872
零下	-11.5872
卑しい	-11.5873
市中	-11.5873
ゆび	-11.5873
同封	-11.5873
御殿	-11.5874
に穴をあける	-11.5874
を抱いている	-11.5874
▁赤ん坊が	-11.5875
やぎ	-11.5875
▁それはまったく	-11.5875
残高	-11.5876
親密	-11.5876
飲物	-11.5877
バル	-11.5877
▁あれこれ	-11.5877
捕り	-11.5877
短刀	-11.5877
温室	-11.5877
陽光	-11.5877
▁日本人は	-11.5878
紅白	-11.5878
こぐ	-11.5878
つづり	-11.5878
学派	-11.5878
のはよくない	-11.5879
甚だ	-11.5879
混合物	-11.5879
三枚	-11.5879
美術品	-11.5879
仲立ち	-11.5879
しろうと	-11.588
もできない	-11.5881
▁さすが	-11.5881
隠居	-11.5882
枝葉	-11.5882
を演じる	-11.5883
▁繰り	-11.5883
思いつき	-11.5883
きること	-11.5883
図表	-11.5883
暴行	-11.5883
等しく	-11.5884
▁ここまで	-11.5884
▁製造	-11.5884
追いかける	-11.5885
広場	-11.5885
千鳥	-11.5885
無関心	-11.5886
要点を	-11.5886
心構え	-11.5886
▁音楽の	-11.5887
基金	-11.5887
続けること	-11.5887
酒は	-11.5888
興味が	-11.5888
作り上げる	-11.5888
当直	-11.5889
ものが多い	-11.5889
目当て	-11.5889
神霊	-11.589
心の働き	-11.589
の中心となる	-11.5891
醜い	-11.5891
開くこと	-11.5891
▁あの人には	-11.5891
出て来た	-11.5892
▁毎月	-11.5892
の記録	-11.5893
しなやかな	-11.5893
不渡り	-11.5893
ぎり	-11.5893
くさり	-11.5894
重なり	-11.5895
何という	-11.5895
気軽に	-11.5896
線を引く	-11.5896
開店	-11.5897
顔料	-11.5898
深み	-11.5898
褒め	-11.5899
薄弱	-11.5899
右へ	-11.5899
配分	-11.59
雑種	-11.59
面接	-11.5901
てあった	-11.5902
職権	-11.5902
の費用	-11.5902
あかり	-11.5902
逃げ出す	-11.5902
通らない	-11.5903
高速	-11.5903
ごめ	-11.5904
指数	-11.5904
同調	-11.5904
言葉は	-11.5904
選挙権	-11.5904
厚さ	-11.5904
路線	-11.5905
えらい	-11.5905
雨量	-11.5905
病状	-11.5905
逃れ	-11.5905
ぬいて	-11.5906
▁競技で	-11.5906
はやめなさい	-11.5906
▁ジン	-11.5906
そこない	-11.5906
▁それから	-11.5906
だと思った	-11.5907
盲目	-11.5908
はうまく	-11.5908
親父	-11.5908
合戦	-11.591
武道	-11.591
一定の場所	-11.5912
七月	-11.5912
変形	-11.5913
平等に	-11.5913
行き方	-11.5913
▁遣り	-11.5915
を得ない	-11.5916
▁ひょう	-11.5916
娘の	-11.5917
道筋	-11.5917
剣道	-11.5917
▁ウエ	-11.5918
発着	-11.5918
るようにして	-11.5918
んまり	-11.5919
ただし	-11.5919
▁精密	-11.5919
畜生	-11.592
巨大な	-11.5922
見事に	-11.5922
▁犯罪	-11.5923
にせもの	-11.5923
両足	-11.5925
女が	-11.5926
語尾	-11.5926
背が高い	-11.5927
書状	-11.5927
道徳的	-11.5927
一覧	-11.5928
▁一国の	-11.5928
事には	-11.5928
政体	-11.5929
▁手の	-11.5929
首長	-11.593
所有している	-11.5931
法師	-11.5934
縛る	-11.5935
▁必要な	-11.5935
真意	-11.5936
を当てに	-11.5936
一国	-11.5936
しようがない	-11.5937
に似た形	-11.5938
他の人	-11.594
造花	-11.5941
耕地	-11.5944
ごえ	-11.5945
どうでも	-11.5946
よむ	-11.5946
▁紛	-11.5946
ならば	-11.5948
受け取	-11.5948
身持ち	-11.5949
ちゃんとした	-11.5952
羽目	-11.5953
▁電信	-11.5954
▁参考	-11.5956
薬草	-11.5959
無名	-11.596
▁獣	-11.596
生じる	-11.5961
の腕	-11.5961
一帯	-11.5963
▁記録	-11.5964
満月	-11.5966
精製した	-11.5968
一杯に	-11.5969
▁一本の	-11.5973
心情	-11.5973
という名	-11.5974
言葉や	-11.5975
月夜	-11.5976
▁他人に	-11.5976
の集まり	-11.5977
していく	-11.5978
名士	-11.5978
明らかな	-11.598
大変だ	-11.5981
▁その会社は	-11.5982
こなす	-11.5983
が立たない	-11.5983
片付ける	-11.5984
味のある	-11.5986
初期の	-11.5986
陸上競技	-11.5986
不服	-11.5986
▁ブ	-11.5986
裏側	-11.5987
ろうか	-11.5987
白色で	-11.5987
夏は	-11.5988
▁不正な	-11.5988
リンパ	-11.5988
日記	-11.5992
▁猟	-11.5993
冬は	-11.5993
▁手形	-11.5993
大声	-11.5994
▁ライオン	-11.5995
けど	-11.5996
通風	-11.5996
を待っている	-11.5996
後足	-11.5998
失った	-11.5998
箸靴	-11.5998
ばなし	-11.5998
蒸留して	-11.5998
だまされて	-11.6
顔面	-11.6001
漢詩	-11.6001
球を	-11.6002
▁此の	-11.6002
のふた	-11.6004
よりずっと	-11.6004
▁氏は	-11.6005
▁愛情	-11.6005
知られていない	-11.6005
▁秘密の	-11.6006
快く	-11.6006
▁物価は	-11.6007
物思い	-11.6009
くろ	-11.6009
盛った	-11.601
▁患者	-11.6011
を課する	-11.6014
切れた	-11.6015
すぎること	-11.6015
▁膝	-11.6016
口座	-11.6016
怪物	-11.6017
を捨てて	-11.6018
が生じた	-11.6018
ふさぐ	-11.6019
▁れんが	-11.602
▁集	-11.6021
の辺	-11.6023
▁泡	-11.6023
否定する	-11.6024
無電	-11.6026
古今	-11.6026
の評判	-11.6029
の方向に	-11.603
▁部屋に	-11.603
当番	-11.6031
▁彼は大	-11.6031
てくれないか	-11.6032
▁総合	-11.6033
はいらない	-11.6034
▁大学の	-11.6035
▁くび	-11.6036
知識を	-11.6038
▁鎮	-11.6038
▁注	-11.6039
事項を	-11.6039
どれくらい	-11.604
の才	-11.6045
両手で	-11.6045
綿糸	-11.6045
▁僧が	-11.6045
▁ふと	-11.6047
で書いた	-11.6048
縫い目	-11.6049
かわす	-11.6049
し難い	-11.6049
産地	-11.6049
いえ	-11.605
浮かれ	-11.6054
はずす	-11.6054
につなぐ	-11.6056
の線	-11.6058
▁まず	-11.606
とうとう	-11.6062
守って	-11.6062
起こる病気	-11.6063
太陽が	-11.6063
本屋	-11.6063
ラップ	-11.6064
死刑	-11.6065
飛び込み	-11.6065
にはならない	-11.6065
が入る	-11.6067
桜の花	-11.6068
はちょっと	-11.6069
▁幻	-11.6069
中空	-11.6069
▁県	-11.6069
14	-11.607
▁大成功	-11.6071
応え	-11.6072
▁移	-11.6072
の一部を	-11.6073
木々	-11.6074
描く	-11.6075
マツ	-11.6076
を静める	-11.6077
身につけ	-11.6078
ざめ	-11.6078
人望	-11.6081
▁生きている	-11.6081
を提出する	-11.6083
ずるい	-11.6085
価値を	-11.6085
なるほど	-11.6086
▁蒸し	-11.609
▁練習	-11.6091
盗人	-11.6093
かすかに	-11.6093
背後	-11.6094
▁闇	-11.6094
▁冒険	-11.6094
息子に	-11.6094
～!	-11.6097
まるく	-11.6098
迫害	-11.6099
▁心からの	-11.61
▁海水浴	-11.6103
その事を	-11.6104
▁乗客	-11.6104
▁賛成	-11.6104
男女の	-11.6106
▁徒	-11.6107
▁カー	-11.6108
中世	-11.6108
思っている	-11.6109
などを入れる	-11.6111
ないでいる	-11.6113
に咲く	-11.6113
掛け金	-11.6115
▁温度	-11.6116
調整する	-11.6118
はぜ	-11.6118
近年	-11.6119
をかけること	-11.612
がしら	-11.6121
めば	-11.6122
を押す	-11.6123
数が多い	-11.6124
▁彼は彼女が	-11.6124
あいつの	-11.6125
集め	-11.6127
▁確かに	-11.6127
高音	-11.6129
両腕	-11.6132
▁品物を	-11.6132
を弾く	-11.6135
最近の	-11.6135
を見分ける	-11.6136
中を	-11.6137
さんざん	-11.6137
踏切	-11.6138
代用	-11.6138
関係のない	-11.6138
45	-11.6139
べら	-11.6139
▁不安	-11.6143
▁動力	-11.6144
精製	-11.6146
わないこと	-11.6147
書き方	-11.6148
人である	-11.6149
を振って	-11.6151
をすれば	-11.6152
に乗じて	-11.6153
ですから	-11.6153
判断する	-11.6153
回ること	-11.6154
はたいてい	-11.6159
きれいだ	-11.6159
フランス語を	-11.6161
▁そで	-11.6162
神事	-11.6163
飛行機は	-11.6164
承諾する	-11.6164
順調	-11.6166
▁鳥類	-11.6166
▁縫い	-11.6168
力がない	-11.6169
一重	-11.617
原産の	-11.617
▁子供が	-11.617
何人も	-11.6171
老年	-11.6172
必要と	-11.6172
をつか	-11.6173
大学生	-11.6174
腹を立てた	-11.6174
▁借	-11.6176
地上に	-11.6183
女に	-11.6185
将来の	-11.6186
野菜を	-11.6187
容易	-11.6187
▁囚人	-11.6188
当人	-11.6192
▁請	-11.6193
▁どういう	-11.6193
の映画	-11.6193
家の中	-11.6194
の振動	-11.6194
配る	-11.6194
法事	-11.6194
の奥	-11.6194
に伝える	-11.6195
のんき	-11.6196
もっともだ	-11.6197
国に	-11.6198
腫れ	-11.62
▁卑劣な	-11.62
砲覆	-11.6201
に置いた	-11.6201
▁腎臓	-11.6203
音楽家	-11.6203
おもしろく	-11.6203
焼く	-11.6204
を受け取る	-11.6206
に似るが	-11.6206
▁人事	-11.6208
▁郵便物	-11.6209
下げて	-11.6212
▁蚕	-11.6214
デー	-11.6214
請願	-11.6214
から他の	-11.6215
気持ちが	-11.6215
▁眉	-11.6215
▁彼女は子供	-11.6216
いかん	-11.6217
▁ものの	-11.6218
ンデ	-11.622
▁足が	-11.622
の粉	-11.6222
▁頭が	-11.6227
▁熱心に	-11.623
逃げた	-11.6231
無料で	-11.6233
の対象と	-11.6233
神経を	-11.6235
▁政界	-11.6236
のお陰で	-11.6237
次第で	-11.6237
外に出	-11.6238
と結婚した	-11.6243
人間性	-11.6245
本箱	-11.6245
とぎ	-11.6246
二メートル	-11.6247
理由は	-11.6248
なのに	-11.6248
つけられる	-11.6248
▁ヒ	-11.625
出し物	-11.6251
▁進歩	-11.6252
その事に	-11.6253
そそぐ	-11.6253
言うと	-11.6255
▁くだらない	-11.6257
▁分別	-11.6257
▁天気が	-11.6259
たままで	-11.626
がなかなか	-11.6262
との境	-11.6263
に作る	-11.6263
をきめる	-11.6265
が二つ	-11.6266
末から	-11.6268
は何か	-11.6268
▁赤い	-11.6269
こわれる	-11.6269
そんなことは	-11.6273
ずい	-11.6274
金がない	-11.6275
▁実に	-11.6276
▁スパイ	-11.6276
円熟	-11.6277
ライト	-11.6278
のパン	-11.6279
ほっと	-11.628
の人人	-11.6281
っておいて	-11.6283
▁雛	-11.6283
▁外国人	-11.6283
▁汽船	-11.6283
▁江戸	-11.6284
▁編集	-11.6286
物理的	-11.6287
興味を	-11.6288
見せた	-11.6288
▁死体	-11.6289
の末	-11.6289
何だ	-11.6292
認められている	-11.6292
特別に	-11.6293
の墓	-11.6294
▁時勢	-11.6294
▁社会の	-11.6294
▁憎	-11.6294
まわって	-11.6295
は全然	-11.6297
をやめた	-11.6298
を細かく	-11.6298
ツー	-11.63
がなくなること	-11.63
▁敵は	-11.63
捨てること	-11.6302
気をつけて	-11.6303
てること	-11.6304
の間柄	-11.6304
まねて	-11.6304
▁損害	-11.6306
▁ばくち	-11.6307
内部に	-11.6309
事業など	-11.6311
葬式	-11.6312
に仕え	-11.6313
中心になって	-11.6314
▁ビタミン	-11.6314
ない様子	-11.6315
このあたり	-11.6316
教化	-11.6316
彫	-11.6317
が進む	-11.6318
折れる	-11.6318
決着	-11.6319
の区別	-11.6319
▁山頂	-11.632
はでな	-11.6322
拾	-11.6324
ねむ	-11.6327
の基準	-11.6328
▁どれ	-11.6329
各種の	-11.633
キリスト	-11.633
▁悪意	-11.6331
はしなかった	-11.6333
▁品物の	-11.6334
をしなければならない	-11.6334
をはめ	-11.6334
▁すり	-11.6335
よくも	-11.6335
から見ると	-11.6336
戦死	-11.634
▁心から	-11.634
日本画	-11.6341
出せる	-11.6343
▁彼は君	-11.6343
議案を	-11.6343
手を加えて	-11.6344
捨	-11.6345
を抑え	-11.6347
▁刑務所	-11.635
生産物	-11.6351
ことにした	-11.6351
[...]
