<unk>	0
<s>	0
</s>	0
▁	-2.43392
。	-3.21683
、	-3.51118
の	-4.09796
・	-4.33787
を	-4.52003
。「	-4.62001
」	-4.66085
に	-4.68947
する	-4.75327
は	-4.92423
が	-4.97008
と	-5.06749
で	-5.1513
こと	-5.15588
る	-5.54144
)	-5.64468
▁彼は	-5.68769
た	-5.82438
▁えー	-5.91177
して	-5.92749
」「	-6.05283
から	-6.06305
人	-6.06605
した	-6.09414
な	-6.13507
また	-6.13678
や	-6.14372
だ	-6.18096
▁ちょっと	-6.23641
て	-6.25981
(	-6.33876
したい	-6.46403
その	-6.46769
も	-6.52051
い	-6.57505
もの	-6.64338
▁あの	-6.6515
し	-6.70709
か	-6.75348
▁んー	-6.77593
▁えーっと	-6.78387
く	-6.81533
▁LINE	-6.81704
など	-6.83695
▁その	-6.85735
である	-6.86478
す	-6.88932
をする	-6.89989
物	-6.91105
□	-6.93092
り	-6.93128
者	-6.93542
った	-6.9436
▁(	-7.01178
▁この	-7.01864
」(	-7.02837
▁彼女は	-7.06705
1	-7.07675
PO	-7.09298
すること	-7.1156
特に	-7.11614
になる	-7.17035
などの	-7.19042
がある	-7.20732
さま	-7.25402
'	-7.25419
家	-7.26143
には	-7.26899
所	-7.27509
または	-7.28034
って	-7.30464
▁彼の	-7.34438
手	-7.34989
ること	-7.35058
元気かい	-7.35312
出せるようにして	-7.3557
時	-7.36259
R	-7.36339
として	-7.37032
[	-7.3723
ない	-7.37575
']	-7.37835
Q	-7.3823
▁...	-7.39495
う	-7.41479
している	-7.41756
▁SMS	-7.42974
などを	-7.46323
▁〔	-7.46405
大	-7.46575
を教えて	-7.46818
心	-7.47583
日	-7.47978
SMS	-7.48913
水	-7.49181
子	-7.49462
語	-7.50289
ある	-7.50347
いた	-7.50657
さ	-7.51947
一	-7.52046
的	-7.52046
お	-7.52498
き	-7.53079
本	-7.53735
ている	-7.54003
目	-7.54269
〕	-7.54348
です	-7.54361
力	-7.55384
よ	-7.55647
開け	-7.56474
だった	-7.58326
地	-7.62344
管理	-7.62442
へ	-7.63124
み	-7.63151
転じて	-7.63333
事	-7.63618
;	-7.63652
2	-7.64351
用	-7.64639
色	-7.65723
という	-7.66059
け	-7.6679
国	-7.68013
金	-7.68022
では	-7.68265
ように	-7.68302
ら	-7.69773
気	-7.70077
▁電話	-7.73599
かな	-7.74512
年	-7.74915
N	-7.74922
出す	-7.75519
出して	-7.75555
口	-7.76069
上	-7.76423
3	-7.76437
つ	-7.76515
▁N	-7.77341
開いて	-7.77399
道	-7.7749
▁電卓	-7.77798
中	-7.78216
いて	-7.79649
いる	-7.8089
まで	-7.80933
LINE	-7.81315
風	-7.81402
ニュース	-7.81555
む	-7.83309
見	-7.84015
などが	-7.84518
法	-7.85341
分	-7.86139
れ	-7.86144
ちょっと	-7.86662
的な	-7.86721
によって	-7.86832
▁いまから	-7.86922
▁大	-7.87794
にする	-7.87867
▁彼らは	-7.88907
名	-7.89073
された	-7.89159
させる	-7.89381
▁すぐに	-7.90513
体	-7.91064
俗	-7.92142
電話	-7.92352
書	-7.92529
木	-7.92891
方	-7.93086
を示して	-7.93143
などで	-7.9322
性	-7.939
のある	-7.9476
の一つ	-7.94772
下	-7.95771
点	-7.9653
りたい	-7.96628
数	-7.97309
すぐに	-7.9732
より	-7.97431
!	-7.97598
ニュースアプリ	-7.98258
出せ	-7.99661
ような	-8.00162
学	-8.00729
▁「	-8.0084
取り	-8.01282
め	-8.01468
ニュース記事	-8.01726
話	-8.01902
いまから	-8.02652
会	-8.02964
仏	-8.03069
音	-8.03724
船	-8.04845
るようにして	-8.06166
出	-8.06177
5	-8.07022
よく	-8.07214
...	-8.07507
電卓	-8.07885
ほど	-8.0966
火	-8.09716
長	-8.09893
▁それは	-8.09969
小	-8.10008
車	-8.10261
時間	-8.10339
?	-8.10656
線	-8.11001
がない	-8.11073
仕事	-8.11505
言葉	-8.11592
▁人の	-8.11631
形	-8.1174
生	-8.11974
▁一	-8.12349
「	-8.1293
▁ニュースアプリ	-8.13118
場	-8.13436
考え	-8.13583
の一種	-8.13727
月	-8.1411
▁お	-8.14144
山	-8.14822
場所	-8.14958
使う	-8.15605
ね	-8.15618
ご	-8.15619
間	-8.15938
頭	-8.15992
のない	-8.16001
声	-8.16185
紙	-8.16545
▁ニュース	-8.16709
どこ	-8.16854
文	-8.17048
だろう	-8.17544
になった	-8.17739
送信	-8.18135
▁ニュース記事	-8.18433
彼は	-8.18705
女	-8.18717
人の	-8.19242
例	-8.19604
ず	-8.20169
海	-8.20337
こ	-8.2152
品	-8.21634
前	-8.21925
される	-8.22457
この	-8.22579
様子	-8.22597
行	-8.22956
屋	-8.23267
などに	-8.23376
▁手	-8.25374
それ	-8.26346
▁人を	-8.26784
着	-8.27189
よい	-8.27284
え	-8.2768
を開いて	-8.28033
足	-8.28052
ために	-8.28287
ていた	-8.28522
もう	-8.28619
のように	-8.29127
戦	-8.29469
▁私は	-8.29801
そう	-8.3043
花	-8.3104
の略	-8.32575
男	-8.32833
よう	-8.3315
んだ	-8.33259
状態	-8.33546
に対して	-8.33985
石	-8.34397
馬	-8.34514
10	-8.36254
なく	-8.36579
っている	-8.36649
▁110	-8.36975
かった	-8.36986
のために	-8.37022
ー	-8.37224
▁無	-8.3754
面	-8.3814
さん	-8.38417
開く	-8.38758
切り	-8.38792
度	-8.39116
▁彼が	-8.40369
論	-8.4052
(=	-8.40652
後	-8.40665
番	-8.41315
言	-8.41766
先	-8.41851
自分の	-8.42191
問題	-8.42579
送れ	-8.42763
じ	-8.42859
食	-8.43224
▁119	-8.43582
▁小	-8.43892
彼の	-8.44052
顔	-8.44532
式	-8.45318
神	-8.45334
送る	-8.45625
靴	-8.45948
写真	-8.467
▁もう	-8.46738
▁水	-8.46951
世	-8.47409
的に	-8.47995
熱	-8.48119
等	-8.49479
やる	-8.49555
高	-8.49672
なかった	-8.49933
歌	-8.5001
白	-8.50933
二	-8.50997
身	-8.51036
ですか	-8.51514
空	-8.51586
業	-8.51612
にも	-8.5183
時に	-8.52066
なさい	-8.52186
▁人に	-8.52222
三	-8.52231
っ	-8.53264
板	-8.53277
役	-8.53417
ま	-8.53572
死	-8.53648
▁私の	-8.5393
やって	-8.53963
内	-8.54203
▁彼はその	-8.54273
)「	-8.54307
引き	-8.54954
となる	-8.55156
ます	-8.55375
の場所は	-8.55441
草	-8.55713
部	-8.55741
にある	-8.55945
量	-8.56006
書き	-8.56484
をつける	-8.5672
4	-8.5706
来	-8.57096
ん	-8.57105
▁地図	-8.57141
流	-8.57339
なら	-8.57432
言う	-8.57562
ため	-8.57583
服	-8.57586
でも	-8.5764
骨	-8.57832
送	-8.5791
ば	-8.58218
できる	-8.58226
ながら	-8.5825
作	-8.58368
それを	-8.58382
酒	-8.58934
薬	-8.59013
だけ	-8.59204
▁不	-8.59422
による	-8.59835
毛	-8.59968
しない	-8.60196
表	-8.60213
もと	-8.60396
▁元気かい	-8.60529
部分	-8.60587
外	-8.60903
の総称	-8.61412
ス	-8.61436
のため	-8.61833
そ	-8.619
ものだ	-8.62296
字	-8.62401
読みたい	-8.6244
込む	-8.62493
店	-8.62521
台	-8.62568
状	-8.63071
生活	-8.63124
病	-8.6313
代	-8.63449
いい	-8.63624
無	-8.64529
メッセージ	-8.64607
に対する	-8.64815
任	-8.64865
主義	-8.64939
▁マップ	-8.65316
夜	-8.65498
布	-8.65622
光	-8.65723
器	-8.66848
メッセージを	-8.66907
意	-8.66931
天	-8.66962
ち	-8.67438
垢	-8.67492
愛	-8.67834
土	-8.67894
のような	-8.67937
植物	-8.68081
主	-8.68407
▁金	-8.68727
ぐ	-8.68749
態度	-8.68781
ル	-8.68814
下さい	-8.68815
何	-8.68939
せ	-8.69027
権	-8.69882
職	-8.70151
の人	-8.70256
雨	-8.7059
関係	-8.70645
わ	-8.70686
ための	-8.70752
兵	-8.70813
魚	-8.70867
入れ	-8.71456
機	-8.71816
をした	-8.72348
ぞ	-8.72754
病気	-8.72807
行為	-8.73013
はない	-8.73048
運動	-8.7332
行く	-8.73358
上の	-8.73544
室	-8.73579
であること	-8.73775
がいい	-8.73887
▁彼女の	-8.74082
地図	-8.74153
信	-8.74312
元	-8.74633
について	-8.74802
していた	-8.75228
とする	-8.75471
曲	-8.75486
前に	-8.75662
装置	-8.75663
鳥	-8.75819
味	-8.76383
私の	-8.76426
られた	-8.76493
▁すぐに電卓	-8.77085
髪	-8.77138
思い	-8.77171
中に	-8.77284
油	-8.7755
道具	-8.77567
られる	-8.77573
悪	-8.77647
五	-8.77776
感	-8.78237
大きな	-8.78261
ぶ	-8.78271
角	-8.78321
肉	-8.78695
をとる	-8.78746
音楽	-8.7878
める	-8.78983
▁自分の	-8.79116
用の	-8.79153
人に	-8.79225
筆	-8.7927
葉	-8.79538
血	-8.79586
元気かい予約	-8.79618
ください	-8.79721
化	-8.7976
▁本	-8.79869
人が	-8.80057
もない	-8.80147
雲	-8.80213
発	-8.80222
人を	-8.80436
位	-8.80533
御	-8.80662
使いたい	-8.80704
絵	-8.80723
持ち	-8.80968
こう	-8.81242
波	-8.8146
客	-8.81477
命	-8.81861
でない	-8.81947
▁これは	-8.82038
米	-8.82117
▁新	-8.82232
物を	-8.82265
比ゆ的に	-8.82383
組織	-8.82587
料理	-8.82786
立	-8.82971
不	-8.83499
になって	-8.83544
性質	-8.83828
合	-8.83991
部屋	-8.84342
イ	-8.84408
腹	-8.84415
マップ	-8.84455
入	-8.84639
動	-8.85218
門	-8.85227
を出す	-8.8546
になっている	-8.85544
他の	-8.85558
ぎ	-8.85683
図	-8.8603
付け	-8.86103
ところ	-8.86261
ページ	-8.86351
雪	-8.86428
座	-8.8665
を作る	-8.8669
を受ける	-8.86799
実	-8.86956
れる	-8.87053
はどうなっている	-8.87167
に電話	-8.87298
ど	-8.87605
種	-8.87609
▁山	-8.87618
なる	-8.87664
打ち	-8.88005
』	-8.88061
▁我々は	-8.88145
説	-8.88215
根	-8.88535
ものを	-8.88906
▁1	-8.88995
その人	-8.89027
であった	-8.89089
会社	-8.89361
える	-8.89631
/	-8.89875
見つけて	-8.89962
師	-8.89978
制	-8.90079
ルビ	-8.90082
計画	-8.90275
席	-8.90342
官	-8.90474
犬	-8.90482
相	-8.90504
直	-8.90506
▁口	-8.90566
▁彼には	-8.90667
意見	-8.90735
▁『	-8.90795
質	-8.90809
様	-8.90886
期	-8.91012
置いて	-8.91158
町	-8.91312
砲	-8.91439
節	-8.9158
学校	-8.91701
しい	-8.91736
元気かいの	-8.91753
界	-8.91762
類	-8.91874
を取る	-8.92042
画	-8.92142
罪	-8.9219
土地	-8.9223
別	-8.92364
事を	-8.9275
歩く	-8.92844
▁ある	-8.92859
べき	-8.93638
▁君は	-8.937
文字	-8.94094
▁電話したい	-8.94461
のは	-8.94665
リ	-8.94995
▁内	-8.95399
▁私	-8.9542
$	-8.95524
君	-8.95776
食用	-8.95825
んで	-8.95839
ン	-8.95871
回	-8.96106
軍	-8.96277
管	-8.96281
川	-8.96316
び	-8.96422
▁電話する	-8.96423
々	-8.97137
つき	-8.97289
茶	-8.97535
をかける	-8.97582
すぐ	-8.97747
糸	-8.97801
眼	-8.98005
まだ	-8.98323
重	-8.98362
に使う	-8.98382
をして	-8.98402
敵	-8.98564
▁電話をかける	-8.98588
路	-8.98672
札	-8.98726
父	-8.9879
時代	-8.98916
▁出	-8.99037
ろ	-8.99112
美	-8.99149
詩	-8.99372
天気	-8.99423
ラ	-8.99461
ではない	-8.9947
たち	-8.99522
立ち	-8.99576
とも	-8.99762
元気かいの履歴	-8.99776
元気かいの記録	-8.99797
メッセージ送信	-9.00011
見る	-9.00126
傷	-9.00675
のか	-9.00953
美しい	-9.00993
首	-9.01105
刀	-9.01229
ぬ	-9.01261
事実	-9.01326
入り	-9.01461
なこと	-9.01517
虫	-9.01664
そういう	-9.01788
夏	-9.01817
明	-9.01963
柱	-9.01993
かす	-9.02007
私	-9.02072
箱	-9.02165
お知らせ	-9.02387
正	-9.02481
はどこ	-9.02485
輪	-9.02648
とは	-9.02743
▁電話かける	-9.02807
6	-9.03021
行動	-9.03189
言い	-9.03412
きた	-9.03464
社会	-9.03519
知	-9.03632
中の	-9.03638
小説	-9.03786
新しい	-9.03835
子供	-9.03836
旅行	-9.03916
つく	-9.04078
教育	-9.04337
をすること	-9.04396
耳	-9.04476
▁夜	-9.04497
売り	-9.04657
姿	-9.04725
母	-9.04919
つけ	-9.04939
▁2	-9.05049
▁空	-9.05055
利	-9.05352
新	-9.05458
印	-9.0552
ナ	-9.05733
▁彼	-9.05845
事柄	-9.05934
劇	-9.06071
感じ	-9.0619
げ	-9.06208
棒	-9.06244
六	-9.06327
団	-9.06389
したもの	-9.06553
できない	-9.06858
を見つけて	-9.07103
ける	-9.07404
情	-9.07477
に行く	-9.07491
出し	-9.07512
あり	-9.07782
が悪い	-9.07968
歯	-9.08016
親	-9.08024
よりも	-9.08042
然	-9.08101
高い	-9.08152
計	-9.08435
探して	-9.08481
玉	-9.08832
通り	-9.0889
ばかり	-9.09072
星	-9.09177
たり	-9.09231
メッセージを送信	-9.09292
▁下	-9.09492
ア	-9.09627
されている	-9.09695
私は	-9.09709
通	-9.09901
人間	-9.09942
縁	-9.10006
辰	-9.10184
立て	-9.10298
約束	-9.10336
次	-9.10399
額	-9.10508
妻	-9.10633
湯	-9.10711
かけ	-9.10777
一回	-9.10836
▁木	-9.10845
帯	-9.10887
句	-9.10944
どこにある	-9.11116
強	-9.11308
らない	-9.11426
里	-9.1143
やり直す	-9.11796
春	-9.11837
なり	-9.11856
これ	-9.11862
古	-9.12173
ひ	-9.12324
}	-9.12361
円	-9.12383
版	-9.12491
っていた	-9.1261
合い	-9.1267
の中に	-9.12807
背	-9.13221
員	-9.13256
記	-9.13273
れば	-9.13288
教えて	-9.13321
送信する	-9.13364
▁生	-9.13428
原	-9.13503
定	-9.13647
あと	-9.13747
▁天気	-9.13774
▁君の	-9.14001
覆	-9.14062
試験	-9.14073
▁神	-9.14234
▁元気かいの	-9.14244
ト	-9.14255
動物	-9.14437
らしい	-9.14482
▁上	-9.14532
非常に	-9.14538
戦争	-9.14681
どう	-9.14711
を与える	-9.14839
僧	-9.14895
があった	-9.14898
粉	-9.15002
筋	-9.15016
ひと	-9.15246
ドル	-9.15345
▁元気かいの履歴	-9.15419
建物	-9.15747
難	-9.15761
とり	-9.15918
値	-9.15993
▁気	-9.16004
赤	-9.16072
▁高	-9.16216
日本	-9.16307
型	-9.16386
ないこと	-9.16454
地方	-9.1646
掛け	-9.16555
戸	-9.16782
映画	-9.17015
柄	-9.17027
製	-9.17098
成	-9.1724
煙	-9.17287
試合	-9.1733
そういう人	-9.17345
たる	-9.17389
尾	-9.17521
袋	-9.1797
▁後	-9.17992
になること	-9.18036
同じ	-9.18198
公	-9.1826
オ	-9.18278
造	-9.18667
四	-9.18688
▁御	-9.18808
▁自	-9.18809
地位	-9.18936
▁目	-9.18971
活動	-9.19266
記録	-9.19303
竹	-9.19313
かい	-9.19349
楽	-9.19402
を探して	-9.19474
費	-9.19655
研究	-9.19995
を示す	-9.20096
八	-9.20104
▁前	-9.20157
腰	-9.20214
はどこにある	-9.20431
杯	-9.20529
案	-9.20894
マ	-9.21047
網	-9.21156
村	-9.212
▁三	-9.21201
の中で	-9.21286
▁元気かいの記録	-9.21524
人物	-9.21551
っと	-9.2171
すこと	-9.21863
寝	-9.21959
に対し	-9.22052
カ	-9.22126
税	-9.22227
が多い	-9.22259
感情	-9.22265
長い	-9.22323
いっぺん	-9.22611
文章	-9.22613
たい	-9.22655
同	-9.22708
インターネットのページを	-9.22821
▁白	-9.22861
あ	-9.22919
田	-9.23274
機械	-9.23334
書物	-9.23356
▁心	-9.235
張り	-9.2355
強い	-9.2356
だけで	-9.2366
一番	-9.23747
小さな	-9.23757
穴	-9.23773
▁天	-9.23782
とき	-9.23814
番に電話	-9.24059
への	-9.24084
相手	-9.24117
ロ	-9.24142
黒	-9.24267
術	-9.24315
害	-9.24547
鼻	-9.2476
制度	-9.24772
弁	-9.24873
▁彼に	-9.24926
をしている	-9.24958
道順	-9.25129
調	-9.25247
そうだ	-9.25475
取引	-9.25691
▁同	-9.25747
政治	-9.26145
となった	-9.26319
産	-9.26354
事業	-9.26389
半	-9.2639
談	-9.26595
ゆ	-9.26707
出した	-9.26757
方法	-9.26892
断	-9.26906
報	-9.26934
悪い	-9.27025
士	-9.27089
まる	-9.271
合う	-9.27111
▁二	-9.27126
読	-9.27139
の件	-9.27165
球	-9.27382
電話をかける	-9.27432
ッ	-9.27555
まい	-9.2775
平	-9.27798
気持	-9.27996
事件	-9.28145
行き方	-9.28178
でしょう	-9.28213
殺	-9.28492
電	-9.28568
当	-9.28596
。↓	-9.28651
▁ご	-9.28751
議論	-9.28923
ろう	-9.28931
のに使う	-9.2894
と思う	-9.28979
息	-9.29032
▁中	-9.29059
像	-9.29131
塩	-9.29146
民	-9.29242
いや	-9.29328
乗	-9.29337
ウ	-9.29485
学者	-9.29653
皮	-9.29673
料	-9.29768
ケ	-9.29813
白い	-9.3008
しか	-9.30089
隊	-9.30199
能力	-9.30473
20	-9.3048
|	-9.30536
得	-9.30541
やり直し	-9.30541
なし	-9.30644
遊び	-9.30659
歩	-9.30815
シ	-9.30936
▁僕は	-9.31104
運	-9.31234
広く	-9.31304
手紙	-9.3131
違い	-9.31335
調子	-9.31336
ルート	-9.3136
進	-9.3137
何か	-9.31438
学問	-9.31515
▁外	-9.31523
作用	-9.31628
上げる	-9.31638
110	-9.31721
▁ショートメッセージ	-9.31734
毒	-9.31862
払い	-9.31863
▁日	-9.31864
▁何	-9.32008
進む	-9.32114
号	-9.32203
に入る	-9.32253
幕	-9.32332
横	-9.3241
新聞	-9.32467
結婚	-9.3253
大学	-9.32682
7	-9.32704
入っている	-9.3273
立つ	-9.32839
s	-9.3287
夫	-9.32895
ひどく	-9.33057
てしまった	-9.33089
壁	-9.33248
多	-9.33265
電話する	-9.3332
取る	-9.33411
抜き	-9.33412
写真を	-9.33455
出る	-9.33587
かた	-9.33605
確認	-9.33661
経験	-9.33837
機関	-9.33922
経済	-9.3398
込み	-9.34138
焼き	-9.34181
▁～	-9.34314
をもつ	-9.34326
史	-9.34418
娘	-9.34453
卵	-9.34467
規則	-9.34501
物質	-9.34577
小さい	-9.34608
居	-9.3461
王	-9.348
▁火	-9.34856
くる	-9.34937
フ	-9.34976
秋	-9.35087
模様	-9.35201
自動車	-9.35223
乗り	-9.35241
牛	-9.35272
針	-9.35287
▁電卓アプリ	-9.35336
深い	-9.35453
チ	-9.35486
鉄	-9.3572
盛り	-9.36028
城	-9.36062
いつも	-9.36078
を入れる	-9.36089
彼に	-9.36135
ぼ	-9.36143
なければならない	-9.36262
切る	-9.36277
に関する	-9.3629
法律	-9.36314
連	-9.36361
真	-9.36437
肩	-9.36444
▁全	-9.36526
欲	-9.36671
タ	-9.36742
じゃない	-9.36832
飯	-9.36907
しなさい	-9.36969
つける	-9.3702
を見	-9.37032
彼が	-9.37087
道路	-9.37143
全	-9.37149
押し	-9.37171
を言う	-9.37254
剤	-9.37383
朝	-9.37407
窓	-9.37421
社	-9.37421
うまく	-9.37463
多くの	-9.37467
策	-9.37488
言った	-9.37503
行う	-9.3752
野	-9.37769
▁雪	-9.37798
表現	-9.3782
普通	-9.37855
番に電話して	-9.37964
付	-9.37972
万	-9.38201
失	-9.38322
老	-9.38392
笑い	-9.38424
一定の	-9.38429
和	-9.38456
▁悪	-9.38635
▁国	-9.38669
科の	-9.38686
の間	-9.38696
▁先	-9.38778
形の	-9.38878
変化	-9.39043
ふ	-9.39078
乱	-9.39139
化する	-9.39146
食事	-9.39257
電話したい	-9.39445
歳	-9.39534
あった	-9.3957
▁船	-9.3966
	-9.39813
させた	-9.39901
時の	-9.39906
損	-9.39977
30	-9.3999
局	-9.40072
なった	-9.4023
ますか	-9.40286
電気	-9.40319
▁日本	-9.4032
英語	-9.40511
やすい	-9.40536
のうち	-9.40541
命令	-9.40593
▁計算機	-9.40728
▁風	-9.40758
競技	-9.40768
▁真	-9.40846
電話かける	-9.4086
そうな	-9.40894
好	-9.409
政	-9.4093
を起こす	-9.4093
片	-9.41042
ずる	-9.41059
七	-9.41068
起	-9.41093
私に	-9.4113
長く	-9.41166
算	-9.41284
財産	-9.41315
ニ	-9.41315
お知らせページ	-9.4135
たもの	-9.41502
橋	-9.41539
8	-9.41574
ほう	-9.41744
▁まだ	-9.41814
▁何か	-9.41847
十	-9.41861
119	-9.41937
使い	-9.41955
権利	-9.41969
d	-9.42038
行き	-9.42049
がよい	-9.4207
▁―	-9.4218
番呼び出す	-9.42186
の上	-9.4224
率	-9.42283
時計	-9.42337
のよい	-9.42375
吹き	-9.4239
一般に	-9.42478
層	-9.42527
有	-9.4255
▁茶	-9.42691
されて	-9.42701
危険	-9.42752
詰め	-9.42814
燭	-9.42862
の行き方	-9.42875
取り消す	-9.42983
ミ	-9.42994
安	-9.43011
教	-9.43027
数学	-9.43224
で写真	-9.43433
証拠	-9.43534
	-9.43742
勝	-9.43832
段	-9.43833
メートル	-9.43863
▁非常に	-9.43933
すっかり	-9.44031
品物	-9.44053
の部分	-9.44159
くれ	-9.44235
計算機	-9.44423
破	-9.4455
II	-9.44614
食べる	-9.44627
いない	-9.44833
党	-9.44915
説明	-9.44968
陣	-9.45043
影	-9.4508
コ	-9.45139
▁第	-9.45142
付ける	-9.45176
向き	-9.45204
落ち	-9.45242
地域	-9.45243
せる	-9.45274
彼	-9.4528
レ	-9.45308
記号	-9.45333
息子	-9.45351
ません	-9.45355
立てる	-9.45358
薄	-9.45499
金銭	-9.45542
あなた	-9.45595
▁花	-9.45763
条件	-9.45772
金を	-9.45803
文書	-9.45981
50	-9.46034
番して	-9.46083
の上に	-9.46245
旗	-9.4626
うち	-9.46302
▁今日	-9.46331
島	-9.46351
菓子	-9.46646
児	-9.46764
失敗	-9.46917
切	-9.46986
100	-9.47011
ク	-9.4708
団体	-9.47142
少年	-9.4719
▁正	-9.47204
技術	-9.47261
にして	-9.47416
全部	-9.47476
流れ	-9.4759
分の	-9.47591
個	-9.4764
色の	-9.4764
働き	-9.47656
を見る	-9.47737
▁これ	-9.4774
付き	-9.47867
引	-9.48076
才	-9.48242
多く	-9.48293
▁3	-9.48335
伝	-9.48352
変更	-9.48528
他	-9.4858
を立てる	-9.48621
▁そう	-9.48771
気が	-9.489
床	-9.48927
対	-9.48969
株	-9.48976
あい	-9.48997
手段	-9.4911
かん	-9.49158
元気かいのお知らせ	-9.49314
工	-9.49337
心配	-9.49374
列	-9.4943
作った	-9.49677
庭	-9.4974
に向かって	-9.49887
▁同じ	-9.49912
酸	-9.49964
孫	-9.50025
▁重	-9.50117
すべき	-9.50157
巻	-9.50346
日に	-9.50378
つけた	-9.50433
雑誌	-9.50643
ました	-9.50645
ひどい	-9.50665
ずっと	-9.50715
ころ	-9.50758
とても	-9.50785
思想	-9.50872
港	-9.5089
はまだ	-9.50938
▁平	-9.50964
来た	-9.50988
望	-9.51047
落	-9.51101
離	-9.5118
▁こう	-9.5125
結果	-9.51287
端	-9.51354
降り	-9.51395
とした	-9.51405
すぐれた	-9.5147
▁月	-9.51548
わけ	-9.51759
話す	-9.51785
作品	-9.5181
▁海	-9.51893
徳	-9.51936
指	-9.51997
目的	-9.52044
折	-9.52188
があり	-9.52191
インターネットのページ	-9.52197
意味	-9.52327
週間	-9.52503
理	-9.52624
万円	-9.52732
訳	-9.52884
を守る	-9.52888
回り	-9.52914
目に	-9.52924
なんて	-9.52932
散	-9.52995
派	-9.53018
▁初	-9.53061
込んだ	-9.53083
利益	-9.53099
だと	-9.53259
▁実	-9.53404
工場	-9.53493
もなく	-9.53494
注意	-9.53495
ものが	-9.53543
皿	-9.53564
▁見	-9.53574
⇒	-9.53627
らす	-9.53709
言うこと	-9.53732
世界	-9.53732
▁公	-9.5376
がなく	-9.53794
返す	-9.53795
事情	-9.53802
の名	-9.53811
置く	-9.53903
を使って	-9.5391
▁の天気	-9.54116
宿	-9.54167
せず	-9.54304
に出る	-9.54387
され	-9.54427
礼	-9.54455
の下	-9.54787
そんな	-9.54818
大いに	-9.5484
▁古	-9.54904
だけの	-9.55024
くなる	-9.55053
ごと	-9.55146
松	-9.55211
知識	-9.55226
跡	-9.55267
韻	-9.55313
つか	-9.55448
陰	-9.55452
はい	-9.55466
あまり	-9.55604
間に	-9.55634
切れ	-9.55659
▁他人の	-9.5569
一つ	-9.55792
現象	-9.55835
を得る	-9.55931
らせる	-9.55931
行った	-9.56039
▁昔	-9.56066
家族	-9.56079
コード	-9.5615
▁名	-9.56211
▁彼は私に	-9.56221
肌	-9.56243
砂	-9.56312
変	-9.56401
メッセージ送	-9.56446
芸	-9.56631
羽	-9.56664
コードのページ	-9.56766
入れる	-9.5694
▁雨	-9.56961
読み	-9.57066
来る	-9.5708
価値	-9.57137
他人の	-9.57146
番呼び出して	-9.57151
▁ショートメッセージを	-9.57181
で写真を	-9.57183
投げ	-9.5728
▁長	-9.57316
両	-9.57359
称	-9.57364
▁有	-9.57389
建築	-9.57431
葉は	-9.57443
早く	-9.57487
勢力	-9.57534
灯	-9.57555
岩	-9.57646
夢	-9.57665
の一	-9.57746
好き	-9.57798
判	-9.57922
位置	-9.57923
示して	-9.58007
します	-9.58019
大きく	-9.58074
を失う	-9.58094
女性	-9.58202
を持つ	-9.58384
▁今	-9.58391
べ	-9.58434
▁物事の	-9.58464
▁酒	-9.58579
具	-9.58606
示	-9.58744
今日	-9.58748
胸	-9.5882
により	-9.58846
▁そんな	-9.58875
は寒い	-9.58884
を変更する	-9.58929
義	-9.58956
ということ	-9.59079
▁血	-9.59109
約	-9.59202
強く	-9.59337
を更新する	-9.59484
そこ	-9.59563
▁ひと	-9.5963
判断	-9.59785
ざ	-9.59868
氏	-9.59879
分け	-9.59925
向	-9.59932
ほどの	-9.60098
当たり	-9.60108
演説	-9.60134
駅	-9.60134
題	-9.60138
組	-9.60168
は雨	-9.6017
れた	-9.60245
としての	-9.60246
千	-9.60247
校	-9.60264
状の	-9.60276
{	-9.60356
さえ	-9.60407
辞	-9.60491
じる	-9.60581
転	-9.60587
婦人	-9.60622
倍	-9.6074
理論	-9.60828
苦	-9.6086
追い	-9.60875
余	-9.60938
銀	-9.60943
受け	-9.6104
相手の	-9.61055
飛び	-9.61083
ごろ	-9.61181
寺	-9.61188
▁横	-9.61247
▁よく	-9.61367
格	-9.61375
腕	-9.61424
それに	-9.6143
てきた	-9.61586
辺	-9.61773
t	-9.61809
は暑い	-9.61827
しく	-9.61894
質問	-9.61904
のだ	-9.61933
一つの	-9.61996
▁多	-9.62092
見える	-9.62092
政府	-9.62126
近	-9.62153
衣	-9.6216
前の	-9.62244
差	-9.62315
幅	-9.62327
取	-9.62331
聞き	-9.62381
念	-9.624
枚	-9.62405
のですか	-9.62447
やり	-9.62557
精神	-9.62582
くて	-9.62612
箸	-9.6263
さない	-9.62686
なって	-9.62785
互いに	-9.62786
の道順	-9.62821
やめ	-9.62839
しよう	-9.62851
今	-9.62909
市	-9.62963
寒	-9.63025
がつく	-9.63093
と言った	-9.6313
はその	-9.6314
抜け	-9.63164
成功	-9.63165
恩	-9.63215
キ	-9.63297
営	-9.63298
込んで	-9.63339
階級	-9.63345
末	-9.63389
速	-9.63402
高く	-9.63523
に当たる	-9.63542
全く	-9.6359
すり	-9.63632
釮	-9.63647
はっきり	-9.63671
ド	-9.63687
程度	-9.63734
責任	-9.63792
かね	-9.63795
反	-9.63809
解決	-9.63911
▁元気かいのお知らせ	-9.63925
氷	-9.6394
工業	-9.63947
不足	-9.63975
職業	-9.63981
検査	-9.63984
ちゃん	-9.63995
修	-9.64065
▁戦争	-9.64097
彼女は	-9.64104
取り消し	-9.64108
素	-9.64185
持	-9.6427
者が	-9.64272
帽子	-9.64273
液	-9.64315
うそ	-9.64326
削除	-9.64363
弱	-9.64365
友	-9.6437
衣服	-9.64392
言語	-9.64418
のルート	-9.64427
矢	-9.64466
岸	-9.64473
場合	-9.64494
入る	-9.64631
つる	-9.64689
かかる	-9.64699
院	-9.64767
解	-9.64897
自	-9.65031
でなく	-9.6505
略	-9.65087
起こる	-9.65115
がないこと	-9.65133
わからない	-9.65183
飾り	-9.65279
程	-9.65316
願	-9.65378
裏	-9.65383
反対	-9.65386
清	-9.65429
ことだ	-9.65433
上げ	-9.65462
軸	-9.65506
パン	-9.65526
側	-9.65536
を追加する	-9.65548
バ	-9.65563
少し	-9.65574
差し	-9.65597
茲	-9.65633
北	-9.65643
ページを	-9.65661
ブ	-9.65678
そば	-9.65756
材	-9.65777
賞	-9.65814
▁女	-9.6586
と言う	-9.65994
られて	-9.66042
いること	-9.66068
痛	-9.66146
ずに	-9.66182
▁赤	-9.66196
内容	-9.66206
やった	-9.66239
逆	-9.66273
見て	-9.66274
大きい	-9.6629
激しく	-9.66291
配	-9.66306
にした	-9.66393
積	-9.66411
滅	-9.66438
汁	-9.66473
すれば	-9.66486
墨	-9.66491
は晴れ	-9.665
善	-9.66559
、「	-9.66586
政策	-9.66605
を見て	-9.66613
商売	-9.66615
OK	-9.66639
科	-9.66677
ガラス	-9.6668
▁早	-9.66728
置け	-9.66827
経	-9.66903
人は	-9.66965
▁川	-9.66992
良	-9.67037
ウェッブページ	-9.6704
患者	-9.67068
に住む	-9.67083
のもの	-9.67107
▁君が	-9.67178
蔵	-9.6733
空気	-9.67372
いった	-9.67392
皆	-9.67507
原因	-9.67587
せん	-9.67645
▁直	-9.67688
電卓アプリ	-9.67727
晩	-9.67744
一方	-9.67812
列車	-9.6782
の類	-9.67907
必要	-9.68126
距離	-9.68225
違う	-9.68238
炎	-9.68274
おり	-9.68277
給	-9.68286
援助	-9.68359
彼を	-9.68375
係	-9.68378
堂	-9.68469
契約	-9.68523
かさ	-9.68525
番に電話かける	-9.68562
▁それ	-9.68617
黄	-9.68622
要	-9.68766
言って	-9.68795
～	-9.6883
霊	-9.68843
さし	-9.6885
ぶり	-9.6889
ひも	-9.68965
仕事を	-9.68977
犯罪	-9.69004
かどうか	-9.69095
期間	-9.69149
できた	-9.6915
織物	-9.69157
価格	-9.69208
才能	-9.69286
割り	-9.69315
弾	-9.6933
健康	-9.69374
すべて	-9.69458
彼女の	-9.69492
要求	-9.69554
金属	-9.69597
望み	-9.69606
かり	-9.69646
打	-9.6973
乳	-9.69743
装	-9.69763
材料	-9.69775
しまった	-9.69835
A	-9.69902
▁これらの	-9.69965
放送	-9.70058
留	-9.70079
性の	-9.70099
委員会	-9.70178
上がる	-9.70243
雄	-9.70256
のいい	-9.70267
仲間	-9.70371
等の	-9.70371
働く	-9.70384
習	-9.70393
青	-9.70581
治	-9.70583
▁親	-9.70734
かもしれない	-9.70814
南	-9.70838
会議	-9.70866
最も	-9.70883
に電話する	-9.70914
どんな	-9.70942
便	-9.70954
生徒	-9.71025
がよく	-9.71028
泥	-9.71037
とう	-9.71041
意識	-9.71061
をもって	-9.71115
まったく	-9.71128
器具	-9.71133
▁足	-9.71157
▁年	-9.71241
おく	-9.71303
の天気	-9.71314
ウェッブページを	-9.71492
などに使う	-9.71589
▁再	-9.71657
取りやめ	-9.71664
選	-9.71686
は何	-9.71809
▁総	-9.71811
綿	-9.71869
スト	-9.71913
属	-9.71943
の悪い	-9.7195
▁愛	-9.71959
自然	-9.71991
努力	-9.72081
知恵	-9.72103
たちは	-9.72105
学生	-9.72191
教え	-9.72205
聞	-9.7222
もっと	-9.72258
振り	-9.72274
▁新しい	-9.72288
たくさん	-9.72319
攻撃	-9.72496
受	-9.72577
銃	-9.72615
は冷える	-9.72644
花が咲く	-9.72673
計算	-9.72711
が彼の	-9.72795
体を	-9.72895
▁強	-9.7295
苦労	-9.73005
▁ひ	-9.73097
事故	-9.73098
死んだ	-9.7314
食い	-9.73171
剣	-9.73243
観	-9.73248
ほ	-9.73316
食物	-9.73437
問	-9.73464
作る	-9.7348
うちに	-9.73515
別の	-9.73567
罰	-9.7357
深く	-9.73575
ム	-9.73577
仕	-9.73614
追加	-9.73641
したり	-9.73657
費用	-9.7368
▁熱	-9.7369
習慣	-9.73692
▁野	-9.73723
飲む	-9.73801
させ	-9.73803
もち	-9.73821
中である	-9.73859
収	-9.73868
離れ	-9.73923
を打つ	-9.73932
気分	-9.74094
走	-9.74214
られている	-9.7422
潮	-9.74233
物事の	-9.74447
編	-9.74472
書類	-9.74484
▁朝	-9.74515
評判	-9.74549
務	-9.74588
批評	-9.74641
各	-9.74772
涙	-9.74796
メッセージを送	-9.74808
を取り	-9.74809
ばか	-9.74857
言い方	-9.74864
作り	-9.74897
枝	-9.74966
商	-9.74971
▁逆	-9.75012
討	-9.75137
紅	-9.7514
犯	-9.75162
ましたか	-9.75223
死ぬ	-9.75267
境	-9.75418
所に	-9.75461
昔	-9.75462
経路	-9.75525
在	-9.75596
合わせ	-9.7565
勇	-9.75687
底	-9.75866
希望	-9.75893
を張る	-9.75969
それが	-9.76145
ついて	-9.76274
まえ	-9.76293
泣く	-9.76341
パ	-9.76508
林	-9.76539
予定	-9.76589
食品	-9.76651
細工	-9.76652
家に	-9.76657
丸	-9.76659
領	-9.76665
籍	-9.76743
舌	-9.768
正しい	-9.76801
集	-9.76804
に達する	-9.76849
飛行	-9.76874
従	-9.76927
すぎる	-9.76959
上に	-9.76962
笑う	-9.76996
級	-9.77059
都市	-9.77084
を削除	-9.77093
は彼の	-9.77114
ほとんど	-9.7714
章	-9.77161
キロ	-9.77174
▁土	-9.77183
返事	-9.77263
東	-9.77266
者は	-9.77356
狂	-9.77375
▁自然	-9.77404
めた	-9.77415
残	-9.77492
見た	-9.77503
ハ	-9.77587
を送る	-9.77592
旅	-9.77613
製品	-9.77642
銭	-9.77732
もある	-9.77743
綱	-9.77785
次の	-9.77881
へ行く	-9.77948
まず	-9.77951
年齢	-9.77955
の多い	-9.77956
▁身	-9.77968
▁入	-9.77973
兄	-9.77978
州	-9.77985
冠	-9.77993
立派な	-9.78022
顔つき	-9.78023
急	-9.78188
に似た	-9.78271
けた	-9.78315
文学	-9.78338
▁とても	-9.78378
蝿	-9.78429
コードを	-9.78525
人だ	-9.786
しゃ	-9.78618
水を	-9.78659
泙	-9.78719
、...	-9.78765
納	-9.78815
メッセを	-9.78946
結	-9.78974
条	-9.79031
立場	-9.79064
らず	-9.79071
ガス	-9.79101
▁彼は私の	-9.79109
につく	-9.79151
ネ	-9.79166
▁黒	-9.79169
九	-9.7918
黒い	-9.79206
メ	-9.79401
▁半	-9.79412
理由	-9.79449
▁鉄	-9.79472
元気かい予約状況	-9.7948
マイル	-9.79512
服装	-9.7952
冬	-9.79582
番する	-9.79605
茎	-9.79634
があって	-9.79703
15	-9.79721
祭	-9.7978
るように	-9.79792
紋	-9.79799
▁自動車	-9.7985
階	-9.7988
体の	-9.79906
激しい	-9.7993
知っている	-9.79985
くず	-9.79988
▁肉	-9.79994
を行なう	-9.80049
殿	-9.80066
友人	-9.80192
趣味	-9.80211
芸術	-9.80232
初めて	-9.80311
ヤ	-9.80486
軍隊	-9.80507
わざ	-9.80555
売	-9.80592
▁青	-9.80631
心が	-9.80648
産業	-9.80693
な人	-9.80714
屋根	-9.80723
うこと	-9.80745
メッセ	-9.80771
▁こ	-9.80772
▁それが	-9.80809
性格	-9.80899
いまから電話	-9.80924
資金	-9.81063
止め	-9.81067
省	-9.81152
癖	-9.81187
生物	-9.81264
圧	-9.81278
症	-9.81329
Δ	-9.8139
商品	-9.81536
何の	-9.81561
十分	-9.81569
裁判所	-9.81597
ぐらい	-9.81661
心を	-9.81669
走る	-9.81715
の中	-9.81813
みな	-9.81862
勢い	-9.81895
▁主	-9.81951
当て	-9.82137
▁石	-9.82169
国家	-9.82217
心に	-9.82274
▁君	-9.82306
勢	-9.82337
手を	-9.82368
傾向	-9.82386
わら	-9.82418
▁両	-9.82474
部隊	-9.82582
割	-9.82583
密	-9.82781
炭	-9.82783
▁多くの	-9.82918
バス	-9.82931
我々の	-9.8298
ついた	-9.83021
始めた	-9.83081
コードのページを	-9.83137
ちゃ	-9.83153
宮	-9.83237
▁寝	-9.83267
物事	-9.8327
の時	-9.83328
に電話をかける	-9.83331
交	-9.83438
▁他	-9.83452
眠	-9.83452
香	-9.83491
を求める	-9.83563
を受けて	-9.83564
と同じ	-9.83603
]	-9.83631
販売	-9.83716
退	-9.83724
助	-9.83839
百	-9.83841
人形	-9.83855
物語	-9.83875
を入れて	-9.83943
呂	-9.84012
られない	-9.84057
期待	-9.84091
▁地	-9.84111
露	-9.8424
名前	-9.843
達	-9.84363
の間に	-9.84393
替え	-9.84456
かわ	-9.84488
▁それを	-9.84501
生産	-9.84557
▁物事を	-9.84644
テ	-9.84663
苦しい	-9.84725
あの	-9.84756
に立つ	-9.84805
敗	-9.84831
家の	-9.84901
全体	-9.84933
チーム	-9.84959
の称	-9.84961
短い	-9.84997
動き	-9.85055
脚	-9.85058
左	-9.85109
でき	-9.85189
を使う	-9.85215
がら	-9.85234
9	-9.8528
ポンド	-9.85393
収入	-9.85441
考える	-9.85479
メモを写真で保存	-9.85486
▁5	-9.85557
の言葉	-9.85603
交渉	-9.85626
相談	-9.85627
処理	-9.85645
志	-9.85685
ようにする	-9.85805
印刷	-9.85927
物事を	-9.85939
票	-9.85999
撃	-9.86065
鵑	-9.86069
ホテル	-9.8607
飲み	-9.86115
▁原	-9.8616
動作	-9.86186
細	-9.86247
▁急	-9.86309
漢	-9.86521
弟	-9.86601
置き	-9.86621
さっと	-9.86632
湖	-9.8664
景	-9.8668
▁馬	-9.86718
豆	-9.86768
B	-9.86782
畑	-9.86791
喜び	-9.86865
ホ	-9.86891
行い	-9.86921
許	-9.86951
食べ	-9.86984
舟	-9.87019
気持ち	-9.87027
▁明	-9.87062
ていない	-9.87067
▁試験	-9.87095
任務	-9.87176
情報	-9.87207
▁新聞	-9.87226
▁文	-9.87235
重い	-9.87261
設備	-9.87275
▁あなた	-9.87325
サ	-9.87341
議	-9.87348
後に	-9.87393
一人	-9.87425
▁反	-9.87435
なかなか	-9.87442
となって	-9.8757
死ぬこと	-9.87654
選手	-9.87681
絶	-9.87761
教師	-9.87775
れて	-9.87826
遠	-9.87891
急に	-9.87943
調査	-9.87964
荷	-9.88022
令	-9.88054
彼女	-9.88103
をやる	-9.88146
ても	-9.88163
早	-9.88174
▁旧	-9.88228
いく	-9.88259
たら	-9.88261
ット	-9.88306
何も	-9.8837
▁OK	-9.88374
涼	-9.88415
施設	-9.88486
やつ	-9.88489
縄	-9.88491
やか	-9.88545
手に	-9.88584
君の	-9.88591
きり	-9.88642
▁男	-9.88753
聞く	-9.88772
ごとに	-9.88843
▁今日の天気	-9.88856
させて	-9.88884
放	-9.88933
▁一つの	-9.88959
願い	-9.88963
▁片	-9.89019
▁腹	-9.89031
あたり	-9.89039
回る	-9.89043
勉強	-9.89044
生まれ	-9.89098
雑	-9.89186
直接	-9.89351
過	-9.89479
手書きメモ保存	-9.8958
典	-9.896
年間	-9.89614
更新	-9.89687
▁和	-9.89714
総	-9.89746
症状	-9.89767
態	-9.89802
ヒ	-9.89825
づ	-9.89845
手で	-9.89916
企業	-9.89934
▁引き	-9.89965
範囲	-9.90097
電車	-9.90161
を切る	-9.90164
▁かん	-9.90165
ができる	-9.90225
満足	-9.90243
間の	-9.9027
ガ	-9.90306
まま	-9.90416
二つの	-9.9043
に電話したい	-9.90432
諸	-9.90447
極	-9.90471
以上	-9.90537
ようだ	-9.9054
丁	-9.90546
単に	-9.90554
していない	-9.90555
をさす	-9.90562
若い	-9.90585
間違い	-9.906
決定	-9.90609
織り	-9.90609
▁彼らの	-9.90624
時期	-9.90633
自分	-9.90781
決	-9.90804
メモを写真で記録	-9.90829
役目	-9.90869
障害	-9.90929
甲	-9.90932
俳優	-9.9095
負け	-9.90953
かげ	-9.90956
閑	-9.90959
巻き	-9.90986
手書きメモを写真で保存	-9.90993
渡し	-9.91013
を送信	-9.91028
芝居	-9.91087
まき	-9.91094
作業	-9.91122
勘定	-9.91195
が強い	-9.91201
▁死	-9.91208
▁牛	-9.91218
おう	-9.91262
私を	-9.91273
蕕	-9.91279
作家	-9.91319
秘密	-9.9133
労働者	-9.91352
西	-9.91567
能	-9.91586
▁法	-9.91612
▁詩	-9.91707
答え	-9.91744
をつけた	-9.91855
単位	-9.91879
▁ス	-9.91992
を引く	-9.92006
やめる	-9.92051
▁天気予報	-9.92056
徒	-9.92066
▁コ	-9.92074
のことを	-9.92089
絹	-9.92116
処置	-9.9214
▁老	-9.92145
盤	-9.92145
メモ写真で保存	-9.92237
ましょう	-9.92239
の木	-9.92267
段階	-9.92281
主に	-9.92309
手書きメモを保存	-9.92377
が出る	-9.9239
▁雑	-9.9241
▁彼女が	-9.92414
保護	-9.92424
常	-9.92463
近く	-9.92483
旧	-9.92732
寄せ	-9.92756
をつけ	-9.92841
▁軽	-9.92898
初	-9.92938
菜	-9.93001
▁客	-9.9302
▁ア	-9.93062
のための	-9.93062
臭	-9.93069
反応	-9.93142
樹	-9.93171
遊	-9.93203
際	-9.93221
んでいる	-9.93265
▁湯	-9.93276
効果	-9.93306
国民	-9.93376
教授	-9.93382
麦	-9.93395
型の	-9.93405
工事	-9.93431
送り	-9.93445
太	-9.9348
あき	-9.93501
宝	-9.93518
選挙	-9.93715
▁sho	-9.93737
紙のメモ保存	-9.93783
▁電気	-9.93821
報告	-9.93834
料金	-9.93853
襪	-9.93863
資格	-9.9387
を持っている	-9.93931
られ	-9.93941
自分で	-9.9396
しても	-9.94038
くって	-9.94081
目を	-9.94198
方向	-9.94232
中で	-9.94264
ずつ	-9.94266
に電話かける	-9.94336
▁非	-9.94355
文句	-9.94389
男だ	-9.94394
ul	-9.94442
弔	-9.94498
ったり	-9.94603
モ	-9.94642
▁もっと	-9.9471
飛ぶ	-9.94835
で写真を送信	-9.94944
砂糖	-9.95029
▁耳	-9.95067
哲学	-9.95069
▁未	-9.95078
▁別	-9.95115
エ	-9.95127
一面に	-9.95175
使い方	-9.9518
パーティー	-9.95207
しん	-9.95283
考え方	-9.95543
券	-9.95549
突き	-9.95556
▁社会	-9.95557
ひき	-9.95572
東京	-9.95606
▁あの人は	-9.95612
突	-9.9565
粒	-9.95655
▁元気かいの予約	-9.95667
興	-9.9567
多くは	-9.95672
緑	-9.95721
精	-9.95741
▁国際	-9.95744
ないように	-9.958
とか	-9.9586
だよ	-9.95873
ボール	-9.95882
知らせ	-9.95921
▁しょう	-9.95993
太陽	-9.96061
はもう	-9.96064
e	-9.96065
道を	-9.96103
づけ	-9.96142
細長い	-9.96164
一杯	-9.96165
発する	-9.96173
扱い	-9.96192
革	-9.96233
刃	-9.96238
化学	-9.96414
をつけて	-9.96422
の経路	-9.9644
あること	-9.96553
猫	-9.9658
▁薄	-9.96611
ておく	-9.96614
筒	-9.96619
-	-9.96639
人々	-9.96642
ツ	-9.96658
一日	-9.96695
出すこと	-9.96722
咲く	-9.96765
迫	-9.96925
異	-9.96971
につける	-9.9723
▁手書きメモを写真で記録	-9.97243
儀	-9.97317
困	-9.9734
限り	-9.97459
▁安全度のチェック	-9.97471
塔	-9.97472
▁使い方のチェック	-9.97473
系統	-9.97476
右	-9.97564
またその	-9.97614
▁どんな	-9.97649
▁きょうは	-9.9772
普通の	-9.97722
身分	-9.97793
深	-9.97856
私が	-9.97858
民族	-9.97884
関	-9.97892
合わせる	-9.97917
細い	-9.98017
暗	-9.98066
▁五	-9.98143
▁胸	-9.98157
▁彼は自分の	-9.98187
灰	-9.98201
犯人	-9.98385
通信	-9.98474
譴	-9.98475
録	-9.98531
リー	-9.98543
を表す	-9.98548
思う	-9.98587
再	-9.98675
笑	-9.98691
▁自由	-9.98726
▁銀	-9.98743
ただ	-9.98747
スマホ画面から	-9.98767
ていること	-9.98768
まり	-9.98791
があること	-9.98811
紳士	-9.98825
銀行	-9.98836
そこに	-9.98854
宗教	-9.98863
評	-9.98916
しなければならない	-9.9898
順	-9.98981
子供たち	-9.99014
テレビ	-9.99109
▁変	-9.9911
投票	-9.9911
うつ	-9.99127
▁健康	-9.99143
になり	-9.99144
目の	-9.99146
させること	-9.99154
を敬って言う	-9.99214
▁鼻	-9.993
時代の	-9.99313
▁救急車を呼ぶ	-9.99334
▁ひどく	-9.99363
と彼は	-9.99385
みんな	-9.99485
かかった	-9.99492
▁連	-9.99493
▁仮	-9.99548
年に	-9.99601
このメモ保存	-9.9964
において	-9.99661
使	-9.99665
金額	-9.99671
覚え	-9.99743
かき	-9.99817
変わった	-9.99848
守	-9.99878
系	-9.99901
めて	-9.99906
らい	-9.99923
▁そ	-9.99946
源	-10
しないこと	-10.0003
写	-10.0003
得意	-10.0004
ことができる	-10.0009
尺	-10.0009
闘	-10.0012
▁春	-10.0014
美人	-10.0015
菌	-10.0015
元気	-10.0017
出た	-10.0018
▁使い方の診断	-10.0019
メッセ送信	-10.002
署名	-10.0021
わき	-10.0023
合って	-10.0024
をなす	-10.0024
帰り	-10.0024
だから	-10.0028
脈	-10.0029
狭い	-10.0031
話題	-10.0033
以外の	-10.0048
スマホ画面からすぐ	-10.0049
物体	-10.005
芽	-10.0051
忘れ	-10.0053
で写真送信	-10.0053
寒い	-10.0054
で作った	-10.006
将来	-10.0063
かみ	-10.0065
防	-10.008
▁腕	-10.008
が高い	-10.0082
初め	-10.0088
を受けた	-10.0088
盛んに	-10.0094
ことがある	-10.0096
メモを保存	-10.01
科学	-10.0101
むこと	-10.0106
紙のメモ写真で保存	-10.0113
手書きメモ記録	-10.0114
紙のメモを記録	-10.0114
紙のメモを保存	-10.0114
がん	-10.0114
とし	-10.0114
打つ	-10.0115
忠告	-10.012
われる	-10.0133
死に	-10.0143
▁物事が	-10.0144
塗り	-10.0148
▁魚	-10.015
禁止	-10.0151
それは	-10.0154
載	-10.0154
膜	-10.0156
▁を用いないことが多い	-10.0158
実験	-10.0162
▁転	-10.0169
一時	-10.017
しながら	-10.0176
わかる	-10.0182
▁大きな	-10.0183
自由に	-10.0187
ちょっと電話	-10.0192
勝利	-10.0198
刑	-10.0199
▁カ	-10.02
速度	-10.02
製の	-10.0209
さらに	-10.0213
勇気	-10.0216
▁相手の	-10.0223
信号	-10.0233
臣	-10.0234
の日	-10.0239
▁歯	-10.024
かし	-10.0244
▁彼を	-10.0246
をお	-10.0254
池	-10.0255
怒り	-10.0256
存在	-10.026
がうまい	-10.0263
こむ	-10.0264
紙のメモ写真で記録	-10.0266
待ち	-10.0273
感覚	-10.0284
宗	-10.0285
華	-10.0292
軽	-10.0295
構造	-10.0297
規定	-10.0297
連絡	-10.0299
こんな	-10.0301
▁根	-10.0302
年の	-10.0306
巣	-10.0306
ビ	-10.0315
▁いまから電話	-10.0318
信仰	-10.032
しま	-10.0322
ことを言う	-10.0322
労働	-10.0329
見え	-10.033
みち	-10.0332
を行う	-10.0341
▁背	-10.0341
▁発	-10.0342
寒さ	-10.0363
形式	-10.0372
の子	-10.0373
いている	-10.0377
縫い	-10.0378
鏡	-10.0381
少しも	-10.0383
の家	-10.0384
勝負	-10.0385
世間	-10.039
口を	-10.0392
べきだ	-10.0393
ふるまい	-10.0393
紫	-10.0398
いだ	-10.0402
ドレス	-10.0403
帳	-10.0405
益	-10.0408
なければ	-10.041
経路は	-10.0416
匹	-10.0418
そうに	-10.0423
河	-10.0425
きちんと	-10.0426
小屋	-10.0426
置	-10.0426
指導	-10.0426
どうか教えて	-10.0427
暗い	-10.0437
一生	-10.0438
かける	-10.0439
演技	-10.0442
現	-10.0442
古い	-10.0448
実は	-10.0453
財	-10.0455
にかける	-10.0459
折り	-10.0461
相手に	-10.0463
しみ	-10.0468
地帯	-10.0469
他人	-10.047
観賞用	-10.0478
▁こんな	-10.0479
アメリカ	-10.0484
我	-10.0488
▁分	-10.0497
先に	-10.0499
スマホ画面ですぐ	-10.0501
▁the	-10.0501
接	-10.0504
洋	-10.0505
これを	-10.0507
思い出	-10.0508
ようにした	-10.0511
していること	-10.0511
白く	-10.0527
▁常	-10.0527
まわり	-10.0528
写真を送信	-10.0531
養	-10.0531
におい	-10.0535
のです	-10.0543
静かに	-10.0544
不安	-10.0567
調べ	-10.0567
楽器	-10.0567
商人	-10.0569
メモ記録	-10.057
げる	-10.0574
▁取り	-10.0576
戮	-10.0586
▁使い方の自己診断	-10.0587
休み	-10.0589
ぐあい	-10.059
ノ	-10.0593
祭り	-10.0598
小さく	-10.06
戦う	-10.0601
▁さあ	-10.0601
▁いや	-10.0602
の下に	-10.0611
顔を	-10.0612
件	-10.0613
恐れ	-10.0614
▁旅	-10.0621
作物	-10.0622
▁塩	-10.0622
かえる	-10.0622
ソ	-10.0624
テーブル	-10.0628
気候	-10.0629
▁安全かどうかのチェック	-10.0632
スマホからすぐ	-10.0638
▁私が	-10.0647
族	-10.065
に近い	-10.0655
▁油	-10.0655
はとても	-10.0657
の音	-10.0657
イン	-10.066
神経	-10.0675
▁学問	-10.0676
うわさ	-10.0678
貸し	-10.0683
必ず	-10.0705
脱	-10.0706
を上げる	-10.0711
刻	-10.0714
アプリ	-10.0718
つり	-10.072
荷物	-10.0721
のみ	-10.0725
思	-10.0727
うまい	-10.0728
翼	-10.0729
履歴	-10.0732
偏	-10.0732
真実	-10.0732
阿	-10.0732
揚げ	-10.0733
弦	-10.0733
市場	-10.0734
釣り	-10.0735
▁病気	-10.0737
遠い	-10.0741
▁すぐに電話	-10.0741
渡	-10.0741
住む	-10.0743
本の	-10.0749
焼	-10.075
発見	-10.0751
の実	-10.0752
をあげる	-10.076
注文	-10.076
証	-10.0765
行って	-10.0767
暮らす	-10.0768
かせる	-10.078
運命	-10.0784
器官	-10.0791
a	-10.0799
高さ	-10.0799
せき	-10.0802
▁あなたの	-10.0805
▁草	-10.0805
ドア	-10.0806
▁ふ	-10.0811
立った	-10.0818
グ	-10.0823
▁救急車	-10.0827
と思った	-10.0833
ジ	-10.0835
張	-10.0836
区	-10.0842
光景	-10.0847
冷	-10.0849
基	-10.0851
の道	-10.086
因	-10.086
賛成	-10.0863
の中の	-10.0866
魂	-10.087
温	-10.0877
▁手書きメモを写真で保存	-10.0882
貨幣	-10.0882
区域	-10.0884
いき	-10.0884
事が	-10.0888
勝ち	-10.0891
液体	-10.0893
手続き	-10.0896
っぽ	-10.0898
たけ	-10.0907
下の	-10.0908
子寬	-10.0909
手書きメモを写真で記録	-10.0909
このメモ写真で記録	-10.091
このメモ記録	-10.091
営業	-10.0912
容器	-10.0915
欠点	-10.0936
くれた	-10.0942
びん	-10.0954
▁{	-10.0956
にかけて	-10.0961
寄り	-10.0965
運転	-10.0965
演	-10.0969
▁軍	-10.097
薄く	-10.0971
自由	-10.0975
体が	-10.0982
を加える	-10.099
利用	-10.099
越し	-10.0998
発音	-10.0998
歩いて	-10.1
くら	-10.1
抵抗	-10.1008
▁砂	-10.1009
肥料	-10.101
▁深	-10.1012
提案	-10.1013
煮	-10.1014
美しく	-10.1018
の方	-10.102
壇	-10.1022
刺激	-10.1023
でメッセ	-10.1027
詩人	-10.1029
および	-10.1029
殻	-10.1033
笛	-10.1035
▁安全かどうかの診断	-10.1035
あるいは	-10.1038
名声	-10.1039
なくなる	-10.1042
方針	-10.1044
品種	-10.1046
出席	-10.1047
環境	-10.1053
レース	-10.1057
減	-10.1057
メモを記録	-10.106
銅	-10.1061
貿易	-10.1061
戦闘	-10.1067
のお知らせ	-10.1069
価	-10.1071
手書きメモ写真で保存	-10.1074
泣き	-10.1075
このメモを保存	-10.1077
薄い	-10.108
実に	-10.1084
▁差し	-10.1088
あて	-10.109
中国	-10.1094
コーヒー	-10.1098
ことのたとえ	-10.1099
▁我々の	-10.1102
かぎ	-10.1102
▁ひどい	-10.1106
發	-10.1107
けが	-10.1109
▁筆	-10.1112
▁宿	-10.1113
返	-10.1115
そうじゃない	-10.1117
さき	-10.1121
▁結婚	-10.1122
写し	-10.1126
るような	-10.1137
並み	-10.1139
しなかった	-10.1141
をよく	-10.1142
非難	-10.1142
に乗る	-10.1159
主張	-10.1159
外出	-10.1161
まった	-10.1175
いつ	-10.1178
理解	-10.1179
義務	-10.1181
君は	-10.1185
炉	-10.1187
▁安全度の自己診断	-10.1189
▁安全自己診断	-10.1189
▁安全チェック	-10.1189
結び	-10.1189
事務	-10.1191
立っている	-10.1191
▁紙	-10.1191
千円	-10.1192
谷	-10.1193
方の	-10.1195
食べ物	-10.1202
降	-10.121
内に	-10.1214
僕	-10.1215
射	-10.1216
黄色	-10.1216
さら	-10.1217
分ける	-10.122
予算	-10.1223
尻	-10.1227
の仕事	-10.1228
メモ保存	-10.123
若	-10.1233
出来事	-10.1235
でした	-10.1237
重要な	-10.1238
物事が	-10.124
ック	-10.1242
紙のメモを写真で記録	-10.1243
家具	-10.1243
▁いい	-10.1244
ていった	-10.1248
科の多年生植物	-10.125
わせる	-10.1252
▁奇	-10.1259
スマホ画面へ	-10.1262
身を	-10.1264
軽く	-10.1271
でしょうか	-10.1272
の大	-10.1277
垂れ	-10.128
に入れる	-10.128
してください	-10.1281
歴史	-10.1282
解釈	-10.1283
始め	-10.1286
ダ	-10.1293
!、	-10.1298
ホーム画面からすぐ	-10.1301
ひとつ	-10.1305
と言って	-10.1306
まで道順	-10.1309
払う	-10.131
都	-10.131
メッセを送信	-10.1316
状態になる	-10.1324
かなり	-10.1325
番号	-10.1329
をつく	-10.1329
の手	-10.1334
ばかりの	-10.1336
▁自分	-10.1336
くなった	-10.1338
▁パ	-10.1339
のある人	-10.1343
忙しい	-10.1343
幸福	-10.1344
共和国	-10.1344
瓩	-10.1345
餅	-10.1345
講演	-10.1346
コート	-10.1346
種類の	-10.1348
そのまま	-10.1349
すぐに電話	-10.1349
▁メモ記録	-10.135
表情	-10.1351
でないこと	-10.1357
落とす	-10.1359
広告	-10.1359
付く	-10.1359
上がり	-10.136
焼け	-10.1361
値段	-10.1363
がなかった	-10.1368
掛ける	-10.1371
業者	-10.1372
限	-10.1373
▁冬	-10.1377
今日の天気	-10.1381
獣	-10.1388
ってしまった	-10.139
殺す	-10.1391
袖	-10.14
それぞれ	-10.1404
封	-10.1405
鬼	-10.1415
紙のメモ記録	-10.1416
このメモを写真で記録	-10.1419
▁対	-10.142
平和	-10.1421
広い	-10.143
趣	-10.1432
▁-	-10.1441
▁腰	-10.1446
訪問	-10.1449
災難	-10.1453
▁10	-10.1453
開	-10.1455
建	-10.1457
▁あ	-10.146
集団	-10.1462
ませんか	-10.1471
答	-10.1472
風に	-10.1472
▁子寬	-10.1473
水が	-10.1474
むし	-10.1475
▁開	-10.1477
どおりに	-10.1478
▁遠	-10.1479
帰	-10.1479
を確認	-10.1486
屈	-10.1487
功	-10.1488
街	-10.1491
仕事に	-10.1492
┐	-10.1492
きず	-10.1494
野菜	-10.1496
呼吸	-10.1501
欄	-10.1503
エネルギー	-10.1504
都合	-10.1505
続く	-10.151
困難	-10.151
ズ	-10.1511
▁秋	-10.1513
取った	-10.1513
かない	-10.1514
目標	-10.1515
鬚	-10.1515
▁裏	-10.1525
仕事をする	-10.153
演奏	-10.1531
静	-10.1538
▁このメモ写真で保存	-10.1541
火事	-10.1547
ごみ	-10.1547
ピ	-10.1547
良い	-10.1549
▁彼はいつも	-10.155
時刻	-10.1551
で彼は	-10.1552
荒	-10.1559
人たち	-10.156
▁来	-10.1561
□・	-10.1564
元気かい俺の予約	-10.1564
裁判	-10.1566
▁人間	-10.1567
愚	-10.1567
争い	-10.1575
続き	-10.1577
の数	-10.1579
悲しみ	-10.1585
すばらしい	-10.1585
机	-10.1585
れない	-10.1587
ひざ	-10.1587
安全	-10.1597
出て	-10.1609
たん	-10.1617
身の	-10.1619
▁互いに	-10.1624
湿	-10.1628
時には	-10.1629
歳だ	-10.163
地震	-10.1633
想	-10.1635
国の	-10.1641
あって	-10.1641
案内	-10.1646
▁手書きメモを保存	-10.1648
とび	-10.1649
売買	-10.1655
暑い	-10.1656
センチ	-10.1659
役所	-10.1661
繊維	-10.1662
ひげ	-10.1662
ようとする	-10.1663
なしに	-10.1664
資本	-10.1667
の結果	-10.1669
上着	-10.1671
ごく	-10.1678
意志	-10.1679
微	-10.1683
勤	-10.1688
手が	-10.169
腸	-10.169
鐘	-10.17
医学	-10.1701
出版	-10.1715
視	-10.1719
縦	-10.172
二つ	-10.172
奪	-10.1722
▁丸	-10.1726
挙	-10.173
▁極	-10.1731
だって	-10.1733
好きな	-10.1738
舞台	-10.1741
雷	-10.1742
他人に	-10.1748
脳	-10.1753
課	-10.176
用意	-10.1761
出来	-10.1762
▁着	-10.1769
▁近	-10.177
周	-10.1771
このメモを記録	-10.1772
スマホ画面で	-10.1775
君に	-10.1782
てください	-10.1784
鉄道	-10.1786
過ぎ	-10.1788
プ	-10.1793
こそ	-10.1793
締め	-10.1795
まじ	-10.1796
実際に	-10.1797
いろいろな	-10.1798
羊	-10.1798
左右	-10.1801
地面	-10.1802
▁好	-10.1802
までの行き方	-10.1805
幸	-10.1805
容	-10.1807
方式	-10.1807
▁このメモ写真で記録	-10.181
房	-10.181
技	-10.1811
▁光	-10.1818
▁映画	-10.1819
過ぎる	-10.182
繰り	-10.1821
かご	-10.1824
吟	-10.1825
▁敵	-10.1825
恋	-10.1826
籠	-10.1828
个	-10.1829
▁安全度のチェック自己診断	-10.1829
▁安全度のチェックチェック	-10.1829
▁安全度のチェック診断	-10.1829
どり	-10.183
はじめ	-10.1834
彼女に	-10.1836
以下	-10.1838
ひとり	-10.1839
かけた	-10.1841
ダンス	-10.1843
臭い	-10.1849
▁手書きメモ写真で記録	-10.1856
の前に	-10.1865
▁雲	-10.1866
の意	-10.187
温度	-10.1874
つま	-10.1875
動詞	-10.1875
でメッセージ	-10.1876
長さ	-10.1881
▁紙のメモを保存	-10.1882
見込み	-10.1885
タバコ	-10.1885
来て	-10.1888
証明	-10.1888
ものである	-10.1891
▁清	-10.1891
▁メモを写真で保存	-10.1893
▁ラジオ	-10.1894
薬品	-10.1898
梅	-10.1899
▁特	-10.1903
いっぱい	-10.1907
に応じて	-10.1911
頃	-10.1911
交通	-10.1914
鋭い	-10.1916
廃	-10.1916
つぎ	-10.1918
役人	-10.1919
はよく	-10.1921
欠	-10.1924
▁放	-10.1925
踏み	-10.1925
n	-10.1926
外国	-10.1928
頂	-10.1929
進歩	-10.1929
何ができるか教えて	-10.1932
切った	-10.1932
相場	-10.1933
ないで	-10.1939
の形	-10.1943
▁メモ写真で記録	-10.1943
▁メッセージ	-10.1947
▁頭	-10.1951
広	-10.1951
組み	-10.1952
後ろ	-10.1955
一本	-10.1955
譲	-10.1965
つけて	-10.1966
▁人が	-10.1967
▁骨	-10.1976
▁救急車呼んで呼びに電話	-10.1976
についての	-10.1977
非	-10.1984
まって	-10.1984
▁胃	-10.1986
▁この本は	-10.1987
出発	-10.1988
はこの	-10.1989
刈り	-10.199
呼び	-10.1991
われ	-10.1993
がその	-10.1995
ホーム画面へ貼り付け	-10.1996
誤り	-10.1996
にとって	-10.1998
家庭	-10.2
か教えて	-10.2
差別	-10.2005
医者	-10.2006
△	-10.2007
しり	-10.2008
のついた	-10.2016
仲	-10.2017
論文	-10.2017
ホーム画面で	-10.2019
▁思い	-10.2023
▁I	-10.2027
直す	-10.2027
さす	-10.203
増	-10.2032
日の	-10.2034
奥	-10.2036
書いた	-10.2039
注	-10.204
起こった	-10.2043
進んで	-10.2046
▁古い	-10.2047
▁紙のメモを記録	-10.2049
以上の	-10.2052
▁数	-10.2053
途	-10.2054
くぎ	-10.2057
の花	-10.206
トン	-10.2065
順に	-10.2068
12	-10.2071
やり方	-10.2072
あいさつ	-10.2074
落ちる	-10.2076
導	-10.2077
ホーム画面置	-10.2079
突然	-10.2083
もうけ	-10.2084
ホーム画面から	-10.2085
に用いる	-10.2087
群	-10.2089
いす	-10.209
みそ	-10.2093
生まれた	-10.2096
わかった	-10.2097
▁警察	-10.2102
物の	-10.2105
栽培	-10.2105
▁手書きメモを記録	-10.2111
亡	-10.2112
にくい	-10.2114
抜く	-10.2115
▁現代	-10.2116
奇	-10.2117
住	-10.2117
▁警察を呼んで	-10.2118
▁選挙	-10.2118
の本	-10.2119
福	-10.2121
舞	-10.2121
▁一定の	-10.2122
公園	-10.2124
いたずら	-10.2126
揚	-10.213
▁紙のメモ保存	-10.2131
スポーツ	-10.2134
手書きメモ写真で記録	-10.2137
を書く	-10.2138
回し	-10.2139
回復	-10.214
このメモ写真で保存	-10.2141
▁政	-10.2144
拍子	-10.2147
ぼう	-10.2147
冊	-10.2151
そうした	-10.2152
いう	-10.2156
▁米	-10.2157
果	-10.2158
郷	-10.2159
智	-10.2159
舎	-10.2161
訓	-10.2162
細胞	-10.2162
弟子	-10.2163
君主	-10.2166
つめ	-10.2166
かえって	-10.217
次第に	-10.2174
更に	-10.2176
相手を	-10.2177
参	-10.2179
製造	-10.2186
ぜ	-10.2186
者に	-10.2188
いなか	-10.2193
▁駅	-10.2195
取って	-10.2195
半分	-10.2196
みる	-10.2199
▁大学	-10.2201
▁安全度の診断	-10.2204
らなかった	-10.2207
と共に	-10.2213
議会	-10.2216
してある	-10.2217
▁異	-10.2218
▁手書きメモ記録	-10.222
一定	-10.2223
の声	-10.2229
▁言い	-10.224
細く	-10.224
▁唐	-10.2242
伝え	-10.2243
練習	-10.2243
血液	-10.225
▁紙のメモ記録	-10.2259
攻め	-10.2262
▁世間	-10.2262
▁低	-10.2263
記憶	-10.2264
休暇	-10.2266
英	-10.2267
興奮	-10.2269
漁	-10.2272
妙	-10.2276
下げ	-10.2277
保証	-10.2278
未	-10.2279
▁交通	-10.2282
▁まったく	-10.2282
そり	-10.2283
短	-10.2287
マン	-10.2289
遅れ	-10.229
▁石油	-10.2291
地に	-10.2293
つつ	-10.2299
大形の	-10.23
にすること	-10.2301
声で	-10.2303
覧	-10.2304
肺	-10.2307
道徳	-10.231
▁物の	-10.2319
棚	-10.2319
ズボン	-10.2321
赤い	-10.2323
胴	-10.2327
機会	-10.2327
このメモを写真で保存	-10.2329
館	-10.233
聴	-10.2332
ザ	-10.2334
勘	-10.2334
秒	-10.2336
スマホ画面貼り付け	-10.2337
汗	-10.2339
を引き	-10.2344
盛	-10.2344
だろうか	-10.235
賃	-10.2358
くらい	-10.2362
にあって	-10.2364
走り	-10.2365
感謝	-10.2366
第	-10.2368
洗い	-10.237
を受け	-10.2373
▁彼らはその	-10.2375
会員	-10.2377
▁夏	-10.2384
になっていた	-10.2385
返し	-10.2389
▁東	-10.239
けんか	-10.2391
ようにして	-10.2392
▁国家	-10.2393
らん	-10.2395
▁美	-10.2396
包み	-10.2402
話を	-10.2402
痛み	-10.2406
しき	-10.241
文化	-10.2411
なくなった	-10.2412
触れ	-10.2412
に従って	-10.2414
行動する	-10.2414
ポ	-10.2416
実行	-10.2421
の世界	-10.2422
なんか	-10.2425
歌手	-10.2426
車を	-10.2431
o	-10.2431
▁あなたは	-10.2432
かど	-10.2438
親切	-10.2439
だが	-10.2446
成績	-10.245
越	-10.2453
▁母	-10.2457
信用	-10.2462
先生	-10.2464
兵士	-10.2465
変わり	-10.247
第一	-10.2471
錠	-10.2476
まね	-10.248
盗	-10.248
労	-10.2485
魔	-10.2486
医	-10.2487
すべての	-10.2488
競走	-10.2494
武士	-10.2496
真理	-10.2498
▁きょう	-10.25
化粧	-10.25
おし	-10.2501
レストラン	-10.2502
婚	-10.2504
愛情	-10.2506
興行	-10.2508
してくれた	-10.2508
みた	-10.2509
こわ	-10.251
勉強する	-10.2511
緊張	-10.2512
苦しみ	-10.2513
輸送	-10.2513
シャツ	-10.2513
胃	-10.2518
形で	-10.2518
まし	-10.2519
▁すぐに計算機	-10.2522
はどう	-10.2526
▁氷	-10.2529
▁町	-10.2532
違うよ	-10.2536
本当に	-10.2539
逃げ	-10.2541
写真送信	-10.2544
▁乳	-10.2552
回す	-10.2552
っこ	-10.2553
▁ちょっと電話	-10.2555
意気	-10.2555
十分に	-10.2563
電流	-10.2567
暮らし	-10.2568
▁単	-10.2569
下に	-10.257
であろう	-10.2572
の一部	-10.2577
余り	-10.2583
▁東京	-10.2585
動く	-10.2585
ようになる	-10.2585
▁鉄道	-10.2585
補	-10.2591
つら	-10.2594
外に	-10.2603
給料	-10.2605
▁彼女はその	-10.2606
満	-10.2606
▁メッセ	-10.2607
戒	-10.2608
さび	-10.2609
助け	-10.2614
かく	-10.2622
持つ	-10.2622
▁このメモを写真で記録	-10.2624
おけ	-10.2625
一般	-10.263
あか	-10.263
肥	-10.2635
からの	-10.2637
えり	-10.2649
世話	-10.265
書く	-10.2652
▁庭	-10.2657
を抜く	-10.2664
クラス	-10.2665
すみ	-10.2667
くり	-10.267
嫌	-10.2672
激	-10.2672
主として	-10.2672
▁このメモ記録	-10.2674
継ぎ	-10.2675
▁鳥	-10.2675
っぽい	-10.2676
じゃないか	-10.2677
帽	-10.2678
交際	-10.2681
正直	-10.2682
雅	-10.2683
自身	-10.2686
するさま	-10.2689
楽しみ	-10.269
圓	-10.2691
寮	-10.2691
▁安全診断	-10.2692
パーセント	-10.2692
ボタン	-10.2692
集合	-10.2694
持っている	-10.2695
▁左	-10.2695
▁追	-10.2697
しないで	-10.2701
県	-10.2703
かず	-10.2707
続けて	-10.2709
▁退	-10.2712
紙のメモを写真で保存	-10.2712
熟	-10.2713
くじ	-10.2713
▁粗	-10.2716
競争	-10.272
病院	-10.2724
▁聖	-10.273
の自由	-10.2734
気体	-10.2739
いろいろ	-10.2739
去	-10.274
しめ	-10.2743
ようと	-10.2745
婦	-10.2746
種類	-10.2749
▁紙のメモ写真で保存	-10.275
鳴る	-10.2752
どろ	-10.2754
練	-10.2757
見ること	-10.2758
方面	-10.2759
の状態	-10.2766
鋼	-10.2767
ところで	-10.2767
天気予報	-10.2767
借り	-10.2768
いと	-10.2783
細かい	-10.2784
簡単に	-10.2789
は私の	-10.2794
得た	-10.2794
ものだった	-10.2795
▁定	-10.2796
青年	-10.2797
人口	-10.2798
▁万	-10.28
取ること	-10.2802
行くこと	-10.2803
▁よい	-10.2805
彫刻	-10.2806
恥	-10.2807
までに	-10.281
を買う	-10.2811
すぎて	-10.2814
刊	-10.2815
そのように	-10.2823
がけ	-10.2824
なお	-10.2828
修行	-10.2832
を保つ	-10.2836
物が	-10.2837
▁このメモを保存	-10.2838
口に	-10.284
驚いた	-10.2843
だめだ	-10.2851
スマホから	-10.2851
襲	-10.2854
をとり	-10.2854
するために	-10.2856
天井	-10.2856
ならぬ	-10.2858
▁切り	-10.2859
翻訳	-10.2863
夫婦	-10.2864
▁人間の	-10.2864
教会	-10.2864
ふるまう	-10.2864
好み	-10.2865
穂	-10.2867
否	-10.2867
庁	-10.2867
慮	-10.2868
を持って	-10.2869
エンジン	-10.2872
附	-10.2873
以来	-10.2873
ひそかに	-10.2873
英雄	-10.2878
制限	-10.2879
▁面	-10.288
▁絵	-10.2882
知らず	-10.2883
ボ	-10.2884
読む	-10.2884
霜	-10.2887
向こう	-10.289
手当	-10.289
を取って	-10.2892
▁フ	-10.2896
奏	-10.2897
甘い	-10.2898
場面	-10.2899
心の	-10.2899
洗	-10.29
▁僕の	-10.2904
ール	-10.2904
詩歌	-10.2905
を払う	-10.2906
象	-10.2907
の色	-10.2907
ピアノ	-10.2909
社長	-10.2909
あらゆる	-10.291
役者	-10.2912
勤務	-10.2914
大分	-10.2915
▁弱	-10.2915
f	-10.2916
生命	-10.2919
建て	-10.2919
赤ん坊	-10.2922
生活をする	-10.2922
番組	-10.2924
ギ	-10.2925
道理	-10.2926
▁日本の	-10.2929
切符	-10.2929
▁精神	-10.2932
▁学校	-10.294
体に	-10.294
▁病	-10.294
が早い	-10.2954
▁綿	-10.2955
▁このメモ保存	-10.2961
いたします	-10.2966
▁泥	-10.2967
ほか	-10.2971
してしまった	-10.2973
なっている	-10.2975
頭に	-10.2977
▁音楽	-10.2982
幾ら	-10.2983
たとえ	-10.2988
多数	-10.2991
傾	-10.2992
準備	-10.2993
▁メモ保存	-10.2994
寝る	-10.2996
他に	-10.2998
▁荒	-10.3
しやすい	-10.3001
▁あの男は	-10.3002
狩り	-10.3004
府	-10.3005
前後	-10.3006
時間を	-10.3006
職人	-10.301
数量	-10.301
▁手書きメモ写真で保存	-10.3011
を入れた	-10.3022
すぎ	-10.3022
別れ	-10.3028
同情	-10.3029
ずいぶん	-10.3029
将	-10.3032
じっと	-10.3032
どうなる	-10.3038
なくて	-10.3038
の強い	-10.3039
▁メモ写真で保存	-10.3042
インド	-10.3043
すじ	-10.3045
なあ	-10.3047
姓	-10.3048
傘	-10.3049
修理	-10.3054
ものか	-10.3055
m	-10.3055
コードのページ貼り付け	-10.3058
ゲーム	-10.3059
もとの	-10.3059
訓練	-10.3059
印象	-10.306
軒	-10.306
てある	-10.3062
当然	-10.3062
積み	-10.3063
のないこと	-10.3069
明日	-10.308
使用	-10.3081
臨	-10.3082
聞いて	-10.3088
はいよ	-10.3102
▁密	-10.3103
話をする	-10.3104
損害	-10.3105
メモ写真で記録	-10.3105
に従う	-10.3107
▁きわめて	-10.3109
▁安全かどうかの自己診断	-10.3109
存	-10.3109
開き	-10.3112
キャンセル	-10.3115
手書きメモを記録	-10.3118
報道	-10.3122
▁当	-10.3123
あげる	-10.3123
▁改	-10.3126
を打ち	-10.3127
なす	-10.3128
までの経路	-10.3128
至	-10.313
▁サ	-10.3133
元気かいの履歴を管理	-10.3134
▁警察呼びに電話	-10.3134
いいえ	-10.3136
▁このメモを記録	-10.3137
を置く	-10.314
逃げる	-10.3141
ちゃんと	-10.3149
立てた	-10.3154
▁夢	-10.3159
買い	-10.316
しろ	-10.3161
▁過	-10.3161
りして	-10.3164
の原料	-10.3165
最後	-10.3167
しかった	-10.3167
れている	-10.3167
せい	-10.3171
元気かいの予約	-10.3178
▁オ	-10.3181
訴	-10.3181
確	-10.3183
受ける	-10.3184
儀式	-10.3185
治療	-10.3189
成分	-10.319
▁北	-10.3191
塁	-10.3194
を述べる	-10.3195
引く	-10.3196
標	-10.3197
はあまり	-10.3199
髪の毛	-10.3202
を変える	-10.3202
スマホで	-10.3202
時代に	-10.3204
構え	-10.3207
迷	-10.321
わない	-10.3214
▁立ち	-10.3215
▁私には	-10.3216
隆	-10.3217
▁コーヒー	-10.3219
航	-10.3222
のど	-10.3224
バー	-10.3224
比	-10.3227
くさ	-10.3232
紀	-10.3233
の手紙	-10.3233
▁首	-10.3236
重要	-10.3241
厚い	-10.3241
少女	-10.3242
▁西洋	-10.3246
詠	-10.3247
ケーキ	-10.3247
インターネットのページ貼り付け	-10.3247
画家	-10.3248
元素記号	-10.3248
踊り	-10.3249
500	-10.325
天候	-10.325
興味	-10.3256
風景	-10.3256
▁在	-10.3261
白色	-10.3262
老人	-10.3268
将軍	-10.3269
▁一度	-10.3271
y	-10.3272
の単位	-10.3274
▁このメモを写真で保存	-10.3275
います	-10.3276
はなかった	-10.3276
多い	-10.3277
毎日	-10.3277
▁角	-10.3279
であるさま	-10.3281
貧乏	-10.3282
染め	-10.3283
秘	-10.3284
予想	-10.3285
遠く	-10.3287
あし	-10.329
2、3	-10.3292
勢いよく	-10.3295
頭の	-10.3296
たま	-10.3297
呼ぶ	-10.3301
与	-10.3301
倒	-10.3302
未来	-10.3302
ワ	-10.3303
首を	-10.3304
をはかる	-10.3306
隠し	-10.3306
条約	-10.3311
つまらない	-10.3311
住宅	-10.3314
の人々	-10.3314
ようになった	-10.3315
標準	-10.3315
▁これで	-10.3315
燃料	-10.3317
具合	-10.3321
の前	-10.3326
空間	-10.3327
個人	-10.333
で行く	-10.333
はね	-10.3333
灯火	-10.3334
大変	-10.3334
頭が	-10.3334
終わり	-10.3335
落ちた	-10.3336
布地	-10.3343
▁千	-10.3347
えて	-10.3348
▁ハ	-10.3351
整理	-10.3352
そんなに	-10.3354
▁少し	-10.3358
なること	-10.3369
▁いつも	-10.3371
ものと	-10.3372
▁家庭	-10.3376
承知	-10.3376
丸く	-10.3377
のことで	-10.3378
一度	-10.3379
の選手	-10.3394
▁陰	-10.3396
の上で	-10.3398
頭を	-10.3408
全然	-10.3411
あら	-10.3412
事態	-10.3413
流し	-10.3416
そうです	-10.3417
本を	-10.342
合わせて	-10.3422
人生	-10.3423
残り	-10.3426
細かく	-10.3427
まるで	-10.3428
護	-10.3433
晴れ	-10.3436
▁肩	-10.3437
▁薬	-10.3439
塊	-10.3439
コードを貼り付け	-10.3439
坐	-10.3439
▁レ	-10.344
軽い	-10.344
▁救急車呼ぶ	-10.344
期限	-10.3441
40	-10.3443
対象	-10.3444
の皮	-10.3449
だれ	-10.3453
近い	-10.3458
▁学生	-10.346
▁ロンドン	-10.3467
ものではない	-10.3469
を開く	-10.347
▁すぐれた	-10.3477
▁昔の	-10.3482
寸	-10.3482
ええ	-10.3489
劇場	-10.349
買	-10.3494
若者	-10.3497
特定の	-10.3503
▁メモを保存	-10.3505
▁西	-10.3505
はり	-10.3506
想像	-10.3507
っぱ	-10.3507
敷	-10.3511
いろ	-10.3515
ゴ	-10.3515
弓	-10.3518
貝	-10.3519
警察	-10.3522
何ができる	-10.3522
行かない	-10.3526
麻	-10.3528
ゴム	-10.353
辞書	-10.3531
彼らは	-10.3533
切って	-10.3534
▁劇	-10.3536
講	-10.3537
はまったく	-10.3538
▁道路	-10.3542
▁世界	-10.3545
か月	-10.3546
青い	-10.3548
いかにも	-10.3551
▁彼女	-10.3551
r	-10.3555
▁焼き	-10.3555
がき	-10.3558
おじ	-10.3561
爆発	-10.3562
疑い	-10.3568
形に	-10.3569
▁遺	-10.357
贈り物	-10.3573
止	-10.3574
文法	-10.3576
▁脱	-10.3578
力を	-10.3584
いろいろの	-10.3586
▁代	-10.359
男子	-10.3599
会合	-10.36
▁ガス	-10.3606
までの	-10.3607
休	-10.3609
坂	-10.3613
多年生植物	-10.3616
京都	-10.3617
しましょう	-10.3618
艦	-10.3621
恵	-10.3622
花を	-10.3623
中央	-10.3625
円形	-10.3625
井	-10.3626
代わり	-10.3628
好意	-10.3632
いっしょに	-10.3632
▁潮	-10.3632
銘	-10.3633
蓋	-10.3634
ディ	-10.3635
スマホへ貼り付け	-10.3636
鍋	-10.3636
▁精	-10.3636
泳ぎ	-10.3637
職務	-10.3638
決意	-10.3638
損失	-10.3638
微笑	-10.364
大きさ	-10.364
▁廃	-10.3648
組合	-10.3654
いで	-10.3656
しようと	-10.3657
祝い	-10.3658
監督	-10.3659
外部	-10.366
除	-10.3661
区分	-10.3662
流れる	-10.3664
自慢	-10.3667
に置く	-10.3667
実力	-10.367
気質	-10.367
▁やめ	-10.3672
ばら	-10.3674
いますか	-10.368
が起こる	-10.3681
▁紙のメモ写真で記録	-10.3682
しておく	-10.369
急いで	-10.3694
不幸	-10.3701
をかけて	-10.3704
▁素	-10.3705
が違う	-10.3709
▁罪	-10.371
早い	-10.3711
▁ど	-10.3711
ホーム画面へ	-10.3713
日本の	-10.3714
クラブ	-10.3716
固	-10.3725
倒れ	-10.3726
保険	-10.3732
宇宙	-10.3733
▁ひざ	-10.3734
▁共	-10.3735
終	-10.3735
▁皆	-10.3735
種種の	-10.3736
珍しい	-10.3741
要素	-10.3741
▁私たちは	-10.3742
生き	-10.3743
ところだった	-10.3745
富	-10.3745
b	-10.3747
ヨーロッパ	-10.3747
電報	-10.3747
▁エ	-10.3751
ですね	-10.3756
皮膚	-10.3756
ラジオ	-10.3756
風呂	-10.3757
懐	-10.3757
の先	-10.3757
とおり	-10.376
をとって	-10.3761
負	-10.3764
中心	-10.3765
▁紙のメモを写真で記録	-10.3766
唱	-10.3768
乾	-10.377
文明	-10.3774
持って	-10.3775
現実	-10.3777
に乗って	-10.3779
▁余	-10.3783
▁冷	-10.3784
をかけ	-10.3785
照	-10.3787
追	-10.3788
のり	-10.3793
干し	-10.3793
運ぶ	-10.3794
事は	-10.3795
▁門	-10.3797
のお	-10.3803
ペン	-10.3804
連れ	-10.3804
▁通	-10.381
ロー	-10.3811
加	-10.3816
咲き	-10.3818
始める	-10.3818
帆	-10.382
▁痛	-10.3832
などから	-10.3835
瓦	-10.3835
▁警察呼ぶ	-10.3836
児童	-10.3836
少々	-10.3837
革命	-10.3837
名詞	-10.3837
酸素	-10.3838
カード	-10.3838
多少	-10.3838
強盗	-10.3839
通知	-10.3841
はずれ	-10.3842
決心	-10.3845
しるし	-10.3847
眼鏡	-10.385
留め	-10.3854
▁救急車呼ぶから電話して	-10.3861
野球	-10.3865
共	-10.3865
一層	-10.3866
▁大統領	-10.3869
▁王	-10.3872
権力	-10.3873
幹	-10.3876
薬用	-10.3879
目が	-10.388
錣	-10.388
着物	-10.3883
をつけること	-10.3886
かる	-10.3886
かわからない	-10.3888
農	-10.3896
▁聞き	-10.3899
者の	-10.3899
ちょう	-10.3903
緑色	-10.3909
ゲ	-10.3916
医師	-10.392
等を	-10.3925
律	-10.3926
▁苦	-10.3928
現在	-10.3929
記事	-10.3929
浮	-10.3931
▁四	-10.3932
▁若	-10.3935
まれた	-10.3937
っていない	-10.3945
衆	-10.3946
生涯	-10.3947
▁江戸時代	-10.3948
セ	-10.3951
がたい	-10.3953
に出かける	-10.3954
はいつも	-10.3955
そのもの	-10.3956
姉	-10.3958
遺	-10.3958
ベッド	-10.3959
風の	-10.3959
スマホですぐ	-10.3959
▁しん	-10.3959
枕	-10.3961
猟	-10.3961
編集	-10.3965
腐	-10.3967
上がった	-10.3976
女の子	-10.3977
威	-10.398
の神	-10.3981
あご	-10.3984
通し	-10.3984
にかかる	-10.3986
侮辱	-10.3989
▁メモを記録	-10.399
の中を	-10.399
低い	-10.3996
▁機械	-10.3998
筋肉	-10.4
カー	-10.4
金持ち	-10.4001
面目	-10.4001
身体	-10.4002
を作ること	-10.4003
特	-10.4004
▁暗	-10.4004
▁の天気予報	-10.4007
きわめて	-10.4007
経営	-10.4009
あれ	-10.4012
合格	-10.4012
大臣	-10.4012
英国	-10.4016
▁父	-10.4019
おい	-10.4024
勅	-10.4032
歴	-10.4036
に似て	-10.4036
丈	-10.4037
秩序	-10.4038
酢	-10.4039
肝	-10.4039
選択	-10.4039
すなわち	-10.404
アルコール	-10.404
レンズ	-10.404
友だち	-10.404
▁軍隊	-10.4043
いなかった	-10.4046
再び	-10.4047
から成る	-10.4051
に富む	-10.4052
ひな	-10.4055
方が	-10.406
よくない	-10.4067
きまり	-10.4067
あわ	-10.407
▁政治	-10.4073
我々は	-10.4076
上で	-10.4083
▁やめる	-10.4083
暑さ	-10.4084
ゆく	-10.4084
大工	-10.409
合った	-10.4093
主人	-10.4099
のもとに	-10.4102
身に	-10.4102
結晶	-10.4104
ついで	-10.4104
うん	-10.413
▁右	-10.4131
ふく	-10.4134
正月	-10.4138
における	-10.4151
ビル	-10.4154
▁共同	-10.4156
尊	-10.4157
▁もし	-10.4158
だね	-10.4159
似	-10.4161
▁指	-10.4171
蛇	-10.4172
脂	-10.4179
歩くこと	-10.418
原稿	-10.4182
庭園	-10.4183
丘	-10.4183
求	-10.4186
カメラ	-10.4186
触	-10.4188
状に	-10.419
泉	-10.4191
兄弟	-10.4191
継	-10.4191
▁漢字の	-10.4194
▁アメリカ	-10.4195
育	-10.4196
文体	-10.4197
▁将来	-10.4198
住んでいる	-10.4198
ロンドン	-10.4199
住民	-10.42
粗	-10.4204
測	-10.4204
祖	-10.4204
創	-10.4206
いくら	-10.4207
からだ	-10.4207
保	-10.4214
嘆	-10.4219
意にも	-10.4219
▁救急車呼ぶから電話	-10.4221
▁元気かいの記録を管理	-10.4222
所有	-10.4226
謀	-10.4227
あらし	-10.423
述べる	-10.4231
壮	-10.4235
▁店	-10.4236
了	-10.4237
▁戦	-10.4238
掌	-10.424
謝	-10.424
の生活	-10.4241
むく	-10.4242
分析	-10.4244
飛行機	-10.4244
ウェッブページ貼り付け	-10.4247
▁末	-10.4247
椅子	-10.4248
クリーム	-10.4248
コード貼り付け	-10.4248
スマホに貼り付け	-10.4248
スマホ画面へ貼り付け	-10.4248
勤め	-10.4248
テスト	-10.4249
刑罰	-10.4249
元素	-10.4249
協定	-10.4249
ビール	-10.4257
ほかの	-10.4261
を見た	-10.4263
げた	-10.4268
加工	-10.4272
▁国民	-10.4272
物に	-10.4273
発展	-10.4276
の力	-10.428
人気	-10.4286
一体	-10.4287
はすべて	-10.4292
でいる	-10.4293
ホーム画面ですぐ	-10.4296
内閣	-10.4298
入った	-10.43
心から	-10.4301
▁you	-10.4302
の葉	-10.4308
とげ	-10.4312
擦	-10.4319
ジョーク	-10.4323
殺人	-10.4324
不満	-10.4325
▁動物	-10.4332
▁荷	-10.4335
覆い	-10.4336
人間の	-10.4339
▁宇宙	-10.4339
を解く	-10.4342
季節	-10.435
ながめ	-10.4351
▁激しい	-10.4352
くこと	-10.4352
きょう	-10.4357
▁煙	-10.4358
情勢	-10.4362
進行	-10.4362
そのような	-10.4363
すそ	-10.4363
信頼	-10.4363
やみ	-10.4365
足を	-10.437
成功する	-10.4372
かれ	-10.4375
稲	-10.4377
分野	-10.4378
茶色	-10.4379
拝	-10.4384
張る	-10.4387
分子	-10.4388
安い	-10.4388
を出して	-10.4391
の際	-10.4391
判決	-10.4392
告	-10.4397
たて	-10.44
ちょうど	-10.4401
が多く	-10.4405
濃	-10.4406
にならない	-10.4406
本当の	-10.4407
名誉	-10.4412
▁端	-10.4412
ノー	-10.4413
▁合	-10.4415
専	-10.4419
▁現	-10.4419
頼み	-10.442
佑	-10.4421
琴	-10.4421
しきりに	-10.4421
おいて	-10.4422
一家	-10.4422
知らない	-10.4427
ヘルプ	-10.4427
演劇	-10.4429
ベ	-10.4429
しばらく	-10.443
の高い	-10.4431
停止	-10.4432
▁紙のメモを写真で保存	-10.4436
分類	-10.4437
藩	-10.4443
▁はい	-10.4445
烈	-10.4451
▁それで	-10.4452
はし	-10.4456
事項	-10.4457
地球	-10.4457
暑	-10.4457
請求	-10.4458
鉛	-10.4458
を破る	-10.4458
舛	-10.4459
蝋	-10.4459
盛んな	-10.446
ホーム画面に貼り付け	-10.446
ホーム画面貼り付け	-10.446
役に立たない	-10.446
どんどん	-10.4461
それで	-10.4462
部屋に	-10.4463
ざっと	-10.4464
堅く	-10.4468
むだ	-10.4469
言い訳	-10.4471
簡単な	-10.4472
半ば	-10.4476
振	-10.4476
発言	-10.4477
ほんの	-10.4479
自信	-10.4481
事物	-10.4482
駆け	-10.4482
難しい	-10.4487
水素	-10.449
帰る	-10.4494
鉢	-10.4496
最	-10.4497
催	-10.4498
賃金	-10.45
なん	-10.4502
時間の	-10.4503
▁人生の	-10.4506
の出	-10.4508
の種	-10.4509
▁石炭	-10.451
議員	-10.4511
仕立て	-10.4512
▁急に	-10.452
跳び	-10.4522
たつ	-10.4522
最高	-10.4529
ひら	-10.4542
on	-10.4544
眠り	-10.4546
暦	-10.4548
らか	-10.4548
事を言う	-10.4549
▁今日の天気予報	-10.4551
ますます	-10.4552
▁諸	-10.4555
を避ける	-10.4555
▁霊	-10.4558
スマホへ	-10.456
スマホ画面置	-10.4564
▁壁	-10.4568
りする	-10.4569
歩き	-10.4574
やや	-10.4574
を食う	-10.4574
キー	-10.4576
したりする	-10.4576
大名	-10.4578
開いた	-10.4579
倒す	-10.4579
せずに	-10.458
▁陸	-10.4589
失敗した	-10.459
植	-10.459
用具	-10.459
ありません	-10.4592
捨てる	-10.4596
被害	-10.4597
たく	-10.4604
▁流行	-10.4605
じゃ	-10.4605
完成	-10.4608
▁すぐ	-10.4611
▁甘	-10.4611
へい	-10.4617
首相	-10.4617
得点	-10.4617
話が	-10.4618
▁虫	-10.4618
示す	-10.4621
を求めて	-10.4622
の姿	-10.4622
つぼ	-10.4628
▁a	-10.4633
いやな	-10.4638
躍	-10.4639
賊	-10.4641
60	-10.4642
▁寒	-10.4645
何でも	-10.4646
ですよ	-10.4646
の大きさ	-10.4647
i	-10.4648
更	-10.4648
に入って	-10.465
▁警察呼ぶから電話	-10.4651
がついている	-10.4652
言えば	-10.4654
借	-10.4654
柳	-10.4656
まで行き方	-10.4656
普通は	-10.4657
なわ	-10.4661
ナイフ	-10.4662
官庁	-10.4662
伴	-10.4663
相撲	-10.4663
弾丸	-10.4665
▁回	-10.4665
▁あまり	-10.4665
垣	-10.4666
原料	-10.4669
平均	-10.4672
羅	-10.4672
根拠	-10.4674
新しく	-10.4676
だれも	-10.4677
桃	-10.4677
糞	-10.4678
コードのページを貼り付け	-10.4678
掃除	-10.4678
スマホ画面に貼り付け	-10.4678
200	-10.4679
協力	-10.4679
最後の	-10.4679
情況	-10.4679
友情	-10.4681
以後	-10.4681
武器	-10.4683
▁気候	-10.4684
▁板	-10.4684
葬	-10.4685
漁業	-10.4685
渡る	-10.4685
学習	-10.4685
ところだ	-10.4686
やぶ	-10.4686
役に立つ	-10.4691
▁普通	-10.4694
▁経済	-10.4707
浅い	-10.471
名を	-10.4717
統一	-10.4717
▁突然	-10.4722
かけて	-10.4722
c	-10.4725
方に	-10.4728
うす	-10.4728
ここ	-10.473
少ない	-10.4731
信じ	-10.4731
やっと	-10.4741
流行	-10.4742
▁野球で	-10.4743
しわ	-10.4744
忌	-10.475
▁英語	-10.4753
▁涙	-10.4765
交換	-10.4767
人民	-10.4769
どこか	-10.4769
ショートメッセージ	-10.4772
▁列車は	-10.4773
ことはできない	-10.4773
移	-10.4779
森	-10.4787
▁いかにも	-10.4788
食う	-10.4792
低く	-10.4793
必要な	-10.4794
織	-10.4798
がって	-10.4802
行われる	-10.4817
ことができなかった	-10.4826
だい	-10.4827
▁英国	-10.4827
▁乱	-10.4829
りすること	-10.4834
ワイン	-10.4836
をする人	-10.4837
を知らない	-10.4838
鉱	-10.4839
泊	-10.4839
通じ	-10.4843
内の	-10.4844
▁泣き	-10.4845
つの	-10.4847
に出	-10.4847
ゆっくり	-10.4851
女の	-10.4851
定めた	-10.4852
▁洋	-10.4854
天皇	-10.4855
聴衆	-10.486
数字	-10.4864
▁糸	-10.4872
らしく	-10.4875
気の	-10.4878
向け	-10.4878
スマホ画面に	-10.4878
怠	-10.4879
津	-10.488
得る	-10.488
▁破	-10.4881
双	-10.4881
胆	-10.4882
ねじ	-10.4885
おもちゃ	-10.4895
禄	-10.49
▁to	-10.49
塵	-10.49
インターネットのページを貼り付け	-10.49
	-10.49
玄関	-10.49
推測	-10.4901
待遇	-10.4901
一致	-10.4902
元気かい私の予約	-10.4902
の男	-10.4903
集まり	-10.4903
欲望	-10.4903
機能	-10.4903
航海	-10.4904
解説	-10.4904
禁	-10.4905
京	-10.4905
両親	-10.4905
領土	-10.4907
電波	-10.4908
てん	-10.491
合図	-10.4912
▁バ	-10.4912
あげ	-10.4912
に陥る	-10.4916
走った	-10.4918
目的で	-10.4921
裸	-10.4923
世の	-10.4924
ども	-10.4924
神社	-10.4926
の中心	-10.4927
▁警察呼ぶから電話して	-10.4928
分量	-10.4931
▁船が	-10.4933
は今	-10.4933
ぼく	-10.494
を掛ける	-10.4943
が起こった	-10.4945
ここに	-10.4949
わず	-10.4953
▁折り	-10.4954
有名	-10.4954
▁竹	-10.4955
尊敬	-10.4957
スマホ画面	-10.4957
できなかった	-10.4961
こん	-10.4962
にあった	-10.4963
家屋	-10.4968
まつ	-10.4968
完全に	-10.4981
無用	-10.4982
西洋	-10.4986
▁振り	-10.4987
コース	-10.4988
にいる	-10.4992
聖	-10.5
▁教育	-10.5001
▁屋根	-10.5003
態度で	-10.5012
はら	-10.5013
状況	-10.5015
自然に	-10.5016
無い	-10.5024
までの道順	-10.5026
を入れ	-10.5031
ぬか	-10.5039
沈	-10.5039
全員	-10.5039
違反	-10.5043
予約を確認	-10.5045
までルート	-10.5047
はどうなる	-10.5048
▁A	-10.5048
きれ	-10.5049
同意	-10.5062
▁円	-10.5063
▁メ	-10.5065
発表	-10.5065
▁気温	-10.5067
恨み	-10.5071
域	-10.5075
面積	-10.5077
言う語	-10.5077
の所	-10.5078
きめ	-10.5081
▁マ	-10.5088
するように	-10.509
▁旅行	-10.5091
えた	-10.5091
関連	-10.5095
眠る	-10.5101
さや	-10.5102
掛かり	-10.5104
▁急いで	-10.5107
に暮らす	-10.511
負担	-10.5112
築	-10.5112
足で	-10.5113
どの	-10.5115
男の子	-10.5116
かま	-10.5117
糖	-10.5118
いえ	-10.5119
でメッセを	-10.5119
審	-10.5121
待つ	-10.5121
▁警察を呼ぶ	-10.5122
随	-10.5122
式の	-10.5124
冷え	-10.5125
髄	-10.5126
こい	-10.5126
▁科学	-10.5127
あの人	-10.5127
餌	-10.5128
棟	-10.5128
看護婦	-10.5128
闘争	-10.5128
」(↓	-10.5129
したら	-10.5129
衣装	-10.5129
検	-10.5129
反射	-10.5131
概念	-10.5131
枯れ	-10.5132
療法	-10.5133
外交	-10.5135
様式	-10.5137
▁窓	-10.5138
▁すぐに電卓アプリ	-10.5139
ほこり	-10.514
課程	-10.5142
くび	-10.5143
大阪	-10.5145
畳	-10.5146
散歩	-10.5146
の変化	-10.5146
re	-10.5148
こんで	-10.5151
恐ろしい	-10.5154
世の中	-10.5154
▁矢	-10.5155
まれる	-10.5156
違った	-10.5157
鶏	-10.5158
朱	-10.5158
弁護士	-10.5158
竜	-10.5159
▁黄	-10.5159
記者	-10.5159
牛乳	-10.5163
初夏	-10.5163
異なる	-10.5165
決め	-10.5166
だめ	-10.5167
目つき	-10.5173
石炭	-10.5174
政党	-10.5175
インク	-10.5175
スマホに	-10.5175
顔に	-10.5178
論理	-10.5183
せよ	-10.5184
浸	-10.5185
元気かいの記録を管理	-10.5188
水面	-10.5188
つまり	-10.5191
聞こえる	-10.5196
立てて	-10.5197
評価	-10.5198
申し	-10.5199
国際	-10.5199
▁南	-10.5202
▁残	-10.5203
スマホ画面に置	-10.5205
▁物を	-10.5208
はしない	-10.5213
▁太陽	-10.5215
h	-10.5215
タイ	-10.5216
僕は	-10.5221
きれいに	-10.5226
▁警	-10.523
を付ける	-10.523
太い	-10.524
の天気予報	-10.5248
▁雄	-10.5248
の念	-10.5253
もつ	-10.5257
締める	-10.526
▁細	-10.5266
われた	-10.5267
▁七	-10.5267
やら	-10.527
しゃべる	-10.5271
どうも	-10.5279
定め	-10.5279
▁尻	-10.528
にあたる	-10.5282
燃え	-10.5283
項	-10.5286
預	-10.5288
霧	-10.5294
▁警察呼んで	-10.5295
▁帰	-10.5296
▁猫	-10.5298
▁相	-10.5301
何を	-10.5307
どちら	-10.531
去る	-10.531
事実を	-10.5313
意見を	-10.5313
▁彼は私	-10.532
に自生する	-10.5324
処	-10.5324
特別	-10.5325
束	-10.5328
諸国	-10.5329
ったもの	-10.533
改	-10.5332
さず	-10.5333
為	-10.5334
明け	-10.5336
▁飛行	-10.5338
比較	-10.5338
欠席	-10.5341
述	-10.5341
則	-10.5341
往	-10.5343
併	-10.5345
仕方	-10.5348
承	-10.5351
えない	-10.5352
残っている	-10.5353
姿勢	-10.5356
牢	-10.5357
隣	-10.5358
妹	-10.5359
アフリカ	-10.5359
笋	-10.536
唇	-10.536
諒	-10.536
爾	-10.536
くちびる	-10.536
官吏	-10.5362
改革	-10.5362
対照	-10.5362
観念	-10.5362
貯金	-10.5363
仕掛け	-10.5363
元気かいの予約追加	-10.5364
▁メモを写真で記録	-10.5366
驚く	-10.5366
に住んでいる	-10.5368
淡	-10.5371
見解	-10.5372
暇	-10.5372
事の	-10.5373
別に	-10.5374
と思って	-10.5375
ほうがよい	-10.5375
構成	-10.5376
形勢	-10.5377
▁波	-10.5378
中毒	-10.5384
あるもの	-10.5385
きっと	-10.5387
独	-10.5392
証人	-10.5394
濁	-10.5396
の代わりに	-10.5397
基準	-10.5399
着る	-10.5399
明るい	-10.5403
ところに	-10.5408
批判	-10.5408
▁職業	-10.5409
▁毒	-10.541
物理	-10.5412
大統領	-10.5413
出血	-10.5414
江戸	-10.5414
気温	-10.5417
食糧	-10.5418
読者	-10.5418
設けた	-10.5418
ホーム画面に置	-10.542
▁浮き	-10.5421
ほお	-10.5425
漏れ	-10.5427
を通して	-10.5431
警官	-10.5431
まれ	-10.5432
如	-10.5435
ことはない	-10.5435
茂	-10.5436
▁心配	-10.5437
死んで	-10.5438
歓迎	-10.5439
の間で	-10.5442
にお	-10.5443
石油	-10.5449
種子	-10.5453
メッセ送	-10.5453
両者	-10.5459
ホーム	-10.5459
▁だれも	-10.5463
無し	-10.5464
の意味	-10.5466
私には	-10.5468
を調べる	-10.547
申し出	-10.5473
違います	-10.5475
▁船の	-10.5476
▁救急車を呼んで	-10.5479
装飾	-10.5481
▁命	-10.5484
外側	-10.5485
▁君に	-10.5487
びる	-10.5487
てくる	-10.5491
通す	-10.5493
ーク	-10.5498
にわたって	-10.5501
そで	-10.5502
▁減	-10.5506
を防ぐ	-10.5507
事に	-10.5509
てしまう	-10.551
細長く	-10.5512
丈夫	-10.5513
屋敷	-10.5516
てくれた	-10.5516
▁ただ	-10.5518
▁黙	-10.5518
▁結	-10.5519
▁間	-10.5521
▁今は	-10.5521
吸い	-10.5524
▁キャンセル	-10.5525
▁彼女に	-10.5533
▁せい	-10.554
成長	-10.554
▁床	-10.5543
備	-10.5544
▁パン	-10.5546
圧力	-10.5548
▁犬は	-10.5549
会社の	-10.5549
鳴	-10.5549
を含む	-10.555
日間	-10.555
▁息	-10.5552
花が	-10.5552
気性	-10.5553
メッセージちょっと	-10.5556
用心	-10.5559
その他	-10.5562
さく	-10.5564
に当たって	-10.5564
手術	-10.5565
p	-10.5565
採	-10.5565
▁落	-10.5565
▁二つの	-10.5566
続ける	-10.5567
すき	-10.5568
▁is	-10.5569
政権	-10.5571
をつくる	-10.5573
充分	-10.5573
実現	-10.5578
そっと	-10.5579
の半分	-10.5582
しました	-10.5582
が非常に	-10.5582
卒	-10.5587
は全く	-10.5588
を結ぶ	-10.5589
鈴	-10.559
陸	-10.5592
迷惑	-10.5592
ホーム画面に	-10.5594
麗	-10.5596
よかった	-10.5597
フィルム	-10.5598
スカート	-10.5598
▁漢字の偏	-10.5599
災害	-10.5599
世紀	-10.56
俳句	-10.56
観察	-10.5603
男性	-10.5603
と彼女は	-10.5608
▁短	-10.5609
▁尊	-10.561
預金	-10.561
かばん	-10.5611
〇	-10.5611
果実	-10.5612
仕上げ	-10.5612
代表	-10.5614
事だ	-10.5615
大陸	-10.5617
行事	-10.5618
あなたの	-10.5619
感心	-10.5621
を施す	-10.5621
▁ロ	-10.5622
タン	-10.5623
執	-10.5624
に基づいて	-10.5625
などに用いる	-10.5626
家を	-10.5629
短く	-10.5629
卒業	-10.5631
▁安	-10.5632
扱う	-10.5633
一言	-10.5635
伸び	-10.5641
乱れ	-10.5641
に属する	-10.5646
消え	-10.5648
郵便	-10.5649
▁どうぞ	-10.5651
直し	-10.5653
敵を	-10.5654
厚く	-10.5656
ロープ	-10.5657
;...	-10.5657
イギリス	-10.5661
の働き	-10.5664
閉	-10.5665
講義	-10.5665
業務	-10.5667
かえること	-10.5668
小切手	-10.5668
収穫	-10.567
らないこと	-10.5671
衣類	-10.5672
現代	-10.5673
栄養	-10.5675
るさま	-10.5676
りんご	-10.5677
悔	-10.568
こっそり	-10.568
靴討い	-10.5681
時は	-10.5682
堅い	-10.5683
イエス	-10.5684
通る	-10.5687
誓い	-10.569
なべ	-10.569
大衆	-10.5691
▁まあ	-10.5692
▁どうも	-10.5695
などにする	-10.5696
供給	-10.5701
人と	-10.5701
られていた	-10.5713
無理	-10.5713
ひま	-10.5719
緒	-10.5719
目で	-10.5722
紙を	-10.5722
スマホへ置	-10.5724
届け	-10.5728
さい	-10.573
こちら	-10.5733
託	-10.5738
切れない	-10.5747
ではなかった	-10.5752
幾	-10.5754
▁そんなに	-10.5755
作法	-10.5757
直線	-10.5757
漬け	-10.5759
不注意	-10.5763
招待	-10.5767
所で	-10.5769
合っている	-10.5769
貨	-10.5773
不思議	-10.5775
を落とす	-10.5779
彼らの	-10.5781
でメッセ送信	-10.5785
▁銅	-10.5786
すぐれていること	-10.5787
▁人と	-10.5788
▁輪	-10.5788
主な	-10.5789
みて	-10.5797
▁商売	-10.5798
かえ	-10.5805
コン	-10.5809
たか	-10.5809
むら	-10.5813
帝	-10.5815
化合物	-10.5816
正しく	-10.5819
やま	-10.582
父親	-10.5821
一緒に	-10.5826
度の	-10.5826
宅	-10.5829
季	-10.583
事務所	-10.5831
おもしろい	-10.5831
あけ	-10.5832
湾	-10.5835
尿	-10.5836
貧	-10.5836
飼い	-10.5841
ヌ	-10.5842
芋	-10.5842
罎	-10.5842
功績	-10.5842
往復	-10.5842
境遇	-10.5842
の俗称	-10.5843
を通じて	-10.5843
観測	-10.5843
ホール	-10.5843
K	-10.5843
同盟	-10.5843
射撃	-10.5844
農民	-10.5845
太刀	-10.5846
わずか	-10.5846
テープ	-10.5848
内で	-10.5848
が大きい	-10.5849
▁万事	-10.585
ぼろ	-10.5852
編み	-10.5852
あま	-10.5855
ート	-10.5857
の長さ	-10.5858
授業	-10.5858
々と	-10.5862
いこと	-10.5862
へび	-10.5867
常識	-10.5868
▁奥	-10.5868
意図	-10.5871
共に	-10.5872
▁けん	-10.5874
自分が	-10.5875
になるだろう	-10.5877
は彼に	-10.5881
つぶ	-10.5881
▁スポーツ	-10.5883
▁明日	-10.5884
葉が	-10.5886
壁に	-10.5888
見えない	-10.5891
索	-10.5891
となっている	-10.5893
それと	-10.5895
専門	-10.5897
くずれ	-10.5898
▁脳	-10.5902
▁事実	-10.5909
でメッセージを送信	-10.5909
切手	-10.591
▁橋	-10.591
はえ	-10.5912
フランス語	-10.5912
区別	-10.5916
を覚える	-10.5917
▁その本は	-10.5917
お礼	-10.5919
の端	-10.592
▁風が	-10.592
詞	-10.5921
こま	-10.5922
州の人	-10.5927
寄せる	-10.5929
降る	-10.5929
ほうが	-10.593
奴	-10.5931
までは	-10.5933
ショー	-10.5934
酔	-10.5935
理想	-10.5935
股	-10.5935
太鼓	-10.5936
▁食い	-10.5936
の事	-10.5936
乾燥	-10.5938
▁宗教	-10.594
▁議論	-10.5946
▁買い	-10.5949
宝石	-10.5954
がつかない	-10.5955
19	-10.5957
▁表	-10.5959
△□	-10.5959
唐	-10.596
警	-10.596
やろう	-10.5962
使って	-10.5963
メッセを送	-10.5967
迎え	-10.597
によく	-10.5975
仕事が	-10.5977
そうよ	-10.5978
替える	-10.5981
▁けい	-10.5982
まだら	-10.5983
しようとする	-10.5984
山の	-10.5984
▁検	-10.5986
順序	-10.5989
産物	-10.5992
虎	-10.5997
貴	-10.5998
水道	-10.5998
わる	-10.6
母親	-10.6
▁軽い	-10.6001
を始める	-10.6007
粋	-10.6009
同時に	-10.6016
赤く	-10.6018
氏の	-10.6021
としている	-10.6026
をかけた	-10.6027
▁長い	-10.6031
▁元気かいの履歴を管理	-10.6033
につれて	-10.6033
足りない	-10.6036
手形	-10.6036
参加	-10.6037
もらう	-10.6037
その問題	-10.6037
▁彼と	-10.6042
▁十	-10.6043
許可	-10.605
▁火事	-10.6052
を切って	-10.6053
没	-10.6056
者を	-10.6058
の後	-10.6059
徴	-10.6061
園	-10.6063
後の	-10.6066
▁今まで	-10.607
名簿	-10.6071
黒く	-10.6072
途中で	-10.6072
障	-10.6074
関心	-10.6074
犠牲	-10.6075
参り	-10.6076
獄	-10.6076
膳	-10.6077
雇	-10.6078
あります	-10.6079
腓	-10.6083
▁彼女には	-10.6083
旋	-10.6084
▁天皇	-10.6086
そら	-10.6086
権限	-10.6086
欧	-10.6087
▁米国の	-10.6088
しょう	-10.6088
▁かい	-10.6089
沼	-10.6092
スマホ貼り付け	-10.6092
圏	-10.6092
	-10.6092
すばやく	-10.6092
ing	-10.6092
わか	-10.6095
討ち	-10.6096
あなたに	-10.6097
障子	-10.6098
いつまでも	-10.6098
スマホに置	-10.61
を通す	-10.6102
出入り	-10.6103
形態	-10.6105
両手	-10.6106
あぶら	-10.6117
しょ	-10.6119
投手	-10.6121
まく	-10.6122
彼ら	-10.6124
提	-10.6129
ばらばら	-10.6134
なまり	-10.6142
なめ	-10.6142
厳	-10.6142
u	-10.6145
過ぎて	-10.6148
ねん	-10.6149
特徴	-10.615
▁銀行	-10.6154
その他の	-10.6156
政治家	-10.6157
までのルート	-10.6158
▁舞台	-10.6161
つけること	-10.6163
痛い	-10.6164
らせ	-10.6164
▁きのう	-10.6171
▁復	-10.6171
▁これが	-10.6173
自ら	-10.6174
造り	-10.6174
これは	-10.6177
何とか	-10.6179
敬	-10.6179
と読む	-10.6179
止める	-10.6181
信する	-10.6182
延	-10.6182
▁テレビ	-10.6186
金属製の	-10.6188
▁居	-10.619
暴	-10.619
その時	-10.6192
▁少年は	-10.6194
してはいけない	-10.6195
はほとんど	-10.6195
▁いろいろな	-10.6196
を加えて	-10.6196
▁一般	-10.6198
やつだ	-10.6199
をし	-10.6206
負ける	-10.6207
▁船は	-10.621
死後	-10.621
軍人	-10.621
易	-10.6211
分けて	-10.6211
承諾	-10.6215
昆虫	-10.622
ではなく	-10.6225
復	-10.6226
美術	-10.6226
を感じる	-10.6228
鉛筆	-10.6228
言え	-10.6236
所得	-10.624
落とし	-10.6241
▁運動	-10.6247
消	-10.6247
あわせ	-10.625
▁こういう	-10.6252
まゆ	-10.6255
がありますか	-10.6256
▁純	-10.6257
わり	-10.6259
家が	-10.6259
こつ	-10.6259
わく	-10.626
貫	-10.626
クロ	-10.6261
沈黙	-10.6267
ていて	-10.627
読書	-10.6274
会話	-10.6275
▁玉	-10.6277
▁うん	-10.6277
借金	-10.628
なさま	-10.6281
日本人	-10.6282
の地	-10.6283
▁犬	-10.6288
ほしい	-10.6288
扇	-10.6295
▁シ	-10.6303
▁せん	-10.6304
が一番	-10.6304
ひとりで	-10.6306
バター	-10.6306
ばし	-10.6311
果物	-10.6312
てる	-10.6313
さお	-10.6315
しているさま	-10.6315
惨	-10.6316
主君	-10.6319
飲食	-10.6321
の様子	-10.6325
▁打ち	-10.6326
司	-10.6328
向かい	-10.6331
▁散	-10.6332
言葉を	-10.6332
▁彼は彼女の	-10.6333
を全部	-10.6335
の経路は	-10.6335
子供を	-10.6339
だて	-10.6339
停	-10.634
昔の	-10.6343
塀	-10.6344
O	-10.6347
ぜん	-10.6347
盆	-10.6348
蜜	-10.6348
予防	-10.6348
符号	-10.6348
ウェッブページを貼り付け	-10.6348
たより	-10.6348
遒	-10.6349
たっぷり	-10.6349
サービス	-10.6349
集中	-10.6349
雰囲気	-10.6349
僂	-10.6349
滝	-10.6349
場合に	-10.6349
〕↓	-10.6349
爆弾	-10.6349
あや	-10.6349
わけにはいかない	-10.635
思わず	-10.635
機構	-10.635
インチ	-10.635
元気かい予約状況を削除	-10.635
飲	-10.6351
原理	-10.6351
種類が多い	-10.6354
どおり	-10.6356
録音	-10.6356
職員	-10.6356
生活の	-10.6357
を図る	-10.6358
程度の	-10.636
兵器	-10.636
きれいな	-10.6361
述べた	-10.6363
がわからない	-10.6364
しっかり	-10.6365
車輪	-10.6367
によれば	-10.6368
作ること	-10.637
▁ズボン	-10.6373
上から	-10.6375
デ	-10.6375
連合	-10.6375
の底	-10.6379
▁手書きメモ保存	-10.6379
の方が	-10.6383
ないさま	-10.6387
自殺	-10.6387
してくれ	-10.6392
力がある	-10.6392
利子	-10.6394
の肉	-10.6395
するための	-10.6402
の中から	-10.6404
フィート	-10.6412
▁副	-10.6412
元気かいの予約状況を更新	-10.6415
無事	-10.6415
木材	-10.6417
高木	-10.6419
などのため	-10.642
を出した	-10.642
ピン	-10.6422
清水	-10.6423
少しずつ	-10.6427
困る	-10.6437
されていた	-10.6439
アップ	-10.644
部下	-10.6443
表面	-10.6445
景色	-10.6445
人人	-10.6457
止まる	-10.6463
じり	-10.6464
起こり	-10.6468
▁ばら	-10.6472
利益を	-10.6476
だという	-10.6476
武	-10.6476
色が	-10.649
まで経路	-10.649
を聞いて	-10.6491
体は	-10.6491
▁京都	-10.6491
わす	-10.6493
抱	-10.6493
階段	-10.6497
襟	-10.6498
スープ	-10.6501
侍	-10.6502
すわる	-10.6502
厳しい	-10.6504
きびしい	-10.6505
格好	-10.6507
続いて	-10.6508
スター	-10.6509
捕	-10.651
しかた	-10.6512
野原	-10.6512
昨日	-10.6512
後で	-10.6515
以前	-10.6518
らぬ	-10.6519
話し	-10.652
▁激	-10.6521
▁とう	-10.6523
著	-10.6524
副	-10.6524
まずい	-10.6524
▁百	-10.6527
▁航空	-10.653
納める	-10.653
三味線	-10.6532
スマホ	-10.6534
真っ	-10.6535
上げた	-10.6535
▁善	-10.6535
並べ	-10.6538
に見える	-10.6539
を得た	-10.6539
おど	-10.6539
を出すこと	-10.6549
▁友人	-10.6554
一年生植物	-10.6555
▁あらゆる	-10.6558
が足りない	-10.6558
l	-10.656
が長く	-10.6561
g	-10.6563
たりする	-10.6564
書くこと	-10.6566
病人	-10.6571
十二	-10.6571
▁利	-10.6573
全身	-10.6574
漢字	-10.6575
今の	-10.6575
わい	-10.6579
日が	-10.658
最大の	-10.6581
のあまり	-10.6581
憂	-10.6582
たくさんの	-10.6584
打って	-10.6585
慢	-10.6587
ネクタイ	-10.6591
表す	-10.6592
きん	-10.6593
▁神社	-10.6596
軌道	-10.6596
現場	-10.6602
住所	-10.6603
体裁	-10.6604
承認	-10.6604
をかく	-10.6605
碑	-10.6605
無色	-10.6608
萌	-10.6609
セット	-10.6609
奮	-10.661
縞	-10.6611
鳴らす	-10.6611
蜂	-10.6611
鼎	-10.6612
栓	-10.6612
認識	-10.6612
モデル	-10.6612
絵の具	-10.6612
せりふ	-10.6612
故障	-10.6612
祖母	-10.6614
操作	-10.6614
通貨	-10.6614
で彼の	-10.6615
討論	-10.6615
結論	-10.6618
▁微	-10.6618
めがね	-10.6618
伝説	-10.6619
ード	-10.662
▁危険	-10.662
平たい	-10.6621
むしろ	-10.6622
ふき	-10.6628
おかしい	-10.663
▁人から	-10.6631
大小	-10.6631
▁舌	-10.6637
気味	-10.6644
まあ	-10.6654
どうして	-10.6655
明かり	-10.6666
▁自分で	-10.6668
週	-10.6669
大和	-10.667
▁縦	-10.667
刺	-10.6676
開発	-10.6677
を知る	-10.6679
用語	-10.6679
▁少しも	-10.6686
▁電	-10.6686
用紙	-10.6689
日光	-10.6691
つもり	-10.6693
活	-10.6694
▁夫婦	-10.67
いていた	-10.6701
▁毛	-10.6704
世間の	-10.6705
ホーム画面	-10.671
音声	-10.6713
風俗	-10.6714
到着	-10.6714
はずれた	-10.6716
一年	-10.6718
つい	-10.6727
彼には	-10.6729
貸	-10.6733
っきり	-10.6734
がたくさん	-10.6737
彼女を	-10.6738
あう	-10.6742
電線	-10.6744
を争う	-10.6744
漏	-10.6745
ったら	-10.6752
▁平和	-10.6756
速く	-10.6756
蚕	-10.6766
ねえ	-10.6767
はず	-10.6768
▁秘密	-10.6768
染み	-10.6769
灰色	-10.6771
供	-10.6771
かれる	-10.6775
▁外国	-10.6776
奉	-10.6781
▁補	-10.6782
非常	-10.6782
戦い	-10.6783
部屋を	-10.6783
かしら	-10.6786
行政	-10.6789
天下	-10.6789
立って	-10.679
眉	-10.6791
わざと	-10.6791
浮き	-10.6791
でもない	-10.6791
を食べる	-10.6792
よごれ	-10.6793
幸運	-10.6795
かじ	-10.6795
リン	-10.6795
浪	-10.6797
恐怖	-10.6797
残る	-10.6798
即	-10.6798
退屈	-10.68
農業	-10.6804
▁虚	-10.6806
最近	-10.6808
張った	-10.6808
▁彼はまだ	-10.6809
貨物	-10.6809
使うこと	-10.6809
博士	-10.6811
渡す	-10.6811
途中	-10.6813
統	-10.6817
外の	-10.6818
元気かいの予約を追加	-10.6828
祖父	-10.6828
▁画	-10.6833
の水	-10.6837
げん	-10.6837
最初の	-10.6837
とめる	-10.6839
手本	-10.6841
かぜ	-10.6841
お薬屋	-10.6842
せない	-10.6844
水中に	-10.6848
安定	-10.6849
三角形	-10.685
したこと	-10.6852
こんだ	-10.6853
▁加	-10.6854
騒ぎ	-10.6854
桜	-10.6856
詰める	-10.6859
委員	-10.686
考えて	-10.6863
比べ	-10.6864
まん	-10.6864
勝手に	-10.6866
▁満	-10.687
を抱く	-10.687
点で	-10.6873
以外に	-10.6873
弊	-10.6875
酷	-10.6878
▁その事	-10.6878
の内容	-10.6879
摂	-10.6881
腺	-10.6881
紺	-10.6881
錦	-10.6882
峰	-10.6882
干渉	-10.6882
支出	-10.6882
槍	-10.6882
雀	-10.6882
侵入	-10.6882
といって	-10.6883
に違いない	-10.6883
▁霧	-10.6883
旧称	-10.6884
ってきた	-10.6884
改善	-10.6884
頼む	-10.6884
絶えず	-10.6884
紙幣	-10.6884
朝廷	-10.6885
言葉で	-10.6885
保存	-10.6886
元気かいの予約更新	-10.6886
残らず	-10.6886
曲芸	-10.6887
企て	-10.689
食堂	-10.689
ペ	-10.689
制御	-10.689
▁戸	-10.6891
を好む	-10.6892
んじ	-10.6893
疑	-10.6894
▁乾	-10.6895
ふろ	-10.6895
住み	-10.6895
さか	-10.6896
鉄砲	-10.6899
ぐら	-10.6901
▁絶	-10.6903
守り	-10.6904
俗に	-10.6905
単語	-10.6906
を果たす	-10.6907
一切の	-10.6909
しめる	-10.6911
▁たくさんの	-10.6911
だす	-10.6912
歩いた	-10.6915
ちり	-10.6916
物や	-10.692
▁子供	-10.6922
々に	-10.6922
の表面	-10.6926
ましい	-10.6929
子ども	-10.693
元気かいの予約状況を変更	-10.6932
しゃれ	-10.6933
▁心臓	-10.6934
て来た	-10.6934
にはいること	-10.6937
鶴	-10.6938
社員	-10.6939
なければならなかった	-10.6944
試み	-10.6944
見物	-10.6947
期日	-10.6948
▁金銭	-10.6948
ふり	-10.695
ふた	-10.6953
坊	-10.6956
▁商業	-10.6956
を決める	-10.696
その仕事	-10.6962
越す	-10.6969
速力	-10.6975
▁個人	-10.6978
の裏	-10.698
たまえ	-10.6988
ものは	-10.6989
でメッセージを	-10.6991
足が	-10.6992
主義者	-10.6997
▁多くの人	-10.7001
台所	-10.7007
消化	-10.7009
元気かい予約を追加	-10.7012
▁至	-10.7012
隠	-10.7014
心地	-10.7018
待	-10.7019
食べた	-10.7022
へ行って	-10.7026
▁彼女は彼の	-10.703
合わない	-10.7031
絶対に	-10.7031
低	-10.7033
もり	-10.7038
ならない	-10.7038
致	-10.7041
鉱物	-10.7049
合わせた	-10.705
大切な	-10.705
にしている	-10.7051
を招く	-10.7051
花は	-10.7055
がきく	-10.7056
ポケット	-10.7057
僕の	-10.7059
表面に	-10.7066
診	-10.7078
▁そのような	-10.7078
▁優	-10.7079
▁さい	-10.7082
義理	-10.7084
影響	-10.7087
ばた	-10.709
はかりごと	-10.7093
▁民	-10.7094
婿	-10.7094
▁進	-10.7094
▁テニス	-10.7094
読むこと	-10.7095
▁機	-10.7096
仏教で	-10.7098
▁地球	-10.7099
▁布	-10.7101
▁普通の	-10.7102
発明	-10.7102
分解	-10.7103
考えが	-10.7105
▁ゴルフ	-10.7106
カーテン	-10.7107
らずに	-10.7107
行うこと	-10.7109
体操	-10.7109
利害	-10.7109
過ごす	-10.711
海岸	-10.7111
げに	-10.7111
前もって	-10.7114
気に	-10.7114
▁禁	-10.7116
常に	-10.7119
レコード	-10.712
▁借金	-10.7125
特有の	-10.7125
ヘルパー	-10.7126
づく	-10.7126
の女	-10.7127
のあたり	-10.7128
もう少し	-10.7128
優勝	-10.7129
のび	-10.713
の値段	-10.7132
誤解	-10.7139
を聞く	-10.714
はいない	-10.7141
夕方	-10.7145
還	-10.7148
高度	-10.7149
担	-10.715
譜	-10.7151
鎖	-10.7153
配当	-10.7156
潔	-10.7156
よろしい	-10.7156
を待つ	-10.7156
鹿	-10.7157
投資	-10.7157
くだ	-10.7158
配置	-10.7158
つながり	-10.7159
憤	-10.7159
ランプ	-10.7159
遺伝	-10.7159
倉	-10.7159
丹	-10.7159
原産	-10.7159
よろしく	-10.716
枠	-10.716
オーバー	-10.716
逐	-10.716
	-10.716
ごちそう	-10.716
やさしい	-10.716
交替	-10.716
理屈	-10.716
設計	-10.7161
疾	-10.7161
ベルト	-10.7161
関節	-10.7163
元気かいの予約削除	-10.7163
証言	-10.7164
元気かい予約更新	-10.7164
運び	-10.7165
▁緑	-10.7165
柔らかい	-10.7165
最後まで	-10.7166
視線	-10.7167
めい	-10.7169
火山	-10.717
食欲	-10.7171
▁髪を	-10.7174
するため	-10.7175
喜んで	-10.7176
▁愚	-10.7176
困った	-10.7182
みずから	-10.7183
たれ	-10.7188
珍	-10.7188
刃物	-10.719
男の	-10.7194
寄る	-10.7195
お客	-10.7196
与えられた	-10.7197
あせ	-10.7197
のまま	-10.7198
合計	-10.7198
必要がある	-10.7198
芸術家	-10.72
無知	-10.7201
ります	-10.7201
干	-10.7201
平面	-10.7202
その計画	-10.7206
候補者	-10.7208
▁ある事	-10.7208
明るく	-10.7209
完全な	-10.721
済	-10.7212
たばこ	-10.7213
口から	-10.7214
▁ホテル	-10.7216
移り	-10.7216
を持ち	-10.7217
飲食物	-10.7219
してきた	-10.7227
おお	-10.7227
▁生き	-10.7228
を描く	-10.7229
申	-10.7229
▁種	-10.7232
ならず	-10.7233
▁直接	-10.7233
の利益	-10.7233
味方	-10.7235
を加え	-10.7238
▁座	-10.7238
着陸	-10.724
▁彼は私を	-10.7242
私たちに	-10.7243
▁明後日	-10.7245
ボート	-10.7247
殺し	-10.7249
そこで	-10.7249
混乱	-10.7252
の目	-10.7257
勝つ	-10.7258
むき	-10.7258
でメッセージ送信	-10.7261
消し	-10.7263
映	-10.7263
すきま	-10.7263
▁敵の	-10.7264
過ぎた	-10.7267
にわたる	-10.7268
▁商	-10.7268
名前を	-10.7269
▁最	-10.7277
▁人口	-10.7278
を捨てる	-10.7283
見かけ	-10.7284
▁妻	-10.7286
つや	-10.7287
元気かい予約状況を追加	-10.7287
集まって	-10.7293
事をする	-10.7294
▁防	-10.7294
売る	-10.7296
▁要	-10.7299
踏	-10.7304
瞬間	-10.7304
仏教	-10.7305
招	-10.7306
並	-10.7308
▁ピアノ	-10.7311
今まで	-10.7314
▁岩	-10.7315
宴会	-10.732
草木	-10.732
▁衣服	-10.7322
雨が	-10.7322
▁星	-10.7325
単	-10.7329
絵画	-10.7331
体長	-10.7333
弱い	-10.7338
に入れて	-10.7338
▁リ	-10.7341
責	-10.7342
静かな	-10.7342
囲	-10.7342
ング	-10.7346
地上	-10.735
航空機	-10.7351
魅力	-10.7352
▁遊	-10.7353
暮	-10.7355
くい	-10.7361
その家	-10.7361
▁どの	-10.7361
自転車	-10.7363
現れ	-10.7372
もう一度	-10.7374
集まる	-10.7375
▁底	-10.7375
本当	-10.7376
くれる	-10.7377
いま	-10.7377
等級	-10.7377
零	-10.7378
震	-10.7378
与える	-10.7378
時から	-10.738
幾つかの	-10.7384
壊	-10.7385
ックス	-10.7389
そういうもの	-10.7389
フェ	-10.7389
手紙を	-10.739
を選ぶ	-10.7391
に備えて	-10.7391
固く	-10.7392
▁広	-10.7392
の夜	-10.7393
で書く	-10.7395
▁えん	-10.7395
なま	-10.7397
だということ	-10.74
被	-10.74
▁流	-10.7401
心理	-10.7402
その仕事を	-10.7402
生きている	-10.7402
低木	-10.7403
需要	-10.7404
暮れ	-10.7405
考	-10.7405
仮	-10.7407
糸を	-10.7409
凍	-10.7409
の長	-10.7412
▁身分	-10.7413
▁身体	-10.7415
▁会社	-10.7416
勝手	-10.7418
いち	-10.7419
しまい	-10.742
の跡	-10.742
理由で	-10.7421
いつでも	-10.7421
豚	-10.7422
掛	-10.7422
▁現金	-10.7424
駆	-10.7426
はずだ	-10.7427
パリ	-10.7429
ますよ	-10.7432
瓶	-10.7432
に住み	-10.7434
人柄	-10.7435
▁ここ	-10.7436
鳴く	-10.7436
日本語	-10.7439
以前に	-10.7439
▁山の	-10.744
進んだ	-10.744
▁知識	-10.7441
忍	-10.7442
▁試	-10.7442
均	-10.7443
細菌	-10.7443
ページを貼り付け	-10.7444
喪	-10.7445
ガソリンスタンド	-10.7445
操縦	-10.7445
並び	-10.7445
顕微鏡	-10.7445
捜査	-10.7445
沙	-10.7445
硬貨	-10.7446
紛争	-10.7446
ひじ	-10.7446
染料	-10.7446
の人たち	-10.7446
技能	-10.7446
塗料	-10.7446
よそ	-10.7446
更に広く	-10.7447
廊下	-10.7447
だいぶ	-10.7448
教訓	-10.7448
対策	-10.7449
市民	-10.745
便利	-10.745
たくない	-10.7451
過失	-10.7451
腕を	-10.7452
公衆	-10.7452
うるさい	-10.7452
▁すっかり	-10.7455
▁絹	-10.7456
見識	-10.7458
観客	-10.746
に反する	-10.746
で働く	-10.7465
作戦	-10.7467
本能	-10.7468
さまざまな	-10.7468
るだろう	-10.7469
を要求する	-10.7469
及ぶ	-10.747
おき	-10.7471
わかり	-10.7471
どのくらい	-10.7471
残った	-10.7472
辞職	-10.7472
▁現在	-10.7473
石を	-10.7476
▁空気	-10.7477
▁悪い	-10.7479
罪人	-10.748
事柄を	-10.7481
分布	-10.7482
ありさま	-10.7482
不正	-10.7483
を感じた	-10.7483
伝染病	-10.7484
鉱石	-10.7485
っか	-10.749
▁絶対	-10.7491
うけ	-10.7491
が私の	-10.7492
▁言語	-10.7492
になると	-10.7492
16	-10.7496
▁歴史	-10.7498
に必要な	-10.7499
電灯	-10.7501
米国	-10.7502
▁名誉	-10.7503
▁増	-10.7503
▁アン	-10.7506
▁国内	-10.7507
述べること	-10.7511
確かに	-10.7512
こめ	-10.7513
受けた	-10.7513
資産	-10.7517
最大	-10.7517
天体	-10.7518
に会う	-10.7526
用事	-10.7527
ぬき	-10.7528
しお	-10.753
▁刀	-10.7536
ませる	-10.7537
▁配	-10.7537
まくら	-10.7541
小鳥	-10.7542
姿を	-10.7543
を知っている	-10.7546
原子	-10.7549
身なり	-10.7552
混ぜ	-10.7555
人格	-10.7558
夕	-10.7561
がなくて	-10.7565
床に	-10.7567
はどんな	-10.7568
となり	-10.7572
沖	-10.7574
80	-10.7575
押	-10.7577
倒れた	-10.7577
男女	-10.7579
元気かい予約状況を更新	-10.7585
出された	-10.7587
問題を	-10.7589
かつ	-10.7594
引け	-10.7594
最高の	-10.7596
▁夕食	-10.7596
始	-10.7597
▁その時	-10.7598
うれしい	-10.7598
敵に	-10.7603
▁もと	-10.7604
水分	-10.7608
すい	-10.761
左右に	-10.7613
を利用して	-10.7615
▁混	-10.7616
動機	-10.7617
▁他人	-10.7617
なみ	-10.7617
入れること	-10.762
仕方がない	-10.762
いけない	-10.7621
通りを	-10.7625
の差	-10.7626
懸	-10.7626
がみ	-10.7627
▁ゆう	-10.7628
主題	-10.7632
くも	-10.7634
しまう	-10.7636
▁法律	-10.7637
見本	-10.7639
材は	-10.764
私たち	-10.7642
▁車の	-10.7648
▁義	-10.7649
を売る	-10.7652
ているさま	-10.7653
わしい	-10.7653
まさに	-10.7654
▁気が	-10.7656
黄色の	-10.7656
注射	-10.7657
栄	-10.7657
効	-10.766
顔色	-10.7661
▁銃	-10.7661
▁こん	-10.7662
しばしば	-10.7663
ぶどう酒	-10.7665
召	-10.7665
▁地震	-10.7666
知る	-10.7666
行列	-10.7667
贈	-10.7668
何とも	-10.7669
ときに	-10.767
▁献	-10.767
▁核	-10.7671
計略	-10.7676
水に	-10.7677
▁行き	-10.7681
コード置	-10.7683
はるかに	-10.7684
悪事	-10.7684
にあう	-10.7689
もん	-10.7689
まわる	-10.7694
に行う	-10.7694
次第	-10.7694
されない	-10.7695
▁だれが	-10.7696
浴	-10.7696
▁元気かい予約	-10.7696
コードを置	-10.7697
むりに	-10.7699
▁家の	-10.7701
けち	-10.7704
争	-10.7704
以上に	-10.7705
砕	-10.7709
売れ	-10.7711
てはいけない	-10.7711
吐	-10.7711
そんな事を	-10.7711
▁あれ	-10.7713
についている	-10.7714
元気かい予約状況を変更	-10.7714
彩	-10.7716
リズム	-10.7717
時間に	-10.7717
曲がった	-10.7718
測定	-10.7719
ベル	-10.7721
ければ	-10.7721
論じ	-10.7721
を見せる	-10.7723
勤勉	-10.7727
責任を	-10.7727
介	-10.7728
C	-10.7728
賀	-10.7728
破壊	-10.7731
近くの	-10.7732
乗る	-10.7732
斑	-10.7732
稿	-10.7732
楽しい	-10.7735
不運	-10.7736
どう使えばいい	-10.7737
駿	-10.7737
惜	-10.7737
拡大	-10.7737
瀬	-10.7737
亀	-10.7738
棺	-10.7738
ヨ	-10.7739
ほぼ	-10.7739
佞	-10.774
磴	-10.774
ユーモア	-10.774
椎	-10.774
太平洋	-10.774
硫酸	-10.774
喜ぶ	-10.774
タイヤ	-10.774
▁天皇の	-10.774
寿命	-10.774
いくつかの	-10.7741
飲料	-10.7741
幕府	-10.7741
泥棒	-10.7741
酔い	-10.7741
代名詞	-10.7743
どうすれば	-10.7745
元気かい予約を削除	-10.7745
結合	-10.7746
元気かいの予約状況を管理	-10.7746
が立つ	-10.7749
体温	-10.7749
悲しい	-10.7749
新たに	-10.7749
活字	-10.7749
配達	-10.7751
指を	-10.7753
美味	-10.7755
行こう	-10.7759
遊女	-10.776
いまから電話かける	-10.7761
は我々の	-10.7763
幸い	-10.7765
生ずる	-10.7767
彫り	-10.7767
▁食	-10.7768
純	-10.7769
じて	-10.777
予約	-10.7771
▁厳	-10.7773
いじ	-10.7776
みず	-10.778
バック	-10.7781
訴訟	-10.7783
なくなること	-10.7783
気を	-10.7783
の終わり	-10.7784
▁英	-10.7785
裁	-10.7786
▁官	-10.7786
▁暴	-10.7789
法則	-10.7789
▁私はその	-10.7791
筋道	-10.7791
我々	-10.7791
▁運	-10.7792
事件の	-10.7793
二人の	-10.7793
が大きく	-10.7796
伏	-10.7796
▁最後の	-10.7796
あらわ	-10.7796
二度と	-10.7797
かつて	-10.7799
▁仕事を	-10.7801
支配	-10.7803
失敗する	-10.7803
かわり	-10.7807
▁過去	-10.7809
の程度	-10.7811
態度が	-10.7812
一同	-10.7813
景気	-10.7814
無罪	-10.7815
有名な	-10.7817
込むこと	-10.7818
体力	-10.782
すぐれている	-10.7821
国会	-10.7821
地下	-10.7826
飛ばす	-10.7828
不思議な	-10.7831
物理学	-10.7831
甘	-10.7839
されること	-10.7841
していて	-10.7842
白髪	-10.7844
▁巨	-10.7845
▁麦	-10.7847
二人	-10.7848
世辰	-10.785
▁議会	-10.7851
作者	-10.7851
▁市	-10.7851
感動	-10.7854
▁事務	-10.7856
ちっとも	-10.7859
ぶっ	-10.7865
相当	-10.7866
授	-10.7869
は彼を	-10.7872
夏の	-10.7873
後ろに	-10.7878
大変な	-10.7883
を発する	-10.7883
回った	-10.7886
描いた	-10.7886
人情	-10.7887
出かける	-10.7887
符	-10.789
ねば	-10.7892
でメッセを送信	-10.7892
苦痛	-10.7899
すか	-10.79
を誤る	-10.7901
君が	-10.7901
とじ	-10.7902
▁神経	-10.7905
つとめ	-10.7909
垂	-10.7909
任垢	-10.791
あれこれと	-10.7912
以外	-10.7914
はっきりと	-10.7915
なぐる	-10.7915
光線	-10.7918
反対の	-10.7919
応	-10.792
はさみ	-10.7921
をつかむ	-10.7921
を見ると	-10.7925
寄付	-10.7926
▁しゅう	-10.7926
わし	-10.7928
たび	-10.793
お金	-10.7937
たな	-10.7941
さけ	-10.7942
▁他の	-10.7949
▁釣り	-10.7949
スタ	-10.7955
▁卑	-10.7956
ねずみ	-10.7959
語る	-10.796
どき	-10.7961
ついている	-10.7963
死者	-10.7963
▁押し	-10.7966
望む	-10.7968
著者	-10.7969
が長い	-10.7972
客の	-10.7973
▁元	-10.7973
フル	-10.7976
仰	-10.7979
割れ	-10.7979
育て	-10.798
崩	-10.7982
述べ	-10.7982
当たる	-10.799
上下	-10.7994
人や	-10.7994
▁漁	-10.7994
折れ	-10.7994
縫	-10.7995
結構	-10.7995
をやめる	-10.8002
先の	-10.8006
側の	-10.8006
しら	-10.8007
付きの	-10.8009
に言う	-10.801
過去	-10.8012
髪を	-10.8013
燃える	-10.8014
ものです	-10.8014
にふける	-10.8016
滴	-10.8016
小型の	-10.8018
騷ぎ	-10.8019
▁タクシー	-10.8019
の位置	-10.802
▁霜	-10.802
況	-10.8022
当選	-10.8022
質の	-10.8024
ニューヨーク	-10.8024
さなかった	-10.8024
冗談	-10.8025
余地	-10.8028
▁秘	-10.8028
脂肪	-10.8029
▁偏	-10.8031
▁書き	-10.8032
民主	-10.8033
▁列車	-10.8035
訪	-10.8036
宣	-10.8037
禍	-10.8038
実際の	-10.8038
ショートメッセージを	-10.8039
▁被	-10.8039
及ばない	-10.804
渋	-10.804
塞	-10.804
慶	-10.8041
あめ	-10.8041
叫ぶ	-10.8041
叙	-10.8041
ページ貼り付け	-10.8042
嚢	-10.8042
摩	-10.8042
楼	-10.8042
吉田	-10.8042
某	-10.8042
虐	-10.8042
▁自動車の	-10.8042
缺	-10.8043
	-10.8043
よろい	-10.8043
描写	-10.8043
独占	-10.8043
セント	-10.8043
300	-10.8043
惑星	-10.8043
業績	-10.8043
抗議	-10.8044
統制	-10.8044
宿泊	-10.8044
辞典	-10.8044
限界	-10.8045
座敷	-10.8045
散らす	-10.8045
めぐり	-10.8046
不良	-10.8047
▁あんな	-10.8047
つらい	-10.8047
綴じ	-10.8047
刷り	-10.8047
行儀	-10.8048
獲物	-10.8048
入学	-10.8048
立ち上がる	-10.8048
々しい	-10.8049
間違っている	-10.805
▁先生は	-10.805
筆跡	-10.8051
縁起	-10.8052
▁動物の	-10.8052
車両	-10.8053
うま	-10.8054
箇所	-10.8054
横に	-10.8054
頭痛	-10.8055
上昇	-10.8055
コップ	-10.8056
いずれ	-10.8056
油断	-10.8057
ではありません	-10.8058
うわ	-10.8058
▁その家は	-10.8061
巡	-10.8062
固定	-10.8064
秘書	-10.8064
▁バス	-10.8066
を集める	-10.8067
としても	-10.8068
▁太	-10.8069
鈍	-10.807
マッチ	-10.8072
養子	-10.8073
ささ	-10.8073
核	-10.8073
とすること	-10.8074
むち	-10.8075
うんと	-10.8075
ゴルフ	-10.8076
▁政府	-10.8076
迷い	-10.8076
現在の	-10.8077
出ること	-10.8078
混	-10.8078
考えを	-10.8079
偶然	-10.8079
を定める	-10.808
進むこと	-10.8081
少	-10.8084
まして	-10.8084
小形の	-10.8086
財政	-10.8089
▁稲	-10.809
議長	-10.809
お願い	-10.8095
どうぞ	-10.8097
空中	-10.8097
ふる	-10.8097
をたたく	-10.8101
視力	-10.8105
賭け	-10.8106
一種の	-10.8106
ってしまう	-10.8108
官職	-10.8109
下げる	-10.811
実際	-10.8113
せた	-10.8118
安心	-10.8119
長いこと	-10.8125
肉屋	-10.8125
黒色	-10.8126
独立	-10.8127
▁物事	-10.8128
方がいい	-10.8133
白色の	-10.8139
▁顔	-10.814
▁父は	-10.8146
▁富	-10.8147
▁故	-10.815
を失った	-10.815
温泉	-10.8151
なもの	-10.8152
手先	-10.8152
のほう	-10.8157
物品	-10.8159
ごう	-10.8161
秘密を	-10.8161
入って	-10.8162
のたとえ	-10.8165
のとおり	-10.8168
幸せ	-10.817
科の落葉高木	-10.8178
うみ	-10.8179
移動	-10.8182
私たちの	-10.8185
ミリ	-10.8185
▁郵便	-10.8187
終わった	-10.8188
根性	-10.8189
▁世間の	-10.8195
識	-10.8195
生活を送る	-10.8199
成立	-10.82
四方	-10.8203
▁ビール	-10.8204
▁昼	-10.8205
のような形	-10.8208
その言葉	-10.8209
▁がん	-10.8212
▁当時	-10.8213
だらけの	-10.8219
▁どちら	-10.8221
▁次の	-10.8222
はなかなか	-10.8225
を研究する	-10.8226
かれた	-10.8226
残念	-10.823
▁女性	-10.823
の話	-10.823
上がって	-10.8233
を止める	-10.8237
三つ	-10.8238
ラー	-10.8238
▁イエス	-10.8241
の土地	-10.8247
吹く	-10.8247
▁葉	-10.8247
は私	-10.8249
ブラ	-10.825
設	-10.8257
を踏む	-10.8259
▁せき	-10.8261
▁党	-10.8262
書いてある	-10.8265
数値	-10.8266
嫌い	-10.8267
丸い	-10.8268
運送	-10.8268
が出た	-10.8275
優	-10.8279
ぬく	-10.8287
うちの	-10.8287
向きの	-10.8292
▁はん	-10.8299
詰	-10.8301
▁粉	-10.8302
をかき	-10.8302
親切に	-10.8302
異常	-10.8303
▁牛乳	-10.8305
▁いつ	-10.8307
に行って	-10.8307
ばね	-10.8308
力士	-10.831
st	-10.8312
風邪	-10.8316
おこる	-10.8318
化した	-10.832
換	-10.8321
沢	-10.8321
ませた	-10.8322
月に	-10.8322
▁鈍	-10.8323
▁裸	-10.8323
▁研究	-10.8325
▁100	-10.8325
含	-10.8325
決断	-10.8325
ぱっと	-10.8326
を起こし	-10.8328
▁心に	-10.8328
▁冗談	-10.8329
▁卵	-10.8332
庫	-10.8333
権威	-10.8336
驚き	-10.8339
▁棒	-10.8339
くそ	-10.8341
兵隊	-10.8342
を追って	-10.8342
斉藤	-10.8343
あん	-10.8344
▁彼はもう	-10.8344
すごい	-10.8344
きて	-10.8345
言ったこと	-10.8346
とその	-10.8346
一面	-10.8348
療	-10.835
循環	-10.835
敏	-10.835
ミルク	-10.8351
のようなもの	-10.8351
服従	-10.8351
審議	-10.8352
著作	-10.8354
▁立派な	-10.8354
範	-10.8354
カル	-10.8354
渡り	-10.8354
熊	-10.8354
妊	-10.8355
"	-10.8355
溝	-10.8355
束縛	-10.8355
味噌	-10.8355
アジア	-10.8355
訂正	-10.8355
診察	-10.8355
を欠く	-10.8356
やたらに	-10.8356
オレンジ	-10.8356
▁ほ	-10.8356
給与	-10.8356
救助	-10.8356
男女が	-10.8356
拍手	-10.8357
元気かいの予約状況を削除	-10.8357
味わい	-10.8357
保管	-10.8357
合唱	-10.8359
コードをすぐ	-10.8359
どころ	-10.836
▁人生	-10.836
元気かいの予約を削除	-10.8361
水準	-10.8361
財産を	-10.8361
▁大いに	-10.8362
党派	-10.8362
喜劇	-10.8362
元気かい予約削除	-10.8362
前提	-10.8363
教員	-10.8364
親しみ	-10.8365
入場	-10.8365
ぶち	-10.8368
▁最高	-10.8369
付属	-10.8369
風習	-10.8369
のところ	-10.837
▁新しく	-10.837
▁なぜ	-10.8371
終わる	-10.8371
連続	-10.8371
わん	-10.8373
▁墨	-10.8373
ふけ	-10.8374
▁硬	-10.8374
w	-10.8375
の小	-10.8376
がついた	-10.8376
項目	-10.8376
確実な	-10.8377
冒険	-10.8378
そうと	-10.8379
曲線	-10.838
▁だれでも	-10.8381
▁ここから	-10.8384
▁スキー	-10.8384
に着く	-10.8385
活気	-10.8385
今は	-10.8387
例外	-10.8387
▁それには	-10.839
顔をする	-10.8391
無礼	-10.8392
春の	-10.8392
は彼	-10.8393
ですが	-10.8395
発達	-10.8395
重量	-10.8396
仮名	-10.8396
敷き	-10.8398
十分な	-10.8398
を鳴らす	-10.8399
童	-10.8401
読んだ	-10.8401
塗	-10.8401
▁縁	-10.8401
大事な	-10.8402
くわ	-10.8404
請	-10.8404
▁自分が	-10.8405
スマホ置	-10.8406
根本	-10.8407
群衆	-10.8407
缶	-10.8408
郊外	-10.8409
▁約束	-10.841
きなさい	-10.841
健	-10.8411
ウイスキー	-10.8412
献	-10.8414
掻き	-10.8414
ジョン	-10.8415
図書館	-10.8415
赤色	-10.8416
バラ	-10.8417
▁じょう	-10.8417
威力	-10.8418
▁質	-10.8419
▁あらし	-10.842
風流	-10.842
面会	-10.8421
遠慮	-10.8421
昼	-10.8422
支持	-10.8422
粘土	-10.8423
岩石	-10.8423
家柄	-10.8424
死亡	-10.8425
なか	-10.8425
を重ねる	-10.8426
てしまうこと	-10.8427
いくつ	-10.8428
虚	-10.8428
暖かい	-10.8428
テニス	-10.843
どれ	-10.8431
コードのページを置	-10.8432
ーション	-10.8433
▁歌	-10.8435
天才	-10.8435
嫁	-10.8435
集会	-10.8436
やってみる	-10.8436
を塗る	-10.8437
が来る	-10.8437
ごま	-10.8437
臣下	-10.8438
あうこと	-10.8438
っていること	-10.8439
存在する	-10.8441
非常な	-10.8442
70	-10.8444
傾斜	-10.8444
話だ	-10.8445
▁露	-10.8449
を突き	-10.845
発生	-10.8452
▁怒り	-10.8455
かたく	-10.8456
上流	-10.8458
物価	-10.8458
に生える	-10.8458
他方	-10.846
ティー	-10.8461
するような	-10.8461
一点	-10.8464
きわ	-10.8465
カン	-10.8468
品質	-10.8475
輸出	-10.8477
▁そんなこと	-10.8479
べる	-10.8479
火薬	-10.848
名の	-10.8481
買う	-10.8481
話した	-10.8487
難い	-10.8487
▁そうじゃな	-10.8488
▁雌	-10.8495
▁鬼	-10.8497
▁労働	-10.8503
いました	-10.8504
もらった	-10.8507
重大な	-10.8508
▁ちょうど	-10.8514
打撃	-10.8515
▁室内	-10.8519
地点	-10.852
抜ける	-10.8521
▁墓	-10.8523
潜	-10.8525
見せる	-10.8526
不平	-10.8532
爆	-10.8532
□□	-10.8533
科目	-10.8533
元気かい予約を更新	-10.8537
へ行った	-10.8545
上り	-10.8547
▁新年	-10.8547
全体の	-10.855
けること	-10.8551
回転	-10.8551
▁長く	-10.856
▁温	-10.856
上げて	-10.8561
ろうと	-10.8562
ネズミ	-10.8562
あげた	-10.8567
▁午後	-10.8568
▁超	-10.8569
歌う	-10.8573
se	-10.8573
確かな	-10.8576
丈夫な	-10.8576
既に	-10.8579
基本	-10.8581
矛盾	-10.8585
が強く	-10.8586
否定	-10.8589
きている	-10.859
つもりだ	-10.859
を捕える	-10.8591
以前の	-10.8592
黙って	-10.8593
▁若い	-10.8594
は実に	-10.8595
戻	-10.8596
通りに	-10.8596
っておく	-10.8599
湿度	-10.8599
戸口	-10.8601
▁インド	-10.8604
あとに	-10.8609
焦	-10.861
の内	-10.861
▁道理	-10.8611
示すこと	-10.8612
そうする	-10.8614
樹木	-10.8616
埋め	-10.8617
▁ピ	-10.8617
扱	-10.8618
生まれつき	-10.8618
届	-10.8621
▁生活	-10.8625
資料	-10.8634
▁議長	-10.8635
を作り	-10.8639
▁芝居	-10.8639
四角	-10.8642
大体	-10.8647
の基礎	-10.8648
縛	-10.8648
▁農業	-10.8649
帝国	-10.865
離婚	-10.865
▁ニューヨーク	-10.8651
将校	-10.8651
軽蔑	-10.8655
悟	-10.8655
の出来事	-10.8656
熱い	-10.8656
▁能	-10.8657
らせて	-10.8662
ろうとする	-10.8666
のなか	-10.8668
裁判官	-10.8669
▁帆	-10.8669
却	-10.867
▁激しく	-10.8671
▁飯	-10.8672
孔	-10.8672
に過ぎない	-10.8673
蝶	-10.8674
険	-10.8674
呪	-10.8675
焼いた	-10.8675
相続	-10.8675
確か	-10.8675
発行する	-10.8676
こみ	-10.8676
前から	-10.8676
重大	-10.8676
ぞっとする	-10.8676
環	-10.8676
キャ	-10.8677
貌	-10.8677
あきらめ	-10.8677
を失って	-10.8677
ごたごた	-10.8678
ハンカチ	-10.8678
屬	-10.8678
娯楽	-10.8678
偉大な	-10.8678
くちばし	-10.8678
証券	-10.8679
ろうそく	-10.8679
▁死に	-10.8679
のうちに	-10.8679
悩み	-10.8679
ものがある	-10.868
たえ	-10.868
覚	-10.868
▁文学	-10.868
いいか教えて	-10.8681
真珠	-10.8682
農場	-10.8683
坊主	-10.8684
経費	-10.8684
▁今日の気候	-10.8685
同士	-10.8685
執行	-10.8685
▁松	-10.8686
狂言	-10.8687
優先	-10.8688
▁順	-10.8688
申し上げます	-10.8689
▁土地	-10.8689
面白い	-10.8692
平らな	-10.8693
▁狂	-10.8694
目録	-10.8695
戦術	-10.8697
不在	-10.8698
辰討い	-10.8699
施	-10.8699
科の常緑高木	-10.87
めし	-10.8701
弱点	-10.8707
▁ベ	-10.8708
むずかしい	-10.8709
▁ぼう	-10.8709
語句	-10.871
薬屋	-10.8711
母音	-10.8711
石川	-10.8712
▁遠く	-10.8716
▁きゅう	-10.8717
ロン	-10.8717
所帯	-10.8719
▁ノー	-10.8719
を読む	-10.8719
▁都市	-10.872
あさ	-10.872
もみ	-10.8721
お医者	-10.8724
明石	-10.8725
▁印刷	-10.8726
うら	-10.873
国を	-10.8731
合うこと	-10.8731
たりして	-10.8731
18	-10.8732
おかし	-10.8735
に多い	-10.8737
▁生産	-10.8738
かに	-10.8738
を洗う	-10.8739
乱暴な	-10.8741
苦心	-10.8744
▁その子は	-10.8745
飽き	-10.8747
第三	-10.8749
などによって	-10.875
談話	-10.875
駄	-10.875
の調子	-10.8752
。「―	-10.8753
両端	-10.8753
走者	-10.8754
鬱	-10.8756
容易に	-10.8758
▁コン	-10.8759
きびしく	-10.8762
野心	-10.8762
危機	-10.8762
幼児	-10.8763
仁	-10.8763
山脈	-10.8765
書いて	-10.8765
えん	-10.8766
所へ	-10.8767
形は	-10.8767
脇	-10.8768
じん	-10.877
訴え	-10.877
を吹く	-10.877
爪	-10.8771
用いる	-10.8771
▁猿	-10.8773
せり	-10.8774
水路	-10.8775
そうじゃな	-10.8775
音節	-10.8778
自己	-10.8779
超	-10.8779
目白	-10.878
S	-10.8782
使い方を教えて	-10.8785
一部	-10.8786
0	-10.8786
いないこと	-10.8791
入れた	-10.8792
とまる	-10.8793
濃い	-10.8793
穀物	-10.8795
があれば	-10.8796
▁学校の	-10.8796
ぼんやり	-10.8798
の問題	-10.8798
備え	-10.8798
もしない	-10.8799
何時	-10.8801
午後	-10.8802
木綿	-10.8802
▁安全	-10.8803
▁全身	-10.8804
生え	-10.8806
敵の	-10.8807
ほめ	-10.8808
▁ヨーロッパ	-10.8809
元気かい予約を変更	-10.881
しかない	-10.8811
境界	-10.8813
▁仕事の	-10.8819
ようとした	-10.8819
▁家族	-10.8821
こり	-10.8821
▁うちの	-10.8826
縮	-10.8826
近くに	-10.8826
▁寸	-10.8828
すぐに電話したい	-10.8831
▁目の	-10.8832
演ずる	-10.8833
中国の	-10.8836
に手を	-10.8836
行け	-10.8838
返すこと	-10.8841
をとった	-10.8841
洋服	-10.8841
▁僕	-10.8841
言葉に	-10.8841
は何も	-10.8841
▁すばらしい	-10.8841
▁元気	-10.8842
その場に	-10.8842
だまして	-10.8845
気譴	-10.885
さる	-10.885
時などに	-10.8851
墓	-10.8852
▁だれか	-10.8853
みぞ	-10.8853
上手	-10.8855
不意	-10.8857
プレー	-10.8861
のもとで	-10.8862
▁割り	-10.8865
然たる	-10.8865
片方	-10.887
ができた	-10.8875
▁教	-10.8876
▁帯	-10.8881
▁都	-10.8881
の縁	-10.8882
▁いろいろの	-10.8883
捜し	-10.8887
重ね	-10.8891
有罪	-10.8892
最後に	-10.8894
おしゃべり	-10.8898
大きいこと	-10.8901
▁化学	-10.8902
ed	-10.8903
認められる	-10.8903
機嫌	-10.8904
時間が	-10.8905
陽子	-10.8906
スーツ	-10.891
有様	-10.891
知った	-10.8914
拾い	-10.8917
地位に	-10.8917
んです	-10.8917
腹が	-10.8918
▁参	-10.8919
鳴り	-10.8919
▁読み	-10.8922
▁財産	-10.8924
蒸	-10.8924
騒	-10.8928
宣伝	-10.8929
▁煮	-10.893
▁生命	-10.8931
しないように	-10.8931
▁地下	-10.8933
っても	-10.8935
居住	-10.8938
構	-10.8939
本来	-10.8939
買った	-10.894
知り	-10.8943
金で	-10.8943
▁あなたが	-10.8943
下ろす	-10.8945
換え	-10.8946
なぐり	-10.8951
メッセージをいまから	-10.8952
立っていた	-10.8953
が好きだ	-10.8957
妙な	-10.896
なぞ	-10.8961
かけている	-10.8962
美しさ	-10.8964
所を	-10.8964
代理	-10.8966
宮中	-10.8966
集まった	-10.8969
▁潜	-10.8969
望遠鏡	-10.8971
まとまり	-10.8973
▁トムは	-10.8976
攻	-10.8976
メッセージをちょっと	-10.8977
ぴったり	-10.8978
調和	-10.8979
あげよう	-10.8982
磨	-10.8983
すぐに電話する	-10.8985
▁このような	-10.8986
惑	-10.8988
ときの	-10.8989
めく	-10.899
の関係	-10.899
のですが	-10.8995
呼び名	-10.8998
▁後ろ	-10.9001
だんだん	-10.9003
ところがある	-10.9004
洗う	-10.9004
遣い	-10.9004
由	-10.9005
不明	-10.9005
書簡	-10.9006
旨	-10.9006
弘	-10.9006
鼓	-10.9008
公務員	-10.9009
吏	-10.9009
▁相手を	-10.9009
覇	-10.9009
紊	-10.901
冒	-10.9011
Г	-10.9011
ストライキ	-10.9011
▁えー使い方の診断	-10.9011
に沿って	-10.9011
兇	-10.9011
▁of	-10.9011
陳述	-10.9011
しつこく	-10.9011
樹脂	-10.9011
欠陥	-10.9012
わざわい	-10.9012
教科書	-10.9012
どうにか	-10.9012
グラス	-10.9012
及び	-10.9012
だけだ	-10.9012
ネット	-10.9012
▁貸	-10.9013
陶器	-10.9013
貴族	-10.9013
ゴール	-10.9013
社交	-10.9013
技師	-10.9014
編成	-10.9014
補給	-10.9015
工夫	-10.9015
を用いて	-10.9015
分裂	-10.9015
▁彼ら	-10.9016
照明	-10.9016
仮定	-10.9016
あくび	-10.9017
ゆう	-10.9017
当てる	-10.9018
インターネットのページをすぐ	-10.9018
ンド	-10.902
害虫	-10.902
帳面	-10.9021
まない	-10.9023
一行	-10.9024
鱗	-10.9024
トム	-10.9025
順番	-10.9025
につき	-10.9026
正午	-10.9026
その知らせ	-10.9029
おいで	-10.9029
祝	-10.9031
かち	-10.9032
人数	-10.9032
めでたい	-10.9034
ダース	-10.9035
動かす	-10.9037
体制	-10.9038
牛肉	-10.9039
日中	-10.904
向く	-10.9041
法案	-10.9042
気圧	-10.9042
けば	-10.9042
いくらか	-10.9044
やってきた	-10.9047
包	-10.9049
たれる	-10.9049
部品	-10.9051
無限	-10.9051
陸地	-10.9055
まわること	-10.9057
を送	-10.9058
元気かいの予約を更新	-10.9058
▁皮膚	-10.906
一枚	-10.9061
頂上	-10.9062
▁目を	-10.9065
感ずる	-10.9067
青木	-10.9071
▁福	-10.9073
危険な	-10.9074
魚を	-10.9075
遅れて	-10.9076
▁終	-10.9078
の空	-10.908
部門	-10.9083
の低い	-10.9083
らせた	-10.9084
を受けること	-10.9084
▁旗	-10.9085
さば	-10.9088
故	-10.9088
誤	-10.909
をうまく	-10.9091
それから	-10.9093
浅	-10.9094
ができますか	-10.9096
まと	-10.9096
察	-10.9097
▁節	-10.9101
添え	-10.9101
上等	-10.9102
ホーム画面へ置	-10.9102
陽気	-10.9103
腕前	-10.9104
口実	-10.9106
▁炭	-10.9109
先例	-10.9112
周囲	-10.9113
を計る	-10.9113
られなかった	-10.9115
がち	-10.9118
繰り返し	-10.9119
口論	-10.9121
▁村	-10.9121
読んで	-10.9121
▁雷	-10.9125
は彼女の	-10.9126
菊	-10.9127
ましょうか	-10.9127
▁休	-10.9128
しっかりした	-10.9132
▁ちょう	-10.9133
疎	-10.9133
伝統	-10.9133
休日	-10.9134
出される	-10.9136
聞かせ	-10.9137
▁米国	-10.9137
じゅう	-10.9137
を進める	-10.9139
昔から	-10.914
もっとも	-10.9141
の材料	-10.9144
を立て	-10.9145
前途	-10.9146
ふだん	-10.9148
つくり	-10.9149
夜明け	-10.9151
▁文章	-10.9153
博	-10.9153
繭	-10.9153
成功した	-10.9155
記念	-10.9158
結婚式	-10.9159
▁料理	-10.9162
遅れた	-10.9165
が必要だ	-10.9166
とんでもない	-10.9171
そのことを	-10.9173
つづ	-10.9173
で売る	-10.9175
の絵	-10.9175
年代	-10.918
あぶ	-10.918
うず	-10.9181
間を	-10.9182
眺め	-10.9186
感ずること	-10.9186
上品	-10.9186
はわからない	-10.9188
納め	-10.9188
起こす	-10.9188
盲	-10.9189
固めた	-10.9191
▁婦人	-10.9191
天子	-10.9191
金の	-10.9192
▁ふた	-10.9194
お前	-10.9198
を作った	-10.9199
我々に	-10.9199
資	-10.9199
世間に	-10.9201
裂け	-10.9203
元気かいの予約を変更	-10.9204
は全部	-10.9207
座席	-10.9211
指図	-10.9211
出かけ	-10.9213
絶え	-10.9213
の者	-10.9214
外れ	-10.9214
っくり	-10.9218
を助ける	-10.9221
裂	-10.9222
つれ	-10.9226
それぞれの	-10.9226
をあげて	-10.9227
を指す	-10.9229
の社会	-10.9229
だけを	-10.9231
▁弓	-10.9231
がっている	-10.9231
指定	-10.9233
▁広く	-10.9233
その結果	-10.9234
引っ	-10.9239
等が	-10.9239
ありますか	-10.9243
▁堅	-10.9243
晴	-10.9244
キリスト教	-10.9245
▁そばの	-10.9248
遅れる	-10.925
情報を	-10.9252
▁建築	-10.9254
三度	-10.9254
ドアを	-10.9257
に入れた	-10.926
を教える	-10.9261
和歌	-10.9261
▁武	-10.9263
▁いいえ	-10.9264
ゆき	-10.9267
さずに	-10.9268
▁しゃ	-10.9269
恐	-10.927
見通し	-10.9273
邪魔	-10.9276
しっかりと	-10.9279
のもと	-10.928
ざら	-10.9282
▁戦闘	-10.9283
その事件	-10.9283
んこ	-10.9284
クリスマス	-10.9285
耳に	-10.9287
土台	-10.929
を飲む	-10.9291
楽しむ	-10.9291
が低い	-10.9293
あとで	-10.9293
ぶらぶら	-10.9294
正体	-10.9296
トラック	-10.9297
と一緒に	-10.9298
下手	-10.93
ています	-10.9302
アパート	-10.9303
ュ	-10.9305
りっぱな	-10.9306
▁ボート	-10.9308
▁営業	-10.9309
ファ	-10.931
▁接	-10.931
▁彼女は彼	-10.931
については	-10.931
▁ガラス	-10.9312
のころ	-10.932
▁浮	-10.932
これで	-10.932
状態にある	-10.9321
おれ	-10.9321
以	-10.9322
珠	-10.9322
を言って	-10.9322
▁クロ	-10.9323
睡眠	-10.9326
▁向こう	-10.9329
区画	-10.9329
の食事	-10.933
衛	-10.9332
ぶる	-10.9333
誠実	-10.9333
▁彼はこの	-10.9334
ばち	-10.9334
問い	-10.9337
永	-10.9338
だし	-10.9339
に関して	-10.934
大将	-10.9342
絞	-10.9343
厚	-10.9344
名古屋	-10.9346
審判	-10.9346
▁そうです	-10.9346
ばり	-10.9348
陶	-10.9348
看板	-10.9349
乙	-10.9349
▁胴	-10.9349
天皇の	-10.9351
藤	-10.9352
に入った	-10.9352
洗たく	-10.9352
防止	-10.9352
冥	-10.9354
宜	-10.9354
なっていた	-10.9354
日暮里	-10.9355
燐	-10.9355
剥	-10.9355
顕	-10.9356
姫	-10.9356
艇	-10.9356
梁	-10.9356
聯	-10.9356
落ち着いて	-10.9356
ハムレット	-10.9356
窒素	-10.9356
壺	-10.9356
瑠	-10.9356
璽	-10.9356
陶磁器	-10.9356
器械	-10.9356
タイプライター	-10.9356
科の海魚	-10.9356
模範	-10.9356
木の葉	-10.9356
休憩	-10.9356
陳列	-10.9356
タイム	-10.9356
見事な	-10.9356
を救う	-10.9357
静岡	-10.9357
存じます	-10.9357
解雇	-10.9357
太郎	-10.9357
圧迫	-10.9357
体験	-10.9358
ようやく	-10.9359
と思っている	-10.9359
ライン	-10.9359
ニア	-10.936
ページをすぐ	-10.9361
忠実	-10.9361
戻す	-10.9362
科学者	-10.9362
高低	-10.9362
元気かいの予約変更	-10.9365
にしたもの	-10.9365
容疑者	-10.9366
に引き	-10.9366
観音	-10.9368
仕切り	-10.9369
方向に	-10.9371
り込む	-10.9371
間もなく	-10.9372
させない	-10.9372
あちこち	-10.9373
明らかに	-10.9375
▁私に	-10.9376
元気かいの予約を管理	-10.9376
布団	-10.9377
は大	-10.9377
▁盲	-10.938
急ぐ	-10.9381
結ぶ	-10.9382
ほうがいい	-10.9382
出勤	-10.9385
かかり	-10.9385
かせ	-10.9385
▁二重	-10.9386
地区	-10.9389
元気かい予約を管理	-10.9391
敬称	-10.9392
▁深く	-10.9393
題目	-10.9393
▁利益	-10.9394
あぶない	-10.9396
複雑な	-10.9397
ぶん	-10.9398
指導者	-10.9398
最新	-10.9398
▁教会	-10.9401
占め	-10.9401
▁のど	-10.9404
達者	-10.9405
えること	-10.9408
特別の	-10.9408
▁うまい	-10.9408
パイ	-10.9414
を用いる	-10.9414
▁4	-10.9414
処理する	-10.9415
会う	-10.9415
吹	-10.9418
で写真送	-10.942
高熱	-10.9423
の方向	-10.9423
のち	-10.9428
柔らかく	-10.943
▁親の	-10.943
道楽	-10.9435
ことをする	-10.9438
手足	-10.9438
▁子供たちは	-10.9438
雌	-10.9439
をふるう	-10.944
辛	-10.9441
わからなかった	-10.9441
小型	-10.9442
かのように	-10.9443
の光	-10.9443
▁昨夜	-10.9445
めん	-10.9447
▁心の	-10.9448
来ること	-10.945
を出し	-10.945
もなかった	-10.9451
身の上	-10.9453
▁懐	-10.9453
▁医学	-10.9457
手袋	-10.9457
まっすぐに	-10.9459
してやる	-10.9459
説き	-10.946
学部	-10.9463
空想	-10.9463
衝突	-10.9463
▁・・	-10.9466
▁自動	-10.9467
▁ロケット	-10.9468
程度が	-10.9468
▁各	-10.9469
縫う	-10.9471
書いたもの	-10.9473
▁登山	-10.9474
大会	-10.9476
平等	-10.9477
失礼	-10.9479
支払い	-10.9479
音を	-10.948
▁モ	-10.9481
ある事	-10.9483
を越えて	-10.9486
▁全く	-10.9487
▁世界の	-10.9492
の間の	-10.9493
▁選	-10.9496
ちょっとした	-10.95
おこ	-10.95
その金を	-10.9502
ーン	-10.9504
女性の	-10.9505
室内	-10.9506
邪	-10.9509
飛	-10.9511
刑務所	-10.9513
ティ	-10.9514
ほん	-10.9515
夕食	-10.9516
定められた	-10.9516
発射	-10.952
▁良	-10.9521
▁女の	-10.9521
▁ゴム	-10.9522
序	-10.9523
有効	-10.9525
11	-10.9527
処分	-10.9528
が少ない	-10.9528
漫	-10.9529
としては	-10.953
盗み	-10.9531
えび	-10.9531
一方の	-10.9533
理性	-10.9534
地獄	-10.9536
蚊	-10.9536
▁君主	-10.9539
音を立てて	-10.9539
のそばに	-10.9539
の面	-10.954
に来る	-10.954
近代	-10.9542
▁寺	-10.9543
多数の	-10.9543
▁雨が	-10.9544
を明らかにする	-10.9544
▁短い	-10.9554
だち	-10.9555
▁集団	-10.9555
逃	-10.9555
を行うこと	-10.9555
の動き	-10.9556
てい	-10.9559
こぶ	-10.956
生地	-10.956
の性質	-10.956
は決して	-10.9564
つきの	-10.9565
▁戦い	-10.9569
小川	-10.957
のほうが	-10.957
ありがとう	-10.9572
歌い	-10.9572
けい	-10.9573
昇	-10.9575
顔が	-10.9575
最初に	-10.9575
通行	-10.9583
足の	-10.9584
を取り除く	-10.9585
スマホ画面へ置	-10.9585
ようとして	-10.9585
ばん	-10.9588
あんな	-10.9599
とめ	-10.9605
▁中国	-10.9605
を抑える	-10.9606
確信	-10.961
はできない	-10.9611
留める	-10.9612
に打ち	-10.9614
▁渋	-10.9617
を少し	-10.9618
精力	-10.9619
まめ	-10.9619
偽	-10.9622
はいけない	-10.9623
▁毎日	-10.9624
▁わら	-10.9624
をとること	-10.9627
をもっている	-10.9628
▁ドア	-10.963
態度をとる	-10.9634
国語	-10.9634
工学	-10.9635
当局	-10.9639
▁三つ	-10.9639
をもち	-10.9642
▁中間	-10.9642
規	-10.9643
報酬	-10.9643
アウト	-10.9648
モン	-10.9649
▁パリ	-10.9651
ショートメッセージを送信	-10.9651
▁降	-10.9651
コードのページ置	-10.9653
募集	-10.9654
で行う	-10.9655
代金	-10.9656
木に	-10.9657
年月	-10.9658
注意して	-10.9663
の深い	-10.9666
指揮	-10.9668
を押し	-10.9672
とらえる	-10.9674
助言	-10.9676
加減	-10.9676
がまだ	-10.9678
っています	-10.968
物資	-10.968
最低	-10.9682
に設けた	-10.9682
黙	-10.9682
▁いえ	-10.9683
一節	-10.9684
賢	-10.9684
わずかに	-10.9685
負傷	-10.9689
願います	-10.969
最初	-10.9694
▁弾	-10.9696
揺れる	-10.9697
を呼ぶ	-10.9699
渡した	-10.97
便宜	-10.97
斜	-10.9701
沸	-10.9701
柔	-10.9703
知れ	-10.9703
にかかわる	-10.9705
を入れておく	-10.9705
簡	-10.9705
滞	-10.9706
あがった	-10.9707
わが	-10.9708
あげること	-10.9708
原則	-10.9709
並ぶ	-10.971
拳	-10.971
佐藤	-10.9711
賦	-10.9711
膿	-10.9711
口が	-10.9712
妄	-10.9713
ショック	-10.9713
汚染	-10.9713
どっち	-10.9713
塾	-10.9713
グループ	-10.9713
博物館	-10.9713
従業員	-10.9713
纏	-10.9713
狼	-10.9713
御用	-10.9713
うろこ	-10.9713
貯蔵	-10.9713
くつ	-10.9713
を持った	-10.9713
泳ぐ	-10.9714
詳細	-10.9714
園芸	-10.9714
経歴	-10.9714
ケアマネさん	-10.9714
警備	-10.9715
志願	-10.9715
豆腐	-10.9715
街路	-10.9715
書斎	-10.9715
おくこと	-10.9716
汽車	-10.9716
香料	-10.9716
策略	-10.9716
消防	-10.9716
接近	-10.9717
内臓	-10.9718
法規	-10.9718
インターネットのページすぐ	-10.9718
入浴	-10.9719
90	-10.9719
お金を	-10.9719
命題	-10.972
崩れ	-10.972
下がり	-10.9722
曇り	-10.9722
暖	-10.9723
指輪	-10.9723
やく	-10.9724
▁その男は	-10.9725
クラ	-10.9726
の量	-10.9726
女房	-10.9727
土砂	-10.9728
ばい	-10.9728
囲い	-10.9731
学術	-10.9731
釮呂	-10.9732
局面	-10.9734
神聖な	-10.9734
動植物	-10.9734
基地	-10.9735
指示	-10.9736
まじり	-10.9738
角度	-10.9741
労力	-10.9741
ビー	-10.9741
▁植物の	-10.9743
水で	-10.9744
▁略	-10.9744
財布	-10.9746
に与える	-10.9746
助力	-10.9746
登	-10.9747
いって	-10.9748
血管	-10.9748
平行	-10.9748
まもなく	-10.9749
人の心	-10.9751
しそう	-10.9754
▁蒸気	-10.9759
▁二人	-10.9759
心理学	-10.9759
落葉	-10.976
▁拝	-10.9761
を造る	-10.9764
抜	-10.9765
各地	-10.9765
実質	-10.9765
勝った	-10.9766
がよくない	-10.9768
▁デ	-10.9768
▁演劇	-10.977
標本	-10.9773
掛かる	-10.9773
の時に	-10.9774
手前	-10.9774
植え	-10.9775
元気かい予約管理	-10.9777
生存	-10.9778
所属	-10.978
ざん	-10.978
相応	-10.9781
によって起こる	-10.9783
尋ねる	-10.9784
通った	-10.9784
生み	-10.9784
おきて	-10.9785
を起こさせる	-10.9785
時まで	-10.9788
近所	-10.9789
表紙	-10.9789
▁一日	-10.979
▁最近	-10.979
▁離	-10.979
画面	-10.9792
雑草	-10.9794
はち	-10.9795
警戒	-10.9795
▁世論	-10.9795
▁殺人	-10.9797
なんだ	-10.98
やむ	-10.9804
怒	-10.9806
▁証拠	-10.9806
旅行する	-10.9807
の流れ	-10.9807
▁権力	-10.9808
さげ	-10.9808
擦れ	-10.9808
▁工場	-10.981
▁池	-10.981
組み立て	-10.9811
▁乗り	-10.9811
ということは	-10.9812
▁ホ	-10.9814
尽	-10.9814
きき	-10.9815
消す	-10.9817
ができない	-10.9818
▁次	-10.9818
▁規則	-10.982
車で	-10.9822
▁奉	-10.9822
捕らえ	-10.9822
▁かく	-10.9823
冷たい	-10.9823
もって	-10.9825
ほかに	-10.9827
おどし	-10.9828
こわい	-10.9828
対立	-10.9829
▁の気候	-10.9829
豊かな	-10.9831
メッセージをすぐに	-10.9831
▁深い	-10.9832
頭から	-10.9832
私も	-10.9832
えさ	-10.9833
人相	-10.9833
たちまち	-10.9834
大した	-10.9834
▁貴	-10.9836
との間に	-10.9842
結局	-10.9844
連中	-10.9845
が高く	-10.9845
荒れ	-10.9845
物事に	-10.9846
くち	-10.9851
ずり	-10.9851
消毒	-10.9851
飲んで	-10.9853
速い	-10.9854
▁彼は彼女	-10.9856
へん	-10.986
さわ	-10.9864
を合わせる	-10.9864
すべきだ	-10.9865
宴	-10.9866
集めること	-10.9866
一歩	-10.9868
▁自己	-10.9868
ねり	-10.9872
戒め	-10.9872
秋に	-10.9873
快	-10.9877
受信	-10.988
日数	-10.9882
▁経験	-10.9882
にしよう	-10.9883
を放つ	-10.9883
を営む	-10.9884
かび	-10.9885
地面に	-10.9886
蔵書	-10.9889
▁恋	-10.9891
▁どんなに	-10.9894
軍事	-10.9895
分離	-10.9897
用いること	-10.9898
▁物価	-10.9898
説教	-10.99
お薬屋ちゃん	-10.9901
浄	-10.9905
大勢	-10.9906
▁夕	-10.9908
救	-10.9909
適当な	-10.991
逸	-10.9913
人種	-10.9913
快楽	-10.9916
▁目的	-10.9918
うっかり	-10.9919
▁あちこち	-10.9921
スパイ	-10.9921
隠れ	-10.9925
話は	-10.9925
はっきりしない	-10.9925
進め	-10.9926
リング	-10.9926
を演ずる	-10.9927
結構です	-10.9928
きく	-10.9928
寺院	-10.9928
代々木	-10.9931
緩	-10.9931
くだらない	-10.9931
繁	-10.9934
一切	-10.9937
を十分に	-10.9941
の儀式	-10.9943
▁消	-10.9945
どういう	-10.9949
はだれ	-10.9949
が見える	-10.995
らく	-10.9954
任せ	-10.9955
無料	-10.9955
を許す	-10.9956
▁ばか	-10.9962
者たち	-10.9963
▁彼女は私に	-10.9965
が広い	-10.9966
靴下	-10.9967
様子だ	-10.9967
用に	-10.9968
人生の	-10.9968
犬を	-10.9969
森林	-10.9971
▁理	-10.9972
写真送	-10.9974
大量	-10.9974
民間	-10.9978
▁なん	-10.9978
▁一番	-10.9979
▁世	-10.9982
にあり	-10.9982
▁海上	-10.9983
▁心が	-10.9983
正面	-10.9987
▁八	-10.9989
ひく	-10.9991
年度	-10.9994
▁臨時	-10.9995
胸に	-10.9995
ふと	-10.9996
古代	-10.9999
ついていた	-11.0001
囚	-11.0002
▁計画	-11.0003
とれる	-11.0003
のあと	-11.0004
器物	-11.0006
金品	-11.0007
はなれ	-11.0008
にあること	-11.0009
がわかる	-11.001
の前で	-11.0011
に合わせて	-11.0011
の最高	-11.0012
どうしても	-11.0014
皮肉	-11.0016
りません	-11.0016
▁傷	-11.0017
偉	-11.0018
将棋	-11.0018
遺憾	-11.0018
彼も	-11.002
根は	-11.0023
心は	-11.0023
▁本当に	-11.0031
衰	-11.0031
▁名声	-11.0031
にしておく	-11.0032
▁てい	-11.0033
事故で	-11.0034
収益	-11.0035
と言い	-11.0037
パー	-11.004
主権	-11.0041
考えること	-11.0042
可能性	-11.0045
語り	-11.0047
▁ほかの	-11.0048
どうか	-11.0049
有利	-11.0049
女子	-11.0049
出来た	-11.0051
で死ぬ	-11.0052
包帯	-11.0052
▁反対	-11.0053
を引いて	-11.0053
変わって	-11.006
方角	-11.006
ll	-11.006
かということ	-11.0061
づき	-11.0062
そこから	-11.0062
▁仕	-11.0063
ケアマネ	-11.0065
溶液	-11.0066
の意見	-11.0072
と思います	-11.0072
及	-11.0073
を与えた	-11.0074
知らぬ	-11.0074
昨年	-11.0075
その本	-11.0075
簿	-11.0076
ェ	-11.0076
藻	-11.0077
証書	-11.0077
▁老人	-11.0078
論争	-11.008
ボールを	-11.008
妥協	-11.0081
立つこと	-11.0081
念仏	-11.0081
続	-11.0081
愁	-11.0082
加藤	-11.0083
高円寺	-11.0083
姦	-11.0083
食器	-11.0083
渦	-11.0083
何できる	-11.0083
杖	-11.0083
データ	-11.0083
寡	-11.0083
ストーブ	-11.0083
澆	-11.0083
餡	-11.0083
栗	-11.0083
雌雄異株	-11.0083
かっこう	-11.0083
衝撃	-11.0083
舞踊	-11.0083
蘭	-11.0083
急速に	-11.0083
栄誉	-11.0083
ぶつぶつ	-11.0084
トンネル	-11.0084
輪郭	-11.0084
留守	-11.0084
ポンプ	-11.0084
から出る	-11.0084
封筒	-11.0084
見方	-11.0084
鑑定	-11.0084
恩恵	-11.0085
直ちに	-11.0085
立派に	-11.0085
未熟	-11.0085
▁この絵は	-11.0085
検討	-11.0086
シェ	-11.0086
父母	-11.0086
思案	-11.0086
解放	-11.0086
青森	-11.0086
育ち	-11.0086
おか	-11.0087
過程	-11.0087
怪しい	-11.0087
失望	-11.0087
判定	-11.0088
ホン	-11.0088
難儀	-11.0088
ある事柄	-11.0088
血統	-11.0089
宗派	-11.0089
を満たす	-11.0089
素質	-11.009
信念	-11.009
サイン	-11.009
方法で	-11.009
後悔	-11.0091
楽曲	-11.0093
かという	-11.0094
改めて	-11.0094
子供の	-11.0094
▁いまから電話かける	-11.0095
母の	-11.0097
んだろう	-11.0098
を追う	-11.0098
現われた	-11.0099
回路	-11.0099
格式	-11.0099
▁金を	-11.0099
はありません	-11.01
かまわない	-11.0101
からとった	-11.0101
ぐち	-11.0101
よし	-11.0103
ヘビ	-11.0103
▁ほんの	-11.0104
生活費	-11.0104
延べ	-11.0105
元気かい予約状況を管理	-11.0107
▁勘定	-11.0108
を認める	-11.0109
を通る	-11.011
郵便局	-11.011
永久	-11.0111
親類	-11.0111
金具	-11.0112
品物を	-11.0113
行われた	-11.0113
市長	-11.0114
つなぎ	-11.0114
知らせる	-11.0115
そんな事	-11.0115
意向	-11.0115
代代	-11.0116
▁すべて	-11.0116
直角	-11.0116
世代	-11.0116
毛皮	-11.0118
だま	-11.012
不快	-11.0121
格子	-11.0121
はずれる	-11.0122
▁自転車	-11.0122
に向けて	-11.0123
アル	-11.0124
すぎた	-11.0127
おおい	-11.0129
ライ	-11.0131
上級	-11.0133
規模	-11.0136
二度	-11.0137
は必ず	-11.0137
はいかがですか	-11.0139
言わない	-11.014
取れ	-11.014
絶対	-11.0141
ろりと	-11.0144
▁相撲で	-11.0145
▁の気温	-11.0146
年金	-11.0146
場合には	-11.0148
▁へい	-11.0148
▁立	-11.0148
木村	-11.0148
▁電車	-11.0149
▁前もって	-11.015
作られた	-11.0152
党の	-11.0154
なおす	-11.0156
を共にする	-11.016
釣	-11.0163
並んで	-11.0165
っ子	-11.0166
▁ごく	-11.0167
を迎える	-11.0167
クリ	-11.0167
決めること	-11.017
住まい	-11.0171
▁荷物	-11.0171
ドン	-11.0171
心身	-11.0171
▁既	-11.0173
が悪いこと	-11.0175
リスト	-11.0176
つぶし	-11.0177
ございます	-11.0181
からぬ	-11.0182
ッと	-11.0182
となるもの	-11.0183
が上がる	-11.0185
それより	-11.0186
通っている	-11.0186
心配事	-11.0189
家来	-11.019
個の	-11.019
側に	-11.0192
限度	-11.0193
呼んで	-11.0195
木製の	-11.0198
て作った	-11.0198
に合わない	-11.02
元気かいの予約状況を追加	-11.02
▁ああ	-11.0201
▁月の	-11.0202
きざ	-11.0205
してもらう	-11.0205
▁森	-11.0208
わび	-11.0208
さめ	-11.021
はある	-11.0211
用品	-11.0212
で買う	-11.0214
思いやり	-11.0214
▁お前	-11.0214
にかかっている	-11.0215
あけた	-11.0217
困難な	-11.0219
水平	-11.0219
機械の	-11.0223
▁偽	-11.0229
衰え	-11.023
番に電話する	-11.023
向かう	-11.0231
使える	-11.0231
を残す	-11.0231
時節	-11.0232
もらい	-11.0234
点を	-11.0234
馬の	-11.0235
方へ	-11.0236
意味を	-11.0237
の三	-11.0239
▁会議	-11.0239
ものもある	-11.0242
動かない	-11.0243
とど	-11.0244
そうして	-11.0244
神の	-11.0245
認め	-11.0248
かなかった	-11.0249
たった	-11.0249
ために使う	-11.0249
▁娘	-11.025
の席	-11.025
誰	-11.0253
▁読書	-11.0253
安楽	-11.0254
学校へ	-11.0254
▁一体	-11.0254
▁水が	-11.0255
打者	-11.0255
▁だれ	-11.0257
解け	-11.026
決めた	-11.0261
日本では	-11.0262
▁世の中	-11.0267
▁希望	-11.0268
ようだった	-11.0268
▁蚊	-11.0268
が彼	-11.0269
整	-11.0269
はん	-11.027
ぶつ	-11.027
こけ	-11.0278
お父さん	-11.0281
飾	-11.0282
先生の	-11.0282
現れる	-11.0284
度合	-11.0284
立候補	-11.0286
の女性	-11.0286
▁空腹	-11.0288
しゅ	-11.0288
との間	-11.0292
▁掛け	-11.0293
労働組合	-11.0293
に入れ	-11.0295
両方	-11.0296
▁ええ	-11.0299
あお	-11.0299
動脈	-11.0299
その日	-11.0299
極めて	-11.03
大部分	-11.0302
返る	-11.0303
本を読む	-11.0305
を下す	-11.0306
は皆	-11.0309
が見えた	-11.0309
▁受	-11.0318
奏者	-11.0321
煩	-11.0321
ではないが	-11.0321
▁遊び	-11.0321
▁結局	-11.0322
こともある	-11.0325
の一番	-11.0327
て下さい	-11.0328
塗った	-11.0329
を言い	-11.033
立てること	-11.0331
詳しく	-11.0332
握り	-11.0332
一人の	-11.0334
▁彼は英語	-11.0336
浜	-11.0336
スミス	-11.0337
疑問	-11.0338
▁景気	-11.0339
ミサイル	-11.0339
泡	-11.0342
▁S	-11.0343
▁馬の	-11.0343
聞いた	-11.0343
碁	-11.0344
憲法	-11.0345
ものとして	-11.0346
悪魔	-11.0346
医療	-11.0347
可	-11.0348
旅館	-11.0349
▁違う	-11.035
あがる	-11.0354
その事	-11.0354
猿	-11.0355
染める	-11.0356
解決する	-11.0357
巨	-11.0357
聖人	-11.0358
水泳	-11.0359
かめ	-11.036
▁湿度	-11.0364
輩	-11.0364
多分	-11.0365
▁彼は彼女に	-11.0365
あえ	-11.0367
ままに	-11.0367
でメッセージ送	-11.0368
▁民間	-11.0368
▁何の	-11.0368
を向ける	-11.0369
どん	-11.0369
いい加減	-11.0373
与えること	-11.0374
in	-11.0374
▁鶏	-11.0374
背中	-11.0383
厳重に	-11.0387
遊ぶ	-11.0387
比例	-11.0389
▁現在の	-11.0392
吹いて	-11.0393
選び	-11.0395
人人の	-11.0395
っちり	-11.0395
説明する	-11.0396
▁多数の	-11.0398
滞在	-11.0398
全国	-11.0401
にすぎない	-11.0406
▁訴訟	-11.0406
はしばしば	-11.0408
が少し	-11.0408
の型	-11.0412
ちょっと電話したい	-11.0412
込んでいる	-11.0415
囚人	-11.0417
▁びん	-11.0418
増し	-11.0421
思った	-11.0423
のほか	-11.0423
冬の	-11.043
▁車は	-11.043
でん	-11.0431
それだけ	-11.0432
が集まって	-11.0432
古くから	-11.0434
試	-11.0436
日付	-11.0437
に多く	-11.0437
まじめ	-11.0438
川口	-11.0438
体系	-11.0439
地中に	-11.044
火災	-11.044
ふう	-11.0441
女王	-11.0441
入りの	-11.0442
酒を飲む	-11.0443
▁情	-11.0445
をもたらす	-11.0445
耕	-11.0445
▁どうして	-11.0447
▁うまく	-11.0447
▁今の	-11.0447
フライ	-11.0449
すごく	-11.045
そっくり	-11.045
のあるもの	-11.0452
廷	-11.0452
気管	-11.0452
消費	-11.0453
忠	-11.0455
入れて	-11.0455
郎	-11.0456
用いられる	-11.0457
くない	-11.0458
経過	-11.0459
軌	-11.0459
久	-11.0459
争う	-11.046
▁はしご	-11.0462
それをした	-11.0462
爵	-11.0462
歌舞伎	-11.0462
まとまった	-11.0464
閲	-11.0464
翔	-11.0465
秀	-11.0466
曹	-11.0466
るほど	-11.0466
捕虜	-11.0467
崇拝	-11.0468
くみ	-11.0468
疲労	-11.0468
桁	-11.0468
ウサギ	-11.0468
陵	-11.0468
凌	-11.0468
紹介	-11.0468
繋	-11.0468
釘	-11.0468
ダイヤモンド	-11.0468
デザイン	-11.0468
悗	-11.0468
慣れ	-11.0468
の異称	-11.0468
皇后	-11.0468
姉妹	-11.0468
脅迫	-11.0468
サイズ	-11.0468
熟練	-11.0468
スペイン	-11.0468
庶民	-11.0468
修繕	-11.0468
多量の	-11.0469
当事者	-11.0469
それ以上	-11.0469
議決	-11.0469
に比べて	-11.047
民主主義	-11.047
突起	-11.0471
▁りょう	-11.0471
技芸	-11.0471
採用	-11.0472
によらず	-11.0472
うそをつく	-11.0472
をもらう	-11.0472
明日香	-11.0472
育つ	-11.0473
家から	-11.0473
コードのページすぐ	-11.0474
撃ち	-11.0474
原始	-11.0475
衆生	-11.0475
ブル	-11.0476
よりどころ	-11.0476
元気かい予約追加	-11.0477
交代	-11.0477
近ごろ	-11.0479
恵子	-11.0479
風刺	-11.048
の外	-11.048
誓う	-11.0481
こぶし	-11.0482
無駄	-11.0482
身振り	-11.0483
に出ている	-11.0483
秋田	-11.0483
体格	-11.0483
どのように	-11.0484
占領	-11.0485
薬剤	-11.0487
伝言	-11.0488
特色	-11.0489
解剖	-11.0489
れていた	-11.0489
どっと	-11.0491
にかなう	-11.0493
▁独り	-11.0493
でメッセージを送	-11.0494
寝室	-11.0495
きまった	-11.0495
四つ	-11.0498
年ごろ	-11.0499
目方	-11.0499
ああ	-11.0499
固い	-11.0499
湿気	-11.05
▁お薬屋	-11.0501
図形	-11.0501
中から	-11.0505
彼女が	-11.0506
が出ている	-11.0506
じきに	-11.0507
さっぱり	-11.0511
▁飛び	-11.0511
の頭	-11.0512
ねらい	-11.0513
の部屋	-11.0513
眠っている	-11.0513
有利な	-11.0514
▁紅	-11.0518
境地	-11.0518
▁神の	-11.0519
▁受け	-11.0521
奇妙な	-11.0523
許し	-11.0523
専用	-11.0523
▁城	-11.0523
殺到	-11.0525
しも	-11.0525
▁仲	-11.0526
▁水中	-11.0526
を作って	-11.0528
外へ出	-11.0528
親切な	-11.0529
いまから送信	-11.0534
頭部	-11.0534
農家	-11.0535
はいけません	-11.0535
パイプ	-11.0537
▁病人	-11.0537
本位	-11.0538
歳の	-11.0539
疲れた	-11.054
パス	-11.0541
伝わる	-11.0547
通ずる	-11.0547
とること	-11.0548
▁わずかな	-11.0549
べた	-11.0551
▁あす	-11.0552
並べて	-11.0553
刺し	-11.0553
▁彼はそれを	-11.0557
離れて	-11.0558
はみな	-11.0561
を下げる	-11.0563
輸入	-11.0565
▁ローマ	-11.0566
続けた	-11.0567
怒る	-11.0568
▁ぼく	-11.0568
▁切	-11.057
▁正直	-11.0573
▁逃げ	-11.0573
時々	-11.0574
親子	-11.0575
▁夜間	-11.0575
診断	-11.0576
っていった	-11.0578
▁可	-11.0578
▁投	-11.0579
▁流れ	-11.0579
▁一時	-11.058
▁野球	-11.058
▁浜	-11.0581
形を	-11.0582
▁その問題は	-11.0582
を書いた	-11.0583
除け	-11.0583
違	-11.0584
くし	-11.0585
を広げる	-11.0586
すえ	-11.0589
青色	-11.0591
花火	-11.0592
などのために	-11.0592
▁土地の	-11.0592
倒れる	-11.0593
書面	-11.0596
▁豆	-11.0596
とりで	-11.0597
個個の	-11.0598
を立てて	-11.0599
じま	-11.0601
きび	-11.0602
致しま	-11.0603
▁キリスト教	-11.0605
年末	-11.0606
それをする	-11.0606
学年	-11.0607
の間を	-11.0609
抱え	-11.0609
はお	-11.0609
かたち	-11.061
▁麻	-11.0613
行ける	-11.0616
煮え	-11.0617
礼服	-11.0618
こむこと	-11.0621
▁おお	-11.0623
▁それでは	-11.0623
▁使い	-11.0626
ことば	-11.0626
をいだく	-11.0632
中です	-11.0633
女中	-11.0634
だと思う	-11.0635
ぎわ	-11.0635
降りる	-11.0635
そうなる	-11.0636
紅色	-11.0636
向いて	-11.0636
主要な	-11.0642
休む	-11.0643
しまって	-11.0647
のうちで	-11.0648
に応じる	-11.0652
生きる	-11.0653
▁机	-11.0654
元気かいの予約状況	-11.066
▁空中	-11.0661
でメッセを送	-11.0662
だれか	-11.0663
電球	-11.0665
すね	-11.0665
つば	-11.0665
▁島	-11.0668
▁給料	-11.0669
トレ	-11.067
を得て	-11.0672
▁インフレ	-11.0672
蕎麦屋	-11.0673
っちゃ	-11.0673
とめること	-11.0674
▁りんご	-11.0679
一座	-11.0679
免	-11.068
面に	-11.0686
重み	-11.0687
候補	-11.0693
▁我々	-11.0697
悪いこと	-11.0698
鋼鉄	-11.0698
土を	-11.0703
▁長期	-11.0704
薬を	-11.0704
▁賞	-11.0705
欲しい	-11.0706
は一	-11.0706
見当	-11.0709
を敷く	-11.0709
を傷つける	-11.0713
気力	-11.0713
一般の	-11.0713
有毒	-11.0713
受け取る	-11.0716
ダイ	-11.0716
に終わる	-11.0717
▁盛	-11.072
山田	-11.072
に着いた	-11.072
▁この種の	-11.0725
出さない	-11.0725
ヘ	-11.0725
についた	-11.0725
ここで	-11.0727
強硬	-11.0728
あだ	-11.073
申し込み	-11.073
かおり	-11.0734
I	-11.0735
英語の	-11.0736
言い分	-11.0736
吸	-11.0738
ある人	-11.0739
を忘れ	-11.0739
▁国家の	-11.074
三十	-11.074
▁大衆	-11.0741
一人で	-11.0744
連れて	-11.0748
攻撃する	-11.0748
気風	-11.0753
品を	-11.0753
じゃま	-11.0753
補助	-11.0754
▁高い	-11.0755
分けること	-11.0755
自分に	-11.0757
奉仕	-11.0758
グラフ	-11.076
▁貸し	-11.0761
みつ	-11.0762
月の	-11.0763
▁たとえ	-11.0764
間隔	-11.0766
動力	-11.0767
を増す	-11.0767
硬	-11.077
闇	-11.077
▁明るい	-11.0772
透	-11.0776
まらない	-11.0778
頼	-11.0778
軍艦	-11.078
美しいこと	-11.078
飽	-11.0781
競馬	-11.0784
おさめ	-11.0786
傍	-11.0787
固体	-11.0788
卓	-11.079
二つ以上の	-11.0791
▁何となく	-11.0792
心臓	-11.0794
乗客	-11.0795
すぐに電話かける	-11.0796
中国で	-11.0796
建てた	-11.0796
胸が	-11.0797
▁割	-11.0798
その人の	-11.0798
▁従	-11.08
▁本を	-11.08
やけ	-11.0802
酸化	-11.0802
人類	-11.0803
▁兄	-11.0806
見えた	-11.0806
慕	-11.0808
もとになる	-11.0809
を買って	-11.0811
を離れて	-11.0812
水中	-11.0813
に満ちた	-11.0818
添	-11.0819
▁偶然	-11.0821
納得	-11.0821
を捜す	-11.0822
の準備	-11.0824
▁ぼ	-11.0825
ばかな	-11.0827
踊る	-11.0829
つかない	-11.083
作ったもの	-11.0831
状態で	-11.0832
▁わき	-11.0833
▁書物の	-11.0833
た人	-11.0833
物事をする	-11.0834
客に	-11.0837
あとから	-11.0837
ウイルス	-11.084
触れる	-11.0842
良心	-11.0843
速さ	-11.0843
磁	-11.0845
醜	-11.0846
維持	-11.0846
災	-11.0847
かたい	-11.0847
植える	-11.0848
吉	-11.085
認める	-11.0852
けれど	-11.0853
買って	-11.0854
頼り	-11.0854
に思う	-11.0856
収集	-11.0856
締まった	-11.0856
▁あれは	-11.0856
洞	-11.0856
えている	-11.0857
▁甲	-11.0857
一生懸命	-11.0858
▁売	-11.0858
いまから電話したい	-11.0858
引用	-11.0858
節約	-11.0859
な話	-11.086
なくてはならない	-11.0861
達也さん	-11.0863
糧	-11.0863
芳香	-11.0864
けん	-11.0864
ふち	-11.0865
撮影	-11.0865
おば	-11.0866
潤	-11.0866
▁for	-11.0866
劼	-11.0866
瞭	-11.0866
希	-11.0866
蓮	-11.0866
廃止	-11.0867
監視	-11.0867
五十	-11.0867
が同じ	-11.0867
辱	-11.0867
旬	-11.0867
資源	-11.0868
伐	-11.0868
浩	-11.0868
笠	-11.0868
宵	-11.0868
椶	-11.0868
遍	-11.0868
宣言	-11.0868
柿	-11.0868
蛾	-11.0868
桶	-11.0868
ジョーンズ	-11.0868
動揺	-11.0868
鮓	-11.0868
颪	-11.0868
北海道	-11.0868
覚悟	-11.0868
漢方薬	-11.0868
の持ち主	-11.0869
あく	-11.0869
領域	-11.0869
を伴う	-11.0869
叩き	-11.0869
警告	-11.0869
久子さん	-11.087
接触	-11.087
超過	-11.087
徹底的に	-11.087
討議	-11.087
煮た	-11.087
登録	-11.087
成果	-11.087
直径	-11.0871
ヒット	-11.0871
往来	-11.0871
弁舌	-11.0872
カラー	-11.0872
▁ポ	-11.0872
付近	-11.0872
を有する	-11.0873
石けん	-11.0873
運営	-11.0874
炭素	-11.0874
やわらかい	-11.0874
を奪う	-11.0874
茶わん	-11.0875
マイ	-11.0878
ぐっと	-11.0879
するだろう	-11.0882
けれども	-11.0883
またその人	-11.0883
▁人民	-11.0884
飲んだ	-11.0884
外観	-11.0885
を伸ばす	-11.0885
自治	-11.0886
ようになっている	-11.0887
▁この車は	-11.0887
雇用	-11.0888
会談	-11.0888
ばば	-11.0891
廻	-11.0891
赤ちゃん	-11.0891
サン	-11.0892
街道	-11.0892
広がる	-11.0892
を固める	-11.0892
正確な	-11.0894
▁ハイ	-11.0895
馴れ	-11.0895
磁石	-11.0895
▁商品	-11.0896
▁実験	-11.0896
情熱	-11.0897
代表的な	-11.0898
質量	-11.0899
機関車	-11.09
上位	-11.09
それをする人	-11.09
▁重い	-11.09
かせた	-11.0902
だれが	-11.0906
を使い	-11.0908
ものはない	-11.0908
刻み	-11.0908
かわい	-11.0909
山林	-11.091
▁医者	-11.091
▁独	-11.0911
焦げ	-11.0911
変化する	-11.0911
社会的	-11.0914
地所	-11.0916
はじめて	-11.0917
骨折り	-11.0917
仕上げる	-11.092
割引	-11.0921
音階	-11.0922
名称	-11.0922
洗礼	-11.0923
大使	-11.0924
現世	-11.0925
神戸	-11.0925
台風	-11.0928
クラスの	-11.093
生計	-11.0931
相違	-11.0931
馬車	-11.0931
取り上げる	-11.0933
ぐさ	-11.0933
麻薬	-11.0935
たての	-11.0937
▁汗	-11.0937
臭気	-11.094
すわった	-11.094
巧みな	-11.0942
直接に	-11.0942
ar	-11.0943
▁飛行機	-11.0943
いり	-11.0944
意を表す語	-11.0944
疲れる	-11.0944
車に	-11.0946
ぬけ	-11.0947
フランス	-11.0947
のしかた	-11.0948
演奏する	-11.095
▁子供を	-11.0952
ついに	-11.0953
▁あなたに	-11.0954
を支配する	-11.0954
並べた	-11.0954
周囲に	-11.0956
▁競	-11.0957
▁しゅ	-11.096
を聞いた	-11.0962
の第	-11.0963
▁新たに	-11.0963
見ると	-11.0966
いかない	-11.0969
の病気	-11.0969
これが	-11.0971
に訴える	-11.0972
▁賃金	-11.0973
栽培する	-11.0976
▁町の	-11.0976
すら	-11.0981
▁大勢	-11.0986
巧みに	-11.0987
▁天皇が	-11.0994
たたく	-11.0995
▁人工	-11.0999
じょう	-11.0999
▁あの人の	-11.1001
▁明日の天気	-11.1001
正式に	-11.1002
を寄せる	-11.1005
▁強く	-11.1006
▁裁判	-11.1009
法定	-11.1011
二十	-11.1011
雨で	-11.1013
ばかりだ	-11.1013
は非常に	-11.1015
を組む	-11.1018
▁トランプ	-11.1019
▁浅	-11.1022
去った	-11.1023
を過ごす	-11.1024
精神的	-11.1024
追放	-11.1026
けない	-11.1029
音を立てる	-11.1031
香気	-11.1032
関数	-11.1033
へりくだって言う語	-11.1034
ファン	-11.1036
▁速	-11.1037
▁中国の	-11.1041
は私に	-11.1044
▁頭を	-11.1046
ショートメッセージを送	-11.1047
会った	-11.1048
を隠す	-11.105
ごらん	-11.105
光る	-11.1055
回って	-11.1056
▁猛	-11.1056
ものであること	-11.1057
が激しく	-11.1057
を振る	-11.1059
の形式	-11.1061
乗り物	-11.1061
ちょっと電話する	-11.1067
議事	-11.1067
まっすぐ	-11.1067
伸びる	-11.1069
まち	-11.1071
本来の	-11.1072
▁近代	-11.1075
ことには	-11.1075
くさい	-11.1076
▁悲しみ	-11.1076
▁張り	-11.1076
▁上着	-11.1077
立ち去る	-11.1078
に出す	-11.108
▁つい	-11.1082
人工	-11.1082
ふさが	-11.1084
知性	-11.1084
かぶる	-11.1084
▁はっきりと	-11.1089
▁折	-11.109
長官	-11.1093
等しい	-11.1095
うんざり	-11.1096
▁実際の	-11.1096
に従事する	-11.1097
守ること	-11.1099
▁全体	-11.1099
▁国会	-11.11
押して	-11.11
▁プロ	-11.1101
覚えている	-11.1103
斜面	-11.1103
を唱える	-11.1105
ように見える	-11.1106
トロ	-11.1107
▁ぶどう	-11.1107
呼	-11.1108
ばな	-11.1109
▁軍事	-11.1112
バイ	-11.1113
誘惑	-11.1113
煮る	-11.1115
物音	-11.1117
病気が	-11.1117
調べる	-11.1118
▁わが国	-11.1118
はだめだ	-11.112
に働く	-11.1121
ばかりで	-11.1121
の値	-11.1122
下り	-11.1123
昇進	-11.1123
▁羽	-11.1124
▁水上	-11.1125
要点	-11.1129
窓から	-11.1129
似た	-11.1131
報い	-11.1131
▁標準	-11.1134
商品を	-11.1135
をひく	-11.1135
▁沈	-11.1135
▁熟	-11.1136
変わらない	-11.1143
▁夏の	-11.1146
小道	-11.1147
光の	-11.1148
の時代	-11.115
▁幼	-11.115
わずかな	-11.1152
25	-11.1155
▁そうだ	-11.1155
たまった	-11.1157
再生	-11.1159
を持たない	-11.1164
キリスト	-11.1164
▁ビ	-11.1164
の建物	-11.1165
▁古代	-11.1165
不法	-11.1166
ためしに	-11.1168
▁液体	-11.1168
依頼	-11.1172
さまざま	-11.1173
共同	-11.1179
償	-11.1181
タイプ	-11.1182
その地方	-11.1183
を見つける	-11.1184
▁食糧	-11.1184
▁からだ	-11.1184
そく	-11.1184
礼拝	-11.1186
誕生日	-11.1186
利き	-11.1186
なくても	-11.1188
▁たん	-11.119
焼いて	-11.1191
▁手紙を	-11.1191
学校で	-11.1193
対抗	-11.1194
溶	-11.1194
大事に	-11.1199
つくった	-11.1203
借りた	-11.1204
▁準	-11.1205
▁彼は病気	-11.1205
一部分	-11.1205
▁魔	-11.1205
ちょうどよい	-11.1206
彼らに	-11.1206
出世	-11.1207
▁ろう	-11.1207
のではない	-11.1209
金を使う	-11.1211
飾る	-11.1211
隔	-11.1212
にまで	-11.1213
ないでください	-11.1213
▁笑い	-11.1218
▁人種	-11.1219
送ること	-11.122
an	-11.122
粗末な	-11.1221
膝	-11.1223
危	-11.1224
▁猫は	-11.1224
礼儀	-11.1224
▁すべての	-11.1225
貧困	-11.1225
を与えて	-11.1225
誠	-11.1226
▁竜	-11.1227
気づか	-11.1228
れんが	-11.1228
▁まったくの	-11.1229
禅	-11.1229
お世辞	-11.123
を受けている	-11.123
昼食	-11.123
▁雪が	-11.1231
▁全部	-11.1231
総合	-11.1232
合併	-11.1233
▁早く	-11.1233
伝えること	-11.1233
の気温	-11.1233
恋愛	-11.1235
複雑	-11.1236
文芸	-11.1237
発生する	-11.1237
慈悲	-11.1238
万物	-11.124
でメッセ送	-11.1243
をあけて	-11.1244
▁その後	-11.1244
暴力	-11.1245
▁第一	-11.1245
▁相撲	-11.1245
賛	-11.1246
予期	-11.1248
一文	-11.1248
制服	-11.125
団結	-11.1251
許す	-11.1253
巻く	-11.1255
▁警察は	-11.1255
展	-11.1255
長所	-11.1256
▁英語の	-11.1256
掃	-11.1256
いまから電話をかける	-11.1256
を忘れる	-11.1257
何度も	-11.1259
▁me	-11.1259
あな	-11.126
やせ	-11.126
しています	-11.1261
刑事	-11.1261
続け	-11.1261
うる	-11.1261
ずること	-11.1262
斜めに	-11.1262
材木	-11.1262
▁フランス	-11.1263
スキー	-11.1264
▁難	-11.1264
▁it	-11.1264
拠	-11.1265
▁川の	-11.1265
代わりに	-11.1267
とされる	-11.1267
▁男の	-11.1267
蒸気	-11.1268
の中には	-11.1268
▁不思議な	-11.1268
▁干	-11.1269
ウェッブページ置	-11.1269
儒	-11.1269
うわべ	-11.127
▁食事	-11.127
生える	-11.1272
偶	-11.1277
山形	-11.1277
ひろ	-11.1277
僚	-11.1278
鑑	-11.1279
を表す語	-11.1279
兆	-11.1279
おそ	-11.1279
食べて	-11.1279
間に合う	-11.1279
▁人は	-11.128
風が	-11.128
括	-11.1281
江	-11.1281
邸	-11.1282
一心に	-11.1282
河川	-11.1283
免許	-11.1283
サラダ	-11.1283
誌	-11.1284
はなはだしい	-11.1284
石灰	-11.1284
櫃	-11.1284
詐欺	-11.1284
督	-11.1285
適応	-11.1285
嵐	-11.1285
ゾ	-11.1285
働いている	-11.1285
落ち着かない	-11.1285
佳	-11.1285
屑	-11.1285
新浦安	-11.1285
鷲	-11.1285
唾	-11.1285
鮗	-11.1285
にもかかわらず	-11.1285
せっけん	-11.1285
▁そいつは	-11.1285
余裕	-11.1285
広がり	-11.1285
倉敷	-11.1285
拒絶	-11.1285
思慮	-11.1286
プール	-11.1286
採決	-11.1286
移植	-11.1286
供養	-11.1286
土壌	-11.1286
審理	-11.1286
冷却	-11.1286
起訴	-11.1287
麻酔	-11.1287
弁当	-11.1287
の群れ	-11.1287
拒否	-11.1287
諸島	-11.1287
側面	-11.1287
を高める	-11.1288
ダム	-11.1288
詳しい	-11.1288
ならわし	-11.1288
陣営	-11.1288
▁やっと	-11.1288
感想	-11.1289
談判	-11.1289
セ氏	-11.1289
土地を	-11.129
千代	-11.129
定まった	-11.129
福島	-11.129
推論	-11.1291
追跡	-11.1291
まともに	-11.1292
配給	-11.1292
何時間も	-11.1293
科の鳥	-11.1294
修正	-11.1294
色彩	-11.1294
▁伝	-11.1294
ペンス	-11.1294
能率	-11.1295
共有	-11.1295
祖先	-11.1295
ジャ	-11.1297
▁信用	-11.1297
▁今日の湿度	-11.1297
を振るう	-11.1299
早春	-11.1299
を詰める	-11.1301
善悪	-11.1301
▁市場	-11.1302
ぶき	-11.1302
までの間	-11.1302
自在	-11.1303
中国原産	-11.1303
卵を	-11.1304
特権	-11.1305
奥さん	-11.1305
気象	-11.1307
校長	-11.1309
るようにする	-11.1309
設ける	-11.1313
毛布	-11.1315
氏名	-11.1318
▁壁に	-11.1318
一気に	-11.1318
に乏しい	-11.1323
料理屋	-11.1323
天地	-11.1324
かぎり	-11.1324
ところを	-11.1325
▁時計を	-11.1326
親しい	-11.1327
▁海外	-11.1328
▁会員	-11.1329
▁彼は今	-11.133
定めること	-11.133
こな	-11.1331
針金	-11.1331
やってくる	-11.1331
▁費用	-11.1332
一族	-11.1332
どうやって	-11.1334
死体	-11.1335
を犯す	-11.1337
お宅	-11.1337
▁彼女は夫	-11.1338
破り	-11.1338
になるもの	-11.1338
▁元気かいの私の予約	-11.134
あける	-11.134
木の枝	-11.134
落とした	-11.1341
▁二つ以上の	-11.1341
▁林	-11.1341
交差	-11.1341
の一人	-11.1344
ねた	-11.1345
外国人	-11.1346
用法	-11.1347
切れる	-11.1349
酸性	-11.1351
スク	-11.1351
んでいた	-11.1351
巻いた	-11.1352
の少ない	-11.1356
の身	-11.1357
食物を	-11.1359
太り	-11.1361
につくこと	-11.1362
で写真を送	-11.1362
だけだった	-11.1364
の成績	-11.1364
発車	-11.1365
両面	-11.1367
を振り	-11.1368
責め	-11.1368
子孫	-11.137
テレビで	-11.1371
▁強い	-11.1371
成り	-11.1373
っていく	-11.1374
出ている	-11.1379
流す	-11.138
▁踏み	-11.1381
専門家	-11.1382
このあたり	-11.1383
▁欠	-11.1384
▁晩	-11.1385
トラ	-11.1386
▁彼らが	-11.1386
ご親切	-11.1386
返して	-11.1386
▁観	-11.1387
公正	-11.1388
大宮	-11.1388
▁六	-11.1391
▁この仕事は	-11.1392
飲み物	-11.1399
去ること	-11.14
国民の	-11.1401
魚の	-11.1401
退く	-11.1402
すわり	-11.1403
の練習	-11.1405
▁水泳	-11.1414
▁少年	-11.1415
▁旅館	-11.1415
存する	-11.1417
▁君たち	-11.1421
口調で	-11.1421
ガン	-11.1421
みせ	-11.1424
家で	-11.1424
合金	-11.1424
を占める	-11.1427
当地	-11.1428
なしで	-11.1428
▁食卓	-11.143
と思っていた	-11.143
全面	-11.143
▁助	-11.143
子供が	-11.1431
▁筋肉	-11.1431
んぼ	-11.1432
我々を	-11.1434
よけ	-11.1435
を消す	-11.1436
道は	-11.1438
ようにすること	-11.1439
肉体	-11.1442
▁彼女は彼に	-11.1445
とかく	-11.1445
問題だ	-11.1447
いれる	-11.1449
▁捨て	-11.1449
▁その計画は	-11.145
▁ほう	-11.1451
忘れる	-11.1451
を覆う	-11.1452
▁人気	-11.1453
外国から	-11.1455
所がある	-11.1458
国家が	-11.1458
アメリカ人	-11.1458
支払う	-11.1462
楽な	-11.1462
きたない	-11.1465
大体の	-11.1465
金は	-11.1465
▁返	-11.1468
文子	-11.1469
割合	-11.1472
▁階段	-11.1472
▁事件	-11.1472
暗やみ	-11.1473
文を	-11.1474
▁飛	-11.1475
▁陽	-11.1475
千人	-11.1476
▁皮	-11.1477
字形	-11.1477
遠くまで	-11.1479
停車	-11.1482
差し出す	-11.1484
ひた	-11.1487
▁実際に	-11.1488
▁ボ	-11.1488
太く	-11.1489
お手	-11.1489
▁中央	-11.149
純粋	-11.149
▁ちょっとした	-11.1492
対等	-11.1496
いすに	-11.1497
▁風は	-11.15
遇	-11.1502
の妻	-11.1504
▁群	-11.1505
いません	-11.1506
歯が	-11.1509
憲	-11.151
世に	-11.151
▁□・	-11.1512
意を表す	-11.1514
▁列	-11.1516
多いこと	-11.1517
新年	-11.1518
に耐える	-11.152
たって	-11.1521
社会主義	-11.1521
▁順序	-11.1521
を変えること	-11.1522
▁建物の	-11.1522
なぜ	-11.1523
争うこと	-11.1523
目下	-11.1523
▁ある人	-11.1524
探	-11.1526
受け入れる	-11.153
をしていた	-11.1533
アン	-11.1534
腫	-11.1535
がいる	-11.1538
まっている	-11.154
安く	-11.1542
▁酒を	-11.1544
に直接	-11.1544
を変えて	-11.155
▁夫	-11.1552
ものを言う	-11.1553
のだろう	-11.1556
をひどく	-11.1556
ほし	-11.1559
▁そんなことは	-11.1559
腕に	-11.156
▁うわさ	-11.156
すぐに送信	-11.1561
直すこと	-11.1561
他国	-11.1562
品位	-11.1564
枯	-11.1565
離れた	-11.1565
を伝える	-11.1566
務め	-11.1567
▁二つ	-11.1569
喜	-11.1578
学ぶ	-11.158
されていない	-11.1582
近づく	-11.1584
▁嫁	-11.1585
投	-11.1585
いか	-11.1585
書類を	-11.1587
すわって	-11.1587
▁だれかが	-11.1588
毛織物	-11.1589
をもった	-11.1591
▁照	-11.1591
断わる	-11.1591
の口	-11.1591
▁皇	-11.1599
隔て	-11.1601
▁休暇	-11.1602
調節	-11.1602
▁投票	-11.1603
を催す	-11.161
ことができた	-11.1617
▁三角	-11.1618
注目	-11.1618
▁たい	-11.1618
▁手紙の	-11.1619
しだ	-11.1619
学説	-11.162
に当たった	-11.1621
遅く	-11.1621
▁産	-11.1621
―	-11.1622
▁ねじ	-11.1623
顧	-11.1625
マス	-11.1629
求める	-11.1631
テレビの	-11.1632
ボートを	-11.1633
▁フォ	-11.1634
を言った	-11.1634
にふさわしい	-11.1635
社会の	-11.1639
at	-11.1641
三人	-11.1642
は私には	-11.1642
痛む	-11.1643
▁夜の	-11.1643
驚	-11.1644
▁平塚	-11.1647
最上	-11.1649
▁相手に	-11.1649
工作	-11.1651
わずかの	-11.1651
の法則	-11.1653
▁大声で	-11.1655
▁ペン	-11.1656
▁引っ	-11.1659
を焼く	-11.1661
▁子供の	-11.1661
▁特別に	-11.1663
図書	-11.1666
帰って	-11.1667
果て	-11.1667
▁ユ	-11.1668
お辞儀	-11.167
ぜいたく	-11.167
を引き起こす	-11.1671
合わせること	-11.1672
▁注文	-11.1673
レン	-11.1674
担当	-11.1675
充	-11.1676
▁機会	-11.1676
▁推	-11.1676
賞賛	-11.1677
ままで	-11.1677
▁ケアマネージャ	-11.1678
学期	-11.1679
は日本	-11.1679
同じであること	-11.1679
にせ	-11.168
の幅	-11.1682
▁鉛筆	-11.1682
家事	-11.1683
返り	-11.1683
ちょっと電話かける	-11.1684
漆	-11.1685
飼	-11.1686
うそつき	-11.1686
佐	-11.1686
の祝い	-11.169
弁解	-11.169
法人	-11.1691
してくれる	-11.1691
遅刻	-11.1692
にやる	-11.1692
患	-11.1692
パーティーに	-11.1694
の字	-11.1694
楽に	-11.1695
役に立	-11.1696
呉	-11.1696
の根	-11.1697
できません	-11.1697
告げ	-11.1697
仙	-11.1698
役割	-11.1699
統計	-11.1699
ことがない	-11.1699
寄	-11.17
外へ	-11.17
就	-11.1702
異議	-11.1702
民衆	-11.1703
故郷	-11.1703
真偽	-11.1703
をやめて	-11.1704
巾	-11.1707
拙	-11.1709
頬	-11.1709
架	-11.1709
ント	-11.1709
もてなす	-11.1709
もつれ	-11.1709
▁精神的	-11.171
謡	-11.1711
井戸	-11.1711
援	-11.1711
釈	-11.1713
規準	-11.1714
為替	-11.1714
電信	-11.1714
三つの	-11.1714
ヨット	-11.1715
▁ちょっと電話する	-11.1715
寺の	-11.1716
画像	-11.1716
頻	-11.1717
▁月が	-11.1717
省略	-11.1718
諾	-11.1718
己	-11.1718
意思	-11.1718
りょう	-11.1718
改良	-11.1718
篤	-11.1719
陸軍	-11.1719
疑わしい	-11.1719
センター	-11.1719
推	-11.1719
糊	-11.1719
猶予	-11.1719
撫	-11.1719
鮨	-11.1719
に適した	-11.1719
昂	-11.1719
▁あの安全度のチェック自己診断	-11.1719
ヲ	-11.1719
オランダ	-11.1719
マラリア	-11.1719
直美さん	-11.1719
舷	-11.1719
配偶者	-11.1719
蟻	-11.1719
茶碗	-11.172
▁勢い	-11.172
宣誓	-11.172
大急ぎで	-11.172
俸給	-11.172
プログラム	-11.172
稽古	-11.172
こつこつ	-11.172
焦点	-11.172
暖房	-11.172
ぼろぼろ	-11.172
企画	-11.172
やかましい	-11.172
が多かった	-11.172
福岡	-11.1721
起伏	-11.1721
感染	-11.1721
ダブル	-11.1721
同様	-11.1721
開閉	-11.1721
チュ	-11.1721
1000	-11.1721
ジャック	-11.1721
融通	-11.1721
返答	-11.1722
水晶	-11.1722
助かる	-11.1722
孝行	-11.1722
住居	-11.1722
敗北	-11.1722
弦楽器	-11.1722
仏像	-11.1722
ほほえみ	-11.1722
給仕	-11.1722
肺炎	-11.1722
羽織	-11.1722
航路	-11.1722
宮殿	-11.1723
しきたり	-11.1723
▁町田	-11.1723
暴風雨	-11.1723
バンド	-11.1723
推進	-11.1723
迷信	-11.1723
わがまま	-11.1723
たいへん	-11.1723
集める	-11.1724
測量	-11.1724
学識	-11.1724
英語を話す	-11.1724
書かれた	-11.1724
▁陸軍	-11.1725
コードのページをすぐ	-11.1725
に基づく	-11.1725
あわてて	-11.1725
講師	-11.1725
ウェッブページをすぐ	-11.1725
牧師	-11.1725
関内	-11.1726
道ばた	-11.1726
▁平均	-11.1727
別称	-11.1727
およそ	-11.1728
女優	-11.1728
握手	-11.1728
すこし	-11.1729
産卵	-11.1729
警報	-11.1729
熱狂	-11.173
特性	-11.1732
うちわ	-11.1732
ひび	-11.1733
樹皮	-11.1733
領地	-11.1735
を離れる	-11.1735
▁恐怖	-11.1736
複数	-11.1738
艦船	-11.1738
▁私は彼に	-11.1738
重なる	-11.1739
うまくいった	-11.1739
微妙な	-11.1739
神秘	-11.174
食塩	-11.174
退職	-11.1742
と言っても	-11.1742
すぐに電話をかける	-11.1745
ききめ	-11.1745
化石	-11.1746
ちょっと送信	-11.1747
小銃	-11.1747
をちょっと	-11.1747
好機	-11.175
食事を	-11.175
二階	-11.1752
教室	-11.1752
の形に	-11.1753
案外	-11.1757
大津	-11.1758
をしない	-11.1759
▁何を	-11.1759
▁何でも	-11.176
体質	-11.1761
るために	-11.1762
済む	-11.1763
中島	-11.1767
必要である	-11.1767
指名	-11.1768
・△	-11.177
万人	-11.1771
紅葉	-11.1771
万ドル	-11.1772
高等	-11.1772
の命令	-11.1774
ぬれ	-11.1775
▁付け	-11.1776
あす	-11.1776
にわか	-11.1778
よみ	-11.1778
それとも	-11.178
▁隣	-11.178
は彼が	-11.1781
設け	-11.1783
水辺	-11.1784
▁攻撃	-11.1785
を越える	-11.1788
▁ヘルプ	-11.179
警察を呼ぶ	-11.179
大切	-11.1791
▁いなか	-11.1792
香り	-11.1792
ざる	-11.1793
体つき	-11.1793
の場合	-11.1793
発達した	-11.1793
関係がある	-11.1794
組み合わせ	-11.1794
変わる	-11.1795
努力して	-11.1795
染色	-11.1796
通話	-11.1797
の便	-11.1801
波が	-11.1803
サイ	-11.1805
かぶり	-11.1805
を強めて言う	-11.1806
en	-11.1807
時に使う	-11.1808
会見	-11.1813
どうした	-11.1813
は我々	-11.1815
はしご	-11.1816
与えられる	-11.1816
の布	-11.1816
の高さ	-11.1817
判事	-11.1818
を買い	-11.1819
おこす	-11.182
頑	-11.1821
何度	-11.1822
もく	-11.1823
が終わる	-11.1824
なのか	-11.1827
むやみに	-11.1828
手紙を書く	-11.1828
全体が	-11.1829
▁浄	-11.1829
すべ	-11.1832
をあらわす	-11.1836
耐え	-11.1836
使用する	-11.1837
かかっている	-11.1837
張って	-11.1838
すべり	-11.184
▁夕方	-11.1844
のうわさ	-11.1844
抜け出	-11.1845
しっと	-11.1846
▁弾丸	-11.1847
駐車場	-11.1848
言論	-11.1848
▁in	-11.1854
面から	-11.1855
鬚垢	-11.1855
世界の	-11.1857
果実は	-11.1859
ていく	-11.186
を始めた	-11.1861
▁シャ	-11.1863
ばく	-11.1865
▁そこに	-11.1867
重さ	-11.1867
バン	-11.1867
の先に	-11.187
ブレーキ	-11.1871
▁香	-11.1872
動くこと	-11.1873
漫画	-11.1876
▁逸	-11.1877
▁凡	-11.1878
気持が	-11.1879
形成	-11.1882
行きたい	-11.1882
個人の	-11.1885
メッセージいまから	-11.1886
の雨	-11.1887
▁火の	-11.1888
暖か	-11.189
目的地	-11.1891
初期	-11.1893
ップ	-11.1894
▁寒さ	-11.1894
万事	-11.1896
教える	-11.1896
に代わって	-11.1896
まかせ	-11.1897
意外	-11.1897
うしろ	-11.1903
愉快	-11.1903
シン	-11.1903
▁宣伝	-11.1904
es	-11.1905
前線	-11.1906
ボン	-11.1906
群がって	-11.1906
決して	-11.1907
▁田舎	-11.1909
▁十分に	-11.191
滑り	-11.1912
なしの	-11.1914
ずれ	-11.1915
つもりで	-11.1916
の内側	-11.1917
考えた	-11.192
やってみ	-11.1923
お互いに	-11.1924
ルト	-11.1924
先が	-11.1925
整理する	-11.1925
キス	-11.1926
たびに	-11.1926
時半	-11.1926
の品	-11.1934
帰った	-11.1934
▁金属	-11.1936
慎重に	-11.1938
▁蹴	-11.194
のかたまり	-11.194
ふな	-11.1941
▁授業	-11.1946
▁ぜひ	-11.1948
▁予備	-11.195
いかに	-11.1952
居る	-11.1955
▁何も	-11.1955
苗	-11.1956
いれ	-11.1957
いろいろと	-11.1957
のように見える	-11.1958
分に	-11.1958
の動物	-11.196
産の	-11.196
につけた	-11.1966
▁彼はよく	-11.1967
▁四つ	-11.1967
信者	-11.1969
▁7	-11.1974
心中	-11.1974
むり	-11.1974
ゆくこと	-11.1977
荷車	-11.1981
あれこれ	-11.1982
確かめ	-11.1983
ほめる	-11.1984
に向かう	-11.1988
▁追い	-11.1988
天然	-11.1988
るところ	-11.1989
加える	-11.199
そなえ	-11.199
嫌いだ	-11.199
働きをする	-11.1992
がさ	-11.1992
面倒	-11.1993
守備	-11.1993
▁今度	-11.1994
▁一年	-11.1994
▁ドイツ	-11.1994
かけら	-11.1994
効力	-11.1995
少数	-11.1998
骨折	-11.1998
完全	-11.1998
のこ	-11.2
行きの	-11.2001
うた	-11.2002
▁この本	-11.2006
▁陰暦	-11.2007
を並べて	-11.2008
繰り返して	-11.2011
染	-11.2011
▁宝	-11.2011
にできる	-11.2015
一等	-11.2016
こび	-11.202
作文	-11.202
芸人	-11.2021
十字	-11.2024
一対	-11.2025
っけ	-11.2025
対立する	-11.2026
海面	-11.2026
起こること	-11.2027
秋の	-11.2032
に分ける	-11.2032
貧しい	-11.2037
受け入れ	-11.204
本式	-11.2042
いやだ	-11.2044
▁頭の	-11.2044
で見る	-11.2044
むだな	-11.2046
保つ	-11.2046
て行く	-11.2051
けり	-11.2052
を流す	-11.2054
を貸す	-11.2056
載せる	-11.2058
文字を	-11.2059
医者に	-11.2059
報告書	-11.2063
▁遠慮	-11.2064
下着	-11.2064
てやる	-11.2067
吐き	-11.2067
たね	-11.2067
食事をする	-11.2067
▁違います	-11.2068
をあける	-11.2068
優劣	-11.2069
先端	-11.207
を聞き	-11.207
総計	-11.2071
▁高く	-11.2072
▁本の	-11.2073
ょ	-11.2078
▁粘土	-11.2078
詩文	-11.2079
▁巡	-11.2081
ことのできる	-11.2083
のがれ	-11.2083
つぐ	-11.2086
変な	-11.2087
たない	-11.2087
▁体を	-11.2093
▁事故	-11.2093
言っている	-11.2094
海水	-11.2094
そのための	-11.2095
を見つけた	-11.2102
ゆっくりと	-11.2103
のほかに	-11.2103
斬	-11.2108
殺すこと	-11.2108
を組んで	-11.2108
を要する	-11.2111
▁朱	-11.2112
けつ	-11.2113
座る	-11.2114
たりすること	-11.2114
とするもの	-11.2115
探検	-11.2116
よくなる	-11.2116
はやり	-11.2116
話に	-11.2118
決まった	-11.2119
大勢の	-11.212
堀	-11.212
▁手を	-11.212
▁彼は金	-11.2121
or	-11.2121
せること	-11.2123
催し	-11.2126
▁ここは	-11.2134
長い間	-11.2134
▁元気かい予約変更	-11.2134
▁蛇	-11.2135
出発する	-11.2139
▁みかん	-11.214
▁梅	-11.2141
▁遅	-11.2141
の湿度	-11.2141
熱病	-11.2145
着物の	-11.2145
いも	-11.2147
岡	-11.2148
▁それは君の	-11.2149
に通じ	-11.2151
三角	-11.2152
なければいけない	-11.2153
船の	-11.2154
真の	-11.2156
▁体の	-11.2157
徹底	-11.2157
寿	-11.2158
家畜	-11.2158
ーター	-11.2159
▁長い間	-11.2162
とがめ	-11.2163
▁観光	-11.2164
和服	-11.2164
厭	-11.2165
署	-11.2165
▁そら	-11.2166
祈り	-11.2166
口をきく	-11.2167
気配	-11.2167
億	-11.2168
怨	-11.2168
産する	-11.2169
幣	-11.217
慣習	-11.217
堕落	-11.2172
ッシュ	-11.2172
酌	-11.2172
ドラッグストア	-11.2172
痴	-11.2173
寛	-11.2173
発揮	-11.2173
▁台風	-11.2173
渇	-11.2173
妓	-11.2173
粛	-11.2173
撰	-11.2173
▁海岸	-11.2173
錫	-11.2174
糠	-11.2174
チェス	-11.2174
叉	-11.2174
January	-11.2174
システム	-11.2174
蛋白質	-11.2174
讚	-11.2174
廚	-11.2174
▁あの安全度の自己診断	-11.2174
▁船舶	-11.2174
じゃがいも	-11.2174
ワイシャツ	-11.2174
葦	-11.2174
▁えー安全度のチェック自己診断	-11.2174
▁んー使い方の自己診断	-11.2174
キツネ	-11.2174
チャンス	-11.2174
杭	-11.2174
蕨	-11.2174
瓜	-11.2174
蝕	-11.2174
鹿児島	-11.2174
おもむき	-11.2174
を汚す	-11.2174
恐ろしさ	-11.2174
×	-11.2174
慾	-11.2174
平安時代	-11.2174
鞍	-11.2174
狐	-11.2174
▁あの安全度のチェックチェック	-11.2174
でたらめ	-11.2174
セールスマン	-11.2174
ひたすら	-11.2174
措置	-11.2174
あやまち	-11.2174
簡易	-11.2174
燃焼	-11.2174
スケート	-11.2174
摩擦	-11.2174
営利	-11.2175
形容詞	-11.2175
救済	-11.2175
工芸	-11.2175
装備	-11.2175
ソース	-11.2175
千代さん	-11.2176
類似	-11.2176
防衛	-11.2176
雨が降る	-11.2176
まあまあ	-11.2176
砂漠	-11.2176
著しい	-11.2176
▁その船は	-11.2176
あやしい	-11.2177
々しく	-11.2177
武装	-11.2177
情緒	-11.2177
▁去年	-11.2178
強制	-11.2178
冷淡	-11.2178
プラス	-11.2179
視野	-11.2179
造った	-11.2179
電池	-11.2179
雌雄	-11.2179
調理	-11.2179
本人	-11.2179
さつ	-11.2179
都会	-11.2179
円満	-11.2179
ウェッブページすぐ	-11.218
池袋	-11.218
英語で	-11.2182
が来た	-11.2182
各自	-11.2183
建造物	-11.2183
辞任	-11.2183
漬物	-11.2184
変種	-11.2184
所沢	-11.2184
ケアマネージャ	-11.2185
にかなった	-11.2186
ののしる	-11.2187
雄弁	-11.2188
るもの	-11.2188
▁鉱山	-11.2188
一時的に	-11.2189
平たく	-11.2189
不機嫌	-11.2191
たとえば	-11.2191
▁トラック	-11.2191
伴奏	-11.2191
どころか	-11.2191
偉い	-11.2192
▁彼らは彼を	-11.2192
おとな	-11.2192
不景気	-11.2192
奇跡	-11.2193
裂く	-11.2194
▁書物	-11.2195
鼠	-11.2197
道義	-11.2197
へた	-11.2197
好奇心	-11.2197
なんと	-11.2198
会計	-11.2199
倫理	-11.2199
統治	-11.22
▁染め	-11.2201
持ち上げる	-11.2201
浴び	-11.2201
流通	-11.2202
申し立て	-11.2202
を祝う	-11.2203
伏せ	-11.2204
豪	-11.2205
卑	-11.2205
淫	-11.2205
泊まる	-11.2205
どれほど	-11.2206
個ある	-11.2206
商店	-11.2207
の壁	-11.2207
続いている	-11.2207
教養	-11.2207
衛生	-11.2207
で写真をちょっと	-11.2207
結婚した	-11.2208
月給	-11.2208
妊娠	-11.2209
打った	-11.2209
▁凍	-11.2211
経文	-11.2211
寂	-11.2211
ユ	-11.2212
組んだ	-11.2212
客が	-11.2213
驚いて	-11.2214
含み	-11.2216
自分たち	-11.2217
くらいの	-11.2217
召使	-11.2218
育てる	-11.222
の世話をする	-11.2221
ったりして	-11.2221
一日中	-11.2222
空港	-11.2222
記憶力	-11.2222
批評家	-11.2223
じめ	-11.2223
▁針	-11.2223
もっともな	-11.2223
元気かい予約変更	-11.2224
▁彼は自分が	-11.2225
延び	-11.2225
人員	-11.2225
はだれも	-11.2226
を養う	-11.2226
▁野菜	-11.2227
刊行	-11.2227
▁あの人	-11.2227
大塚	-11.2228
所在	-11.2228
救急車呼んで呼びに電話	-11.2228
課税	-11.2228
こじき	-11.2229
偽り	-11.223
見張り	-11.2231
▁彼女はいつも	-11.2231
ぞう	-11.2233
毛糸	-11.2233
向上	-11.2235
▁主人	-11.2237
海軍	-11.2237
で話す	-11.2238
出来る	-11.2239
目盛り	-11.224
立法	-11.2241
▁漢字	-11.2241
戦線	-11.2245
ちょっと電話をかける	-11.2245
半分に	-11.2248
止ま	-11.225
現状	-11.2251
だけが	-11.2251
五月	-11.2252
へたな	-11.2252
たてる	-11.2253
の転	-11.2253
てゆく	-11.2254
おかね	-11.2254
の立場	-11.2256
ふるい	-11.2257
24	-11.2261
をねらって	-11.2261
した人	-11.2261
▁年の	-11.2262
は少しも	-11.2264
十六	-11.2264
一見	-11.2265
を運ぶ	-11.2268
彼にとって	-11.2269
賢い	-11.2271
うるさく	-11.2272
手腕	-11.2272
とがった	-11.2272
▁be	-11.2274
声が	-11.2275
その本を	-11.2275
▁法廷	-11.2277
に落ちる	-11.228
▁行政	-11.228
が多くて	-11.2281
▁今日の気温	-11.2281
かなければならない	-11.2283
やること	-11.2284
に耐え	-11.2285
カリ	-11.2286
しすぎる	-11.2287
▁登	-11.2287
不快な	-11.2288
▁お茶	-11.229
現金	-11.2291
生まれる	-11.2291
行進	-11.2294
魚類	-11.2296
を示した	-11.2296
の気候	-11.2296
席を	-11.2297
▁農	-11.2301
運んだ	-11.2306
ところです	-11.2306
目玉	-11.2307
▁今から	-11.2307
▁これから	-11.2309
▁彼はなかなか	-11.2311
特別な	-11.2311
離す	-11.2313
一致しない	-11.2315
光沢	-11.2315
宿屋	-11.2317
▁ごみ	-11.2317
動物の	-11.2318
武家	-11.2318
ませて	-11.2322
事務を	-11.2324
▁ここで	-11.2325
気分が	-11.2325
▁歩	-11.2325
でございます	-11.2331
▁誤	-11.2333
過去の	-11.2335
▁アメリカの	-11.2338
▁彼女は私の	-11.234
の内部	-11.2343
乗った	-11.2344
▁焼け	-11.2344
てくれ	-11.2344
心得	-11.2347
茶色の	-11.2348
▁政府の	-11.2349
性的	-11.2351
▁除	-11.2351
数の	-11.2351
▁情報	-11.2352
をまく	-11.2353
▁高級	-11.2353
離れない	-11.236
庭に	-11.2363
寝ること	-11.2364
を打って	-11.2365
つもりです	-11.2365
科の哺乳動物	-11.2366
意地悪	-11.2367
はすっかり	-11.2368
導体	-11.237
売ること	-11.2372
が欲しい	-11.2373
を免れる	-11.2374
につけて	-11.2375
▁タ	-11.2375
ステ	-11.2379
心の中	-11.2381
主体	-11.2382
を強く	-11.2383
一度に	-11.2386
▁冷たい	-11.2386
ふし	-11.2388
が弱い	-11.239
▁美術	-11.2391
をつかさどる	-11.2393
の表面に	-11.2393
の四	-11.2396
なき	-11.2397
後ろから	-11.2398
両側	-11.24
まわし	-11.2401
に変える	-11.2401
二本の	-11.2401
愛する	-11.2402
をたてる	-11.2403
▁山野に自生	-11.2406
▁できるだけ	-11.2408
に強い	-11.2408
歌を	-11.2411
は何ですか	-11.2414
かたまり	-11.2416
などについて	-11.2417
初めの	-11.2419
数える	-11.2419
▁ダ	-11.2422
無言	-11.2423
▁必	-11.2424
改め	-11.2424
▁正しい	-11.2424
▁演説	-11.2428
を得ること	-11.2428
共通	-11.2428
身につける	-11.2428
▁海底	-11.2429
わが国	-11.2431
競売	-11.2436
極め	-11.2436
▁税金	-11.2437
▁毎	-11.2438
▁その日	-11.2439
煮て	-11.2439
川の	-11.2444
妨害	-11.2444
公平	-11.2445
狭	-11.2446
▁あの子は	-11.2447
狂い	-11.2449
防御	-11.2451
葉を	-11.2455
と考えた	-11.2456
ラム	-11.2457
▁フランス語	-11.2457
かって	-11.2461
逮捕	-11.2462
づかい	-11.2464
▁艶	-11.2465
を張って	-11.2466
貴人の	-11.2468
さじ	-11.2469
規律	-11.247
▁何もかも	-11.2475
▁オリンピック	-11.2476
澈	-11.2476
鉄の	-11.2477
ンタ	-11.2484
開始	-11.2485
▁歳の	-11.2486
▁ちょっと電話したい	-11.2487
▁お医者	-11.2491
は君の	-11.2492
▁病気の	-11.2493
の巣	-11.2496
協会	-11.2496
降って	-11.2496
挑戦	-11.2497
▁命令	-11.2497
▁太陽が	-11.2499
眼球	-11.2501
健康に	-11.2501
江戸時代	-11.2503
消息	-11.2503
悦	-11.2504
▁地面	-11.2505
▁パーティー	-11.2509
の罪	-11.251
方方	-11.2511
▁輸出	-11.2512
に触れる	-11.2514
▁家具	-11.2514
が彼女の	-11.2518
感じられる	-11.2524
生じた	-11.2524
▁不幸	-11.2524
出ない	-11.2527
現れること	-11.2528
顔の	-11.2529
の学生	-11.2534
▁英国の	-11.2534
ないようにする	-11.2535
よせ	-11.2538
▁心を	-11.254
飛行機の	-11.2542
足に	-11.2543
▁砂糖	-11.2544
us	-11.2549
空き	-11.255
チン	-11.2551
続いた	-11.2554
黙ってい	-11.2554
通して	-11.2555
先生は	-11.2557
指で	-11.2558
緑色の	-11.2558
利口	-11.2559
吸収	-11.256
保守	-11.2563
▁どう	-11.2565
金が	-11.2569
励	-11.257
のない人	-11.2571
▁特許	-11.2572
蒼	-11.2573
の少年	-11.2574
▁財政	-11.258
くれませんか	-11.2581
▁整	-11.2583
テン	-11.2583
に富んだ	-11.2586
がきかない	-11.2586
▁弁護士	-11.2586
伝染	-11.2587
▁抜き	-11.2588
をさし	-11.2591
誇り	-11.2595
▁ド	-11.2595
を尽くす	-11.2595
押さえ	-11.2596
平気で	-11.26
忙しく	-11.26
▁寂	-11.26
熱帯	-11.2603
▁僧	-11.2605
主張する	-11.2605
かば	-11.2606
に答える	-11.2607
忠義	-11.2607
▁ワ	-11.261
▁医者は	-11.2611
ふくれ	-11.2611
便で	-11.2612
すぐれて	-11.2614
友達	-11.2615
こえ	-11.2615
うらみ	-11.2615
捨て	-11.2616
間違って	-11.2617
遣	-11.2617
▁あの男	-11.2619
あがり	-11.2623
かねて	-11.2625
▁肌	-11.2626
ということを	-11.2626
いぼ	-11.2626
の中央	-11.2627
たちに	-11.2627
一組	-11.2628
欠乏	-11.2628
特殊	-11.2629
▁化粧	-11.2629
従うこと	-11.263
啓	-11.2631
惜しい	-11.2632
地形	-11.2632
を表わす	-11.2632
削り	-11.2632
齢	-11.2633
ダイヤ	-11.2633
損なう	-11.2634
▁はっきり	-11.2634
を経て	-11.2634
人間が	-11.2634
尚	-11.2635
げない	-11.2637
に達した	-11.264
剛	-11.264
▁その場	-11.2641
▁慈善	-11.2643
木造	-11.2643
輿	-11.2644
▁契約	-11.2644
新潟	-11.2644
胎	-11.2645
穏	-11.2645
申告	-11.2645
不自由	-11.2645
▁快	-11.2646
隅	-11.2646
曲がり	-11.2647
▁国連	-11.2648
肋	-11.2648
著述	-11.2648
凡	-11.2649
運搬	-11.2649
さかずき	-11.2649
を帯びた	-11.2649
芳	-11.2649
爆撃	-11.2649
舵	-11.2649
紡	-11.2649
誦	-11.2649
得られる	-11.265
鍵	-11.265
オペラ	-11.265
尼	-11.265
尋問	-11.265
刺繍	-11.265
諺	-11.265
乗組員	-11.265
方程式	-11.265
釜	-11.265
鞘	-11.265
臥	-11.265
よろこび	-11.265
▁えーっと使い方の診断	-11.265
▁えー安全チェック	-11.265
▁んー使い方のチェック	-11.265
▁んー安全度の診断	-11.265
▁んー安全自己診断	-11.265
ぐるぐる	-11.265
びっくりした	-11.265
メキシコ	-11.265
喧	-11.265
暁	-11.265
錦糸町	-11.265
▁喫煙	-11.265
稀	-11.265
まなざし	-11.265
コンクリート	-11.265
唄	-11.265
屁	-11.265
錬	-11.265
胚	-11.265
▁んー安全度のチェック診断	-11.265
はらわた	-11.265
ギター	-11.265
硫黄	-11.265
是非	-11.2651
のこぎり	-11.2651
威厳	-11.2651
専攻	-11.2651
箇条	-11.2651
お話し	-11.2651
ow	-11.2651
応援	-11.2651
もらおう	-11.2651
訪ねて	-11.2651
思考	-11.2651
胎児	-11.2651
収縮	-11.2651
簡略	-11.2651
茶の湯	-11.2651
ほんとに	-11.2651
を請う	-11.2651
予告	-11.2651
辛抱	-11.2651
科の昆虫	-11.2652
政府が	-11.2652
一定期間	-11.2652
節操	-11.2652
楽譜	-11.2652
郡山	-11.2652
演芸	-11.2652
スタート	-11.2653
仲裁	-11.2653
知覚	-11.2653
のぞく	-11.2653
加藤さん	-11.2653
うさぎ	-11.2653
殺菌	-11.2654
ふとん	-11.2654
推理	-11.2654
単純	-11.2654
コール	-11.2654
公債	-11.2654
軍備	-11.2655
陽	-11.2655
組合せ	-11.2655
済んだ	-11.2655
困っている	-11.2655
表示	-11.2656
を職業とする人	-11.2656
動かし	-11.2656
カバー	-11.2656
文献	-11.2656
きし	-11.2657
の精神	-11.2657
延長	-11.2658
通勤	-11.2658
分担	-11.2658
うどん	-11.2658
▁失業	-11.2659
改正	-11.266
煙突	-11.266
くらべ	-11.266
▁交	-11.2661
ゆとり	-11.2661
機密	-11.2661
選んだ	-11.2662
曲がる	-11.2662
親族	-11.2662
恵み	-11.2662
▁彼女は私	-11.2663
皮膚が	-11.2663
を頼む	-11.2664
▁貧乏	-11.2664
を助け	-11.2664
用途	-11.2664
つまみ	-11.2665
を決め	-11.2666
操	-11.2667
活用	-11.2668
甲板	-11.2669
高校	-11.267
▁格	-11.2672
意義	-11.2672
特殊な	-11.2672
機知	-11.2673
いやしい	-11.2673
運ばれ	-11.2674
生死	-11.2675
縁側	-11.2675
何もない	-11.2675
農作物	-11.2676
▁養	-11.2676
長調	-11.2676
常用	-11.2676
線路	-11.2677
現われる	-11.2677
てもらいたい	-11.2677
結び目	-11.2678
▁田中	-11.2678
整った	-11.2679
噴火	-11.268
ことに決めた	-11.2681
万円の	-11.2681
番目の	-11.2681
善行	-11.2683
時速	-11.2683
ハー	-11.2684
はすぐ	-11.2684
種々	-11.2685
につけ	-11.2686
▁競馬	-11.2689
を変え	-11.2689
生活を	-11.269
なのだ	-11.2691
魚肉	-11.2691
を働く	-11.2692
▁何とか	-11.2695
てき	-11.2697
聞こえ	-11.27
死の	-11.27
▁馬に	-11.2701
かぶ	-11.2702
泣いて	-11.2702
結う	-11.2703
寝床	-11.2704
紫色	-11.2705
よこ	-11.2705
幼	-11.2706
腹に	-11.2706
冷たく	-11.2707
▁ほとんど	-11.2707
赤字	-11.271
は少し	-11.2712
とも言う	-11.2714
大声で	-11.2715
皇	-11.2715
を吐く	-11.2715
▁その土地	-11.2715
品行	-11.2715
フィ	-11.2716
もうける	-11.2717
名高い	-11.2718
トル	-11.272
様子が	-11.272
正反対	-11.2721
視する	-11.2722
小児	-11.2723
下がる	-11.2725
柏	-11.2725
準	-11.2726
たばこを	-11.2727
ないもの	-11.2728
敷物	-11.2729
コンピューター	-11.273
といった	-11.273
▁肺	-11.273
に身を	-11.2732
富士	-11.2732
忍び	-11.2733
初めから	-11.2734
つくこと	-11.2735
応用	-11.2735
それも	-11.2735
知能	-11.2735
田畑	-11.2736
陰暦	-11.2737
笑った	-11.2738
いちばん	-11.2738
泊まり	-11.2739
消える	-11.274
割り当て	-11.274
通俗	-11.2742
長年	-11.2742
▁体操	-11.2743
▁他の人	-11.2743
手落ち	-11.2744
元気かいの予約管理	-11.2744
何となく	-11.2745
思いがけない	-11.2745
朝食	-11.2745
下落	-11.2746
から出た	-11.2746
どこへ	-11.2746
▁つる	-11.2746
ドルの	-11.2747
▁いまから電話する	-11.2748
こういう	-11.2749
▁弔	-11.2752
ワン	-11.2752
そうとする	-11.2753
就職	-11.2753
含む	-11.2754
▁自己の	-11.2757
やがて	-11.2757
▁レコード	-11.2757
生まれて	-11.2759
▁ショートメッセージ送信	-11.2759
▁ちょっと電話をかける	-11.2759
上部	-11.276
▁公園	-11.2761
が変わる	-11.2761
▁凶	-11.2762
これらの	-11.2763
移住	-11.2764
その場の	-11.2766
職場	-11.2766
蕕覆	-11.2766
せて	-11.2767
▁この問題	-11.2767
を防ぐために	-11.2768
使者	-11.2769
る様子	-11.277
興奮する	-11.2771
の方法	-11.2771
航空	-11.2777
17	-11.2778
の士	-11.278
交わ	-11.278
何よりも	-11.2781
飛んで	-11.2782
を求め	-11.2783
絵を	-11.2783
▁隠	-11.2783
急な	-11.2784
ないだろう	-11.2785
進み	-11.2786
ぜいたくな	-11.279
合せ	-11.2795
誤って	-11.2796
▁物が	-11.2799
意地	-11.28
出席者	-11.2802
▁エンジン	-11.2803
尽くす	-11.2805
▁完	-11.2805
格別	-11.2809
むだに	-11.2812
などによる	-11.2813
来客	-11.2813
王子	-11.2815
候	-11.2817
のだが	-11.2818
いったん	-11.2819
に出て	-11.282
を添える	-11.282
△・	-11.2821
▁これ以上	-11.2821
に立ち	-11.2821
▁すぐに電話する	-11.2823
はぎ	-11.2824
の心	-11.2826
▁うそ	-11.2829
時機	-11.2829
論者	-11.283
▁いまから電話したい	-11.2834
▁完全	-11.2834
▁きん	-11.2836
▁さて	-11.2838
自分自身	-11.2839
▁事態は	-11.2844
▁森林	-11.2844
を積む	-11.2845
▁相手	-11.2845
▁明後日の天気	-11.2846
▁貨物	-11.2846
▁野原	-11.2847
なよ	-11.2847
色素	-11.2847
つな	-11.2848
返事をする	-11.2849
東方	-11.285
▁彼はとても	-11.2851
締	-11.2853
▁人々は	-11.2853
▁警官は	-11.2854
に接する	-11.2857
ショートメッセージ送信	-11.286
分間	-11.286
千万	-11.2861
逆に	-11.2861
が悪かった	-11.2863
残りの	-11.2863
この世に	-11.2867
を改める	-11.2869
それについて	-11.2869
▁初めて	-11.287
兼ね	-11.287
▁実際	-11.2871
の強さ	-11.2871
たたき	-11.2871
類の	-11.2872
しらせ	-11.2874
▁着物	-11.2875
約一	-11.2876
▁桜	-11.2878
して行く	-11.2879
▁ち	-11.288
ロック	-11.2881
に役立つ	-11.2882
▁哀	-11.2882
他から	-11.2885
こわれ	-11.2886
掘り	-11.2886
写真を送	-11.2887
運転手	-11.2887
共通の	-11.2887
▁そのことは	-11.2888
しようという	-11.289
に似る	-11.2891
にたとえ	-11.2891
▁校	-11.2891
▁それは私	-11.2892
こも	-11.2893
▁燃え	-11.2894
▁このあたりの	-11.2894
▁以前	-11.2895
わかれ	-11.2897
はえている	-11.2898
絹織物	-11.2899
付いて	-11.29
守る	-11.2901
がわ	-11.2902
生じ	-11.2903
慎重	-11.2907
こじ	-11.2909
いたり	-11.291
▁回転	-11.291
下男	-11.2911
▁断	-11.2913
たくさんある	-11.2916
ことになっている	-11.2918
海の	-11.2918
へと	-11.2918
独身	-11.2919
手柄	-11.2921
よいこと	-11.2922
負けた	-11.2923
▁もう少し	-11.2923
神仏	-11.2924
の原因	-11.2924
▁閉	-11.2925
男が	-11.2926
苦しむ	-11.2931
してしまう	-11.2931
荷物を	-11.2932
盛る	-11.2934
知らなかった	-11.2934
田氏	-11.2934
遠方	-11.2935
▁広い	-11.2935
さして	-11.2935
ってくる	-11.2936
聞くこと	-11.2937
▁文化	-11.294
▁即	-11.294
の進行	-11.294
きつい	-11.2943
ラン	-11.2944
炎症	-11.2944
を見せて	-11.2946
にも使う	-11.2947
海外	-11.2947
で私は	-11.2948
▁うら	-11.2952
勝つこと	-11.2952
こく	-11.2955
ってくれ	-11.2957
▁擬	-11.2957
がたくさんある	-11.2963
おもしろ	-11.2963
▁軟	-11.2963
に同じ	-11.2964
使った	-11.2964
を取り戻す	-11.2964
▁楽	-11.2966
山地	-11.2967
▁母は	-11.2967
を利用する	-11.2968
の範囲	-11.2969
▁食事の	-11.2969
後れ	-11.2971
▁神仏	-11.2974
▁しっかり	-11.2974
今にも	-11.2975
▁広告	-11.298
ひっか	-11.2985
称号	-11.2987
暮らしを	-11.2988
▁はち	-11.299
をふ	-11.2991
を遂げる	-11.2993
▁小川	-11.2994
開ける	-11.2994
くま	-11.2995
りますか	-11.2995
▁なべ	-11.2995
▁魚の	-11.2995
▁あいつ	-11.2996
おこった	-11.2997
置いた	-11.2997
穏やかな	-11.2997
篠つつ	-11.2998
ありのまま	-11.3
帰ること	-11.3002
がすっかり	-11.3002
年は	-11.3002
延ばす	-11.3004
がえ	-11.3006
重く	-11.3009
▁突き	-11.301
ダー	-11.3012
をひき	-11.3013
コーヒーを	-11.3013
前方	-11.3014
議案	-11.3014
のかね	-11.3014
情事	-11.3016
▁金属元素	-11.3017
だした	-11.3018
借りる	-11.3019
▁我	-11.3022
▁ロープを	-11.3023
できている	-11.3025
輝	-11.3027
▁本当	-11.303
輝く	-11.3031
の気持	-11.3031
しあわせ	-11.3033
ぐいと	-11.3035
▁使い方	-11.3039
押す	-11.3039
おち	-11.304
日常生活	-11.304
のしるし	-11.3045
こし	-11.3046
って来る	-11.3048
▁同情	-11.305
どことなく	-11.3051
どうだ	-11.3051
取り扱う	-11.3053
ともに	-11.3054
机の上に	-11.3056
▁貿易	-11.3057
入口	-11.3058
ぐらいの	-11.3061
それによって	-11.3061
▁枝	-11.3062
だけに	-11.3063
▁金融	-11.3067
比較的	-11.3069
ないでくれ	-11.3069
隠して	-11.307
▁その仕事は	-11.3071
▁原子力	-11.3072
▁あん	-11.3072
そんなことを	-11.3075
夫人	-11.3075
破る	-11.3078
▁すぐに電話したい	-11.3079
末期	-11.308
ということだ	-11.3082
以下の	-11.3082
起きる	-11.3084
▁九	-11.3085
▁6	-11.3085
力で	-11.3086
弁護	-11.3087
▁豪	-11.3088
答える	-11.3088
タオル	-11.3089
荒荒しい	-11.309
▁賢	-11.3091
味が	-11.3092
取り入れ	-11.3092
おろす	-11.3093
はっきりした	-11.3096
結核	-11.3097
出てきた	-11.31
数を	-11.3102
研究する	-11.3103
▁気の	-11.3105
番をする	-11.3106
に似ている	-11.3107
寂しい	-11.3108
遅い	-11.3109
ーズ	-11.311
▁物事に	-11.311
チームは	-11.3111
験	-11.3112
を帯びる	-11.3113
がかり	-11.3114
百万	-11.3114
▁別に	-11.3115
▁空港	-11.3117
の山	-11.3119
忘	-11.3119
おろし	-11.3119
していないこと	-11.312
担保	-11.3124
=	-11.3125
こね	-11.3126
にかかった	-11.3127
孝	-11.3127
正当	-11.3129
がひどく	-11.313
▁全国	-11.3131
▁凝	-11.3132
複製	-11.3133
の娘	-11.3135
ようか	-11.3136
▁金の	-11.3136
毎	-11.3137
勇敢	-11.3137
分からない	-11.3139
別別	-11.314
恵比寿	-11.314
寝屋川	-11.3141
盟	-11.3141
法廷	-11.3142
与えた	-11.3142
ってくれた	-11.3142
作成	-11.3142
溶け	-11.3144
隙	-11.3144
拭	-11.3144
降伏	-11.3145
呑	-11.3145
扇動	-11.3146
浮かんだ	-11.3146
あばれ	-11.3146
斎	-11.3146
一度も	-11.3147
模	-11.3147
開拓	-11.3147
傑	-11.3147
ぺ	-11.3148
堪	-11.3148
頸	-11.3148
動いて	-11.3148
ソーダ	-11.3148
びょう	-11.3148
拡張	-11.3149
散らし	-11.3149
恒	-11.3149
弄	-11.3149
拓也	-11.3149
奸	-11.315
兎	-11.315
武蔵小金井	-11.315
碧	-11.315
渡辺	-11.315
宇	-11.315
衛星	-11.315
妾	-11.315
当然の	-11.315
莫大な	-11.315
X	-11.315
堺	-11.315
ぞんざい	-11.315
ハワイ	-11.315
嵩	-11.315
普及	-11.315
歪	-11.315
鉤	-11.315
▁えーっと使い方の自己診断	-11.315
篇	-11.315
▁んー安全度の自己診断	-11.315
歎	-11.315
罵	-11.315
鵐	-11.315
適当に	-11.315
ふらふら	-11.315
みじめな	-11.315
尖	-11.315
に適する	-11.315
宛	-11.315
自尊心	-11.315
過剰	-11.315
リットル	-11.315
綾	-11.315
芯	-11.315
那覇	-11.315
マイナス	-11.315
俳諧	-11.315
キング	-11.315
を使わず	-11.315
急激に	-11.315
唯一の	-11.315
審査	-11.315
インディアン	-11.315
乗車券	-11.315
疑惑	-11.3151
落ちぶれ	-11.3151
めいめい	-11.3151
整頓	-11.3151
派閥	-11.3151
率直に	-11.3151
標識	-11.3151
蒲田	-11.3151
顧問	-11.3151
決まり	-11.3151
ゼロ	-11.3151
守護	-11.3151
予測	-11.3152
おとなしく	-11.3152
統率	-11.3152
お会い	-11.3152
路傍	-11.3152
復活	-11.3152
音響	-11.3152
雨が降った	-11.3152
まげ	-11.3152
吹雪	-11.3152
汲み	-11.3152
部類	-11.3152
検閲	-11.3152
確率	-11.3152
対応	-11.3153
譲歩	-11.3153
正子ちゃん	-11.3153
遺跡	-11.3153
中枢	-11.3153
三郎	-11.3153
▁家を	-11.3154
垣根	-11.3154
のありさま	-11.3154
新たな	-11.3154
照らし	-11.3154
つくば	-11.3154
フランスの	-11.3154
冷酷	-11.3154
▁そこへ	-11.3155
かわいがる	-11.3155
落第	-11.3155
テレ	-11.3155
をはる	-11.3155
講和	-11.3156
ハエ	-11.3156
させられた	-11.3156
講座	-11.3156
地理	-11.3156
絶滅	-11.3157
たたいた	-11.3158
農夫	-11.3158
楽観	-11.3158
▁あの店は	-11.3158
流儀	-11.3159
しばる	-11.3159
▁どうか	-11.3159
の女神	-11.3159
▁教師	-11.3159
ノート	-11.316
▁この家は	-11.316
えば	-11.3161
定義	-11.3161
一つ一つ	-11.3161
▁高等	-11.3162
交わり	-11.3162
加熱	-11.3162
南部	-11.3163
の下部	-11.3163
やって来た	-11.3163
小形で	-11.3163
花嫁	-11.3164
一連の	-11.3164
結んだ	-11.3164
羊毛	-11.3166
遠くに	-11.3166
巡回	-11.3167
大型	-11.3167
▁並	-11.3167
不況	-11.3167
流派	-11.3167
放電	-11.3168
ゆで	-11.3168
災い	-11.3168
待った	-11.3168
平野	-11.3169
▁ぶどう酒	-11.3169
岡田	-11.3169
多年	-11.3169
ねばり	-11.3169
乳児	-11.317
ねうち	-11.317
敵陣	-11.3171
織った	-11.3172
北部	-11.3173
首席	-11.3175
低下	-11.3175
羽毛	-11.3175
論説	-11.3176
に帰する	-11.3177
▁成人	-11.3177
▁仲間	-11.3178
振る	-11.3179
煎じ	-11.3179
体積	-11.3179
引力	-11.3181
のごとく	-11.3181
撃つ	-11.3181
広げ	-11.3183
から降りる	-11.3183
▁経	-11.3183
さらし	-11.3186
辰討	-11.3188
の誤り	-11.3188
▁すぐに電話をかける	-11.3193
慣用	-11.3194
高松	-11.3195
熱湯	-11.3195
続けざまに	-11.3197
黄色い	-11.3197
のあいだ	-11.3201
非行	-11.3201
帰宅	-11.3202
V	-11.3204
定規	-11.3205
度胸	-11.3206
脚本	-11.3206
学業	-11.3206
こころ	-11.3206
左側	-11.3207
舞い	-11.3208
を大きく	-11.3208
乱暴	-11.3216
至急	-11.3216
何でもない	-11.3216
活動の	-11.3217
だな	-11.3218
のが好きだ	-11.3219
ほぐ	-11.322
小僧	-11.322
▁責任	-11.3221
よく知っている	-11.3223
破れ	-11.3223
言いなさい	-11.3226
我が国	-11.3227
に起こる	-11.3231
午前	-11.3231
中傷	-11.3232
の第一	-11.3233
を除く	-11.3234
に通じている	-11.3234
▁彼の顔は	-11.3235
の作品	-11.3235
かむ	-11.3238
人や物	-11.3239
とら	-11.324
かかって	-11.3241
を告げる	-11.3241
ウェッブページを置	-11.3242
勝手な	-11.3242
▁聴衆は	-11.3243
あふれる	-11.3244
▁傍	-11.3247
好きなように	-11.3247
▁君には	-11.3247
うね	-11.325
職業の人	-11.3252
その音	-11.3253
過ごした	-11.3255
を高く	-11.3259
こちらの	-11.3259
文章の	-11.3259
▁病気で	-11.326
▁ト	-11.326
その知らせを聞いて	-11.3261
まねをする	-11.3263
耐	-11.3264
無事に	-11.3264
▁供	-11.3265
当たった	-11.3266
しますか	-11.3268
負けて	-11.3268
邦	-11.3268
を打った	-11.3271
当時	-11.3273
▁冷や	-11.3273
髪の毛を	-11.3273
に加わる	-11.3273
▁博	-11.3274
▁正義	-11.3274
怪	-11.3274
便り	-11.3274
▁天体	-11.3275
将来の	-11.3275
藤沢	-11.3275
音を立て	-11.3276
じゅうたん	-11.3276
▁訳	-11.3277
毎年	-11.3277
支払いを	-11.3279
シュ	-11.328
どけ	-11.3281
ピストル	-11.3282
er	-11.3282
ガソリン	-11.3282
の諸	-11.3283
葬儀	-11.3283
▁専門	-11.3285
悟り	-11.3287
宝物	-11.3287
親指	-11.3288
手首	-11.3289
もし	-11.329
然として	-11.3291
バイオリン	-11.3291
猛	-11.3292
を貸して	-11.3292
門の	-11.3293
ってはいけない	-11.3294
累	-11.3294
香水	-11.3294
末に	-11.3295
笑って	-11.3295
を張った	-11.3295
回転する	-11.3299
ぬる	-11.3301
する装置	-11.3301
人材	-11.3301
▁そこで	-11.3303
いなさい	-11.3304
をたくさん	-11.3304
もよい	-11.3305
知らせること	-11.3306
世俗	-11.3306
悪口	-11.3306
混ぜる	-11.3306
相場が	-11.3306
てもらう	-11.3308
同一	-11.3309
今日の天気予報	-11.331
▁医療	-11.3311
のまわりに	-11.3312
の人が	-11.3313
焼く	-11.3314
は約	-11.3316
その場所	-11.3317
内外	-11.3322
乗物	-11.3327
まるい	-11.3328
▁何と	-11.3329
法律で	-11.3333
▁完全に	-11.3337
明日の天気予報	-11.334
▁その事故	-11.334
続くこと	-11.334
書物を	-11.3341
▁資本	-11.3343
たまる	-11.3344
▁まっ	-11.3345
▁日曜	-11.3346
擦り	-11.3346
に戻る	-11.3346
物だ	-11.3347
▁よそ	-11.3348
▁解	-11.3348
うえ	-11.3349
と思われる	-11.335
をおおう	-11.335
物を言う	-11.3351
治める	-11.3351
てはならない	-11.3351
そうでない	-11.3353
心の中に	-11.3355
ぶた	-11.3357
借りること	-11.3357
いすを	-11.3358
取れる	-11.336
動的	-11.336
▁それらの	-11.336
を重んずる	-11.336
▁いま	-11.336
日本に	-11.3361
▁代々木	-11.3361
の町	-11.3362
▁脂肪	-11.3362
こぎ	-11.3368
ことができない	-11.3371
▁イタリア	-11.3371
▁小麦粉	-11.3373
ばかりに	-11.3373
彼から	-11.3374
本部	-11.3374
割に	-11.3375
最終	-11.3375
力が	-11.3376
いらっしゃい	-11.3377
繩	-11.3377
月光	-11.3383
身体の	-11.3384
国旗	-11.3385
をつぐ	-11.3387
もら	-11.3387
一流の	-11.3388
外出する	-11.3388
身代	-11.3389
から見て	-11.339
なだれ	-11.339
下にある	-11.339
の形容	-11.3392
の子供	-11.3392
▁序	-11.3395
ことではない	-11.3395
大型の	-11.3395
振動	-11.3395
暗く	-11.3399
を積み	-11.34
助けること	-11.3401
▁主君	-11.3401
討い	-11.3402
南北	-11.3404
んだり	-11.3405
がどんなに	-11.3406
はだか	-11.3408
現物	-11.3409
熱意	-11.3409
▁野外	-11.3411
神話	-11.3412
を断つ	-11.3412
▁意志	-11.3413
祈願	-11.3415
一瞬	-11.3415
▁ガ	-11.3416
▁みんな	-11.3419
▁8	-11.3419
めったに	-11.342
▁知恵	-11.3421
実例	-11.3421
鋳	-11.3421
▁季節	-11.3423
はかり	-11.3424
を授ける	-11.3424
▁洪水	-11.3425
▁東京の	-11.3427
狭く	-11.3427
しかる	-11.3427
感じた	-11.3427
日曜日に	-11.3429
誓	-11.343
ろく	-11.3432
▁立体	-11.3433
債務	-11.3436
▁長距離	-11.3436
そうもない	-11.3436
仕事の	-11.3441
出家	-11.3447
を集めて	-11.3448
の長い	-11.3452
戯	-11.3457
の温度	-11.3458
で人を	-11.3458
▁陸上	-11.3459
▁ふだん	-11.3461
成功の	-11.3464
ゼ	-11.3466
の中間	-11.3467
状態にする	-11.3468
▁産業	-11.3468
をたく	-11.3469
を成す	-11.3469
行動を	-11.347
とって	-11.347
は私が	-11.3475
くわえ	-11.3476
あれば	-11.3477
リラ	-11.3485
▁住宅	-11.3487
シー	-11.3488
山々	-11.3493
にはいって	-11.3498
いやになる	-11.3498
▁ひとり	-11.3498
▁付	-11.3499
▁申し	-11.35
賭	-11.35
をふさぐ	-11.3501
になってしまった	-11.3502
の研究	-11.3502
やって来る	-11.3503
▁借り	-11.3504
▁一家の	-11.3506
会うこと	-11.3506
人に対して	-11.3507
やっている	-11.3507
やりなさい	-11.3509
やり方で	-11.351
の全	-11.3511
がなくなる	-11.3512
▁彼は我々	-11.3512
七日	-11.3512
きょうは	-11.3514
フレ	-11.3514
▁切符	-11.3515
その地位	-11.3517
おくれ	-11.3517
の印	-11.3518
聞かせる	-11.3518
後世	-11.3519
到着した	-11.3519
生糸	-11.3521
事態が	-11.3521
描	-11.3522
を続ける	-11.3524
ふれ	-11.3526
ふえ	-11.3527
激怒	-11.3528
調べること	-11.353
とは君も	-11.3532
の空気	-11.3536
ve	-11.3536
によい	-11.3536
▁儀式	-11.3537
一般の人	-11.3538
▁重大な	-11.3543
酒を	-11.3544
銀行に	-11.3544
勢いで	-11.3544
▁日光	-11.3547
性質が	-11.3548
▁子供は	-11.3549
垂れる	-11.3549
▁秋の	-11.3551
▁健	-11.3551
写真いまから送信	-11.3557
たちの	-11.3557
声を	-11.3558
はいくら	-11.356
しつけ	-11.3562
見られる	-11.3562
の勢い	-11.3562
食べること	-11.3563
▁かぎ	-11.3565
▁天子の	-11.3568
本性	-11.3569
▁意味	-11.357
▁暖かい	-11.357
無理に	-11.3571
利益を得る	-11.3577
▁特別	-11.3577
に乗り	-11.3577
▁いちばん	-11.358
▁思いがけない	-11.358
今や	-11.3581
駒	-11.3583
迎える	-11.3583
こっけいな	-11.3587
内側に	-11.3589
く思う	-11.3592
地下茎	-11.3593
走って	-11.3594
▁年齢	-11.3596
で使う	-11.3596
の相違	-11.3596
相手が	-11.3596
しうる	-11.3597
内閣の	-11.36
ィ	-11.3601
やれ	-11.3601
メッセージいまから送信	-11.3602
西方	-11.3605
が速い	-11.3606
こしらえ	-11.3607
つかみ	-11.361
厄介	-11.3611
を含んだ	-11.3611
気持だ	-11.3613
メートルの	-11.3614
仲よく	-11.3614
▁病人は	-11.3617
使われる	-11.3619
芸能	-11.362
犬は	-11.3621
▁予	-11.3621
てくれる	-11.3622
の敬称	-11.3623
▁マッチ	-11.3625
昨	-11.3626
船が	-11.3629
地主	-11.363
言動	-11.3631
大事	-11.3632
グラ	-11.3633
との関係	-11.3636
いただき	-11.3637
が低く	-11.3638
に合う	-11.3638
方は	-11.3639
もいい	-11.3641
▁海軍	-11.3642
を休む	-11.3643
豪雨	-11.3644
衰えた	-11.3645
他と	-11.3646
決議	-11.3647
徹	-11.3647
▁すい	-11.3649
▁議論の	-11.3652
が起こって	-11.3652
十五	-11.3653
潰	-11.3653
透明	-11.3653
行われ	-11.3654
▁それだけ	-11.3654
槽	-11.3657
履	-11.3658
委任	-11.3659
あがって	-11.3659
中間	-11.3659
少なく	-11.366
しようとした	-11.3661
増加	-11.3661
塚	-11.3664
わけではない	-11.3664
忙	-11.3664
寵	-11.3664
やりかた	-11.3664
▁わずかの	-11.3666
市ヶ谷	-11.3667
▁社	-11.3667
御徒町	-11.3668
所にある	-11.3668
摘	-11.3668
査	-11.367
幾何学	-11.3671
を目的とする	-11.3671
坑	-11.3672
を祈る	-11.3672
止まった	-11.3672
荘	-11.3673
陳	-11.3674
免疫	-11.3674
要領	-11.3674
巣鴨	-11.3675
飼育	-11.3675
違える	-11.3675
ニュ	-11.3675
盾	-11.3675
視界	-11.3675
信じられない	-11.3676
薪	-11.3676
因果	-11.3676
阻	-11.3676
かっさい	-11.3676
▁あの安全度のチェック	-11.3676
ばさみ	-11.3676
に会った	-11.3676
ぅ	-11.3676
きっかけ	-11.3676
畔	-11.3676
おめでとう	-11.3676
叛	-11.3676
桑	-11.3676
櫛	-11.3676
浜松町	-11.3676
W	-11.3676
おだやかな	-11.3676
のんびり	-11.3676
病原体	-11.3676
.	-11.3676
▁えー安全診断	-11.3676
▁んー安全度のチェック自己診断	-11.3676
▁んー安全診断	-11.3676
ソファー	-11.3676
ペーパー	-11.3676
忘れない	-11.3676
コンサート	-11.3676
植民地	-11.3676
裾	-11.3676
デパート	-11.3677
肖像画	-11.3677
瑞	-11.3677
みょう	-11.3677
▁んー安全度のチェックチェック	-11.3677
梨	-11.3677
虹	-11.3677
当てはまる	-11.3677
ジョージ	-11.3677
負債	-11.3677
申請	-11.3677
免除	-11.3677
舗装	-11.3677
囃子	-11.3677
憎しみ	-11.3677
僧侶	-11.3677
容貌	-11.3677
決勝	-11.3677
盗賊	-11.3677
酒を飲んで	-11.3677
粘液	-11.3677
my	-11.3677
包装	-11.3677
艦隊	-11.3678
閉鎖	-11.3678
到来	-11.3678
スタイル	-11.3678
戯曲	-11.3678
付き合い	-11.3678
モーター	-11.3679
たまたま	-11.3679
爵位	-11.3679
こまかい	-11.3679
態勢	-11.3679
▁手紙	-11.3679
見積もり	-11.3679
かせぐ	-11.3679
を襲った	-11.3679
生殖	-11.368
のろい	-11.368
レール	-11.368
欠けた	-11.3681
協議	-11.3681
スズメ	-11.3681
厳しく	-11.3681
ともかく	-11.3681
開業	-11.3681
実は食用	-11.3682
実業家	-11.3682
風味	-11.3682
がうまく	-11.3682
予言	-11.3682
揃い	-11.3682
風采	-11.3682
それとなく	-11.3682
不吉	-11.3682
鈴木	-11.3683
開放	-11.3684
栄光	-11.3684
成行き	-11.3684
▁危	-11.3684
奉公	-11.3685
左翼	-11.3686
に出た	-11.3686
不動産	-11.3686
思い切って	-11.3686
東西	-11.3686
高等学校	-11.3687
▁欲	-11.3687
登場	-11.3687
▁泥棒	-11.3687
軍勢	-11.3687
▁ソ	-11.3687
に欠ける	-11.3688
未婚	-11.3688
施行	-11.3688
添う	-11.3688
と違って	-11.3688
写生	-11.3688
を利用した	-11.3688
主成分	-11.3689
若葉	-11.3689
ラテン語	-11.3689
社寺	-11.3689
禁煙	-11.3689
下駄	-11.3689
彩色	-11.369
絞り	-11.369
感じだ	-11.369
響き	-11.369
性能	-11.3691
通商	-11.3691
ひいき	-11.3691
転覆	-11.3692
▁その犬は	-11.3692
のドレス	-11.3693
▁俺の元気かいの予約	-11.3693
を求めること	-11.3693
▁市役所	-11.3694
上映	-11.3695
遠慮なく	-11.3696
出入口	-11.3696
▁紫	-11.3696
公務	-11.3696
つめた	-11.3697
変動	-11.3699
する時	-11.37
▁必ず	-11.37
▁スト	-11.37
概して	-11.3701
ひれ	-11.3701
たやすく	-11.3702
耕作	-11.3702
合同	-11.3703
任意	-11.3703
▁しかし	-11.3703
歩行	-11.3704
歩き方	-11.3704
でいた	-11.3704
▁チ	-11.3704
割れ目	-11.3705
分け前	-11.3705
ありがたい	-11.3707
給水	-11.3707
▁その車は	-11.3708
万歳	-11.3708
はさんで	-11.3708
沈む	-11.3709
子宮	-11.371
釣り合い	-11.371
大金	-11.3711
あえて	-11.3711
無視	-11.3711
▁記憶	-11.3712
砕く	-11.3712
おそれ	-11.3714
それら	-11.3714
▁牧	-11.3714
小舟	-11.3714
きのこ	-11.3714
しぼり	-11.3715
想像力	-11.3716
▁クリスマスの	-11.3716
古来	-11.3716
▁官庁	-11.3716
敵軍	-11.3717
贈物	-11.3717
元来	-11.3718
くせ	-11.3718
新作	-11.3719
に強く	-11.3719
楽しむこと	-11.3719
恋人	-11.3719
相当な	-11.3719
まひ	-11.3719
メッセージすぐに	-11.372
すう	-11.372
忘れた	-11.3721
祈る	-11.3721
感じがする	-11.3721
不要	-11.3721
さわやかな	-11.3721
食肉	-11.3721
内容を	-11.3722
手順	-11.3722
木炭	-11.3723
入札	-11.3723
を持つこと	-11.3726
公害	-11.3727
言行	-11.3727
増大	-11.3728
直立	-11.3729
食用にする	-11.3729
▁組み	-11.3729
うすい	-11.373
できるか教えて	-11.373
もてなし	-11.3731
横木	-11.3733
▁禅	-11.3735
つくす	-11.3735
服を着て	-11.3736
▁知	-11.3737
▁人間は	-11.3741
野生	-11.3742
ところが	-11.3742
▁出来	-11.3742
▁排	-11.3742
チャ	-11.3744
のにおい	-11.3748
よめ	-11.3749
▁小さい	-11.3749
せみ	-11.375
▁古典	-11.3752
の美しさ	-11.3752
▁羊	-11.3753
群生	-11.3753
人込み	-11.3755
▁けんか	-11.3755
▁無線	-11.3756
大形で	-11.3756
▁暴力	-11.3756
▁漫	-11.3757
育てること	-11.3757
生えている	-11.3758
捕え	-11.3761
度に	-11.3761
内内	-11.3763
余分	-11.3763
会長	-11.3764
を得ようと	-11.3765
がついて	-11.3766
▁トラ	-11.3767
力量	-11.3767
を測る	-11.3768
物腰	-11.3768
の方へ	-11.3769
所がない	-11.377
距離を	-11.3771
間違いない	-11.3774
発火	-11.3774
出ていた	-11.3777
上等の	-11.3777
曜	-11.3779
君には	-11.3781
のそば	-11.3781
鉄製の	-11.3781
▁顔を	-11.3783
真相	-11.3784
論理学	-11.3785
細工物	-11.3789
散る	-11.379
属する	-11.3793
リス	-11.3795
▁日本は	-11.3795
目立つ	-11.3796
あっ	-11.3798
関係がない	-11.3798
余所	-11.3798
大洋	-11.3798
物質の	-11.3799
▁いつもの	-11.3802
居間	-11.3803
▁別の	-11.3804
正確に	-11.3804
▁車を	-11.3804
検事	-11.3805
スピード	-11.3807
▁死刑	-11.3809
で暮らす	-11.3809
ばった	-11.3809
陥	-11.381
吐き気	-11.3812
異常な	-11.3813
二重	-11.3814
学生たち	-11.3815
〕「	-11.3816
を踊る	-11.3817
正しくない	-11.3818
削	-11.3819
気球	-11.382
だれにも	-11.3823
に任せる	-11.3823
平方	-11.3824
びれ	-11.3826
居所	-11.3826
球状	-11.3826
掛けて	-11.3826
▁シン	-11.3828
▁げん	-11.3828
整える	-11.3828
を動かして	-11.3829
▁碁	-11.3831
息子に	-11.3831
をさっと	-11.3832
▁食べ	-11.3833
の階級	-11.3834
となること	-11.3834
起源	-11.3835
青銅	-11.3835
事件を	-11.3835
辛い	-11.3835
君子	-11.3837
▁続	-11.384
の地位	-11.3841
つえ	-11.3841
穏やか	-11.3841
▁衆	-11.3842
の弱い	-11.3842
▁事業	-11.3844
ドイツ	-11.3844
なので	-11.3844
▁口で	-11.3845
の顔	-11.3848
紛れ	-11.3848
って行く	-11.3851
横浜	-11.3851
迫る	-11.3851
を生ずる	-11.3851
自分の意見を	-11.3857
透明な	-11.3857
これに	-11.3857
エル	-11.3857
のあること	-11.3859
住むこと	-11.386
の目的で	-11.3862
▁喜び	-11.3862
▁一緒に	-11.3863
▁幾	-11.3863
▁鋭い	-11.3863
倉庫	-11.3865
チーズ	-11.3865
がだんだん	-11.3865
あらかじめ	-11.3868
周囲の	-11.3869
▁外国語	-11.3869
できるように	-11.387
区役所	-11.387
▁かなりの	-11.387
M	-11.3871
カップ	-11.3872
寸法	-11.3873
その話	-11.3873
知れない	-11.3873
▁吹き	-11.3873
▁どこか	-11.3873
からなる	-11.3874
見ている	-11.3874
鳩	-11.3874
明後日	-11.3876
▁足の	-11.3876
必	-11.3877
烏	-11.3879
和紙	-11.388
上手に	-11.3881
いし	-11.3883
いとこ	-11.3884
艶	-11.3884
頭脳	-11.3884
合成	-11.3884
携帯	-11.3886
商品の	-11.3886
午前中	-11.3887
印刷物	-11.3887
▁畑	-11.3889
▁低い	-11.3892
▁部屋を	-11.3892
▁おい	-11.3892
大丈夫	-11.3892
ジー	-11.3892
を失うこと	-11.3893
法令	-11.3893
ほどに	-11.3895
▁緩	-11.3896
今日の気候	-11.3896
書籍	-11.3896
を書いて	-11.3897
つかず	-11.3898
▁荒れ	-11.3898
船橋	-11.3899
▁B	-11.3899
して作った	-11.3899
しゃく	-11.39
▁ダンス	-11.39
今年	-11.3907
▁寺院	-11.3908
野党	-11.3908
暮らしている	-11.3909
▁俺の元気かい予約	-11.3909
いてください	-11.391
▁ほかに	-11.3911
しゅう	-11.3912
出世する	-11.3913
さくら	-11.3917
電子	-11.3917
うまくいく	-11.3917
▁彼女は自分の	-11.392
年生	-11.392
何だか	-11.3923
逃れる	-11.3925
外面	-11.3926
▁祝	-11.3927
を防ぎ	-11.3928
ミス	-11.3929
生きて	-11.3929
に仕える	-11.393
平らに	-11.393
の上の	-11.3931
▁悲しい	-11.3933
▁座席	-11.3934
▁私は彼の	-11.3934
意味で	-11.3935
▁生徒	-11.3935
英文学	-11.394
定期	-11.3944
型に	-11.3945
引かれ	-11.3946
天国	-11.3946
を直す	-11.3946
甘味	-11.3947
をごまかす	-11.3947
を除いた	-11.3949
▁水平	-11.3952
メッセをいまから	-11.3954
下書き	-11.3954
便所	-11.3954
マイク	-11.3957
移す	-11.3961
ことが多い	-11.3962
▁過去の	-11.3963
ようなことを	-11.3965
聞こえた	-11.3965
▁執	-11.3966
あて名	-11.3966
入り乱れ	-11.3968
進める	-11.3968
被告人	-11.3969
▁男女の	-11.397
▁鳥が	-11.3971
をまぜて	-11.3973
見えること	-11.3974
▁太鼓	-11.3975
▁核兵器	-11.3975
なれて	-11.3975
調子で	-11.3981
溺	-11.3982
全体を	-11.3985
だます	-11.3985
▁辞書	-11.3985
とがある	-11.3987
しがたい	-11.3988
ハイ	-11.399
▁珍	-11.3991
聞こえない	-11.3991
▁朝食	-11.3994
の体	-11.3994
▁会合	-11.3995
陰で	-11.3996
花びら	-11.3999
はねる	-11.4001
一筆	-11.4002
宗教的	-11.4002
▁宝石	-11.4005
▁彼女と	-11.4005
その内容	-11.401
▁内部	-11.4011
わな	-11.4011
寄って	-11.4013
ラブ	-11.4013
はいい	-11.4014
のだから	-11.4015
びき	-11.4016
▁終わり	-11.4018
においがする	-11.4019
を扱う	-11.4022
着く	-11.4022
▁物語	-11.4022
▁燃料	-11.4022
急ぎの	-11.4023
どうぞお	-11.4027
▁船橋	-11.4027
になれ	-11.4028
をつくること	-11.4028
▁約	-11.4031
プロ	-11.4033
下がった	-11.4038
これだけ	-11.4038
付けた	-11.4039
▁小便	-11.404
ぶどう	-11.404
没する	-11.404
泣	-11.4041
初めに	-11.4042
埋	-11.4043
よる	-11.4045
一個	-11.4046
動作が	-11.4048
中で一番	-11.4049
を脱ぐ	-11.405
▁如	-11.4051
の寸法	-11.4052
▁記念	-11.4053
を飾る	-11.4057
の大きい	-11.4058
換える	-11.406
を減らす	-11.4063
取り決め	-11.4063
づら	-11.4063
自動車の	-11.4063
変えること	-11.4064
反抗	-11.4064
とれた	-11.4066
流れている	-11.4066
切断	-11.4067
雄は	-11.4067
枝を	-11.4069
売れる	-11.4069
並べる	-11.407
間に合わせ	-11.407
をおろす	-11.4071
▁累	-11.4073
着いた	-11.4074
学生が	-11.4075
尋ね	-11.4075
を整える	-11.4076
どちらか	-11.4077
を並べる	-11.4081
せられる	-11.4083
貯	-11.4088
があります	-11.4088
▁僕が	-11.4091
の際に	-11.4092
▁射	-11.4093
▁小さな	-11.4094
▁筋	-11.4096
尽くし	-11.4099
をよくする	-11.4099
▁家畜	-11.41
隠れた	-11.41
先生に	-11.4103
変だ	-11.4103
らなければならない	-11.4104
個体	-11.4105
国家の	-11.4105
高温	-11.4107
▁童	-11.4107
▁暇	-11.4109
すむ	-11.4109
蒸留	-11.4109
▁心身	-11.411
捜索	-11.4111
は彼女	-11.4111
ゆり	-11.4112
前へ	-11.4112
を獲得する	-11.4113
一端	-11.4114
あがること	-11.4115
のぼる	-11.4116
もろ	-11.4116
ローマ	-11.412
▁ギリシャ	-11.412
したりして	-11.4123
▁緊急	-11.4124
▁いったん	-11.4125
▁さく	-11.4127
日から	-11.4128
全体に	-11.4129
たがる	-11.4129
の広い	-11.4131
の中へ	-11.4131
▁十分な	-11.4133
この世	-11.4134
ある場所	-11.4135
とされている	-11.4136
▁抜	-11.4136
自殺する	-11.4139
随意	-11.4139
本質	-11.4139
▁探	-11.414
してはならない	-11.414
として使う	-11.4143
告げる	-11.4144
思うように	-11.4145
写真をいまから	-11.4145
▁声を	-11.4146
考えている	-11.4146
▁軒	-11.4149
直る	-11.415
下宿	-11.4151
を害する	-11.4151
▁彼は我々に	-11.4152
をこめて	-11.4153
が異なる	-11.4153
行きます	-11.4156
▁その仕事	-11.4156
くなること	-11.4156
弾力	-11.4158
ース	-11.416
▁その問題	-11.4163
助けて	-11.4164
散歩する	-11.4164
染めた	-11.4164
由美子さん	-11.4164
訪問する	-11.4165
関係にある	-11.4165
たいてい	-11.4166
▁恐ろしい	-11.4168
組んで	-11.4169
誇	-11.4169
釈迦	-11.417
車は	-11.4171
かざ	-11.4174
あとの	-11.4174
の月	-11.4176
を発揮する	-11.4178
きめる	-11.4178
刷	-11.4178
▁猛烈な	-11.418
見せかけ	-11.418
サー	-11.4181
植物の	-11.4181
えら	-11.4182
▁じゅ	-11.4183
まっ	-11.4184
求め	-11.4185
▁へたな	-11.4187
建築物	-11.4187
本体	-11.4187
▁しゃく	-11.4188
ばかげた	-11.419
楽しく	-11.4194
はいられない	-11.4195
▁活	-11.4196
▁元気かい予約状況	-11.4198
可能	-11.42
国籍	-11.4206
の花が咲く	-11.4208
伸	-11.4209
甚	-11.421
▁彼はドア	-11.421
の所に	-11.4211
すぐれた人	-11.4213
径	-11.4213
自国	-11.4213
ほれ	-11.4214
▁勇気	-11.4215
それまで	-11.4216
久子	-11.4216
やっかいな	-11.4217
体内に	-11.4217
抑制	-11.4219
んじゃない	-11.4219
そこなう	-11.422
すわっている	-11.422
恥ずかしい	-11.422
国分寺	-11.4221
五弁	-11.4222
飯田橋	-11.4222
揚げる	-11.4225
均衡	-11.4227
荒い	-11.4227
をねらう	-11.4228
嫡	-11.4229
まれな	-11.4229
▁人情	-11.4229
だらだら	-11.4229
尽き	-11.4229
継続	-11.4229
班	-11.423
黄褐色	-11.423
伯	-11.423
イオン	-11.4231
独創	-11.4231
誕生	-11.4231
田園	-11.4231
牙	-11.4231
契	-11.4231
殴	-11.4231
ョ	-11.4231
k	-11.4232
須	-11.4232
カルシウム	-11.4232
帥	-11.4232
庵	-11.4232
扉	-11.4232
擇	-11.4232
すさまじい	-11.4232
カナダ	-11.4232
仲たがい	-11.4232
鰐	-11.4232
交互に	-11.4232
蔓	-11.4232
▁あの使い方のチェック	-11.4232
▁えーっと安全度の自己診断	-11.4232
▁えー使い方の自己診断	-11.4232
▁えー安全度の自己診断	-11.4232
ドラマ	-11.4232
ブランデー	-11.4232
行なわれた	-11.4232
▁相互	-11.4232
びっくりして	-11.4232
濫	-11.4232
燗	-11.4232
篭	-11.4232
ケーブル	-11.4232
チョーク	-11.4232
北朝霞	-11.4232
卜	-11.4232
咳	-11.4232
相模原	-11.4232
籤	-11.4232
莫	-11.4232
竿	-11.4232
薫	-11.4232
飴	-11.4232
子寬燭舛	-11.4232
猛烈に	-11.4232
絃	-11.4232
鯛	-11.4232
やかましく	-11.4232
桐	-11.4232
スプーン	-11.4232
を売って	-11.4232
新木場	-11.4232
培養	-11.4232
群れをなして	-11.4232
▁この上なく	-11.4232
独特の	-11.4232
昭和	-11.4232
を築く	-11.4232
封建	-11.4232
堤防	-11.4232
転換	-11.4232
粘膜	-11.4232
頑固	-11.4232
包囲	-11.4232
誇張	-11.4232
いただけませんか	-11.4232
わかりません	-11.4232
百年	-11.4233
停泊	-11.4233
助詞	-11.4233
補佐	-11.4233
たくましい	-11.4233
効能	-11.4233
に次ぐ	-11.4233
規格	-11.4233
人工衛星	-11.4233
未知の	-11.4233
われわれ	-11.4233
恒星	-11.4233
遊戯	-11.4233
元気かい私の予約状況	-11.4233
四谷	-11.4233
祝賀	-11.4233
少なくとも	-11.4234
苦悩	-11.4234
のに用いる	-11.4234
慣例	-11.4234
接待	-11.4234
あらまし	-11.4234
征服	-11.4234
知り合い	-11.4234
タンク	-11.4234
調停	-11.4234
依存	-11.4234
何らかの	-11.4234
まぶた	-11.4234
貝殻	-11.4234
仕組み	-11.4234
患部	-11.4235
決める	-11.4235
仕返し	-11.4235
就業	-11.4235
誤差	-11.4235
水の	-11.4235
わざわざ	-11.4235
屈折	-11.4235
やりくり	-11.4235
記載	-11.4235
混雑	-11.4236
いっそう	-11.4236
残忍	-11.4236
静脈	-11.4236
勝敗	-11.4236
往生	-11.4236
吉田さん	-11.4237
威光	-11.4237
解散	-11.4237
きっぱり	-11.4237
単独	-11.4237
酒に酔って	-11.4238
脱獄	-11.4238
必ずしも	-11.4238
▁国境	-11.4238
座標	-11.4239
壊れ	-11.4239
真似	-11.4239
もせず	-11.4239
阿部	-11.4239
絶縁	-11.4239
浄土	-11.424
オール	-11.424
小学校	-11.424
著書	-11.424
じいさん	-11.424
強制的に	-11.424
剣術	-11.424
武術	-11.424
▁強制	-11.4241
四季	-11.4241
発育	-11.4241
敬礼	-11.4241
強烈な	-11.4241
鳥獣	-11.4241
異なった	-11.4241
世襲	-11.4241
信頼できる	-11.4242
笑顔	-11.4242
通用	-11.4242
政務	-11.4242
本日	-11.4242
連結	-11.4242
稔ちゃん	-11.4243
食べられる	-11.4243
難破	-11.4243
破滅	-11.4244
不可能だ	-11.4244
信託	-11.4244
感じを与える	-11.4244
令状	-11.4244
連邦	-11.4244
▁松本	-11.4245
順位	-11.4245
定期的に	-11.4245
かなわない	-11.4246
話し方	-11.4246
全集	-11.4246
ダン	-11.4246
いたしました	-11.4246
廻り	-11.4246
▁井戸	-11.4246
ぞっとし	-11.4247
へだて	-11.4247
坂本	-11.4248
苦難	-11.4248
もらって	-11.4249
▁国立	-11.4249
漢文	-11.425
取扱い	-11.425
値上げ	-11.4252
すがた	-11.4252
暗記	-11.4252
立川	-11.4253
喜んだ	-11.4253
無臭	-11.4253
走っている	-11.4253
伝達	-11.4253
▁疲れ	-11.4254
を申し込む	-11.4254
▁年をとって	-11.4255
障り	-11.4255
つま先	-11.4256
悪党	-11.4256
▁火山	-11.4256
渡った	-11.4257
好きだ	-11.4257
らっぱ	-11.4258
無効	-11.4259
▁網	-11.4259
連隊	-11.4259
からといって	-11.426
大学で	-11.426
性欲	-11.4261
声明	-11.4261
合奏	-11.4261
観光客	-11.4263
器量	-11.4263
地表	-11.4263
過ち	-11.4264
▁レストラン	-11.4264
を生む	-11.4265
話して	-11.4265
見渡す	-11.4266
自称	-11.4266
▁恐れ	-11.4267
乗船	-11.4268
海産	-11.4268
ひそ	-11.4268
とらわれ	-11.4269
善意	-11.4269
▁その話は	-11.427
気絶	-11.427
の客	-11.4272
答えた	-11.4272
ふくらませ	-11.4273
not	-11.4273
なさけ	-11.4273
▁えい	-11.4274
店員	-11.4274
くぎり	-11.4275
所有者	-11.4276
一段と	-11.4276
賢明な	-11.4279
読み方	-11.4281
平凡な	-11.4283
▁私の元気かい予約	-11.4284
走ること	-11.4284
ときは	-11.4284
ページ置	-11.4285
唱える	-11.4286
書きしるす	-11.4287
▁冷静	-11.4288
の役	-11.4289
退学	-11.429
鶯谷	-11.429
放す	-11.429
外界	-11.4291
▁厚	-11.4294
支配者	-11.4294
移し	-11.4295
▁巻き	-11.4298
しょうゆ	-11.4299
これこれ	-11.43
▁犬が	-11.4301
通ってい	-11.4301
着ける	-11.4302
▁不可	-11.4303
開会	-11.4304
に浮かぶ	-11.4306
▁漸	-11.4306
新橋	-11.4308
ヘルパーさん	-11.4309
の支払い	-11.431
小岩	-11.431
ためになる	-11.4314
▁彼は父親	-11.4314
もともと	-11.4315
ぐり	-11.4315
堅	-11.4316
重ねて	-11.4317
こわれた	-11.4317
と言われる	-11.4318
を構成する	-11.4318
▁゚	-11.4318
武者	-11.4318
▁木の	-11.4319
三日	-11.4319
一刻	-11.4321
希望を	-11.4324
無関係	-11.4326
音便	-11.4327
すす	-11.4327
祝う	-11.4328
▁寄	-11.4328
th	-11.4329
の割合	-11.433
中身	-11.433
変え	-11.4331
のではないかと	-11.4333
▁部屋の	-11.4335
浄化	-11.4336
分の一	-11.4338
風土	-11.4338
書画	-11.4338
腕力	-11.434
的には	-11.4341
▁兼	-11.4341
当たって	-11.4342
▁得	-11.4343
霧が	-11.4344
熱心な	-11.4344
いわれ	-11.4344
積み重ね	-11.4345
さまざまの	-11.4346
▁ペ	-11.4347
寄せ集め	-11.4348
活動する	-11.4351
のほうへ	-11.4351
まさ	-11.4352
なう	-11.4353
▁彼は彼女を	-11.4354
歌劇	-11.4356
内輪	-11.4356
▁彼から	-11.4358
▁天地	-11.436
暴動	-11.4361
▁赤ん坊は	-11.4364
▁さっさと	-11.4366
▁事件の	-11.4367
家へ	-11.4369
上方	-11.437
登り	-11.4372
すらすらと	-11.4373
▁信号	-11.4374
みえ	-11.4374
言う事	-11.4375
を取った	-11.4375
を妨げる	-11.4377
不当	-11.4377
敬意を表する	-11.4377
血が	-11.4378
強いこと	-11.4379
言ったり	-11.4379
▁台所	-11.4379
ふたり	-11.4379
▁地上	-11.438
▁大便	-11.438
知事	-11.438
法会	-11.4381
亜	-11.4381
無作法	-11.4381
▁水は	-11.4381
を探る	-11.4385
を吸う	-11.4387
漢字の	-11.4387
なんとか	-11.4388
▁複	-11.4388
as	-11.4391
慣れる	-11.4392
▁先生	-11.4392
▁結果は	-11.4393
▁疑問	-11.4393
月末	-11.4394
削る	-11.4395
の形で	-11.4395
しめた	-11.4395
がね	-11.4396
靴討	-11.4402
りました	-11.4402
と言えば	-11.4402
▁ちょっと電話かける	-11.4403
主語	-11.4405
下る	-11.441
悪人	-11.441
その場	-11.4411
独自の	-11.4412
を飛ばす	-11.4412
めちゃめちゃに	-11.4414
▁大体	-11.4416
通う	-11.4421
体重	-11.4421
まけ	-11.4421
▁貴人	-11.4422
一種	-11.4423
固有の	-11.4424
磁気	-11.4427
をひいて	-11.4428
▁出産	-11.443
▁私の元気かいの予約	-11.443
▁彼はどんな	-11.4431
こっそりと	-11.4434
ことになる	-11.4434
▁彼も	-11.4435
内部の	-11.4438
▁呼び	-11.4439
▁戦争の	-11.4439
ふん	-11.444
の車	-11.4444
▁没	-11.4447
けし	-11.4447
▁今までに	-11.4448
に足りない	-11.4448
有機	-11.4449
相対	-11.445
〇〇	-11.4451
足音	-11.4451
現す	-11.4452
▁日常	-11.4455
▁むり	-11.4456
国外	-11.4456
国王	-11.4457
の仲間	-11.4457
そこまで	-11.4457
られます	-11.4459
の新	-11.4461
▁恩	-11.4464
その問題について	-11.4465
年ごとに	-11.4467
固め	-11.4467
すでに	-11.4469
くてたまらない	-11.4469
▁ヘ	-11.447
▁どん	-11.447
引いて	-11.4471
▁辛	-11.4472
そうしたもの	-11.4475
涙を流す	-11.4475
に言えば	-11.4476
国土	-11.4476
しょく	-11.4476
かねる	-11.4478
▁食物	-11.4478
タクシー	-11.4479
□・・	-11.4479
そう言った	-11.4479
の母	-11.448
無く	-11.448
と考えている	-11.4481
▁静	-11.4481
請け	-11.4481
潔白	-11.4481
繁殖	-11.4482
の下で	-11.4482
▁風呂	-11.4483
伸ばし	-11.4485
仕える	-11.4485
われて	-11.4486
▁郵便局	-11.4488
D	-11.4489
▁裁縫	-11.449
きら	-11.449
たびたび	-11.449
いよいよ	-11.449
をさせる	-11.4493
▁よし	-11.4495
インターネットのページをスマホ	-11.4495
洪水	-11.4496
ビタミン	-11.4496
▁女子	-11.4496
▁川口	-11.4496
ひる	-11.4497
▁兄弟	-11.4498
公開	-11.4499
ばくち	-11.45
優しい	-11.4501
酸味	-11.4502
T	-11.4503
建設	-11.4504
どうやら	-11.4504
に現れた	-11.4504
地味	-11.4504
哀	-11.4506
梅雨	-11.4507
山頂	-11.4507
明治	-11.4508
正直に	-11.4508
偏見	-11.4509
倒し	-11.4509
腹を立てる	-11.451
にし	-11.451
の者が	-11.451
ld	-11.4512
インフレ	-11.4513
ぜひ	-11.4513
▁サン	-11.4514
本心	-11.4514
▁種種の	-11.4514
ほのか	-11.4514
手に入れた	-11.4515
トリ	-11.4517
▁彼はひどく	-11.4518
▁昆虫	-11.4519
予備	-11.4519
救急車を呼んで	-11.4522
集まっている	-11.4522
悪意	-11.4522
この辺	-11.4524
けがれ	-11.4525
はかない	-11.4526
チョウ	-11.4526
の薬	-11.4526
蹴	-11.4527
写真をいまから送信	-11.4528
の骨	-11.4528
ておきなさい	-11.4529
違っている	-11.453
を愛する	-11.4531
海底	-11.4531
▁地獄	-11.4531
二人以上	-11.4533
意味の	-11.4535
があまり	-11.4536
六つ	-11.4537
語った	-11.4539
▁セ	-11.4541
▁とんでもない	-11.4541
るでしょう	-11.4543
のうまい	-11.4544
熱心	-11.4547
頼んで	-11.4549
▁くず	-11.4552
芸者	-11.4553
熟した	-11.4555
に来た	-11.4556
武士の	-11.4556
なるほど	-11.4556
正常	-11.4557
高値	-11.4557
外見	-11.4559
▁時代	-11.456
立体	-11.456
仏道	-11.456
セーター	-11.4564
が落ちる	-11.4567
▁貝	-11.4568
思っている	-11.4568
と水	-11.4569
綴	-11.457
▁和歌	-11.457
▁赤道	-11.4571
赤道	-11.4573
宿題	-11.4573
まさか	-11.4575
さも	-11.4576
自分を	-11.4576
同等	-11.4579
いくさ	-11.4581
先日	-11.4584
の糸	-11.4586
主人の	-11.4586
今でも	-11.4588
▁この問題は	-11.4591
大根	-11.4592
メッセちょっと	-11.4592
▁彼は妻	-11.4593
枝が	-11.4593
▁ポケット	-11.4596
▁烏	-11.4598
噴	-11.4599
の旅	-11.4599
十一	-11.46
ぼし	-11.46
▁聴覚	-11.46
千万円	-11.4601
▁江戸時代に	-11.4602
あるものを	-11.4603
▁めでたい	-11.4604
あふれてい	-11.4606
の回転	-11.4607
▁だれにも	-11.4607
大砲	-11.461
▁文章の	-11.4616
過労	-11.4617
一撃	-11.462
組む	-11.4621
▁靴を	-11.4624
をうつ	-11.4626
して下さい	-11.4626
▁do	-11.4626
▁灰	-11.4626
悪口を言う	-11.4627
鷹	-11.4628
乗せて	-11.4633
見掛け	-11.4633
乱暴に	-11.4633
▁熱帯	-11.4634
いかがですか	-11.4635
が無い	-11.4636
相談する	-11.4636
駐車	-11.4637
通過	-11.4637
成る	-11.4638
▁講義	-11.4639
甘く	-11.4639
のところで	-11.4639
▁応	-11.4642
ならなかった	-11.4642
▁穀物	-11.4642
りやすい	-11.4642
を注ぐ	-11.4642
グレ	-11.4644
できるだけ	-11.4645
散り	-11.4647
▁八百屋	-11.4648
外から	-11.4648
▁こんなに	-11.4648
▁排水	-11.4651
事を行う	-11.4651
▁堅い	-11.4652
待ってい	-11.4653
▁言葉を	-11.4653
切に	-11.4655
の羽	-11.4656
▁バイオリン	-11.4656
を開始する	-11.4657
月日	-11.4659
ずし	-11.4659
うっとり	-11.466
集めて	-11.4662
やってみた	-11.4664
意見を述べる	-11.4665
科の落葉低木	-11.4665
皮を	-11.4666
をうかがう	-11.4669
▁妙	-11.4669
テント	-11.4669
打ち解け	-11.4671
野菜を	-11.4671
じた	-11.4673
行けば	-11.4678
手荷物	-11.4685
のでなく	-11.4686
土曜日	-11.4689
の午後	-11.4689
てやった	-11.469
▁まるで	-11.469
日常の	-11.4692
あんなに	-11.4692
キュ	-11.4693
▁ショートメッセージを送信	-11.4694
であり	-11.4695
管轄	-11.4696
をきれいに	-11.4697
▁インク	-11.47
此	-11.47
はっと	-11.4702
▁穴	-11.4704
問題について	-11.4706
▁春の	-11.4706
▁非常な	-11.4707
俗人	-11.4708
生理	-11.4708
戦争で	-11.4709
平地	-11.4709
▁大丈夫	-11.471
の発達	-11.471
▁身分の高い人	-11.4711
に関すること	-11.4712
価値がある	-11.4712
ter	-11.4713
この点	-11.4714
悪事を	-11.4716
説得	-11.4717
▁情け	-11.4717
がとれる	-11.4717
供える	-11.4717
▁じゃ	-11.4719
を加えた	-11.4723
▁小麦	-11.4727
ずく	-11.4728
こわす	-11.4728
▁んー安全かどうかのチェック	-11.4731
せられた	-11.4731
の鳥	-11.4735
かぬ	-11.4736
を知らせる	-11.4737
党員	-11.4738
苦しく	-11.4738
ことがわかっ	-11.4739
さあ	-11.4739
はずいぶん	-11.474
に添える	-11.474
た時	-11.474
▁ある物	-11.474
五センチ	-11.4741
呈	-11.4743
ぶった	-11.4747
金属を	-11.475
概	-11.475
が出て	-11.475
横須賀	-11.4751
職につく	-11.4752
仮に	-11.4752
▁豊	-11.4755
監禁	-11.4757
間柄	-11.4759
貼	-11.4759
発作	-11.4759
つる草	-11.4761
召し	-11.4761
をしのぐ	-11.4763
上陸	-11.4764
母親の	-11.4764
を乱す	-11.4764
をたたいて	-11.4766
確実	-11.4767
られること	-11.4768
て言う語	-11.4768
表した	-11.4772
に及ぶ	-11.4772
▁都会	-11.4773
選ぶ	-11.4773
の仲	-11.4774
▁妊娠	-11.4774
配り	-11.4777
にぶい	-11.4778
すみません	-11.4779
滅び	-11.478
ポン	-11.478
を見捨て	-11.4781
作られる	-11.4782
の政治	-11.4782
の場所	-11.4783
▁みだらな	-11.4783
▁エレベーター	-11.4783
推定	-11.4784
を捜した	-11.4785
大声	-11.4785
尋ねた	-11.4787
を晴らす	-11.4789
ウエスト	-11.4793
不愉快	-11.4794
を浴びる	-11.4795
漠	-11.4796
になるような	-11.4796
箇	-11.4797
何事も	-11.4798
産地	-11.4799
▁20	-11.48
不定	-11.48
でこぼこ	-11.48
▁昨夜は	-11.4801
提供	-11.4801
認	-11.4802
宣告	-11.4802
始末	-11.4804
永遠	-11.4806
絹布	-11.4806
一か所に	-11.4806
をすっかり	-11.4807
注ぎ	-11.4808
かなりの	-11.4809
買い物	-11.4809
媒	-11.4811
▁東洋	-11.4811
桜の	-11.4811
和子さん	-11.4812
▁表面	-11.4812
模型	-11.4812
嘆願	-11.4812
をあて	-11.4813
ブラウン	-11.4813
▁電力	-11.4814
▁男性	-11.4814
鋒	-11.4814
を禁じ	-11.4815
賓	-11.4815
静けさ	-11.4816
委	-11.4817
蕩	-11.4817
に値する	-11.4817
提携	-11.4818
に伴う	-11.4818
蹐	-11.4818
惜しみ	-11.4818
錯	-11.4818
▁鉄道の	-11.4818
斗	-11.4819
F	-11.4819
弥	-11.4819
需	-11.4819
撮	-11.4819
せっせと	-11.482
杉	-11.482
▁妻の	-11.482
を払って	-11.482
苛	-11.482
拳銃	-11.482
悊	-11.482
奨	-11.482
款	-11.482
喝	-11.482
紗	-11.482
廃棄物	-11.482
朴	-11.482
燕	-11.482
G	-11.482
スイッチ	-11.482
トマト	-11.482
▁あの安全度の診断	-11.482
▁えーっと使い方のチェック	-11.482
ジャングル	-11.482
次から次へと	-11.482
うろたえ	-11.482
ぎゅっと	-11.482
にかかわらず	-11.482
をきわめる	-11.482
を慰める	-11.482
タッチ	-11.482
ホルモン	-11.482
大げさに	-11.482
奨学金	-11.482
憐	-11.482
文房具	-11.482
▁飢え	-11.482
曚	-11.482
痔	-11.482
L	-11.482
いわゆる	-11.482
吾	-11.482
徐々に	-11.482
詮	-11.482
を仰ぐ	-11.482
鯉	-11.482
コルク	-11.482
▁二十四気	-11.482
誼	-11.482
閨	-11.482
表彰	-11.482
煩悩	-11.482
ちゅうちょ	-11.482
イングランド	-11.482
たきぎ	-11.482
夜が明け	-11.482
催促	-11.4821
旭川	-11.4821
巡査	-11.4821
プリント	-11.4821
保障	-11.4821
えーっと安全度のチェックチェック	-11.4821
混合	-11.4821
外套	-11.4821
カーブ	-11.4821
結末	-11.4821
周旋	-11.4821
潜水艦	-11.4821
発酵	-11.4821
五月ごろ	-11.4821
ミシン	-11.4821
▁東大阪	-11.4821
功労	-11.4821
激励	-11.4822
セメント	-11.4822
放射線	-11.4822
やさしく	-11.4822
ウェ	-11.4822
をたたき	-11.4822
賃上げ	-11.4822
腐敗	-11.4822
関東	-11.4822
ミング	-11.4822
ねばならない	-11.4822
簿記	-11.4822
ギヤ	-11.4822
水道橋	-11.4822
郷里	-11.4822
デート	-11.4823
土俵	-11.4823
皇族	-11.4823
光栄	-11.4823
婚礼	-11.4823
休止	-11.4823
デモ	-11.4824
球技	-11.4824
長い年月	-11.4824
▁興行	-11.4824
に含まれる	-11.4824
ジャム	-11.4824
冷凍	-11.4824
發里	-11.4824
鮮明	-11.4824
見出し	-11.4824
住んでいた	-11.4824
たくみに	-11.4824
因縁	-11.4825
ソン	-11.4825
大崎	-11.4825
の列車	-11.4825
工具	-11.4825
神秘的な	-11.4826
達成	-11.4826
百姓	-11.4826
▁どう使えばいい	-11.4826
ほんの少し	-11.4826
ある種の	-11.4826
浜辺	-11.4826
明らか	-11.4826
焼ける	-11.4827
群集	-11.4827
情景	-11.4827
失策	-11.4827
危害	-11.4827
ていないこと	-11.4828
売り上げ	-11.4828
自動的に	-11.4828
草稿	-11.4828
卒業生	-11.4828
はげしく	-11.4828
▁この部屋は	-11.4828
音を出す	-11.4828
荒廃	-11.4828
寄生	-11.4829
緑色で	-11.4829
映画館	-11.4829
コードすぐ	-11.4829
殺害	-11.4829
に報いる	-11.4829
徳島	-11.4829
メモ	-11.483
に相当する	-11.483
実施	-11.4831
泣いた	-11.4831
けがをした	-11.4831
体育	-11.4831
カット	-11.4831
可能な	-11.4832
誠意	-11.4832
成句	-11.4832
高貴	-11.4832
▁技術	-11.4832
会わない	-11.4833
要約	-11.4833
クマ	-11.4833
こぼし	-11.4833
断定	-11.4833
半島	-11.4834
▁頬	-11.4834
定刻	-11.4834
おおもと	-11.4834
不便	-11.4834
▁中古	-11.4834
皮膚病	-11.4835
▁拙	-11.4835
みがき	-11.4835
パンチ	-11.4835
合議	-11.4835
逆転	-11.4835
九州	-11.4835
反省	-11.4835
一晩中	-11.4835
生育	-11.4836
にあずかる	-11.4836
▁悲	-11.4836
火鉢	-11.4836
くじら	-11.4836
引き出し	-11.4836
真価	-11.4836
▁女性の	-11.4836
その上	-11.4837
重荷	-11.4837
▁処女	-11.4838
原野	-11.4838
利息	-11.4839
長生き	-11.4839
▁湖	-11.4839
▁ポスト	-11.4839
手がかり	-11.4839
計器	-11.484
▁幽	-11.4841
▁田	-11.4841
ちがい	-11.4842
▁元気かいの俺の予約	-11.4842
を証明する	-11.4843
上司	-11.4843
粒子	-11.4843
歴史的	-11.4843
すっきり	-11.4844
純白	-11.4844
もはや	-11.4845
▁仙台	-11.4845
浅草橋	-11.4846
たぐい	-11.4847
▁ここに	-11.4847
選手権	-11.4847
読み書き	-11.4848
黄色で	-11.4849
となえる	-11.4849
ところがあった	-11.4849
手に入れ	-11.485
暗示	-11.485
をなしている	-11.485
▁ペンキ	-11.485
あげく	-11.4851
単なる	-11.4851
出帆	-11.4851
多くの人	-11.4853
整数	-11.4855
してから	-11.4855
にあてる	-11.4855
春日井	-11.4856
▁ゆ	-11.4856
斜め	-11.4858
砂利	-11.4858
▁身長	-11.4858
▁脊椎動物の	-11.4858
に入っている	-11.4858
陣地	-11.4859
大学の	-11.4859
一まとまり	-11.486
あざやかな	-11.486
に気づいた	-11.4861
▁費用は	-11.4861
▁シェイクスピア	-11.4861
▁こちら	-11.4862
救い	-11.4862
歌曲	-11.4863
時ごろ	-11.4863
をこしらえる	-11.4863
不和	-11.4863
穂状	-11.4863
ちがう	-11.4864
公判	-11.4865
会社に	-11.4865
当座	-11.4865
なくては	-11.4866
を結び	-11.4867
な男	-11.4868
坊や	-11.4869
学位	-11.487
▁私は彼女	-11.487
弱く	-11.487
▁吸	-11.487
あつ	-11.4871
行か	-11.4871
獲得	-11.4871
にすむ	-11.4871
好ましくない	-11.4872
▁新聞の	-11.4872
▁肥	-11.4872
たぶん	-11.4873
通例	-11.4874
▁なお	-11.4874
浅く	-11.4875
▁ほら	-11.4876
もらいたい	-11.4877
資本家	-11.4877
▁舟	-11.4877
を確かめる	-11.4878
日常	-11.4879
帆船	-11.488
米を	-11.4881
いっぱいに	-11.4882
ぶね	-11.4883
実が	-11.4884
に参加する	-11.4886
柔らかな	-11.4886
浮かぶ	-11.4886
▁れい	-11.4886
谷間	-11.4887
くだもの	-11.4887
をいう	-11.4887
音程	-11.4888
方策	-11.4888
主任	-11.4889
不完全	-11.4889
▁あの男の	-11.489
々たる	-11.489
休息	-11.4891
そうな様子	-11.4893
▁不平	-11.4895
不明の	-11.4895
第三者	-11.4896
との中間	-11.4896
水や	-11.4896
才気	-11.4897
いいですか	-11.4897
帰国	-11.4897
▁しばらく	-11.4898
の側	-11.4898
▁こく	-11.4898
▁昼食	-11.4899
下院	-11.4899
かんで	-11.49
▁聖書	-11.4902
のないように	-11.4903
▁絵画	-11.4904
をたどる	-11.4904
▁濃	-11.4905
酔う	-11.4905
▁質問	-11.4906
に似ているが	-11.4906
この計画	-11.4907
半期	-11.4908
送金	-11.4909
あいている	-11.4909
▁°	-11.4912
示した	-11.4913
▁遠い	-11.4913
の景色	-11.4913
度数	-11.4914
ーム	-11.4914
た食品	-11.4914
でもある	-11.4916
▁困難	-11.4917
▁警戒	-11.4918
▁透	-11.4918
▁ジョン	-11.4919
▁国の	-11.492
説く	-11.4922
▁キリスト教で	-11.4923
▁の湿度	-11.4924
がちだ	-11.4924
返した	-11.4924
のしみ	-11.4925
僕が	-11.4926
金持	-11.4927
作物の	-11.4928
土地の	-11.4928
▁職務	-11.4928
▁つめ	-11.4929
歩道	-11.4929
創作	-11.493
上尾	-11.493
音の	-11.4931
ないうちに	-11.4931
学校の	-11.4931
王国	-11.4934
おかず	-11.4935
包む	-11.4935
蕕譴	-11.4936
正確	-11.4937
全世界	-11.4937
登る	-11.4937
豊中	-11.4938
だれの	-11.4938
砂糖を	-11.4938
小説家	-11.4944
のおかげで	-11.4947
とらえ	-11.4949
腐れ	-11.4949
にそむく	-11.495
もも	-11.4952
生物が	-11.4953
▁公共	-11.4955
▁彼は友人	-11.4956
よくよく	-11.4956
▁株式	-11.4957
▁軍艦	-11.4957
てきている	-11.4958
あわせること	-11.4961
▁私たちの	-11.4963
をなくした	-11.4964
を他の	-11.4966
物事を行う	-11.4966
へや	-11.4967
▁交番	-11.4967
貯え	-11.4967
▁ジャ	-11.4967
詩の	-11.4968
滑	-11.497
▁しょ	-11.4973
越年生	-11.4973
に分けて	-11.4974
の荒い	-11.4975
を巻く	-11.4975
▁軍人	-11.4975
銃声	-11.4976
けもの	-11.4978
ふところ	-11.4978
巻きつけ	-11.4978
白色で	-11.498
一年中	-11.4981
不作	-11.4981
つやがある	-11.4981
よくわかる	-11.4985
お茶を	-11.4986
点数	-11.4987
大笑い	-11.4987
に話す	-11.4991
すわること	-11.4992
実地に	-11.4992
▁釣	-11.4992
と聞いて	-11.4995
加わる	-11.4996
上演	-11.4996
どく	-11.4997
▁カメラ	-11.4997
を握る	-11.4997
自分から	-11.4998
のだろうか	-11.5
▁そういう	-11.5
政界	-11.5
日曜	-11.5
に悩む	-11.5001
の花が	-11.5001
割れた	-11.5002
赤羽	-11.5005
かぶと	-11.5005
はめ	-11.5007
助けてくれ	-11.5007
の一派	-11.5008
いまから電話する	-11.501
そうだった	-11.501
▁食物を	-11.5012
を見ること	-11.5012
お話	-11.5013
ならす	-11.5014
▁頓	-11.5016
▁かわいい	-11.5016
求めること	-11.5019
大家	-11.5019
道が	-11.5019
▁悪魔	-11.502
したものだ	-11.502
金町	-11.5021
せなかった	-11.5022
かろう	-11.5022
の責任	-11.5024
▁又	-11.5025
▁狩猟	-11.5025
▁人類	-11.5025
ができ	-11.5026
▁運賃	-11.5028
▁彼女を	-11.5029
とどめ	-11.5029
を勤める	-11.503
東洋	-11.5031
新聞で	-11.5032
投げる	-11.5032
が切れ	-11.5034
なまけ	-11.5035
降った	-11.5035
きました	-11.5038
を述べた	-11.504
急所	-11.504
を掘り	-11.5042
を抜いて	-11.5044
をつなぐ	-11.5044
▁会場	-11.5045
廃物	-11.5048
しません	-11.5048
計画を立てる	-11.5049
もんか	-11.5049
るため	-11.5049
首に	-11.505
もしなかった	-11.505
くれない	-11.5051
夏に	-11.5051
▁まさか	-11.5051
すぐれたもの	-11.5056
▁枕	-11.5056
小便	-11.5056
▁ベッド	-11.5058
その上に	-11.5059
の保護	-11.5059
▁家屋	-11.506
▁敬	-11.5063
▁邪	-11.5064
▁この世	-11.5068
▁侍	-11.5069
がれる	-11.5072
申し上げ	-11.5072
せば	-11.5074
あれほど	-11.5077
▁意地	-11.5077
きる	-11.5078
海上	-11.5082
▁当て	-11.5084
▁工事	-11.5084
共鳴	-11.5086
▁かき	-11.5089
▁実物	-11.509
じき	-11.5091
を楽しむ	-11.5093
▁明かり	-11.5093
になります	-11.5094
通じている	-11.5094
細君	-11.5095
一派	-11.5095
実体	-11.5096
▁やり	-11.5098
遅	-11.51
に咲く	-11.5102
▁むだ	-11.5104
その場で	-11.5105
明後日の天気	-11.5106
論ずる	-11.5107
日曜日	-11.5107
分別	-11.5108
行ない	-11.5109
はかま	-11.5109
順調に	-11.5111
ポスト	-11.5111
当時の	-11.5113
▁保険	-11.5114
▁話の	-11.5116
をつけない	-11.5118
の報道	-11.512
もありません	-11.5122
▁長さ	-11.5123
の小説	-11.5124
をなして	-11.5124
の価格	-11.5125
一通り	-11.5126
君も	-11.5127
っていて	-11.5129
去って	-11.5133
▁正面	-11.5134
閉じる	-11.5134
幾つ	-11.5134
時期に	-11.5134
不幸な	-11.5134
▁運命	-11.5135
▁怪	-11.5135
音が	-11.5136
▁ジョンは	-11.5138
飼う	-11.5138
で書いた	-11.5139
を望む	-11.5143
▁T	-11.5147
▁建設	-11.5148
紙の	-11.5151
だらけ	-11.5152
を加えること	-11.5153
等で	-11.5153
いまからメッセージ	-11.5154
靴覆	-11.5154
▁彼女は自分	-11.5155
そろえ	-11.5156
H	-11.5157
▁原子	-11.5158
▁すでに	-11.5158
問題が	-11.5158
面が	-11.5159
帳簿	-11.5159
陰謀	-11.5162
紛	-11.5163
に残る	-11.5163
ジャズ	-11.5165
凶	-11.5168
から離れて	-11.5168
▁明日は	-11.5168
焼けて	-11.5169
▁誤った	-11.5169
歩調	-11.517
をかむ	-11.5171
排	-11.5172
に走る	-11.5172
俺の元気かい予約	-11.5172
痛みが	-11.5173
イタリア	-11.5174
小麦粉	-11.5174
それでも	-11.5174
持っていること	-11.5176
の豊かな	-11.5176
流出	-11.5178
▁パイプ	-11.5178
食卓	-11.5179
虫が	-11.5179
大気	-11.518
田舎	-11.5181
がたまる	-11.5181
当日	-11.5181
拾	-11.5182
を送った	-11.5182
ひね	-11.5184
任命	-11.5184
食料	-11.5185
野外	-11.5188
▁何ができる	-11.5188
その辺	-11.5189
警察呼びに電話	-11.5189
小石	-11.519
神道	-11.5193
済み	-11.5196
船を	-11.5197
税金	-11.5198
運動をする	-11.5199
▁通信	-11.5201
ばか者	-11.5203
つみ	-11.5203
知ること	-11.5203
仕入れ	-11.5204
なれば	-11.5204
花の	-11.5207
▁施	-11.521
▁書籍	-11.5211
人人が	-11.5211
伝える	-11.5211
私たちは	-11.5213
粉末	-11.5213
書物の	-11.5214
北方	-11.5214
西部	-11.5217
コードのページスマホ	-11.5217
▁洗濯	-11.5218
らせること	-11.5219
▁値段	-11.5221
を与えること	-11.5221
映画の	-11.5223
▁禁酒	-11.5224
▁袖	-11.5224
告白	-11.5225
一か月	-11.5228
の着物	-11.5228
▁なぞ	-11.5229
に属し	-11.5237
女だ	-11.5238
あの世	-11.5239
▁憲法	-11.524
版画	-11.524
吹く風	-11.5241
本国	-11.5244
で打つ	-11.5244
▁昨日	-11.5245
を去る	-11.5246
▁細かく	-11.5247
▁彼は何	-11.5247
すし	-11.5249
降ろ	-11.525
▁特別の	-11.525
を引いた	-11.525
の知識	-11.5252
▁準備	-11.5253
普通より	-11.5254
時だ	-11.5255
馬に乗って	-11.5255
現れた	-11.5257
信じる	-11.5259
▁駄	-11.5259
を帯びて	-11.5259
寬	-11.5261
▁彼らに	-11.5262
敬意	-11.5262
▁栄養	-11.5263
尊重	-11.5263
▁爪	-11.5264
を上げて	-11.5265
はまるで	-11.5266
▁予想	-11.5266
▁まっすぐ	-11.5267
プレ	-11.5267
は僕の	-11.5268
の近くに	-11.5272
▁使い方を教えて	-11.5272
▁老い	-11.5272
力学	-11.5274
糸で	-11.5275
打ち明け	-11.5276
じょうずに	-11.5276
恐れて	-11.5276
切ること	-11.5277
接する	-11.5278
▁濃い	-11.5278
警察に	-11.5284
はいる	-11.5285
抜いて	-11.5286
▁きょうの	-11.5289
▁かなり	-11.5291
メッセージをいまから送信	-11.5293
くっつく	-11.5294
新人	-11.5295
▁p	-11.5295
▁手術	-11.5295
始まる	-11.5296
大人	-11.5296
六月	-11.5297
▁まめ	-11.5297
頑張	-11.5299
▁いつか	-11.5304
番目	-11.5304
▁天才	-11.5307
の戦い	-11.5307
大都市	-11.5308
部屋の中	-11.531
▁就職	-11.5313
の力で	-11.5313
フォー	-11.5313
経済的	-11.5314
表現する	-11.5315
青空	-11.5315
多くの人が	-11.5316
きれない	-11.5317
はじき	-11.5319
▁品質	-11.5321
債	-11.5322
▁いっしょに	-11.5325
▁図書館	-11.5326
世を	-11.5326
時刻に	-11.5326
同類の	-11.5326
の計画	-11.5327
額に	-11.5327
を動かす	-11.5328
一番よい	-11.533
している人	-11.5331
ないのに	-11.5331
ちょっとショートメッセージを	-11.5332
▁かぜ	-11.5335
ローマ字	-11.5335
の重さ	-11.5336
▁やがて	-11.5336
値打ち	-11.5337
▁方方	-11.534
▁冒険	-11.5341
右手	-11.5341
こもって	-11.5342
から成り	-11.5343
ずき	-11.5344
飛んでい	-11.5349
赤ん坊を	-11.5349
してやった	-11.5351
で写真ちょっと	-11.5352
の順序	-11.5353
腰掛け	-11.5353
ドライブ	-11.5353
暖地	-11.5354
を包む	-11.5356
言われる	-11.5358
この仕事	-11.5359
簡単	-11.536
▁畳	-11.5362
があったら	-11.5363
に分かれて	-11.5366
は薬用	-11.5366
僕に	-11.5367
飛行機が	-11.5368
公認	-11.5371
しかけ	-11.5372
▁書物を	-11.5372
の幼虫	-11.5372
▁彼らは彼の	-11.5374
に産する	-11.5376
あじ	-11.5377
休め	-11.5377
を捜して	-11.5377
▁彼は私より	-11.5377
出入	-11.5377
燃	-11.5378
救急車を呼ぶ	-11.5382
その日の	-11.5383
▁内閣	-11.5385
見ても	-11.5385
分割	-11.5385
ぐれ	-11.5385
突き出た	-11.5386
▁婚約	-11.5387
の和	-11.5389
ひっくり返	-11.5389
▁ある事を	-11.5391
の中にある	-11.5392
▁たいていの	-11.5393
まとめた	-11.5393
大胆	-11.5393
学士	-11.5393
▁会計	-11.5393
が切れる	-11.5396
ためには	-11.5397
をつぶす	-11.5403
▁独立	-11.5405
臨終	-11.5405
山道	-11.5405
僕には	-11.5406
▁何が	-11.5406
未開	-11.5406
▁神田	-11.5407
気になった	-11.5408
やすく	-11.5409
が悪く	-11.5409
恨	-11.541
ドリ	-11.5411
▁アイ	-11.5411
反乱	-11.5412
記した	-11.5412
御所	-11.5413
▁ボール	-11.5414
が残る	-11.5415
縁組	-11.5416
掘	-11.5416
募	-11.5416
努力した	-11.5417
軽率	-11.5419
写真いまから	-11.542
歩き回る	-11.5421
▁もう一度	-11.5421
に気をつけ	-11.5422
の主人	-11.5423
をしないこと	-11.5423
反逆	-11.5424
をもらって	-11.5424
▁はな	-11.5424
杯の	-11.5425
▁船を	-11.5425
別れる	-11.5426
共産主義	-11.5426
液体の	-11.5426
般	-11.5427
わた	-11.5428
厄	-11.543
征	-11.5431
こっち	-11.5431
稼ぎ	-11.5433
を挙げる	-11.5433
の技術	-11.5434
婦人用	-11.5434
は言えない	-11.5434
余る	-11.5434
捻	-11.5435
岐	-11.5435
中年	-11.5435
▁抗	-11.5436
究	-11.5436
小作	-11.5437
汽	-11.5437
吉祥寺	-11.5437
舞浜	-11.5437
出資	-11.5438
南越谷	-11.5438
痕	-11.5438
威勢	-11.5438
武蔵溝の口	-11.544
申しあげます	-11.544
にはいる	-11.544
▁幸運	-11.544
婆	-11.544
囲碁	-11.544
▁駐車場	-11.5441
北九州	-11.5441
を支える	-11.5441
臼	-11.5442
まんまと	-11.5442
研	-11.5442
郡	-11.5442
容赦	-11.5443
謹	-11.5443
肢	-11.5443
をこうむる	-11.5444
▁えーっと安全度のチェック	-11.5444
いかがわしい	-11.5444
スピーチ	-11.5445
絵をかく	-11.5445
粟	-11.5445
爐	-11.5445
遡	-11.5445
瘡	-11.5445
屠	-11.5445
稜	-11.5445
窟	-11.5445
x	-11.5445
狡	-11.5445
撥	-11.5445
謙遜	-11.5445
ぐるりと	-11.5445
ちょっぴり	-11.5445
ナトリウム	-11.5445
丁寧に	-11.5445
准	-11.5445
祥	-11.5445
▁あの使い方の自己診断	-11.5445
▁あの安全診断	-11.5445
▁えー安全自己診断	-11.5445
▁すぐに救急車呼ぶから電話	-11.5445
▁んー使い方の診断	-11.5445
▁んー安全かどうかの診断	-11.5445
そわそわ	-11.5445
俊	-11.5445
躯	-11.5445
鄙	-11.5445
あこがれ	-11.5445
そろばん	-11.5445
とは限らない	-11.5445
ステレオ	-11.5445
吠	-11.5445
未亡人	-11.5445
途方もない	-11.5445
ボクサー	-11.5445
幾重にも	-11.5445
斧	-11.5445
猥	-11.5445
疵	-11.5445
聾	-11.5445
誅	-11.5445
オフィス	-11.5445
オーケストラ	-11.5445
只	-11.5445
欺	-11.5445
漿	-11.5445
▁えー安全度のチェックチェック	-11.5445
アルミニウム	-11.5445
サーカス	-11.5445
廓	-11.5445
灌	-11.5445
びっくりする	-11.5445
註	-11.5445
が伴う	-11.5445
孟	-11.5445
膨張	-11.5445
正方形	-11.5445
プラスチック	-11.5445
伸縮	-11.5445
出てくる	-11.5445
認可	-11.5445
いろんな	-11.5445
けしからぬ	-11.5445
グラム	-11.5445
徴候	-11.5446
かろうじて	-11.5446
採掘	-11.5446
用途が広い	-11.5446
鎌倉	-11.5446
ニュー	-11.5446
調味料	-11.5446
崩壊	-11.5446
のらくら	-11.5446
か否か	-11.5446
ラッパ	-11.5446
至る所	-11.5446
強引に	-11.5446
問答	-11.5446
きく科の多年生植物	-11.5446
誓約	-11.5446
ブラック	-11.5446
包丁	-11.5446
実践	-11.5446
こまかく	-11.5446
も同然だ	-11.5446
を越えた	-11.5446
諸侯	-11.5446
圧縮	-11.5447
同種の	-11.5447
のぞき	-11.5447
何年も	-11.5447
完結	-11.5447
語彙	-11.5447
預かり	-11.5447
意匠	-11.5447
隔たり	-11.5447
了解	-11.5447
喪失	-11.5447
しのぎ	-11.5447
索引	-11.5447
裕子さん	-11.5447
傍聴	-11.5448
謝礼	-11.5448
設けられた	-11.5448
弊害	-11.5448
から岡山まで	-11.5448
▁酸	-11.5448
傑作	-11.5448
保有	-11.5448
参照	-11.5448
容積	-11.5448
曇った	-11.5448
わきまえ	-11.5448
どなた	-11.5448
海苔	-11.5448
充実	-11.5448
限定	-11.5449
He	-11.5449
堅固	-11.5449
かれて	-11.5449
炊事	-11.5449
進退	-11.5449
全般	-11.5449
例えば	-11.5449
担任	-11.5449
身分の低い	-11.5449
ペット	-11.5449
引退	-11.545
▁その川は	-11.545
あんまり	-11.545
ジム	-11.545
ちょろ	-11.545
▁彼は僕	-11.545
さいころ	-11.545
溶接	-11.545
▁誠	-11.5451
呑み	-11.5451
ノン	-11.5451
▁地球は	-11.5452
▁山野	-11.5452
の全体	-11.5452
察する	-11.5453
牢屋	-11.5453
荷造り	-11.5453
容量	-11.5453
減少	-11.5453
返礼	-11.5453
しかたがない	-11.5453
特質	-11.5453
偽造	-11.5453
ジェット機	-11.5454
を備えた	-11.5454
千代子	-11.5454
和歌山	-11.5454
選挙区	-11.5454
言葉づかい	-11.5455
おばあさん	-11.5455
酒宴	-11.5455
▁その劇は	-11.5455
がほしい	-11.5455
採点	-11.5455
優良	-11.5455
を刈る	-11.5455
逃亡	-11.5455
女郎	-11.5456
修士	-11.5456
指紋	-11.5456
無分別	-11.5456
▁問題を	-11.5456
手を振って	-11.5457
泳いで	-11.5458
不振	-11.5458
天災	-11.5458
あたま	-11.5459
忌み	-11.546
敵意	-11.546
美容	-11.546
苦境	-11.546
羽根	-11.546
技法	-11.5461
伝記	-11.5461
に至る	-11.5462
類を	-11.5462
即席	-11.5462
グル	-11.5462
合い図	-11.5462
太陽が	-11.5462
昼夜	-11.5462
片づける	-11.5462
骨組	-11.5463
占い	-11.5463
こども	-11.5464
をつけたもの	-11.5464
複写	-11.5464
ハム	-11.5465
▁海水浴	-11.5465
豊富な	-11.5465
考えられる	-11.5465
学級	-11.5466
金庫	-11.5466
慣れた	-11.5466
傷害	-11.5467
皇室	-11.5467
▁計算	-11.5467
にしても	-11.5467
▁余計な	-11.5468
文壇	-11.5469
に立って	-11.5469
引っぱる	-11.547
円の	-11.547
露骨	-11.547
▁その人の	-11.547
力のある	-11.547
競技場	-11.5471
愛好	-11.5471
の度合	-11.5471
に帰る	-11.5471
学校へ行く	-11.5471
▁P	-11.5472
好んで	-11.5472
額面	-11.5472
今頃	-11.5472
平常	-11.5472
ぴったり合う	-11.5473
もめん	-11.5473
和解	-11.5473
食料品	-11.5474
消費者	-11.5474
婦人服	-11.5474
▁自然の	-11.5475
領主	-11.5475
ホームヘルパー	-11.5476
打ち上げ	-11.5476
通常	-11.5476
化粧品	-11.5477
▁にわかに	-11.5477
草原	-11.5478
▁責め	-11.5479
血筋	-11.5479
地盤	-11.5479
債権者	-11.5479
列車に間に合	-11.5479
寿司	-11.5479
をなくす	-11.548
じょうず	-11.5482
話し合う	-11.5482
実在	-11.5483
旅費	-11.5483
▁彼は仕事	-11.5483
フォ	-11.5484
年頃	-11.5484
を引き出す	-11.5484
後退	-11.5485
年寄り	-11.5485
薄弱	-11.5485
遺産	-11.5485
魔法	-11.5486
▁原文	-11.5486
天罰	-11.5487
荻窪	-11.5488
っぽく	-11.5488
国防	-11.5489
優美な	-11.5489
霊魂	-11.5489
の成功を	-11.5491
っ面	-11.5493
海辺	-11.5495
晴れた	-11.5495
長崎	-11.5495
我慢する	-11.5496
病気になった	-11.5496
下ろし	-11.5496
あわせて	-11.5498
▁馬を	-11.5499
君を	-11.5499
第二	-11.55
仮面	-11.55
買手	-11.5501
着用	-11.5501
なことをする	-11.5503
言う言葉	-11.5504
解き	-11.5505
ある期間	-11.5506
▁修	-11.5506
▁体重	-11.5507
腹は白	-11.5507
背が高い	-11.5508
出なかった	-11.5509
呂覆	-11.551
防火	-11.5511
船乗り	-11.5513
高め	-11.5514
あいだ	-11.5515
▁群衆は	-11.5516
一般的な	-11.5516
┐	-11.5516
に上る	-11.5517
進路	-11.5517
が最も	-11.5519
見張る	-11.552
主役	-11.5521
じろ	-11.5521
歩み	-11.5522
に書く	-11.5523
に反して	-11.5524
計算する	-11.5524
文筆	-11.5524
できます	-11.5525
親に	-11.5526
御茶ノ水	-11.5527
などで作った	-11.5527
本当だ	-11.5528
」、「	-11.5529
一塁	-11.5529
が短い	-11.553
野鳥	-11.553
▁恋愛	-11.5531
▁ちゅう	-11.5535
たいした	-11.5536
斬り	-11.5538
看護	-11.5538
られず	-11.5538
道化	-11.5538
陸上	-11.5539
▁少女	-11.5539
親等	-11.5539
なかま	-11.554
どうでも	-11.5541
周期	-11.5541
妨げ	-11.5542
で遊ぶ	-11.5544
つむ	-11.5544
旗を	-11.5545
個人的な	-11.5545
直行	-11.5546
▁ホームヘルパー	-11.5548
高輪	-11.5548
一宮	-11.5549
方々	-11.5549
そのため	-11.5549
ったりする	-11.555
の周り	-11.5551
今後	-11.5553
淡水	-11.5554
を負う	-11.5554
はく	-11.5562
見せること	-11.5562
ごし	-11.5562
右側	-11.5563
そうな顔	-11.5563
哀れな	-11.5563
あらい	-11.5564
放送局	-11.5565
関税	-11.5566
▁琴	-11.5566
つけている	-11.5566
苦しめる	-11.5568
▁喜んで	-11.557
罰金	-11.557
▁いまから電話をかける	-11.5573
ヘルパーちゃん	-11.5573
防水	-11.5573
皮膚に	-11.5574
真空	-11.5575
がよかった	-11.5575
高級	-11.5576
さびしい	-11.5577
こない	-11.5579
▁ドアが	-11.5582
量を	-11.5583
▁紅茶	-11.5584
に分け	-11.5587
に変わる	-11.5588
待って	-11.5588
▁芝居で	-11.5592
じょうずな	-11.5592
応じ	-11.5594
私にとって	-11.5596
悲	-11.5598
▁平面	-11.5598
というのが	-11.5599
▁隠れ	-11.56
個性	-11.5601
結果として	-11.5605
▁その事件は	-11.5606
同行	-11.5608
指先	-11.5608
の季節	-11.561
▁おれ	-11.561
してよい	-11.561
を感ずる	-11.561
で歩く	-11.5611
▁刺	-11.5611
の模様	-11.5611
が合わない	-11.5612
刺す	-11.5613
▁いん	-11.5614
▁受験	-11.5614
来世	-11.5616
論点	-11.5616
▁支払い	-11.5617
▁海の	-11.5618
▁ほお	-11.5619
雑用	-11.5624
引いた	-11.5626
地震で	-11.5627
との間の	-11.5628
なやつ	-11.5629
見切り	-11.5629
大波	-11.563
沈んで	-11.5631
式に	-11.5633
▁背中	-11.5635
暮れる	-11.5637
車に乗	-11.5637
犬に	-11.5638
車が	-11.5639
捨てること	-11.564
絶望	-11.564
その物	-11.5642
▁白い	-11.5642
▁足が	-11.5642
言を言う	-11.5644
語法	-11.5645
噴出	-11.5646
つなぐ	-11.5648
戻り	-11.565
説明した	-11.565
あいつ	-11.565
あたる	-11.565
が上手	-11.5652
▁おや	-11.5652
聞いている	-11.5652
▁別れ	-11.5653
演習	-11.5659
よごれた	-11.566
の機会	-11.566
▁そこは	-11.5661
またはその	-11.5661
▁締め	-11.5661
生意気な	-11.5662
▁あご	-11.5663
固める	-11.5665
に注意	-11.5666
▁近頃	-11.5668
もちろん	-11.5668
穴から	-11.567
支配人	-11.567
製本	-11.5671
▁暑さ	-11.5671
洗って	-11.5673
終わりまで	-11.5674
金銭を	-11.5674
ター	-11.5674
分けた	-11.5676
▁スピード	-11.5676
ひとみ	-11.5676
さかい	-11.5677
▁同一	-11.5678
とうてい	-11.5681
悪い事	-11.5682
▁姉	-11.5683
まぜて	-11.5684
▁他人が	-11.5684
っこい	-11.5685
の意志	-11.5685
を付けた	-11.5687
▁仏教	-11.5687
書き方	-11.5689
▁武力	-11.5689
▁水を	-11.569
▁他のもの	-11.569
▁ゆっくり	-11.5691
子音	-11.5692
味を	-11.5693
▁何ができるか教えて	-11.5693
生徒たち	-11.5695
として用いる	-11.5695
ラーメン	-11.5695
糸で織った	-11.5696
熱心に	-11.5698
高いこと	-11.5699
を大いに	-11.5701
進化	-11.5703
がしら	-11.5705
なのです	-11.5705
▁悪い事	-11.5705
債券	-11.5706
▁食料	-11.5707
ができて	-11.5707
▁細かい	-11.5707
▁スープ	-11.5708
の時間	-11.5709
▁きびしい	-11.571
仏事	-11.5711
圧倒	-11.5712
わないこと	-11.5712
共同で	-11.5716
に少し	-11.5716
結婚の	-11.5718
の茎	-11.5718
▁とん	-11.5719
尽きる	-11.5719
▁蚕	-11.572
▁もち	-11.5722
になりますか	-11.5723
すぐ近く	-11.5725
生気	-11.5726
▁ヒ	-11.5727
して行う	-11.5728
指に	-11.5728
に苦しむ	-11.5729
宿題を	-11.573
に出席する	-11.5731
信心	-11.5731
それらの	-11.5734
てから	-11.5734
したりすること	-11.5734
のとき	-11.5736
後足	-11.5739
に構える	-11.5739
今では	-11.574
▁箱	-11.574
世間で	-11.5741
食べない	-11.5743
くじけ	-11.5747
味をつけた	-11.5747
▁週	-11.575
▁ついに	-11.575
の後ろ	-11.5754
死者の	-11.5754
振って	-11.5755
ちょっとショートメッセージを送信	-11.5758
▁すぐにショートメッセージ	-11.5758
方言	-11.5759
状態である	-11.5759
▁動物が	-11.5759
▁感情を	-11.576
小数	-11.5762
いう音	-11.5762
おこう	-11.5764
▁仏の	-11.5764
めったにない	-11.5764
▁彼は仕事に	-11.5765
▁なるほど	-11.5765
種目	-11.5766
に変わった	-11.5767
数が多い	-11.5768
▁月に	-11.5775
▁幾ら	-11.5776
そこへ	-11.5777
つかまえる	-11.5777
▁he	-11.5778
きいた	-11.5778
▁僕には	-11.578
会場	-11.5782
決算	-11.5787
人類の	-11.5788
われている	-11.5789
▁波が	-11.5789
ばかりだった	-11.5794
がとても	-11.5795
分配	-11.5796
入れ物	-11.5796
が痛む	-11.5797
▁どうやら	-11.5798
▁我々が	-11.58
を登る	-11.5801
学生の	-11.5803
〕(	-11.5804
考えてみ	-11.5806
▁梅雨	-11.5807
犯罪者	-11.5807
をせず	-11.5808
訴える	-11.581
▁江戸時代の	-11.581
残した	-11.5812
▁成功	-11.5812
場合の	-11.5813
▁国王	-11.5814
事情が	-11.5814
は人間	-11.5815
▁亜	-11.5815
し合う	-11.5816
▁便	-11.5818
かかっていた	-11.5819
▁才	-11.582
の作用	-11.582
が広く	-11.5821
映え	-11.5822
を離れた	-11.5822
天性	-11.5823
▁はく	-11.5824
というものは	-11.5826
▁宮	-11.5826
まつる	-11.5832
▁ろく	-11.5832
秘蔵	-11.5832
動物が	-11.5832
小枝	-11.5832
山の中	-11.5832
を証明し	-11.5832
▁機械の	-11.5834
を使った	-11.5835
のに必要な	-11.5836
ゲル	-11.5836
トップ	-11.5837
▁側	-11.5838
▁ボートは	-11.5839
考慮	-11.584
▁一人	-11.5841
が大嫌い	-11.5841
はますます	-11.5842
▁英語を	-11.5844
ホテルに	-11.5844
召集	-11.5845
▁代金	-11.5846
流感	-11.5848
きらう	-11.5848
下級の	-11.5848
のを防ぐ	-11.5849
なめらかで	-11.585
洗濯	-11.585
に勝つ	-11.5856
マー	-11.5857
よりずっと	-11.5857
をつか	-11.5863
に等しい	-11.5865
▁法令	-11.5867
乏しい	-11.5869
にひた	-11.5869
愛想	-11.587
▁藪	-11.587
▁あいにく	-11.587
気持を表す	-11.5872
我慢できない	-11.5873
▁劇場	-11.5873
▁労	-11.5873
東戸塚	-11.5875
▁陸地	-11.5875
▁耐	-11.5875
の費用	-11.5876
目上の人	-11.5876
放射能	-11.588
料理の	-11.5881
▁労働者	-11.5882
頓	-11.5882
言い伝え	-11.5883
ドイツ語	-11.5883
又	-11.5884
狩猟	-11.5884
両方の	-11.5885
完	-11.5885
動いた	-11.5885
運賃	-11.5885
二枚	-11.5886
近頃	-11.5886
評価する	-11.5887
キン	-11.5888
端に	-11.5888
れなかった	-11.5889
シャ	-11.589
柔道	-11.5891
私の元気かいの予約	-11.5891
実を結ぶ	-11.5893
核実験	-11.5893
から離れた	-11.5893
の要求	-11.5894
に当てる	-11.5895
明日の天気	-11.5895
万年	-11.5896
だん	-11.5897
ロケット	-11.5897
▁もとの	-11.5898
▁収穫	-11.5898
同点	-11.5899
▁少	-11.5901
ふやすこと	-11.5901
変える	-11.5904
り込んだ	-11.5904
登山	-11.5904
をまぜ	-11.5905
間接	-11.5905
が出来	-11.5905
重病	-11.5905
だったので	-11.5906
きのう	-11.5907
ボス	-11.5907
武力	-11.5907
▁彼の目	-11.5908
▁攻め	-11.5908
▁民族	-11.5909
科の魚	-11.591
前橋	-11.5911
外国語	-11.5911
穴をあける	-11.5912
商業	-11.5912
明け方	-11.5912
▁元気かいの予約状況	-11.5913
して歩く	-11.5915
その年の	-11.5916
朝早く	-11.5917
の端に	-11.5917
一時に	-11.5917
鳥類	-11.5918
▁脇	-11.5921
le	-11.5921
極度	-11.5922
を設ける	-11.5923
▁いか	-11.5924
ひもで	-11.5928
おそい	-11.5929
生徒に	-11.5929
株式	-11.593
▁淡	-11.5935
▁飲み	-11.5938
しなければならなかった	-11.5938
▁臨	-11.5941
努力する	-11.5942
いつか	-11.5942
集まること	-11.5944
本文の	-11.5946
のなら	-11.5946
横たわる	-11.5949
▁彼らは我々	-11.5949
生きた	-11.595
▁圧力	-11.595
天文	-11.5951
▁詩歌	-11.5952
で旅行する	-11.5952
▁水銀	-11.5953
ある場所に	-11.5955
▁富士	-11.5955
これ以上	-11.5956
と違った	-11.5956
裁断	-11.5957
の特徴	-11.5958
がかかる	-11.596
▁予算	-11.5962
彼女の顔	-11.5965
正規の	-11.5965
山腹	-11.5966
▁水の	-11.5968
を当てる	-11.5968
をかわす	-11.597
▁大変な	-11.597
即座に	-11.5971
▁目が	-11.5971
▁批判	-11.5972
すてき	-11.5973
をはずす	-11.5973
▁主要	-11.5973
肩を	-11.5974
はただ	-11.5976
若く	-11.5976
を習う	-11.5976
何人かの	-11.5977
▁テーブル	-11.5979
▁雲が	-11.5981
投票で	-11.5981
ざま	-11.5982
ボクシング	-11.5982
は大変な	-11.5982
んでしょう	-11.5982
言いつけ	-11.5985
▁ほこり	-11.5986
▁きっと	-11.5986
しましたか	-11.5987
▁掻き	-11.5988
設立	-11.5989
▁丁	-11.5989
▁フィ	-11.599
言っても	-11.599
突く	-11.5992
前後に	-11.5993
を認めた	-11.5994
▁岩石	-11.5995
倍の	-11.5996
▁彼は自分	-11.5997
▁田畑	-11.5998
▁知能	-11.5998
▁これを	-11.5999
を合わせて	-11.5999
▁官職	-11.5999
放つ	-11.6
派遣する	-11.6
より先に	-11.6001
▁かすかな	-11.6002
唱え	-11.6002
しているのか	-11.6004
▁最初	-11.6004
豊か	-11.6006
した食品	-11.6011
はかなり	-11.6012
服用	-11.6015
我が	-11.6015
砲火	-11.6017
くろ	-11.6018
非難する	-11.6018
▁町中	-11.6019
たので	-11.6019
よく考え	-11.602
行動をとる	-11.6021
▁芸術	-11.6021
スコットランド	-11.6021
延期	-11.6025
抑え	-11.6025
監督する	-11.6026
塗る	-11.6026
▁土木	-11.6029
を私に	-11.6029
▁死者の	-11.6029
金色の	-11.603
を打ち込む	-11.603
出発した	-11.6031
稔	-11.6031
かわいい	-11.6032
定める	-11.6033
気をつける	-11.6035
付いた	-11.6035
老年	-11.6036
登戸	-11.6037
おもて	-11.6037
つくる	-11.6038
ドルで	-11.6039
その道	-11.6042
の発生	-11.6043
▁ちょ	-11.6043
▁軍隊の	-11.6043
斯	-11.6045
▁大塚	-11.6045
技巧	-11.6046
▁治安	-11.6046
クル	-11.6046
玄	-11.6046
尽くした	-11.6047
なるように	-11.6047
▁その人が	-11.6048
卒業する	-11.6051
▁最も	-11.6053
▁犯罪	-11.6055
▁刀を	-11.6058
すまい	-11.6059
賢明	-11.606
加えた	-11.606
言われた	-11.6063
うぬぼれ	-11.6064
▁淫	-11.6066
▁教養	-11.6067
の努力を	-11.6067
おこって	-11.6068
叫び声	-11.607
来週	-11.607
自宅	-11.6071
首位	-11.6071
▁蒸し	-11.6073
裁ち	-11.6073
三位	-11.6073
恋の	-11.6073
ゅ	-11.6074
を問わず	-11.6077
上品な	-11.6077
死者の霊	-11.6078
しるした	-11.6078
に出かけた	-11.6079
帝王	-11.6082
積んで	-11.6084
新聞社	-11.6084
思わない	-11.6084
小さいこと	-11.6086
翻	-11.6086
勢いが	-11.6087
▁我が	-11.6087
一般的	-11.6088
燐酸	-11.6088
人から	-11.6091
おろか	-11.6091
▁資金	-11.6091
放射	-11.6091
業とする人	-11.6092
▁フットボール	-11.6092
互いの	-11.6094
、000	-11.6095
倒産	-11.6096
勲章	-11.6096
絡	-11.6096
箱に	-11.6097
光が	-11.6098
を禁ずる	-11.6099
から落ちる	-11.61
閣	-11.61
ただし	-11.61
▁基礎	-11.61
神聖	-11.61
北千住	-11.6101
狩	-11.6101
全力を尽く	-11.6101
粘	-11.6101
隻	-11.6101
すすめる	-11.6102
少しもない	-11.6102
余計	-11.6102
+	-11.6103
に移る	-11.6103
紐	-11.6104
監	-11.6105
殖	-11.6105
生き生き	-11.6105
惰	-11.6105
浪費	-11.6105
駒込	-11.6105
いでいる	-11.6106
を失わせる	-11.6106
看	-11.6107
遷	-11.6107
駐	-11.6108
国に	-11.6108
疾患	-11.6108
叢	-11.6108
どぶ	-11.6108
骸	-11.6108
のうちの	-11.6109
しつつある	-11.6109
コンビニエンスストア	-11.6109
臆	-11.611
寓	-11.611
美咲	-11.611
是	-11.611
爛	-11.611
卦	-11.6111
はなはだ	-11.6111
拘	-11.6111
ぎりぎり	-11.6111
租	-11.6111
▁んー安全度のチェック	-11.6112
をそそる	-11.6112
鎌	-11.6112
盂蘭盆	-11.6112
癌	-11.6112
憑	-11.6112
ユダヤ	-11.6112
にぎやかに	-11.6112
蛙	-11.6112
袴	-11.6112
歿	-11.6112
沃	-11.6112
肘	-11.6112
輝かしい	-11.6112
鞭	-11.6112
▁あの安全かどうかの診断	-11.6112
▁えーっと安全かどうかの診断	-11.6112
▁えーっと安全度の診断	-11.6112
▁んー安全チェック	-11.6112
のろのろ	-11.6112
アクセント	-11.6112
カウント	-11.6112
ハンドル	-11.6112
盃	-11.6112
蠅	-11.6112
遥	-11.6112
▁濡れ	-11.6112
劫	-11.6112
檀	-11.6112
眩	-11.6112
翅	-11.6112
轍	-11.6112
シーズン	-11.6112
伽	-11.6112
大げさな	-11.6112
柵	-11.6112
歓喜	-11.6112
癒	-11.6112
芥	-11.6112
訛	-11.6112
撚	-11.6112
選ばれる	-11.6112
けいれん	-11.6112
著名な	-11.6112
けばけばし	-11.6112
思わぬ	-11.6112
挿	-11.6112
たくらみ	-11.6112
鉾	-11.6112
寛大な	-11.6112
石器時代	-11.6112
ブラジル	-11.6112
憤慨	-11.6112
抄	-11.6112
ふすま	-11.6112
に先立って	-11.6112
むなしく	-11.6112
》	-11.6112
参詣	-11.6112
閣僚	-11.6112
go	-11.6112
スーツケース	-11.6112
なじみ	-11.6112
醤油	-11.6112
最良の	-11.6112
ざらざら	-11.6112
選ばれた	-11.6112
何回も	-11.6112
ボストン	-11.6112
てない	-11.6112
協同	-11.6112
ビロード	-11.6113
始終	-11.6113
虐待	-11.6113
じりじり	-11.6113
シーツ	-11.6113
屈辱	-11.6113
ジェ	-11.6113
The	-11.6113
二枚貝	-11.6113
澱粉	-11.6113
繁栄	-11.6113
リンゴ	-11.6113
旋律	-11.6113
メント	-11.6113
ケース	-11.6113
つまらぬ	-11.6113
増進	-11.6113
▁航海	-11.6113
持続	-11.6113
とは思えない	-11.6113
の店	-11.6113
あらわす	-11.6113
といわれる	-11.6113
隔離	-11.6113
どろぼう	-11.6113
三郎さん	-11.6113
会いたい	-11.6114
亭主	-11.6114
お願いします	-11.6114
記述	-11.6114
装束	-11.6114
淡水魚	-11.6114
レーダー	-11.6114
堂々と	-11.6114
接続	-11.6114
視覚	-11.6114
思う存分	-11.6114
失敬	-11.6114
とにかく	-11.6114
▁じゅん	-11.6114
考案	-11.6114
図案	-11.6115
誤植	-11.6115
見晴らし	-11.6115
お断わり	-11.6115
▁この辞書は	-11.6115
かまわず	-11.6115
こわくて	-11.6115
規制	-11.6115
課題	-11.6115
傍観	-11.6115
小言	-11.6115
に付する	-11.6115
リボン	-11.6115
晴天	-11.6115
士官	-11.6115
ブック	-11.6115
▁津	-11.6115
低気圧	-11.6115
通り過ぎる	-11.6115
ろうばい	-11.6115
あわれみ	-11.6116
絶頂	-11.6116
含まれている	-11.6116
おおわれ	-11.6116
助動詞	-11.6116
静止	-11.6116
官僚	-11.6116
を持たず	-11.6116
を混ぜて	-11.6116
欲求	-11.6116
石膏	-11.6116
はいつ	-11.6116
悲しむ	-11.6116
謝罪	-11.6116
祭礼	-11.6116
湾曲	-11.6117
雪が	-11.6117
テレビ番組	-11.6117
きめられた	-11.6117
に起こった	-11.6117
重複	-11.6117
さえすれば	-11.6117
立ち上がった	-11.6117
男女間の	-11.6117
ごろごろ	-11.6117
順順に	-11.6117
通告	-11.6117
悪くない	-11.6117
になりそうだ	-11.6117
厳格	-11.6118
祝辞	-11.6118
満塁	-11.6118
機関銃	-11.6118
落胆	-11.6118
余暇	-11.6118
感激	-11.6118
の苦しみ	-11.6118
軽快	-11.6119
にらむ	-11.6119
財界	-11.6119
暴徒	-11.6119
幹部	-11.6119
▁元気かい私の予約	-11.6119
ぜんまい	-11.6119
探知	-11.612
呼吸器	-11.612
順次	-11.612
▁彼の行為は	-11.612
雑貨	-11.612
改造	-11.612
堅苦しい	-11.612
断片	-11.612
を指した	-11.612
圧制	-11.612
組立て	-11.6121
種をまく	-11.6121
良く	-11.6121
松戸	-11.6121
厳密	-11.6121
判明	-11.6121
根本的な	-11.6122
多大の	-11.6123
技量	-11.6123
申し分	-11.6123
処方	-11.6123
しばらくの間	-11.6123
右翼	-11.6123
沈んだ	-11.6123
電圧	-11.6123
授業料	-11.6123
上皇	-11.6124
高齢	-11.6124
かまど	-11.6125
主婦	-11.6125
平気だ	-11.6125
断面	-11.6126
言わずに	-11.6126
夏休み	-11.6126
を拾う	-11.6126
おいしい	-11.6127
をいじ	-11.6127
首都	-11.6127
戸籍	-11.6127
検定	-11.6127
もっぱら	-11.6127
極秘	-11.6127
証明書	-11.6127
つぼみ	-11.6128
並んでいる	-11.6128
尽力	-11.6128
家に帰	-11.6128
曲がっている	-11.6128
棒を	-11.6129
代用	-11.6129
仕様	-11.6129
溜め	-11.6129
なりゆき	-11.6129
▁走り	-11.613
勤めている	-11.613
嘆き	-11.613
アジ	-11.613
杯の水	-11.6131
抽象	-11.6131
というたとえ	-11.6131
けわしい	-11.6131
口語	-11.6132
禁制	-11.6132
水蒸気	-11.6132
有限	-11.6132
こぼれた	-11.6133
▁彼らは彼に	-11.6133
むかし	-11.6133
目で見る	-11.6133
厚木	-11.6133
配合	-11.6133
所持	-11.6133
▁その国は	-11.6133
性交	-11.6134
石英	-11.6134
能楽	-11.6134
やなぎ	-11.6134
体長約	-11.6135
戦場で	-11.6135
通訳	-11.6135
見世物	-11.6135
武芸	-11.6136
不当な	-11.6136
てもらえ	-11.6136
告げ知らせる	-11.6137
作曲	-11.6137
今日の天気どう	-11.6138
ふくら	-11.6138
風紀	-11.6139
健一	-11.6139
すくい	-11.6139
まじない	-11.6139
断わった	-11.614
はげしい	-11.6141
文脈	-11.6141
女性が	-11.6141
▁芝生	-11.6141
何もしないで	-11.6141
引き続いて	-11.6143
▁水戸	-11.6143
が上手だ	-11.6143
断言	-11.6143
参上	-11.6143
風潮	-11.6143
▁バラ	-11.6143
▁戦略	-11.6143
話すこと	-11.6143
水溶液	-11.6144
を採る	-11.6145
いのち	-11.6145
▁何事も	-11.6145
責める	-11.6145
歳月	-11.6145
畜	-11.6146
形式の	-11.6146
摺り	-11.6146
▁ウエ	-11.6146
三〇センチ	-11.6146
そこら	-11.6146
引き受けた	-11.6147
を早める	-11.6147
構内	-11.6147
おわり	-11.6148
を業とする	-11.6148
球面	-11.6148
兵役	-11.6149
疑う	-11.6149
早朝	-11.6149
黄緑色	-11.615
が一つ	-11.6151
一応	-11.6151
照会	-11.6152
ざお	-11.6153
▁市内	-11.6153
▁出発	-11.6153
調達	-11.6153
たちが	-11.6154
官位	-11.6154
取り柄	-11.6155
問い合わせ	-11.6156
伏せる	-11.6157
のぼり	-11.6158
をほどく	-11.616
だと思った	-11.616
認めること	-11.616
学び	-11.6161
政治上の	-11.6161
のふち	-11.6161
現役	-11.6162
明朝	-11.6162
富山	-11.6162
彫像	-11.6163
大騷ぎ	-11.6163
明白	-11.6165
んば	-11.6167
つきあい	-11.6167
船員	-11.6167
空模様	-11.6167
気持で	-11.6167
▁藩	-11.6167
悪くなった	-11.6167
きざし	-11.6168
駅で	-11.6168
腰を	-11.6169
▁we	-11.617
有料	-11.617
ずくで	-11.6171
あざ	-11.6171
▁橋本	-11.6171
度量	-11.6171
▁材木	-11.6171
それに使う	-11.6171
出生	-11.6172
て彼は	-11.6172
人夫	-11.6173
病気で	-11.6173
▁競走	-11.6173
箱根	-11.6174
▁仏法	-11.6175
添えた	-11.6175
雑音	-11.6175
減ること	-11.6175
をなめる	-11.6176
で読む	-11.6177
斯く	-11.6179
ランド	-11.6179
大きさは	-11.6179
高槻	-11.618
熱情	-11.618
かかわり	-11.618
メン	-11.6182
過ご	-11.6182
▁柳	-11.6182
壁紙	-11.6184
散文	-11.6185
鳴き	-11.6186
チック	-11.6186
出会った	-11.6187
釈迦の	-11.6187
無精	-11.6187
▁細菌	-11.6189
が始まる	-11.6189
相手方	-11.6189
インター	-11.6189
まぜ	-11.619
点検	-11.6191
お返し	-11.6191
▁鳥の	-11.6191
生活している	-11.6191
しわざ	-11.6191
今のところ	-11.6191
が互いに	-11.6192
はま	-11.6194
出費	-11.6194
差す	-11.6194
下品な	-11.6197
総会	-11.6198
腕白	-11.6199
悲劇	-11.62
浮気	-11.62
▁落ち	-11.6201
▁彼は大	-11.6203
命名	-11.6203
わきへ	-11.6204
中野	-11.6205
爆薬	-11.6205
汗を	-11.6205
木戸	-11.6205
になるまで	-11.6205
のを見た	-11.6206
苦労して	-11.6206
押しのけ	-11.6206
打たれ	-11.6206
▁そのことで	-11.6207
自生	-11.6209
見られた	-11.6212
▁刑事	-11.6212
▁アイス	-11.6212
クタ	-11.6213
助手	-11.6213
しぼ	-11.6215
▁道路の	-11.6215
かすり	-11.6216
を許さない	-11.6218
の前兆	-11.6219
装飾用	-11.622
熱帯地方	-11.6221
とんぼ	-11.6222
拝む	-11.6222
すわ	-11.6222
できる限り	-11.6223
▁さし	-11.6225
試験を受ける	-11.6226
は十分	-11.6227
▁金銭を	-11.6228
人目	-11.6229
感じる	-11.623
点火	-11.6233
▁海水	-11.6235
めんどう	-11.6235
埋葬	-11.6237
上にある	-11.6239
を曲げる	-11.624
だけでも	-11.624
似ている	-11.6241
▁文語	-11.6241
▁交渉	-11.6242
大層	-11.6243
系の	-11.6243
同様に	-11.6244
原子核	-11.6245
縮める	-11.6245
胸を	-11.6246
ものがない	-11.6246
で写真をちょっと送信	-11.6247
その時の	-11.6247
▁はるか	-11.6249
捜す	-11.6251
人出	-11.6252
おぼれる	-11.6254
無数の	-11.6255
▁スミス	-11.6256
したくない	-11.6257
味の	-11.6258
空軍	-11.6259
頭上に	-11.6259
肥え	-11.6259
▁眠り	-11.626
正式の	-11.626
しゅん	-11.6262
作り出す	-11.6262
▁顔の	-11.6262
かゆ	-11.6262
台本	-11.6262
を決する	-11.6263
状のもの	-11.6264
の後に	-11.6265
▁ドレス	-11.6268
家系	-11.6268
大臣の	-11.6269
公平な	-11.6269
値段が	-11.6271
を示すため	-11.6272
が急に	-11.6275
言わせ	-11.6279
用など	-11.628
▁幽霊	-11.628
▁きつね	-11.6281
水夫	-11.6281
そちら	-11.6282
を二つ	-11.6282
人々が	-11.6283
が下がる	-11.6283
を与え	-11.6283
▁祖父	-11.6283
絹糸	-11.6283
出産	-11.6284
地元	-11.6285
機械など	-11.6285
▁アラビア	-11.6286
んだね	-11.6286
うとうと	-11.6286
越え	-11.6286
悲観	-11.6288
▁練習	-11.6289
はたいてい	-11.629
をふく	-11.6291
二次	-11.6291
から他の	-11.6293
の出身	-11.6294
みがく	-11.6297
はいり	-11.6298
意外な	-11.6299
ばって	-11.63
を突く	-11.63
▁剣	-11.63
ほしいと	-11.6301
▁地方	-11.6301
は君に	-11.6302
りましたか	-11.6302
をまねる	-11.6303
▁鏡	-11.6303
資力	-11.6303
をかけること	-11.6303
来るだろう	-11.6304
▁救	-11.6304
等に	-11.6305
他のもの	-11.6307
しかも	-11.6308
▁ものの	-11.631
▁徳	-11.6312
使用者	-11.6313
酒場	-11.6315
つぶした	-11.6315
はありませんか	-11.6315
支配する	-11.6316
all	-11.6317
その後	-11.6319
メッセいまから送信	-11.6319
をはく	-11.6319
のかしら	-11.6326
気品	-11.6328
▁ちり	-11.6329
▁中世	-11.6331
▁桜木町	-11.6332
▁特定の	-11.6334
まとめて	-11.6334
町を	-11.6334
▁翻	-11.6335
近寄	-11.6336
記入する	-11.6337
の出る	-11.6338
やめろ	-11.634
くだく	-11.634
▁ミサイル	-11.6343
安心した	-11.6344
まっすぐな	-11.6344
正式	-11.6344
くずれる	-11.6344
底に	-11.6345
能力がある	-11.6348
何より	-11.635
▁放射能	-11.635
乗り換え	-11.6351
▁愛想	-11.6354
▁女王	-11.6355
▁その点	-11.6356
中に入れて	-11.6357
の種子	-11.6359
北に	-11.6359
▁公式	-11.6364
人前で	-11.6366
急性	-11.6366
に終わった	-11.6367
極端	-11.6367
▁この薬は	-11.6367
製作	-11.6371
ようなものだ	-11.6371
先で	-11.6371
▁調子	-11.6373
▁頭が	-11.6375
でしたか	-11.6377
伝えた	-11.6378
大半	-11.6378
▁文明の	-11.6378
14	-11.6378
どちらも	-11.6379
遊びに	-11.6379
▁寿司	-11.6379
なぎ	-11.6381
▁太陽の	-11.6382
生んだ	-11.6385
取得	-11.6385
天下に	-11.6385
▁胡	-11.6386
おさめる	-11.639
ばせ	-11.6391
▁女の子	-11.6392
を集めた	-11.6392
を判断する	-11.6395
から見た	-11.6395
▁どうしても	-11.6396
▁実用	-11.6402
▁厳しい	-11.6404
いつまで	-11.6404
▁講	-11.6405
▁洋服	-11.6406
四十	-11.6407
労働者の	-11.6409
▁午前	-11.641
▁襟	-11.6411
▁用意	-11.6411
▁世に	-11.6414
水の流れ	-11.6418
本文	-11.642
もその	-11.642
などに対して	-11.642
▁ジャズ	-11.6421
ふるまいをする	-11.6422
の緒	-11.6422
何だ	-11.6427
の不足	-11.6429
の才	-11.6429
写真ちょっと送信	-11.643
さげる	-11.643
▁正常	-11.6434
に出ること	-11.6435
最中	-11.6438
目の前に	-11.6439
ひだ	-11.644
を免れ	-11.6441
▁勢いよく	-11.6441
木の実	-11.6442
本物の	-11.6444
▁経済学	-11.6444
▁私の考え	-11.6449
ふえる	-11.645
月曜日	-11.6451
乗っている	-11.6452
▁最低	-11.6454
眺める	-11.6454
出頭	-11.6454
錐	-11.6455
▁珍しい	-11.6461
どうし	-11.6463
が二つ	-11.6464
ほかの人	-11.6464
を願う	-11.6464
つある	-11.6467
▁倹約	-11.6467
▁易	-11.6467
にはまだ	-11.6468
▁彼らには	-11.6469
くれたまえ	-11.647
の象徴	-11.647
呂い	-11.647
到着する	-11.6471
歓迎する	-11.6471
手紙は	-11.6471
ひと組	-11.6472
▁明治	-11.6472
相当の	-11.6473
▁感謝の	-11.6473
ておいた	-11.6474
そろって	-11.6475
仏教の	-11.6476
がなくなった	-11.6479
バル	-11.6481
なんでも	-11.6481
▁有効	-11.6483
取り除く	-11.6484
印刷した	-11.6486
服装をしてい	-11.6486
社会に	-11.6487
▁せつ	-11.6489
数日	-11.649
安く買	-11.6491
いられない	-11.6493
▁公開	-11.6494
ある者	-11.6495
▁優しい	-11.6495
に使った	-11.6495
▁芸者	-11.6496
▁キャンプ	-11.6497
▁茅ヶ崎	-11.6497
泣くこと	-11.6498
うれしそう	-11.6499
腹の中	-11.6499
は知らない	-11.6499
をめぐらす	-11.65
よく似ている	-11.65
ぶつかる	-11.6502
から作る	-11.6503
クス	-11.6504
などして	-11.6505
の所で	-11.6505
その作品	-11.6505
法律上	-11.6507
境目	-11.6508
の主	-11.6508
▁ヘルパーさん	-11.651
▁痛み	-11.6511
だつ	-11.6511
回した	-11.6511
▁会は	-11.6511
ケアマネちゃん	-11.6512
精一杯	-11.6512
明かす	-11.6513
始めて	-11.6513
をもらった	-11.6513
▁人体	-11.6514
目は	-11.6515
▁前途	-11.6519
北アメリカ	-11.652
だめになる	-11.652
活発な	-11.6526
微生物	-11.6527
戦場	-11.6528
の手段	-11.6528
▁時計の	-11.6529
くどく	-11.6532
つぶれる	-11.6534
▁なんとか	-11.6535
[...]
