<unk>	0
<s>	0
</s>	0
▁	-2.40782
。	-3.16301
、	-3.69545
の	-4.0407
・	-4.28126
を	-4.5479
。「	-4.56627
」	-4.60691
に	-4.64405
する	-4.82666
が	-4.92486
は	-4.94655
こと	-5.0816
で	-5.10413
と	-5.37109
)	-5.59086
▁彼は	-5.63912
る	-5.65351
た	-5.76427
」「	-5.99909
人	-6.00789
した	-6.02627
また	-6.0837
や	-6.08543
な	-6.09502
だ	-6.12557
から	-6.1286
して	-6.13864
(	-6.2817
て	-6.33603
その	-6.41393
も	-6.50549
い	-6.52644
もの	-6.59933
し	-6.65528
か	-6.72579
▁えー	-6.73983
など	-6.7828
▁その	-6.80691
である	-6.80772
す	-6.82222
をする	-6.84735
物	-6.85852
□	-6.87621
者	-6.87861
り	-6.88696
った	-6.89913
▁(	-6.96313
」(	-6.97566
▁この	-7.01119
▁彼女は	-7.01557
く	-7.01628
ー	-7.0215
1	-7.02709
特に	-7.0623
すること	-7.08514
になる	-7.12573
などの	-7.13821
▁あの	-7.14562
っと	-7.16229
がある	-7.17059
には	-7.21217
さま	-7.21233
または	-7.22627
所	-7.22909
家	-7.24018
って	-7.27558
手	-7.28795
▁彼の	-7.29602
ない	-7.30249
ること	-7.30805
として	-7.31573
時	-7.31985
げんきかい	-7.33564
▁...	-7.34219
している	-7.37684
う	-7.39709
大	-7.40546
▁〔	-7.41025
心	-7.42273
日	-7.42479
ある	-7.42962
などを	-7.43078
水	-7.43206
▁SMS	-7.43456
子	-7.4422
語	-7.445
▁LINE	-7.45072
一	-7.46535
本	-7.46911
目	-7.47456
いた	-7.4763
です	-7.48578
ている	-7.48596
SMS	-7.48687
的	-7.48687
▁ん	-7.48939
〕	-7.48955
き	-7.49402
力	-7.4961
さ	-7.49757
管理	-7.49823
お	-7.5031
よ	-7.51925
だった	-7.53464
地	-7.55256
送る	-7.57116
事	-7.5718
転じて	-7.57952
;	-7.58269
み	-7.5853
2	-7.58708
用	-7.6021
という	-7.60253
ように	-7.61455
色	-7.61498
金	-7.62135
では	-7.62532
ら	-7.64004
国	-7.65839
へ	-7.67566
気	-7.68312
口	-7.68876
上	-7.69306
▁電話	-7.69495
年	-7.69755
道	-7.71107
中	-7.71458
つ	-7.71528
3	-7.72924
風	-7.75003
ちょっと	-7.75621
いる	-7.77558
む	-7.78005
などが	-7.7925
法	-7.79485
まで	-7.79833
にする	-7.81395
によって	-7.82101
的な	-7.82931
▁大	-7.83159
▁彼らは	-7.83373
させる	-7.84015
名	-7.84398
見	-7.84473
された	-7.84513
分	-7.85633
方	-7.86342
▁ちょっと	-7.86349
木	-7.86499
体	-7.86998
書	-7.87263
俗	-7.87406
下	-7.87497
などで	-7.88119
性	-7.88234
のある	-7.88544
すぐに	-7.88843
の一つ	-7.89403
PO	-7.8958
め	-7.89655
数	-7.91404
点	-7.9144
より	-7.92039
!	-7.92738
いまから	-7.94482
取り	-7.94999
ような	-7.95009
▁「	-7.95668
話	-7.96044
会	-7.96092
学	-7.96601
いい	-7.96974
電話	-7.97537
仏	-7.98147
音	-7.98434
119	-8.01838
▁いまから	-8.02166
...	-8.0243
よく	-8.02524
▁すぐに	-8.02618
車	-8.03123
船	-8.03604
出	-8.03784
小	-8.03843
時間	-8.04142
ほど	-8.04285
5	-8.04616
仕事	-8.05255
▁それは	-8.05575
山	-8.05758
長	-8.05915
線	-8.05931
▁人の	-8.06036
形	-8.06519
場	-8.06627
生	-8.06664
文	-8.07442
「	-8.07518
紙	-8.0766
月	-8.07886
ご	-8.08035
の一種	-8.08312
がない	-8.08541
考え	-8.08781
▁一	-8.09043
間	-8.09147
ね	-8.09642
だろう	-8.105
火	-8.10841
のない	-8.1114
▁お	-8.11396
言葉	-8.11485
声	-8.11693
女	-8.11913
頭	-8.12547
こ	-8.12819
彼は	-8.13445
になった	-8.13598
ず	-8.14302
人の	-8.14843
下さい	-8.15108
海	-8.15197
例	-8.15303
品	-8.16121
行	-8.16469
前	-8.16787
される	-8.18938
などに	-8.18997
様子	-8.19273
メッセージを	-8.19357
それ	-8.19953
もう	-8.20596
え	-8.20833
▁手	-8.21015
屋	-8.21407
足	-8.2304
▁人を	-8.23654
ために	-8.23667
▁私は	-8.2424
着	-8.24383
この	-8.24995
戦	-8.25472
よい	-8.25631
そう	-8.26099
ていた	-8.26149
のように	-8.26195
男	-8.26498
送信する	-8.26966
の略	-8.27203
よう	-8.28023
に対して	-8.2857
花	-8.28929
かった	-8.29036
馬	-8.29102
状態	-8.29254
▁無	-8.30427
10	-8.3061
先	-8.30903
▁110	-8.30945
石	-8.31253
切り	-8.31494
んだ	-8.31755
いて	-8.3176
なく	-8.31824
っている	-8.31842
のために	-8.32209
何	-8.32687
メッセージ	-8.34112
度	-8.34395
じ	-8.3453
れ	-8.34652
▁彼が	-8.34834
世	-8.349
後	-8.34995
(=	-8.35271
面	-8.35715
論	-8.36217
番	-8.36354
顔	-8.36889
言	-8.37138
さん	-8.37204
ん	-8.37381
出す	-8.37671
自分の	-8.38516
彼の	-8.38937
神	-8.39383
内	-8.39422
食	-8.3944
N	-8.40274
靴	-8.40431
▁小	-8.40992
問題	-8.41068
なさい	-8.41971
▁げんきかい	-8.42035
▁水	-8.42035
何ができるか教えて	-8.42556
式	-8.42748
▁もう	-8.43467
身	-8.43713
的に	-8.43929
ば	-8.44218
白	-8.44287
等	-8.44303
歌	-8.44435
高	-8.4536
げんきかいの予約	-8.45494
これ	-8.45523
け	-8.45613
だけ	-8.45961
にも	-8.45989
LINE	-8.46958
ですか	-8.46958
時に	-8.47103
草	-8.47608
熱	-8.47729
業	-8.48028
▁人に	-8.48114
二	-8.48179
ます	-8.48465
三	-8.48665
▁彼はその	-8.48718
役	-8.4881
)「	-8.48958
空	-8.49021
引き	-8.49114
板	-8.49214
なかった	-8.49545
?	-8.49678
来	-8.49992
となる	-8.50772
書き	-8.50971
部	-8.51012
なら	-8.51022
をつける	-8.51246
それを	-8.5126
ち	-8.51424
できる	-8.52137
服	-8.52205
ながら	-8.52786
▁不	-8.53051
骨	-8.5314
送信	-8.5317
にある	-8.53378
か教えて	-8.53495
薬	-8.53922
酒	-8.53959
流	-8.54247
ため	-8.54267
部分	-8.54277
作	-8.54704
4	-8.54934
っ	-8.54936
外	-8.55161
による	-8.55273
量	-8.55472
そ	-8.55632
私の	-8.55886
の総称	-8.56033
でも	-8.5645
台	-8.56471
のため	-8.56645
夜	-8.56672
店	-8.56752
わ	-8.56897
代	-8.56905
言う	-8.57119
もと	-8.57191
しない	-8.57953
毛	-8.58075
▁げんきかいの予約	-8.58276
場所	-8.58315
生活	-8.586
字	-8.58741
天	-8.59274
に対する	-8.59422
光	-8.5947
込む	-8.59511
任	-8.59511
主義	-8.59555
ものだ	-8.5956
ま	-8.6037
ス	-8.60648
表	-8.60745
げんきかいの	-8.61115
死	-8.61235
ぐ	-8.61259
状	-8.61341
病	-8.61899
とする	-8.62094
垢	-8.62103
器	-8.62142
無	-8.62209
意	-8.62219
植物	-8.62558
兵	-8.6272
雨	-8.62726
のような	-8.62972
主	-8.63408
布	-8.63486
態度	-8.6364
愛	-8.64186
ための	-8.64391
職	-8.64447
▁私の	-8.64513
土	-8.64579
魚	-8.6466
▁金	-8.64675
入れ	-8.65709
病気	-8.66203
機	-8.66217
関係	-8.66322
せ	-8.66429
ぞ	-8.66905
に電話	-8.67052
権	-8.67239
をした	-8.67265
の人	-8.67415
はない	-8.67823
味	-8.67841
室	-8.68203
であること	-8.68278
運動	-8.68289
上の	-8.68296
▁彼女の	-8.68374
していた	-8.68418
行為	-8.6873
ル	-8.69218
について	-8.69308
▁げんきかいの	-8.69806
▁N	-8.69841
大きな	-8.70561
前に	-8.70718
あなた	-8.70886
鳥	-8.70923
装置	-8.71156
がいい	-8.71403
られた	-8.71587
発	-8.71625
ところ	-8.71908
油	-8.71919
悪	-8.71978
髪	-8.72032
もない	-8.72063
曲	-8.72097
道具	-8.72164
中に	-8.72426
五	-8.7258
持ち	-8.728
をとる	-8.72841
音楽	-8.73148
角	-8.73558
られる	-8.73767
肉	-8.73833
を出す	-8.74132
用の	-8.7417
雲	-8.7427
客	-8.74447
ぶ	-8.74467
感	-8.74501
血	-8.74679
▁これ	-8.74716
御	-8.75045
筆	-8.75404
▁本	-8.75478
化	-8.75649
ください	-8.75656
▁自分の	-8.75827
不	-8.75883
元	-8.76021
命	-8.76183
行く	-8.764
でない	-8.76582
▁新	-8.76727
葉	-8.76751
人を	-8.76932
比ゆ的に	-8.77002
組織	-8.77204
料理	-8.77495
腹	-8.77516
部屋	-8.77626
▁山	-8.77861
人が	-8.77879
性質	-8.78006
人に	-8.7807
物を	-8.78381
こう	-8.78407
波	-8.7849
位	-8.78572
付け	-8.7869
学校	-8.78745
絵	-8.78912
を教えて	-8.79021
える	-8.79379
他の	-8.79396
▁これは	-8.79408
立	-8.79478
を受ける	-8.79535
める	-8.79758
米	-8.79804
合	-8.80001
種	-8.80073
何できる	-8.80246
になっている	-8.80348
歩く	-8.80663
動	-8.81048
門	-8.81129
座	-8.81172
実	-8.81301
れる	-8.81569
をして	-8.81721
を作る	-8.81932
会社	-8.82246
思い	-8.82257
相	-8.82364
』	-8.82681
根	-8.827
図	-8.82753
であった	-8.83124
犬	-8.83257
イ	-8.83573
説	-8.83698
その人	-8.83771
時代	-8.84308
入	-8.84309
しい	-8.84331
師	-8.84433
/	-8.84495
ルビ	-8.84611
制	-8.84683
雪	-8.84758
になって	-8.85075
ぎ	-8.85106
砲	-8.8512
ものを	-8.85312
▁『	-8.85415
削除	-8.85415
▁1	-8.85664
官	-8.85759
席	-8.85893
類	-8.85926
のは	-8.85941
節	-8.85945
▁彼には	-8.86153
界	-8.86294
打ち	-8.863
罪	-8.86382
土地	-8.86479
ど	-8.86651
重	-8.86689
回	-8.86817
を取る	-8.8697
画	-8.87048
意見	-8.87308
▁ある	-8.87489
に使う	-8.88019
▁私	-8.88099
▁電話かける	-8.88105
そういう	-8.88154
▁君は	-8.88177
とは	-8.88208
ろ	-8.88235
計画	-8.88487
▁口	-8.88492
期	-8.88516
▁我々は	-8.88707
▁出	-8.88726
文字	-8.88772
川	-8.88776
質	-8.88801
私	-8.89158
様	-8.89719
眼	-8.89778
リ	-8.89949
$	-8.90144
なる	-8.9018
食用	-8.90398
お知らせ	-8.90414
町	-8.90946
ン	-8.91358
通り	-8.9158
▁内	-8.91739
管	-8.91868
立ち	-8.91949
つき	-8.9199
事を	-8.91997
とも	-8.92001
べき	-8.92064
路	-8.92271
々	-8.92371
箱	-8.9245
軍	-8.92752
茶	-8.92942
たち	-8.93227
をかける	-8.93472
別	-8.93507
まだ	-8.9408
首	-8.94532
▁電話する	-8.94773
敵	-8.94776
美しい	-8.95041
▁彼	-8.9525
直	-8.95377
糸	-8.95464
刀	-8.95582
事実	-8.95655
入り	-8.9606
のか	-8.9613
夏	-8.96256
なこと	-8.96268
詩	-8.96345
何ができる	-8.96365
ではない	-8.96372
び	-8.96399
▁電話をかける	-8.96747
すぐ	-8.96842
輪	-8.97051
傷	-8.97218
社会	-8.97255
▁あなた	-8.97326
然	-8.97368
6	-8.97386
んで	-8.97504
ぬ	-8.97649
一回	-8.97739
ラ	-8.98081
見る	-8.98102
虫	-8.98195
行動	-8.98255
旅行	-8.98255
小説	-8.98316
新しい	-8.98336
つく	-8.98502
中の	-8.98599
▁夜	-8.98714
売り	-8.98878
新	-8.99036
▁電話したい	-8.99363
親	-8.99372
感じ	-8.99419
かす	-8.99785
姿	-8.99809
印	-9.00053
劇	-9.00423
事柄	-9.00484
きた	-9.00578
棒	-9.00719
▁2	-9.00721
出し	-9.00873
に行く	-9.01169
六	-9.01333
教育	-9.01506
円	-9.01589
知	-9.0167
したもの	-9.01787
柱	-9.0196
をすること	-9.01994
縁	-9.02187
高い	-9.0223
僧	-9.02418
ける	-9.02837
情	-9.02897
値	-9.03157
言い	-9.03173
玉	-9.03186
母	-9.03353
ばかり	-9.03408
▁空	-9.03454
子供	-9.03578
父	-9.03581
できない	-9.04069
利	-9.04119
たり	-9.04122
あり	-9.04166
君	-9.04248
げ	-9.04395
なり	-9.04424
正	-9.04467
つけ	-9.04474
されている	-9.04479
星	-9.04683
額	-9.04846
▁下	-9.04847
立て	-9.04894
古	-9.05026
湯	-9.051
映画	-9.05139
計	-9.05281
▁木	-9.05488
人間	-9.0552
通	-9.05544
句	-9.05553
強	-9.05598
▁ショートメッセージ	-9.05642
日本	-9.05655
が悪い	-9.05659
帯	-9.0587
札	-9.05922
よりも	-9.05965
歯	-9.06327
っていた	-9.0634
▁何	-9.0634
私は	-9.06398
ア	-9.06491
辰	-9.06517
の中に	-9.06568
員	-9.06639
れば	-9.06652
妻	-9.0676
柄	-9.06878
次	-9.06947
}	-9.06981
やり直し	-9.06985
ト	-9.07336
背	-9.07542
あと	-9.07593
とり	-9.07606
記	-9.07839
試験	-9.07863
覆	-9.08084
団	-9.08276
里	-9.08338
▁生	-9.08422
非常に	-9.08831
版	-9.08836
同じ	-9.08949
戦争	-9.08997
ナ	-9.09054
動物	-9.09106
定	-9.09357
建物	-9.09605
文章	-9.09677
ひ	-9.09692
明	-9.09904
約束	-9.09953
かけ	-9.09998
があった	-9.1002
オ	-9.10056
▁神	-9.10396
たる	-9.10414
を与える	-9.10441
成	-9.10632
春	-9.10643
掛け	-9.10739
型	-9.10743
まる	-9.10784
赤	-9.10938
地方	-9.10964
ドル	-9.10989
らしい	-9.11034
らない	-9.1147
製	-9.11665
原	-9.11778
粉	-9.11785
筋	-9.11867
▁君の	-9.1192
試合	-9.1198
そういう人	-9.11999
田	-9.12264
戸	-9.12299
メッセージを送信	-9.12326
▁三	-9.12582
▁目	-9.12597
事件	-9.12721
▁上	-9.12729
尾	-9.12792
▁気	-9.12815
すこと	-9.1294
ないこと	-9.13143
耳	-9.13165
電話かける	-9.13249
事業	-9.13507
四	-9.13536
煙	-9.13586
楽	-9.13775
合い	-9.13793
▁御	-9.13898
穴	-9.14019
▁自	-9.14111
難	-9.14211
費	-9.14268
造	-9.1445
▁高	-9.14487
地位	-9.14764
番する	-9.14764
村	-9.14835
▁天	-9.14875
マ	-9.14971
竹	-9.14993
ひと	-9.15032
袋	-9.15046
杯	-9.15057
活動	-9.15171
案	-9.15292
相手	-9.15421
網	-9.15503
腰	-9.15516
▁後	-9.15547
になること	-9.15555
研究	-9.15674
とき	-9.15858
を示す	-9.15923
長い	-9.16047
人物	-9.16174
の中で	-9.16302
公	-9.1637
一番	-9.16539
黒	-9.16634
に対し	-9.16676
税	-9.16831
写真	-9.16855
感情	-9.17139
機械	-9.17164
調子	-9.1743
への	-9.17449
合う	-9.17511
書物	-9.17517
が多い	-9.17946
小さな	-9.18085
あ	-9.1821
▁白	-9.18236
▁心	-9.18748
だけで	-9.18779
術	-9.18931
害	-9.19179
かい	-9.19197
寝	-9.192
記録	-9.19213
悪い	-9.19382
▁彼に	-9.19476
同	-9.1958
▁前	-9.19813
お知らせページ	-9.20171
s	-9.20173
強い	-9.20193
をしている	-9.20201
取引	-9.20333
政治	-9.20393
学者	-9.20393
美	-9.20532
鼻	-9.20593
カ	-9.20718
半	-9.20902
ロ	-9.2096
となった	-9.2108
電	-9.21235
弁	-9.21424
▁同	-9.21676
そうだ	-9.21748
張り	-9.21776
制度	-9.22022
方法	-9.2206
タ	-9.22153
信	-9.22164
でしょう	-9.22391
まい	-9.22455
民	-9.22798
いっぺん	-9.23115
球	-9.2312
当	-9.23156
。↓	-9.2328
八	-9.23304
しか	-9.23371
乗り	-9.23458
塩	-9.23474
報	-9.23595
読	-9.23631
皮	-9.23922
士	-9.23958
なし	-9.2435
料	-9.24375
焼き	-9.24376
払い	-9.24412
電話したい	-9.24536
と思う	-9.2456
乗	-9.24642
遊び	-9.24694
20	-9.24824
▁中	-9.24961
電話をかける	-9.24974
能力	-9.25098
▁二	-9.2515
ウ	-9.25261
調	-9.25264
断	-9.25271
像	-9.25318
ろう	-9.25341
のに使う	-9.25614
▁僕は	-9.2562
結婚	-9.25795
30	-9.25856
学問	-9.25879
広く	-9.25961
談	-9.25981
に入る	-9.26154
歩	-9.26193
毒	-9.26208
ッ	-9.26553
平	-9.26619
王	-9.26684
ができますか	-9.26725
号	-9.26817
進む	-9.26861
▁外	-9.26888
作用	-9.26896
大学	-9.26922
議論	-9.2696
幕	-9.26962
いや	-9.27064
シ	-9.27071
何か	-9.2712
得	-9.2722
秋	-9.27291
横	-9.27401
産	-9.27423
運	-9.27492
立つ	-9.27551
出した	-9.27557
多	-9.27581
▁ご	-9.27587
上げる	-9.27619
気持	-9.27699
野	-9.27763
やり直す	-9.27952
じゃない	-9.2804
出る	-9.28046
抜き	-9.28094
経験	-9.28198
を入れる	-9.28238
やる	-9.28497
かた	-9.28602
ケ	-9.28614
てしまった	-9.28703
くる	-9.28738
卵	-9.28866
規則	-9.28887
小さい	-9.28898
押し	-9.28937
ひどく	-9.29062
どう	-9.29091
深い	-9.29099
▁～	-9.29112
物質	-9.29213
▁全	-9.29358
手紙	-9.29481
▁国	-9.2949
違い	-9.29514
壁	-9.29531
番に電話して	-9.29572
いつも	-9.29627
夫	-9.29646
つける	-9.29673
針	-9.29687
連	-9.29743
|	-9.29991
息	-9.30085
取る	-9.30212
娘	-9.30227
をもつ	-9.30253
どうすれば	-9.30316
城	-9.30425
ニ	-9.30585
朝	-9.30713
自動車	-9.30731
に関する	-9.30857
全	-9.30933
欲	-9.31025
▁火	-9.31067
彼に	-9.31128
込み	-9.31163
言った	-9.31239
起	-9.31281
行う	-9.31398
落ち	-9.31478
なければならない	-9.31496
経済	-9.31505
道路	-9.31592
鉄	-9.316
新聞	-9.31715
肩	-9.31716
うまく	-9.31721
社	-9.31861
ゆ	-9.31945
牛	-9.32019
フ	-9.32086
策	-9.32107
法律	-9.32137
▁船	-9.32138
食事	-9.32148
使い	-9.32296
真	-9.32309
110	-9.32388
表現	-9.32546
万	-9.32588
7	-9.32862
形の	-9.33145
しなさい	-9.33249
科の	-9.33325
8	-9.33412
にして	-9.33438
一定の	-9.33454
和	-9.33512
史	-9.33568
▁悪	-9.33641
番呼び出して	-9.33763
変化	-9.3377
させた	-9.33811
窓	-9.33857
を言う	-9.33959
笑い	-9.34018
歳	-9.34048
そうな	-9.34063
切る	-9.34094
模様	-9.34233
彼が	-9.34323
	-9.34432
橋	-9.34433
時の	-9.34454
港	-9.34459
損	-9.34606
メッセ	-9.34609
局	-9.3466
命令	-9.34926
隊	-9.34985
ずる	-9.35029
番に電話	-9.35099
▁先	-9.35106
乱	-9.35229
'	-9.35273
政	-9.35278
片	-9.35353
競技	-9.35379
チ	-9.35383
の予約を確認	-9.35394
私に	-9.35448
ふ	-9.35483
島	-9.35486
ますか	-9.355
なった	-9.35504
進	-9.3552
英語	-9.35553
長く	-9.35679
せる	-9.35681
殺	-9.35742
白い	-9.35762
のうち	-9.35796
多くの	-9.35866
機関	-9.35914
財産	-9.35976
の上	-9.36202
ほう	-9.36346
時計	-9.364
メッセージ送信	-9.36464
付	-9.36492
剤	-9.36535
権利	-9.36594
すっかり	-9.36596
▁風	-9.36604
吹き	-9.36701
▁真	-9.36733
一般に	-9.36826
▁―	-9.36845
▁何か	-9.36854
有	-9.36899
がよい	-9.36996
世界	-9.37067
居	-9.37247
安	-9.37379
▁まだ	-9.37448
ません	-9.37451
失	-9.37495
化する	-9.37514
を見	-9.37666
かな	-9.37683
数学	-9.37798
層	-9.37891
証拠	-9.37895
詰め	-9.37991
危険	-9.38004
旗	-9.38015
付ける	-9.38034
十	-9.38218
▁茶	-9.38337
	-9.38362
はどうなっている	-9.38363
行き	-9.38422
盛り	-9.38444
食べる	-9.38529
電話する	-9.38664
ちゃん	-9.38738
少年	-9.38763
七	-9.38837
電気	-9.38857
他	-9.38944
算	-9.39015
たい	-9.39078
老	-9.39189
レ	-9.39189
党	-9.39202
を変更する	-9.39207
II	-9.39234
の上に	-9.3928
使う	-9.39293
を起こす	-9.39316
あった	-9.39348
金銭	-9.39458
のよい	-9.39475
メートル	-9.39527
説明	-9.39709
薄	-9.39786
品物	-9.39815
▁第	-9.39835
地域	-9.39849
破	-9.39909
d	-9.39926
▁警察	-9.39942
記号	-9.39953
率	-9.40062
立てる	-9.40374
▁日本	-9.40409
条件	-9.40424
心配	-9.40443
送	-9.40502
いない	-9.40536
うち	-9.40539
文書	-9.40581
50	-9.40649
全部	-9.40675
燭	-9.40681
▁日	-9.40703
の部分	-9.4078
くれ	-9.40786
たもの	-9.40869
差	-9.40895
▁正	-9.40907
普通	-9.40921
やすい	-9.4095
彼	-9.41095
されて	-9.41186
くなる	-9.41188
菓子	-9.41274
100	-9.41369
失敗	-9.41373
団体	-9.41374
技術	-9.41664
やめ	-9.41735
才	-9.42096
向き	-9.42105
働き	-9.42142
を立てる	-9.42173
切れ	-9.42721
ました	-9.42818
切	-9.42832
▁非常に	-9.42845
とした	-9.42942
株	-9.43013
手段	-9.43021
とても	-9.43153
指	-9.43253
▁3	-9.43418
ク	-9.43422
色の	-9.43431
分の	-9.43516
雑誌	-9.43565
多く	-9.43565
作った	-9.43596
ごと	-9.43603
教	-9.43649
影	-9.4375
飯	-9.43836
児	-9.4384
庭	-9.43961
変更	-9.43976
あい	-9.44059
付き	-9.44237
床	-9.44239
対	-9.44244
ぼ	-9.44295
ころ	-9.44445
に向かって	-9.4463
来た	-9.44665
つか	-9.44809
の間	-9.44835
番呼び出す	-9.44842
巻	-9.4493
解	-9.45006
を見る	-9.4518
気が	-9.45247
思想	-9.45486
折	-9.45498
引	-9.45565
個	-9.4557
日に	-9.45632
好	-9.45659
▁こう	-9.45764
すぐれた	-9.45786
はまだ	-9.45894
端	-9.45903
コ	-9.45955
目的	-9.45958
だと	-9.45993
があり	-9.46043
▁重	-9.46243
徳	-9.46302
伝	-9.46328
万円	-9.46373
称	-9.46388
じる	-9.46401
作品	-9.46406
工	-9.46463
がなく	-9.46503
らす	-9.46522
分け	-9.46531
つけた	-9.46541
▁雪	-9.46606
回り	-9.4666
だけの	-9.46719
▁月	-9.46738
話す	-9.46792
流れ	-9.46875
酸	-9.47005
込んだ	-9.47012
利益	-9.47208
を守る	-9.47305
望	-9.47321
わけ	-9.47326
訳	-9.47329
追加	-9.4733
▁海	-9.47416
注意	-9.47497
派	-9.47514
結果	-9.47592
散	-9.4761
千	-9.47644
しく	-9.47714
皿	-9.47808
工場	-9.47855
▁同じ	-9.47993
▁花	-9.47999
せず	-9.48067
に出る	-9.4807
返す	-9.48126
もなく	-9.48146
⇒	-9.48246
取り消す	-9.48272
花が咲く	-9.483
▁見	-9.48372
知識	-9.48387
降り	-9.48685
ひどい	-9.48771
段	-9.48778
週間	-9.48849
▁公	-9.48882
を使って	-9.49006
落	-9.49046
理	-9.49083
現象	-9.49118
言うこと	-9.49129
かん	-9.49145
そんな	-9.49162
苦	-9.49167
▁古	-9.4924
なんて	-9.49284
▁実	-9.49317
意味	-9.49392
列	-9.49417
宿	-9.49481
すべき	-9.49725
陰	-9.49861
韻	-9.49928
一つ	-9.50009
を更新する	-9.5004
あまり	-9.50096
▁そんな	-9.50117
胸	-9.50138
目に	-9.50155
の下	-9.50165
間に	-9.50186
の名	-9.50297
家族	-9.50423
読み	-9.50476
▁他人の	-9.50553
礼	-9.50674
砂	-9.50708
変	-9.50793
らせる	-9.50844
▁昔	-9.50866
され	-9.51044
事情	-9.51061
▁初	-9.51118
早く	-9.51151
入れる	-9.51172
陣	-9.51435
両	-9.51566
ずっと	-9.51571
他人の	-9.51583
▁平	-9.51606
価値	-9.5164
転	-9.51714
大いに	-9.51724
建築	-9.51727
受け	-9.51901
葉は	-9.51988
跡	-9.52018
大きく	-9.52091
岩	-9.52102
勢力	-9.52153
灯	-9.52172
辺	-9.52316
行った	-9.52336
▁有	-9.52353
好き	-9.52393
女性	-9.52394
くて	-9.52492
▁長	-9.52568
を失う	-9.5269
▁酒	-9.52746
強く	-9.52766
を持つ	-9.52893
金を	-9.52977
▁彼は私に	-9.53032
▁今	-9.53124
具	-9.53179
▁物事の	-9.53286
どんな	-9.53289
義	-9.53319
向	-9.53433
羽	-9.53457
ということ	-9.53534
更新	-9.53537
します	-9.53561
▁血	-9.53593
投げ	-9.53676
てきた	-9.53898
を得る	-9.53912
夢	-9.53944
ページ	-9.53979
取り消し	-9.54059
▁名	-9.54109
取	-9.54305
べ	-9.5434
としての	-9.5438
約	-9.54408
判断	-9.54408
▁雨	-9.54443
演説	-9.54489
校	-9.54633
来る	-9.54647
題	-9.54705
{	-9.54718
組	-9.54757
はい	-9.5484
芸	-9.54843
検査	-9.54868
腕	-9.54898
婦人	-9.54966
辞	-9.5513
余	-9.55293
ごろ	-9.55366
肌	-9.55444
理論	-9.55447
近	-9.55462
の一	-9.55483
ほどの	-9.55516
格	-9.55696
すり	-9.55993
ものが	-9.56076
▁そう	-9.56079
により	-9.56104
倍	-9.56133
▁ひと	-9.56332
銀	-9.56346
位置	-9.56351
のですか	-9.56371
政府	-9.56414
市	-9.56415
賞	-9.56515
うそ	-9.56528
そこ	-9.5654
氏	-9.56601
一つの	-9.5664
げんきかいの履歴	-9.5675
さない	-9.56756
晩	-9.56757
衣	-9.56759
精神	-9.56765
れた	-9.56832
t	-9.56893
▁横	-9.56955
やり	-9.57043
枚	-9.57056
寒	-9.57064
示	-9.57152
キ	-9.57178
を開いて	-9.57185
箸	-9.57239
質問	-9.57278
互いに	-9.57285
追い	-9.57307
▁よく	-9.57348
末	-9.57397
起こる	-9.57398
高く	-9.57496
そば	-9.57518
青	-9.57528
聞き	-9.57556
見える	-9.57601
それに	-9.57708
はその	-9.5775
前の	-9.57784
教え	-9.57841
がつく	-9.57892
営	-9.57919
全く	-9.57943
込んで	-9.57951
液	-9.57968
程度	-9.58008
しよう	-9.58034
幅	-9.58045
入る	-9.58052
に当たる	-9.58095
友	-9.58159
はっきり	-9.58244
氷	-9.58265
釮	-9.58265
成功	-9.58295
空気	-9.58305
衣服	-9.58345
職業	-9.58348
▁げんきかいの記録	-9.58384
工業	-9.58551
いること	-9.58604
帽子	-9.58632
不足	-9.58636
解決	-9.58676
言語	-9.58794
、「	-9.58817
矢	-9.58824
さえ	-9.58868
弱	-9.58926
場合	-9.58946
▁多	-9.58988
▁戦争	-9.59056
勝	-9.59069
岸	-9.59087
彼女は	-9.59107
予約	-9.59117
寺	-9.59221
人は	-9.59276
かかる	-9.59278
のだ	-9.59469
かね	-9.59481
打	-9.59485
今	-9.59486
責任	-9.59519
反対	-9.59655
速	-9.59706
でなく	-9.59792
状の	-9.59802
相手の	-9.59845
飾り	-9.59913
番して	-9.5996
せん	-9.59969
パン	-9.60028
▁君が	-9.60096
▁警察呼びに電話	-9.60111
茲	-9.60252
ざ	-9.60256
自	-9.60376
大きい	-9.60506
激しく	-9.60638
を送る	-9.60677
持	-9.60717
が彼の	-9.60746
ド	-9.60768
がないこと	-9.60794
政策	-9.60808
配	-9.60827
にした	-9.60846
炎	-9.60903
上がる	-9.60931
一方	-9.60962
と言った	-9.61003
OK	-9.61006
商売	-9.61019
滅	-9.61058
墨	-9.61065
▁早	-9.6107
▁川	-9.61077
良	-9.61136
バ	-9.61146
番に電話かける	-9.6119
者が	-9.61239
げんきかいの記録	-9.61322
▁救急車呼ぶ	-9.61327
院	-9.61406
抜け	-9.61463
当たり	-9.6151
略	-9.61531
▁それ	-9.61534
逆	-9.61606
ことだ	-9.61671
と言う	-9.61719
すれば	-9.61775
なって	-9.61876
階級	-9.61883
▁女	-9.61898
距離	-9.61987
皆	-9.62057
上げ	-9.6218
材	-9.62382
経	-9.62432
かさ	-9.62473
のもの	-9.6254
反	-9.62554
修	-9.62628
の類	-9.62667
北	-9.62672
飛び	-9.62745
契約	-9.62861
恩	-9.6289
列車	-9.62903
援助	-9.6297
原因	-9.63102
彼女の	-9.63114
さし	-9.63161
まえ	-9.63176
仕事を	-9.63186
ガラス	-9.63187
～	-9.63191
犯罪	-9.63275
少し	-9.63292
ひも	-9.63338
見て	-9.63367
▁強	-9.63379
健康	-9.63583
ぶり	-9.63611
かどうか	-9.63612
要	-9.63635
差し	-9.63669
銃	-9.63699
価格	-9.63701
できた	-9.63732
織物	-9.63738
期間	-9.63775
げんきかいのお知らせ	-9.63787
られて	-9.63815
材料	-9.63848
を見て	-9.63863
程	-9.63887
才能	-9.63912
金属	-9.63915
素	-9.63919
軸	-9.64083
乳	-9.64099
科	-9.64116
働く	-9.64123
等の	-9.6413
取りやめ	-9.64241
A	-9.64259
▁足	-9.64354
装	-9.64362
離	-9.64427
▁ショートメッセージを	-9.64585
放送	-9.64599
いった	-9.64769
言って	-9.64775
▁これらの	-9.64785
最も	-9.64859
すべて	-9.64919
給	-9.64925
▁救急車を呼ぶ	-9.64974
習	-9.64987
願	-9.64995
まったく	-9.65032
彼を	-9.6504
に住む	-9.65052
▁赤	-9.65063
汁	-9.65102
会議	-9.65177
便	-9.65188
の件	-9.65227
善	-9.6525
生徒	-9.65339
裏	-9.65384
霊	-9.65389
泥	-9.6539
天気	-9.65469
おり	-9.65656
意識	-9.65681
しまった	-9.65718
器具	-9.65751
つる	-9.65778
▁直	-9.66062
学生	-9.66189
▁親	-9.66209
のいい	-9.66215
聞	-9.66241
林	-9.66273
綿	-9.66277
▁年	-9.6628
自然	-9.66406
は何	-9.66535
ム	-9.66544
などに使う	-9.66604
食物	-9.6667
留	-9.66715
仕	-9.66742
知恵	-9.66808
飲む	-9.66848
境	-9.66858
委員会	-9.66859
▁再	-9.66933
弾	-9.67067
選	-9.67086
係	-9.6709
攻撃	-9.67119
死んだ	-9.67121
積	-9.67189
▁新しい	-9.67216
計算	-9.67238
希望	-9.67299
苦労	-9.67347
おく	-9.6738
事故	-9.67457
潮	-9.67509
ブ	-9.67559
努力	-9.67592
をもって	-9.67619
食い	-9.67735
られている	-9.67741
の悪い	-9.6787
費用	-9.67887
息子	-9.67945
作る	-9.68023
枝	-9.68093
問	-9.68095
体を	-9.68102
堂	-9.682
望み	-9.68221
物事の	-9.683
習慣	-9.68312
スト	-9.68318
罰	-9.68348
痛	-9.68349
性の	-9.68361
うちに	-9.68425
がよく	-9.68455
中である	-9.68558
収	-9.6857
もち	-9.68637
かり	-9.68666
死ぬ	-9.68764
▁愛	-9.68784
▁逆	-9.69094
仲間	-9.69098
割り	-9.69225
各	-9.69248
評判	-9.69259
批評	-9.69259
▁野	-9.69282
作り	-9.69312
を打つ	-9.69434
ついて	-9.69445
げんきかい予約	-9.6945
言い方	-9.69473
▁総	-9.69509
紅	-9.6951
深く	-9.69542
側	-9.69595
▁朝	-9.69602
▁入	-9.69695
討	-9.69765
させ	-9.69775
犯	-9.69799
昔	-9.69808
剣	-9.69853
判	-9.69891
違う	-9.69896
▁救急車呼びに電話	-9.69942
たちは	-9.70067
者は	-9.70121
ばか	-9.70284
は彼の	-9.70379
雄	-9.70403
都市	-9.70456
、...	-9.70593
を使う	-9.70665
ネ	-9.70668
を張る	-9.70684
食品	-9.70772
ハ	-9.70819
返事	-9.70842
▁ひ	-9.70962
属	-9.71039
集	-9.71086
在	-9.71103
念	-9.71131
正しい	-9.71136
舌	-9.71156
過	-9.71162
気分	-9.71174
予定	-9.71193
上に	-9.71202
飛行	-9.71238
編	-9.71257
細工	-9.71266
領	-9.71273
籍	-9.71349
すぎる	-9.71382
に達する	-9.71387
もっと	-9.71441
メッセを	-9.71471
ほとんど	-9.7149
それが	-9.71494
くず	-9.71615
涙	-9.71634
商	-9.7168
▁自然	-9.71713
▁OK	-9.71713
キロ	-9.71721
につく	-9.71731
テ	-9.71764
章	-9.71801
所に	-9.71807
ほ	-9.71815
旅	-9.71816
ましたか	-9.71866
▁救急車	-9.71918
もある	-9.71961
▁君	-9.71974
振り	-9.72132
置き	-9.72142
やった	-9.72179
舟	-9.7223
残	-9.72237
製品	-9.72274
年齢	-9.72317
銭	-9.72344
立派な	-9.72382
丸	-9.72386
綱	-9.72396
離れ	-9.72399
急	-9.72467
務	-9.72471
産業	-9.72545
の多い	-9.72661
笑う	-9.72677
内容	-9.72762
顔つき	-9.72785
に似た	-9.7287
底	-9.7289
次の	-9.73001
蝿	-9.73049
▁とても	-9.73061
れて	-9.73062
に電話する	-9.73083
泣く	-9.7312
弟	-9.7317
へ行く	-9.73246
食べ	-9.73326
観	-9.73327
人だ	-9.73354
ガス	-9.73356
黄	-9.73478
九	-9.73539
立場	-9.73571
まず	-9.73596
ずに	-9.73616
条	-9.73652
を取り	-9.73676
従	-9.73696
な人	-9.73729
別の	-9.73781
を追加する	-9.73822
黒い	-9.7384
考える	-9.73892
服装	-9.73909
ミ	-9.73914
年間	-9.73914
合わせ	-9.73979
マイル	-9.74044
理由	-9.74087
茎	-9.74182
▁熱	-9.74222
▁土	-9.7428
祭	-9.74358
があって	-9.74363
初めて	-9.74535
趣味	-9.7455
芸術	-9.74563
水を	-9.74622
階	-9.7464
清	-9.74774
15	-9.74795
軍隊	-9.74806
▁青	-9.74827
冠	-9.74845
松	-9.74868
冬	-9.74876
▁石	-9.74985
あの	-9.74996
性格	-9.75112
受	-9.75141
▁肉	-9.75212
▁彼は私の	-9.75229
勢い	-9.75245
文学	-9.75273
資金	-9.75285
わざ	-9.75334
家に	-9.75357
▁鉄	-9.75412
らず	-9.75552
友人	-9.75587
必要	-9.75719
圧	-9.75792
駅	-9.7585
保護	-9.75863
症	-9.75948
芝居	-9.75963
見た	-9.75988
Δ	-9.76009
生物	-9.76013
をやる	-9.76042
情報	-9.76069
▁両	-9.76124
▁それを	-9.7614
ぐらい	-9.76175
▁自動車	-9.76176
級	-9.76203
南	-9.76218
患者	-9.76231
諸	-9.76233
裁判所	-9.76233
国家	-9.76233
売	-9.76234
うこと	-9.76256
の中	-9.76291
要求	-9.76296
期待	-9.76375
やか	-9.76411
▁電気	-9.7652
▁主	-9.76533
体の	-9.76609
東	-9.76632
走る	-9.76653
▁他	-9.76679
何の	-9.76687
紋	-9.76691
メ	-9.76763
替え	-9.76778
けた	-9.76823
蔵	-9.7686
州	-9.76886
みな	-9.76896
商品	-9.769
省	-9.76924
勢	-9.76938
傾向	-9.77006
▁それが	-9.77088
心が	-9.77136
炭	-9.77137
バス	-9.77173
密	-9.7718
かもしれない	-9.77186
部隊	-9.77199
わら	-9.77291
ホ	-9.77292
全体	-9.77488
▁多くの	-9.77528
と同じ	-9.77528
屋根	-9.77552
交	-9.77682
▁げんきかいの履歴	-9.7777
香	-9.77843
▁黒	-9.77904
狂	-9.77923
したり	-9.77958
▁警察を呼ぶ	-9.77963
泙	-9.77982
十分	-9.77988
納	-9.78018
しゃ	-9.78022
を行なう	-9.78099
癖	-9.78111
助	-9.78168
始めた	-9.78255
]	-9.78321
販売	-9.78335
結	-9.78375
一日	-9.7841
呂	-9.78432
人形	-9.78492
物事	-9.78495
られない	-9.78659
我々の	-9.7872
ガ	-9.7872
知っている	-9.78953
▁半	-9.78984
たくさん	-9.79071
割	-9.79207
▁身	-9.79215
を受けて	-9.79225
ようにする	-9.79289
短い	-9.79291
▁文	-9.79307
苦しい	-9.79346
彼女	-9.79369
左	-9.79422
宮	-9.79425
▁げんきかいのお知らせ	-9.79449
を入れて	-9.7948
かわ	-9.79577
9	-9.7963
治	-9.79665
収入	-9.79703
ポンド	-9.79885
の称	-9.79916
心を	-9.79937
に電話したい	-9.79985
交渉	-9.80028
の言葉	-9.80092
▁5	-9.80098
印刷	-9.80237
志	-9.80285
ていない	-9.80293
処理	-9.80338
止め	-9.80377
相談	-9.80437
動作	-9.80511
脚	-9.80535
▁寝	-9.80664
▁原	-9.80675
鵑	-9.80688
撃	-9.80709
パ	-9.80733
▁物事を	-9.80746
走	-9.80752
でき	-9.80793
チーム	-9.8083
ヤ	-9.80875
サ	-9.80911
回る	-9.80937
物語	-9.80956
となって	-9.80965
孫	-9.81032
めた	-9.81063
家の	-9.81082
筒	-9.81104
豆	-9.81122
B	-9.81133
畑	-9.81145
露	-9.81157
景	-9.81223
ちゃ	-9.81393
一人	-9.81561
いく	-9.81574
わからない	-9.81609
▁馬	-9.81775
動き	-9.81888
設備	-9.81894
議	-9.81964
兄	-9.82132
選手	-9.82177
急に	-9.82284
死ぬこと	-9.82335
▁メッセ	-9.82366
後に	-9.82399
▁地	-9.82431
百	-9.82438
手を	-9.82456
とう	-9.82459
▁急	-9.8246
君の	-9.82521
テーブル	-9.82526
なかなか	-9.82674
を求める	-9.82723
ができる	-9.82756
ついた	-9.82785
に立つ	-9.83037
顔を	-9.83054
飲み	-9.83103
施設	-9.83106
縄	-9.83111
きり	-9.83186
▁こ	-9.83208
しても	-9.83213
細	-9.83271
何も	-9.83307
効果	-9.83407
を引く	-9.83445
直接	-9.83446
当て	-9.83447
極	-9.83461
達	-9.83481
さっと	-9.83515
▁男	-9.83529
生まれ	-9.83571
がら	-9.83633
巻き	-9.83678
の時	-9.83694
▁一つの	-9.83914
をつけた	-9.83932
▁旧	-9.84013
▁片	-9.84071
▁反	-9.84191
典	-9.84216
まま	-9.84219
心に	-9.84282
▁試験	-9.8434
件	-9.84356
症状	-9.84386
態	-9.8444
ヒ	-9.84469
電車	-9.84518
させて	-9.8457
二つの	-9.84614
秘密	-9.84806
若い	-9.84949
丁	-9.85009
令	-9.85021
喜び	-9.85056
ようだ	-9.85083
近く	-9.85137
目を	-9.85139
をさす	-9.85148
単に	-9.85182
範囲	-9.85192
書類	-9.85202
織り	-9.85219
早	-9.85223
間違い	-9.85227
決定	-9.8524
たら	-9.85316
負け	-9.85348
行い	-9.85456
決	-9.85482
役目	-9.85523
勘定	-9.85544
障害	-9.85546
俳優	-9.85568
重い	-9.85761
▁かん	-9.85797
▁腹	-9.85806
間の	-9.85876
能	-9.85916
やつ	-9.8593
が強い	-9.85939
聞く	-9.85966
作家	-9.85987
づ	-9.85989
ても	-9.85999
▁彼らの	-9.86047
勉強	-9.86059
を切る	-9.86085
答え	-9.86235
徒	-9.86304
単位	-9.86407
殿	-9.86415
絹	-9.86446
▁引き	-9.86473
▁詩	-9.86699
-	-9.86743
盤	-9.86754
ましょう	-9.86792
▁和	-9.86853
主に	-9.86936
▁彼女が	-9.87118
物事を	-9.87162
蕕	-9.87194
の間に	-9.87288
西	-9.87334
▁明	-9.87415
以上	-9.87478
菜	-9.87532
が出る	-9.87558
発する	-9.87693
退	-9.87693
際	-9.87716
反応	-9.87752
荷	-9.87855
勝利	-9.87877
▁老	-9.87959
票	-9.87979
教授	-9.88
甲	-9.88015
涼	-9.88063
選挙	-9.88075
▁転	-9.88147
作業	-9.88187
総	-9.88193
型の	-9.88199
していない	-9.88224
▁sho	-9.88267
を持っている	-9.88341
労働者	-9.88379
▁牛	-9.88426
報告	-9.88444
資格	-9.88448
中で	-9.88453
襪	-9.88472
▁客	-9.88491
とか	-9.88503
のことを	-9.8858
んでいる	-9.88612
願い	-9.88667
漢	-9.8868
方向	-9.88801
絶	-9.88899
置	-9.88938
文句	-9.88974
ずつ	-9.89006
しん	-9.8901
とし	-9.89035
工事	-9.89135
▁非	-9.89177
ul	-9.89177
覚え	-9.89212
遠	-9.89221
一面に	-9.8923
▁もっと	-9.89299
ニュース	-9.89312
砂糖	-9.89384
手で	-9.894
飛ぶ	-9.89455
扱い	-9.89511
放	-9.89557
料金	-9.89602
▁法	-9.89682
気持ち	-9.89697
哲学	-9.89699
▁ア	-9.89703
のための	-9.89816
常	-9.89833
ひき	-9.89902
合って	-9.89996
忘れ	-9.90013
緑	-9.9005
順	-9.90057
考え方	-9.90142
初	-9.90166
券	-9.90166
はもう	-9.90208
雑	-9.90239
多くは	-9.9024
▁あの人は	-9.9026
ごとに	-9.90269
粒	-9.90269
臭	-9.9029
▁きょうは	-9.90376
遊	-9.90382
知らせ	-9.90468
ちょっと電話	-9.90474
革	-9.90539
麦	-9.9056
刃	-9.90581
すぐに電話	-9.90685
一杯	-9.90696
▁しょう	-9.907
につける	-9.90723
化学	-9.9078
勇	-9.90797
あたり	-9.90835
をなす	-9.90842
精	-9.9085
▁雑	-9.90886
e	-9.90892
激しい	-9.91061
をつけ	-9.91084
ボール	-9.91106
自分で	-9.91123
ツ	-9.91178
▁警察呼ぶ	-9.9127
関	-9.9128
満足	-9.91292
▁コ	-9.91297
ていること	-9.91345
旧	-9.91362
湖	-9.91476
▁連	-9.915
異	-9.91562
させること	-9.91569
▁ス	-9.9158
だよ	-9.91636
思う	-9.91666
▁薄	-9.91712
▁国際	-9.91714
樹	-9.9173
▁社会	-9.91773
右	-9.918
儀	-9.91931
身分	-9.91947
国民	-9.92
づけ	-9.92011
まき	-9.92085
塔	-9.92091
▁死	-9.92138
眠	-9.92162
民族	-9.92225
時期	-9.9228
ソ	-9.92326
寒い	-9.92337
深	-9.92353
ないように	-9.92371
灰	-9.92375
細い	-9.92387
パーティー	-9.92482
渡し	-9.92482
らい	-9.92663
▁別	-9.92779
通信	-9.92801
エ	-9.92857
調査	-9.92862
▁彼は自分の	-9.92869
またその	-9.92897
でメッセを	-9.92931
出して	-9.92956
▁耳	-9.9299
るように	-9.93054
かき	-9.93075
譴	-9.93082
の木	-9.93097
録	-9.93135
銀行	-9.93161
▁自由	-9.93164
そこに	-9.93178
わき	-9.93226
太陽	-9.93243
を表す	-9.93259
テレビ	-9.93324
ておく	-9.93414
ただ	-9.93427
許	-9.93432
をつけて	-9.93532
教師	-9.93559
評	-9.9356
▁胸	-9.93622
うつ	-9.93629
普通の	-9.9364
名前	-9.93681
▁どんな	-9.93818
を敬って言う	-9.93833
みんな	-9.93839
猫	-9.93852
池	-9.93925
がん	-9.93934
▁未	-9.93971
モ	-9.94011
▁健康	-9.94059
見え	-9.94074
私が	-9.94117
ことがある	-9.94132
載	-9.94136
において	-9.94137
年の	-9.94206
▁変	-9.94221
将来	-9.94224
▁歯	-9.94248
美人	-9.94313
こんな	-9.94318
そうに	-9.94318
しなければならない	-9.94356
になり	-9.94414
使	-9.9446
物体	-9.945
待ち	-9.94512
と彼は	-9.94554
出すこと	-9.9457
自分	-9.94595
で作った	-9.94676
企業	-9.94685
尺	-9.94709
写し	-9.94735
闘	-9.94738
いまから電話	-9.94744
系統	-9.94816
私を	-9.9482
でメッセ	-9.94845
合わせる	-9.94849
脈	-9.94873
▁五	-9.9489
宝	-9.94909
芽	-9.94926
狭い	-9.94929
初め	-9.94943
話題	-9.94949
科学	-9.94957
金額	-9.94983
年に	-9.95011
勇気	-9.95082
自由に	-9.95151
弔	-9.95255
盛んに	-9.95299
元気	-9.95346
が高い	-9.95458
▁魚	-9.95468
があること	-9.95484
暗	-9.95528
▁鼻	-9.95576
われ	-9.95594
やって	-9.95821
突	-9.95839
忠告	-9.95843
でメッセージ	-9.95905
それは	-9.95953
▁腕	-9.95958
変わった	-9.95973
られ	-9.96092
刑	-9.96183
かみ	-9.96185
限り	-9.96187
▁そ	-9.96188
宗教	-9.96196
▁を用いないことが多い	-9.96203
演技	-9.96206
打つ	-9.96249
▁物事が	-9.96276
▁銀	-9.9628
▁いまから電話	-9.96309
帰り	-9.96371
しながら	-9.96384
一時	-9.96409
▁塩	-9.96461
任務	-9.9652
わかる	-9.96597
▁仮	-9.9664
のお知らせ	-9.96689
▁すぐに電話	-9.9671
困	-9.96761
製の	-9.96761
あること	-9.96825
かぎ	-9.96854
運転	-9.96894
ことができる	-9.96896
▁ひどく	-9.96963
やめる	-9.96965
臣	-9.96972
怒り	-9.97076
紫	-9.97126
こむ	-9.97177
道を	-9.9718
笑	-9.97189
かし	-9.97231
がうまい	-9.97234
系	-9.97248
まわり	-9.9735
存在	-9.97352
を行う	-9.97374
源	-9.97415
感覚	-9.97449
をあげる	-9.97454
宗	-9.9747
守	-9.97477
に電話かける	-9.97494
巣	-9.97497
さらに	-9.97509
構造	-9.97558
規定	-9.97591
しないこと	-9.97599
連絡	-9.97607
労働	-9.9761
めて	-9.97611
細長い	-9.97618
再	-9.97627
信仰	-9.97631
手に	-9.977
形式	-9.97738
出た	-9.97861
少しも	-9.9791
▁大きな	-9.97948
世間	-9.97994
ット	-9.98
みち	-9.98012
縫い	-9.98111
▁相手の	-9.9812
鏡	-9.98158
投票	-9.98232
目の	-9.98262
勝負	-9.98288
なくなる	-9.98308
にかける	-9.98465
なければ	-9.98471
▁根	-9.98483
リー	-9.98483
ことを言う	-9.98509
口を	-9.98607
益	-9.98687
暗い	-9.98737
あき	-9.98746
現	-9.98774
匹	-9.98798
古い	-9.98861
小屋	-9.9887
指導	-9.98871
べきだ	-9.98886
寄せ	-9.98937
一生	-9.98995
むこと	-9.98995
恥	-9.99004
膜	-9.99014
署名	-9.99019
發	-9.99021
▁春	-9.99096
実験	-9.99103
せき	-9.99109
保証	-9.99111
げんきかいの予約状況	-9.99132
▁背	-9.99143
財	-9.99174
ふるまい	-9.99193
きちんと	-9.99233
折り	-9.99269
ようにした	-9.99318
ドア	-9.9934
得意	-9.99399
だから	-9.994
たけ	-9.99444
接	-9.99489
していること	-9.99526
▁こんな	-9.99557
▁彼を	-9.9957
処置	-9.99604
▁新聞	-9.99607
▁the	-9.99649
時代の	-9.99713
イン	-9.99797
男だ	-9.99798
死に	-9.99849
げる	-9.99888
▁軽	-9.99905
相手に	-9.99989
信号	-10
不安	-10.0003
うわさ	-10.0008
▁旅	-10.0017
ドレス	-10.0023
を受けた	-10.0025
楽器	-10.0025
調べ	-10.0025
買い	-10.0031
以外の	-10.0031
商人	-10.0032
塗り	-10.0042
戮	-10.0048
恐れ	-10.0049
他人	-10.005
休み	-10.0051
ようにして	-10.0051
ぐあい	-10.0052
生産	-10.0052
先に	-10.0055
小さく	-10.006
祭り	-10.0061
のです	-10.0073
戦う	-10.0073
▁さあ	-10.0074
子供たち	-10.0099
▁取り	-10.0104
必ず	-10.0107
▁発	-10.0107
族	-10.011
に近い	-10.0112
突き	-10.0115
メッセ送信	-10.0121
我	-10.0123
咲く	-10.0124
はとても	-10.0127
防	-10.0129
谷	-10.013
神経	-10.0131
▁分	-10.0137
しま	-10.014
を上げる	-10.0145
貸し	-10.0149
作物	-10.0149
荷物	-10.015
の日	-10.0152
静かに	-10.0154
帳	-10.0158
の子	-10.0161
偏	-10.0168
市場	-10.0169
われる	-10.017
釣り	-10.0171
つり	-10.0183
菌	-10.0187
賛成	-10.0187
翼	-10.019
渡	-10.0191
▁学問	-10.0193
グ	-10.0195
速度	-10.0202
揚げ	-10.0203
▁私が	-10.0204
▁油	-10.0207
発見	-10.0214
の家	-10.0215
地帯	-10.0224
焼	-10.0229
開	-10.0232
うまい	-10.0236
アメリカ	-10.0241
の音	-10.0247
刻	-10.0248
かえる	-10.0263
君は	-10.0268
歩いて	-10.0275
寒さ	-10.0277
のみ	-10.0279
趣	-10.0283
誤り	-10.0285
住む	-10.0285
非難	-10.0304
まった	-10.0305
温	-10.0308
の実	-10.0309
!、	-10.032
美しく	-10.0322
因	-10.0322
河	-10.033
▁病気	-10.0331
迫	-10.0333
本の	-10.0336
華	-10.0339
自身	-10.034
ませんか	-10.0342
貨幣	-10.0344
泣き	-10.0345
区域	-10.0346
営業	-10.0347
液体	-10.0352
暮らす	-10.0354
思い出	-10.0355
手続き	-10.0358
送り	-10.037
事務	-10.0371
容器	-10.0379
欠点	-10.0381
まり	-10.0385
思	-10.0385
ビ	-10.0391
びん	-10.0393
役所	-10.0403
を出して	-10.0413
▁カ	-10.0414
越し	-10.0414
森	-10.0415
▁学校	-10.0416
寄り	-10.0423
を加える	-10.0424
演	-10.0426
薄く	-10.0429
くら	-10.0438
にとって	-10.044
煮	-10.0441
とる	-10.0446
区	-10.0446
利用	-10.0451
張	-10.0459
▁{	-10.046
ってしまった	-10.0461
むし	-10.0463
▁軍	-10.0465
発音	-10.0467
くって	-10.0468
抵抗	-10.0471
肥料	-10.0472
養	-10.0472
の中の	-10.0478
▁草	-10.048
名声	-10.0482
これを	-10.0485
刺激	-10.0486
講	-10.0487
実は	-10.0488
環境	-10.0489
および	-10.0491
禁止	-10.0493
閑	-10.0493
殻	-10.0495
智	-10.0496
笛	-10.0497
▁深	-10.0497
貿易	-10.0498
あるいは	-10.05
減	-10.0502
戦闘	-10.0503
方針	-10.0505
薄い	-10.0507
▁砂	-10.0509
品種	-10.0509
きょう	-10.051
子寬	-10.0512
出席	-10.0518
レース	-10.0519
の道	-10.0521
げんきかいの予約を管理	-10.053
にかけて	-10.0531
をつく	-10.0531
けが	-10.0531
価	-10.0532
さら	-10.0534
分ける	-10.0538
中国	-10.0547
運命	-10.0548
かかった	-10.0551
器官	-10.0556
あて	-10.0559
しなかった	-10.056
下の	-10.0563
っぱ	-10.0572
▁常	-10.0579
野菜	-10.058
白く	-10.0584
をお	-10.0587
周	-10.0592
殺す	-10.0592
ことのたとえ	-10.0596
コーヒー	-10.0607
写	-10.061
▁宿	-10.0611
東京	-10.0611
払う	-10.0612
ジ	-10.0614
がる	-10.0616
主張	-10.0623
立った	-10.0627
人々	-10.0627
ック	-10.0633
▁何ができるか教えて	-10.0634
外出	-10.0634
理解	-10.0637
詩人	-10.0637
結び	-10.0639
出来事	-10.064
義務	-10.0642
くなった	-10.0646
炉	-10.0649
ザ	-10.065
共和国	-10.065
敗	-10.0651
千円	-10.0655
かげ	-10.0656
暑い	-10.0657
予算	-10.0658
降	-10.0658
しみ	-10.0673
食べ物	-10.0673
尻	-10.0674
ノ	-10.0677
家具	-10.0679
軽く	-10.0679
a	-10.068
におい	-10.0686
ったり	-10.0695
立っている	-10.0699
科の多年生植物	-10.071
入っている	-10.0711
歴史	-10.0719
いだ	-10.0723
に入れる	-10.0723
ひとつ	-10.0735
実に	-10.0737
っぽ	-10.0738
段階	-10.074
始め	-10.0744
垂れ	-10.0752
塁	-10.0753
をよく	-10.0753
解釈	-10.0754
物事が	-10.0757
自由	-10.0764
幸福	-10.0776
状態になる	-10.0777
値段	-10.0784
広い	-10.0785
ピ	-10.0785
番号	-10.0791
壇	-10.0794
広告	-10.0794
上がり	-10.0795
犯人	-10.0798
▁我々の	-10.0801
忙しい	-10.0805
真実	-10.0806
弦	-10.0806
掛ける	-10.0807
瓩	-10.0807
餅	-10.0807
講演	-10.0807
コート	-10.0808
ていった	-10.0809
そのまま	-10.081
のある人	-10.0811
かける	-10.0814
獣	-10.0823
紳士	-10.0824
でしょうか	-10.0826
に乗る	-10.0828
限	-10.0833
焼け	-10.0834
茂	-10.0834
袖	-10.0835
種類の	-10.0836
ばかりの	-10.0837
でないこと	-10.084
観賞用	-10.0842
証	-10.0842
それぞれ	-10.0846
鬼	-10.0851
平和	-10.0857
銅	-10.0858
ひざ	-10.087
奪	-10.087
と言って	-10.0875
してください	-10.0884
いと	-10.0886
集団	-10.0888
▁奇	-10.0891
ダ	-10.0893
落とす	-10.0897
なっている	-10.0904
災難	-10.0908
建	-10.0919
訪問	-10.0922
どおりに	-10.0922
行って	-10.0928
上着	-10.0928
の大	-10.093
答	-10.093
がなかった	-10.0933
つま	-10.0935
▁あなたの	-10.0937
▁筆	-10.094
仕事をする	-10.0945
続き	-10.0946
の下に	-10.0947
功	-10.0949
続く	-10.095
街	-10.0953
┐	-10.0954
魂	-10.0954
▁映画	-10.0957
身を	-10.0962
ホテル	-10.0964
エネルギー	-10.0966
でした	-10.0974
太	-10.0977
ごみ	-10.0977
目標	-10.0977
時には	-10.0978
▁-	-10.0981
違うよ	-10.0984
なること	-10.0988
業者	-10.0997
時刻	-10.0997
裁判	-10.1
きず	-10.1001
愚	-10.1005
良い	-10.1011
勝ち	-10.1012
なくなった	-10.1012
▁彼はいつも	-10.1012
そうした	-10.1014
福	-10.1017
冷	-10.1017
机	-10.102
すばらしい	-10.1021
射	-10.1021
悲しみ	-10.1021
触れ	-10.1022
ズ	-10.1024
呼び	-10.1024
黄色	-10.1039
▁開	-10.1044
争い	-10.1047
内に	-10.1053
の意	-10.1062
地震	-10.1065
▁紙	-10.1065
重要な	-10.1065
脱	-10.1067
▁10	-10.1071
▁対	-10.1075
▁秋	-10.108
▁腰	-10.1086
いたずら	-10.1089
▁ふ	-10.1091
ごく	-10.1092
▁近	-10.1092
▁メッセを	-10.1093
くれた	-10.1093
歳だ	-10.1097
借り	-10.1099
センチ	-10.1104
仕事に	-10.1105
資本	-10.1105
案内	-10.1105
でメッセージを	-10.1107
風に	-10.1108
▁人間	-10.1108
の結果	-10.111
地面	-10.1113
かなり	-10.1114
売買	-10.1116
▁互いに	-10.1116
微	-10.1119
意志	-10.1119
とび	-10.1122
繊維	-10.1124
ひげ	-10.1124
腸	-10.1125
抜く	-10.1131
▁数	-10.1137
医学	-10.1137
かない	-10.1143
わせる	-10.1146
彼女に	-10.1146
会員	-10.1151
▁湯	-10.1153
若	-10.1156
鐘	-10.1159
視	-10.1159
出来	-10.1167
外国	-10.1168
ええ	-10.1173
▁好	-10.1173
水が	-10.1174
舞台	-10.1174
□・	-10.1182
出版	-10.1183
▁ひどい	-10.1185
後ろ	-10.1191
封	-10.1192
脳	-10.1194
遠い	-10.1203
好きな	-10.1204
あって	-10.1207
用意	-10.1208
かご	-10.1221
鉄道	-10.1223
課	-10.1223
と思った	-10.1226
つけて	-10.1228
実際に	-10.123
締め	-10.1233
いろいろな	-10.1235
羊	-10.1236
荒	-10.1239
▁着	-10.1239
並み	-10.1243
の仕事	-10.1243
高さ	-10.1244
の前に	-10.1245
まじ	-10.1246
▁極	-10.1249
左右	-10.125
住	-10.1256
恋	-10.1258
▁裏	-10.1263
表情	-10.1263
こそ	-10.1264
過ぎる	-10.1265
ようとする	-10.1265
はこの	-10.1266
都	-10.1267
方式	-10.1267
▁子寬	-10.1271
▁来	-10.1272
房	-10.1272
技	-10.1272
回し	-10.1273
▁頭	-10.1276
どり	-10.1277
▁いや	-10.1281
▁自分	-10.1282
るような	-10.1286
吟	-10.1287
かけた	-10.1288
トン	-10.129
籠	-10.129
个	-10.1291
n	-10.1297
▁清	-10.1298
▁思い	-10.1305
▁差し	-10.1306
鬚	-10.1308
臭い	-10.1312
長さ	-10.1312
温度	-10.1313
▁冬	-10.1314
論文	-10.1317
いている	-10.1321
についての	-10.1326
の数	-10.1329
ものである	-10.1333
動詞	-10.1336
手が	-10.1336
つぎ	-10.1338
タバコ	-10.1341
落ちる	-10.1342
してある	-10.1343
書いた	-10.1344
見込み	-10.1348
交通	-10.1349
▁敵	-10.1351
鋭い	-10.1352
廃	-10.1354
提案	-10.1354
ないで	-10.1356
▁光	-10.1357
頃	-10.136
▁丸	-10.136
薬品	-10.1361
に応じて	-10.1363
まって	-10.1363
二つ	-10.1365
役人	-10.1369
以上の	-10.137
人たち	-10.1372
はよく	-10.1375
組み	-10.1381
▁ラジオ	-10.1383
さき	-10.1384
の本	-10.1386
広	-10.139
機会	-10.1416
えて	-10.1419
一本	-10.1425
ぼう	-10.1427
譲	-10.1428
非	-10.1429
具合	-10.1433
の方	-10.1436
で彼は	-10.1436
いう	-10.1439
屈	-10.1441
事が	-10.1442
仲	-10.1444
身の	-10.1448
▁この本は	-10.1449
△	-10.1455
医者	-10.1457
さす	-10.146
気候	-10.146
奥	-10.1465
差別	-10.1467
以下	-10.1468
軽	-10.147
19	-10.1472
▁胃	-10.1472
使用	-10.1479
増	-10.1479
しり	-10.1481
洗い	-10.1486
直す	-10.1489
▁結婚	-10.1489
のついた	-10.1491
いっぱい	-10.1495
流行	-10.1498
▁I	-10.15
の形	-10.1501
▁あ	-10.1501
取った	-10.1504
つめ	-10.1504
突然	-10.1518
がその	-10.152
を開く	-10.1522
進んで	-10.1522
やり方	-10.1525
一定	-10.1531
あいさつ	-10.1533
踏み	-10.1534
にくい	-10.1539
わかった	-10.154
▁古い	-10.1541
▁骨	-10.1542
導	-10.1543
取って	-10.1544
順に	-10.1545
起こった	-10.1546
いす	-10.1547
を書く	-10.1548
だろうか	-10.1549
ダンス	-10.1555
みそ	-10.156
者に	-10.1565
スポーツ	-10.157
栽培	-10.1577
ちゃんと	-10.1578
痛み	-10.1583
みる	-10.1588
揚	-10.1589
盛	-10.1593
隠し	-10.1595
想	-10.1596
つまらない	-10.1596
君主	-10.1597
▁現代	-10.1598
もうけ	-10.16
回復	-10.16
に電話をかける	-10.1602
容	-10.1605
参	-10.1607
拍子	-10.161
冊	-10.1613
▁選挙	-10.1614
刈り	-10.1619
舎	-10.1623
細胞	-10.1624
訓	-10.1624
かえって	-10.1633
弟子	-10.1633
出て	-10.1634
頼み	-10.1634
ひとり	-10.1636
▁パ	-10.1636
いなか	-10.1638
帰	-10.164
更に	-10.1643
君に	-10.1645
困難	-10.1652
注	-10.1652
▁一定の	-10.1655
洋	-10.1659
相手を	-10.166
と共に	-10.1662
らなかった	-10.1663
▁政	-10.1664
▁米	-10.1666
だって	-10.167
次第に	-10.1677
興	-10.1678
を保つ	-10.1679
議会	-10.1695
記憶	-10.1696
休暇	-10.1701
そうじゃない	-10.1701
英	-10.1703
漁	-10.1705
梅	-10.1708
▁異	-10.1709
にあって	-10.171
細く	-10.1711
血液	-10.1711
▁大学	-10.1713
汗	-10.1714
▁ちょっと電話	-10.1717
挙	-10.1718
伝え	-10.1719
出発	-10.1721
短	-10.1721
▁唐	-10.1721
未	-10.1722
進歩	-10.1725
▁世間	-10.173
▁人が	-10.173
クラス	-10.1734
マン	-10.1735
▁低	-10.1736
興奮	-10.1738
▁雲	-10.174
奇	-10.174
承知	-10.1747
そり	-10.1748
下げ	-10.1751
第	-10.1755
赤い	-10.1757
ズボン	-10.1757
都合	-10.176
大形の	-10.1761
光景	-10.1763
胴	-10.1764
来て	-10.1768
変わり	-10.1768
かく	-10.1771
▁石油	-10.1772
▁交通	-10.1772
道徳	-10.1773
いつ	-10.1778
遅れ	-10.1779
▁まったく	-10.1784
走り	-10.179
館	-10.179
欄	-10.1791
▁言い	-10.1791
聴	-10.1794
勘	-10.1796
秒	-10.1798
栄養	-10.1805
賃	-10.181
からの	-10.1812
感謝	-10.1813
過ぎ	-10.1814
注文	-10.1816
の前	-10.182
ポ	-10.1831
けんか	-10.1832
文化	-10.1841
▁彼らはその	-10.1843
行動する	-10.1849
▁物の	-10.1853
親切	-10.1863
なんか	-10.1873
プ	-10.1873
▁千	-10.1875
種類	-10.1876
に従って	-10.1877
しき	-10.1878
かど	-10.1878
歌手	-10.1885
そうよ	-10.1892
他人に	-10.1895
12	-10.1895
にすること	-10.1895
になっていた	-10.1902
からだ	-10.1908
の世界	-10.1909
武士	-10.1916
魔	-10.192
っこ	-10.1921
成績	-10.1922
僕	-10.1923
まね	-10.1928
兵士	-10.1928
競走	-10.1929
化粧	-10.1936
錠	-10.1936
いき	-10.1938
当然	-10.1939
メッセを送信	-10.1939
肺	-10.1939
医	-10.1943
越	-10.1945
胃	-10.1954
を抜く	-10.1955
開いた	-10.1957
真理	-10.1957
声で	-10.196
暮らし	-10.1964
本当に	-10.1965
婚	-10.1966
郷	-10.1968
人口	-10.1973
緊張	-10.1974
輸送	-10.1975
じゃないか	-10.1975
シャツ	-10.1975
苦しみ	-10.1977
国の	-10.1979
▁鉄道	-10.198
れない	-10.1982
給料	-10.1983
車を	-10.1988
の一部	-10.1988
に用いる	-10.1989
逃げ	-10.1997
付く	-10.1997
したい	-10.1999
家庭	-10.1999
▁東	-10.2002
まし	-10.2005
話を	-10.2009
の声	-10.2015
意気	-10.2017
▁オ	-10.2017
▁氷	-10.2018
形で	-10.202
意にも	-10.2024
▁特	-10.2025
補	-10.2028
動く	-10.2031
おけ	-10.2032
であろう	-10.2033
満	-10.2037
てください	-10.2042
包み	-10.2042
演奏	-10.2044
練習	-10.2046
▁彼女はその	-10.2046
余り	-10.2047
方の	-10.2052
▁乳	-10.2053
一般	-10.2059
正直	-10.206
肥	-10.2061
戒	-10.2064
▁左	-10.2072
先生	-10.2076
▁国家	-10.2078
疑い	-10.2078
ール	-10.208
持つ	-10.2085
攻め	-10.2089
切った	-10.2093
妙	-10.2098
▁夏	-10.2098
ようになる	-10.2098
書く	-10.2102
の自由	-10.2111
報道	-10.2112
交際	-10.2116
頂	-10.2118
激	-10.2118
助け	-10.2122
くじ	-10.2123
勉強する	-10.2129
興行	-10.2132
継ぎ	-10.2136
愛情	-10.2137
雅	-10.2144
富	-10.2145
ようと	-10.2145
ビール	-10.2147
病院	-10.2147
繰り	-10.2149
すべての	-10.215
嫌	-10.2152
楽しみ	-10.2152
圓	-10.2153
寮	-10.2153
パーセント	-10.2153
彫刻	-10.2154
競争	-10.2156
集合	-10.2156
しないで	-10.2163
▁庭	-10.2164
下に	-10.2164
いろいろ	-10.2172
▁放	-10.2177
すぎて	-10.2178
▁聖	-10.2181
続けて	-10.2182
▁追	-10.2182
気体	-10.2186
取ること	-10.2196
▁粗	-10.22
持っている	-10.2202
鳴る	-10.2204
▁単	-10.2207
婦	-10.2208
細かい	-10.2214
なしに	-10.2217
十分に	-10.2219
練	-10.2223
回す	-10.2224
鋼	-10.2228
▁母	-10.2231
ほか	-10.2232
o	-10.224
▁鳥	-10.2242
の状態	-10.2249
どろ	-10.225
返	-10.2254
の花	-10.2256
簡単に	-10.2258
なくて	-10.2261
外に	-10.2265
他に	-10.2267
最後	-10.2268
あか	-10.2272
ものだった	-10.2274
を買う	-10.2276
方面	-10.2276
刊	-10.2277
▁定	-10.228
亡	-10.2281
地に	-10.2282
▁美	-10.2284
そうです	-10.2285
▁精神	-10.2286
ならぬ	-10.2287
修行	-10.2294
夫婦	-10.2297
教会	-10.2298
穂	-10.23
してしまった	-10.2303
なお	-10.2307
驚いた	-10.2307
エンジン	-10.2308
を持って	-10.2309
バー	-10.2309
は私の	-10.2312
制限	-10.2314
事態	-10.2318
だめだ	-10.2319
雷	-10.2319
天井	-10.232
してくれた	-10.2321
霜	-10.2321
ふるまう	-10.2326
ボ	-10.2326
好み	-10.2326
阿	-10.2326
慮	-10.2329
否	-10.2329
庁	-10.233
▁万	-10.233
役者	-10.2331
そのように	-10.2332
甘い	-10.2333
附	-10.2335
ひそかに	-10.2335
手当	-10.2339
がけ	-10.234
英雄	-10.234
詩歌	-10.2341
ピアノ	-10.2344
知らず	-10.2345
前後	-10.2345
あらゆる	-10.2346
象	-10.235
をとり	-10.2354
生命	-10.2355
勤務	-10.2356
▁人間の	-10.2358
場面	-10.2358
てある	-10.2358
道理	-10.2362
▁薬	-10.2362
奏	-10.2365
さび	-10.2365
を引き	-10.2366
ところで	-10.2366
りして	-10.2371
社長	-10.2373
読む	-10.2374
▁あなたは	-10.2377
f	-10.2378
建て	-10.2379
火事	-10.2383
生活をする	-10.2383
たとえ	-10.2385
番組	-10.2387
▁立ち	-10.2388
電流	-10.2392
▁フ	-10.2408
すじ	-10.2412
準備	-10.2414
▁弱	-10.2421
見ること	-10.2425
ほかの	-10.2427
の色	-10.2428
いたします	-10.2429
▁日本の	-10.2431
多数	-10.2432
するさま	-10.2438
体に	-10.2439
なあ	-10.2452
しやすい	-10.2458
別れ	-10.2459
ものと	-10.2462
狩り	-10.2466
▁あの男は	-10.2468
同情	-10.2468
しめ	-10.247
だが	-10.247
数量	-10.247
を入れた	-10.2471
信用	-10.2472
頭に	-10.2473
くり	-10.2475
▁泥	-10.2477
職人	-10.2481
すぎ	-10.2483
ぜ	-10.2484
覧	-10.2486
将	-10.2492
軒	-10.2494
製造	-10.2495
の強い	-10.2495
姉	-10.2496
れている	-10.2498
比	-10.2499
行くこと	-10.2501
▁よい	-10.2501
▁王	-10.2502
坂	-10.2502
主として	-10.2503
帽	-10.2506
姓	-10.2509
青年	-10.2515
ずいぶん	-10.2516
臨	-10.2518
ゲーム	-10.252
以来	-10.2521
訓練	-10.2521
ボタン	-10.2521
m	-10.2525
途	-10.253
おし	-10.2532
を払う	-10.2541
物が	-10.2543
話をする	-10.2543
に従う	-10.2558
▁僕の	-10.2559
至	-10.2559
日の	-10.256
▁世界	-10.2561
で行く	-10.2561
首を	-10.2562
らん	-10.2563
あげる	-10.2567
勤	-10.2569
じっと	-10.2573
▁切り	-10.2573
▁きわめて	-10.2582
が早い	-10.2583
逃げる	-10.2585
▁はい	-10.2601
▁改	-10.2603
くさ	-10.2604
儀式	-10.2607
世話	-10.261
の原料	-10.2612
▁きょう	-10.2615
口に	-10.2618
▁当	-10.2626
立てた	-10.2629
しろ	-10.2632
▁何できる	-10.2632
どこ	-10.2634
去	-10.2636
終わり	-10.2639
訴	-10.264
▁密	-10.264
はあまり	-10.2641
▁げんきかいの予約状況	-10.2643
受ける	-10.2644
得た	-10.2645
成分	-10.2648
▁夢	-10.2649
確	-10.265
心の	-10.2652
舞	-10.2652
を取って	-10.2652
聞いて	-10.2655
います	-10.2656
標	-10.2658
をはかる	-10.2661
▁遠	-10.2664
髪の毛	-10.2666
なす	-10.2667
興味	-10.267
少女	-10.2671
迷	-10.2671
の手紙	-10.2674
構え	-10.2675
時代に	-10.2677
航	-10.2683
ものか	-10.2683
盗	-10.2683
せい	-10.2692
重要	-10.2695
翻訳	-10.2696
毎日	-10.2698
老人	-10.2699
厚い	-10.2703
本を	-10.2705
労	-10.2705
詠	-10.2709
ケーキ	-10.2709
元素記号	-10.271
踊り	-10.2712
貧乏	-10.2712
500	-10.2712
天候	-10.2714
60	-10.2715
しておく	-10.2716
秘	-10.2718
風景	-10.2719
浮	-10.2722
を述べる	-10.2725
染め	-10.2728
将軍	-10.2729
勢いよく	-10.273
洗	-10.2735
倒	-10.2739
ワ	-10.2739
はなかった	-10.2741
物の	-10.2742
条約	-10.2746
の単位	-10.2747
落ちた	-10.2747
▁コーヒー	-10.2747
住宅	-10.2748
▁一度	-10.2751
あし	-10.2752
2、3	-10.2753
であるさま	-10.2755
▁在	-10.2756
日本の	-10.2757
未来	-10.2758
たま	-10.2763
大変	-10.2763
ほお	-10.2765
ようになった	-10.2768
与	-10.277
標準	-10.2773
▁少し	-10.2775
のないこと	-10.2777
敷	-10.2785
▁現	-10.2793
寝る	-10.2795
くらい	-10.2795
灯火	-10.2795
かせる	-10.2796
一度	-10.2805
そんなに	-10.2805
布地	-10.2806
の葉	-10.2812
あら	-10.2816
個人	-10.2818
人生	-10.2819
整理	-10.282
もとの	-10.2823
頭を	-10.2823
頭の	-10.2828
体が	-10.283
傾	-10.2833
▁綿	-10.2833
がき	-10.2834
▁角	-10.2835
▁機械	-10.2836
▁彼女	-10.2839
残り	-10.2847
▁過	-10.2852
▁首	-10.2853
時間を	-10.2864
▁私には	-10.2865
▁サ	-10.2865
全然	-10.2866
すみ	-10.2868
の選手	-10.2876
襲	-10.288
流し	-10.2881
▁陰	-10.289
傘	-10.2892
うん	-10.2893
塊	-10.2899
の手	-10.2901
坐	-10.2901
期限	-10.2903
多い	-10.2903
公園	-10.2903
▁やめ	-10.2905
40	-10.2906
微笑	-10.2906
対象	-10.2911
▁いつも	-10.2915
縦	-10.2918
▁ロンドン	-10.2919
▁昔の	-10.2919
の人々	-10.292
つつ	-10.2921
近い	-10.2922
画家	-10.2928
幹	-10.2928
▁北	-10.2929
留め	-10.293
するために	-10.293
までの	-10.2931
ものではない	-10.2932
予想	-10.2932
まるで	-10.2933
特定の	-10.2937
▁焼き	-10.2939
想像	-10.2943
引く	-10.2945
ゴ	-10.2947
のことで	-10.295
返し	-10.2953
しましょう	-10.2954
貝	-10.2954
若者	-10.2959
▁肩	-10.2962
が起こる	-10.2964
r	-10.2965
ゴム	-10.2966
辞書	-10.2967
爆発	-10.297
を打ち	-10.2972
損害	-10.2974
▁学生	-10.2977
いかにも	-10.2983
実行	-10.2984
▁キャンセル	-10.2985
彼らは	-10.2985
▁西	-10.2987
こわ	-10.2987
中央	-10.2989
麻	-10.2992
いろ	-10.2996
▁すぐれた	-10.2998
くぎ	-10.2999
合った	-10.3005
文法	-10.3013
呼ぶ	-10.3016
倒れ	-10.302
はまったく	-10.3023
青い	-10.3024
おじ	-10.3029
いろいろの	-10.3033
休	-10.3033
はじめ	-10.3037
男子	-10.3039
▁ひざ	-10.3045
贈り物	-10.3048
▁荒	-10.3054
▁遺	-10.3056
の皮	-10.3062
しようと	-10.3068
職務	-10.3073
流れる	-10.3078
多年生植物	-10.3078
艦	-10.3083
形に	-10.3088
晴れ	-10.3088
の先	-10.309
を見た	-10.3091
たん	-10.3094
円形	-10.3095
銘	-10.3095
蓋	-10.3095
▁劇	-10.3096
会合	-10.3096
泳ぎ	-10.3098
決意	-10.31
祝い	-10.3101
損失	-10.3103
をかけ	-10.3111
インド	-10.3111
組合	-10.3115
▁ガス	-10.3123
急いで	-10.3125
実力	-10.3127
風の	-10.313
が違う	-10.3131
気質	-10.3131
をかけて	-10.3132
監督	-10.3134
y	-10.3136
▁廃	-10.3136
▁東京	-10.3141
クラブ	-10.3142
▁脱	-10.3157
かれ	-10.3164
大きさ	-10.3165
保険	-10.3167
終	-10.3171
丘	-10.3172
珍しい	-10.3176
遠く	-10.3177
切符	-10.3178
▁罪	-10.3178
に似て	-10.3179
いっしょに	-10.318
弓	-10.318
宇宙	-10.3181
ヨーロッパ	-10.3182
ラジオ	-10.3186
中心	-10.3186
▁苦	-10.3189
を変える	-10.3191
行かない	-10.3192
風呂	-10.3193
赤ん坊	-10.3198
要素	-10.3201
熟	-10.3204
乾	-10.3205
持って	-10.3207
b	-10.3208
らか	-10.3208
▁これで	-10.3208
▁退	-10.3209
照	-10.3211
ギ	-10.3211
▁私たちは	-10.3213
▁普通	-10.3217
▁共	-10.322
追	-10.3222
ところだった	-10.3223
負	-10.3225
唱	-10.3226
たて	-10.3226
文明	-10.3233
固	-10.3234
ペン	-10.3234
上がった	-10.3236
現実	-10.324
までに	-10.3244
府	-10.3245
などから	-10.3248
つら	-10.3262
帆	-10.3267
干し	-10.3267
治療	-10.327
咲き	-10.3276
▁代	-10.3276
いますか	-10.3277
▁病	-10.3277
の上で	-10.3282
っぽい	-10.3283
しかった	-10.3287
軽い	-10.3287
切って	-10.3287
井	-10.3288
始める	-10.3289
護	-10.3291
しるし	-10.3292
ばら	-10.3293
のど	-10.3294
安全	-10.3295
に乗って	-10.3296
共	-10.3296
クリーム	-10.3297
瓦	-10.3297
に富む	-10.3298
現在	-10.3298
児童	-10.3298
印象	-10.3298
少々	-10.3299
革命	-10.3299
酸素	-10.3299
名詞	-10.3299
カード	-10.33
多少	-10.33
強盗	-10.3301
運ぶ	-10.3302
通知	-10.3303
権力	-10.3307
眼鏡	-10.331
▁余	-10.3312
ですね	-10.3315
置く	-10.3326
一層	-10.3328
はずれ	-10.3333
錣	-10.3342
ゆく	-10.3343
寸	-10.3348
証明	-10.335
薬用	-10.3352
皮膚	-10.3355
頭が	-10.3355
開き	-10.336
農	-10.3361
緑色	-10.3362
幸	-10.3365
そのもの	-10.3367
ゲ	-10.3368
ちょう	-10.3372
面目	-10.3373
はし	-10.3373
をつけること	-10.3374
医師	-10.3382
種種の	-10.3384
等を	-10.3384
警察	-10.3384
律	-10.3386
▁聞き	-10.3386
経営	-10.3388
花を	-10.3391
遺	-10.3394
ベッド	-10.3395
記事	-10.3396
枕	-10.3396
燃料	-10.3399
編集	-10.3402
向こう	-10.3403
生涯	-10.3411
に出かける	-10.3412
キャンセル	-10.3414
女の子	-10.3414
通し	-10.3414
侮辱	-10.3415
足を	-10.3416
身体	-10.3421
腐	-10.3423
事は	-10.3427
物に	-10.343
の中を	-10.3434
筋肉	-10.3435
をとって	-10.3436
金持ち	-10.3439
威	-10.3441
あれ	-10.3444
えり	-10.3447
英国	-10.3451
電報	-10.3452
違います	-10.3455
▁道路	-10.346
大臣	-10.3464
▁四	-10.3466
▁軍隊	-10.3468
の神	-10.3469
▁駅	-10.3473
▁しん	-10.3474
生まれた	-10.3477
覆い	-10.3478
歴	-10.3494
▁端	-10.3497
よくない	-10.3497
ディ	-10.3501
▁右	-10.3501
すなわち	-10.3502
アルコール	-10.3502
レンズ	-10.3502
▁江戸時代	-10.3502
友だち	-10.3502
かる	-10.3505
主人	-10.3506
代わり	-10.3512
から成る	-10.3512
でいる	-10.3514
再び	-10.3514
わない	-10.3517
人と	-10.3518
ひな	-10.3519
▁西洋	-10.3519
暑さ	-10.3521
りする	-10.3523
あわ	-10.3524
▁通	-10.3525
きまり	-10.3527
我々は	-10.3529
▁若	-10.3529
除	-10.353
▁レ	-10.354
▁素	-10.3542
とおり	-10.3543
ついで	-10.3547
のり	-10.355
大工	-10.3551
結晶	-10.356
足が	-10.3571
不幸	-10.3575
述べる	-10.3585
空間	-10.3591
ちょうど	-10.3597
尊	-10.3597
▁メッセージ	-10.3597
正月	-10.3598
▁激しい	-10.36
方が	-10.3601
に置く	-10.3601
における	-10.3601
生き	-10.3601
のもとに	-10.3602
劇場	-10.3602
相場	-10.3605
蛇	-10.3605
何を	-10.3605
▁ど	-10.3606
▁指	-10.3606
力を	-10.3608
合わせて	-10.361
▁政治	-10.3611
ビル	-10.3615
▁もし	-10.3617
ふく	-10.3617
原稿	-10.3618
庭園	-10.3619
カメラ	-10.3622
はいつも	-10.3623
にかかる	-10.3623
▁共同	-10.3626
住んでいる	-10.3626
兄弟	-10.3627
脂	-10.3627
▁エ	-10.3629
げた	-10.3631
懐	-10.3634
きわめて	-10.3634
なん	-10.3639
触	-10.3639
粗	-10.364
幾ら	-10.3646
どこか	-10.3646
▁アメリカ	-10.365
果	-10.3651
所有	-10.3652
泉	-10.3653
継	-10.3654
加	-10.3656
求	-10.3656
ロンドン	-10.3657
々に	-10.3658
住民	-10.3664
カー	-10.3667
文体	-10.3667
保	-10.3668
測	-10.3668
▁漢字の	-10.3669
あらし	-10.367
▁面	-10.3681
っていない	-10.3685
を作ること	-10.3685
謀	-10.3688
祖	-10.3689
たく	-10.3692
壮	-10.3696
むだ	-10.3698
了	-10.3699
上で	-10.3701
掌	-10.3701
謝	-10.3701
分析	-10.3706
椅子	-10.371
テスト	-10.3711
元素	-10.3711
刑罰	-10.3711
協定	-10.3711
▁精	-10.3718
を解く	-10.3718
▁国民	-10.3721
はすべて	-10.3721
一体	-10.3723
内閣	-10.3726
最初の	-10.3729
買	-10.3736
暑	-10.3741
飛行機	-10.3745
発展	-10.3747
▁町	-10.3747
だね	-10.3748
積み	-10.3749
殺人	-10.375
てくれた	-10.3753
着物	-10.3754
いくら	-10.3758
▁荷	-10.3763
▁you	-10.3765
へい	-10.377
▁末	-10.3774
擦	-10.3775
季節	-10.378
ジョーク	-10.3782
燃え	-10.3782
不満	-10.3783
の生活	-10.3785
はえ	-10.3785
のお	-10.3786
眠り	-10.3787
群	-10.3789
恵	-10.3793
呼吸	-10.3793
存	-10.3795
人間の	-10.3797
成功する	-10.3797
▁父	-10.3799
信頼	-10.3804
の際	-10.3805
の姿	-10.3807
隠れ	-10.3809
そのような	-10.3811
状に	-10.3813
やみ	-10.3815
情勢	-10.3816
棚	-10.3816
分類	-10.382
の力	-10.3821
ながめ	-10.3826
欠	-10.3826
心から	-10.3828
倒す	-10.3828
ですよ	-10.3829
漬け	-10.3834
分野	-10.3834
進行	-10.3835
すそ	-10.3837
濃	-10.384
拝	-10.3845
安い	-10.3854
告	-10.3854
分子	-10.3854
白色	-10.3855
琴	-10.3856
捨てる	-10.3859
名誉	-10.386
演劇	-10.3864
しばらく	-10.3866
鍋	-10.3869
本当の	-10.387
決心	-10.3873
▁洋	-10.3873
専	-10.388
藩	-10.388
駆け	-10.3881
佑	-10.3882
しきりに	-10.3888
を受け	-10.3889
最	-10.389
▁陸	-10.389
判決	-10.389
停止	-10.3893
地球	-10.3894
紀	-10.3902
有名	-10.3906
名を	-10.3908
烈	-10.3913
振	-10.3916
事項	-10.3918
請求	-10.392
いなかった	-10.392
鉛	-10.392
丈	-10.392
役に立たない	-10.392
舛	-10.3921
蝋	-10.3921
一家	-10.3922
盛んな	-10.3922
肝	-10.3922
どんどん	-10.3923
ほんの	-10.3923
堅く	-10.3926
賃金	-10.3927
勤め	-10.3928
▁バ	-10.3931
少しずつ	-10.3931
言い訳	-10.3932
半分	-10.3933
▁店	-10.3934
簡単な	-10.3934
自信	-10.3935
部屋に	-10.3935
ショートメッセージ	-10.3936
半ば	-10.3939
▁それで	-10.3941
っか	-10.3942
ざっと	-10.3944
かけて	-10.3944
最高	-10.395
張る	-10.3952
鉢	-10.3953
てくる	-10.3954
水素	-10.3954
身に	-10.3954
催	-10.3956
▁すぐ	-10.3959
それで	-10.396
自慢	-10.3961
知らない	-10.3962
が多く	-10.3964
▁門	-10.3966
難しい	-10.3966
▁人生の	-10.3967
議員	-10.3974
の高い	-10.3976
跳び	-10.3978
事を言う	-10.3991
暦	-10.3995
▁石炭	-10.3999
を知らない	-10.3999
▁マ	-10.4002
たつ	-10.4005
じゃ	-10.401
失敗した	-10.4013
を避ける	-10.4016
▁ハ	-10.4016
を破る	-10.4018
▁急に	-10.4023
を置く	-10.4031
早い	-10.4032
かえ	-10.4032
ところだ	-10.4033
を食う	-10.4035
▁戦	-10.4037
第一	-10.4038
大名	-10.404
歩き	-10.404
▁霊	-10.4043
だい	-10.4045
丸く	-10.4047
植	-10.405
似	-10.4051
ありません	-10.4051
の大きさ	-10.4052
キー	-10.4053
衆	-10.4057
用具	-10.4059
被害	-10.406
▁甘	-10.4066
わす	-10.4066
忌	-10.4066
を求めて	-10.407
時間の	-10.4074
賊	-10.4075
つぼ	-10.4077
▁皆	-10.4077
得点	-10.4078
何でも	-10.4079
示す	-10.408
ここ	-10.4081
▁a	-10.4084
県	-10.4088
育	-10.4088
なわ	-10.409
方に	-10.409
柳	-10.4091
せずに	-10.4091
借	-10.4092
創	-10.4097
官庁	-10.4098
相撲	-10.4099
躍	-10.41
ベ	-10.4101
普通は	-10.4101
稲	-10.4103
更	-10.4103
弾丸	-10.4104
平均	-10.4108
開く	-10.411
タン	-10.4112
言えば	-10.4114
に出	-10.4115
がついている	-10.4117
on	-10.4119
i	-10.412
目が	-10.4122
ナイフ	-10.4123
伴	-10.4125
垣	-10.4128
えた	-10.4132
少ない	-10.4133
羅	-10.4134
根拠	-10.4135
▁虫	-10.4138
渡る	-10.4139
桃	-10.4139
糞	-10.414
掃除	-10.414
200	-10.4141
協力	-10.4141
情況	-10.4141
友情	-10.4143
やぶ	-10.4143
▁泣き	-10.4145
おい	-10.4145
武器	-10.4145
特	-10.4146
▁合	-10.4147
ことができなかった	-10.4147
学習	-10.4148
役に立つ	-10.4153
とげ	-10.4153
かず	-10.4154
葬	-10.4157
にならない	-10.4173
浅い	-10.4178
統一	-10.418
新しく	-10.418
区分	-10.418
顔色	-10.4182
うす	-10.4185
c	-10.4187
やや	-10.4187
▁あまり	-10.4188
▁寒	-10.4191
信じ	-10.4194
▁諸	-10.4202
必要な	-10.4206
▁大統領	-10.4207
人民	-10.4213
ここに	-10.4216
▁突然	-10.4218
を掛ける	-10.422
はね	-10.4225
ショー	-10.4237
つもり	-10.4237
移	-10.4238
ましい	-10.424
連れ	-10.4242
者の	-10.4243
足で	-10.4246
交換	-10.4248
食う	-10.4256
低く	-10.4259
織	-10.4261
行われる	-10.4266
ますます	-10.4268
▁板	-10.4269
くこと	-10.427
▁壁	-10.4273
泊	-10.4276
▁いかにも	-10.4279
天皇	-10.4281
▁痛	-10.4284
得る	-10.4292
ワイン	-10.4292
ことはできない	-10.4297
ゆっくり	-10.43
の男	-10.4303
だれも	-10.4306
がたい	-10.4306
▁英国	-10.4311
定めた	-10.4314
猟	-10.4314
みた	-10.4316
▁暗	-10.432
話が	-10.432
聴衆	-10.4321
赤く	-10.4322
つぶ	-10.433
あげ	-10.4331
▁糸	-10.4332
数字	-10.4334
▁流行	-10.4334
ひじ	-10.4335
航海	-10.4339
禁	-10.434
双	-10.4343
入った	-10.4345
ねじ	-10.4349
に陥る	-10.4351
▁野球で	-10.4352
に入って	-10.4361
おもちゃ	-10.4361
▁to	-10.4362
▁破	-10.4362
塵	-10.4362
	-10.4362
玄関	-10.4362
神社	-10.4363
推測	-10.4363
待遇	-10.4363
欲望	-10.4365
機能	-10.4365
解説	-10.4366
▁動物	-10.4367
顔に	-10.4368
両親	-10.437
静	-10.437
電波	-10.4372
合図	-10.4374
走った	-10.4375
集まり	-10.4376
彼ら	-10.4377
あご	-10.4379
発言	-10.4379
帰る	-10.4379
きめ	-10.4379
が起こった	-10.438
おう	-10.4381
陸	-10.4383
にあった	-10.4383
の中心	-10.4384
▁絵	-10.4387
▁経済	-10.4387
てん	-10.4391
去る	-10.4391
分量	-10.4391
re	-10.4391
家屋	-10.4399
▁回	-10.4399
違った	-10.4403
尊敬	-10.4404
完全に	-10.4405
止	-10.442
できなかった	-10.4421
聖	-10.4423
わず	-10.4424
▁船が	-10.4425
人気	-10.4425
地図	-10.4425
内の	-10.4429
西洋	-10.443
ぬか	-10.4435
無用	-10.444
したりする	-10.4442
コース	-10.4449
洋服	-10.4451
あの人	-10.4453
恨み	-10.4468
沈	-10.4469
の所	-10.4474
▁竹	-10.4481
こん	-10.4484
▁屋根	-10.4486
▁教育	-10.4497
われた	-10.4498
を調べる	-10.4499
まれる	-10.45
全員	-10.4501
違反	-10.4505
真っ	-10.4507
にお	-10.4512
最後の	-10.4513
世の	-10.4513
目的で	-10.4514
かま	-10.4515
時は	-10.4519
ロー	-10.4519
自然に	-10.4522
状況	-10.4525
あるもの	-10.4529
面積	-10.4534
にいる	-10.454
発表	-10.4542
▁家庭	-10.4551
きれいに	-10.4556
しわ	-10.4557
どの	-10.4561
▁円	-10.4563
掛かり	-10.4566
言う語	-10.4567
▁A	-10.4568
ほこり	-10.4573
負担	-10.4575
申し	-10.4577
糖	-10.458
畳	-10.4581
勅	-10.4581
承	-10.4581
男の子	-10.4582
審	-10.4583
随	-10.4584
外交	-10.4584
好意	-10.4587
髄	-10.4587
秩序	-10.4588
▁急いで	-10.4588
恐ろしい	-10.4589
餌	-10.459
看護婦	-10.459
闘争	-10.459
」(↓	-10.4591
衣装	-10.4591
概念	-10.4593
反射	-10.4593
鶏	-10.4593
朱	-10.4594
弁護士	-10.4594
竜	-10.4594
りすること	-10.4595
療法	-10.4596
の種	-10.4596
枯れ	-10.4597
漁業	-10.4597
の変化	-10.4597
さや	-10.4598
様式	-10.4598
牛乳	-10.4598
くび	-10.46
待つ	-10.4601
僕は	-10.4602
かばん	-10.4602
課程	-10.4603
世の中	-10.4606
石炭	-10.4611
▁間	-10.4612
インク	-10.4613
に暮らす	-10.4613
こんで	-10.4614
政党	-10.4617
▁英語	-10.462
ところに	-10.4622
ったもの	-10.4622
初夏	-10.4623
いこと	-10.4623
記者	-10.4628
異なる	-10.4629
目つき	-10.4634
▁振り	-10.4636
原料	-10.464
困る	-10.4642
を付ける	-10.4643
論理	-10.4644
▁太陽	-10.4645
つまり	-10.4645
せよ	-10.4646
決め	-10.4648
おいて	-10.4652
だめ	-10.4658
の念	-10.4661
▁雄	-10.4662
特別	-10.4663
仕立て	-10.4667
明日	-10.4668
浸	-10.4669
完成	-10.4676
▁警	-10.4677
▁矢	-10.468
をする人	-10.4681
太い	-10.4683
水面	-10.4683
▁旅行	-10.4686
が一番	-10.4687
ひら	-10.4687
意見を	-10.4695
修理	-10.4696
通じ	-10.4696
▁宇宙	-10.4706
締める	-10.471
霧	-10.4714
やっと	-10.4714
まれた	-10.4723
眠る	-10.4725
▁残	-10.4727
▁細	-10.4736
扱う	-10.4737
態度で	-10.4738
きれ	-10.4738
定め	-10.4739
にあたる	-10.4744
項	-10.4747
立てて	-10.4749
もつ	-10.4749
ショートメッセージを	-10.4751
▁彼は私	-10.4755
預	-10.4758
直し	-10.4762
歩くこと	-10.4763
▁尻	-10.4764
▁猫	-10.4768
気の	-10.4774
てる	-10.4776
嘆	-10.4778
だれ	-10.4783
処	-10.4783
改	-10.4784
いえ	-10.4789
束	-10.479
は今	-10.4793
隣	-10.4793
為	-10.4794
京	-10.4797
▁今は	-10.4797
欠席	-10.48
諸国	-10.4801
さず	-10.4802
則	-10.4803
を通して	-10.4804
往	-10.4804
併	-10.4805
仕事が	-10.4805
淡	-10.4805
暇	-10.4806
さい	-10.4811
やら	-10.4815
女の	-10.4815
姿勢	-10.4818
関心	-10.4821
残っている	-10.4821
笋	-10.4822
大統領	-10.4822
爾	-10.4822
唇	-10.4822
諒	-10.4822
くちびる	-10.4822
官吏	-10.4824
観念	-10.4824
改革	-10.4824
仕掛け	-10.4824
どうも	-10.4824
貯金	-10.4825
操作	-10.4826
独	-10.4826
驚く	-10.4827
別に	-10.4829
▁犬は	-10.4836
ほうがよい	-10.4837
見解	-10.4837
基準	-10.4838
にわたって	-10.4841
▁潮	-10.4842
批判	-10.4844
着る	-10.4846
証人	-10.4847
中毒	-10.4847
食糧	-10.4854
▁飛行	-10.4856
裸	-10.4857
さく	-10.4858
の半分	-10.4858
▁命	-10.486
ことはない	-10.4865
形勢	-10.4871
まつ	-10.4872
同意	-10.4875
こちら	-10.4877
読者	-10.488
▁黙	-10.4884
石油	-10.4885
まれ	-10.4887
構成	-10.4887
歓迎	-10.4888
警官	-10.4889
国際	-10.4891
漏れ	-10.4892
設けた	-10.4894
▁波	-10.4894
▁浮き	-10.4899
死んで	-10.4899
するように	-10.49
はら	-10.4901
よかった	-10.4904
▁列車は	-10.4909
種子	-10.491
つの	-10.4912
ぼく	-10.4919
両者	-10.4923
を入れ	-10.4924
無し	-10.4926
装飾	-10.4935
▁職業	-10.4936
以前	-10.4936
▁だれも	-10.4939
▁結	-10.494
▁黄	-10.4941
▁安	-10.4942
▁何ができる	-10.4948
でメッセ送信	-10.4948
私には	-10.4949
▁心配	-10.4954
信する	-10.4956
▁毒	-10.4956
▁床	-10.4961
▁君に	-10.4961
事実を	-10.4963
そで	-10.4963
〇	-10.4973
ホーム	-10.4975
丈夫	-10.4976
物理	-10.4978
通す	-10.4979
屋敷	-10.4981
▁乱	-10.4982
置いて	-10.4993
▁メ	-10.4997
厚く	-10.5002
鉱	-10.5005
手術	-10.5005
その他	-10.501
圧力	-10.501
野球	-10.501
気性	-10.501
▁将来	-10.5011
くだ	-10.5015
成長	-10.5016
▁船の	-10.5016
▁減	-10.502
用心	-10.5022
をつくる	-10.5022
政権	-10.5023
の間で	-10.5026
は全く	-10.5027
▁ただ	-10.5033
▁落	-10.5033
充分	-10.5035
を結ぶ	-10.5037
▁is	-10.5038
▁せい	-10.5038
そっと	-10.5038
らないこと	-10.504
▁パン	-10.5041
こい	-10.5043
男性	-10.5043
築	-10.5044
すき	-10.5045
を落とす	-10.5046
卒	-10.5047
続ける	-10.5048
つけること	-10.5048
敵を	-10.5049
鈴	-10.5052
迷惑	-10.5055
に当たって	-10.5057
短く	-10.5059
禄	-10.506
棟	-10.506
レストラン	-10.506
フィルム	-10.506
スカート	-10.506
承認	-10.506
▁漢字の偏	-10.5061
災害	-10.5061
ノー	-10.5062
観察	-10.5065
に属する	-10.5067
一言	-10.5072
代表	-10.5074
▁げんきかいの予約を管理	-10.5075
果実	-10.5077
湿	-10.5081
大陸	-10.5081
を施す	-10.5083
▁二つの	-10.5083
郵便	-10.5083
に基づいて	-10.5084
行事	-10.5086
感心	-10.5086
▁短	-10.5087
などに用いる	-10.5088
仕上げ	-10.5088
セ	-10.509
検	-10.5091
▁尊	-10.5092
▁彼女に	-10.5093
などにする	-10.5093
会社の	-10.5096
乱れ	-10.51
講義	-10.51
が非常に	-10.5101
業務	-10.5102
卒業	-10.5103
収穫	-10.5106
現代	-10.5107
世紀	-10.5111
の意味	-10.5112
伸び	-10.5112
りんご	-10.5113
遠慮	-10.5116
イギリス	-10.5118
堅い	-10.5119
近くに	-10.5119
;...	-10.5122
夕方	-10.5123
々と	-10.5124
小切手	-10.5125
大衆	-10.5126
低い	-10.5128
なべ	-10.5129
わい	-10.5135
▁うん	-10.5139
こっそり	-10.5141
靴討い	-10.5145
消え	-10.5145
州の人	-10.5149
無理	-10.5151
か月	-10.5155
供給	-10.5157
ひま	-10.516
の働き	-10.516
▁どうも	-10.5162
緒	-10.5171
いいえ	-10.5171
と思って	-10.5174
▁まあ	-10.5179
ではなかった	-10.5186
▁七	-10.5187
の地	-10.5194
▁帰	-10.5198
届け	-10.5202
▁息	-10.5204
託	-10.5206
直線	-10.5211
衣類	-10.5213
作法	-10.5221
招待	-10.5222
不注意	-10.5222
不思議	-10.5224
切れない	-10.5225
貨	-10.5229
明け	-10.5231
▁南	-10.5233
コン	-10.5241
すぐれていること	-10.5257
びる	-10.526
られていた	-10.526
の端	-10.5262
主な	-10.5263
みて	-10.5266
タイ	-10.5266
わずか	-10.5269
らしく	-10.5272
▁そんなに	-10.5275
どちら	-10.5276
帝	-10.5278
化合物	-10.5279
父親	-10.5281
一緒に	-10.5283
胆	-10.5284
実現	-10.5284
自分が	-10.5284
▁万事	-10.5284
宅	-10.5291
授業	-10.5292
季	-10.5292
おもしろい	-10.5294
むら	-10.5294
湾	-10.5297
尿	-10.5297
▁天皇	-10.5299
▁商売	-10.5301
飼い	-10.5301
隆	-10.5303
テープ	-10.5304
ヌ	-10.5304
▁満	-10.5304
芋	-10.5304
功績	-10.5304
往復	-10.5304
境遇	-10.5304
の俗称	-10.5305
観測	-10.5305
ホール	-10.5305
同盟	-10.5305
農民	-10.5307
編み	-10.5314
延	-10.5318
内で	-10.5321
かえること	-10.5323
へび	-10.5326
気味	-10.5326
専門	-10.5329
▁科学	-10.5329
あま	-10.5331
の長さ	-10.5331
意図	-10.5333
を切って	-10.5344
フランス語	-10.5346
に住んでいる	-10.5347
▁ロ	-10.535
細かく	-10.5351
葉が	-10.5353
索	-10.5353
濁	-10.5354
▁人と	-10.5356
らせ	-10.5357
わる	-10.5358
▁輪	-10.536
共に	-10.5361
無い	-10.5361
出血	-10.5362
降る	-10.5365
奴	-10.5366
理想	-10.5368
▁奥	-10.5368
▁けん	-10.537
股	-10.5371
太鼓	-10.5371
切手	-10.5373
ーク	-10.5374
乾燥	-10.5374
▁火事	-10.5375
お礼	-10.5376
者を	-10.538
恐怖	-10.538
▁スポーツ	-10.5383
江戸	-10.5383
▁脳	-10.5383
詞	-10.5383
宝石	-10.5389
所で	-10.5391
合っている	-10.5392
区別	-10.5395
唐	-10.5396
評価	-10.5396
げんきかいの履歴を管理	-10.5398
がつかない	-10.5398
ではなく	-10.5403
外部	-10.5404
▁宗教	-10.5411
を始める	-10.5411
替える	-10.5417
くずれ	-10.5419
△□	-10.5421
待	-10.5424
貴	-10.5433
しようとする	-10.5439
▁けい	-10.5439
壁に	-10.544
順序	-10.5444
事だ	-10.5445
寄せる	-10.5448
によく	-10.5449
▁食い	-10.5451
メッセージをちょっと	-10.5452
▁軽い	-10.5455
産物	-10.5457
出入り	-10.5458
首相	-10.546
途中で	-10.5462
虎	-10.5463
粋	-10.5469
ヘルパー	-10.547
手形	-10.5475
を知る	-10.5476
その問題	-10.5483
▁物を	-10.5484
▁相	-10.5486
わり	-10.5486
起こり	-10.5486
足りない	-10.5487
までは	-10.5489
ほうが	-10.5489
につれて	-10.5492
となっている	-10.5493
参加	-10.5499
同時に	-10.5499
没	-10.55
てしまう	-10.551
許可	-10.5513
母親	-10.5513
るさま	-10.5518
徴	-10.5519
園	-10.5524
がって	-10.5525
日間	-10.5526
使って	-10.5527
目で	-10.5529
京都	-10.5529
名簿	-10.5532
述	-10.5534
参り	-10.5534
障	-10.5535
しょう	-10.5535
犠牲	-10.5535
▁米国の	-10.5537
と彼女は	-10.5537
膳	-10.5538
▁橋	-10.554
飲	-10.554
加工	-10.5541
過ぎて	-10.5541
ホームヘルパー	-10.5542
▁彼女には	-10.5543
腓	-10.5544
旋	-10.5546
を通す	-10.5549
欧	-10.5549
権限	-10.555
履歴	-10.5551
むく	-10.5552
を通じて	-10.5553
沼	-10.5553
	-10.5554
すばやく	-10.5554
ing	-10.5554
▁十	-10.5555
祖母	-10.5556
そら	-10.5556
u	-10.5557
ケアマネージャ	-10.5558
討ち	-10.5559
いつまでも	-10.556
障子	-10.5561
あります	-10.5564
形態	-10.5567
事物	-10.5568
しょ	-10.5572
厳	-10.5573
残った	-10.5574
どうして	-10.5574
はり	-10.5583
をし	-10.5585
投手	-10.5585
はしない	-10.5586
あぶら	-10.559
▁どうぞ	-10.5595
してくれ	-10.5599
なまり	-10.5601
提	-10.5601
になるだろう	-10.5601
通る	-10.5603
をかけた	-10.5607
ばらばら	-10.5612
なめ	-10.5613
基	-10.5613
と読む	-10.5618
事の	-10.5622
聞こえる	-10.5622
それと	-10.5624
▁議論	-10.5624
はどう	-10.5626
p	-10.5629
造り	-10.5635
政治家	-10.5637
開け	-10.5637
承諾	-10.5638
自ら	-10.5638
▁音楽	-10.5641
表面	-10.5641
▁きのう	-10.5643
その他の	-10.5645
してはいけない	-10.5645
易	-10.5646
軍人	-10.5648
金属製の	-10.5651
が大きい	-10.5651
死後	-10.5652
▁純	-10.5652
特徴	-10.5652
負ける	-10.5654
昆虫	-10.5655
▁少年は	-10.5655
酔	-10.5656
▁銀行	-10.5659
▁舞台	-10.5659
美術	-10.5659
悔	-10.5663
鉛筆	-10.5665
何とか	-10.5666
イエス	-10.5671
▁船は	-10.5671
所得	-10.5675
家を	-10.5676
▁一般	-10.5679
▁テレビ	-10.5686
▁とう	-10.5686
がわからない	-10.5686
▁イエス	-10.569
h	-10.5696
としている	-10.5698
▁いろいろな	-10.5698
ぜん	-10.5699
貸	-10.5702
の代わりに	-10.5703
読書	-10.5705
上から	-10.5715
以後	-10.5719
まく	-10.5721
沈黙	-10.5721
たか	-10.5721
最大の	-10.5721
▁こういう	-10.5725
後の	-10.5726
は彼に	-10.5731
▁やめる	-10.5734
落とし	-10.5735
▁彼と	-10.5736
だて	-10.574
やろう	-10.5741
会話	-10.5747
でメッセを送信	-10.5748
域	-10.575
主君	-10.5751
日本人	-10.5757
関連	-10.5765
さお	-10.5771
採	-10.5777
ひとりで	-10.5777
怠	-10.5778
惨	-10.5778
卓	-10.5778
バター	-10.578
飲食	-10.5781
▁彼は彼女の	-10.5786
惑	-10.5788
けて	-10.5788
▁風が	-10.5789
司	-10.5789
黒く	-10.5793
止める	-10.58
停	-10.5802
を出した	-10.5802
▁買い	-10.5802
の様子	-10.5802
やつだ	-10.5803
生活の	-10.5804
高木	-10.5805
合格	-10.5806
塀	-10.5806
O	-10.5808
盆	-10.581
蜜	-10.581
やま	-10.581
符号	-10.581
たっぷり	-10.5811
サービス	-10.5811
僂	-10.5811
雰囲気	-10.5811
遒	-10.5811
集中	-10.5811
爆弾	-10.5811
〕↓	-10.5811
事務所	-10.5811
わけにはいかない	-10.5812
思わず	-10.5812
機構	-10.5812
射撃	-10.5812
インチ	-10.5812
原理	-10.5813
太刀	-10.5814
種類が多い	-10.5816
▁事実	-10.5816
しっかり	-10.5818
録音	-10.5818
職員	-10.5818
を図る	-10.5818
▁電	-10.5819
仕方	-10.5821
ぼろ	-10.5821
まゆ	-10.5822
きれいな	-10.5822
兵器	-10.5823
あけ	-10.5827
借金	-10.5827
▁散	-10.5838
果物	-10.5838
の方が	-10.5839
連合	-10.5839
たより	-10.5842
フィート	-10.5843
どおり	-10.5846
作ること	-10.5847
ならない	-10.5849
場合に	-10.585
ども	-10.585
おど	-10.5853
木材	-10.5855
利子	-10.5855
▁シ	-10.5856
▁玉	-10.5859
述べた	-10.5864
子供を	-10.5865
力がある	-10.5865
▁今まで	-10.5866
▁復	-10.5872
▁ズボン	-10.5874
無事	-10.5874
期日	-10.5882
▁せん	-10.5882
自殺	-10.5883
その仕事	-10.5884
ピン	-10.5885
並べ	-10.5886
▁その本は	-10.5887
誓い	-10.5889
痛い	-10.589
申し出	-10.5895
の肉	-10.5897
茶色	-10.5897
部下	-10.5898
▁副	-10.5899
▁表	-10.59
式の	-10.5901
体は	-10.5902
ボールを	-10.591
武	-10.5912
▁航空	-10.5913
向け	-10.5914
を感じる	-10.5917
アップ	-10.5917
その時	-10.5918
止まる	-10.5918
わか	-10.5921
を聞いて	-10.5922
されていた	-10.5923
に自生する	-10.5924
度の	-10.593
▁検	-10.593
襟	-10.5933
スープ	-10.5937
侍	-10.5937
利益を	-10.5938
厳しい	-10.5939
きびしい	-10.594
如	-10.5945
▁ばら	-10.5946
階段	-10.5946
野原	-10.5948
昨日	-10.5948
続いて	-10.5949
警	-10.5952
分けて	-10.5952
なさま	-10.5953
▁銅	-10.5954
捕	-10.5957
格好	-10.5961
副	-10.5961
まずい	-10.5962
後で	-10.5963
しゃべる	-10.5965
がありますか	-10.5968
すわる	-10.5969
を得た	-10.5971
しかた	-10.5972
きっと	-10.5972
たくさんの	-10.5972
納める	-10.5976
細長く	-10.5979
著	-10.5983
▁善	-10.5983
ったら	-10.5984
を防ぐ	-10.5985
一年	-10.5986
言え	-10.599
吸い	-10.5992
▁運動	-10.5992
あわせ	-10.5994
見えない	-10.5995
三味線	-10.5995
立って	-10.5999
漢字	-10.6005
病人	-10.6008
などのため	-10.6008
全身	-10.6012
桜	-10.6013
▁打ち	-10.6013
備	-10.6014
あなたの	-10.6015
ート	-10.6017
▁激	-10.6019
一年生植物	-10.6023
l	-10.6026
十二	-10.6027
ていて	-10.6027
デ	-10.6028
g	-10.6029
俳句	-10.6036
話し	-10.6045
一部分	-10.6047
▁広	-10.6049
現場	-10.6053
はどんな	-10.6054
憂	-10.6055
ネクタイ	-10.6055
▁いえ	-10.6055
の底	-10.6055
に見える	-10.6056
軌道	-10.6057
▁あらゆる	-10.6057
を覚える	-10.6058
をかく	-10.6059
▁友人	-10.606
表す	-10.6061
で彼の	-10.6062
住所	-10.6062
セット	-10.6064
ふき	-10.6066
体裁	-10.6066
碑	-10.6067
無色	-10.607
麗	-10.6071
渡り	-10.6071
奮	-10.6072
縞	-10.6072
蜂	-10.6073
鼎	-10.6074
栓	-10.6074
認識	-10.6074
モデル	-10.6074
これは	-10.6074
絵の具	-10.6074
せりふ	-10.6074
故障	-10.6074
まん	-10.6074
家が	-10.6075
あなたに	-10.6076
通貨	-10.6076
討論	-10.6077
今の	-10.608
伝説	-10.6081
が長く	-10.6081
平たい	-10.6081
むしろ	-10.6085
散歩	-10.6086
ぶち	-10.6087
はず	-10.6087
ないさま	-10.6088
警察呼ぶ	-10.6088
▁神社	-10.6089
まあ	-10.6089
によれば	-10.6093
鳴らす	-10.6096
週	-10.6099
大小	-10.6101
▁人から	-10.6104
いち	-10.6106
クロ	-10.6107
の中から	-10.611
もらう	-10.6111
ぼんやり	-10.6114
活	-10.6117
かれる	-10.612
▁霧	-10.612
とめる	-10.6121
おかしい	-10.6122
▁微	-10.6124
だという	-10.6129
を全部	-10.614
▁絶	-10.6142
がたくさん	-10.6143
▁息子	-10.6144
刺	-10.6148
用紙	-10.6148
用語	-10.6151
の事	-10.6152
開発	-10.6157
世間の	-10.6158
▁自分で	-10.6158
書くこと	-10.6159
山の	-10.6162
▁舌	-10.6164
景色	-10.6167
ります	-10.6167
事に	-10.6167
たりする	-10.6173
を捨てる	-10.6173
音声	-10.6176
はずれた	-10.6179
▁かい	-10.618
風俗	-10.618
を争う	-10.6181
つい	-10.6185
到着	-10.6189
はほとんど	-10.6191
▁戸	-10.6193
▁夫婦	-10.6193
言葉を	-10.6196
かじ	-10.6197
漏	-10.6198
電線	-10.6198
部屋を	-10.6199
戦い	-10.6199
蚕	-10.62
かしら	-10.6202
▁少しも	-10.6202
▁これが	-10.6202
人人	-10.6202
しているさま	-10.621
を含む	-10.6211
残る	-10.6211
ならず	-10.6212
わざと	-10.6214
色が	-10.6214
▁市	-10.6216
非常	-10.6218
妹	-10.6219
するための	-10.622
酢	-10.6221
お医者さん	-10.6222
眉	-10.6226
家は	-10.6226
灰色	-10.6228
幸運	-10.6229
速く	-10.6232
行政	-10.6232
くれる	-10.6235
浮き	-10.6236
復	-10.6236
▁百	-10.6237
ねえ	-10.6238
考えて	-10.6239
農業	-10.6239
奉	-10.624
の裏	-10.6241
ほしい	-10.6241
天下	-10.6242
まだら	-10.6243
を出すこと	-10.6249
よごれ	-10.6253
いまから電話したい	-10.6256
退屈	-10.6258
浪	-10.6258
▁平和	-10.6262
ちょっと電話したい	-10.6265
さけ	-10.6267
白色の	-10.6267
げん	-10.6269
口から	-10.6271
使うこと	-10.6274
上げた	-10.6276
統	-10.6278
▁彼はまだ	-10.628
▁秘密	-10.6281
▁外国	-10.6281
▁補	-10.6283
扇	-10.6289
張った	-10.629
消	-10.629
でメッセージ送信	-10.6298
せない	-10.6302
▁その事	-10.6305
きわ	-10.6306
はいない	-10.6306
安定	-10.6308
ペ	-10.6308
▁虚	-10.6309
水中に	-10.6309
住み	-10.631
こんだ	-10.6315
騒ぎ	-10.6316
三角形	-10.6324
▁居	-10.6328
幾	-10.6329
雇	-10.633
を知っている	-10.6333
比べ	-10.6335
敬	-10.6339
酷	-10.6341
鹿	-10.6341
摂	-10.6343
予防	-10.6344
倉	-10.6344
槍	-10.6344
侵入	-10.6344
峰	-10.6344
支出	-10.6344
雀	-10.6344
干渉	-10.6344
錦	-10.6344
滝	-10.6344
に違いない	-10.6345
旧称	-10.6346
紙幣	-10.6346
絶えず	-10.6347
朝廷	-10.6347
残らず	-10.6348
曲芸	-10.6349
彼には	-10.6351
しました	-10.6351
を好む	-10.6352
企て	-10.6352
頼む	-10.6353
制御	-10.6353
▁画	-10.6354
といって	-10.6355
ふろ	-10.6358
鉄砲	-10.6362
食堂	-10.6363
車輪	-10.6363
疑	-10.6365
ちり	-10.6369
ふり	-10.637
両手	-10.6374
を抱く	-10.6376
ぐら	-10.6377
歩いた	-10.6377
子ども	-10.6388
しゃれ	-10.6389
ふた	-10.639
▁乾	-10.6391
なければならなかった	-10.6392
でもない	-10.6398
見物	-10.6399
▁危険	-10.6401
社員	-10.6403
にはいること	-10.6403
▁折り	-10.6403
試み	-10.6406
ってきた	-10.6409
▁長い	-10.6409
▁心臓	-10.6413
坊	-10.6415
程度の	-10.6416
守り	-10.6422
だす	-10.6426
一切の	-10.6427
▁商業	-10.6429
黄色の	-10.6431
速力	-10.6432
ポケット	-10.6434
きん	-10.6439
▁彼女は彼の	-10.6439
むき	-10.6443
▁銃	-10.6444
越す	-10.6444
物や	-10.6445
を決める	-10.6448
俗に	-10.645
の関係	-10.645
台所	-10.6453
低	-10.6453
の人たち	-10.6463
▁金銭	-10.6463
主義者	-10.6463
掛	-10.6463
▁多くの人	-10.6467
らずに	-10.6471
鉱物	-10.6472
▁個人	-10.6473
消化	-10.6474
▁縦	-10.6476
花が	-10.6479
を食べる	-10.6481
合わない	-10.6486
心地	-10.649
が足りない	-10.6497
▁至	-10.6497
の表面	-10.6499
くも	-10.65
供	-10.6506
絶対に	-10.6508
暴	-10.6509
を招く	-10.6509
大切な	-10.6509
今まで	-10.6509
がきく	-10.6518
過ぎた	-10.6521
なか	-10.6525
合わせた	-10.6528
はかりごと	-10.6528
食べた	-10.653
勝手に	-10.6531
▁気が	-10.6535
花は	-10.6535
婿	-10.6535
男の	-10.6538
診	-10.654
レコード	-10.6542
▁空気	-10.6543
義理	-10.6544
体操	-10.6544
海岸	-10.6548
前もって	-10.6549
常に	-10.6551
影響	-10.6552
そんな事を	-10.6557
時から	-10.6559
▁毛	-10.6559
▁優	-10.6562
発明	-10.6564
たくない	-10.6565
もう少し	-10.6566
仏教で	-10.6566
表面に	-10.6567
僕の	-10.6568
もり	-10.6569
寄る	-10.657
利害	-10.657
貨物	-10.6572
らぬ	-10.6573
特有の	-10.6574
のあたり	-10.6577
分解	-10.6577
▁テニス	-10.6579
を聞く	-10.658
読むこと	-10.6582
▁そのような	-10.6582
ますよ	-10.6583
ねん	-10.6584
▁布	-10.6584
にしている	-10.6586
一致	-10.6587
塗	-10.6588
優勝	-10.6588
原産	-10.6592
高度	-10.6594
を待つ	-10.6596
▁ばか	-10.6597
▁さい	-10.6598
申	-10.6601
誤解	-10.6601
火山	-10.6605
を果たす	-10.6606
珍	-10.6607
▁禁	-10.661
担	-10.6612
喜んで	-10.6613
のび	-10.6613
メッセージちょっと	-10.6613
鎖	-10.6614
沢	-10.6615
▁あんな	-10.6617
潔	-10.6618
配当	-10.6618
投資	-10.6619
つながり	-10.6621
圏	-10.6621
遺伝	-10.6621
憤	-10.6621
ランプ	-10.6621
丹	-10.6621
勝手	-10.6621
オーバー	-10.6621
枠	-10.6622
逐	-10.6622
	-10.6622
交替	-10.6622
やさしい	-10.6622
理屈	-10.6622
疾	-10.6623
設計	-10.6623
▁ある事	-10.6623
K	-10.6623
ベルト	-10.6623
▁冗談	-10.6624
関節	-10.6625
とじ	-10.6625
証言	-10.6626
運び	-10.6626
柔らかい	-10.6627
結論	-10.6628
いけ	-10.6629
視線	-10.6629
配置	-10.6631
▁ビール	-10.6633
食欲	-10.6634
困った	-10.6635
▁底	-10.6636
してきた	-10.6637
を加えて	-10.6638
干	-10.6639
▁普通の	-10.6642
の内容	-10.6642
みずから	-10.6643
氏の	-10.6648
しまう	-10.6648
合計	-10.6648
刃物	-10.665
行うこと	-10.6652
あや	-10.6653
彼女を	-10.6653
混乱	-10.6654
平面	-10.6657
事件の	-10.6657
の後	-10.6659
与えられた	-10.6659
無知	-10.6661
勝つ	-10.6662
明るく	-10.6662
あとに	-10.6665
完全な	-10.6669
のまま	-10.6672
を描く	-10.6675
▁生き	-10.6678
移り	-10.6679
▁愚	-10.6682
ード	-10.6682
▁機	-10.6683
飲食物	-10.6685
ものは	-10.6685
▁たくさんの	-10.6685
味方	-10.6686
さか	-10.6687
消し	-10.6687
ボート	-10.6688
▁緑	-10.6688
候補者	-10.6691
▁民	-10.6692
たばこ	-10.6695
▁彼は私を	-10.6699
日光	-10.6709
の水	-10.6709
着陸	-10.6711
どき	-10.6712
手紙を	-10.6716
私たちに	-10.6717
山田	-10.6719
すきま	-10.6721
くい	-10.6721
踏	-10.6723
仏教	-10.6724
見かけ	-10.6724
▁防	-10.6727
売る	-10.6727
つや	-10.6728
詰める	-10.6734
▁地球	-10.6734
▁商	-10.6745
あせ	-10.6748
集まって	-10.6749
救急車呼ぶ	-10.675
▁直接	-10.6752
並	-10.6754
っきり	-10.6756
▁最	-10.6756
▁敵の	-10.676
草木	-10.6761
の利益	-10.6763
絵画	-10.6763
瞬間	-10.6767
いま	-10.6768
の跡	-10.6771
じり	-10.6777
宴会	-10.6777
航空機	-10.6783
固く	-10.6788
自転車	-10.6789
▁ピアノ	-10.6791
体長	-10.6797
▁座	-10.6798
囲	-10.6801
▁どの	-10.6802
たまえ	-10.6803
その家	-10.6807
本当	-10.6808
もう一度	-10.6808
とその	-10.681
二人	-10.6813
魅力	-10.6814
名前を	-10.6816
弱い	-10.6816
事をする	-10.6817
我々	-10.682
▁妻	-10.6823
▁要	-10.6825
貫	-10.6826
リン	-10.6828
の女	-10.6828
等級	-10.6829
地上	-10.6829
を選ぶ	-10.6831
集まる	-10.6832
▁人口	-10.6834
生きている	-10.6834
壊	-10.6835
需要	-10.684
即	-10.684
暮	-10.6841
▁流	-10.6842
凍	-10.6845
かれた	-10.6848
健	-10.6851
幾つかの	-10.6852
▁岩	-10.6853
に備えて	-10.6854
▁元	-10.6855
いつでも	-10.6856
になると	-10.6859
低木	-10.6863
心理	-10.6864
▁窓	-10.6864
パリ	-10.6865
考	-10.6866
皮肉	-10.6867
てはいけない	-10.6868
そういうもの	-10.687
げんきかいの記録を管理	-10.687
過ごす	-10.6875
で書く	-10.6876
獄	-10.6877
細菌	-10.6877
問題を	-10.6878
最近	-10.688
スター	-10.6881
▁星	-10.6881
慢	-10.6882
めがね	-10.6885
理由で	-10.6886
委員	-10.6886
博士	-10.6887
のあまり	-10.6887
人柄	-10.6888
日本語	-10.6891
向かい	-10.6892
ング	-10.6893
よそ	-10.6893
私たち	-10.6893
はずだ	-10.6894
瓶	-10.6895
進んだ	-10.6895
うれしい	-10.6895
じて	-10.6902
▁会社	-10.6902
▁現金	-10.6903
忍	-10.6904
均	-10.6905
喪	-10.6906
腺	-10.6907
▁リ	-10.6907
津	-10.6907
操縦	-10.6907
紺	-10.6907
硬貨	-10.6907
沙	-10.6907
顕微鏡	-10.6907
捜査	-10.6907
紛争	-10.6908
染料	-10.6908
技能	-10.6908
塗料	-10.6908
更に広く	-10.6909
はさみ	-10.6909
廊下	-10.6909
だいぶ	-10.691
教訓	-10.691
ばた	-10.691
鳴く	-10.6911
対策	-10.6911
便利	-10.6912
現れ	-10.6912
市民	-10.6913
過失	-10.6913
▁身体	-10.6914
公衆	-10.6914
うるさい	-10.6914
▁身分	-10.6916
▁利	-10.6917
見識	-10.6919
おお	-10.692
に反する	-10.6922
をかき	-10.6923
お医者	-10.6923
おき	-10.6925
を要求する	-10.6927
作戦	-10.693
さまざまな	-10.693
本能	-10.6931
るだろう	-10.6931
わかり	-10.6931
鳴	-10.6932
を持ち	-10.6933
及ぶ	-10.6933
となり	-10.6933
しめる	-10.6934
点で	-10.6936
▁髪を	-10.6937
米国	-10.6938
▁その家は	-10.6939
ありさま	-10.6941
分布	-10.6943
押	-10.6943
伝染病	-10.6945
不正	-10.6949
天体	-10.6952
確かに	-10.6953
しまい	-10.6955
を感じた	-10.6957
罪人	-10.6957
備え	-10.6958
に必要な	-10.6958
16	-10.6962
電灯	-10.6964
80	-10.6965
の長	-10.6966
のところ	-10.6966
すい	-10.6966
▁絶対	-10.6967
明かり	-10.6968
どのくらい	-10.6969
ックス	-10.6971
かつ	-10.6974
▁絹	-10.698
▁国内	-10.698
原子	-10.6984
に会う	-10.6985
身なり	-10.6989
ぬき	-10.6989
夕	-10.6994
昔の	-10.6997
受けた	-10.6997
石を	-10.6998
▁歴史	-10.6999
▁現在	-10.7004
小鳥	-10.7005
ませる	-10.7005
以前に	-10.7006
外の	-10.7008
述べること	-10.7014
男女	-10.7014
混ぜ	-10.7015
もん	-10.7016
は我々の	-10.7016
その仕事を	-10.7016
が私の	-10.7017
こめ	-10.7019
人格	-10.7023
が立つ	-10.7025
は彼	-10.7029
▁知識	-10.7031
▁言語	-10.7032
にわたる	-10.7034
を加え	-10.7035
倒れた	-10.7043
沖	-10.7043
て来た	-10.7043
まくら	-10.7047
水分	-10.7048
最高の	-10.7056
そこで	-10.706
がなくて	-10.7061
悪事	-10.7061
招	-10.7066
を利用して	-10.7069
▁すっかり	-10.7069
▁松	-10.7069
▁家の	-10.7073
出された	-10.7076
▁夕食	-10.7079
単	-10.7081
▁配	-10.7083
泥棒	-10.7086
主題	-10.7087
必要がある	-10.7087
されること	-10.7088
動機	-10.709
を売る	-10.7091
蒸	-10.7093
なみ	-10.7094
▁私はその	-10.7096
の目	-10.7099
わく	-10.7099
にあう	-10.7101
▁遊	-10.7101
左右に	-10.7102
ぶどう酒	-10.7102
見本	-10.7104
えない	-10.7105
▁車の	-10.7108
▁ゆう	-10.7108
を見ると	-10.7109
腕を	-10.7111
執	-10.7114
▁他人	-10.7115
染み	-10.7118
効	-10.712
ばり	-10.712
致	-10.7121
しばしば	-10.7122
をやめる	-10.7123
雨が	-10.7123
▁悪い	-10.7123
うけ	-10.7124
栄	-10.7124
震	-10.7126
▁いいえ	-10.7127
▁こん	-10.7131
を見せる	-10.7131
▁ノー	-10.7133
贈	-10.7134
責任を	-10.7134
過去	-10.7135
行列	-10.7137
計略	-10.714
次第	-10.7143
フェ	-10.7144
けち	-10.7144
っていること	-10.7145
渋	-10.7149
▁法律	-10.715
お金	-10.7151
まわる	-10.7152
▁増	-10.7156
▁献	-10.7156
▁核	-10.7157
被	-10.7157
の値段	-10.7157
浴	-10.7157
そうじゃな	-10.7161
▁その時	-10.7162
C	-10.7163
▁ゴルフ	-10.7163
▁彼ら	-10.7164
物理学	-10.7164
▁だれが	-10.7164
いけない	-10.7166
わしい	-10.7167
むりに	-10.7169
楽しい	-10.717
以上に	-10.7171
不運	-10.7172
▁地震	-10.7172
かぜ	-10.7175
ベル	-10.7179
敵に	-10.718
されない	-10.7181
考えを	-10.7182
測定	-10.7183
殺し	-10.7186
とすること	-10.7189
悲しい	-10.7189
リズム	-10.719
賀	-10.719
還	-10.7191
たれ	-10.7191
介	-10.7192
新たに	-10.7193
何とも	-10.7193
斑	-10.7194
稿	-10.7194
▁義	-10.7195
失敗する	-10.7197
活字	-10.7197
いまから電話かける	-10.7199
ときに	-10.7199
並び	-10.72
棺	-10.72
ほぼ	-10.7201
佞	-10.7202
亀	-10.7202
ユーモア	-10.7202
椎	-10.7202
酔い	-10.7202
太平洋	-10.7202
ごちそう	-10.7202
硫酸	-10.7202
保存	-10.7202
拡大	-10.7202
タイヤ	-10.7202
寿命	-10.7202
いくつかの	-10.7203
飲料	-10.7203
幕府	-10.7203
比較	-10.7203
すか	-10.7203
まさに	-10.7203
論じ	-10.7204
代名詞	-10.7205
に行う	-10.7206
結合	-10.7208
体温	-10.7211
配達	-10.7213
が大きく	-10.7213
美味	-10.7215
▁アン	-10.7215
以外に	-10.7216
観客	-10.7217
訴訟	-10.722
遊女	-10.7222
バン	-10.7224
最後まで	-10.7224
日が	-10.7227
彫り	-10.7227
廻	-10.7228
有名な	-10.723
召	-10.723
がみ	-10.7235
フル	-10.7236
の夜	-10.7241
幸い	-10.7241
法則	-10.7242
▁天皇の	-10.7246
▁冷	-10.7246
今日	-10.7246
二度と	-10.7248
裁	-10.7249
するため	-10.725
お客	-10.725
▁あれ	-10.7252
▁種	-10.7253
景気	-10.7253
筋道	-10.7254
国会	-10.7255
かつて	-10.7258
入学	-10.7258
甘	-10.7258
の終わり	-10.7262
済	-10.7264
支配	-10.7264
みず	-10.7266
▁最後の	-10.7266
▁厳	-10.7269
すぐれている	-10.7271
かわり	-10.7274
一同	-10.7275
語る	-10.7278
はっきりと	-10.7279
無罪	-10.7279
▁英	-10.7281
体力	-10.7285
打って	-10.7289
作者	-10.7293
迎え	-10.7293
メッセージをすぐに	-10.7294
続	-10.7295
の差	-10.7296
飛ばす	-10.7296
出ること	-10.7298
▁涙	-10.7299
の程度	-10.7307
込むこと	-10.7309
白髪	-10.7309
態度が	-10.731
▁進	-10.7315
相当	-10.7316
に行って	-10.7317
苦痛	-10.7317
知る	-10.7319
しお	-10.7319
夏の	-10.732
▁煙	-10.7321
ちっとも	-10.7322
▁過去	-10.7322
▁麦	-10.7324
人情	-10.7329
春の	-10.733
応	-10.7332
授	-10.7332
床に	-10.7334
▁加	-10.7335
世辰	-10.734
出かける	-10.7342
▁山の	-10.7343
最大	-10.7346
描いた	-10.7348
符	-10.7348
あれこれと	-10.7354
▁混	-10.7354
売れ	-10.7354
▁官	-10.7355
を送信	-10.7361
垂	-10.7367
ねば	-10.737
▁運	-10.7373
任垢	-10.7374
大変な	-10.7377
懸	-10.7377
まして	-10.7378
光線	-10.7378
メッセージすぐに	-10.7382
をつかむ	-10.7385
たび	-10.7386
へ行って	-10.7386
死者	-10.7387
▁仕事を	-10.7387
▁どちら	-10.7392
▁もと	-10.7395
つとめ	-10.7396
▁しゅう	-10.7401
寄付	-10.7402
反対の	-10.7404
▁事務	-10.7405
▁試	-10.7414
ねずみ	-10.7417
静かな	-10.7419
いていた	-10.7423
上下	-10.7424
入れること	-10.7425
ているさま	-10.7425
行こう	-10.7425
著者	-10.7428
暮れ	-10.7432
▁卑	-10.7434
で働く	-10.7435
▁動物の	-10.7435
糸を	-10.7437
仰	-10.744
の位置	-10.7442
育て	-10.7445
崩	-10.7446
▁えん	-10.7446
彼らの	-10.7451
側の	-10.7454
結構	-10.7455
を集める	-10.7455
当たる	-10.7456
述べ	-10.7457
縫	-10.7457
冗談	-10.7457
ニューヨーク	-10.7458
脂肪	-10.7459
ふる	-10.7459
絶え	-10.7459
はなかなか	-10.746
▁釣り	-10.7465
さなかった	-10.7467
に入れて	-10.7469
を定める	-10.7472
割れ	-10.7474
ついている	-10.7475
ぶっ	-10.7475
滴	-10.7477
実際の	-10.7479
騷ぎ	-10.748
彩	-10.7481
手本	-10.7482
況	-10.7483
駆	-10.7484
▁ここ	-10.7485
与える	-10.7485
うんと	-10.7486
▁タクシー	-10.7486
小型の	-10.7489
▁先生は	-10.7493
▁バス	-10.7493
なま	-10.7494
弊	-10.7495
横に	-10.7495
民主	-10.7496
が長い	-10.7497
巡	-10.7497
気を	-10.7497
ものです	-10.7497
訪	-10.7498
豚	-10.7498
宣	-10.7499
下げる	-10.75
禍	-10.75
つらい	-10.7501
及ばない	-10.7501
うま	-10.7501
塞	-10.7502
慶	-10.7503
▁漁	-10.7503
叫ぶ	-10.7503
叙	-10.7503
嚢	-10.7504
摩	-10.7504
楼	-10.7504
某	-10.7504
虐	-10.7504
よろしく	-10.7504
缺	-10.7505
その計画	-10.7505
よろい	-10.7505
	-10.7505
鶴	-10.7505
喜ぶ	-10.7505
描写	-10.7505
独占	-10.7505
セント	-10.7505
300	-10.7505
変わって	-10.7505
業績	-10.7505
抗議	-10.7506
宿泊	-10.7506
統制	-10.7506
辞典	-10.7506
マッチ	-10.7507
限界	-10.7507
座敷	-10.7508
核	-10.7509
刷り	-10.751
行儀	-10.751
綴じ	-10.751
立ち上がる	-10.7511
質の	-10.7511
間違っている	-10.7512
筆跡	-10.7513
縁起	-10.7515
偶然	-10.7515
車両	-10.7516
箇所	-10.7516
空中	-10.7517
頭痛	-10.7517
上昇	-10.7517
話した	-10.7518
ではありません	-10.7519
ゴルフ	-10.7519
油断	-10.7519
乗る	-10.752
指を	-10.7523
ってしまう	-10.7524
実際	-10.7524
▁せき	-10.7525
をたたく	-10.7526
議長	-10.7526
▁霜	-10.7528
虚	-10.7529
警察呼びに電話	-10.7529
言葉で	-10.753
▁ここから	-10.753
▁物事	-10.7531
どうぞ	-10.7532
▁列車	-10.7536
伏	-10.7537
迷い	-10.754
髪を	-10.7542
に住み	-10.7542
官職	-10.7543
が出た	-10.7546
小形の	-10.7546
鉱石	-10.7547
ミリ	-10.7548
▁偏	-10.7548
なもの	-10.7549
▁秘	-10.755
途中	-10.7552
芸術家	-10.7553
カル	-10.7555
のたとえ	-10.7559
泡	-10.7563
走者	-10.7564
進むこと	-10.7564
▁父は	-10.7566
たな	-10.7566
独立	-10.7567
冷え	-10.7568
視力	-10.7568
折れ	-10.7571
事柄を	-10.7571
その言葉	-10.7576
時間に	-10.7577
資産	-10.7581
一種の	-10.7586
温泉	-10.7586
賭け	-10.7586
げに	-10.7588
黒色	-10.7589
対照	-10.7591
▁顔	-10.7592
はいよ	-10.7593
▁食	-10.7596
しら	-10.7598
長いこと	-10.7605
▁政府	-10.7607
後ろに	-10.7607
方がいい	-10.7608
に言う	-10.7608
気に	-10.761
を失った	-10.761
安心	-10.7611
st	-10.7616
▁神経	-10.7619
人や	-10.7621
不思議な	-10.7622
移動	-10.7624
▁当時	-10.7626
入って	-10.7627
うみ	-10.763
幸せ	-10.763
を止める	-10.763
識	-10.7634
科の落葉高木	-10.7636
三つ	-10.7639
ごう	-10.7641
▁違います	-10.7644
根性	-10.7648
回った	-10.7648
を誤る	-10.7648
生ずる	-10.765
現在の	-10.765
抱	-10.7651
連続	-10.7654
なぐる	-10.7655
がついた	-10.7655
成立	-10.7656
のような形	-10.7661
優	-10.7661
メッセージをいまから	-10.7665
四方	-10.7667
けない	-10.7668
驚き	-10.7671
上がって	-10.7673
あらわ	-10.7674
▁郵便	-10.7674
生活を送る	-10.7675
財産を	-10.7684
を研究する	-10.7687
▁昼	-10.769
は実に	-10.7696
残念	-10.7697
あう	-10.7697
くわ	-10.7698
設	-10.7699
材は	-10.7701
▁世間の	-10.7703
だらけの	-10.7705
周囲	-10.7706
吹く	-10.771
終わった	-10.7712
していて	-10.7712
運送	-10.7717
ヨ	-10.7717
なくなること	-10.7718
嫌い	-10.7719
を踏む	-10.7721
終わる	-10.7728
▁行き	-10.7729
ぬく	-10.7735
隠	-10.7736
数値	-10.7737
以外	-10.7738
丸い	-10.7742
▁書き	-10.7743
仮	-10.7743
書いてある	-10.7745
じん	-10.7746
うちの	-10.7759
異常	-10.7763
付きの	-10.7764
確認	-10.7767
▁裸	-10.777
力士	-10.777
おこる	-10.777
▁はん	-10.7771
▁女性	-10.7776
領土	-10.7777
あん	-10.7778
▁次の	-10.7778
争	-10.7779
くそ	-10.778
ばね	-10.7781
するような	-10.7783
詰	-10.7783
わし	-10.7784
含	-10.7786
決断	-10.7787
▁生産	-10.7787
兵隊	-10.7787
姿を	-10.779
▁渋	-10.7791
を追って	-10.7791
いました	-10.7792
庫	-10.7793
権威	-10.7798
浅	-10.7799
のようなもの	-10.78
余地	-10.7802
譜	-10.7803
▁牛乳	-10.7803
どころ	-10.7806
発達	-10.7806
すごい	-10.7807
破壊	-10.781
療	-10.7811
▁被	-10.7812
循環	-10.7812
▁党	-10.7813
ミルク	-10.7813
審議	-10.7814
著作	-10.7815
並ぶ	-10.7816
範	-10.7816
萌	-10.7816
罎	-10.7816
磴	-10.7817
妊	-10.7817
姦	-10.7817
"	-10.7817
溝	-10.7817
束縛	-10.7817
訂正	-10.7817
アジア	-10.7817
診察	-10.7817
ぞっとする	-10.7818
やたらに	-10.7818
給与	-10.7818
オレンジ	-10.7818
救助	-10.7818
w	-10.7819
保管	-10.7819
味わい	-10.7819
合唱	-10.7821
男女が	-10.7822
親切に	-10.7823
水準	-10.7823
▁富	-10.7824
党派	-10.7824
喜劇	-10.7824
前提	-10.7825
教員	-10.7826
入場	-10.7827
気温	-10.783
十分な	-10.7831
風習	-10.7832
付属	-10.7832
言ったこと	-10.7834
牢	-10.7835
童	-10.7836
項目	-10.7839
確実な	-10.7839
アフリカ	-10.7839
疎	-10.784
どれ	-10.7841
ませた	-10.7842
曲線	-10.7842
群衆	-10.7842
請	-10.7842
に着く	-10.7843
所へ	-10.7845
嫁	-10.7847
ウイスキー	-10.7848
献	-10.7849
掻き	-10.7849
▁彼はもう	-10.785
例外	-10.785
図書館	-10.785
ジョン	-10.785
バラ	-10.7852
無礼	-10.7855
を鳴らす	-10.7856
昼	-10.7856
鈍	-10.7858
岩石	-10.7859
粘土	-10.7859
▁ほ	-10.7859
仮名	-10.7859
▁それには	-10.7859
根本	-10.786
敷き	-10.786
読んだ	-10.786
でメッセージを送信	-10.7861
▁新しく	-10.7862
バック	-10.7863
▁なぜ	-10.7863
▁がん	-10.7863
大事な	-10.7863
郊外	-10.7863
ごま	-10.7865
暖かい	-10.7865
▁スキー	-10.7866
テニス	-10.7866
博	-10.7869
先の	-10.7871
天才	-10.7871
の話	-10.7872
存在する	-10.7872
臣下	-10.7873
赤色	-10.7876
物品	-10.7878
非常な	-10.7878
のとおり	-10.7878
死亡	-10.788
缶	-10.788
威力	-10.7881
に出す	-10.7881
▁最高	-10.7882
面会	-10.7882
やってみる	-10.7883
べる	-10.7883
風流	-10.7883
を重ねる	-10.7885
家柄	-10.7886
▁研究	-10.7887
▁故	-10.7889
の土地	-10.789
支持	-10.789
▁100	-10.789
▁立派な	-10.7891
けること	-10.7892
▁自分が	-10.7895
物価	-10.7895
を発する	-10.79
集会	-10.79
▁名誉	-10.79
▁巨	-10.7904
傾斜	-10.7905
きなさい	-10.7908
かたく	-10.7909
火薬	-10.791
▁大いに	-10.7914
いくつ	-10.7915
てしまうこと	-10.7916
に生える	-10.7917
▁そんなこと	-10.7917
ティー	-10.7919
品質	-10.7919
▁あらし	-10.792
少	-10.7921
発生	-10.7922
他方	-10.7925
一点	-10.7927
▁学校の	-10.7929
映	-10.793
▁デ	-10.7931
今は	-10.7932
▁露	-10.7932
そうする	-10.7934
ですが	-10.7936
抜ける	-10.7938
してやる	-10.7939
ばし	-10.794
話だ	-10.794
買う	-10.7941
月に	-10.7941
▁ちょっと電話したい	-10.795
打撃	-10.795
ければ	-10.7952
きて	-10.7954
明るい	-10.7957
黙って	-10.7963
不平	-10.7965
との間に	-10.7966
▁安全	-10.7969
わん	-10.7971
▁いつ	-10.7977
▁雌	-10.7981
が強く	-10.7984
客の	-10.7985
▁卵	-10.7986
地点	-10.7987
救急車を呼ぶ	-10.7994
科目	-10.7996
常識	-10.7998
▁他の	-10.7999
全体の	-10.8
たえ	-10.8001
▁室内	-10.8002
閉	-10.8003
を捕える	-10.8004
▁墓	-10.8008
▁心の	-10.8009
▁鬼	-10.8011
チャ	-10.8014
ネズミ	-10.802
上り	-10.8021
▁労働	-10.8022
ヘルパーさん	-10.8023
□□	-10.8023
考えが	-10.8024
燃える	-10.8024
▁福	-10.8025
確かな	-10.803
▁人生	-10.803
▁じょう	-10.8033
歌う	-10.8033
▁新年	-10.8035
丈夫な	-10.8035
責	-10.8036
▁ちょうど	-10.8044
se	-10.8049
▁超	-10.805
▁土地	-10.805
既に	-10.8051
矛盾	-10.8052
あげた	-10.8053
▁死に	-10.8053
否定	-10.8057
計画を	-10.8063
▁午後	-10.8065
0	-10.8066
とく	-10.8066
一面	-10.807
▁温	-10.8076
大体	-10.8077
生まれつき	-10.8079
戸口	-10.8079
辞職	-10.808
樹木	-10.8081
届	-10.8081
確か	-10.8081
らせて	-10.8082
前から	-10.8087
資料	-10.8088
埋め	-10.809
についている	-10.8095
つもりだ	-10.8095
見せる	-10.8097
ざら	-10.8101
四角	-10.8103
難い	-10.8103
ところがある	-10.8104
換	-10.8105
は彼を	-10.8106
縛	-10.8107
帝国	-10.811
熱い	-10.8112
70	-10.8113
離婚	-10.8115
悟	-10.8117
▁刀	-10.8117
▁狂	-10.8119
▁道理	-10.8119
将校	-10.812
示すこと	-10.8121
が来る	-10.8123
▁議長	-10.8125
したら	-10.8127
裁判官	-10.8127
▁縁	-10.813
▁農業	-10.8131
却	-10.8132
孔	-10.8133
はるかに	-10.8134
重大	-10.8135
あめ	-10.8135
に過ぎない	-10.8135
険	-10.8136
焼いた	-10.8136
呪	-10.8136
▁暴	-10.8137
を欠く	-10.8137
発行する	-10.8137
ラー	-10.8138
の問題	-10.8138
相続	-10.8138
環	-10.8138
貌	-10.8139
あきらめ	-10.8139
ごたごた	-10.814
施	-10.814
ハンカチ	-10.814
娯楽	-10.814
屬	-10.814
偉大な	-10.814
くちばし	-10.814
こみ	-10.8141
証券	-10.8141
▁若い	-10.8141
悩み	-10.8141
は私	-10.8141
ろうそく	-10.8141
軽蔑	-10.8143
農場	-10.8144
申し上げます	-10.8145
獲物	-10.8146
坊主	-10.8146
執行	-10.8146
▁ニューヨーク	-10.8146
同士	-10.8147
々しい	-10.8147
狂言	-10.8149
▁棒	-10.8149
を作り	-10.815
▁だれでも	-10.8151
念仏	-10.8151
っても	-10.8152
面白い	-10.8152
▁粉	-10.8153
午後	-10.8153
平らな	-10.8156
粉末	-10.8156
を出し	-10.8156
を失って	-10.8157
▁僕	-10.8158
目録	-10.8158
おかし	-10.8159
戦術	-10.8159
不在	-10.8161
単語	-10.8163
なっていた	-10.8165
弱点	-10.817
を洗う	-10.8173
母音	-10.8174
ロン	-10.8174
形は	-10.8174
語句	-10.8174
演ずる	-10.8178
名の	-10.8178
むち	-10.818
所帯	-10.8182
たりして	-10.8183
あげよう	-10.8183
駄	-10.8184
を読む	-10.8187
もみ	-10.8188
カン	-10.8188
▁きゅう	-10.8189
あさ	-10.819
お願い	-10.819
まわること	-10.819
のうちに	-10.8191
むずかしい	-10.8193
▁歌	-10.8193
▁能	-10.8194
きびしく	-10.8197
18	-10.8197
危機	-10.8197
幼児	-10.8198
仁	-10.8198
▁押し	-10.8199
のなか	-10.8199
ものがある	-10.8201
ロープ	-10.8201
雑草	-10.8203
たった	-10.8203
脇	-10.8205
留める	-10.8205
▁その子は	-10.8205
ふけ	-10.8206
爪	-10.8206
混	-10.8206
乱暴な	-10.821
預金	-10.8211
談話	-10.8212
財政	-10.8213
自己	-10.8214
第三	-10.8215
動かす	-10.8216
▁森	-10.8217
S	-10.8218
などによって	-10.8219
。「―	-10.8219
両端	-10.8219
超	-10.822
▁コン	-10.8225
に多い	-10.8225
▁激しく	-10.8226
を吹く	-10.8227
容易に	-10.8227
ブラ	-10.8228
訴え	-10.8228
穀物	-10.8229
山脈	-10.8229
濃い	-10.823
の出来事	-10.8232
せり	-10.8234
よろしい	-10.8236
めし	-10.8237
▁長く	-10.8237
▁文学	-10.824
音節	-10.8241
水路	-10.8241
▁貸	-10.8243
こつ	-10.8247
▁ぼう	-10.8248
合うこと	-10.8249
社会的	-10.8251
一部	-10.8252
変え	-10.8252
もしない	-10.8253
▁猿	-10.8257
縮	-10.826
ドアを	-10.8263
木綿	-10.8266
戻	-10.8266
▁印刷	-10.8266
▁自動車の	-10.8268
っておく	-10.827
しかない	-10.8273
▁子供	-10.8275
▁生活	-10.8277
もらった	-10.8279
▁寸	-10.828
があれば	-10.8281
とれる	-10.8286
▁順	-10.8286
墓	-10.8286
▁割り	-10.8288
こり	-10.829
ほめ	-10.8294
▁だれか	-10.8295
その場に	-10.8296
▁全身	-10.8299
まと	-10.83
はわからない	-10.8302
の小	-10.8303
私たちの	-10.8306
入れた	-10.8307
気譴	-10.8308
せた	-10.8312
プレー	-10.8313
上手	-10.8313
ときの	-10.8315
▁ヨーロッパ	-10.8315
生え	-10.8316
ようとした	-10.8316
片方	-10.8318
不意	-10.8318
書いて	-10.8321
みぞ	-10.8321
敵の	-10.8323
返すこと	-10.8324
いやな	-10.8325
境界	-10.833
としても	-10.8337
につき	-10.8337
▁うちの	-10.8344
▁質	-10.8347
認められる	-10.8349
おしゃべり	-10.8351
鳴り	-10.8353
ed	-10.8356
▁インド	-10.8356
▁すばらしい	-10.8358
とまる	-10.8359
知った	-10.836
▁家族	-10.8361
が好きだ	-10.8361
警察を呼ぶ	-10.8361
スーツ	-10.8367
▁げんきかいの履歴を管理	-10.837
言葉に	-10.837
有様	-10.837
拾い	-10.8371
耳に	-10.8372
機嫌	-10.8372
知り	-10.8372
クリスマス	-10.8374
宣伝	-10.8374
▁煮	-10.8374
時などに	-10.8378
溶	-10.8378
をとった	-10.8381
▁いろいろの	-10.8383
大きいこと	-10.8383
上げて	-10.8387
下ろす	-10.8394
騒	-10.8397
構	-10.8398
買った	-10.84
▁ちょっとした	-10.8402
なぞ	-10.8404
づく	-10.8404
へ行った	-10.8405
我々に	-10.8405
あうこと	-10.8408
成功した	-10.8413
立っていた	-10.8415
を用いて	-10.8416
もっとも	-10.8416
当てる	-10.8418
だけだ	-10.8418
換え	-10.8418
▁目の	-10.8419
宮中	-10.8423
かけている	-10.8423
▁トムは	-10.8425
代理	-10.8426
たれる	-10.8428
美しさ	-10.8428
だんだん	-10.843
▁化学	-10.8432
最後に	-10.8433
▁写真	-10.8433
まとまり	-10.8434
れん	-10.8436
▁参	-10.8438
▁雷	-10.8439
妙な	-10.8443
ゆう	-10.8445
調和	-10.8446
▁生命	-10.845
おいで	-10.8451
曲がった	-10.8452
時間が	-10.8453
捜し	-10.8453
不明	-10.8453
ぴったり	-10.8454
▁あなたが	-10.8454
以前の	-10.8455
そうと	-10.8458
しないように	-10.8458
向きの	-10.8458
呼び名	-10.8459
こま	-10.8459
▁このような	-10.846
つれ	-10.8463
▁帯	-10.8464
遣い	-10.8466
書簡	-10.8468
旨	-10.8468
鼓	-10.847
その知らせ	-10.8471
吏	-10.8471
公務員	-10.8471
覇	-10.8471
紊	-10.8472
冒	-10.8473
に沿って	-10.8473
ストライキ	-10.8473
兇	-10.8473
Г	-10.8473
▁of	-10.8473
陳述	-10.8473
しつこく	-10.8473
樹脂	-10.8473
殺到	-10.8473
欠陥	-10.8473
わざわい	-10.8474
教科書	-10.8474
どうにか	-10.8474
及び	-10.8474
ネット	-10.8474
グラス	-10.8474
ゴール	-10.8475
陶器	-10.8475
社交	-10.8476
技師	-10.8476
編成	-10.8477
めでたい	-10.8477
補給	-10.8477
工夫	-10.8477
分裂	-10.8477
最終	-10.8477
照明	-10.8478
仮定	-10.8478
働いて	-10.8481
害虫	-10.8482
帳面	-10.8482
親しみ	-10.8483
秘密を	-10.8484
鱗	-10.8486
モン	-10.8486
順番	-10.8487
通りに	-10.8488
正午	-10.8488
陸地	-10.8488
▁犬	-10.8491
洗う	-10.8492
に手を	-10.8493
おれ	-10.8494
一行	-10.8496
らせた	-10.8499
ダース	-10.85
牛肉	-10.8501
体制	-10.8501
やってきた	-10.8501
▁財産	-10.8505
法案	-10.8505
かに	-10.8507
祝	-10.8507
▁都市	-10.8508
出される	-10.851
それから	-10.851
包	-10.8512
▁ピ	-10.8513
▁読み	-10.8513
部品	-10.8515
無限	-10.8515
▁相手を	-10.8516
えん	-10.8517
遅れて	-10.8517
然たる	-10.8519
の縁	-10.852
頂上	-10.8524
一枚	-10.8524
については	-10.8529
いくらか	-10.8531
危険な	-10.8536
がち	-10.8538
覚	-10.854
昔から	-10.8545
を塗る	-10.8545
部門	-10.8546
陽気	-10.8548
上等	-10.855
の間の	-10.855
と思っている	-10.8552
▁台風	-10.8552
▁後ろ	-10.8553
さる	-10.8553
かち	-10.8554
腹が	-10.8556
野心	-10.8559
菊	-10.8561
▁仕事の	-10.8564
伝統	-10.8564
の空	-10.8565
あお	-10.8566
腕前	-10.8566
君が	-10.8567
を進める	-10.8568
を計る	-10.8569
トム	-10.8569
られなかった	-10.857
先例	-10.8577
ぎわ	-10.858
方方	-10.858
前途	-10.8581
スタ	-10.8582
人数	-10.8582
▁終	-10.8582
察	-10.8583
ふだん	-10.8583
じょう	-10.8584
を飲む	-10.8585
口論	-10.8585
読んで	-10.8585
純	-10.8591
衰え	-10.8592
すぐに電話したい	-10.8594
ができた	-10.8594
▁彼女は彼	-10.8595
結婚式	-10.8595
中国の	-10.8595
しっかりした	-10.8598
繭	-10.8599
聞かせ	-10.8601
ろうとする	-10.8601
重大な	-10.8604
遅れた	-10.8606
日中	-10.8607
お前	-10.8608
とんでもない	-10.8608
で売る	-10.8609
夜明け	-10.8609
口実	-10.8612
を助ける	-10.8612
拍手	-10.8613
感動	-10.8615
繰り返し	-10.8615
ンド	-10.8617
遅れる	-10.8617
年代	-10.8617
▁皮膚	-10.8618
盲	-10.8622
が必要だ	-10.8624
を少し	-10.8625
を立て	-10.8626
▁休	-10.8626
つくり	-10.863
▁墨	-10.8631
▁ちょう	-10.8634
▁怒り	-10.8635
あぶ	-10.8638
天子	-10.8639
をあげて	-10.864
▁米国	-10.8644
▁炭	-10.8644
上品	-10.8647
ばい	-10.8648
座席	-10.8649
固めた	-10.865
本来	-10.8652
ゆき	-10.8653
んです	-10.8655
始	-10.8658
の低い	-10.8658
の材料	-10.866
ぶる	-10.8661
納め	-10.8662
起こす	-10.8664
と一緒に	-10.8664
▁受け	-10.8667
居住	-10.8668
は全部	-10.867
道は	-10.8672
指図	-10.8672
▁ふた	-10.8678
っくり	-10.8679
資	-10.8684
▁しゃ	-10.8685
を指す	-10.8686
どこで	-10.8687
▁なん	-10.8687
を教える	-10.8691
出する	-10.8691
は決して	-10.8696
▁池	-10.8698
和歌	-10.8698
世間に	-10.8701
外れ	-10.8703
▁目を	-10.8704
輸出	-10.8706
▁村	-10.8707
指定	-10.871
さずに	-10.8711
吐	-10.8712
に入れた	-10.8713
は何も	-10.8714
のもと	-10.8714
▁京都	-10.8714
その結果	-10.8719
晴	-10.872
三度	-10.872
ライ	-10.8722
等が	-10.8728
楽しむ	-10.8728
それぞれの	-10.873
ありますか	-10.8731
うず	-10.8732
▁心に	-10.8733
を作った	-10.8735
何時	-10.8735
邪魔	-10.8741
下手	-10.8743
トラック	-10.8744
を言って	-10.8748
土台	-10.875
▁クロ	-10.8752
▁節	-10.8752
▁婦人	-10.8755
りっぱな	-10.8755
望む	-10.8757
とど	-10.8758
アパート	-10.8759
▁武	-10.876
▁私に	-10.8761
▁鈍	-10.8763
回転	-10.8763
改善	-10.8764
ふう	-10.8771
に入った	-10.8774
▁旗	-10.8781
にあること	-10.8781
誠実	-10.8782
裂	-10.8784
の食事	-10.8785
以	-10.8786
睡眠	-10.8788
を用いる	-10.8789
に関して	-10.879
問い	-10.879
区画	-10.879
とること	-10.8791
▁建築	-10.8792
衛	-10.8794
の基礎	-10.8795
情報を	-10.8795
▁彼は彼女	-10.8796
ています	-10.8798
永	-10.8799
ュ	-10.88
天皇の	-10.88
ばち	-10.8802
に来る	-10.8804
ましょうか	-10.8805
▁戦闘	-10.8805
絞	-10.8805
勤勉	-10.8805
音を	-10.8806
審判	-10.8806
用いる	-10.8807
に与える	-10.881
陶	-10.881
は彼女の	-10.881
看板	-10.881
乙	-10.8811
▁彼はこの	-10.8813
蝶	-10.8814
洗たく	-10.8814
わからなかった	-10.8814
防止	-10.8815
瀬	-10.8815
冥	-10.8815
▁ガラス	-10.8817
させない	-10.8817
顕	-10.8818
聯	-10.8818
梁	-10.8818
窒素	-10.8818
艇	-10.8818
ハムレット	-10.8818
壺	-10.8818
瑠	-10.8818
科の海魚	-10.8818
器械	-10.8818
璽	-10.8818
陶磁器	-10.8818
タイプライター	-10.8818
休憩	-10.8818
陳列	-10.8818
を救う	-10.8818
存じます	-10.8819
太郎	-10.8819
解雇	-10.8819
圧迫	-10.8819
シェ	-10.882
学部	-10.882
体験	-10.882
ようやく	-10.8821
にふける	-10.8821
ライン	-10.8821
ニア	-10.8822
水道	-10.8822
忠実	-10.8823
高低	-10.8824
知れ	-10.8825
ファ	-10.8827
手先	-10.8827
あちこち	-10.8828
ジュ	-10.883
▁ボート	-10.883
観音	-10.883
まない	-10.8832
針金	-10.8832
▁営業	-10.8832
仕切り	-10.8832
まもなく	-10.8832
渡す	-10.8835
間もなく	-10.8835
かかり	-10.8836
方向に	-10.8837
布団	-10.8838
▁接	-10.8839
急ぐ	-10.8844
結ぶ	-10.8845
敬称	-10.8845
うわ	-10.8848
厚	-10.885
処理する	-10.8851
のころ	-10.8851
明らかに	-10.8852
ほうがいい	-10.8852
▁二重	-10.8854
▁稲	-10.8855
感ずる	-10.8856
平等	-10.8856
題目	-10.8857
パイ	-10.8857
あぶない	-10.8857
を受けること	-10.8858
不良	-10.886
特別の	-10.886
複雑な	-10.8861
柔らかく	-10.8861
指導者	-10.8862
▁ベ	-10.8862
▁胴	-10.8862
重量	-10.8863
▁盲	-10.8867
の絵	-10.8869
会う	-10.8871
占め	-10.8871
正しく	-10.8873
雌	-10.8875
の方向	-10.8877
高熱	-10.8879
のほうが	-10.8882
が上がる	-10.8884
▁うまい	-10.8887
が出	-10.8891
小型	-10.8892
紙を	-10.8894
やく	-10.8894
飽き	-10.8898
道楽	-10.8899
整	-10.89
をふるう	-10.8901
誤	-10.8901
をうまく	-10.8902
▁懐	-10.8903
免	-10.8904
ほん	-10.8906
▁子供たちは	-10.8906
んこ	-10.8909
▁浮	-10.8911
▁教会	-10.8914
を押し	-10.8915
書いたもの	-10.8916
▁潜	-10.8916
見通し	-10.8917
手袋	-10.8917
ろうと	-10.8917
身の上	-10.8918
失礼	-10.8919
縫う	-10.8922
手足	-10.8923
うら	-10.8923
説き	-10.8924
はできない	-10.8924
空想	-10.8924
めん	-10.8928
▁親の	-10.8929
投	-10.893
▁昨夜	-10.8931
おこ	-10.8932
まっすぐに	-10.8934
大会	-10.8935
程度が	-10.8935
▁太	-10.8935
あとで	-10.8935
▁ロケット	-10.8943
かのように	-10.8944
ある事	-10.8945
▁料理	-10.8947
科の常緑高木	-10.8948
を越えて	-10.8948
邪	-10.8948
刑務所	-10.8948
▁登山	-10.8949
じゅう	-10.895
盗み	-10.895
▁寺	-10.8951
祖父	-10.8951
鬱	-10.8953
夕食	-10.8954
んじ	-10.8958
序	-10.8958
飛	-10.8958
有効	-10.896
を呼ぶ	-10.8962
▁一日	-10.8963
その金を	-10.8964
漫	-10.8965
地獄	-10.8965
くち	-10.8966
理性	-10.897
蚊	-10.8972
▁世界の	-10.8976
定められた	-10.8977
室内	-10.8977
近代	-10.8978
を明らかにする	-10.8978
メッセージいまから	-10.8979
女性の	-10.898
国を	-10.8981
▁利益	-10.8981
▁医学	-10.8984
救急車呼びに電話	-10.8985
最初に	-10.8987
ティ	-10.8987
をちょっと	-10.8988
発射	-10.8992
▁選	-10.8993
▁女の	-10.8994
▁各	-10.8994
状態にある	-10.8998
多数の	-10.9
きている	-10.9003
が見える	-10.9003
のそばに	-10.9004
をもち	-10.9005
えび	-10.9007
処分	-10.901
けば	-10.901
11	-10.9011
支払い	-10.9012
の光	-10.9014
逃	-10.9014
歌い	-10.902
引け	-10.9022
こぶ	-10.9024
ことをする	-10.9025
▁自動	-10.9026
爆	-10.9026
を行うこと	-10.9031
▁ゴム	-10.9032
▁全く	-10.9035
あんな	-10.9036
が少ない	-10.9036
に打ち	-10.9039
昇	-10.9039
を突き	-10.9041
来ること	-10.9045
通行	-10.9045
▁弓	-10.9047
のもとで	-10.9047
彼も	-10.9048
所を	-10.9049
顔が	-10.9051
だち	-10.9052
の動き	-10.9054
▁君主	-10.9056
黙	-10.9061
精力	-10.9062
生地	-10.9063
▁戦い	-10.9063
そのことを	-10.9065
を引いて	-10.9076
▁集団	-10.9078
つきの	-10.908
にしたもの	-10.908
▁ホテル	-10.9081
とらえる	-10.9082
ちょっとした	-10.9085
▁良	-10.9086
賢	-10.9087
注意して	-10.9091
代金	-10.9091
▁中国	-10.9096
くつ	-10.9096
報酬	-10.9097
当局	-10.9098
▁短い	-10.9099
御用	-10.91
だし	-10.9101
焦	-10.9102
態度をとる	-10.9102
ばん	-10.9102
国語	-10.9104
の性質	-10.9106
工学	-10.9107
▁三つ	-10.9107
吹	-10.9108
をもっている	-10.911
はっきりしない	-10.9113
顔をする	-10.9114
が見えた	-10.9115
最低	-10.9117
▁硬	-10.9118
▁中間	-10.9118
募集	-10.912
最初	-10.912
で行う	-10.9121
はだれ	-10.9123
に設けた	-10.9123
の量	-10.9125
さわ	-10.9125
年月	-10.9128
財布	-10.9128
指揮	-10.913
助言	-10.9134
なんだ	-10.9137
▁毎日	-10.9138
▁パリ	-10.9139
を立てて	-10.9139
物資	-10.9139
一節	-10.9139
加減	-10.914
いないこと	-10.9141
がまだ	-10.9142
時まで	-10.9142
をとること	-10.9148
負傷	-10.9149
てい	-10.9151
▁わら	-10.9151
の社会	-10.9152
渡した	-10.9154
わずかに	-10.9156
揺れる	-10.9156
の調子	-10.9158
廷	-10.9159
斜	-10.9161
便宜	-10.9162
沸	-10.9162
▁元気	-10.9164
柔	-10.9164
胸に	-10.9165
郎	-10.9166
を入れておく	-10.9166
簡	-10.9166
にかかわる	-10.9167
おどし	-10.9167
滞	-10.9168
あがった	-10.9169
▁弾	-10.917
との間	-10.917
は大	-10.917
原則	-10.9171
を持った	-10.9171
拳	-10.9172
賦	-10.9173
願います	-10.9173
膿	-10.9173
キャ	-10.9174
妄	-10.9175
味噌	-10.9175
ショック	-10.9175
汚染	-10.9175
どっち	-10.9175
おくこと	-10.9175
塾	-10.9175
グループ	-10.9175
従業員	-10.9175
熊	-10.9175
博物館	-10.9175
狼	-10.9175
纏	-10.9175
うろこ	-10.9175
貯蔵	-10.9175
覚悟	-10.9175
泳ぐ	-10.9176
園芸	-10.9176
経歴	-10.9176
警備	-10.9176
志願	-10.9177
書斎	-10.9177
街路	-10.9178
汽車	-10.9178
消防	-10.9178
予期	-10.9178
策略	-10.9178
旅行する	-10.9178
香料	-10.9178
接近	-10.9179
の者	-10.9179
を起こさせる	-10.9179
崩れ	-10.918
法規	-10.918
内臓	-10.918
としては	-10.9181
入浴	-10.9181
命題	-10.9182
曇り	-10.9184
下がり	-10.9184
指輪	-10.9186
のち	-10.9186
ドン	-10.9187
▁その男は	-10.9187
女房	-10.9189
▁のど	-10.9189
土砂	-10.919
基地	-10.919
の面	-10.9191
▁教	-10.9191
っています	-10.9192
90	-10.9193
学術	-10.9194
囲い	-10.9194
釮呂	-10.9194
局面	-10.9196
神聖な	-10.9197
動植物	-10.9197
間隔	-10.9199
労力	-10.9203
角度	-10.9204
気圧	-10.9205
がよくない	-10.9206
▁降	-10.9207
けい	-10.9207
▁文章	-10.9209
助力	-10.9209
平行	-10.921
血管	-10.9211
勝った	-10.9214
化した	-10.9217
さげ	-10.9219
▁ドア	-10.922
▁希望	-10.922
を造る	-10.9221
心理学	-10.9222
だけを	-10.9222
植え	-10.9224
実質	-10.9227
各地	-10.9227
遺憾	-10.9228
ために使う	-10.9229
ができない	-10.923
お金を	-10.9231
暖	-10.9232
▁略	-10.9233
豊かな	-10.9235
表紙	-10.9236
標本	-10.9236
相応	-10.9236
▁深く	-10.924
人の心	-10.9241
掛かる	-10.9242
生存	-10.9243
おきて	-10.9245
所属	-10.9246
品物を	-10.9247
通った	-10.9248
を合わせる	-10.9249
▁自己	-10.9249
生み	-10.925
怒	-10.9251
なぐり	-10.9251
頭から	-10.9251
警戒	-10.9251
ざん	-10.9251
あく	-10.9254
おおい	-10.9254
へん	-10.9257
▁植物の	-10.9257
すべきだ	-10.9257
冷たい	-10.9261
きき	-10.9261
やむ	-10.9265
▁世論	-10.9268
和子	-10.9269
すす	-10.9269
こわい	-10.9272
近所	-10.9274
▁演劇	-10.9277
木に	-10.9278
進め	-10.9279
私も	-10.9279
もなかった	-10.928
結局	-10.9281
擦れ	-10.9282
これで	-10.9282
尽	-10.9283
画面	-10.9286
組み立て	-10.9287
▁4	-10.929
あげること	-10.9291
ひく	-10.9296
消す	-10.9296
金で	-10.9297
はち	-10.93
▁殺人	-10.9302
対立	-10.9302
水で	-10.9303
ほかに	-10.9308
人相	-10.9309
が出ている	-10.931
消毒	-10.931
冬の	-10.9312
連中	-10.9312
休日	-10.9312
きく	-10.9313
快	-10.9313
潜	-10.9313
まめ	-10.9314
の前で	-10.9315
してもらう	-10.9318
大した	-10.9318
を営む	-10.9321
▁へい	-10.9321
▁心が	-10.9323
飲んで	-10.9323
▁権力	-10.9324
速い	-10.9326
抜	-10.9327
が高く	-10.933
▁貴	-10.9335
受信	-10.9337
浄	-10.934
一切	-10.934
軍事	-10.9341
を放つ	-10.9341
ねり	-10.9342
かび	-10.9342
▁飯	-10.9342
ヘビ	-10.9343
説教	-10.9344
▁消	-10.9344
適当な	-10.9344
日数	-10.9344
戒め	-10.9345
彼らに	-10.9346
逸	-10.9348
についた	-10.9349
蔵書	-10.9352
うっかり	-10.9356
スパイ	-10.9357
寺院	-10.9364
緩	-10.9367
くだらない	-10.9368
どういう	-10.9369
人種	-10.9369
繁	-10.937
▁どんなに	-10.9372
思った	-10.9373
を迎える	-10.9377
人生の	-10.9377
を十分に	-10.9384
▁工場	-10.9384
▁雨が	-10.9388
を許す	-10.9389
▁物価	-10.939
▁証拠	-10.939
▁離	-10.9391
いまから電話をかける	-10.9393
▁ええ	-10.9393
▁あちこち	-10.9398
結構です	-10.9399
わが	-10.94
ようとして	-10.9401
リング	-10.9401
▁規則	-10.9402
いって	-10.9405
車で	-10.9407
もらい	-10.9408
大勢	-10.9409
▁夕	-10.9409
考えること	-10.941
▁恋	-10.941
感ずること	-10.9411
民間	-10.9413
正確に	-10.9414
▁都	-10.9415
見方	-10.9416
地面に	-10.9417
無料	-10.9419
正面	-10.9422
秋に	-10.9422
小川	-10.9423
古代	-10.9426
かわからない	-10.9427
大量	-10.9428
の儀式	-10.9429
靴下	-10.943
を取り除く	-10.9431
さっぱり	-10.9431
▁彼女は私に	-10.9432
が広い	-10.9433
▁かく	-10.9438
様子だ	-10.9444
▁理	-10.9447
すぐに電話をかける	-10.9449
女王	-10.945
に合わせて	-10.9451
偉	-10.9451
そうして	-10.9454
年度	-10.9455
▁臨時	-10.9456
▁深い	-10.9459
▁計画	-10.9461
がわかる	-10.9462
囚	-10.9462
正体	-10.9465
雨で	-10.9467
の深い	-10.9467
▁海上	-10.9469
物事に	-10.947
任せ	-10.9471
に引き	-10.9471
ついていた	-10.9472
偽	-10.9475
から出る	-10.9475
将棋	-10.9477
キリスト教	-10.9477
はなれ	-10.9478
扱	-10.9479
▁経験	-10.9482
金品	-10.9483
▁ホ	-10.9486
器物	-10.9487
入れて	-10.9487
収益	-10.9487
集めること	-10.9489
取れ	-10.9491
女子	-10.9491
ふと	-10.9491
えさ	-10.9494
ごらん	-10.9497
ょ	-10.9497
分離	-10.9499
の最高	-10.9499
主権	-10.95
事故で	-10.9501
ll	-10.9501
音を立てて	-10.9503
望遠鏡	-10.9504
▁てい	-10.9504
なおす	-10.9506
可能性	-10.9507
めぐり	-10.9508
衰	-10.9509
らく	-10.9509
有利	-10.951
そこから	-10.9511
出来た	-10.9511
包帯	-10.9512
▁目的	-10.9512
クリ	-10.9515
おか	-10.9516
語り	-10.9519
を演ずる	-10.952
にやる	-10.952
かということ	-10.952
を与えた	-10.9524
出かけ	-10.9524
▁だれ	-10.9525
方角	-10.9525
証書	-10.9528
溶液	-10.9528
知らぬ	-10.9532
だということ	-10.9533
づき	-10.9534
大将	-10.9535
昨年	-10.9535
ッと	-10.9536
根は	-10.9536
▁お前	-10.9537
簿	-10.9538
論争	-10.9538
にしよう	-10.9538
藻	-10.9539
父母	-10.954
▁名声	-10.9541
メッセすぐに	-10.9542
よし	-10.9543
宜	-10.9543
愁	-10.9543
クラ	-10.9544
食器	-10.9544
妥協	-10.9544
岡	-10.9544
母の	-10.9545
杖	-10.9545
データ	-10.9545
寡	-10.9545
雌雄異株	-10.9545
栗	-10.9545
衝撃	-10.9545
餡	-10.9545
姫	-10.9545
ストーブ	-10.9545
澆	-10.9545
舞踊	-10.9545
蘭	-10.9545
かっこう	-10.9545
栄誉	-10.9545
急速に	-10.9545
輪郭	-10.9546
留守	-10.9546
ポンプ	-10.9546
封筒	-10.9546
見事な	-10.9546
鑑定	-10.9546
直ちに	-10.9547
いずれ	-10.9547
未熟	-10.9547
▁帆	-10.9547
恩恵	-10.9547
立派に	-10.9547
検討	-10.9547
と思います	-10.9547
▁この絵は	-10.9547
を認める	-10.9548
思案	-10.9548
解放	-10.9548
信念	-10.9549
過程	-10.9549
失望	-10.9549
怪しい	-10.9549
難儀	-10.955
ホン	-10.955
宗派	-10.9551
血統	-10.9551
判定	-10.9551
を満たす	-10.9551
素質	-10.9552
サイン	-10.9552
後悔	-10.9553
改めて	-10.9554
はずれる	-10.9555
楽曲	-10.9556
▁我々	-10.9556
容疑者	-10.9557
▁本当に	-10.9557
優先	-10.9558
を追う	-10.956
方法で	-10.956
格式	-10.9561
現われた	-10.9561
回路	-10.9562
かまわない	-10.9564
ある事柄	-10.9564
のあと	-10.9564
かという	-10.9565
絶対	-10.9565
引っ	-10.9565
生活費	-10.9566
はありません	-10.9566
▁傷	-10.9567
ぐち	-10.9567
広がる	-10.9567
すぎた	-10.9568
永久	-10.9569
魚を	-10.9569
辰討い	-10.9572
親類	-10.9574
知らせる	-10.9574
金具	-10.9575
▁老人	-10.9576
世代	-10.9576
つなぎ	-10.9577
直角	-10.9577
行われた	-10.9577
意向	-10.9578
市長	-10.9579
立つこと	-10.9579
代代	-10.9579
のですが	-10.958
者たち	-10.958
毛皮	-10.9581
格子	-10.9585
地区	-10.9585
規模	-10.9587
からとった	-10.9588
上級	-10.9588
ろりと	-10.959
点を	-10.9594
▁自転車	-10.9595
言わない	-10.9596
用いること	-10.9599
んだろう	-10.9599
達者	-10.9599
を抑える	-10.96
はいかがですか	-10.9601
の流れ	-10.9602
釣	-10.9603
つづ	-10.9606
胸が	-10.9607
二度	-10.9609
▁相撲で	-10.961
▁ほんの	-10.9612
作られた	-10.9614
場合には	-10.9614
はいけない	-10.9615
を共にする	-10.9618
▁受	-10.9619
心身	-10.9619
▁反対	-10.962
っ子	-10.9625
ちょっと電話する	-10.9625
にしておく	-10.9625
くない	-10.9629
が彼	-10.963
を通る	-10.9631
となるもの	-10.9634
意味を	-10.9635
▁既	-10.9636
住まい	-10.9637
▁すべて	-10.964
げんきかいの予約状況を	-10.9641
通っている	-10.9645
▁前もって	-10.9647
▁勘定	-10.965
ございます	-10.9653
限度	-10.9654
学校へ	-10.9654
家来	-10.9654
その本	-10.9655
に合わない	-10.9655
▁ああ	-10.966
▁最近	-10.9661
きざ	-10.9662
木製の	-10.9662
思いやり	-10.9662
子供の	-10.9663
党の	-10.9664
水平	-10.9665
▁一番	-10.9668
行け	-10.9668
▁ごく	-10.9671
決めること	-10.9671
個の	-10.9675
▁違う	-10.9675
わび	-10.9675
さめ	-10.9676
それより	-10.9678
で買う	-10.9678
あけた	-10.9681
はある	-10.9681
さば	-10.9685
▁電車	-10.9687
ばかりだ	-10.9688
使える	-10.9689
困難な	-10.9691
時節	-10.9694
呼んで	-10.9695
▁立	-10.9696
決めた	-10.9707
安楽	-10.9707
ものもある	-10.971
しゅ	-10.9711
日本では	-10.9711
誰	-10.9713
こけ	-10.9714
仕方がない	-10.9714
を唱える	-10.9715
ぶらぶら	-10.9717
打者	-10.9722
心配事	-10.9723
気力	-10.9724
▁荷物	-10.9729
口が	-10.9731
ようだった	-10.9735
度合	-10.9736
の品	-10.9736
▁あの人	-10.9737
て作った	-10.9738
用品	-10.9742
立候補	-10.9742
▁遠く	-10.9748
は皆	-10.9749
すえ	-10.9749
先生の	-10.975
労働組合	-10.975
▁月の	-10.9752
重ね	-10.9752
注射	-10.9755
▁読書	-10.9755
本を読む	-10.9757
▁蚊	-10.9758
を下す	-10.9759
るほど	-10.976
解決する	-10.9762
の女性	-10.9762
▁一体	-10.9765
▁空腹	-10.9767
で死ぬ	-10.9768
詳しく	-10.9768
握り	-10.9768
▁仕	-10.9769
スミス	-10.9771
両方	-10.9771
疑問	-10.9772
の席	-10.9773
ミサイル	-10.9774
大部分	-10.9777
碁	-10.9779
憲法	-10.978
悪魔	-10.9782
医療	-10.9783
奏者	-10.9785
大分	-10.9786
くみ	-10.9787
ではないが	-10.979
かめ	-10.979
猿	-10.9791
▁水が	-10.9792
染める	-10.9793
はん	-10.9794
水泳	-10.9795
▁浅	-10.9796
その事	-10.9796
家から	-10.9797
▁会議	-10.98
が少し	-10.9801
どん	-10.9802
馬の	-10.9803
▁彼は英語	-10.9803
多分	-10.9804
こともある	-10.9807
増し	-10.9809
アル	-10.981
in	-10.9811
中です	-10.9813
立てること	-10.9816
輩	-10.9819
▁結局	-10.9824
いい加減	-10.9826
開ける	-10.983
あがる	-10.9832
▁S	-10.9835
全国	-10.9835
恐	-10.9835
を向ける	-10.984
心は	-10.9842
飽	-10.9842
採用	-10.9843
説明する	-10.9843
煩	-10.9843
▁現在の	-10.9845
聖人	-10.9846
帳簿	-10.9852
比例	-10.9852
▁民間	-10.9852
動かない	-10.9853
光る	-10.9853
っちり	-10.9853
▁世の中	-10.9854
与えること	-10.9855
囚人	-10.9855
が低い	-10.9858
砕	-10.9859
話は	-10.986
聞いた	-10.9862
選び	-10.9863
▁景気	-10.9864
▁野球	-10.9864
アウト	-10.9866
倒れる	-10.9866
▁明るい	-10.9866
ままに	-10.9867
にすぎない	-10.9867
はしばしば	-10.9869
ルート	-10.9871
どうか	-10.9872
▁飛び	-10.9872
ものとして	-10.9876
▁衣服	-10.9877
滞在	-10.988
▁鶏	-10.9881
をもらう	-10.9881
が集まって	-10.9882
パイプ	-10.9882
慣れ	-10.9884
人人の	-10.9884
ありがとう	-10.9886
攻	-10.9887
まじめ	-10.9888
方へ	-10.9889
で使う	-10.989
体系	-10.9891
古くから	-10.9894
地位に	-10.9895
▁多数の	-10.9895
けん	-10.9899
珠	-10.99
地中に	-10.99
▁訴訟	-10.99
それだけ	-10.99
酒を飲む	-10.9901
のほか	-10.9903
のほう	-10.9903
火災	-10.9903
磨	-10.9904
背中	-10.9906
耕	-10.9907
▁群	-10.9908
の型	-10.9909
一人の	-10.9909
をもたらす	-10.991
そっくり	-10.9911
込んでいる	-10.9912
フライ	-10.9912
外側	-10.9912
経過	-10.9913
すごく	-10.9913
消費	-10.9914
それをする	-10.9916
忠	-10.9916
用いられる	-10.9917
許し	-10.9917
技芸	-10.9918
けれど	-10.992
争う	-10.992
▁遊び	-10.9921
違	-10.9922
歌舞伎	-10.9924
爵	-10.9924
閲	-10.9926
機械の	-10.9926
まとまった	-10.9926
秀	-10.9927
曹	-10.9928
裕子	-10.9928
免許	-10.9928
を使い	-10.9928
久美子	-10.9929
渦	-10.9929
捕虜	-10.9929
崇拝	-10.993
はいけません	-10.993
姉妹	-10.993
桁	-10.993
釘	-10.993
紹介	-10.993
ダイヤモンド	-10.993
陵	-10.993
ウサギ	-10.993
デザイン	-10.993
繋	-10.993
凌	-10.993
悗	-10.993
皇后	-10.993
脅迫	-10.993
の異称	-10.993
サイズ	-10.993
四つ	-10.993
スペイン	-10.993
庶民	-10.993
修繕	-10.993
タイム	-10.9931
多量の	-10.9931
当事者	-10.9931
にかなう	-10.9931
議決	-10.9931
由美子さん	-10.9932
達也さん	-10.9932
に比べて	-10.9932
三郎さん	-10.9932
民主主義	-10.9932
突起	-10.9932
豆腐	-10.9933
せて	-10.9933
ブル	-10.9933
によらず	-10.9934
育つ	-10.9934
うそをつく	-10.9935
原始	-10.9936
衆生	-10.9937
があります	-10.9937
撃ち	-10.9937
産卵	-10.9938
よりどころ	-10.9938
それ以上	-10.9938
交代	-10.9939
誓う	-10.9941
近ごろ	-10.9941
風刺	-10.9942
日付	-10.9943
遊ぶ	-10.9944
▁はしご	-10.9944
▁びん	-10.9944
こぶし	-10.9944
身振り	-10.9944
無駄	-10.9945
体格	-10.9946
占領	-10.9947
薬剤	-10.9949
伝言	-10.995
特色	-10.995
解剖	-10.9951
▁りょう	-10.9956
寝室	-10.9957
恵子	-10.9958
それをした	-10.9958
きまった	-10.9959
ドイツ語	-10.9961
年ごろ	-10.9962
固い	-10.9963
刺し	-10.9963
図形	-10.9964
目方	-10.9965
ということは	-10.9966
ことができた	-10.9966
▁独り	-10.9967
▁流れ	-10.9968
ああ	-10.9968
決して	-10.9968
▁今の	-10.9971
▁金を	-10.9972
有利な	-10.9977
眠っている	-10.9978
湿気	-10.998
境地	-10.9982
専用	-10.9985
奇妙な	-10.9986
に出ている	-10.9989
をいだく	-10.9989
はみな	-10.9995
その日	-10.9995
によって起こる	-10.9995
頭部	-10.9997
ばな	-10.9998
主要な	-11.0001
本位	-11.0001
親切な	-11.0002
見ると	-11.0003
と言い	-11.0003
疲れた	-11.0004
▁どうして	-11.0004
を下げる	-11.0006
致しま	-11.0006
ことば	-11.0007
飾	-11.0007
歳の	-11.0009
並べて	-11.0013
どのように	-11.0013
伝わる	-11.0015
べた	-11.002
通ずる	-11.0021
が悪いこと	-11.0022
を書いた	-11.0023
怒る	-11.0024
▁水中	-11.0024
水に	-11.0025
▁情	-11.003
▁病人	-11.003
▁投	-11.003
農家	-11.003
犬を	-11.0031
の間を	-11.0032
▁その問題は	-11.0032
▁使い	-11.0032
彼女が	-11.0033
そうなる	-11.0035
時々	-11.0037
診断	-11.0038
物事をする	-11.0039
続けた	-11.0039
輸入	-11.004
▁ローマ	-11.0041
親子	-11.0042
▁神の	-11.0043
花火	-11.0043
知れない	-11.0049
▁夜間	-11.005
▁仲	-11.0051
除け	-11.0053
行ける	-11.0054
いじ	-11.0054
どっと	-11.0054
の部屋	-11.0055
青色	-11.0056
神の	-11.0059
降りる	-11.006
めく	-11.0061
を得て	-11.0061
きび	-11.0061
個個の	-11.0063
商品を	-11.0065
形を	-11.0069
▁麻	-11.0069
年末	-11.007
かたち	-11.0071
しも	-11.0072
▁紅	-11.0076
抱え	-11.0078
▁それでは	-11.008
じきに	-11.0081
向かう	-11.0081
たちまち	-11.0085
かなかった	-11.0087
くし	-11.0088
礼服	-11.0089
▁土地の	-11.009
▁彼はそれを	-11.009
て下さい	-11.0091
かおり	-11.0091
書面	-11.0092
学年	-11.0092
紅色	-11.0093
▁正直	-11.0094
▁切	-11.0095
こむこと	-11.0097
月の	-11.0098
生きる	-11.01
宴	-11.0101
とりで	-11.0101
女中	-11.0104
▁一時	-11.0104
に応じる	-11.0106
じま	-11.0107
休む	-11.0108
にかかっている	-11.0108
は一	-11.0111
重み	-11.0114
▁向こう	-11.0115
▁馬の	-11.0115
っちゃ	-11.0117
攻撃する	-11.0123
▁城	-11.0126
のうちで	-11.0128
トレ	-11.0128
知性	-11.0129
電球	-11.013
の時に	-11.0133
しまって	-11.0133
探	-11.0133
▁モ	-11.0135
のあるもの	-11.0139
などのために	-11.0139
つば	-11.014
の外	-11.0142
ここで	-11.0142
冒険	-11.0143
一座	-11.0143
▁豆	-11.0144
とめること	-11.015
▁議会	-11.015
塗った	-11.0151
▁広く	-11.0151
▁インフレ	-11.0152
を敷く	-11.0152
候補	-11.0153
を傷つける	-11.0154
にあり	-11.0155
受け取る	-11.0155
薬を	-11.0156
年金	-11.0157
▁空中	-11.0157
り込む	-11.0157
▁彼は今	-11.0159
いで	-11.0159
を忘れ	-11.0159
極めて	-11.0159
ようになっている	-11.016
鋼鉄	-11.016
▁長期	-11.0164
有毒	-11.0165
に終わる	-11.0166
の一番	-11.0168
I	-11.017
快楽	-11.0171
連れて	-11.0173
土を	-11.0173
の頭	-11.0174
は私に	-11.0175
欲しい	-11.0175
▁りんご	-11.0177
すね	-11.0178
▁地下	-11.0178
を離れて	-11.0181
だま	-11.0183
煮え	-11.0185
マス	-11.0186
だれか	-11.0186
英語の	-11.0186
あだ	-11.0187
見当	-11.0188
吸	-11.019
補助	-11.019
ダイ	-11.019
強硬	-11.019
奉仕	-11.0194
▁恐怖	-11.0194
▁この種の	-11.0194
一般の	-11.0197
ヘ	-11.0198
の三	-11.0201
動力	-11.0203
納得	-11.0203
誠	-11.0204
闇	-11.0205
に着いた	-11.0205
▁給料	-11.0211
気風	-11.0215
森林	-11.0215
軍艦	-11.0217
可	-11.0217
悪いこと	-11.0219
競馬	-11.022
えている	-11.0221
グラフ	-11.0221
固体	-11.0222
がっている	-11.0222
お父さん	-11.0222
自分に	-11.0223
じゃま	-11.0224
品を	-11.0225
藤	-11.0226
二つ以上の	-11.0227
出さない	-11.0227
記念	-11.0227
買って	-11.0227
つぶし	-11.0228
の出	-11.023
心臓	-11.023
乗客	-11.0231
吉	-11.0234
かたい	-11.0239
面に	-11.0239
申し込み	-11.0239
▁彼は彼女に	-11.0242
を捜す	-11.0243
人類	-11.0243
用に	-11.0245
▁大衆	-11.0246
▁夕方	-11.0246
おさめ	-11.025
やけ	-11.025
まらない	-11.0251
一方の	-11.0256
中国で	-11.0256
振る	-11.0257
植える	-11.0257
建てた	-11.0261
▁貸し	-11.0264
▁あれは	-11.0264
見えた	-11.0265
分けること	-11.0265
酸化	-11.0265
選択	-11.0269
慕	-11.0271
認める	-11.0276
▁何となく	-11.0276
水中	-11.0276
三十	-11.0276
言い分	-11.0277
に満ちた	-11.0277
▁従	-11.0277
一人で	-11.0279
添	-11.0281
しそう	-11.0282
ップ	-11.0283
その人の	-11.0284
美しいこと	-11.0284
▁盛	-11.0288
ーン	-11.0288
▁たとえ	-11.0288
んでいた	-11.0289
な話	-11.0289
ビー	-11.0291
踊る	-11.0293
の準備	-11.0296
あとから	-11.0298
ウイルス	-11.03
▁割	-11.03
▁書物の	-11.0303
ないでください	-11.0303
速さ	-11.0305
▁逃げ	-11.0305
磁	-11.0306
災	-11.0306
醜	-11.0307
維持	-11.0309
手前	-11.031
演奏する	-11.0313
良心	-11.0313
頼り	-11.0314
状態で	-11.0317
▁偶然	-11.0318
五十	-11.0318
収集	-11.0318
かせ	-11.0319
締まった	-11.0319
▁町の	-11.032
洞	-11.032
軌	-11.032
敏	-11.032
節約	-11.0323
ェ	-11.0323
引用	-11.0324
煮た	-11.0325
に思う	-11.0325
糧	-11.0325
芳香	-11.0325
惜	-11.0326
▁ちょっと電話する	-11.0326
久	-11.0326
るために	-11.0326
ようにすること	-11.0326
撮影	-11.0327
燐	-11.0327
ッシュ	-11.0328
▁for	-11.0328
瞭	-11.0328
希	-11.0328
蓮	-11.0328
目的地	-11.0328
廃止	-11.0329
繩	-11.0329
▁晩	-11.0329
監視	-11.0329
旬	-11.0329
どうしても	-11.033
笠	-11.033
資源	-11.033
蛾	-11.033
椶	-11.033
遍	-11.033
宵	-11.033
動揺	-11.033
北海道	-11.033
柿	-11.033
桶	-11.033
颪	-11.033
鮓	-11.033
ふち	-11.033
散らす	-11.033
の持ち主	-11.0331
領域	-11.0331
を伴う	-11.0331
漢方薬	-11.0331
叩き	-11.0331
警告	-11.0331
だれが	-11.0332
接触	-11.0332
渡辺	-11.0332
徹底的に	-11.0332
討議	-11.0332
超過	-11.0332
直径	-11.0332
登録	-11.0332
ヒット	-11.0332
カラー	-11.0333
往来	-11.0334
弁舌	-11.0334
付近	-11.0335
を有する	-11.0335
炭素	-11.0335
石けん	-11.0336
運営	-11.0336
やわらかい	-11.0336
を奪う	-11.0336
戻す	-11.0336
変化する	-11.0336
茶わん	-11.0337
▁車は	-11.0342
たての	-11.0345
▁甲	-11.0345
自治	-11.0346
出勤	-11.0346
を固める	-11.0346
飲んだ	-11.0346
上位	-11.0347
外観	-11.0347
を伸ばす	-11.0348
雇用	-11.0349
▁この車は	-11.035
会談	-11.0351
▁実験	-11.0352
磁石	-11.0354
街道	-11.0355
とった	-11.0356
正確な	-11.0356
情熱	-11.0358
赤ちゃん	-11.0359
延べ	-11.0359
▁ハイ	-11.0359
客に	-11.0359
質量	-11.0359
を聞いた	-11.036
またその人	-11.036
仕上げる	-11.036
代表的な	-11.0361
馴れ	-11.0361
切れる	-11.0363
それをする人	-11.0364
に答える	-11.0367
はじめて	-11.0368
台風	-11.0368
が同じ	-11.0369
入りの	-11.0369
刻み	-11.0371
相違	-11.0372
焦げ	-11.0372
ものはない	-11.0373
山林	-11.0377
フランス	-11.0377
骨折り	-11.038
▁国家の	-11.0382
落葉	-11.0384
出てきた	-11.0385
洗礼	-11.0385
大使	-11.0388
名称	-11.0388
地所	-11.0388
に入れ	-11.0388
ついに	-11.0389
おうと	-11.039
割引	-11.039
なくても	-11.0391
現世	-11.0393
生計	-11.0394
▁人民	-11.0395
みつ	-11.0395
取り上げる	-11.0397
馬車	-11.0397
麻薬	-11.0398
臭気	-11.04
巧みな	-11.0403
▁高い	-11.0405
並んで	-11.0407
▁人工	-11.0408
を作って	-11.041
▁うまく	-11.0412
中から	-11.0412
栽培する	-11.0413
を支配する	-11.0414
▁わき	-11.0417
ぐっと	-11.042
を増す	-11.042
リスト	-11.042
▁独	-11.042
▁ポ	-11.0421
ばかな	-11.0422
▁乗り	-11.0423
とされる	-11.0423
に多く	-11.0424
に訴える	-11.0427
のしかた	-11.0427
いかない	-11.043
▁可	-11.0433
▁医者	-11.0434
ファン	-11.0434
巧みに	-11.0436
▁競	-11.0438
ぐさ	-11.044
▁ブ	-11.0442
の第	-11.0442
長官	-11.0446
土地を	-11.0446
を寄せる	-11.0446
の病気	-11.0447
マイ	-11.0447
二十	-11.0447
金の	-11.0452
周囲に	-11.0453
▁大勢	-11.0455
精神的	-11.0459
▁熟	-11.0463
▁しゅ	-11.0464
▁賃金	-11.0466
▁折	-11.0469
▁新たに	-11.0469
は非常に	-11.0473
正式に	-11.0473
法定	-11.0474
を組む	-11.0476
▁おお	-11.0477
意地悪	-11.048
添え	-11.0481
支払う	-11.0485
▁トランプ	-11.0486
▁飛行機	-11.0489
一歩	-11.0489
関数	-11.049
まっすぐ	-11.049
お母	-11.0491
去った	-11.0492
直接に	-11.0495
へりくだって言う語	-11.0495
香気	-11.0497
するもの	-11.0502
うる	-11.0503
してくれる	-11.0503
はお	-11.0504
もとになる	-11.0504
だと思う	-11.0509
を買って	-11.0509
すら	-11.051
▁博	-11.0511
追放	-11.0512
伸びる	-11.0518
登	-11.0519
に従事する	-11.052
たたく	-11.052
乗り物	-11.0521
▁掛け	-11.0521
作ったもの	-11.0522
立ち去る	-11.0523
昇進	-11.0523
会った	-11.0525
服従	-11.0525
ものであること	-11.0526
議事	-11.053
剥	-11.0532
てやる	-11.0533
▁裁判	-11.0539
押して	-11.0539
▁猛	-11.054
先が	-11.054
ふさが	-11.0541
ところを	-11.0542
▁島	-11.0543
くさい	-11.0548
窓から	-11.0549
間に合う	-11.0549
等しい	-11.0551
ように見える	-11.0552
うんざり	-11.0557
覚えている	-11.0557
煮る	-11.0559
呼	-11.0565
斜面	-11.0566
▁近代	-11.0568
地下	-11.0569
の形式	-11.057
報い	-11.057
と思っていた	-11.0571
動脈	-11.0571
▁速	-11.0573
誘惑	-11.0575
バイ	-11.0576
似た	-11.0577
を振る	-11.0577
▁ユ	-11.0579
はだめだ	-11.0583
の意見	-11.0585
我々を	-11.0587
▁ぶどう	-11.0588
まち	-11.0589
要点	-11.0592
▁水上	-11.0593
▁夏の	-11.0595
▁実際の	-11.0596
▁プロ	-11.0598
25	-11.0599
再生	-11.0599
▁国会	-11.0602
▁わが国	-11.0604
▁川の	-11.0604
▁標準	-11.0605
を隠す	-11.0605
ケアマネージャさん	-11.0605
▁悲しみ	-11.0606
▁軍事	-11.0606
ことには	-11.0609
変わらない	-11.0611
このごろ	-11.0612
▁幼	-11.0613
▁はっきりと	-11.0614
キリスト	-11.0617
▁返	-11.0617
共同	-11.0618
ためしに	-11.0619
依頼	-11.0619
下り	-11.062
ばかりで	-11.062
さまざま	-11.0621
たまった	-11.0622
▁堅	-11.0622
▁葉	-11.0623
そく	-11.0631
▁羽	-11.0633
償	-11.0634
かわい	-11.0635
▁英語の	-11.0637
を忘れる	-11.0638
▁全体	-11.064
▁沈	-11.0641
タイプ	-11.0641
を持たない	-11.0641
を見つける	-11.0643
わずかな	-11.0643
並べた	-11.0644
小道	-11.0645
守ること	-11.0645
誕生日	-11.0645
礼拝	-11.0646
に働く	-11.0649
▁上着	-11.0649
浜	-11.065
▁古代	-11.065
ある人	-11.0653
粗末な	-11.0656
膝	-11.0657
▁机	-11.0659
危	-11.0659
▁すぐに電話する	-11.0659
礼儀	-11.066
ちょうどよい	-11.066
貧困	-11.066
対抗	-11.0661
を詰める	-11.0663
禅	-11.0665
お世辞	-11.0665
▁商品	-11.0666
昼食	-11.0666
an	-11.0666
仙	-11.0667
総合	-11.0667
▁何の	-11.0667
規	-11.0669
生える	-11.067
恋愛	-11.0671
巨	-11.0671
飾る	-11.0671
▁ほかの	-11.0671
文芸	-11.0673
隔	-11.0675
暴力	-11.068
発生する	-11.0682
透	-11.0683
ひ孫	-11.0685
舞い	-11.0685
▁猫は	-11.0685
気づか	-11.0685
▁準	-11.0689
出世	-11.069
▁彼は病気	-11.069
金を使う	-11.0691
用事	-11.0692
▁食糧	-11.0693
数の	-11.0695
複雑	-11.0696
▁からだ	-11.0697
刑事	-11.0697
合併	-11.0698
つくった	-11.0699
▁貧	-11.0699
をあけて	-11.0699
万物	-11.07
蒸気	-11.0701
スキー	-11.0701
ぶつ	-11.0702
▁すべての	-11.0704
っていった	-11.0706
借りた	-11.0708
賛	-11.0708
許す	-11.0709
っていく	-11.0709
を貸す	-11.0713
の建物	-11.0713
制服	-11.0716
▁まったくの	-11.0716
長所	-11.0718
何度も	-11.0719
続け	-11.0719
▁値段	-11.0719
▁人種	-11.0721
巻く	-11.0721
ジャ	-11.0724
▁信用	-11.0725
拠	-11.0726
▁魔	-11.0728
儒	-11.073
うわべ	-11.0731
▁あの人の	-11.0731
▁me	-11.0731
の中には	-11.0731
▁フランス	-11.0734
あな	-11.0734
なくてはならない	-11.0734
一文	-11.0735
のではない	-11.0736
村上	-11.0736
なしで	-11.0736
死を	-11.0738
▁竜	-11.0738
偶	-11.0738
▁it	-11.0738
団結	-11.074
河川	-11.074
僚	-11.074
鑑	-11.074
由	-11.074
兆	-11.0741
模範	-11.0742
括	-11.0743
江	-11.0743
の成績	-11.0743
死体	-11.0743
邸	-11.0744
サラダ	-11.0745
伝えること	-11.0745
側面	-11.0745
誌	-11.0746
石灰	-11.0746
開始	-11.0746
櫃	-11.0746
適応	-11.0746
詐欺	-11.0746
疑わしい	-11.0746
督	-11.0747
佳	-11.0747
にもかかわらず	-11.0747
ゾ	-11.0747
嵐	-11.0747
鷲	-11.0747
屑	-11.0747
唾	-11.0747
鮗	-11.0747
せっけん	-11.0747
落ち着かない	-11.0747
余裕	-11.0747
広がり	-11.0747
採決	-11.0748
思慮	-11.0748
移植	-11.0748
供養	-11.0748
土壌	-11.0748
拒絶	-11.0748
冷却	-11.0748
審理	-11.0748
▁手紙を	-11.0748
プール	-11.0748
麻酔	-11.0749
起訴	-11.0749
を高める	-11.0749
諸島	-11.075
陣営	-11.075
ダム	-11.075
詳しい	-11.075
ならわし	-11.075
弁当	-11.075
談判	-11.075
セ氏	-11.075
感想	-11.0751
定まった	-11.0753
推論	-11.0753
追跡	-11.0753
配給	-11.0754
まともに	-11.0754
までの間	-11.0755
▁相撲	-11.0755
指示	-11.0755
科の鳥	-11.0755
修正	-11.0755
色彩	-11.0756
ペンス	-11.0756
何時間も	-11.0757
れんが	-11.0757
共有	-11.0757
▁ろう	-11.0757
画像	-11.0758
祖先	-11.0758
▁借金	-11.0758
けれども	-11.0758
働いている	-11.0758
天地	-11.076
を振るう	-11.0761
一心に	-11.0762
▁液体	-11.0763
善悪	-11.0764
中国原産	-11.0765
▁笑い	-11.0765
自在	-11.0765
どうやって	-11.0766
金は	-11.0766
奥さん	-11.0767
▁干	-11.0767
設ける	-11.0767
気象	-11.0769
校長	-11.0772
直美	-11.0772
は彼が	-11.0773
毛布	-11.0776
一気に	-11.0778
▁張り	-11.0779
やってくる	-11.078
氏名	-11.0781
どうした	-11.0781
早春	-11.0784
外国人	-11.0785
料理屋	-11.0785
なぜ	-11.0786
は我々	-11.0787
に乏しい	-11.0788
重なる	-11.0789
親しい	-11.0789
▁壁に	-11.079
かぎり	-11.079
を過ごす	-11.0793
に向けて	-11.0793
ねらい	-11.0794
パス	-11.0795
一族	-11.0795
▁男の	-11.0795
▁やっと	-11.0799
食べて	-11.0801
▁いまから電話かける	-11.0802
破り	-11.0802
交差	-11.0803
責め	-11.0803
スク	-11.0804
子孫	-11.0804
▁観	-11.0806
を犯す	-11.0806
あける	-11.0807
こな	-11.0807
木の枝	-11.0809
▁拝	-11.0809
音を立てる	-11.081
▁強い	-11.0811
酸性	-11.0811
▁子供を	-11.0813
存する	-11.0814
▁次	-11.0815
巻いた	-11.0816
用法	-11.0818
代わりに	-11.0818
落とした	-11.0819
▁海外	-11.0821
出ている	-11.0822
すわった	-11.0825
大事に	-11.0825
になるもの	-11.0828
の一人	-11.0828
▁以前	-11.0829
▁二つ以上の	-11.083
▁キリスト教	-11.0831
発車	-11.0831
▁機会	-11.0833
両面	-11.0835
だけだった	-11.0835
退く	-11.0837
た人	-11.0837
▁早く	-11.0839
成り	-11.084
専門家	-11.0842
▁市場	-11.0843
ご親切	-11.0843
やってみ	-11.0844
子供が	-11.0845
▁この仕事は	-11.0845
ar	-11.0846
遠くまで	-11.0851
テレビで	-11.0855
の少ない	-11.0855
公正	-11.0857
返る	-11.0857
の布	-11.0858
ざる	-11.0858
すわり	-11.086
するだろう	-11.0861
とかく	-11.0863
肉体	-11.0863
▁恵	-11.0863
飲み物	-11.0864
回って	-11.0867
▁彼らが	-11.0867
ガン	-11.0868
▁その計画は	-11.0869
もく	-11.0871
ーション	-11.0874
流す	-11.0875
を消す	-11.0875
国民の	-11.0875
▁人気	-11.0877
いまから電話する	-11.0878
は君	-11.0879
太く	-11.088
所がある	-11.0881
▁奉	-11.0882
去ること	-11.0885
定めること	-11.0885
口調で	-11.0885
締	-11.0885
▁全部	-11.0889
合金	-11.0892
ぬけ	-11.0894
当地	-11.0894
側に	-11.0896
全面	-11.0896
は必ず	-11.0897
学校で	-11.0898
▁そいつは	-11.0899
そこまで	-11.0899
できません	-11.09
▁売	-11.09
▁天皇が	-11.09
▁踏み	-11.0901
▁あす	-11.0903
アン	-11.0903
▁汗	-11.0904
▁水泳	-11.0905
▁食卓	-11.0906
は私には	-11.0907
帰って	-11.0907
字形	-11.0909
を置いて	-11.091
差し出す	-11.0912
をひどく	-11.0912
暗やみ	-11.0913
つかない	-11.0913
▁子供の	-11.0913
割合	-11.0916
▁年の	-11.0922
▁費用	-11.0925
きたない	-11.0926
▁本を	-11.0926
を言い	-11.0927
▁君たち	-11.0927
れていた	-11.0931
太り	-11.0932
を覆う	-11.0934
しています	-11.0935
▁風は	-11.0938
メッセをちょっと	-11.0938
▁中国の	-11.0944
純粋	-11.0944
大体の	-11.0944
ほし	-11.0946
を聞き	-11.0946
停車	-11.0948
▁食事	-11.0948
▁筋肉	-11.095
▁飛	-11.0952
新年	-11.0952
勇さん	-11.0952
家で	-11.0953
に耐える	-11.0954
が激しく	-11.0955
対等	-11.0956
ずり	-11.0956
アメリカ人	-11.0961
憲	-11.0963
いれる	-11.0963
故	-11.0964
ひた	-11.0964
ってくれ	-11.0965
受け入れる	-11.0965
あえ	-11.0965
すぐに電話する	-11.0969
いすに	-11.0971
▁いまから電話をかける	-11.0973
遇	-11.0973
腫	-11.0974
社会主義	-11.0984
の妻	-11.0986
▁勢い	-11.099
を伝える	-11.0992
▁助	-11.0997
安く	-11.0997
魚の	-11.0998
狭く	-11.0998
目下	-11.1002
千人	-11.1003
▁中央	-11.1005
▁ボ	-11.1006
に直接	-11.1008
を言った	-11.1012
ものを言う	-11.1013
もって	-11.1014
近づく	-11.1014
真の	-11.1015
▁産	-11.1019
▁会員	-11.1022
▁そんなことは	-11.1025
離れた	-11.1026
▁順序	-11.1026
注目	-11.1027
品位	-11.1028
務め	-11.103
▁ある人	-11.103
抜け出	-11.1031
の身	-11.1034
枯	-11.1036
意を表す	-11.1037
▁ほう	-11.1037
喜	-11.1038
がいる	-11.1039
されていない	-11.104
学ぶ	-11.1042
焼いて	-11.1043
▁だれかが	-11.1044
断わる	-11.1045
をもった	-11.1047
毛織物	-11.1049
―	-11.1052
▁推	-11.1053
争うこと	-11.1053
かけら	-11.1053
たって	-11.1053
▁雪が	-11.1053
ボートを	-11.1057
おち	-11.1057
腕に	-11.1061
レン	-11.1062
直すこと	-11.1063
▁□・	-11.1065
いか	-11.1065
▁強く	-11.1067
苦心	-11.1071
顧	-11.1074
▁うそ	-11.1075
チン	-11.1079
本来の	-11.1081
他国	-11.1082
学説	-11.1084
▁うわさ	-11.1085
▁林	-11.1086
調節	-11.1086
間を	-11.1087
フィ	-11.1088
▁時計を	-11.109
頼	-11.1094
▁ペン	-11.1095
にふさわしい	-11.1095
求める	-11.1095
痛む	-11.1096
遅く	-11.1099
テレビの	-11.1099
図書	-11.1099
▁皇	-11.1101
に当たった	-11.1101
を始めた	-11.1104
▁フォ	-11.1105
▁カーテン	-11.1105
ぜいたく	-11.1106
at	-11.1106
気持が	-11.1107
▁手紙の	-11.1108
工作	-11.1109
すべり	-11.1109
を振り	-11.1113
これが	-11.1115
▁嫁	-11.1115
▁三角	-11.1116
を催す	-11.1116
光の	-11.1121
三人	-11.1121
ずること	-11.1125
家事	-11.1125
▁鉛筆	-11.1126
指で	-11.1127
の法則	-11.1128
わずかの	-11.1129
初期	-11.1129
硬	-11.1132
を引き起こす	-11.1133
統計	-11.1133
お辞儀	-11.1133
▁ねじ	-11.1134
楽に	-11.1134
▁特別に	-11.1135
賞賛	-11.1136
充	-11.1137
故郷	-11.1138
民衆	-11.1138
弁解	-11.1138
▁金属	-11.1139
の高さ	-11.1139
▁照	-11.114
担当	-11.114
学期	-11.114
トンネル	-11.1141
▁大声で	-11.1141
多いこと	-11.1141
返り	-11.1144
▁休暇	-11.1144
頬	-11.1144
電信	-11.1144
をしない	-11.1145
拙	-11.1145
傍	-11.1145
井戸	-11.1146
▁酒を	-11.1147
うそつき	-11.1148
役割	-11.115
りょう	-11.1154
患	-11.1155
陸軍	-11.1155
▁不思議な	-11.1156
仏像	-11.1158
遅刻	-11.1158
異議	-11.1158
まっている	-11.1159
漆	-11.1161
川の	-11.1162
就	-11.1163
▁重い	-11.1164
に見	-11.1164
寿	-11.1164
▁捨て	-11.1164
を大きく	-11.1165
一生懸命	-11.1165
世に	-11.1166
社会の	-11.1166
を表す語	-11.1166
▁相手に	-11.1166
▁伝	-11.1167
▁少年	-11.1167
巾	-11.1169
パーティーに	-11.1169
及	-11.117
架	-11.117
もてなす	-11.1172
謡	-11.1172
援	-11.1173
▁列	-11.1173
みせ	-11.1173
教室	-11.1174
釈	-11.1174
規準	-11.1175
ヨット	-11.1175
為替	-11.1176
告げ	-11.1177
改良	-11.1179
頻	-11.1179
意思	-11.1179
己	-11.118
諾	-11.118
辱	-11.118
省略	-11.1181
篤	-11.1181
かかっている	-11.1181
糊	-11.1181
蟻	-11.1181
鮨	-11.1181
焦点	-11.1181
オランダ	-11.1181
ジョーンズ	-11.1181
ヲ	-11.1181
に適した	-11.1181
撫	-11.1181
センター	-11.1181
疲労	-11.1181
茶碗	-11.1181
配偶者	-11.1181
宣誓	-11.1182
こつこつ	-11.1182
俸給	-11.1182
プログラム	-11.1182
稽古	-11.1182
ぼろぼろ	-11.1182
暖房	-11.1182
企画	-11.1182
開閉	-11.1182
やかましい	-11.1183
起伏	-11.1183
感染	-11.1183
ダブル	-11.1183
チュ	-11.1183
ジャック	-11.1183
1000	-11.1183
返答	-11.1183
法人	-11.1184
住居	-11.1184
融通	-11.1184
迷信	-11.1184
助かる	-11.1184
弦楽器	-11.1184
ほほえみ	-11.1184
水晶	-11.1184
孝行	-11.1184
宮殿	-11.1184
給仕	-11.1184
肺炎	-11.1184
羽織	-11.1184
バンド	-11.1184
航路	-11.1185
しきたり	-11.1185
敗北	-11.1185
暴風雨	-11.1185
たいへん	-11.1185
わがまま	-11.1185
測量	-11.1186
講師	-11.1186
すぐに電話かける	-11.1186
に基づく	-11.1186
英語を話す	-11.1186
あわてて	-11.1186
学識	-11.1187
の祝い	-11.1187
牧師	-11.1187
道ばた	-11.1188
旅館	-11.1189
別称	-11.119
女優	-11.119
▁兄	-11.1191
握手	-11.1191
熱狂	-11.1191
およそ	-11.1191
すこし	-11.1191
警報	-11.1191
にせ	-11.1192
寂しい	-11.1194
特性	-11.1194
▁頭を	-11.1195
樹皮	-11.1195
を離れる	-11.1196
うちわ	-11.1196
南部	-11.1197
領地	-11.1198
▁精神的	-11.1198
面から	-11.1199
艦船	-11.12
複数	-11.12
んぼ	-11.1201
▁私は彼に	-11.1201
うまくいった	-11.1201
微妙な	-11.1201
神秘	-11.1202
退職	-11.1203
の命令	-11.1204
判事	-11.1207
化石	-11.1208
高等	-11.121
大切	-11.1211
小銃	-11.1211
好機	-11.1212
▁陸軍	-11.1213
まじり	-11.1213
二階	-11.1214
万ドル	-11.1216
同じであること	-11.1217
にわか	-11.1219
案外	-11.1219
個人の	-11.1221
合わせること	-11.1223
体質	-11.1223
済む	-11.1223
努力して	-11.1225
必要である	-11.1226
同様	-11.1227
足の	-11.1228
あす	-11.123
いれ	-11.1231
の場合	-11.1232
指名	-11.1232
不快	-11.1232
紅葉	-11.1233
香り	-11.1233
▁ぼく	-11.1234
ふるい	-11.1235
波が	-11.1239
ことがない	-11.124
▁平均	-11.1241
試	-11.1242
それとも	-11.1244
よみ	-11.1244
を越える	-11.1248
・△	-11.1249
時に使う	-11.125
水辺	-11.1251
▁八	-11.1251
体つき	-11.1255
寄	-11.1255
やること	-11.1255
発達した	-11.1258
通話	-11.126
疲れる	-11.126
の根	-11.1261
変わる	-11.1261
染色	-11.1261
を与えて	-11.1262
を要する	-11.1265
なのか	-11.1265
暖か	-11.1265
てゆく	-11.1266
かぶり	-11.1267
を強めて言う	-11.1268
en	-11.127
関係がある	-11.1271
食物を	-11.1271
与えられる	-11.1272
て行く	-11.1273
組み合わせ	-11.1275
会見	-11.1275
むやみに	-11.1276
▁げんきかいの記録を管理	-11.1279
はしご	-11.1279
ぬれ	-11.1283
▁二人	-11.1284
おこす	-11.1285
設け	-11.1286
頑	-11.1286
返して	-11.1288
につくこと	-11.1289
手紙を書く	-11.129
何度	-11.1291
むり	-11.1291
の便	-11.1291
ブレーキ	-11.1293
▁隣	-11.1296
▁7	-11.1297
めい	-11.1303
全体が	-11.1305
外へ	-11.1306
言論	-11.1312
ばく	-11.1312
席を	-11.1313
鬚垢	-11.1314
問題だ	-11.1316
果実は	-11.1317
ねた	-11.1319
▁偽	-11.1319
▁浄	-11.1319
使用する	-11.132
張って	-11.1323
▁つい	-11.1327
▁一年	-11.1327
重さ	-11.1327
信者	-11.1327
漫画	-11.1336
いろいろと	-11.1337
ずれ	-11.1341
▁いなか	-11.1342
▁蹴	-11.1344
けり	-11.1345
結婚した	-11.1345
意外	-11.1346
動くこと	-11.1347
に代わって	-11.1347
▁in	-11.1347
▁ここは	-11.1347
形成	-11.1348
▁攻撃	-11.1348
いり	-11.135
いません	-11.1352
▁月が	-11.1352
クラスの	-11.1353
うしろ	-11.1354
の時代	-11.1355
群がって	-11.1356
大勢の	-11.1359
二人の	-11.136
▁彼女は彼に	-11.136
外国から	-11.136
滑り	-11.136
の形に	-11.1361
医者に	-11.1363
てもらいたい	-11.1364
を示した	-11.1364
からぬ	-11.1366
パー	-11.1367
▁凡	-11.1367
まかせ	-11.1369
前線	-11.137
ボン	-11.137
▁逸	-11.1371
教える	-11.1371
ほめる	-11.1372
整理する	-11.1372
考えた	-11.1373
▁いまから電話したい	-11.1374
に通じ	-11.1374
キス	-11.1376
の先に	-11.1384
茶色の	-11.1386
時半	-11.1389
▁田舎	-11.139
ふな	-11.1391
帰った	-11.1393
es	-11.1397
たびに	-11.1397
▁宝	-11.1406
を変えること	-11.1407
あれこれ	-11.1409
▁宣伝	-11.1409
慎重に	-11.1414
産の	-11.1415
▁皮	-11.1416
繰り返して	-11.1417
につけた	-11.1418
苗	-11.1418
の内側	-11.1421
るもの	-11.1422
に似る	-11.1424
意を表す語	-11.1427
▁そこに	-11.1428
トロ	-11.1429
▁ぜひ	-11.143
のように見える	-11.143
いても	-11.1431
守備	-11.1431
少数	-11.1432
▁予備	-11.1433
▁頭の	-11.1433
▁シャ	-11.1434
▁香	-11.1435
いやだ	-11.1438
荷車	-11.1442
働きをする	-11.1444
面倒	-11.1444
天然	-11.1445
が終わる	-11.1446
▁ドイツ	-11.145
文を	-11.1451
▁第一	-11.1452
本式	-11.1453
そなえ	-11.1453
いかに	-11.1453
▁夫	-11.1454
すわって	-11.1456
集める	-11.1456
▁彼はよく	-11.1456
の幅	-11.1456
骨折	-11.1456
完全	-11.1457
よけ	-11.1458
効力	-11.1458
の動物	-11.146
▁授業	-11.146
▁四つ	-11.1461
は日本	-11.1461
を広げる	-11.1462
一等	-11.1463
十字	-11.1463
嫌いだ	-11.1468
▁建物の	-11.1469
すべ	-11.147
を並べて	-11.1471
行きの	-11.1472
染	-11.1472
けつ	-11.1472
文字を	-11.1473
▁賞	-11.1473
対立する	-11.1475
に分ける	-11.1478
一対	-11.1478
芸人	-11.148
車に	-11.1481
るようにする	-11.1482
向く	-11.1483
がさ	-11.1483
作文	-11.1484
ゆっくりと	-11.1488
確かめ	-11.1489
▁陰暦	-11.1491
の口	-11.1491
▁六	-11.1491
不法	-11.1492
ラム	-11.1492
出ない	-11.1492
心中	-11.1495
載せる	-11.1495
座る	-11.1495
現れる	-11.1496
人工	-11.1498
こび	-11.15
▁ミ	-11.1502
を流す	-11.1502
海面	-11.1503
貧しい	-11.1504
よくなる	-11.1504
保つ	-11.1505
をあける	-11.1506
とれた	-11.1509
▁引っ	-11.1509
食事をする	-11.1512
利き	-11.1513
卵を	-11.1516
▁今度	-11.1518
▁彼は金	-11.1519
集まった	-11.152
下着	-11.152
つもりで	-11.1522
吐き	-11.1524
優劣	-11.1524
辛	-11.1525
報告書	-11.1526
むだな	-11.1527
変な	-11.1527
さを	-11.1527
耳を	-11.1532
総計	-11.1532
の雨	-11.1532
当選	-11.1533
物音	-11.1534
サイ	-11.1536
▁何でも	-11.1536
でん	-11.1538
加える	-11.1539
▁人は	-11.1539
を焼く	-11.1539
つぐ	-11.1543
たりすること	-11.1545
言っている	-11.1545
先端	-11.1549
押さえ	-11.1558
はやり	-11.1558
▁何も	-11.1558
出発する	-11.156
を組んで	-11.1561
▁気の	-11.1562
零	-11.1562
ことのできる	-11.1563
詩文	-11.1564
愛する	-11.1564
のほかに	-11.1564
探検	-11.1565
へた	-11.1567
驚	-11.157
をやめて	-11.1571
のかたまり	-11.1571
そのための	-11.1572
テン	-11.1574
斬	-11.1574
ィ	-11.1574
を見つけた	-11.1574
▁粘土	-11.1578
決まった	-11.1581
長い間	-11.1581
▁巡	-11.1581
家畜	-11.1582
堀	-11.1583
事件を	-11.1584
の世話をする	-11.1587
慈悲	-11.1587
で見る	-11.1589
三角	-11.1589
▁たん	-11.159
▁梅	-11.159
つもりです	-11.159
しだ	-11.1591
起こること	-11.1591
うた	-11.1592
催し	-11.1593
おそ	-11.1593
止ま	-11.1594
につけて	-11.1596
▁静	-11.1603
送ること	-11.1603
熱病	-11.1604
掃	-11.1607
気配	-11.1613
なければいけない	-11.1614
都会	-11.1614
のうわさ	-11.1614
ひろ	-11.1614
▁みかん	-11.1614
和服	-11.1615
▁実際に	-11.1615
救	-11.1616
殺すこと	-11.1617
徹底	-11.1618
▁芝居	-11.162
泊まる	-11.162
とがめ	-11.162
を運ぶ	-11.1621
そちら	-11.1622
風が	-11.1623
署	-11.1625
厭	-11.1626
▁朱	-11.1627
口をきく	-11.1628
祈り	-11.1629
が変わる	-11.1629
怨	-11.163
惑星	-11.163
億	-11.163
着物の	-11.163
幣	-11.1631
鼠	-11.1632
慣習	-11.1632
好奇心	-11.1632
会計	-11.1633
堕落	-11.1634
達也	-11.1634
酌	-11.1634
劼	-11.1634
▁あなたに	-11.1634
寛	-11.1635
痴	-11.1635
渇	-11.1635
発揮	-11.1635
粛	-11.1635
はなはだしい	-11.1635
妓	-11.1635
撰	-11.1635
熟練	-11.1635
糠	-11.1636
営利	-11.1636
錫	-11.1636
チェス	-11.1636
プラス	-11.1636
叉	-11.1636
システム	-11.1636
ワイシャツ	-11.1636
恐ろしさ	-11.1636
January	-11.1636
じゃがいも	-11.1636
を汚す	-11.1636
キツネ	-11.1636
チャンス	-11.1636
蝕	-11.1636
▁船舶	-11.1636
慾	-11.1636
杭	-11.1636
讚	-11.1636
寵	-11.1636
狐	-11.1636
×	-11.1636
葦	-11.1636
鞍	-11.1636
おもむき	-11.1636
廚	-11.1636
瓜	-11.1636
セールスマン	-11.1636
平安時代	-11.1636
ひたすら	-11.1636
審査	-11.1636
措置	-11.1636
燃焼	-11.1636
簡易	-11.1636
スケート	-11.1636
摩擦	-11.1636
ソース	-11.1637
形容詞	-11.1637
工芸	-11.1637
救済	-11.1637
あやまち	-11.1637
装備	-11.1637
類似	-11.1637
防衛	-11.1638
雨が降る	-11.1638
まあまあ	-11.1638
▁その船は	-11.1638
砂漠	-11.1638
あやしい	-11.1638
著しい	-11.1639
冷淡	-11.1639
情緒	-11.1639
武装	-11.1639
をひく	-11.164
▁去年	-11.164
豪	-11.164
にかなった	-11.164
コール	-11.164
淫	-11.164
々しく	-11.164
雌雄	-11.1641
視野	-11.1641
調理	-11.1641
電池	-11.1641
▁蛇	-11.1641
▁観光	-11.1642
円満	-11.1642
商店	-11.1642
造った	-11.1642
教養	-11.1642
衛生	-11.1643
卑	-11.1643
▁手を	-11.1645
妊娠	-11.1645
建造物	-11.1645
各自	-11.1645
辞任	-11.1645
おば	-11.1646
メッセをすぐに	-11.1646
漬物	-11.1646
貧	-11.1647
で話す	-11.1647
▁長い間	-11.1648
るところ	-11.1649
強制	-11.1649
おとな	-11.1649
雄弁	-11.165
てくれ	-11.165
ユ	-11.165
一時的に	-11.1651
平たく	-11.1652
裂く	-11.1653
不機嫌	-11.1653
伴奏	-11.1653
兄さん	-11.1654
どころか	-11.1654
英語で	-11.1655
▁彼らは彼を	-11.1655
偉い	-11.1655
倫理	-11.1655
たとえば	-11.1655
さつ	-11.1657
を祝う	-11.1658
食塩	-11.1659
空港	-11.1659
ヘルパーちゃん	-11.166
道義	-11.166
へと	-11.1661
一日中	-11.1661
コップ	-11.1663
いも	-11.1664
▁鉱山	-11.1664
流通	-11.1665
浴び	-11.1665
統治	-11.1665
光沢	-11.1666
育てる	-11.1666
どれほど	-11.1668
驚いて	-11.1668
個ある	-11.167
▁そら	-11.1671
続いている	-11.1671
月給	-11.1671
ーター	-11.1672
組んだ	-11.1672
海軍	-11.1673
伏せ	-11.1674
経文	-11.1674
吉田	-11.1675
人員	-11.1676
▁高く	-11.1676
自分たち	-11.1676
出来る	-11.168
▁付け	-11.168
申し立て	-11.168
▁彼は自分が	-11.1681
を養う	-11.1682
含み	-11.1682
半分に	-11.1683
はだれも	-11.1683
打った	-11.1684
記憶力	-11.1685
気分が	-11.1685
▁夜の	-11.1685
批評家	-11.1685
偽り	-11.1687
もっともな	-11.1687
毛糸	-11.1688
向上	-11.1689
協会	-11.1689
へたな	-11.169
所在	-11.1691
悲し	-11.1692
こじき	-11.1692
見張り	-11.1692
課税	-11.1692
ぞう	-11.1693
延び	-11.1694
▁本の	-11.1695
▁彼女はいつも	-11.1697
の壁	-11.1698
目盛り	-11.1698
▁トラック	-11.1701
が多くて	-11.1702
居る	-11.1703
の内部	-11.1703
書かれた	-11.1706
▁彼女は夫	-11.1708
戦線	-11.1709
その本を	-11.1711
▁事故	-11.1712
が弱い	-11.1712
わが国	-11.1712
万人	-11.1714
現状	-11.1715
刊行	-11.1715
をねらって	-11.1715
▁凍	-11.1715
五月	-11.1716
おかね	-11.1716
なんと	-11.1716
▁主人	-11.1717
▁海岸	-11.1717
認め	-11.172
を打って	-11.1721
ステ	-11.1721
数える	-11.1723
24	-11.1724
▁欠	-11.1727
話に	-11.1728
現金	-11.1729
お話し	-11.1729
ところです	-11.1732
不快な	-11.1733
賢い	-11.1735
▁染め	-11.1737
▁この本	-11.1737
▁be	-11.1737
手腕	-11.1738
関係にある	-11.1738
▁漢字	-11.174
動物の	-11.174
彼にとって	-11.1742
客が	-11.1742
っけ	-11.1745
科の哺乳動物	-11.1748
荒れ	-11.1752
の立場	-11.1752
しすぎる	-11.1755
離す	-11.1755
▁遅	-11.1758
魚類	-11.1759
▁書物	-11.176
捨て	-11.176
▁今から	-11.176
▁法廷	-11.1762
の練習	-11.1763
行進	-11.1764
にできる	-11.1765
つくこと	-11.1767
耐え	-11.177
世界の	-11.1771
目玉	-11.1773
書類を	-11.1774
武家	-11.1775
のがれ	-11.1776
宿屋	-11.1777
▁彼はなかなか	-11.1779
▁寒さ	-11.1782
こも	-11.1787
いたり	-11.1789
▁誤	-11.1789
をまく	-11.1791
本人	-11.1792
なき	-11.1793
の群れ	-11.1797
離れない	-11.1798
でございます	-11.1799
▁行政	-11.1803
を残す	-11.1804
性的	-11.1808
固定	-11.1809
▁除	-11.1809
歌を	-11.1809
▁体の	-11.181
ままで	-11.1812
特別な	-11.1814
は少しも	-11.1818
行きたい	-11.1819
忘れる	-11.1819
▁アメリカの	-11.1819
▁ぼ	-11.1821
改め	-11.1824
▁警察は	-11.1825
▁野菜	-11.1825
▁ここで	-11.1826
が欲しい	-11.1827
の転	-11.1828
▁政府の	-11.1828
を免れる	-11.1828
▁登	-11.1831
寝ること	-11.1832
後ろから	-11.1833
だけが	-11.1834
▁高級	-11.1834
心得	-11.1835
の全	-11.1838
ないもの	-11.184
ふし	-11.184
▁難	-11.184
まわし	-11.1842
楽な	-11.1843
主体	-11.1843
を張って	-11.1845
をつかさどる	-11.1845
働か	-11.1846
は少し	-11.1846
に変える	-11.1847
を受けている	-11.185
▁彼女は私の	-11.185
すぐにメッセ	-11.1855
飛行機の	-11.1857
▁注文	-11.1858
▁ビ	-11.186
▁階段	-11.1864
二本の	-11.1869
の表面に	-11.1869
ロック	-11.187
▁山野に自生	-11.1874
身につける	-11.1875
は何ですか	-11.1875
りません	-11.1876
狂い	-11.1877
▁針	-11.1877
向いて	-11.1878
と考えた	-11.1878
導体	-11.1881
▁冷たい	-11.1882
とするもの	-11.1883
共通	-11.1884
▁ダ	-11.1884
売ること	-11.1886
▁できるだけ	-11.1888
逮捕	-11.1888
死の	-11.1889
▁あの男	-11.1889
競売	-11.189
一度に	-11.1891
煮て	-11.1893
無言	-11.1893
てき	-11.1893
などについて	-11.1895
極め	-11.1896
約一	-11.19
の四	-11.19
江戸時代	-11.1902
▁美術	-11.1902
のこ	-11.1902
りますか	-11.1903
▁ごみ	-11.1906
規律	-11.1907
貴族	-11.1907
防御	-11.1909
感じられる	-11.1911
にも使う	-11.1911
▁海底	-11.1913
絵を	-11.1913
へ電話	-11.1914
▁毎	-11.1917
に向かう	-11.1921
庭に	-11.1921
▁投票	-11.1921
トル	-11.1922
を助け	-11.1923
づかい	-11.1924
▁輸出	-11.1928
さじ	-11.1931
▁追い	-11.1936
貴人の	-11.1939
澈	-11.1941
有罪	-11.1941
▁税金	-11.1941
▁何もかも	-11.1946
▁オリンピック	-11.1947
をさし	-11.1948
▁艶	-11.1949
の原因	-11.1951
飯を	-11.1951
▁歳の	-11.1951
悦	-11.1953
を強く	-11.1953
▁病気の	-11.1955
とがある	-11.1956
▁それは君の	-11.1957
眼球	-11.196
に強い	-11.1961
消息	-11.1962
はすぐ	-11.1964
▁十分に	-11.1965
ておいた	-11.1967
挑戦	-11.1968
▁フランス語	-11.1971
▁馬に	-11.1972
先生は	-11.1976
▁不幸	-11.1978
ささ	-11.1982
生じた	-11.1982
▁遠慮	-11.1983
机の上に	-11.1984
降って	-11.1985
を尽くす	-11.1985
▁パーティー	-11.1987
▁閉	-11.1988
機関車	-11.199
と思い	-11.1993
▁勇	-11.1994
▁正しい	-11.1997
陽子さん	-11.2001
輝	-11.2004
空き	-11.2005
▁財政	-11.2006
初めの	-11.2006
▁抜き	-11.2007
隔て	-11.2009
続いた	-11.201
▁英国の	-11.2011
歯が	-11.2012
鉄の	-11.2015
励	-11.2015
トラ	-11.2016
していないこと	-11.2016
心の中	-11.2017
した人	-11.202
▁たい	-11.2021
お薬屋ちゃん	-11.2021
保守	-11.2023
くらいの	-11.2023
の巣	-11.2024
▁演説	-11.2025
us	-11.2026
皮膚が	-11.2028
吸収	-11.2029
緑色の	-11.2032
▁肌	-11.2032
なしの	-11.2034
平気で	-11.2036
宣言	-11.2037
すぐれて	-11.2038
主張する	-11.2038
▁太陽が	-11.2039
熱帯	-11.204
さして	-11.204
蒼	-11.2041
百万	-11.2041
うえ	-11.2042
の罪	-11.2042
健康に	-11.2043
食事を	-11.2047
に富んだ	-11.2047
誇り	-11.205
がきかない	-11.2053
▁医者は	-11.2053
サン	-11.2055
▁家具	-11.2058
忙しく	-11.2063
忠義	-11.2068
のない人	-11.2068
酒を	-11.2073
佐	-11.2076
友達	-11.2076
果て	-11.2077
遣	-11.2078
間違って	-11.2078
うらみ	-11.2078
▁ちょっと電話をかける	-11.208
あがり	-11.2081
かば	-11.2081
のまわり	-11.2082
衝突	-11.2083
何もない	-11.2084
凡	-11.2084
不自由	-11.2086
便で	-11.2086
欠乏	-11.2089
かねて	-11.2089
啓	-11.209
特殊	-11.209
を経て	-11.2091
損なう	-11.2091
困っている	-11.2093
真偽	-11.2093
の士	-11.2094
ダイヤ	-11.2094
といった	-11.2094
とって	-11.2094
齢	-11.2095
▁体を	-11.21
地形	-11.21
▁弾丸	-11.2101
尚	-11.2101
通して	-11.2102
剛	-11.2102
削り	-11.2104
を表わす	-11.2104
▁弁護士	-11.2104
を決め	-11.2104
▁慈善	-11.2104
輿	-11.2105
ゆくこと	-11.2106
胎	-11.2106
穏	-11.2106
申告	-11.2107
操	-11.2107
落ち着いて	-11.2107
隅	-11.2108
潔白	-11.2108
船の	-11.2108
伐	-11.2109
曲がり	-11.2109
翔	-11.211
肋	-11.211
呉	-11.211
いぼ	-11.211
著述	-11.211
さかずき	-11.2111
爆撃	-11.2111
芳	-11.2111
運搬	-11.2111
駿	-11.2111
舵	-11.2111
蛋白質	-11.2111
誦	-11.2111
紡	-11.2111
鍵	-11.2112
オペラ	-11.2112
農作物	-11.2112
尼	-11.2112
尋問	-11.2112
胚	-11.2112
猶予	-11.2112
メキシコ	-11.2112
コンクリート	-11.2112
刺繍	-11.2112
錬	-11.2112
▁喫煙	-11.2112
びっくりした	-11.2112
暁	-11.2112
稀	-11.2112
鞘	-11.2112
はらわた	-11.2112
臥	-11.2112
ぐるぐる	-11.2112
まなざし	-11.2112
マラリア	-11.2112
唄	-11.2112
喧	-11.2112
方程式	-11.2112
諺	-11.2112
木造	-11.2112
よろこび	-11.2112
屁	-11.2112
釜	-11.2112
是非	-11.2112
ギター	-11.2112
のこぎり	-11.2112
硫黄	-11.2112
専攻	-11.2113
威厳	-11.2113
箇条	-11.2113
を頼む	-11.2113
ow	-11.2113
応援	-11.2113
思考	-11.2113
ほんとに	-11.2113
胎児	-11.2113
訪ねて	-11.2113
収縮	-11.2113
を請う	-11.2113
ふくれ	-11.2113
こえ	-11.2113
茶の湯	-11.2113
予告	-11.2113
げない	-11.2114
得られる	-11.2114
さらさら	-11.2114
科の昆虫	-11.2114
楽譜	-11.2114
▁火の	-11.2114
一定期間	-11.2114
節操	-11.2114
演芸	-11.2114
スタート	-11.2115
のぞく	-11.2115
仲裁	-11.2115
知覚	-11.2115
殺菌	-11.2115
うさぎ	-11.2116
陽	-11.2116
推理	-11.2116
軍備	-11.2116
公債	-11.2116
済んだ	-11.2117
ふとん	-11.2117
組合せ	-11.2117
音階	-11.2118
を職業とする人	-11.2118
カバー	-11.2118
通勤	-11.2119
文献	-11.2119
常用	-11.2119
▁その場	-11.2119
分担	-11.212
延長	-11.212
煙突	-11.212
ゆとり	-11.212
うどん	-11.212
生死	-11.2121
改正	-11.2121
表示	-11.2122
よせ	-11.2122
▁あの子は	-11.2123
▁彼女は私	-11.2123
ひび	-11.2123
つめた	-11.2123
くらべ	-11.2124
選んだ	-11.2124
機密	-11.2124
▁凶	-11.2124
親族	-11.2124
従うこと	-11.2125
▁国連	-11.2125
ないでくれ	-11.2125
用途	-11.2125
ケアマネ	-11.2126
曲がる	-11.2127
動かし	-11.2127
▁砂糖	-11.2128
つまみ	-11.2128
惜しい	-11.2129
▁命令	-11.213
甲板	-11.2131
活用	-11.2131
▁情報	-11.2131
視する	-11.2132
高校	-11.2133
田氏	-11.2133
たばこを	-11.2134
▁お茶	-11.2134
機知	-11.2135
いやしい	-11.2135
意義	-11.2135
して行く	-11.2135
特殊な	-11.2135
運ばれ	-11.2135
北部	-11.2136
▁失業	-11.2136
縁側	-11.2136
恵み	-11.2137
長調	-11.2138
ようか	-11.2138
持ち上げる	-11.2139
幼	-11.2139
噴火	-11.2141
結び目	-11.2141
線路	-11.2141
整った	-11.2142
▁約束	-11.2143
を働く	-11.2144
ことに決めた	-11.2144
ききめ	-11.2144
ということを	-11.2146
善行	-11.2146
皇	-11.2146
時速	-11.2146
種々	-11.2147
ないようにする	-11.2148
現われる	-11.2149
▁ワ	-11.2151
番目の	-11.2151
大声で	-11.2152
コーヒーを	-11.2152
もつれ	-11.2153
の字	-11.2153
政府が	-11.2153
に欠ける	-11.2154
魚肉	-11.2155
▁つる	-11.2156
かぶ	-11.2158
もうける	-11.216
足に	-11.2161
冷たく	-11.2161
準	-11.2162
泣いて	-11.2162
ったりして	-11.2162
▁化粧	-11.2162
風邪	-11.2163
結う	-11.2163
とも言う	-11.2164
シュ	-11.2165
寝床	-11.2167
▁快	-11.2168
そうとする	-11.2169
とら	-11.2169
忍び	-11.2169
コンピューター	-11.2169
活気	-11.217
知能	-11.2171
赤字	-11.2171
声が	-11.2172
消える	-11.2172
田畑	-11.2172
陰暦	-11.2173
の精神	-11.2173
いちばん	-11.2174
聞こえ	-11.2175
よこ	-11.2175
▁すぐに電話かける	-11.2176
を吐く	-11.2176
してしまう	-11.2179
国家が	-11.2179
長年	-11.2179
なのだ	-11.218
▁競馬	-11.218
乗った	-11.218
何となく	-11.218
思いがけない	-11.2181
を改める	-11.2181
名高い	-11.2181
朝食	-11.2181
正反対	-11.2182
当たった	-11.2183
品行	-11.2183
一組	-11.2183
小児	-11.2184
顔の	-11.2185
こういう	-11.2186
とがった	-11.2186
をたてる	-11.2186
▁この問題	-11.2186
三つの	-11.2187
どうだ	-11.2189
応用	-11.2191
やがて	-11.2191
初めから	-11.2191
▁貧乏	-11.2194
きし	-11.2194
敷物	-11.2194
カーテン	-11.2196
▁他の人	-11.2197
▁物が	-11.2198
運転手	-11.2198
▁突き	-11.2199
かせた	-11.22
ちょっと電話かける	-11.2201
これらの	-11.2202
で私は	-11.2203
加え	-11.2204
泊まり	-11.2204
職場	-11.2204
通俗	-11.2205
下落	-11.2206
興奮する	-11.2207
たてる	-11.221
ショートメッセージを送信	-11.221
から出た	-11.2211
上部	-11.2211
ちょっと電話をかける	-11.2213
下がる	-11.2214
割り当て	-11.2217
▁はっきり	-11.2217
生まれる	-11.2217
手落ち	-11.2218
運んだ	-11.2218
使者	-11.2219
生まれて	-11.222
てくれる	-11.2221
移住	-11.2222
▁魚の	-11.2224
届く	-11.223
蕕覆	-11.2231
▁交	-11.2233
現れること	-11.2234
を防ぐために	-11.2235
17	-11.2236
様子が	-11.224
をあらわす	-11.2242
然として	-11.2243
▁契約	-11.2244
飛んで	-11.2244
腹に	-11.2245
のだろう	-11.2247
▁森林	-11.2247
その場の	-11.2247
急な	-11.2249
に耐え	-11.225
いったん	-11.2251
▁レコード	-11.2252
▁体操	-11.2252
ぜいたくな	-11.2254
何よりも	-11.2255
事務を	-11.2256
誤って	-11.2259
商品の	-11.2259
進み	-11.226
をはる	-11.2263
交わ	-11.2264
格別	-11.2264
出席者	-11.227
を添える	-11.2271
来客	-11.2271
▁ほとんど	-11.2271
ドルの	-11.2273
過去の	-11.2273
▁格	-11.2275
は私が	-11.2278
主語	-11.2278
候	-11.2279
▁きん	-11.2279
を見せて	-11.228
などによる	-11.2282
に任せる	-11.2284
合せ	-11.2285
▁完	-11.2287
時機	-11.2288
▁桜	-11.2289
▁着物	-11.229
▁さて	-11.2294
の中央	-11.2294
自分自身	-11.2295
吹いて	-11.2296
色素	-11.2298
に接する	-11.2299
論者	-11.2299
木の葉	-11.23
東方	-11.2302
▁これ以上	-11.2305
△・	-11.2306
▁わずかな	-11.2306
▁どこ	-11.2307
▁教師	-11.2307
返事をする	-11.2308
▁完全	-11.2309
▁必	-11.231
▁歩	-11.2311
のだが	-11.2311
の方法	-11.2314
▁警官は	-11.2317
他から	-11.2317
それについて	-11.2321
の学生	-11.2323
金が	-11.2324
なよ	-11.2326
▁彼はとても	-11.2329
数を	-11.2331
万事	-11.2332
年は	-11.2333
千万	-11.2334
▁娘	-11.2336
の強さ	-11.2337
愉快	-11.2339
こじ	-11.234
ってくる	-11.2342
兼ね	-11.2343
両側	-11.2344
共通の	-11.2344
ませて	-11.2344
はすっかり	-11.2345
尽くす	-11.2346
▁実際	-11.2347
守る	-11.2347
に出て	-11.2349
人間が	-11.235
絹織物	-11.235
慎重	-11.2351
遠方	-11.2353
分間	-11.2354
神仏	-11.2355
に役立つ	-11.2355
▁野原	-11.2359
しようという	-11.236
▁その後	-11.236
荷物を	-11.2361
▁そのことは	-11.2362
ゆで	-11.2365
この世に	-11.2366
▁自己の	-11.2366
はえている	-11.2367
篠つつ	-11.2368
掘り	-11.2369
▁うら	-11.237
くま	-11.2372
とは君も	-11.2372
たくさんある	-11.2374
しらせ	-11.2374
▁即	-11.2376
▁哀	-11.2376
盛る	-11.2378
おもしろ	-11.238
下男	-11.2382
▁これから	-11.2385
がついて	-11.2385
海外	-11.2388
苦しむ	-11.2389
手柄	-11.239
わかれ	-11.2391
の進行	-11.2393
負けた	-11.2393
どこへ	-11.2395
▁エンジン	-11.2398
独身	-11.24
知らなかった	-11.24
生じ	-11.24
をしていた	-11.2401
▁母は	-11.2403
とめ	-11.2404
を利用する	-11.2405
黙ってい	-11.2406
▁二つ	-11.2408
ーズ	-11.241
を得ること	-11.2411
カリ	-11.2412
▁地面	-11.2413
しっかりと	-11.2414
▁弟	-11.2415
を生ずる	-11.2416
今にも	-11.2419
にたとえ	-11.2424
がたくさんある	-11.2425
つな	-11.2427
を取り戻す	-11.2428
▁擬	-11.2428
田さん	-11.2428
残りの	-11.243
▁軟	-11.2431
▁もう少し	-11.2433
▁質問	-11.2434
▁食事の	-11.2436
▁神仏	-11.2441
▁初めて	-11.2441
受け入れ	-11.2442
▁心を	-11.2442
できている	-11.2443
聞くこと	-11.2443
こく	-11.2448
ということだ	-11.2452
げんきかいの記録を	-11.2454
▁しっかり	-11.2454
山地	-11.2454
の範囲	-11.2455
を積む	-11.2456
称号	-11.2456
にかかった	-11.2459
輝く	-11.2459
示している	-11.246
勝つこと	-11.2463
置いた	-11.2466
穏やかな	-11.2466
海の	-11.2467
▁どうか	-11.2469
▁文化	-11.2474
病気が	-11.2474
議案	-11.2474
おこった	-11.2478
前方	-11.2481
につけ	-11.2482
と言っても	-11.2482
類の	-11.2483
の人が	-11.2484
情事	-11.2487
お手	-11.2488
に同じ	-11.2488
研究する	-11.2489
▁その日	-11.249
▁金属元素	-11.249
入口	-11.2492
に身を	-11.2493
遠くに	-11.2494
▁校	-11.2494
▁はち	-11.2496
シン	-11.2496
しあわせ	-11.2498
日常生活	-11.2501
たたき	-11.2504
押す	-11.2504
▁広い	-11.2507
起きる	-11.2509
よいか	-11.2509
いいですか	-11.2511
そんなことを	-11.2512
▁なべ	-11.2513
どことなく	-11.2517
▁その仕事は	-11.2518
帰ること	-11.2518
▁いまから電話する	-11.2519
の気持	-11.252
支払いを	-11.2522
のかね	-11.2524
▁あいつ	-11.2524
延ばす	-11.2527
のしるし	-11.2527
▁広告	-11.2528
由美子	-11.2528
が来た	-11.2529
のドレス	-11.2532
それによって	-11.2535
末期	-11.2537
おろす	-11.2538
はっきりした	-11.2539
こら	-11.254
以下の	-11.2541
▁金融	-11.2541
重く	-11.2542
動いて	-11.2544
弁護	-11.2547
▁原子力	-11.2547
▁タ	-11.2547
タオル	-11.2548
として使う	-11.2549
がかり	-11.2549
迫る	-11.2551
る様子	-11.2551
その地位	-11.2551
荒荒しい	-11.2552
結核	-11.2553
ことになっている	-11.2554
食べること	-11.2556
夫人	-11.2561
使った	-11.2561
ぶつぶつ	-11.2562
その場所	-11.2563
織った	-11.2563
に似ている	-11.2563
ぐらいの	-11.2565
▁手紙	-11.2565
が彼女の	-11.2565
▁断	-11.2569
を帯びる	-11.257
▁賢	-11.257
のあいだ	-11.257
をたくさん	-11.2572
別別	-11.2573
験	-11.2573
▁あん	-11.2574
比較的	-11.2574
▁金の	-11.2577
法廷	-11.2577
ってはいけない	-11.2578
▁豪	-11.2578
おろし	-11.2578
お父	-11.2579
暮らしを	-11.258
忘	-11.2581
▁同情	-11.2584
=	-11.2586
担保	-11.2587
勇敢	-11.2587
孝	-11.2588
ぐいと	-11.2589
与えた	-11.2591
▁水道	-11.2592
複製	-11.2592
詳細	-11.2593
後れ	-11.2595
かかって	-11.2597
分からない	-11.26
海水	-11.2601
内容を	-11.2602
▁貿易	-11.2603
ともに	-11.2603
盟	-11.2604
潤	-11.2604
展	-11.2605
▁事件	-11.2605
が悪かった	-11.2606
隙	-11.2606
▁凝	-11.2606
よいこと	-11.2607
呑	-11.2607
あばれ	-11.2607
拒否	-11.2608
一つ一つ	-11.2608
斎	-11.2608
模	-11.2609
を帯びて	-11.2609
扇動	-11.2609
▁空港	-11.2609
開拓	-11.2609
散らし	-11.261
頸	-11.261
堪	-11.261
ぺ	-11.261
ソーダ	-11.261
びょう	-11.261
▁物事に	-11.2611
浩	-11.2611
拡張	-11.2611
弄	-11.2611
舷	-11.2612
奸	-11.2612
碧	-11.2612
一度も	-11.2612
宇	-11.2612
衛星	-11.2612
に適する	-11.2612
莫大な	-11.2612
尖	-11.2612
ぞんざい	-11.2612
妾	-11.2612
宛	-11.2612
嵩	-11.2612
鉤	-11.2612
X	-11.2612
歎	-11.2612
篇	-11.2612
罵	-11.2612
みじめな	-11.2612
ハワイ	-11.2612
綾	-11.2612
ふらふら	-11.2612
鵐	-11.2612
芯	-11.2612
歪	-11.2612
自尊心	-11.2612
過剰	-11.2612
適当に	-11.2612
マイナス	-11.2612
普及	-11.2612
俳諧	-11.2612
キング	-11.2612
唯一の	-11.2612
急激に	-11.2612
落ちぶれ	-11.2612
インディアン	-11.2612
乗車券	-11.2612
めいめい	-11.2613
率直に	-11.2613
疑惑	-11.2613
整頓	-11.2613
派閥	-11.2613
標識	-11.2613
決まり	-11.2613
顧問	-11.2613
を使わず	-11.2613
ゼロ	-11.2613
守護	-11.2613
予測	-11.2613
路傍	-11.2614
部類	-11.2614
統率	-11.2614
おとなしく	-11.2614
復活	-11.2614
わかりません	-11.2614
吹雪	-11.2614
破る	-11.2614
雨が降った	-11.2614
音響	-11.2614
確率	-11.2614
検閲	-11.2614
汲み	-11.2614
対応	-11.2615
遺跡	-11.2615
譲歩	-11.2615
講和	-11.2615
毎	-11.2615
冷酷	-11.2615
やって来た	-11.2615
中枢	-11.2615
垣根	-11.2616
▁その犬は	-11.2616
新たな	-11.2616
▁あの店は	-11.2617
落第	-11.2617
講座	-11.2617
かわいがる	-11.2617
ハエ	-11.2618
させられた	-11.2618
姉さん	-11.2619
地理	-11.2619
絶滅	-11.2619
お宅	-11.262
楽観	-11.262
▁本当	-11.262
流儀	-11.2621
の女神	-11.2621
▁東京の	-11.2621
しばる	-11.2621
のありさま	-11.2622
ノート	-11.2622
郵便局	-11.2623
定義	-11.2623
▁全国	-11.2623
加熱	-11.2623
の娘	-11.2624
交わり	-11.2624
▁仲間	-11.2625
多年	-11.2625
作成	-11.2625
の下部	-11.2625
花嫁	-11.2625
結んだ	-11.2625
小形で	-11.2626
不景気	-11.2626
一連の	-11.2626
羊毛	-11.2627
放電	-11.2629
流派	-11.2629
不況	-11.263
開業	-11.263
災い	-11.2631
巡回	-11.2631
▁それは私	-11.2631
平野	-11.2631
敵陣	-11.2632
黄色い	-11.2632
乳児	-11.2632
特権	-11.2632
辰討	-11.2633
待った	-11.2633
付けた	-11.2634
ねばり	-11.2634
大型	-11.2635
羽毛	-11.2636
に帰する	-11.2637
首席	-11.2638
役に立	-11.2638
低下	-11.2639
論説	-11.2639
体積	-11.264
のごとく	-11.2641
▁成人	-11.2642
の第一	-11.2642
から降りる	-11.2642
引力	-11.2644
撃つ	-11.2644
葉を	-11.2645
こね	-11.2645
▁家を	-11.2646
遅い	-11.2648
もらおう	-11.2648
フランスの	-11.2649
当たって	-11.2651
を続ける	-11.2652
▁高等	-11.2654
忘れない	-11.2655
がわ	-11.2655
笑った	-11.2655
慣用	-11.2656
熱湯	-11.2656
する装置	-11.2656
価値がある	-11.2659
▁九	-11.2659
欠けた	-11.266
左側	-11.266
続けざまに	-11.2661
する時	-11.2662
うね	-11.2663
乱暴	-11.2663
取り入れ	-11.2663
午前	-11.2665
非行	-11.2666
V	-11.2666
学業	-11.2669
度胸	-11.267
こころ	-11.267
▁何を	-11.267
脚本	-11.2671
▁楽	-11.2672
外へ出	-11.2673
▁並	-11.2674
十六	-11.2674
▁冷や	-11.2675
は君の	-11.2675
帰宅	-11.2676
我が国	-11.2677
▁ぶどう酒	-11.2677
きつい	-11.2681
▁ロープを	-11.2681
何でもない	-11.2681
一見	-11.2682
を告げる	-11.2683
したりして	-11.2684
あふれる	-11.2686
かたまり	-11.2687
よく知っている	-11.2687
小僧	-11.2689
▁そこへ	-11.2691
紫色	-11.2692
当時	-11.2693
を除く	-11.2693
えば	-11.2693
回転する	-11.2695
中傷	-11.2696
人や物	-11.2696
触れる	-11.2696
▁彼の顔は	-11.2697
▁枝	-11.2702
してから	-11.2702
に通じている	-11.2702
を占める	-11.2703
大和	-11.2703
のが好きだ	-11.2703
邦	-11.2703
逆に	-11.2703
答える	-11.2705
ろく	-11.2705
がえ	-11.2706
をさっと	-11.2706
言いなさい	-11.2706
と水	-11.2707
▁聴衆は	-11.2709
怪	-11.2709
ぬる	-11.2709
はいくら	-11.271
▁豊	-11.271
▁肺	-11.2711
真珠	-11.2712
毎年	-11.2712
に起こる	-11.2712
▁この家は	-11.2713
職業の人	-11.2713
推	-11.2715
召使	-11.2715
経費	-11.2716
勝手な	-11.2717
ガソリン	-11.2717
いるさま	-11.2717
にまで	-11.2718
を張った	-11.2718
内外	-11.2718
葬儀	-11.2719
のけ	-11.2719
それも	-11.272
秘書	-11.2721
基本	-11.2721
世俗	-11.2723
▁病気で	-11.2723
生活を	-11.2726
まねをする	-11.2726
バイオリン	-11.2727
猛	-11.2727
万円の	-11.2727
当然の	-11.2729
やって来る	-11.2729
髪の毛を	-11.273
その知らせを聞いて	-11.273
を動かして	-11.273
同一	-11.273
行動を	-11.2732
無事に	-11.2733
▁君には	-11.2733
たない	-11.2735
▁供	-11.2736
便り	-11.2737
▁別に	-11.2739
をおおう	-11.2739
er	-11.2739
養子	-11.274
好きなように	-11.2742
書物を	-11.2742
の誤り	-11.2743
を打った	-11.2744
▁何とか	-11.2745
その音	-11.2747
宝物	-11.2749
▁正義	-11.2755
▁人々は	-11.2756
混ぜる	-11.2758
香水	-11.276
番をする	-11.2761
清水	-11.2762
焼く	-11.2767
人材	-11.2767
▁そこで	-11.2769
は約	-11.277
の作品	-11.277
はぎ	-11.277
求め	-11.2771
▁事態は	-11.2772
手首	-11.2776
ぶき	-11.2778
悪口	-11.2781
門の	-11.2781
まるい	-11.2782
力で	-11.2782
▁相手	-11.2783
▁天体	-11.2784
つかず	-11.2785
手に入れ	-11.279
離して	-11.279
が多かった	-11.2791
▁責任	-11.2793
▁6	-11.2794
知らせること	-11.2794
ないだろう	-11.2797
がどんなに	-11.2797
相場が	-11.2799
こし	-11.2799
てもらう	-11.28
物を言う	-11.28
と思われる	-11.2802
▁専門	-11.2804
外出する	-11.2805
から見て	-11.2805
やれ	-11.2806
擦り	-11.2806
そうでない	-11.2806
治める	-11.2807
乗物	-11.2808
▁彼は我々に	-11.2808
しますか	-11.2808
暗く	-11.2808
▁医療	-11.2808
動的	-11.2809
ぶた	-11.2809
取れる	-11.281
法律で	-11.2811
▁その事故	-11.2811
の町	-11.2811
を重んずる	-11.2812
に戻る	-11.2813
リラ	-11.2815
寺の	-11.2821
南北	-11.2821
▁借り	-11.2821
調べる	-11.2822
一流の	-11.2823
▁何と	-11.2824
たまる	-11.2825
腰を	-11.2829
はかり	-11.2829
育ち	-11.2829
に落ちる	-11.2831
▁日曜	-11.2831
下にある	-11.2832
を積み	-11.2836
▁地図	-11.2838
負けて	-11.2838
いらっしゃい	-11.284
▁知恵	-11.2841
含む	-11.2841
▁焼け	-11.2841
▁回転	-11.2843
隠して	-11.2843
本部	-11.2844
悟り	-11.2844
付いて	-11.2844
味が	-11.2845
なだれ	-11.2845
弱く	-11.2846
さも	-11.2846
月光	-11.2847
討い	-11.2847
秋の	-11.2847
をつぐ	-11.2849
▁それらの	-11.285
▁僧	-11.2852
の心	-11.2852
しかる	-11.2854
ばかりに	-11.2854
▁イタリア	-11.2855
だな	-11.2856
続くこと	-11.2856
割に	-11.2857
▁小麦粉	-11.2857
身代	-11.2857
の形容	-11.2858
振動	-11.2859
▁まっ	-11.2859
だした	-11.2861
▁判	-11.2861
ナー	-11.2862
りたい	-11.2863
を断つ	-11.2864
めったに	-11.2865
大型の	-11.2868
熱意	-11.2872
はだか	-11.2872
▁脂肪	-11.2873
そうもない	-11.2874
実例	-11.2875
一瞬	-11.2875
▁完全に	-11.2876
神話	-11.2879
を授ける	-11.2879
ことができない	-11.288
出家	-11.2883
鋳	-11.2884
▁寂	-11.2885
身体の	-11.2885
▁陽	-11.2886
まけ	-11.2891
▁資本	-11.2892
国旗	-11.2893
戯	-11.2893
▁序	-11.2895
感じた	-11.2895
▁野外	-11.2896
現物	-11.2897
日曜日に	-11.2898
▁付	-11.2903
債務	-11.2904
▁よそ	-11.2905
はく	-11.2905
▁長距離	-11.2906
大事	-11.2908
▁訳	-11.291
▁いま	-11.2912
末に	-11.2912
祈願	-11.2913
▁おい	-11.2913
の温度	-11.2914
▁主君	-11.2915
文章の	-11.2918
▁立体	-11.2919
ことではない	-11.292
▁切符	-11.2922
を成す	-11.2923
賭	-11.2925
を集めて	-11.2927
君も	-11.2928
その地方	-11.2929
▁小川	-11.2936
走って	-11.2938
妨害	-11.2939
にはいって	-11.2943
いやになる	-11.2944
助けること	-11.2944
▁陸上	-11.2945
おくれ	-11.2948
のあること	-11.2948
▁季節	-11.2951
▁そうです	-11.2951
んじゃない	-11.2952
物だ	-11.2957
▁申し	-11.2958
になってしまった	-11.2959
▁ひとり	-11.2962
▁ふだん	-11.2964
▁彼は彼女を	-11.2965
の中間	-11.2966
てはならない	-11.2968
確信	-11.2968
▁ド	-11.2968
▁重大な	-11.297
聞かせる	-11.297
▁一家の	-11.2974
▁日光	-11.2978
描	-11.2981
▁整	-11.2982
垂れる	-11.2983
▁みんな	-11.2984
の諸	-11.2986
力が	-11.2986
生糸	-11.2986
後世	-11.2987
七日	-11.2987
フレ	-11.2987
内側に	-11.2988
やりなさい	-11.2992
やり方で	-11.2993
と見	-11.2993
会うこと	-11.2994
一般の人	-11.2997
激怒	-11.2997
ve	-11.2998
行われ	-11.3001
到着した	-11.3005
ルト	-11.3006
ていく	-11.3006
借りること	-11.3008
事態が	-11.3008
人に対して	-11.3009
がすっかり	-11.3015
すみません	-11.3016
たいてい	-11.3017
▁意志	-11.3018
をふさぐ	-11.3018
男が	-11.3022
▁住宅	-11.3022
成功の	-11.3023
によい	-11.3024
地下茎	-11.3026
あがって	-11.3028
勢いで	-11.3028
駒	-11.3029
銀行に	-11.3033
の幼虫	-11.3033
ちょっとショートメッセージを	-11.3035
もし	-11.3036
の研究	-11.3036
山々	-11.3037
▁天子の	-11.3038
調べること	-11.304
ゼ	-11.3042
集めて	-11.3043
の空気	-11.3046
使われる	-11.3046
しつけ	-11.3047
無理に	-11.3048
車は	-11.3049
こっけいな	-11.3049
がひどく	-11.3051
本性	-11.3051
の勢い	-11.3052
しうる	-11.3055
行きます	-11.3056
たね	-11.3059
で人を	-11.3062
の印	-11.3064
基礎	-11.3066
こしらえ	-11.3068
く思う	-11.3069
と違って	-11.3069
▁病人は	-11.307
▁いちばん	-11.3071
▁思いがけない	-11.3071
に触れる	-11.3071
厄介	-11.3072
西方	-11.3073
を含んだ	-11.3073
ふえ	-11.3073
船が	-11.3075
が速い	-11.3077
▁暖かい	-11.3077
せること	-11.3077
▁儀式	-11.3078
芸能	-11.3081
ふれ	-11.3082
に出た	-11.3082
中間	-11.3086
の相違	-11.3086
昨	-11.3087
言動	-11.309
を休む	-11.3091
▁特別	-11.3095
やりかた	-11.3096
が低く	-11.3097
▁予	-11.3097
地主	-11.3098
いただき	-11.3098
の敬称	-11.3099
グラ	-11.3099
は彼女	-11.3102
内閣の	-11.3103
飼	-11.3104
豪雨	-11.3106
▁ケアマネさん	-11.3107
所にある	-11.3107
徹	-11.3109
決議	-11.311
な言葉	-11.3113
透明	-11.3113
つかみ	-11.3113
新作	-11.3115
に会った	-11.3116
を祈る	-11.3116
増加	-11.3116
仕事の	-11.3118
十五	-11.3118
槽	-11.3118
気持だ	-11.3121
気管	-11.3123
釣り合い	-11.3124
しようとした	-11.3125
忙	-11.3125
やせ	-11.3126
わけではない	-11.3127
摘	-11.313
ニュ	-11.313
に達した	-11.3131
▁それだけ	-11.3132
耕作	-11.3132
散る	-11.3132
を目的とする	-11.3133
幾何学	-11.3133
▁マッチ	-11.3133
坑	-11.3133
浮かんだ	-11.3134
▁海軍	-11.3134
止まった	-11.3135
荘	-11.3135
をひき	-11.3136
陳	-11.3136
免疫	-11.3136
視界	-11.3136
のにおい	-11.3136
要領	-11.3136
盾	-11.3137
飼育	-11.3137
違える	-11.3137
チームは	-11.3137
を帯びた	-11.3137
昂	-11.3137
信じられない	-11.3138
因果	-11.3138
薪	-11.3138
阻	-11.3138
かっさい	-11.3138
きっかけ	-11.3138
W	-11.3138
おだやかな	-11.3138
塚	-11.3138
桑	-11.3138
虹	-11.3138
櫛	-11.3138
おめでとう	-11.3138
のんびり	-11.3138
コンサート	-11.3138
植民地	-11.3138
裾	-11.3138
.	-11.3138
ぅ	-11.3138
ペーパー	-11.3138
山崎さん	-11.3138
瑞	-11.3138
みょう	-11.3138
叛	-11.3138
梨	-11.3138
ばさみ	-11.3139
病原体	-11.3139
当てはまる	-11.3139
決勝	-11.3139
ジョージ	-11.3139
申請	-11.3139
舗装	-11.3139
免除	-11.3139
囃子	-11.3139
僧侶	-11.3139
デパート	-11.3139
容貌	-11.3139
盗賊	-11.3139
my	-11.3139
酒を飲んで	-11.3139
粘液	-11.314
包装	-11.314
閉鎖	-11.314
付き合い	-11.314
到来	-11.314
スタイル	-11.314
戯曲	-11.314
モーター	-11.314
たまたま	-11.3141
爵位	-11.3141
かせぐ	-11.3141
態勢	-11.3141
仲よく	-11.3141
を襲った	-11.3141
見積もり	-11.3141
生殖	-11.3142
協議	-11.3142
掛けて	-11.3142
ラン	-11.3142
レール	-11.3142
のろい	-11.3142
▁わずかの	-11.3143
こまかい	-11.3143
ひれ	-11.3143
今や	-11.3143
実は食用	-11.3143
厳しく	-11.3144
ともかく	-11.3144
スズメ	-11.3144
揃い	-11.3144
衰えた	-11.3144
予言	-11.3144
風采	-11.3144
それとなく	-11.3144
不吉	-11.3145
たたいた	-11.3145
開放	-11.3146
▁低い	-11.3146
栄光	-11.3146
実業家	-11.3146
奉公	-11.3146
成行き	-11.3146
思い切って	-11.3148
▁意味	-11.3148
高等学校	-11.3148
左翼	-11.3148
不動産	-11.3148
妹さん	-11.3148
東西	-11.3148
添う	-11.3148
登場	-11.3149
未婚	-11.3149
軍勢	-11.315
写生	-11.315
若葉	-11.315
の山	-11.315
の子供	-11.315
社寺	-11.315
施行	-11.315
主成分	-11.3151
を利用した	-11.3151
ラテン語	-11.3151
ひいき	-11.3151
変種	-11.3151
彩色	-11.3152
がうまく	-11.3152
下駄	-11.3152
絞り	-11.3153
通商	-11.3153
が起こって	-11.3154
性能	-11.3154
上映	-11.3155
転覆	-11.3156
出入口	-11.3157
公務	-11.3158
概して	-11.3158
▁産業	-11.3158
奇跡	-11.3159
メートルの	-11.3159
遠慮なく	-11.3159
ってくれた	-11.316
風味	-11.3162
変動	-11.3162
砕く	-11.3162
▁すい	-11.3164
合同	-11.3165
たやすく	-11.3166
▁犬が	-11.3166
任意	-11.3166
歩行	-11.3167
歩き方	-11.3167
無視	-11.3167
割れ目	-11.3167
あえて	-11.3169
分け前	-11.317
万歳	-11.317
ありがたい	-11.317
感じだ	-11.317
給水	-11.3171
笑って	-11.3171
がれる	-11.3172
子宮	-11.3172
▁日本は	-11.3172
▁その車は	-11.3173
恋人	-11.3174
▁傍	-11.3176
そんな事	-11.3177
祈る	-11.3178
まひ	-11.3179
きのこ	-11.3179
敵軍	-11.3179
想像力	-11.3179
くせ	-11.3179
贈物	-11.318
▁危	-11.318
入札	-11.3181
に合う	-11.3181
古来	-11.3181
小舟	-11.3181
▁クリスマスの	-11.3181
元来	-11.3182
感じがする	-11.3182
さわやかな	-11.3183
過ごした	-11.3183
相当な	-11.3183
おそれ	-11.3183
食肉	-11.3184
しぼり	-11.3184
響き	-11.3184
不要	-11.3185
▁しかし	-11.3185
最上	-11.3186
木炭	-11.3187
を掘り	-11.3187
に強く	-11.3187
手順	-11.3187
直立	-11.3188
公害	-11.319
増大	-11.3191
▁洪水	-11.3191
▁箱	-11.3191
って行く	-11.3192
言行	-11.3192
の方へ	-11.3192
▁牧	-11.3193
うすい	-11.3194
食用にする	-11.3195
楽しむこと	-11.3196
もてなし	-11.3196
横木	-11.3197
▁年齢	-11.3198
▁プ	-11.3198
よめ	-11.32
内内	-11.3202
すう	-11.3202
少なく	-11.3202
生えている	-11.3202
野生	-11.3206
君には	-11.3207
開会	-11.3207
を変えて	-11.3209
▁知	-11.321
の美しさ	-11.321
せみ	-11.3213
真相	-11.3217
余分	-11.3218
大形で	-11.3221
あれば	-11.3221
を得ようと	-11.3224
を測る	-11.3225
▁経	-11.3227
との関係	-11.3229
力量	-11.323
▁禅	-11.323
だれにも	-11.323
会長	-11.3231
ぞっとし	-11.3231
居間	-11.3232
▁古典	-11.3232
▁健	-11.3233
上等の	-11.3233
間違いない	-11.3233
発火	-11.3234
▁8	-11.3235
物腰	-11.3235
それら	-11.3237
できるように	-11.3238
▁無線	-11.3238
人込み	-11.3239
曜	-11.3239
車に乗	-11.324
▁官庁	-11.3244
鉄製の	-11.3244
大洋	-11.3245
でいた	-11.3246
▁別の	-11.3247
論理学	-11.3249
をなくした	-11.325
▁暴力	-11.3252
▁社	-11.3252
細工物	-11.3252
▁記憶	-11.3253
を貸して	-11.3255
科学者	-11.3257
いとこ	-11.3257
捕え	-11.3258
目立つ	-11.3261
▁漫	-11.3261
余所	-11.3263
削	-11.3264
を持つこと	-11.3264
学生たち	-11.3265
を書いて	-11.3265
辛い	-11.3265
検事	-11.3265
属する	-11.3266
リス	-11.3266
くれませんか	-11.3267
つくす	-11.3268
▁いつもの	-11.3269
▁必ず	-11.3269
うるさく	-11.327
二重	-11.327
▁組み	-11.3271
すむ	-11.3271
平方	-11.3271
かを	-11.3272
からなる	-11.3273
を踊る	-11.3273
の長い	-11.3276
異常な	-11.3276
声を	-11.3276
起源	-11.3277
頭脳	-11.3277
で暮らす	-11.3278
整える	-11.3279
吐き気	-11.3279
の階級	-11.3281
▁ガ	-11.3281
▁どう	-11.3281
ドイツ	-11.3281
居所	-11.3282
気球	-11.3284
逃れる	-11.3285
〕「	-11.3286
▁死刑	-11.3287
▁けんか	-11.3291
エル	-11.3293
陥	-11.3294
▁羊	-11.3295
▁紫	-11.3295
穏やか	-11.3295
倉庫	-11.33
っていて	-11.33
チーズ	-11.33
たちの	-11.33
君子	-11.33
ピストル	-11.3303
あらかじめ	-11.3303
の目的で	-11.3304
プロ	-11.3305
M	-11.3306
青銅	-11.3307
カップ	-11.3307
度に	-11.3308
▁信号	-11.3309
鳩	-11.331
つえ	-11.3311
和紙	-11.3312
ワン	-11.3312
▁喜び	-11.3312
あくび	-11.3313
烏	-11.3315
けし	-11.3315
透明な	-11.3315
お母さん	-11.3315
累	-11.3316
をたく	-11.3317
艶	-11.332
大丈夫	-11.332
合成	-11.332
上手に	-11.332
して作った	-11.332
▁ホームヘルパー	-11.3323
自分の意見を	-11.3323
見られる	-11.3324
物質の	-11.3324
紛れ	-11.3324
しゃく	-11.3326
法令	-11.3329
▁碁	-11.333
はねる	-11.3331
書籍	-11.3333
がだんだん	-11.3333
▁ボール	-11.3334
を直す	-11.3337
▁欲	-11.3341
何だか	-11.3341
なので	-11.3343
▁口で	-11.3345
▁げん	-11.3346
午前中	-11.3347
携帯	-11.3347
日から	-11.3349
印刷物	-11.335
こちらの	-11.3351
しゅう	-11.3353
▁外国語	-11.3354
電子	-11.3356
となること	-11.3359
他と	-11.3359
▁一緒に	-11.336
出世する	-11.3361
材木	-11.3366
▁泥棒	-11.3366
▁会合	-11.3368
▁ダンス	-11.3368
さくら	-11.3369
あて名	-11.3369
いてください	-11.337
その話	-11.337
見ている	-11.337
を失うこと	-11.3372
野党	-11.3372
をまぜて	-11.3378
そろって	-11.3378
▁記念	-11.338
性質が	-11.338
定期	-11.3381
の弱い	-11.3382
外面	-11.3384
を防ぎ	-11.3388
うまくいく	-11.339
▁出来	-11.3392
住むこと	-11.3393
ておきなさい	-11.3395
▁緩	-11.3397
に仕える	-11.3397
上流	-11.3397
▁彼女は自分の	-11.34
▁如	-11.3401
▁どこか	-11.3401
になれ	-11.3401
聞こえた	-11.3404
▁かなりの	-11.3404
甘味	-11.3405
着く	-11.3405
▁内部	-11.3405
▁ほかに	-11.3405
平らに	-11.3406
▁かぎ	-11.3408
▁過去の	-11.3408
今年	-11.3409
▁寺院	-11.341
▁鋭い	-11.3412
▁私は彼の	-11.3414
寸法	-11.3414
を除いた	-11.3414
天国	-11.3416
下書き	-11.3421
木の葉が	-11.3422
▁孫	-11.3424
▁ショートメッセージ送信	-11.3425
▁小さい	-11.3428
▁珍	-11.3428
被告人	-11.3429
ハイ	-11.3429
が無い	-11.343
のだから	-11.3433
しがたい	-11.3434
の寸法	-11.3435
▁座席	-11.3436
移す	-11.3436
思うように	-11.344
たちに	-11.344
溺	-11.344
希望を	-11.3441
所がない	-11.3441
引かれ	-11.3444
正しくない	-11.3445
▁彼女と	-11.3445
▁核兵器	-11.3446
▁鳥が	-11.3447
▁水平	-11.3449
▁湿	-11.3451
入り乱れ	-11.3452
進める	-11.3455
宗教的	-11.3461
聞こえない	-11.3462
ようなことを	-11.3463
一筆	-11.3463
びき	-11.3464
ラブ	-11.3464
迎える	-11.3465
彼から	-11.3466
見えること	-11.3467
だます	-11.3468
どちらか	-11.3469
ぶどう	-11.3469
どうぞお	-11.3469
花びら	-11.3472
▁男女の	-11.3473
▁畑	-11.3473
売れる	-11.3474
がなくなる	-11.3476
その内容	-11.3476
を飾る	-11.3476
尽くし	-11.3476
だまして	-11.3476
産する	-11.3478
没する	-11.348
づら	-11.3482
▁B	-11.3484
▁悲しい	-11.3485
を整える	-11.3487
をつくること	-11.3488
やっている	-11.3488
▁朝食	-11.3488
▁太鼓	-11.3493
急ぎの	-11.3494
ダー	-11.3496
▁隠	-11.3498
尋ね	-11.3498
雄は	-11.3499
周囲の	-11.3501
みなさい	-11.3501
を遂げる	-11.3503
埋	-11.3503
型に	-11.3503
動作が	-11.3505
調査する	-11.3505
なれて	-11.3507
ローマ	-11.351
陰で	-11.351
一個	-11.3511
決める	-11.3511
を扱う	-11.3511
▁小便	-11.3513
ことが多い	-11.3514
泣	-11.3514
貯	-11.3517
を並べる	-11.3518
中で一番	-11.3518
のぼる	-11.3518
この世	-11.3518
着いた	-11.3519
を減らす	-11.352
初めに	-11.352
先生に	-11.352
られます	-11.3522
おじいさん	-11.3522
▁辞書	-11.3523
▁生徒	-11.3523
もろ	-11.3526
▁宝石	-11.3526
行か	-11.3529
▁物語	-11.353
切断	-11.3531
せられる	-11.3532
個体	-11.3532
ゆり	-11.3533
反抗	-11.3537
自殺する	-11.3538
寂	-11.3538
をおろす	-11.3539
▁吹き	-11.3539
流れている	-11.3541
無く	-11.3543
世を	-11.3548
散歩する	-11.3548
取り決め	-11.355
学生が	-11.3553
誇	-11.3556
敬意	-11.3557
間に合わせ	-11.3557
なう	-11.3562
らなければならない	-11.3562
を獲得する	-11.3563
高温	-11.3569
んだり	-11.3571
捜索	-11.3573
▁ソ	-11.3573
ジー	-11.3575
▁家畜	-11.3576
ほどに	-11.3576
蒸留	-11.3576
変だ	-11.3576
せなかった	-11.3576
▁書類	-11.3579
の大きい	-11.358
を求めること	-11.3584
を害する	-11.3586
わな	-11.3587
国家の	-11.3589
▁僕が	-11.359
ース	-11.359
▁終わり	-11.359
変えること	-11.3592
▁シン	-11.3594
▁ギリシャ	-11.3596
告げる	-11.3598
のまわりに	-11.3599
▁緊急	-11.36
訪問する	-11.36
弾力	-11.3607
意味で	-11.3607
に入っている	-11.361
てきている	-11.3611
見せかけ	-11.3611
が異なる	-11.3611
小学校	-11.3613
大金	-11.3613
▁心身	-11.3613
をこめて	-11.3613
▁童	-11.3615
の中へ	-11.3617
下宿	-11.3617
▁いったん	-11.3617
ばかげた	-11.3619
あがること	-11.362
伝染	-11.3621
服を着て	-11.3621
全体に	-11.3621
考えている	-11.3625
染めた	-11.3625
って来る	-11.3626
してはならない	-11.3626
▁蒸気	-11.3628
中身	-11.3628
▁養	-11.3631
を発揮する	-11.3632
直る	-11.3632
いすを	-11.3633
▁約	-11.3634
▁暇	-11.3635
本質	-11.3635
刷	-11.3638
を脱ぐ	-11.3638
▁十分な	-11.3642
てやった	-11.3642
いなさい	-11.3644
▁続	-11.3648
自国	-11.365
組んで	-11.365
調子で	-11.3652
▁猛烈な	-11.3654
▁抜	-11.3655
揚げる	-11.3656
▁じゅ	-11.3659
▁荒れ	-11.366
▁食べ	-11.366
可能	-11.3661
▁その事件	-11.3661
楽しく	-11.3664
まっ	-11.3664
きめる	-11.3665
ミス	-11.3665
の上の	-11.3666
▁チ	-11.3667
伸	-11.367
甚	-11.367
国籍	-11.367
本体	-11.3671
なんとか	-11.3673
まれな	-11.3674
径	-11.3675
すわっている	-11.3675
百年	-11.3677
の少年	-11.3677
隠れた	-11.3677
やっかいな	-11.3677
荒い	-11.3678
本日	-11.3678
尽き	-11.3679
りました	-11.3679
▁さく	-11.3679
すぐれた人	-11.3681
そこなう	-11.3681
▁へたな	-11.3681
抑制	-11.3682
恥ずかしい	-11.3682
が切れ	-11.3684
宿題	-11.3684
の体	-11.3686
▁排	-11.3687
の顔	-11.3687
均衡	-11.3688
駐	-11.369
それまで	-11.369
嫡	-11.369
だらだら	-11.3691
推進	-11.3691
継続	-11.3692
黄褐色	-11.3692
班	-11.3692
恒	-11.3692
伯	-11.3692
独創	-11.3693
誕生	-11.3693
イオン	-11.3693
牙	-11.3693
田園	-11.3693
殴	-11.3693
契	-11.3693
ョ	-11.3693
k	-11.3694
須	-11.3694
▁軒	-11.3694
庵	-11.3694
カルシウム	-11.3694
乗組員	-11.3694
鯛	-11.3694
すさまじい	-11.3694
帥	-11.3694
咳	-11.3694
ブランデー	-11.3694
交互に	-11.3694
桐	-11.3694
莫	-11.3694
カナダ	-11.3694
ケーブル	-11.3694
燗	-11.3694
篭	-11.3694
蔓	-11.3694
ドラマ	-11.3694
濫	-11.3694
行なわれた	-11.3694
群れをなして	-11.3694
飴	-11.3694
仲たがい	-11.3694
扉	-11.3694
鰐	-11.3694
びっくりして	-11.3694
チョーク	-11.3694
薫	-11.3694
卜	-11.3694
竿	-11.3694
昭和	-11.3694
▁この上なく	-11.3694
子寬燭舛	-11.3694
猛烈に	-11.3694
籤	-11.3694
スプーン	-11.3694
擇	-11.3694
培養	-11.3694
絃	-11.3694
やかましく	-11.3694
独特の	-11.3694
を築く	-11.3694
転換	-11.3694
昭三	-11.3694
堤防	-11.3694
粘膜	-11.3694
包囲	-11.3694
天気予報	-11.3694
誇張	-11.3694
頑固	-11.3694
いただけませんか	-11.3695
停泊	-11.3695
補佐	-11.3695
助詞	-11.3695
規格	-11.3695
効能	-11.3695
苦悩	-11.3695
に次ぐ	-11.3695
たくましい	-11.3695
人工衛星	-11.3695
▁恐ろしい	-11.3695
祝賀	-11.3695
遊戯	-11.3695
▁筋	-11.3695
少なくとも	-11.3696
慣例	-11.3696
あらまし	-11.3696
勝敗	-11.3696
征服	-11.3696
恒星	-11.3696
接待	-11.3696
知り合い	-11.3696
われわれ	-11.3696
調停	-11.3696
富士	-11.3696
貝殻	-11.3696
仕組み	-11.3697
かなわない	-11.3697
未知の	-11.3697
屈折	-11.3697
患部	-11.3697
就業	-11.3697
何らかの	-11.3697
記載	-11.3697
わざわざ	-11.3697
においがする	-11.3697
やりくり	-11.3697
誤差	-11.3697
混雑	-11.3697
タンク	-11.3697
とらわれ	-11.3698
いっそう	-11.3698
残忍	-11.3698
静脈	-11.3698
往生	-11.3699
どけ	-11.3699
脱獄	-11.3699
威光	-11.3699
単独	-11.37
きっぱり	-11.37
必ずしも	-11.37
解散	-11.37
酒に酔って	-11.37
真似	-11.3701
座標	-11.3701
強制的に	-11.3701
値上げ	-11.3701
世襲	-11.3701
▁国境	-11.3701
オール	-11.3701
信託	-11.3702
絶縁	-11.3702
浄土	-11.3702
著書	-11.3703
さいころ	-11.3703
武術	-11.3703
四季	-11.3703
剣術	-11.3703
敬礼	-11.3703
発育	-11.3703
鳥獣	-11.3703
異なった	-11.3704
ほれ	-11.3704
強烈な	-11.3704
政務	-11.3704
ののしる	-11.3704
を構成する	-11.3704
信頼できる	-11.3704
笑顔	-11.3704
連結	-11.3704
難破	-11.3705
のに用いる	-11.3705
令状	-11.3706
破滅	-11.3706
話し方	-11.3706
感じを与える	-11.3707
移し	-11.3707
連邦	-11.3707
いたしました	-11.3707
順位	-11.3707
定期的に	-11.3708
海産	-11.3708
全集	-11.3708
へだて	-11.3709
家へ	-11.371
苦難	-11.3711
通用	-11.3712
取扱い	-11.3712
漢文	-11.3712
枝を	-11.3713
走っている	-11.3713
暗記	-11.3714
喜んだ	-11.3714
廻り	-11.3714
ときは	-11.3715
相手が	-11.3715
の所に	-11.3715
を申し込む	-11.3715
伝達	-11.3715
狭	-11.3715
無臭	-11.3716
泣いた	-11.3716
すがた	-11.3716
ねうち	-11.3717
からといって	-11.3717
障り	-11.3718
悪党	-11.3718
声明	-11.372
連隊	-11.372
ほぐ	-11.372
サー	-11.372
をたたき	-11.3721
▁疲れ	-11.3722
無効	-11.3722
見渡す	-11.3722
を免れ	-11.3722
観光客	-11.3724
答えた	-11.3724
性欲	-11.3724
器量	-11.3725
まぶた	-11.3725
合奏	-11.3725
▁げんきかいの予約状況を	-11.3726
壊れ	-11.3726
一段と	-11.3726
釈迦	-11.3726
を生む	-11.3727
らっぱ	-11.3728
をうかがう	-11.3729
乗船	-11.3729
気絶	-11.373
煎じ	-11.373
自称	-11.3731
過ち	-11.3731
ひそ	-11.3731
▁その問題	-11.3731
善意	-11.3732
くぎり	-11.3732
唱える	-11.3732
体内に	-11.3732
三日	-11.3733
▁年をとって	-11.3734
を取った	-11.3734
まさ	-11.3735
▁その話は	-11.3735
not	-11.3735
▁ト	-11.3736
の際に	-11.3737
ダン	-11.3737
店員	-11.3737
にし	-11.3738
とされている	-11.3738
▁幾	-11.3738
所有者	-11.374
独自の	-11.3741
こわれた	-11.3741
▁人情	-11.3741
距離を	-11.3742
はさんで	-11.3742
▁井戸	-11.3743
▁その土地	-11.3743
なさけ	-11.3743
賢明な	-11.3743
活動する	-11.3743
平凡な	-11.3745
読み方	-11.3745
積み重ね	-11.3747
敬意を表する	-11.3747
退学	-11.3748
これだけ	-11.3748
▁げんきかいの予約を	-11.3749
書きしるす	-11.3749
▁えい	-11.375
放す	-11.3751
ねばならない	-11.3752
定規	-11.3754
外界	-11.3755
▁活	-11.3756
堅	-11.3756
支配者	-11.3757
or	-11.3757
しょうゆ	-11.376
メッセちょっと	-11.3762
に浮かぶ	-11.3763
▁人間は	-11.3764
ためになる	-11.3766
▁彼はドア	-11.3766
滑	-11.3767
▁火山	-11.3768
▁冷静	-11.3768
▁議論の	-11.3768
書画	-11.3768
ほのか	-11.3772
ント	-11.3772
のそば	-11.3774
びれ	-11.3774
いわれ	-11.3775
もともと	-11.3775
広げ	-11.3778
植物の	-11.3778
重ねて	-11.3779
▁彼は父親	-11.378
立法	-11.3781
祝う	-11.3781
の責任	-11.3783
▁゚	-11.3783
武者	-11.3783
走ること	-11.3784
▁不可	-11.3784
一刻	-11.3784
▁恩	-11.3787
▁漸	-11.3787
歌劇	-11.3788
大学で	-11.379
会社に	-11.379
音便	-11.379
無関係	-11.379
▁彼から	-11.3791
腕力	-11.3793
を吸う	-11.3793
th	-11.3794
地表	-11.3795
▁小さな	-11.3796
▁秋の	-11.3798
尋ねる	-11.3799
の割合	-11.3799
のではないかと	-11.38
並べる	-11.38
浄化	-11.3802
寄せ集め	-11.3803
熱心な	-11.3803
風土	-11.3803
▁農	-11.3806
無作法	-11.3806
しぼ	-11.3809
げんきかいの予約を	-11.3809
離れて	-11.3809
換える	-11.3811
話して	-11.3812
をさせる	-11.3813
▁声を	-11.3814
登り	-11.3816
▁解	-11.3817
▁勇気	-11.3817
上方	-11.3818
てから	-11.3818
かむ	-11.3818
▁その仕事	-11.3819
と言えば	-11.3819
▁厚	-11.382
▁赤ん坊は	-11.3821
内輪	-11.3823
▁兼	-11.3824
関係がない	-11.3824
しめた	-11.3824
ハー	-11.3825
さまざまの	-11.3826
▁水は	-11.3828
すらすらと	-11.3828
不当	-11.3829
自分を	-11.383
知事	-11.3834
を探る	-11.3834
漢字の	-11.3835
磁気	-11.3836
▁部屋の	-11.3838
を妨げる	-11.384
ふたり	-11.3842
その場	-11.3842
の客	-11.3842
▁大便	-11.3843
マイク	-11.3843
えら	-11.3844
暴動	-11.3845
▁車を	-11.3846
▁恐れ	-11.3846
削る	-11.3849
▁さっさと	-11.3849
の支払い	-11.385
▁寄	-11.3851
▁お薬屋	-11.3851
慣れる	-11.3851
法会	-11.3852
日の出	-11.3853
こっそりと	-11.3856
▁悲	-11.3857
月末	-11.3858
▁舟	-11.3861
の広い	-11.3862
着ける	-11.3863
米を	-11.3864
分に	-11.3865
を飛ばす	-11.3866
▁ペ	-11.3868
仕える	-11.3868
靴討	-11.3869
違っている	-11.387
体重	-11.387
▁複	-11.3871
的には	-11.3874
音を立て	-11.3875
▁貨物	-11.3876
一種	-11.3876
を勤める	-11.3877
通う	-11.3879
に加わる	-11.3879
をひいて	-11.3882
▁地上	-11.3883
耐	-11.3883
皮を	-11.3886
の月	-11.3886
▁はるか	-11.3887
固有の	-11.3889
暮らしている	-11.389
計画を立てる	-11.3891
めちゃめちゃに	-11.3892
の形で	-11.3893
▁戦争の	-11.3893
▁疑問	-11.3893
国王	-11.3896
▁台所	-11.3896
忘れた	-11.3898
くてたまらない	-11.3899
有機	-11.3902
▁貴人	-11.3903
かねる	-11.3904
けがれ	-11.3904
▁すぐにメッセージ	-11.3905
に現れた	-11.3907
寄って	-11.3907
タクシー	-11.3909
これこれ	-11.391
を高く	-11.3911
すでに	-11.3912
の母	-11.3914
の仲間	-11.3914
〇〇	-11.3914
しょく	-11.3915
請け	-11.3919
▁出産	-11.3919
に足りない	-11.392
をうつ	-11.3921
衣類を	-11.3921
強いこと	-11.3922
言ったり	-11.3923
D	-11.3924
ld	-11.3925
たびたび	-11.3925
いよいよ	-11.3925
▁日常	-11.3927
と考えている	-11.3928
▁彼はどんな	-11.3928
年ごとに	-11.3929
▁大体	-11.3931
ずく	-11.3931
ビタミン	-11.3931
年生	-11.3932
▁文章の	-11.3932
悪人	-11.3933
公開	-11.3934
熱心	-11.3935
固め	-11.3936
ばくち	-11.3937
優しい	-11.3937
千代子	-11.3937
就職	-11.3937
心の中に	-11.3937
涙を流す	-11.3938
国外	-11.3938
どうやら	-11.3939
T	-11.3939
建設	-11.3939
梅雨	-11.3942
伸ばし	-11.3942
哀	-11.3943
山頂	-11.3943
いっぱいに	-11.3943
そう言った	-11.3943
偏見	-11.3944
▁今までに	-11.3944
シャ	-11.3945
繁殖	-11.3945
そうしたもの	-11.3946
国土	-11.3946
インフレ	-11.3949
ぜひ	-11.3949
はいい	-11.3949
二人以上	-11.395
の役	-11.3954
予備	-11.3955
酸味	-11.3956
チョウ	-11.3958
海底	-11.3958
悪意	-11.3958
を引いた	-11.3959
▁裁縫	-11.3959
最新の	-11.396
その問題について	-11.3961
▁むり	-11.3962
▁どん	-11.3964
が出て	-11.3968
地味	-11.397
▁巻き	-11.3971
はかない	-11.3972
▁没	-11.3972
明治	-11.3973
▁得	-11.3977
▁ヘ	-11.3979
相談する	-11.398
▁燃料	-11.3981
▁網	-11.3981
□・・	-11.3984
六つ	-11.3985
▁一人	-11.3985
正常	-11.3987
芸者	-11.3988
▁事件の	-11.3989
▁彼はひどく	-11.399
▁先生	-11.399
外見	-11.3994
ぼし	-11.3994
▁事業	-11.3995
召し	-11.3996
立体	-11.3997
腹を立てる	-11.3997
▁よし	-11.3999
倒し	-11.3999
があまり	-11.3999
かなりの	-11.4002
意味の	-11.4003
▁すぐに電話をかける	-11.4003
▁女子	-11.4005
おぼれ	-11.4009
足音	-11.4009
熟した	-11.401
赤道	-11.4012
うっとり	-11.4012
まさか	-11.4015
▁種種の	-11.4017
▁彼は我々	-11.4018
に言えば	-11.4019
いくさ	-11.402
セーター	-11.4021
綴	-11.4021
外から	-11.4021
語った	-11.4021
▁風呂	-11.4022
▁彼も	-11.4022
私にとって	-11.4022
高値	-11.4022
の者が	-11.4024
を注ぐ	-11.4025
▁兄弟	-11.4026
▁千代子	-11.4027
大根	-11.4032
先日	-11.4034
やってみた	-11.4034
▁我	-11.4035
仏道	-11.4036
同等	-11.4037
ーム	-11.404
引き出し	-11.404
▁昆虫	-11.4042
▁とんでもない	-11.4046
はずいぶん	-11.4047
通過	-11.4047
の下で	-11.4049
大砲	-11.405
の糸	-11.405
てない	-11.4053
千万円	-11.4054
頼んで	-11.4055
を求め	-11.4061
▁赤道	-11.4062
成る	-11.4066
一撃	-11.4068
▁彼は妻	-11.4068
の新	-11.407
▁この問題は	-11.4072
主人の	-11.4073
▁聴覚	-11.4073
ったりする	-11.4074
▁do	-11.4079
炎症	-11.4081
過労	-11.4081
悪口を言う	-11.4084
▁累	-11.4086
組む	-11.4086
母親の	-11.4086
▁烏	-11.4088
▁江戸時代に	-11.409
のほうへ	-11.409
▁国の	-11.4092
▁和歌	-11.4093
集まっている	-11.4093
▁靴を	-11.4094
いかがですか	-11.4095
鷹	-11.4097
▁子供は	-11.4097
乱暴に	-11.4098
水の	-11.4098
十一	-11.4099
▁だれにも	-11.4102
を開始する	-11.4102
みえ	-11.4102
自動車の	-11.4103
本心	-11.4104
分の一	-11.4105
テント	-11.4106
の薬	-11.4106
事を行う	-11.4106
買い物	-11.4109
▁めでたい	-11.411
▁貝	-11.4111
けもの	-11.4113
正直に	-11.4114
as	-11.4115
見掛け	-11.4116
に来た	-11.4117
トリ	-11.4117
散り	-11.4118
全体を	-11.4118
▁言葉を	-11.412
くわえ	-11.412
意見を述べる	-11.412
月日	-11.4121
科の落葉低木	-11.4124
の花が	-11.4128
▁熱帯	-11.4129
ならなかった	-11.4132
▁こんなに	-11.4132
ぐり	-11.4133
の旅	-11.4133
打ち解け	-11.4133
▁応	-11.4135
噴	-11.4135
▁新聞の	-11.4136
できるだけ	-11.4138
作物の	-11.414
この点	-11.414
ばった	-11.4142
平地	-11.4143
グレ	-11.4143
武士の	-11.4144
公平に	-11.4145
メッセいまから	-11.4148
▁バイオリン	-11.4148
た時	-11.4149
土曜日	-11.415
を知らせる	-11.415
▁穀物	-11.4152
甘く	-11.4156
作られる	-11.4156
の骨	-11.4157
をあて	-11.4158
さあ	-11.4159
に添える	-11.4159
供える	-11.416
問題について	-11.4164
切に	-11.4164
此	-11.4164
厳重に	-11.4164
の羽	-11.4165
▁講義	-11.4166
手荷物	-11.4168
通ってい	-11.4169
生理	-11.4169
であり	-11.4171
抜いて	-11.4172
を加えた	-11.4173
がね	-11.4173
▁情け	-11.4173
ter	-11.4175
▁堅い	-11.4176
へや	-11.4178
説得	-11.418
日常の	-11.4181
▁身分の高い人	-11.4182
管轄	-11.4186
俗人	-11.4186
▁まるで	-11.4188
こわす	-11.4189
て言う語	-11.4195
▁大丈夫	-11.4199
がとれる	-11.42
五センチ	-11.4203
間柄	-11.4203
せば	-11.4204
▁小麦	-11.4204
簡略	-11.4205
もよい	-11.4207
せられた	-11.4207
あとの	-11.4208
呈	-11.4208
党員	-11.4209
▁灰	-11.4211
に関すること	-11.4212
大声	-11.4212
ないうちに	-11.4214
概	-11.4216
▁じゃ	-11.4217
監禁	-11.4217
燃	-11.4218
▁非常な	-11.4219
苦しく	-11.4219
ごし	-11.4219
のところで	-11.4219
ことがわかっ	-11.422
を乱す	-11.4221
▁インク	-11.4224
焼ける	-11.4224
▁ポケット	-11.4224
上陸	-11.4224
つる草	-11.4226
▁ある事を	-11.4228
溶け	-11.4229
に及ぶ	-11.4231
かぬ	-11.4232
貼	-11.4232
▁ある物	-11.4233
送金	-11.4234
何事も	-11.4234
戦争で	-11.4234
尋ねた	-11.4242
悪事を	-11.4242
に話す	-11.4243
を捜した	-11.4243
のでなく	-11.4243
滅び	-11.4246
を動かす	-11.4246
きる	-11.4247
あんなに	-11.4248
ウエスト	-11.4249
くする	-11.4249
▁昨夜は	-11.4251
配り	-11.4251
になるような	-11.4252
を浴びる	-11.4252
選ぶ	-11.4254
▁くず	-11.4255
をすっかり	-11.4255
漠	-11.4255
の発達	-11.4257
を晴らす	-11.4257
潰	-11.4257
▁そうじゃな	-11.4257
の仲	-11.4258
模型	-11.4258
箇	-11.4258
を見捨て	-11.4258
だれの	-11.4259
嘆願	-11.4261
にぶい	-11.4261
▁彼は何	-11.4262
でこぼこ	-11.4262
▁みだらな	-11.4262
▁エレベーター	-11.4262
認	-11.4264
土地の	-11.4264
提供	-11.4264
始末	-11.4265
宣告	-11.4265
絹布	-11.4266
▁送	-11.4266
永遠	-11.4266
不定	-11.4267
▁都会	-11.4269
一か所に	-11.427
▁妊娠	-11.4271
推定	-11.4271
▁困難	-11.4271
注ぎ	-11.4271
考えてみ	-11.4271
媒	-11.4272
もらって	-11.4272
▁春の	-11.4273
鋒	-11.4276
査	-11.4276
を禁じ	-11.4276
賓	-11.4277
▁食物	-11.4277
かって	-11.4278
▁相互	-11.4278
に値する	-11.4278
委	-11.4278
蕩	-11.4279
に伴う	-11.428
提携	-11.428
惜しみ	-11.428
蹐	-11.428
錯	-11.428
F	-11.4281
需	-11.4281
弥	-11.4281
加藤	-11.4281
混合	-11.4281
杉	-11.4281
せっせと	-11.4282
肖像画	-11.4282
を払って	-11.4282
兎	-11.4282
を禁ずる	-11.4282
苛	-11.4282
拳銃	-11.4282
奨	-11.4282
憐	-11.4282
文房具	-11.4282
にかかわらず	-11.4282
スイッチ	-11.4282
款	-11.4282
詮	-11.4282
▁飢え	-11.4282
いわゆる	-11.4282
朴	-11.4282
ホルモン	-11.4282
吾	-11.4282
閨	-11.4282
G	-11.4282
うろたえ	-11.4282
ぎゅっと	-11.4282
ちゅうちょ	-11.4282
ジャングル	-11.4282
ソファー	-11.4282
タッチ	-11.4282
コルク	-11.4282
トマト	-11.4282
奨学金	-11.4282
燕	-11.4282
L	-11.4282
をきわめる	-11.4282
大げさに	-11.4282
次から次へと	-11.4282
痔	-11.4282
鯉	-11.4282
曚	-11.4282
を仰ぐ	-11.4282
を慰める	-11.4282
辛抱	-11.4282
徐々に	-11.4282
郡	-11.4282
誼	-11.4282
紗	-11.4282
喝	-11.4282
表彰	-11.4282
たぶん	-11.4282
煩悩	-11.4282
▁二十四気	-11.4282
イングランド	-11.4282
夜が明け	-11.4282
催促	-11.4282
たきぎ	-11.4282
巡査	-11.4283
プリント	-11.4283
カーブ	-11.4283
五月ごろ	-11.4283
外套	-11.4283
潜水艦	-11.4283
発酵	-11.4283
放射線	-11.4283
明らか	-11.4283
周旋	-11.4283
セメント	-11.4283
艦隊	-11.4283
激励	-11.4283
腐敗	-11.4284
ウェ	-11.4284
功労	-11.4284
やさしく	-11.4284
関東	-11.4284
結末	-11.4284
賃上げ	-11.4284
ギヤ	-11.4284
となえる	-11.4284
ミシン	-11.4284
簿記	-11.4284
郷里	-11.4284
デート	-11.4285
皇族	-11.4285
休止	-11.4285
光栄	-11.4285
土俵	-11.4285
冷凍	-11.4285
婚礼	-11.4285
鮮明	-11.4286
に含まれる	-11.4286
長い年月	-11.4286
球技	-11.4286
デモ	-11.4286
ジャム	-11.4286
たくみに	-11.4286
浜辺	-11.4287
住んでいた	-11.4287
發里	-11.4287
因縁	-11.4287
多くの人	-11.4287
工具	-11.4288
ソン	-11.4288
ほんの少し	-11.4288
百姓	-11.4288
神秘的な	-11.4288
達成	-11.4288
ふん	-11.4288
ある種の	-11.4289
情景	-11.4289
失策	-11.4289
農夫	-11.4289
危害	-11.429
自動的に	-11.429
売り上げ	-11.429
テレ	-11.429
▁この部屋は	-11.429
草稿	-11.429
卒業生	-11.429
荒廃	-11.429
殺害	-11.4291
▁妻の	-11.4291
のないように	-11.4291
はげしく	-11.4291
に報いる	-11.4291
映画館	-11.4291
カット	-11.4292
に相当する	-11.4292
減少	-11.4292
メモ	-11.4292
▁そうだ	-11.4292
実施	-11.4293
▁東洋	-11.4293
僕が	-11.4293
体育	-11.4293
▁電力	-11.4293
誠意	-11.4293
高貴	-11.4294
沈む	-11.4294
可能な	-11.4294
平静	-11.4294
クマ	-11.4294
会わない	-11.4295
成句	-11.4295
こぼし	-11.4295
禁煙	-11.4295
要約	-11.4295
断定	-11.4295
おおもと	-11.4296
定刻	-11.4296
皮膚病	-11.4296
半島	-11.4297
パンチ	-11.4297
不便	-11.4297
にあずかる	-11.4297
合議	-11.4297
夏休み	-11.4297
反省	-11.4297
不愉快	-11.4297
▁中古	-11.4297
生育	-11.4298
火鉢	-11.4298
一晩中	-11.4298
みがき	-11.4298
逆転	-11.4298
真価	-11.4299
重荷	-11.4299
くじら	-11.4299
利息	-11.4299
手がかり	-11.4299
と聞いて	-11.43
長生き	-11.43
▁処女	-11.4301
見出し	-11.4301
歴史的	-11.4301
緑色で	-11.4301
原野	-11.4301
計器	-11.4302
生きて	-11.4302
日常	-11.4304
上司	-11.4305
九州	-11.4306
すっきり	-11.4306
粒子	-11.4307
破れ	-11.4307
ちがい	-11.4307
純白	-11.4307
音を出す	-11.4307
あげく	-11.4307
もはや	-11.4307
黄色で	-11.4309
選手権	-11.4309
たぐい	-11.431
暗示	-11.4311
けがをした	-11.4311
読み書き	-11.4311
▁阿	-11.4311
単なる	-11.4311
群集	-11.4312
を愛する	-11.4313
▁費用は	-11.4313
をなしている	-11.4314
にあてる	-11.4315
ところがあった	-11.4315
出帆	-11.4315
ポン	-11.4316
整数	-11.4316
陣地	-11.4319
砂利	-11.4319
公判	-11.432
救い	-11.4321
▁脊椎動物の	-11.4321
一まとまり	-11.4322
▁れい	-11.4322
▁幽	-11.4322
をふ	-11.4323
あざやかな	-11.4323
をこしらえる	-11.4324
ずし	-11.4324
に気づいた	-11.4325
翌日	-11.4325
歌曲	-11.4326
▁ペンキ	-11.4327
好ましくない	-11.4327
時ごろ	-11.4327
不和	-11.4327
当座	-11.4329
ちがう	-11.4329
一年中	-11.4329
の政治	-11.4331
問題が	-11.4331
▁シェイクスピア	-11.4332
学位	-11.4332
▁頬	-11.4332
▁表面	-11.4333
この計画	-11.4333
▁拙	-11.4333
坊や	-11.4334
▁私たちの	-11.4334
帆船	-11.4335
通例	-11.4337
と言われる	-11.4338
との中間	-11.4338
▁身長	-11.4338
▁興行	-11.4339
資本家	-11.4339
の鳥	-11.434
穂状	-11.4342
主役	-11.4342
活動の	-11.4342
を確かめる	-11.4343
確実	-11.4344
浅く	-11.4344
▁男性	-11.4344
▁探	-11.4344
に参加する	-11.4345
説く	-11.4345
▁ほら	-11.4347
獲得	-11.4347
柔らかな	-11.4348
方策	-11.4348
々たる	-11.4349
▁結果は	-11.4349
音程	-11.435
包む	-11.435
谷間	-11.4352
ぶね	-11.4352
浮かぶ	-11.4352
をいう	-11.4353
主任	-11.4353
帰国	-11.4354
そうな様子	-11.4355
▁私は彼女	-11.4355
▁女性の	-11.4355
▁当て	-11.4357
才気	-11.4358
第三者	-11.4359
ばかりだった	-11.436
くだもの	-11.436
不完全	-11.436
砂糖を	-11.4361
自分から	-11.4361
示した	-11.4361
下院	-11.4362
杯の	-11.4362
酔う	-11.4363
にそむく	-11.4365
をたどる	-11.4366
▁肥	-11.4366
はかま	-11.4367
実が	-11.4367
あの世	-11.4369
にすむ	-11.4371
あいている	-11.4372
▁こく	-11.4372
に似ているが	-11.4372
ある場所	-11.4372
血が	-11.4372
半期	-11.4374
休息	-11.4374
ふところ	-11.4375
登る	-11.4376
不明の	-11.4377
▁°	-11.4377
大学の	-11.4378
おかず	-11.4379
育てること	-11.438
▁聖書	-11.4381
前田	-11.4381
度数	-11.4382
▁キリスト教で	-11.4382
ことになる	-11.4383
もも	-11.4383
切ること	-11.4383
金持	-11.4385
蕕譴	-11.4386
まげ	-11.4388
よくよく	-11.4389
創作	-11.4391
全世界	-11.4392
の景色	-11.4394
がちだ	-11.4395
王国	-11.4397
仮に	-11.4398
▁昼食	-11.4398
斜めに	-11.4399
▁こちら	-11.44
投げる	-11.4401
乗せて	-11.4402
歩道	-11.4405
霧が	-11.4407
小説家	-11.4408
を他の	-11.4408
きました	-11.4408
▁公共	-11.4409
の車	-11.4409
た食品	-11.4413
を巻く	-11.4414
どく	-11.4414
を述べた	-11.4415
▁なお	-11.4416
枝が	-11.4419
▁衆	-11.4421
加わる	-11.4422
▁不平	-11.4422
物事を行う	-11.4423
▁絵画	-11.4424
▁呼び	-11.4424
政界	-11.4425
▁彼は友人	-11.4425
に分けて	-11.4425
腐れ	-11.4426
その上	-11.4426
生物が	-11.4427
は僕の	-11.4429
上演	-11.443
越年生	-11.4431
をごまかす	-11.4432
▁ジョン	-11.4435
▁しばらく	-11.4435
つやがある	-11.4436
の模様	-11.4436
新聞で	-11.4436
あふれてい	-11.4437
▁敬	-11.4437
日曜	-11.4437
▁警戒	-11.4437
いし	-11.4441
▁濃	-11.4442
銃声	-11.4443
▁株式	-11.4444
よる	-11.4444
の地位	-11.4444
を見ること	-11.4445
▁食物を	-11.4445
降った	-11.4445
東洋	-11.4445
水や	-11.4446
不作	-11.4447
の荒い	-11.4447
なれば	-11.4449
かぶと	-11.4449
大笑い	-11.4452
に悩む	-11.4455
▁ここに	-11.4455
実地に	-11.4457
▁明日	-11.4458
▁軍艦	-11.4458
正確	-11.4461
大家	-11.4461
を結び	-11.4461
とどめ	-11.4461
点数	-11.4461
貯え	-11.4464
りやすい	-11.4465
に立ち	-11.4466
すわること	-11.4467
▁ジャ	-11.4467
割れた	-11.447
してやった	-11.4471
をきれいに	-11.4471
▁職務	-11.4475
な男	-11.4477
を握る	-11.448
▁頓	-11.4482
の一派	-11.4484
船を	-11.4484
出発した	-11.4485
正一	-11.4485
でもある	-11.4486
助けてくれ	-11.4487
去って	-11.4493
小便	-11.4496
▁かわいい	-11.4498
詩の	-11.4499
▁釣	-11.4499
をつなぐ	-11.4502
誓	-11.4502
急所	-11.4504
▁20	-11.4504
もしなかった	-11.4504
▁技術	-11.4505
ならす	-11.4506
に咲く	-11.4509
海上	-11.4509
を抜いて	-11.451
▁軍人	-11.4511
▁又	-11.4512
▁狩猟	-11.4512
▁人類	-11.4513
会場	-11.4514
▁運賃	-11.4514
かれて	-11.4515
廃物	-11.4518
▁つめ	-11.4518
ができて	-11.4522
▁しょ	-11.4523
▁悪魔	-11.4525
かろう	-11.4527
のだろうか	-11.4529
スピード	-11.453
あれほど	-11.4533
ができ	-11.4535
分別	-11.4535
ていないこと	-11.4538
▁カメラ	-11.4538
巻きつけ	-11.454
▁彼女を	-11.454
その上に	-11.4541
▁まさか	-11.4544
すぐれたもの	-11.4544
共鳴	-11.4545
斜め	-11.4546
一派	-11.4549
▁この世	-11.4549
論ずる	-11.4551
皮膚に	-11.4554
を望む	-11.4554
細君	-11.4556
通じている	-11.4556
▁彼女は自分	-11.4557
を起こし	-11.4558
になります	-11.4559
だらけ	-11.4559
実体	-11.456
をなして	-11.456
求めること	-11.456
日曜日	-11.456
▁白い	-11.4561
道が	-11.4561
おぼれる	-11.4564
をつけない	-11.4564
▁排水	-11.4565
息子に	-11.4566
▁実物	-11.4568
かざ	-11.4569
が落ちる	-11.4573
▁邪	-11.4573
もありません	-11.4574
その場で	-11.4574
したものだ	-11.4575
グル	-11.4579
遅	-11.4583
その日の	-11.4584
▁運命	-11.4587
▁老い	-11.4589
行ない	-11.4589
を楽しむ	-11.459
ドリ	-11.4592
▁家屋	-11.4592
▁ジョンは	-11.4592
必	-11.4593
幾つ	-11.4593
料理の	-11.4594
▁侍	-11.4594
をかむ	-11.4594
不幸な	-11.4595
大気	-11.4595
液体の	-11.4595
▁会場	-11.4597
陰謀	-11.4597
しません	-11.4598
夏に	-11.4599
▁ベッド	-11.4599
紛	-11.4599
▁枕	-11.4599
英文学	-11.4599
▁スト	-11.4599
ジャズ	-11.4601
飼う	-11.4602
凶	-11.4604
歩調	-11.4605
▁彼は彼ら	-11.4605
そろえ	-11.4606
日本に	-11.4607
状態にする	-11.4609
イタリア	-11.4609
小麦粉	-11.4609
はいる	-11.461
端に	-11.4611
▁鉄道の	-11.4611
に走る	-11.4612
で打つ	-11.4612
とらえ	-11.4614
メン	-11.4615
から離れて	-11.4615
▁正面	-11.4616
食卓	-11.4616
田舎	-11.4617
焼けて	-11.462
食料	-11.4621
一通り	-11.4622
子に	-11.4622
航空	-11.4624
▁怪	-11.4625
野外	-11.4626
がたまる	-11.4627
当日	-11.4627
便所	-11.4627
伝える	-11.4629
申し上げ	-11.4632
を加えること	-11.4633
じき	-11.4636
税金	-11.4637
▁T	-11.4637
じた	-11.4637
▁建設	-11.4638
もんか	-11.4638
靴覆	-11.4639
私たちは	-11.4639
に残る	-11.4641
▁誤った	-11.4642
ひね	-11.4643
▁工事	-11.4644
に属し	-11.4647
▁すでに	-11.4648
済み	-11.4649
花の	-11.4652
っぽく	-11.4653
かかっていた	-11.4654
任命	-11.4654
の豊かな	-11.4654
したりすること	-11.4655
飛んでい	-11.4656
つみ	-11.4657
▁保険	-11.4659
赤ん坊を	-11.466
小石	-11.4661
の価格	-11.4661
運動をする	-11.4662
北方	-11.4664
▁顔を	-11.4665
を上げて	-11.4666
の回転	-11.4666
神道	-11.4671
の作用	-11.4673
を証明する	-11.4673
正規の	-11.4675
ぶった	-11.4676
▁原子	-11.4679
本国	-11.468
の要求	-11.4681
の表	-11.4682
その辺	-11.4684
虫が	-11.4685
のしみ	-11.4686
仕入れ	-11.4686
▁長さ	-11.4686
等で	-11.4688
▁射	-11.4689
の着物	-11.4689
表現する	-11.4691
の小説	-11.4692
僕に	-11.4693
意地	-11.4695
られること	-11.4695
西部	-11.4696
告白	-11.4698
▁禁酒	-11.4698
金属を	-11.4699
版画	-11.47
▁かぜ	-11.47
の保護	-11.4702
たがる	-11.4702
▁書籍	-11.4703
吹く風	-11.4704
▁かき	-11.4704
音の	-11.4704
流出	-11.4707
はまるで	-11.4707
接する	-11.4712
▁洗濯	-11.4712
信じる	-11.4716
経済的	-11.4716
を与えること	-11.4718
▁施	-11.4718
くっつく	-11.4719
寬	-11.4722
下がった	-11.4722
恐れて	-11.4722
持っていること	-11.4722
らせること	-11.4725
青空	-11.4726
▁問題を	-11.4728
馬に乗って	-11.4729
当時の	-11.4735
▁雲が	-11.4736
なくては	-11.4737
尊重	-11.4738
▁きょうの	-11.4738
ありのまま	-11.474
▁まめ	-11.4742
▁かなり	-11.4742
降ろ	-11.4742
▁なぞ	-11.4743
力学	-11.4744
▁とん	-11.4745
打ち明け	-11.4746
▁ほお	-11.4747
時だ	-11.4747
▁憲法	-11.4748
▁予想	-11.4752
始まる	-11.4755
頑張	-11.4757
▁いつか	-11.4757
きれない	-11.4757
糸で	-11.4758
▁パイプ	-11.4758
六月	-11.4758
▁穴	-11.476
プレ	-11.4763
はじき	-11.4768
▁トラ	-11.4769
▁まっすぐ	-11.4769
の順序	-11.477
の力で	-11.4771
▁特別の	-11.4771
▁駄	-11.4772
人人が	-11.4773
をつぶす	-11.4775
▁爪	-11.4777
見ても	-11.4777
努力を	-11.4778
番目	-11.4778
女だ	-11.4779
債	-11.478
▁セ	-11.4781
一番よい	-11.4782
同類の	-11.4783
から成り	-11.4785
▁ホームヘルパーさん	-11.4786
▁通信	-11.4786
書物の	-11.4786
の戦い	-11.4788
右手	-11.4789
値打ち	-11.4789
学士	-11.4791
多くの人が	-11.4791
じょうずに	-11.4792
▁濃い	-11.4792
▁袖	-11.4793
簡単	-11.4793
ローマ字	-11.4795
大都市	-11.4796
に帰る	-11.4801
▁準備	-11.4802
は薬用	-11.4802
かぶる	-11.4804
部屋の中	-11.4806
別れる	-11.4811
新人	-11.4812
据え	-11.4812
ずき	-11.4815
すし	-11.4817
暖地	-11.4817
フォー	-11.4817
の重さ	-11.4818
▁天才	-11.4821
たいした	-11.4821
▁昨日	-11.4822
ドライブ	-11.4822
があったら	-11.4823
延期	-11.4824
まぶ	-11.4825
に分かれて	-11.4825
音が	-11.4827
▁手術	-11.4829
をもらって	-11.483
あじ	-11.4831
こもって	-11.4832
野菜を	-11.4832
▁やがて	-11.4833
▁ケアマネ	-11.4833
言われる	-11.4833
公認	-11.4834
五弁	-11.4835
▁品質	-11.4835
▁図書館	-11.4841
大人	-11.4841
つかまえる	-11.4842
飛行機が	-11.4842
くれない	-11.4842
を捜して	-11.4843
の技術	-11.4844
▁婚約	-11.4847
▁しゃく	-11.4847
未開	-11.4847
突き出た	-11.4849
よりずっと	-11.485
がかかる	-11.4851
時刻に	-11.4854
ひっくり返	-11.4854
余る	-11.4854
を挙げる	-11.4855
人々が	-11.4856
まとめた	-11.4857
に立って	-11.4857
をたたいて	-11.4858
もせず	-11.486
首に	-11.486
が悪く	-11.4861
の中にある	-11.4861
軽率	-11.4863
臨終	-11.4864
額に	-11.4865
をしないこと	-11.4865
腰掛け	-11.4866
計算する	-11.4867
やすく	-11.4869
陽子	-11.4871
恨	-11.4874
が残る	-11.4876
▁たいていの	-11.4877
気になった	-11.4877
にはいる	-11.4877
の成功を	-11.4877
募	-11.4878
休め	-11.4879
歩き回る	-11.488
かなければならない	-11.488
本当だ	-11.4881
でたらめ	-11.4883
反逆	-11.4883
▁部屋を	-11.4883
痛みが	-11.4883
が切れる	-11.4884
婦人用	-11.4886
御所	-11.4886
共産主義	-11.4887
履	-11.4888
般	-11.4888
じょうず	-11.4888
努力した	-11.489
縁組	-11.489
太陽が	-11.489
厄	-11.4891
している人	-11.4892
征	-11.4892
▁会計	-11.4892
ぐれ	-11.4892
くろ	-11.4892
こっち	-11.4893
正当	-11.4893
▁仙	-11.4893
がほしい	-11.4894
察する	-11.4894
稼ぎ	-11.4894
ぎょ	-11.4895
捻	-11.4896
山道	-11.4897
究	-11.4897
キュ	-11.4898
汽	-11.4898
▁畳	-11.4899
ないのに	-11.4899
出資	-11.4899
威勢	-11.4899
痕	-11.49
に産する	-11.49
記した	-11.4902
小作	-11.4902
囲碁	-11.4902
申しあげます	-11.4902
婆	-11.4902
▁内閣	-11.4902
▁地球は	-11.4903
を支える	-11.4903
傑	-11.4903
出てくる	-11.4904
臼	-11.4904
研	-11.4904
まんまと	-11.4904
▁船を	-11.4904
容赦	-11.4905
謹	-11.4905
肢	-11.4905
絵をかく	-11.4905
リットル	-11.4906
いかがわしい	-11.4906
をねらう	-11.4906
スピーチ	-11.4907
爐	-11.4907
遡	-11.4907
悊	-11.4907
孟	-11.4907
瘡	-11.4907
屠	-11.4907
灌	-11.4907
ナトリウム	-11.4907
漿	-11.4907
x	-11.4907
窟	-11.4907
丁寧に	-11.4907
聾	-11.4907
准	-11.4907
撥	-11.4907
欺	-11.4907
あこがれ	-11.4907
ちょっぴり	-11.4907
アルミニウム	-11.4907
吠	-11.4907
鄙	-11.4907
ボクサー	-11.4907
只	-11.4907
畔	-11.4907
疵	-11.4907
躯	-11.4907
ぐるりと	-11.4907
そわそわ	-11.4907
とは限らない	-11.4907
オフィス	-11.4907
オーケストラ	-11.4907
ステレオ	-11.4907
健太さん	-11.4907
廓	-11.4907
註	-11.4907
そろばん	-11.4907
俊	-11.4907
斧	-11.4907
猥	-11.4907
祥	-11.4907
途方もない	-11.4907
誅	-11.4907
稜	-11.4907
未亡人	-11.4907
幾重にも	-11.4907
▁江戸時代の	-11.4907
びっくりする	-11.4907
謙遜	-11.4907
が伴う	-11.4907
プラスチック	-11.4907
膨張	-11.4907
けしからぬ	-11.4907
いろんな	-11.4907
正方形	-11.4907
認可	-11.4907
グラム	-11.4907
かろうじて	-11.4907
採掘	-11.4907
用途が広い	-11.4908
伸縮	-11.4908
か否か	-11.4908
鎌倉	-11.4908
徴候	-11.4908
調味料	-11.4908
進退	-11.4908
崩壊	-11.4908
のらくら	-11.4908
至る所	-11.4908
ラッパ	-11.4908
強引に	-11.4908
誓約	-11.4908
ブラック	-11.4908
問答	-11.4908
実践	-11.4908
きく科の多年生植物	-11.4908
包丁	-11.4908
も同然だ	-11.4908
を越えた	-11.4908
圧縮	-11.4909
を売って	-11.4909
意匠	-11.4909
同種の	-11.4909
諸侯	-11.4909
完結	-11.4909
のぞき	-11.4909
語彙	-11.4909
預かり	-11.4909
何年も	-11.4909
喪失	-11.4909
隔たり	-11.4909
傑作	-11.4909
索引	-11.4909
こまかく	-11.4909
しのぎ	-11.4909
傍聴	-11.4909
弊害	-11.4909
旗を	-11.491
謝礼	-11.491
了解	-11.491
設けられた	-11.491
容積	-11.491
参照	-11.491
保有	-11.491
どなた	-11.491
堅固	-11.491
曇った	-11.491
わきまえ	-11.4911
▁意地	-11.4911
海苔	-11.4911
限定	-11.4911
ペット	-11.4911
充実	-11.4911
例えば	-11.4911
炊事	-11.4911
全般	-11.4911
引退	-11.4911
答案	-11.4911
言いつけ	-11.4911
担任	-11.4912
あんまり	-11.4912
身分の低い	-11.4912
ちょろ	-11.4912
▁その川は	-11.4912
ジム	-11.4912
フォ	-11.4913
呑み	-11.4913
を備えた	-11.4913
ノン	-11.4913
溶接	-11.4915
偽造	-11.4915
返礼	-11.4915
荷造り	-11.4915
特質	-11.4915
しかたがない	-11.4915
▁抗	-11.4916
ジェット機	-11.4916
の度合	-11.4916
ニュー	-11.4916
映画の	-11.4916
酒宴	-11.4916
になりたい	-11.4916
選挙区	-11.4917
を刈る	-11.4917
容量	-11.4917
採点	-11.4917
▁ニュース	-11.4917
▁その劇は	-11.4917
逃亡	-11.4917
優良	-11.4917
修士	-11.4918
指紋	-11.4918
泳いで	-11.4918
無分別	-11.4918
女郎	-11.4919
美容	-11.4921
あたま	-11.4921
不振	-11.4921
手を振って	-11.4921
食べられる	-11.4921
天災	-11.4921
に至る	-11.4921
言葉づかい	-11.4922
不可能だ	-11.4922
牢屋	-11.4922
建築物	-11.4922
敵意	-11.4923
片づける	-11.4923
占い	-11.4923
忌み	-11.4923
羽根	-11.4923
その物	-11.4923
合い図	-11.4923
伝記	-11.4923
即席	-11.4924
こども	-11.4924
技法	-11.4924
動物が	-11.4924
骨組	-11.4925
昼夜	-11.4925
なことをする	-11.4926
中年	-11.4926
倍の	-11.4926
なすべき	-11.4927
の主人	-11.4927
学級	-11.4927
豊富な	-11.4928
複写	-11.4928
金庫	-11.4929
傷害	-11.4929
▁もう一度	-11.493
▁余計な	-11.4931
返した	-11.4931
愛好	-11.4931
文壇	-11.4932
引っぱる	-11.4932
好んで	-11.4932
露骨	-11.4932
平常	-11.4933
の和	-11.4934
ぴったり合う	-11.4934
▁山野	-11.4935
競技場	-11.4935
を引き出す	-11.4935
▁独立	-11.4935
額面	-11.4935
通常	-11.4935
今頃	-11.4935
▁馬を	-11.4936
食料品	-11.4937
消費者	-11.4937
婦人服	-11.4937
領主	-11.4938
▁ちょっとメッセ	-11.4938
は言えない	-11.4938
化粧品	-11.494
霊魂	-11.494
和解	-11.494
草原	-11.494
▁にわかに	-11.4941
血筋	-11.4941
考えられる	-11.4942
▁幸運	-11.4942
債権者	-11.4943
後退	-11.4943
話し合う	-11.4943
実在	-11.4945
地盤	-11.4945
▁戦場	-11.4946
慣れた	-11.4946
遺産	-11.4946
旅費	-11.4946
年頃	-11.4947
薄弱	-11.4947
▁あの男の	-11.4948
年寄り	-11.4948
魔法	-11.495
国防	-11.495
をなくす	-11.495
そこへ	-11.495
優美な	-11.4951
したことを	-11.4951
天罰	-11.4951
僕には	-11.4952
渡った	-11.4952
我慢する	-11.4953
っ面	-11.4953
▁P	-11.4953
あわせて	-11.4955
買手	-11.4958
表した	-11.4959
海辺	-11.4959
分割	-11.496
病気になった	-11.4961
晴れた	-11.4961
▁透	-11.4961
第二	-11.4963
下ろし	-11.4963
ホテルに	-11.4964
腹は白	-11.4964
言う言葉	-11.4964
着用	-11.4966
で遊ぶ	-11.4968
▁修	-11.4969
▁原文	-11.497
防火	-11.497
ある期間	-11.4971
解き	-11.4972
呂覆	-11.4974
じじ	-11.4975
もらいたい	-11.4975
▁群衆は	-11.4976
を曲げる	-11.4977
どうでも	-11.4978
┐	-11.4978
に上る	-11.498
一般的な	-11.498
船乗り	-11.4982
見張る	-11.4982
打ち上げ	-11.4982
▁責め	-11.4982
できます	-11.4985
歩み	-11.4985
引き抜く	-11.4986
に反して	-11.4988
力のある	-11.4989
の全体	-11.4989
陸上	-11.499
文筆	-11.4992
などで作った	-11.4994
▁体重	-11.4994
斬り	-11.4994
野鳥	-11.4995
どぶ	-11.4997
が最も	-11.4997
してよい	-11.4998
高級	-11.4999
がとても	-11.5
近くの	-11.5
なかま	-11.5002
下る	-11.5002
道化	-11.5003
罰金	-11.5003
周期	-11.5005
親等	-11.5005
直行	-11.5007
に気をつけ	-11.5007
個人的な	-11.5009
▁酸	-11.5009
▁いか	-11.501
じろ	-11.501
一塁	-11.5011
今後	-11.5013
妨げ	-11.5014
淡水	-11.5016
▁ちゅう	-11.5019
の周り	-11.502
▁その人の	-11.502
哀れな	-11.502
看護	-11.5022
苦しめる	-11.5024
▁浜	-11.5025
一か月	-11.5025
▁スピード	-11.5025
▁書物を	-11.5026
▁芝居で	-11.5027
噴出	-11.5027
が短い	-11.5028
警察に	-11.5029
放送局	-11.503
たちが	-11.503
さらし	-11.5031
方々	-11.5031
あらい	-11.5031
」、「	-11.5032
関税	-11.5033
▁恋愛	-11.5034
防水	-11.5035
▁彼らに	-11.5036
真空	-11.5036
至急	-11.5036
そのため	-11.5037
あわせること	-11.5037
ためには	-11.5041
右側	-11.5042
高め	-11.5043
▁彼は仕事	-11.5045
出なかった	-11.5048
学校へ行く	-11.5053
開けた	-11.5054
じょうずな	-11.5056
好きだ	-11.5057
の意志	-11.5058
というのが	-11.5058
進路	-11.5059
個性	-11.5062
の側	-11.5062
こない	-11.5066
桜の	-11.5068
▁紅茶	-11.507
お茶を	-11.5072
に変わる	-11.5072
のうちの	-11.5073
同行	-11.5075
かんで	-11.5076
絶望	-11.5076
指先	-11.5077
▁平面	-11.5078
雑用	-11.5081
それらの	-11.5082
が合わない	-11.5082
結果として	-11.5084
の午後	-11.5084
来世	-11.5085
の季節	-11.5087
信心	-11.5088
▁彼は僕	-11.5088
論点	-11.5089
の時間	-11.5089
棒を	-11.5089
大波	-11.509
応じ	-11.5091
▁酔っぱら	-11.5092
▁喜んで	-11.5094
そうだった	-11.5098
刺す	-11.5099
▁計算	-11.51
▁受験	-11.51
▁いん	-11.5103
あいだ	-11.5103
しかけ	-11.5104
▁話の	-11.5104
言を言う	-11.5105
▁天地	-11.5106
▁自然の	-11.5106
▁湖	-11.5107
生意気な	-11.5107
▁琴	-11.5109
沈んで	-11.5109
のおかげで	-11.5109
地震で	-11.5109
あたる	-11.5111
お話	-11.5112
あいつ	-11.5113
が上手	-11.5114
戻り	-11.5114
引いた	-11.5115
つなぐ	-11.5115
とうてい	-11.5116
あるものを	-11.5118
▁そこは	-11.5119
にしても	-11.512
なのです	-11.5121
見切り	-11.5121
はめ	-11.5122
終わりまで	-11.5125
演習	-11.5125
もちろん	-11.5126
よごれた	-11.5126
穴から	-11.5128
固める	-11.5129
語法	-11.5129
さかい	-11.5129
支配人	-11.5132
▁おれ	-11.5133
上にある	-11.5134
▁背中	-11.5134
▁同一	-11.5135
▁田	-11.5135
との間の	-11.5135
▁刺	-11.5137
掘	-11.5138
ひとみ	-11.5138
そうな顔	-11.5139
待ってい	-11.514
▁支払い	-11.5141
▁側	-11.5141
製本	-11.5141
に書く	-11.5144
として用いる	-11.5146
圧倒	-11.5148
に分け	-11.5149
▁他人が	-11.515
▁おや	-11.5152
書き方	-11.5153
に少し	-11.5155
出ていた	-11.5155
▁近頃	-11.5156
糸で織った	-11.5158
生徒たち	-11.5158
洗って	-11.5158
を無視して	-11.5159
をつけたもの	-11.516
進化	-11.5162
説明した	-11.5163
子音	-11.5163
ひる	-11.5166
るため	-11.5166
を感ずる	-11.5168
債券	-11.5168
を二つ	-11.5169
聞いている	-11.517
をせず	-11.5172
まとめて	-11.5172
がしら	-11.5175
犬に	-11.5175
になるまで	-11.5176
仏事	-11.5176
▁武力	-11.5178
面が	-11.518
時期に	-11.5182
を証明し	-11.5183
は人間	-11.5183
尽きる	-11.5185
死者の	-11.5185
▁他のもの	-11.5186
状態である	-11.5187
悪い事	-11.5188
▁悪い事	-11.5191
▁別れ	-11.5195
▁原稿	-11.5195
に苦しむ	-11.5195
▁食料	-11.5196
亜	-11.5196
紙や	-11.5197
に注意	-11.5199
分けた	-11.52
円の	-11.5201
▁木の	-11.5201
つけている	-11.5202
▁英語を	-11.5202
に構える	-11.5204
▁仏教	-11.5205
して下さい	-11.5205
の機会	-11.5206
に出席する	-11.5206
▁冒険	-11.5207
手に入れた	-11.5211
方言	-11.5211
▁海の	-11.5213
味をつけた	-11.5214
取り除く	-11.5214
またはその	-11.5215
になりますか	-11.5216
熱心に	-11.5216
共同で	-11.5217
▁暑さ	-11.5219
捨てること	-11.5224
▁劇場	-11.5225
ばか者	-11.5225
高いこと	-11.5227
気持で	-11.5228
の茎	-11.5228
すぐ近く	-11.5229
列車に間に合	-11.5233
小数	-11.5234
▁締め	-11.5235
まつる	-11.5235
▁彼は仕事に	-11.5237
▁スープ	-11.5237
▁きびしい	-11.5239
があ	-11.524
結婚の	-11.5241
が痛む	-11.5244
きいた	-11.5244
に変わった	-11.5245
▁労	-11.5248
▁何が	-11.525
決算	-11.525
めったにない	-11.5251
それでも	-11.5252
▁蚕	-11.5252
▁細かい	-11.5252
うれしそう	-11.5253
っこい	-11.5254
▁ついに	-11.5255
訴える	-11.5256
を登る	-11.5256
めかし	-11.5257
▁he	-11.5258
▁耐	-11.526
振って	-11.5261
人から	-11.5261
洪水	-11.5265
を離れた	-11.5266
残した	-11.5267
▁僕には	-11.5268
親に	-11.5269
種目	-11.5269
をよくする	-11.5272
気持を表す	-11.5272
車が	-11.5273
▁弔	-11.5273
入れ物	-11.5273
来週	-11.5275
▁きっと	-11.5275
分配	-11.5275
世間で	-11.5275
をつか	-11.5276
召集	-11.5276
犯罪者	-11.5276
▁動物が	-11.5276
▁仏の	-11.5278
▁週	-11.5279
考慮	-11.5281
し合う	-11.5281
▁波が	-11.5282
人類の	-11.5283
洗濯	-11.5284
▁就職	-11.5286
というものは	-11.5286
秘蔵	-11.5288
くじけ	-11.5289
はかなり	-11.5289
▁どうやら	-11.529
映え	-11.5291
天性	-11.5291
トップ	-11.5293
のを防ぐ	-11.5295
▁我々が	-11.5295
が大嫌い	-11.5296
▁ちょっと警察	-11.5297
▁梅雨	-11.5299
小枝	-11.5299
両方の	-11.53
▁少女	-11.5301
群れ	-11.5303
愛想	-11.5304
▁ゆっくり	-11.5304
▁国王	-11.5308
に勝つ	-11.531
が広く	-11.531
目上の人	-11.5312
▁ボートは	-11.5313
なめらかで	-11.5313
下級の	-11.5314
の特徴	-11.5314
今では	-11.5315
流感	-11.5315
放射能	-11.5316
代用	-11.5318
▁月に	-11.5318
いう音	-11.5319
又	-11.5319
狩猟	-11.5319
指に	-11.532
完	-11.532
二枚	-11.5321
運賃	-11.5321
近頃	-11.5321
のに必要な	-11.5322
山の中	-11.5322
して歩く	-11.5322
は大変な	-11.5324
乏しい	-11.5325
〕(	-11.5327
蹴	-11.5328
柔道	-11.5328
式に	-11.5329
ゲル	-11.5329
我慢できない	-11.533
に等しい	-11.533
きらう	-11.5331
見せること	-11.5332
にひた	-11.5332
▁もち	-11.5333
ロケット	-11.5333
はま	-11.5333
場合の	-11.5333
▁ケアマネージャさん	-11.5334
ある所	-11.5335
から離れた	-11.5335
などして	-11.5335
クタ	-11.5336
あざ	-11.5336
▁もとの	-11.5337
朝早く	-11.5339
間接	-11.5339
頓	-11.5339
登山	-11.534
同点	-11.5341
▁宮	-11.5342
をまぜ	-11.5342
きのう	-11.5343
努力する	-11.5343
武力	-11.5343
▁藪	-11.5345
▁あいにく	-11.5345
▁ろく	-11.5346
の生産	-11.5346
事情が	-11.5347
商業	-11.5348
外国語	-11.5348
ケアマネさん	-11.5349
底に	-11.5349
つむ	-11.5349
言い伝え	-11.535
核実験	-11.5351
キン	-11.5354
鳥類	-11.5354
さびしい	-11.5356
穴をあける	-11.5358
▁代金	-11.5358
極度	-11.5358
動いた	-11.5359
いつか	-11.5359
▁はく	-11.536
▁お母さん	-11.5361
▁法令	-11.5362
株式	-11.5363
ボス	-11.5364
借金の	-11.5364
明け方	-11.5365
肩を	-11.5367
出入	-11.5369
le	-11.537
設立	-11.5372
▁やり	-11.5372
込んでいた	-11.5373
だったので	-11.5377
を設ける	-11.5377
▁天気	-11.5378
気をつける	-11.5379
万年	-11.538
科の魚	-11.5381
と違った	-11.5381
実を結ぶ	-11.5384
▁成功	-11.5385
おそい	-11.5386
▁細かく	-11.5387
横たわる	-11.5387
ある場所に	-11.539
学生の	-11.539
▁妙	-11.5391
▁陸地	-11.5392
▁ほこり	-11.5393
を合わせて	-11.5393
本文の	-11.5395
変える	-11.5397
価値を	-11.5399
に当てる	-11.5399
▁才	-11.5402
その年の	-11.5402
まぜて	-11.5405
重病	-11.5407
を借りる	-11.5407
をかわす	-11.5408
▁攻め	-11.5408
に思うこと	-11.5409
ひもで	-11.541
▁労働者	-11.5411
を習う	-11.5412
の費用	-11.5412
一時に	-11.5414
乗り換え	-11.5415
裁断	-11.5416
▁世に	-11.5416
ざま	-11.5417
で旅行する	-11.5417
▁飲み	-11.5419
を当てる	-11.5419
言う事	-11.542
マー	-11.542
をはずす	-11.5421
生きた	-11.5421
を包む	-11.5426
おいし	-11.5429
▁水銀	-11.5431
集まること	-11.5431
投票で	-11.5432
照らし	-11.5432
▁収穫	-11.5433
▁脇	-11.5434
しなければならなかった	-11.5435
ボクシング	-11.5435
▁彼らは我々	-11.5436
何人かの	-11.5436
突く	-11.5438
派遣する	-11.5438
生徒に	-11.544
▁明かり	-11.5441
▁彼の目	-11.5443
監督する	-11.5443
ごまかし	-11.5443
つくる	-11.5443
すてき	-11.5446
君を	-11.5448
しるした	-11.5449
山腹	-11.545
▁刀を	-11.545
を送って	-11.5454
はただ	-11.5456
すまい	-11.5458
胸を	-11.5459
を認めた	-11.5459
ところは	-11.5459
▁すぐにメッセを	-11.5464
▁救	-11.5464
一致しない	-11.5464
唱え	-11.5464
▁便	-11.5464
駅で	-11.5465
の像	-11.5465
▁大変な	-11.5466
これ以上	-11.5467
砲火	-11.5468
放つ	-11.5468
非難する	-11.547
▁淡	-11.5473
即座に	-11.5476
んでしょう	-11.5476
たいと思う	-11.5477
がよかった	-11.5478
▁圧力	-11.5479
より先に	-11.5479
定める	-11.5481
▁かすかな	-11.5481
を業とする	-11.5482
▁彼は自分	-11.5482
▁いっしょに	-11.5482
スコットランド	-11.5483
▁特許	-11.5483
卒業する	-11.5484
とま	-11.5485
付いた	-11.5486
金色の	-11.5486
塗る	-11.5486
彼女の顔	-11.5486
翻	-11.5487
抑え	-11.5488
服用	-11.5488
に起こった	-11.5489
れなかった	-11.5491
おもて	-11.5494
▁詩歌	-11.5495
▁田畑	-11.5497
▁臨	-11.5497
▁知能	-11.5498
▁手の	-11.5498
斯	-11.55
▁町中	-11.55
▁治安	-11.5501
玄	-11.5506
▁掻き	-11.5506
叫び声	-11.5508
▁土木	-11.5508
技巧	-11.5509
▁批判	-11.5511
ドルで	-11.5512
▁民族	-11.5512
▁彼らは彼の	-11.5512
から落ちる	-11.5514
▁岩石	-11.5514
上品な	-11.5514
積んで	-11.5517
▁死者の	-11.5518
賢明	-11.5518
出生	-11.5519
の発生	-11.5521
▁辛	-11.5521
うぬぼれ	-11.5523
▁田中	-11.5523
言っても	-11.5523
▁最初	-11.5526
おこって	-11.5526
尽くした	-11.5528
もその	-11.5528
三位	-11.5528
をしのぐ	-11.553
自宅	-11.5531
発作	-11.5531
を問わず	-11.5533
▁その人が	-11.5534
ゅ	-11.5535
釈迦の	-11.5535
はますます	-11.5537
▁敗	-11.5537
かわいい	-11.5537
一般的	-11.5539
裁ち	-11.554
絡	-11.554
▁目が	-11.554
すすめる	-11.554
▁はな	-11.5541
の知識	-11.5542
▁予算	-11.5542
帝王	-11.5542
町を	-11.5545
に出かけた	-11.5545
新聞社	-11.5545
首位	-11.5545
晴れる	-11.5546
を与え	-11.5547
燐酸	-11.555
思わない	-11.5551
おろか	-11.5551
少しもない	-11.5551
単純	-11.5551
死者の霊	-11.5552
斉	-11.5552
放射	-11.5553
▁蒸し	-11.5553
だけでも	-11.5554
委任	-11.5554
勲章	-11.5555
互いの	-11.5556
、000	-11.5556
倒産	-11.5557
拭	-11.5561
閣	-11.5562
神聖	-11.5562
狩	-11.5562
全力を尽く	-11.5563
粘	-11.5563
隻	-11.5563
に移る	-11.5563
余計	-11.5564
歩いていった	-11.5564
+	-11.5564
恋の	-11.5565
監	-11.5566
紐	-11.5566
殖	-11.5566
惰	-11.5567
をこうむる	-11.5567
▁淫	-11.5567
生き生き	-11.5568
浪費	-11.5569
▁教養	-11.5569
看	-11.5569
を失わせる	-11.5569
遷	-11.5569
あらわす	-11.5569
の端に	-11.5569
疾患	-11.557
叢	-11.557
した食品	-11.557
骸	-11.557
しつつある	-11.5571
寓	-11.5572
臆	-11.5572
是	-11.5572
爛	-11.5572
斗	-11.5572
拘	-11.5573
ぎりぎり	-11.5573
租	-11.5573
はなはだ	-11.5573
の苦しみ	-11.5573
作り出す	-11.5574
をそそる	-11.5574
鎌	-11.5574
盂蘭盆	-11.5574
癌	-11.5574
ぎざぎざ	-11.5574
抄	-11.5574
ユダヤ	-11.5574
》	-11.5574
名古屋	-11.5574
挿	-11.5574
沃	-11.5574
のろのろ	-11.5574
ブラジル	-11.5574
轍	-11.5574
ハンドル	-11.5574
伽	-11.5574
眩	-11.5574
芥	-11.5574
R	-11.5574
柵	-11.5574
袴	-11.5574
カウント	-11.5574
シーズン	-11.5574
劫	-11.5574
斉藤さん	-11.5574
檀	-11.5574
盃	-11.5574
蠅	-11.5574
遥	-11.5574
▁濡れ	-11.5574
肘	-11.5574
鞭	-11.5574
アクセント	-11.5574
健太ちゃん	-11.5574
大げさな	-11.5574
歿	-11.5574
眺める	-11.5574
輝かしい	-11.5574
けばけばし	-11.5574
著名な	-11.5574
鉾	-11.5574
にぎやかに	-11.5574
思わぬ	-11.5574
撚	-11.5574
ふすま	-11.5574
歓喜	-11.5574
たくらみ	-11.5574
寛大な	-11.5574
もっぱら	-11.5574
石器時代	-11.5574
訛	-11.5574
むなしく	-11.5574
に先立って	-11.5574
閣僚	-11.5574
go	-11.5574
スーツケース	-11.5574
参詣	-11.5574
蛙	-11.5574
醤油	-11.5574
選ばれた	-11.5574
なじみ	-11.5574
最良の	-11.5574
ボストン	-11.5574
ざらざら	-11.5574
何回も	-11.5574
始終	-11.5574
シーツ	-11.5574
協同	-11.5574
ビロード	-11.5574
ジェ	-11.5574
じりじり	-11.5575
屈辱	-11.5575
虐待	-11.5575
澱粉	-11.5575
The	-11.5575
リンゴ	-11.5575
といわれる	-11.5575
繁栄	-11.5575
彫像	-11.5575
旋律	-11.5575
ケース	-11.5575
増進	-11.5575
つまらぬ	-11.5575
メント	-11.5575
隔離	-11.5575
ベース	-11.5575
越え	-11.5575
とは思えない	-11.5575
憎しみ	-11.5575
どろぼう	-11.5575
持続	-11.5576
お願いします	-11.5576
仕返し	-11.5576
亭主	-11.5576
とにかく	-11.5576
淡水魚	-11.5576
に付する	-11.5576
装束	-11.5576
堂々と	-11.5576
思う存分	-11.5576
視覚	-11.5576
失敬	-11.5576
記述	-11.5576
ないかと	-11.5576
規制	-11.5576
▁フットボール	-11.5577
考案	-11.5577
誤植	-11.5577
こわくて	-11.5577
お断わり	-11.5577
かまわず	-11.5577
図案	-11.5577
▁この辞書は	-11.5577
▁じゅん	-11.5577
課題	-11.5577
低気圧	-11.5577
リボン	-11.5577
士官	-11.5577
けいれん	-11.5577
絶頂	-11.5577
晴天	-11.5577
ブック	-11.5577
依存	-11.5578
静止	-11.5578
を持たず	-11.5578
ろうばい	-11.5578
を混ぜて	-11.5578
あわれみ	-11.5578
助動詞	-11.5578
官僚	-11.5578
会いたい	-11.5578
通り過ぎる	-11.5578
欲求	-11.5578
石膏	-11.5578
見えなかった	-11.5578
湾曲	-11.5579
謝罪	-11.5579
テレビ番組	-11.5579
さえすれば	-11.5579
重複	-11.5579
男女間の	-11.5579
祝辞	-11.5579
きめられた	-11.5579
立ち上がった	-11.5579
ごろごろ	-11.5579
通告	-11.5579
責める	-11.5579
になりそうだ	-11.558
落胆	-11.558
悪くない	-11.558
軽快	-11.558
呼吸器	-11.558
厳格	-11.558
機関銃	-11.558
暴徒	-11.558
駐車場	-11.558
余暇	-11.558
感激	-11.5581
めぐって	-11.5581
にらむ	-11.5581
堅苦しい	-11.5581
幹部	-11.5581
探知	-11.5581
ぜんまい	-11.5581
断面	-11.5581
雑貨	-11.5582
▁彼の行為は	-11.5582
断片	-11.5582
レーダー	-11.5582
順次	-11.5582
改造	-11.5582
種をまく	-11.5583
小言	-11.5583
圧制	-11.5583
組立て	-11.5583
厳密	-11.5583
を指した	-11.5583
判明	-11.5584
しばらくの間	-11.5584
よく似ている	-11.5585
根本的な	-11.5585
技量	-11.5585
申し分	-11.5585
右翼	-11.5585
処方	-11.5586
授業料	-11.5586
を拾う	-11.5586
金銭を	-11.5586
電圧	-11.5586
上皇	-11.5586
良く	-11.5586
高齢	-11.5586
かまど	-11.5587
けわしい	-11.5587
平気だ	-11.5587
証明書	-11.5587
主婦	-11.5587
多大の	-11.5588
首都	-11.5588
言わずに	-11.5588
選ばれる	-11.5588
検定	-11.5588
成果	-11.5588
曲がっている	-11.5589
並んでいる	-11.5589
畜	-11.5589
極秘	-11.5589
戸籍	-11.5589
ゆったり	-11.559
尽力	-11.559
つぼみ	-11.5591
おおわれ	-11.5591
嘆き	-11.5591
仕様	-11.5591
送った	-11.5591
アジ	-11.5592
▁鳥の	-11.5592
勤めている	-11.5593
溜め	-11.5593
なりゆき	-11.5594
留学	-11.5594
というたとえ	-11.5594
禁制	-11.5595
有限	-11.5595
▁その国は	-11.5595
配合	-11.5596
むかし	-11.5596
所持	-11.5596
こぼれた	-11.5596
小さいこと	-11.5596
能楽	-11.5596
▁官職	-11.5596
石英	-11.5597
水蒸気	-11.5597
性交	-11.5597
体長約	-11.5597
通訳	-11.5597
やなぎ	-11.5598
告げ知らせる	-11.5598
武芸	-11.5598
見世物	-11.5598
風紀	-11.5599
不当な	-11.5599
作曲	-11.56
大きさは	-11.5601
宿題を	-11.5601
正一ちゃん	-11.5601
すくい	-11.5603
まじない	-11.5603
はげしい	-11.5604
を採る	-11.5604
女性が	-11.5604
文脈	-11.5605
おいしい	-11.5605
断言	-11.5605
摺り	-11.5605
引き続いて	-11.5606
水溶液	-11.5606
ずくで	-11.5606
風潮	-11.5608
いのち	-11.5609
を早める	-11.5609
▁彼は私が	-11.5609
歳月	-11.5609
なしだ	-11.5609
黄緑色	-11.561
しましたか	-11.561
が上手だ	-11.561
▁穂	-11.561
疑う	-11.561
球面	-11.5611
人夫	-11.5611
▁ウエ	-11.5611
おわり	-11.5611
をほどく	-11.5612
そこら	-11.5613
早朝	-11.5613
引き受けた	-11.5613
ざお	-11.5613
兵役	-11.5614
口語	-11.5614
一応	-11.5614
ブリ	-11.5614
調達	-11.5615
照会	-11.5615
構内	-11.5616
官位	-11.5616
▁海水	-11.5618
種種	-11.5619
加えた	-11.5619
▁市内	-11.5619
のぼり	-11.562
のふち	-11.5621
きざし	-11.5621
若く	-11.5621
してもらった	-11.5621
ばば	-11.5622
それに使う	-11.5622
学び	-11.5622
取り柄	-11.5622
光が	-11.5623
明朝	-11.5623
明白	-11.5624
断わった	-11.5624
▁芝生	-11.5625
政治上の	-11.5625
ふくらませ	-11.5625
知ること	-11.5626
▁戦略	-11.5627
空模様	-11.5627
大騷ぎ	-11.5627
とお	-11.5628
するところ	-11.5629
添えた	-11.5629
鳴き	-11.5629
つきあい	-11.5629
現役	-11.5629
をなめる	-11.563
ふくら	-11.5631
苦労して	-11.5631
▁出発	-11.5632
▁何事も	-11.5632
▁we	-11.5632
度量	-11.5633
三〇センチ	-11.5633
インター	-11.5634
有料	-11.5634
のなら	-11.5634
雑音	-11.5635
その道	-11.5637
を私に	-11.5637
悲しむ	-11.5637
▁主要	-11.5638
感じる	-11.5638
順順に	-11.5638
ランド	-11.5639
生活している	-11.564
熱情	-11.564
減ること	-11.5641
が互いに	-11.5641
かかわり	-11.5642
お返し	-11.5646
箱根	-11.5646
▁芸術	-11.5647
▁フィ	-11.5648
わきへ	-11.5648
相手方	-11.5649
点検	-11.5649
斯く	-11.565
味の	-11.565
行けば	-11.565
▁最も	-11.5651
チック	-11.5652
無精	-11.5652
で読む	-11.5652
散文	-11.5653
出会った	-11.5653
類を	-11.5653
とんぼ	-11.5653
形式の	-11.5653
が始まる	-11.5655
▁誠	-11.5656
▁道路の	-11.5656
▁吸	-11.5657
▁航海	-11.5657
しわざ	-11.5657
下品な	-11.5659
出費	-11.5659
爆薬	-11.566
病気で	-11.5661
悲劇	-11.5661
総会	-11.5661
浮気	-11.5662
出産	-11.5662
ものがない	-11.5663
今のところ	-11.5664
腕白	-11.5665
話すこと	-11.5666
命名	-11.5669
問い合わせ	-11.567
木戸	-11.567
差す	-11.5671
▁バラ	-11.5671
公平な	-11.5671
助手	-11.5672
めんどう	-11.5674
▁走り	-11.5676
見られた	-11.5677
を許さない	-11.5677
拝む	-11.5678
まぜ	-11.5679
装飾用	-11.5682
業とする人	-11.5683
▁そのことで	-11.5685
できる限り	-11.5685
が一つ	-11.5687
の前兆	-11.5687
豊か	-11.5689
認めること	-11.5691
をふく	-11.5691
点火	-11.5694
熱帯地方	-11.5696
▁仏法	-11.5696
▁アイス	-11.5697
職につく	-11.5699
が出来	-11.5701
すわ	-11.5701
ふえる	-11.5701
縮める	-11.5701
埋葬	-11.5702
▁誤り	-11.5703
正式の	-11.5704
頭上に	-11.5706
原子核	-11.5707
▁金銭を	-11.5708
を捨てて	-11.5708
大層	-11.5709
はいり	-11.5709
のを見た	-11.5711
▁藩	-11.5711
を決する	-11.5713
▁感情を	-11.5713
▁細菌	-11.5715
たままで	-11.5716
空軍	-11.5718
▁刑事	-11.5719
が下がる	-11.5722
捜す	-11.5724
しゅん	-11.5726
を示すため	-11.5726
抽象	-11.5728
家系	-11.5729
▁柳	-11.5729
人出	-11.5729
▁文語	-11.573
極端	-11.573
わたし	-11.5731
から見た	-11.5731
に終わった	-11.5732
▁資金	-11.5735
無数の	-11.5735
かすり	-11.5736
状のもの	-11.5736
系の	-11.5736
▁競走	-11.5737
台本	-11.5737
打たれ	-11.5739
絹糸	-11.574
地元	-11.5741
支配する	-11.5742
▁犯罪	-11.5745
水夫	-11.5745
▁足の	-11.5747
うとうと	-11.5747
が急に	-11.5748
二次	-11.5752
受け取った	-11.5752
▁アラビア	-11.5753
悲観	-11.5753
年間の	-11.5755
をまねる	-11.5756
んだね	-11.5757
を突く	-11.5759
意外な	-11.576
をはく	-11.576
かべ	-11.5763
の出身	-11.5764
▁丁	-11.5765
含まれている	-11.5765
資力	-11.5765
大臣の	-11.5767
はありませんか	-11.5768
▁幽霊	-11.5768
でやる	-11.5769
▁きつね	-11.5769
▁さし	-11.577
▁幾ら	-11.577
用など	-11.5772
▁狭	-11.5774
のかしら	-11.5775
しかも	-11.5775
▁スミス	-11.5776
その時の	-11.5776
正式	-11.5778
なるほど	-11.5779
▁水を	-11.578
▁お父さん	-11.578
らないで	-11.5782
▁ちょ	-11.5783
りましたか	-11.5785
みがく	-11.5787
の店	-11.5787
何より	-11.5787
記入する	-11.5788
酒場	-11.5788
▁婿	-11.5788
評価する	-11.5788
ージ	-11.5789
てもらえ	-11.5792
使用者	-11.5792
▁どうしても	-11.5794
▁ドレス	-11.5794
安心した	-11.5796
▁軍隊の	-11.5796
かゆ	-11.5797
▁水の	-11.5798
▁なるほど	-11.5799
の両	-11.5801
家に帰	-11.5805
あつ	-11.5806
似ている	-11.5807
能力がある	-11.5808
くだく	-11.5808
まっすぐな	-11.5808
を捨て	-11.5811
の後に	-11.5815
やめろ	-11.5816
▁公式	-11.5817
おさめる	-11.5817
いるもの	-11.5819
▁翻	-11.582
おこう	-11.582
箱に	-11.582
急性	-11.5821
▁中世	-11.5821
羽の	-11.5823
▁段	-11.5824
機械など	-11.5824
▁顔の	-11.5826
肥え	-11.5826
人前で	-11.5827
をかけること	-11.5832
クス	-11.5833
all	-11.5834
どちらも	-11.5834
▁交渉	-11.5834
なぎ	-11.5835
▁この薬は	-11.5836
の涙	-11.5836
製作	-11.5837
近寄	-11.5838
を使った	-11.5838
▁メッセを送信	-11.5839
その後	-11.5839
▁放射能	-11.584
を集めた	-11.584
14	-11.5841
でしたか	-11.5841
いつまで	-11.5842
到着する	-11.5843
伝えた	-11.5843
▁愛想	-11.5844
大半	-11.5844
生んだ	-11.5845
して行う	-11.5846
▁文明の	-11.5849
他のもの	-11.585
の種子	-11.585
▁剣	-11.5851
▁ちり	-11.5852
▁遠い	-11.5852
ふやすこと	-11.5853
取得	-11.5853
▁ミサイル	-11.5854
さげる	-11.5858
者だ	-11.5859
天下に	-11.5861
こぎ	-11.5862
▁眠り	-11.5863
▁実用	-11.5863
汗を	-11.5864
等に	-11.5865
なるように	-11.5865
ようなものだ	-11.5872
女に	-11.5875
を願う	-11.5876
▁太陽の	-11.5877
いじめ	-11.5878
人目	-11.5879
わないこと	-11.588
▁胡	-11.5881
四十	-11.5882
現れた	-11.5883
清ちゃん	-11.5886
労働者の	-11.5889
本文	-11.5891
▁特定の	-11.5891
ほしいと	-11.5892
の象徴	-11.5892
▁テ	-11.5894
額を	-11.5895
水の流れ	-11.5896
▁鏡	-11.5897
引いて	-11.5898
木の実	-11.5898
最中	-11.5898
の場所	-11.5898
などに対して	-11.5898
ひだ	-11.59
▁祝	-11.5901
この本	-11.5903
の通り	-11.5903
目の前に	-11.5906
本物の	-11.5909
が二つ	-11.5909
を送った	-11.5909
歓迎する	-11.5909
の出る	-11.591
の不足	-11.5911
を大いに	-11.5911
▁午前	-11.5911
▁ジャズ	-11.5913
乗っている	-11.5913
バル	-11.5913
の緒	-11.5913
に使った	-11.5915
▁私の考え	-11.5916
▁女王	-11.5916
いられない	-11.5916
ぶつかる	-11.5921
錐	-11.5921
内容が	-11.5924
握	-11.5927
ひと組	-11.5927
前後に	-11.5927
出頭	-11.5927
▁明治	-11.5927
▁正常	-11.5929
▁経済学	-11.593
▁彼らには	-11.5932
そと	-11.5932
り込んだ	-11.5933
閉め	-11.5934
順調に	-11.5935
われている	-11.5936
▁厳しい	-11.5937
をもらった	-11.5938
▁せつ	-11.5938
仏教の	-11.5938
来るだろう	-11.594
戦場で	-11.594
▁襟	-11.5946
▁女の子	-11.5948
グロ	-11.5948
▁地獄	-11.5952
月曜日	-11.5955
から作る	-11.5955
法律上	-11.5955
はげ	-11.5956
▁二人の	-11.5957
つぶれる	-11.5959
の列車	-11.5959
手紙は	-11.5959
▁倹約	-11.596
相当の	-11.5961
印刷した	-11.5963
安く買	-11.5963
にはまだ	-11.5963
快感	-11.5964
まわって	-11.5965
目は	-11.5967
だめになる	-11.5968
▁最低	-11.5969
腹の中	-11.5969
戦場	-11.597
数日	-11.597
▁キャンプ	-11.597
つある	-11.5971
に出ること	-11.5976
▁会は	-11.5977
内部の	-11.5977
▁ものの	-11.5979
▁あいつは	-11.5979
▁むだ	-11.5981
その作品	-11.5981
▁勢いよく	-11.5982
泣くこと	-11.5982
この仕事	-11.5983
▁用意	-11.5984
の上を	-11.5984
活発な	-11.5988
ター	-11.5988
▁公開	-11.5989
▁優しい	-11.599
▁徳	-11.599
▁芸者	-11.599
生気	-11.5991
微生物	-11.5991
行っても	-11.5994
▁有効	-11.5998
▁p	-11.5999
お薬屋	-11.5999
▁彼は私より	-11.6001
じゅうたん	-11.6003
▁易	-11.6003
▁時計の	-11.6004
▁感謝の	-11.6006
折れる	-11.601
くれたまえ	-11.6011
始めて	-11.6011
将来に	-11.6013
被告	-11.6017
がなくなった	-11.6017
をめぐらす	-11.6018
小包	-11.6018
ん坊	-11.6018
にひどく	-11.6018
▁珍しい	-11.6019
くどく	-11.6019
▁地方	-11.602
▁盛り	-11.6022
てんで	-11.6022
調整	-11.6022
知っていた	-11.6023
回した	-11.6023
の所で	-11.6026
やかん	-11.6027
▁その事件は	-11.6031
だつ	-11.6033
に倒れる	-11.6033
書き入れる	-11.6033
▁ここでは	-11.6034
賞金	-11.6035
▁定期	-11.6036
取れた	-11.6036
を回す	-11.6036
▁前途	-11.6037
頭髪	-11.6038
北アメリカ	-11.6039
長時間	-11.6042
できず	-11.6043
ったりすること	-11.6043
演奏会	-11.6043
▁肛門	-11.6044
▁その町	-11.6047
仮の	-11.6047
利口	-11.6048
呂い	-11.6049
▁彼は新しい	-11.6051
ぬれる	-11.6053
はしなかった	-11.6053
呼び出し	-11.6053
兼	-11.6055
を生じ	-11.6056
神経が	-11.6057
▁スミスさん	-11.6057
▁鳩	-11.6058
も言う	-11.6058
月曜日に	-11.6058
▁大ばか	-11.606
その土地の	-11.606
▁どうすれば	-11.6063
鮮	-11.6065
のとき	-11.6068
ように作った	-11.6069
権力を	-11.6069
鎮	-11.607
を使ってする	-11.607
境目	-11.6071
電子計算機	-11.6072
とりこ	-11.6073
ペンキ	-11.6073
勤める	-11.6074
をみがく	-11.6074
下剤	-11.6074
飛行機など	-11.6075
アリ	-11.6076
新車	-11.6078
柔らか	-11.6078
幻	-11.6079
▁股	-11.6079
おしろい	-11.6079
生物学	-11.6081
騎	-11.6081
排	-11.6082
からずっと	-11.6082
方面に	-11.6083
満員	-11.6083
▁言葉の	-11.6084
そろそろ	-11.6084
幽霊	-11.6085
馬鹿	-11.6086
ちゃら	-11.6086
刀剣	-11.6086
どこまでも	-11.6087
きつね	-11.6088
▁年代	-11.609
▁勝ち	-11.609
さっさと	-11.6091
▁ウイスキー	-11.6093
▁憎	-11.6093
値段が	-11.6093
昨夜	-11.6094
になっていること	-11.6094
の人口は	-11.6094
ふるまいをする	-11.6095
悩む	-11.6095
を弾く	-11.6096
の手段	-11.6096
精一杯	-11.6098
の両側に	-11.6098
を割る	-11.6099
の報道	-11.6099
持っていた	-11.61
法廷で	-11.61
特売	-11.61
生意気	-11.6101
は十分	-11.6101
正義	-11.6102
抜けた	-11.6103
ワシ	-11.6104
受験	-11.6106
旅客	-11.6107
五つの	-11.6107
惨事	-11.6109
の主	-11.6112
クル	-11.6112
でメッセージを送	-11.6113
あげて	-11.6113
などがある	-11.6115
練り	-11.6118
▁痛み	-11.6118
▁頭脳	-11.6119
はいつ	-11.612
の評判	-11.6121
▁豊作	-11.6121
はまず	-11.6122
▁文法	-11.6122
はうまく	-11.6122
的な態度	-11.6123
底の	-11.6123
展覧会	-11.6124
単数	-11.6125
言いたい	-11.6127
▁震	-11.6128
まことに	-11.6129
シー	-11.6129
▁我が	-11.6129
を通って	-11.6129
規模の	-11.613
▁移	-11.6132
すまない	-11.6132
外国に	-11.6132
▁彼は大	-11.6132
利く	-11.6134
通路	-11.6135
一月	-11.6137
万一	-11.6138
寒中	-11.6139
の段	-11.6144
ション	-11.6145
戻る	-11.6145
味わう	-11.6145
▁苦痛	-11.6151
たまらない	-11.6151
ぷ	-11.6152
▁人生は	-11.6152
したまえ	-11.6153
負債	-11.6154
のよしあし	-11.6155
▁操	-11.6159
▁清水	-11.616
服装をしてい	-11.6161
▁いね科の	-11.6161
▁被告	-11.6161
▁機械の	-11.6162
服を着	-11.6162
世論	-11.6162
の後ろ	-11.6163
握る	-11.6163
わずに	-11.6165
おります	-11.6165
量を	-11.6168
▁男子	-11.6169
しているのか	-11.6169
茎は	-11.617
確実に	-11.617
の影響	-11.6172
の余地がない	-11.6174
幹線道路	-11.6174
灯台	-11.6177
▁今にも	-11.6177
▁詳	-11.6177
フィートの	-11.6178
学科	-11.6178
従来の	-11.618
でひどく	-11.6182
許さない	-11.6182
▁ぜいたく	-11.6184
二本	-11.6187
▁あるもの	-11.6188
川が	-11.6189
随意	-11.6189
▁健全な	-11.619
ジャー	-11.6191
きら	-11.6191
▁雁	-11.6193
▁書画	-11.6195
を凝らす	-11.6195
を去る	-11.6198
▁wi	-11.6198
澄	-11.6201
▁皆さん	-11.6201
▁忍び	-11.6201
をかいて	-11.6201
の本質	-11.6202
▁空中に	-11.6202
地下の	-11.6205
入国	-11.6205
遊びに	-11.6206
▁シュ	-11.6207
他の事	-11.6208
がすぐれている	-11.6208
普通より	-11.6208
▁コンピューター	-11.6211
粉にしたもの	-11.6212
▁はっきりした	-11.6212
守って	-11.6212
条件を	-11.6213
アイロン	-11.6214
目立って	-11.6216
巧	-11.6217
を敬っ	-11.6217
油絵	-11.6219
▁それは彼の	-11.6219
▁蔵	-11.6219
相手と	-11.6224
▁大気	-11.6224
騒ぐ	-11.6226
▁罪人を	-11.6227
だけでなく	-11.6228
訪れる	-11.6229
から受ける	-11.6229
平凡	-11.6229
▁終身	-11.6229
あしら	-11.623
射る	-11.6231
穀	-11.6232
▁無理に	-11.6233
適切な	-11.6233
は嫌いだ	-11.6234
の先生	-11.6237
を着ている	-11.6237
の入口	-11.6239
りながら	-11.6242
の上部	-11.6242
第二次大戦	-11.6242
▁たいそう	-11.6243
繰り返す	-11.6244
威圧	-11.6244
泳	-11.6244
▁正気	-11.6245
社会的地位	-11.6246
▁話を	-11.6246
豊富	-11.6247
をくじく	-11.6247
寝て	-11.6249
厚かましい	-11.625
捲	-11.6251
沈んだ	-11.6252
▁連続	-11.6253
ざと	-11.6254
お伺い	-11.6255
▁ぐずぐず	-11.6256
▁故郷	-11.6256
倫	-11.6258
得ない	-11.6259
郵便物	-11.6259
医薬	-11.6259
▁ちょっと電話かける	-11.626
てもいい	-11.6261
▁衣服の	-11.6261
▁男女	-11.6263
お出で	-11.6263
午	-11.6263
学課	-11.6263
導く	-11.6263
▁製造	-11.6264
結果を	-11.6265
面の	-11.6265
カトリック	-11.6265
唯	-11.6265
返済	-11.6265
大胆	-11.6266
▁過ぎ去った	-11.6269
▁海水浴	-11.6269
ごくわずか	-11.627
寄生	-11.627
に通ずる	-11.627
しかめ	-11.6271
苦しんで	-11.6274
前へ	-11.6274
の腕	-11.6274
▁執	-11.6274
モー	-11.6274
いん	-11.6274
か月間	-11.6275
ではないか	-11.6276
▁他から	-11.6276
▁子供に	-11.6277
あちこちに	-11.6278
到	-11.6279
試し	-11.6279
秤	-11.6279
桂	-11.6279
やわらかく	-11.6279
▁サン	-11.628
メダル	-11.628
を知って	-11.628
采	-11.628
兵卒	-11.628
に加えて	-11.628
やってのける	-11.6281
メアリー	-11.6281
E	-11.6282
播	-11.6282
つち	-11.6282
匠	-11.6282
言わなかった	-11.6282
猪	-11.6283
着るもの	-11.6283
を抱いている	-11.6283
飼料	-11.6284
▁衛生	-11.6284
ロシア	-11.6284
硫	-11.6284
決まる	-11.6284
芝	-11.6284
文章を	-11.6284
メートルある	-11.6285
績	-11.6285
奔	-11.6285
▁音楽の	-11.6285
裏付け	-11.6285
▁鼠	-11.6285
砥	-11.6286
呼ばれ	-11.6286
杯の水	-11.6286
確証	-11.6286
普	-11.6286
繊	-11.6286
亭	-11.6286
諭	-11.6287
廟	-11.6287
危うく	-11.6287
促	-11.6287
峠	-11.6287
撮	-11.6287
▁強制	-11.6287
禽	-11.6287
貪	-11.6287
サーカス	-11.6287
争議	-11.6287
薦	-11.6288
舗	-11.6288
漕	-11.6288
皺	-11.6288
螢	-11.6288
坪	-11.6288
痘	-11.6288
封建	-11.6288
ひょっと	-11.6288
蒙	-11.6288
虜	-11.6288
ばかばかしい	-11.6288
ギリシア	-11.6288
昧	-11.6288
宙	-11.6288
琶	-11.6288
ぎっしり	-11.6288
礫	-11.6288
U	-11.6288
ぢ	-11.6288
皇太子	-11.6288
廃棄物	-11.6288
ちょうちん	-11.6288
篆	-11.6288
ぴかぴか	-11.6288
湧	-11.6288
篩	-11.6288
カクテル	-11.6288
支援	-11.6288
毀	-11.6288
長谷川	-11.6288
	-11.6288
オートバイ	-11.6288
スモッグ	-11.6288
些	-11.6288
楚	-11.6288
蹟	-11.6288
にぎやかな	-11.6288
ギャンブル	-11.6288
スーパー	-11.6288
チャンネル	-11.6288
パレード	-11.6288
匂	-11.6288
取っ手	-11.6288
櫓	-11.6288
殺虫剤	-11.6288
錆	-11.6288
鴨	-11.6288
サッカー	-11.6288
ソフト	-11.6288
大言壮語	-11.6288
樽	-11.6288
痰	-11.6288
穢	-11.6288
識別	-11.6288
▁遭難	-11.6288
ボーイ	-11.6288
汎	-11.6288
癪	-11.6288
オルガン	-11.6288
旁	-11.6288
灸	-11.6288
苑	-11.6288
はどちらですか	-11.6288
ライター	-11.6288
咾	-11.6288
ぬかるみ	-11.6288
ふざけて	-11.6288
をめざして	-11.6288
管弦楽	-11.6288
喝采	-11.6288
冷蔵庫	-11.6288
はやめなさい	-11.6288
接続詞	-11.6289
グリーン	-11.6289
day	-11.6289
墜落	-11.6289
以内に	-11.6289
なければなりません	-11.6289
否認	-11.6289
邸宅	-11.6289
しゃくにさわる	-11.6289
敏感	-11.6289
マレー	-11.6289
の尊称	-11.6289
公然と	-11.6289
アーチ	-11.6289
テンポ	-11.6289
養殖	-11.6289
閲覧	-11.6289
驚異	-11.6289
朽ち	-11.6289
概略	-11.6289
概算	-11.6289
くよくよ	-11.6289
を呈する	-11.6289
を募る	-11.6289
悲鳴	-11.6289
象牙	-11.6289
封鎖	-11.6289
憲章	-11.6289
双眼鏡	-11.6289
斑点	-11.6289
攻勢	-11.6289
展望	-11.6289
告訴	-11.6289
に囲まれて	-11.6289
財貨	-11.629
謹んで	-11.629
おのおの	-11.629
▁熱烈な	-11.629
農耕	-11.629
使われた	-11.629
疑念	-11.629
▁少年たちは	-11.629
十干	-11.629
一覧表	-11.629
暗礁	-11.629
成就	-11.629
称賛	-11.629
提灯	-11.629
決められた	-11.6291
快活	-11.6291
下等な	-11.6291
反響	-11.6291
立証	-11.6291
バッター	-11.6291
徹夜	-11.6291
短縮	-11.6291
ばけもの	-11.6291
こわがる	-11.6291
請負	-11.6291
にもどる	-11.6291
陪審員	-11.6291
やっとのことで	-11.6291
シーン	-11.6291
▁いまからメッセージを	-11.6291
オーストラリア	-11.6292
ペスト	-11.6292
制裁	-11.6292
▁暗号	-11.6292
険悪	-11.6292
スイス	-11.6292
融	-11.6292
をそらす	-11.6292
ボルト	-11.6292
雷鳴	-11.6292
放浪	-11.6292
残念なこと	-11.6292
▁海洋	-11.6293
損益	-11.6293
怒りを抑える	-11.6293
売店	-11.6293
老婆	-11.6293
志望	-11.6293
に伴って	-11.6293
危急	-11.6293
買物	-11.6293
呼んだ	-11.6294
徴兵	-11.6294
飲酒	-11.6294
離陸	-11.6294
評論	-11.6294
飲食店	-11.6294
▁その少年は	-11.6294
就学	-11.6294
エキス	-11.6294
にこにこ	-11.6295
全快	-11.6295
ゆかり	-11.6295
受精	-11.6295
平行線	-11.6295
多忙	-11.6295
連鎖	-11.6295
めぐらし	-11.6295
あらため	-11.6295
富士山	-11.6295
独力で	-11.6295
重要でない	-11.6295
使節	-11.6296
断絶	-11.6296
おやじ	-11.6296
に迷う	-11.6296
▁透き	-11.6296
お手伝い	-11.6296
けだもの	-11.6296
の中で最も	-11.6296
信義	-11.6297
白い花が咲く	-11.6297
▁高圧	-11.6297
精霊	-11.6297
うなずく	-11.6298
うまくいっている	-11.6298
識見	-11.6298
言い回し	-11.6298
動物園	-11.6298
▁兵士たちは	-11.6298
権能	-11.6298
部族	-11.6299
速達	-11.6299
▁天気が	-11.6299
革新	-11.6299
つやのある	-11.6299
目の前	-11.6299
機雷	-11.6299
泙靴	-11.63
いきなり	-11.63
背広	-11.63
低温	-11.63
温度計	-11.63
発動機	-11.63
執着	-11.63
会衆	-11.6301
解明	-11.6301
オックスフォード	-11.6301
乾杯	-11.6301
仕舞い	-11.6301
▁あれこれ	-11.6301
具体的な	-11.6301
極限	-11.6302
をそろえる	-11.6302
調印	-11.6302
乾し	-11.6302
やりとり	-11.6302
氷河	-11.6302
正統	-11.6302
の必要	-11.6303
清める	-11.6303
そのとおり	-11.6303
に接して	-11.6303
没頭	-11.6303
紅茶	-11.6303
ご機嫌	-11.6304
まわす	-11.6305
気擦	-11.6305
口径	-11.6305
禁欲	-11.6305
▁その映画は	-11.6305
に襲われる	-11.6306
神経質	-11.6306
湿地	-11.6306
満潮	-11.6306
翌年	-11.6306
衣食	-11.6306
ぞうり	-11.6307
今週	-11.6307
800	-11.6307
功名	-11.6307
頼んだ	-11.6307
証文	-11.6308
ご返事	-11.6308
清らかな	-11.6308
浸水	-11.6309
敷地	-11.6309
旧友	-11.6309
名刺	-11.6309
旋回	-11.6309
情欲	-11.6309
何もしないで	-11.6311
投球	-11.6311
ゆび	-11.6311
主将	-11.6312
零下	-11.6312
市中	-11.6312
立案	-11.6312
きること	-11.6312
▁それはまったく	-11.6313
御殿	-11.6313
▁赤ん坊が	-11.6313
開くこと	-11.6313
残高	-11.6314
続けること	-11.6315
洋風の	-11.6315
縁談	-11.6315
▁彼らは彼に	-11.6315
どうし	-11.6315
もできない	-11.6316
温室	-11.6316
の情	-11.6316
▁日本人は	-11.6316
親密	-11.6317
甚だ	-11.6317
卑しい	-11.6317
紅白	-11.6317
陽光	-11.6317
短刀	-11.6317
つづり	-11.6317
のはよくない	-11.6317
混合物	-11.6317
しろうと	-11.6318
美術品	-11.6318
捕り	-11.6318
▁さすが	-11.6318
用件	-11.6318
同封	-11.6319
仲立ち	-11.6319
学派	-11.6319
図表	-11.6319
おしまい	-11.6319
▁毎月	-11.632
三枚	-11.632
を演じる	-11.632
枝葉	-11.632
飲物	-11.632
隠居	-11.632
等しく	-11.6321
思いつき	-11.6321
ものが多い	-11.6322
暴行	-11.6322
明美	-11.6322
▁ここまで	-11.6323
興味が	-11.6323
▁それから	-11.6323
を考える	-11.6324
広場	-11.6324
心構え	-11.6325
基金	-11.6325
追いかける	-11.6325
こぐ	-11.6325
作り上げる	-11.6326
千鳥	-11.6326
無関心	-11.6326
同様に	-11.6327
醜い	-11.6328
▁人体	-11.6328
心の働き	-11.6328
まるく	-11.633
▁あの人には	-11.633
体面	-11.633
くさり	-11.6331
ぎり	-11.6331
▁クレ	-11.6331
目当て	-11.6331
られず	-11.6331
酒は	-11.6331
北に	-11.6331
神霊	-11.6331
孫さん	-11.6332
しなやかな	-11.6333
当直	-11.6333
重なり	-11.6333
不渡り	-11.6333
面接	-11.6334
開店	-11.6334
▁湯気	-11.6334
に穴をあける	-11.6334
気軽に	-11.6335
線を引く	-11.6335
これに	-11.6336
ごめ	-11.6337
顔料	-11.6337
▁ジン	-11.6337
深み	-11.6337
当番	-11.6338
雑種	-11.6339
[...]
