<unk>	0
<s>	0
</s>	0
▁	-2.41282
。	-3.19162
、	-3.60906
の	-4.06134
・	-4.31254
を	-4.56928
。「	-4.59483
」	-4.63536
に	-4.66021
する	-4.76686
は	-4.90561
が	-4.95308
で	-5.1237
こと	-5.12432
と	-5.4005
)	-5.61947
▁彼は	-5.66535
る	-5.69176
た	-5.80655
して	-6.0068
」「	-6.02765
から	-6.04256
人	-6.04408
した	-6.07047
また	-6.11151
や	-6.11723
な	-6.12333
だ	-6.15757
(	-6.20001
て	-6.37024
その	-6.43909
も	-6.52817
い	-6.55904
もの	-6.63119
▁ちょっと	-6.64541
し	-6.7013
か	-6.73708
▁LINE	-6.7851
など	-6.80695
▁その	-6.83549
である	-6.83936
す	-6.84394
をする	-6.85185
物	-6.88595
り	-6.90146
□	-6.90531
者	-6.90945
った	-6.93552
▁あの	-6.96124
」(	-7.00598
▁(	-7.01144
▁この	-7.03669
く	-7.03995
▁彼女は	-7.04142
1	-7.05006
PO	-7.06328
特に	-7.09095
すること	-7.10315
▁えーと	-7.12634
▁えー	-7.13312
▁んー	-7.15165
になる	-7.1604
などの	-7.16294
がある	-7.18707
▁えーっと	-7.19947
さま	-7.22766
家	-7.23664
には	-7.24353
所	-7.25045
または	-7.25593
って	-7.28588
手	-7.32333
▁彼の	-7.32357
として	-7.33397
元気かい	-7.33869
ること	-7.34495
時	-7.34725
ない	-7.36386
▁...	-7.37064
を教えて	-7.37596
う	-7.39921
している	-7.39976
大	-7.43215
日	-7.43538
▁〔	-7.43885
送る	-7.44136
などを	-7.44507
心	-7.44763
子	-7.45021
いた	-7.45059
▁SMS	-7.45147
ある	-7.46215
SMS	-7.46558
水	-7.47401
お	-7.47619
語	-7.48069
一	-7.48756
目	-7.51027
本	-7.51242
的	-7.51454
〕	-7.51799
力	-7.52147
です	-7.52784
さ	-7.52824
ている	-7.52861
出して	-7.52877
き	-7.5288
よ	-7.54819
だった	-7.55767
へ	-7.58277
地	-7.5948
管理	-7.60061
み	-7.60463
転じて	-7.60812
;	-7.61131
2	-7.61628
事	-7.61794
用	-7.62302
色	-7.62513
N	-7.62951
という	-7.63179
金	-7.65233
では	-7.65737
ように	-7.65968
気	-7.67583
ら	-7.69302
国	-7.69409
▁電話	-7.69438
口	-7.71545
年	-7.71595
上	-7.73597
道	-7.74024
つ	-7.74042
いる	-7.75102
3	-7.75512
中	-7.75965
風	-7.7739
まで	-7.80482
LINE	-7.80644
む	-7.80925
などが	-7.81473
法	-7.81909
▁いまから	-7.82787
ちょっと	-7.83483
▁N	-7.84542
によって	-7.84625
▁大	-7.85135
的な	-7.85313
にする	-7.85939
分	-7.86062
▁彼らは	-7.86214
された	-7.86677
させる	-7.86772
▁すぐに	-7.87109
下	-7.88347
体	-7.88449
見	-7.88522
名	-7.88858
を示して	-7.89595
俗	-7.89949
書	-7.89957
木	-7.90247
などで	-7.90613
置いて	-7.91169
方	-7.91276
性	-7.91952
のある	-7.92076
の一つ	-7.92259
点	-7.92837
いまから	-7.93429
?	-7.93508
すぐに	-7.93961
より	-7.94186
数	-7.95187
!	-7.95367
ような	-7.97942
会	-7.98166
学	-7.98259
め	-7.9827
▁「	-7.98489
取り	-7.98648
話	-7.99527
電話	-7.99579
仏	-8.00922
付けて	-8.01205
音	-8.01346
いい	-8.02649
110	-8.0284
よく	-8.03831
...	-8.05091
貼り	-8.0548
開いて	-8.06142
船	-8.06155
出	-8.06375
5	-8.06671
長	-8.06893
小	-8.07236
ほど	-8.07555
時間	-8.07655
車	-8.07658
文	-8.07726
場所	-8.07873
仕事	-8.08159
山	-8.08283
線	-8.08417
▁それは	-8.08598
形	-8.08878
生	-8.09206
▁人の	-8.09281
がない	-8.09872
「	-8.10359
場	-8.10379
ご	-8.10734
月	-8.1097
の一種	-8.11186
考え	-8.11333
▁一	-8.11503
▁お	-8.1159
火	-8.12147
ね	-8.12395
間	-8.12507
声	-8.13276
下さい	-8.13352
紙	-8.13406
のない	-8.13572
だろう	-8.13606
頭	-8.14816
言葉	-8.14911
女	-8.15836
になった	-8.16251
を開いて	-8.1627
こ	-8.16294
どこ	-8.16625
人の	-8.16654
彼は	-8.16683
前	-8.16766
例	-8.17058
海	-8.17446
ず	-8.17568
メッセージ	-8.17629
品	-8.18388
行	-8.19582
送信する	-8.19858
などに	-8.21061
それ	-8.21531
される	-8.21768
様子	-8.22201
屋	-8.23161
▁手	-8.23222
さん	-8.2327
か教えて	-8.235
もう	-8.24837
ために	-8.25012
R	-8.2503
足	-8.25793
え	-8.26434
▁人を	-8.26625
戦	-8.26739
保存して	-8.26793
記録	-8.27178
よい	-8.27219
▁私は	-8.27378
のように	-8.27892
着	-8.27927
この	-8.28089
いて	-8.28286
Q	-8.2878
男	-8.2905
ていた	-8.29078
石	-8.29117
そう	-8.29827
の略	-8.30075
よう	-8.30133
んだ	-8.3049
何	-8.3087
状態	-8.31029
番	-8.31352
に対して	-8.31437
馬	-8.31746
ー	-8.31772
花	-8.31954
▁119	-8.33104
10	-8.33418
写真	-8.33528
っている	-8.33626
のために	-8.33939
なく	-8.33963
かった	-8.34009
れ	-8.34417
切り	-8.34445
神	-8.35327
▁無	-8.35503
先	-8.3583
世	-8.37222
度	-8.37278
▁彼が	-8.37648
後	-8.37712
論	-8.37954
(=	-8.38133
言	-8.38254
じ	-8.38618
面	-8.38711
顔	-8.39452
問題	-8.39778
出す	-8.3999
内	-8.40205
自分の	-8.4144
彼の	-8.4243
▁小	-8.42548
食	-8.42595
白	-8.42706
式	-8.43234
靴	-8.43355
高	-8.43356
熱	-8.44811
▁もう	-8.45105
▁水	-8.45547
け	-8.46467
なる	-8.46726
的に	-8.46879
等	-8.46948
身	-8.47333
歌	-8.47378
これ	-8.47728
三	-8.48251
草	-8.4888
の場所は	-8.49013
ですか	-8.49113
時に	-8.49189
業	-8.49349
二	-8.49373
空	-8.49816
なかった	-8.50025
▁人に	-8.50127
にも	-8.50311
板	-8.50497
なさい	-8.50546
引き	-8.50833
何ができるか教えて	-8.51266
役	-8.51378
▁彼はその	-8.51437
)「	-8.51803
▁私の	-8.51805
部	-8.51878
薬	-8.52407
ます	-8.52519
ん	-8.52725
なら	-8.52836
となる	-8.5308
にある	-8.53117
量	-8.53789
書き	-8.53895
ち	-8.53961
でも	-8.54014
それを	-8.54049
をつける	-8.54088
できる	-8.54382
ため	-8.54552
っ	-8.54592
服	-8.55062
来	-8.55348
流	-8.5537
作	-8.5589
▁不	-8.55964
ば	-8.56091
骨	-8.56103
だけ	-8.56214
酒	-8.56226
4	-8.56716
▁地図	-8.57041
もと	-8.57092
そ	-8.57559
部分	-8.57616
ながら	-8.57711
外	-8.57781
による	-8.57841
死	-8.57908
代	-8.58426
店	-8.58473
ス	-8.58682
の総称	-8.58892
言う	-8.59248
のため	-8.59291
字	-8.59862
生活	-8.60057
込む	-8.6006
しない	-8.60078
ものだ	-8.60284
病	-8.60314
夜	-8.60667
毛	-8.60978
台	-8.61116
▁マップ	-8.61741
状	-8.61803
▁元気かい	-8.61845
天	-8.6223
に対する	-8.62289
任	-8.62355
主義	-8.6242
光	-8.62554
ま	-8.63101
表	-8.63227
ぐ	-8.63502
職	-8.63917
意	-8.64392
布	-8.64456
とする	-8.64523
垢	-8.64971
器	-8.65018
わ	-8.65171
無	-8.65259
植物	-8.65447
のような	-8.65547
兵	-8.65606
主	-8.6563
雨	-8.65689
態度	-8.66173
メッセージを	-8.66269
魚	-8.66435
ための	-8.66597
私の	-8.66916
愛	-8.67163
▁金	-8.67204
権	-8.67438
関係	-8.67698
ル	-8.6799
土	-8.68734
ところ	-8.68768
機	-8.69067
入れ	-8.69074
をした	-8.6908
の人	-8.69122
病気	-8.69141
あなた	-8.69937
味	-8.69957
ぞ	-8.70214
行為	-8.70497
運動	-8.70586
上の	-8.71017
室	-8.71057
▁彼女の	-8.71264
動	-8.71288
であること	-8.71412
していた	-8.71416
はない	-8.71825
について	-8.72108
送信	-8.72549
がいい	-8.72841
せ	-8.72946
鳥	-8.73047
装置	-8.73167
られた	-8.73369
元気かい予約	-8.73382
大きな	-8.73476
中に	-8.73735
髪	-8.7381
発	-8.73869
前に	-8.73889
元	-8.74153
曲	-8.74155
マップ	-8.74406
をして	-8.74679
油	-8.74808
悪	-8.74931
もない	-8.75001
道具	-8.75031
五	-8.75043
角	-8.756
をとる	-8.75719
感	-8.75719
肉	-8.75869
音楽	-8.76037
▁新	-8.76351
用の	-8.76882
血	-8.7691
筆	-8.76953
地図	-8.77163
を出す	-8.77182
雲	-8.77192
ぶ	-8.77341
られる	-8.776
▁本	-8.77649
御	-8.77934
不	-8.77969
ください	-8.78002
人を	-8.78014
位	-8.78017
客	-8.78078
▁これ	-8.78489
持ち	-8.78599
波	-8.78608
▁自分の	-8.78625
人に	-8.78796
▁山	-8.78796
化	-8.78903
行く	-8.78965
める	-8.79044
命	-8.79117
でない	-8.79632
物を	-8.79729
比ゆ的に	-8.79862
イ	-8.79927
人が	-8.79929
に電話	-8.80061
組織	-8.80064
料理	-8.80446
部屋	-8.8058
米	-8.80599
性質	-8.80911
合	-8.81024
葉	-8.81046
絵	-8.81208
腹	-8.81223
こう	-8.81555
種	-8.81818
門	-8.82279
▁これは	-8.82365
他の	-8.82369
を受ける	-8.82404
になっている	-8.82422
犬	-8.82488
何ができる	-8.83101
はどうなっている	-8.8332
歩く	-8.83501
実	-8.83831
座	-8.83857
れる	-8.83905
立	-8.84232
雪	-8.84662
を作る	-8.84793
図	-8.84826
元気かいの	-8.85341
会社	-8.85383
』	-8.85541
になって	-8.85613
説	-8.85632
根	-8.85637
思い	-8.8618
入	-8.86232
ど	-8.86413
その人	-8.86557
であった	-8.86742
打ち	-8.86797
ぎ	-8.86937
しい	-8.87214
/	-8.87355
ものを	-8.87381
父	-8.87438
師	-8.87451
▁口	-8.87541
制	-8.87549
ルビ	-8.87553
時代	-8.87611
相	-8.87688
官	-8.87713
席	-8.8785
▁1	-8.87996
期	-8.88002
質	-8.88058
▁『	-8.88275
▁彼には	-8.8852
意見	-8.88576
節	-8.88867
類	-8.88889
砲	-8.88915
界	-8.89157
付け	-8.89183
学校	-8.89209
罪	-8.89299
土地	-8.8959
▁電話をかける	-8.89715
重	-8.89773
を取る	-8.89874
画	-8.89911
える	-8.8993
通り	-8.90176
とは	-8.90517
何できる	-8.90662
▁ある	-8.90856
そういう	-8.91031
▁出	-8.91098
に使う	-8.91143
▁君は	-8.91185
ン	-8.912
別	-8.91516
▁我々は	-8.9157
計画	-8.91585
様	-8.91624
文字	-8.9165
眼	-8.91695
リ	-8.91705
のは	-8.92135
$	-8.93004
ろ	-8.93091
食用	-8.93276
▁私	-8.9346
お知らせ	-8.93539
回	-8.9354
軍	-8.93552
町	-8.93615
路	-8.93664
管	-8.93754
写真で	-8.93982
川	-8.93991
々	-8.94301
事を	-8.9438
糸	-8.94592
つき	-8.94615
箱	-8.947
とも	-8.94785
まだ	-8.9493
べき	-8.9495
立ち	-8.95053
たち	-8.95158
▁内	-8.95274
君	-8.955
直	-8.95558
敵	-8.95761
茶	-8.95853
をかける	-8.9601
▁元気かいの	-8.96296
ではない	-8.96298
子供	-8.96502
元気かいの履歴	-8.96503
詩	-8.96563
はどこ	-8.96949
ラ	-8.96965
▁電話したい	-8.97116
▁電話する	-8.97147
母	-8.97376
首	-8.9762
入り	-8.97908
のか	-8.97921
美しい	-8.97939
傷	-8.97953
私	-8.98117
新	-8.98451
刀	-8.98508
事実	-8.9861
つく	-8.98753
虫	-8.98926
んで	-8.98956
姿	-8.98982
かす	-8.99014
▁あなた	-8.99135
6	-8.99167
夏	-8.9921
なこと	-8.99448
柱	-8.99483
すぐ	-8.99735
社会	-8.99884
ぬ	-8.99922
輪	-8.99926
び	-8.99959
ナ	-9.00053
然	-9.00236
知	-9.00393
教えて	-9.00453
感じ	-9.00699
旅行	-9.01109
新しい	-9.01158
きた	-9.01159
小説	-9.01213
行動	-9.01281
見る	-9.01398
教育	-9.01613
中の	-9.01695
をすること	-9.01842
▁夜	-9.01912
どこにある	-9.01957
▁彼	-9.02262
を探して	-9.02532
を見つけて	-9.02697
印	-9.02954
札	-9.03015
に行く	-9.03115
ア	-9.03257
劇	-9.03344
▁2	-9.03351
事柄	-9.03431
利	-9.03496
親	-9.03522
棒	-9.03558
六	-9.03613
一回	-9.03834
▁空	-9.03842
ける	-9.04085
出し	-9.04305
団	-9.04411
したもの	-9.04872
できない	-9.04893
値	-9.04908
歯	-9.04935
同じ	-9.05022
円	-9.05177
縁	-9.05299
高い	-9.05324
あり	-9.05358
が悪い	-9.05566
ページ	-9.05619
たり	-9.05794
情	-9.05854
計	-9.05915
言い	-9.06071
玉	-9.06106
星	-9.06378
見つけて	-9.06415
ばかり	-9.06423
正	-9.07094
通	-9.0716
げ	-9.0717
ひ	-9.07171
春	-9.07234
されている	-9.07327
立て	-9.07411
なり	-9.07489
約束	-9.07509
▁電話かける	-9.07593
次	-9.07629
つけ	-9.07653
私は	-9.07874
古	-9.07936
額	-9.07988
湯	-9.08014
人間	-9.08103
▁下	-9.08112
元気かいの記録	-9.08207
句	-9.08419
強	-9.08572
▁木	-9.08681
売り	-9.08718
帯	-9.08794
よりも	-9.08832
里	-9.08895
れば	-9.09484
かけ	-9.09703
妻	-9.09708
覆	-9.09802
}	-9.09841
辰	-9.09943
背	-9.10565
あと	-9.10717
記	-9.10721
員	-9.10737
試験	-9.1075
▁前	-9.10902
定	-9.10934
っていた	-9.11042
があった	-9.11319
原	-9.11436
▁生	-9.11476
非常に	-9.11684
版	-9.11695
▁君の	-9.11835
赤	-9.1188
戦争	-9.11944
とり	-9.12021
動物	-9.12139
僧	-9.12152
粉	-9.12174
耳	-9.12187
▁神	-9.12224
筋	-9.12297
建物	-9.12503
事件	-9.12601
文章	-9.12658
を与える	-9.12744
たる	-9.12803
探して	-9.12934
難	-9.13024
合い	-9.13027
▁上	-9.13031
ドル	-9.13088
柄	-9.13088
の中に	-9.1309
▁三	-9.13165
らしい	-9.13221
▁気	-9.13225
日本	-9.1328
ひと	-9.1335
成	-9.13508
掛け	-9.13655
型	-9.13698
地方	-9.13759
映画	-9.14206
すこと	-9.1423
明	-9.14456
製	-9.14493
▁後	-9.14673
ト	-9.14748
試合	-9.14838
そういう人	-9.14848
▁元気かいの履歴	-9.1499
煙	-9.15161
地位	-9.15356
袋	-9.1544
オ	-9.15546
▁元気かいの記録	-9.15632
やり直す	-9.15749
四	-9.15815
造	-9.16069
尾	-9.16139
で写真	-9.16387
事業	-9.16473
活動	-9.16568
▁御	-9.16587
竹	-9.16592
楽	-9.16683
ないこと	-9.1675
でしょう	-9.16898
穴	-9.1693
▁自	-9.17008
費	-9.17127
研究	-9.1718
になること	-9.17233
戸	-9.17264
張り	-9.17444
▁目	-9.17475
を示す	-9.17488
はどこにある	-9.17538
▁天	-9.17623
▁高	-9.17774
公	-9.17929
杯	-9.17965
腰	-9.18016
黒	-9.18021
らない	-9.18042
案	-9.18161
マ	-9.18326
感情	-9.18415
網	-9.18425
美	-9.18563
っと	-9.18605
▁何	-9.18732
▁白	-9.1878
読みたい	-9.18852
人物	-9.18997
写真を	-9.191
田	-9.19103
寝	-9.19168
とき	-9.19388
カ	-9.19411
調子	-9.19455
長い	-9.19479
に対し	-9.19555
税	-9.19706
機械	-9.19721
の中で	-9.19951
断	-9.20019
八	-9.20142
かい	-9.20293
強い	-9.2031
が多い	-9.20318
相手	-9.20367
電話かける	-9.20476
電話をかける	-9.20529
あ	-9.20579
書物	-9.20599
一番	-9.20726
行き方	-9.2095
小さな	-9.21006
だけで	-9.2113
電	-9.21346
への	-9.21539
天気	-9.21636
そうだ	-9.21657
村	-9.21754
術	-9.21794
害	-9.22042
乗り	-9.22044
ロ	-9.22076
鼻	-9.22095
▁心	-9.22201
制度	-9.2225
弁	-9.22353
同	-9.22512
をしている	-9.22529
いっぺん	-9.22664
▁彼に	-9.22715
学者	-9.22909
s	-9.23024
取引	-9.23188
政治	-9.23319
やり直し	-9.23322
いや	-9.23522
産	-9.23561
確認	-9.23612
報	-9.23659
ルート	-9.23682
半	-9.23822
料	-9.23859
合う	-9.23863
となった	-9.23931
方法	-9.23933
まる	-9.23941
悪い	-9.24101
塩	-9.24228
まい	-9.2437
読	-9.24464
士	-9.24465
球	-9.24629
出した	-9.24708
像	-9.24761
平	-9.25029
▁同	-9.25154
ゆ	-9.25755
ッ	-9.25856
気持	-9.2601
当	-9.26044
娘	-9.26075
ろう	-9.26102
。↓	-9.26135
議論	-9.26138
息	-9.26263
しか	-9.26356
番に電話	-9.26439
民	-9.26505
▁中	-9.2657
のに使う	-9.26619
▁二	-9.26709
▁ご	-9.26862
ウ	-9.2695
皮	-9.27117
あった	-9.27139
払い	-9.27274
王	-9.27275
信	-9.27358
乗	-9.27512
と思う	-9.27583
遊び	-9.27607
押し	-9.27744
20	-9.2775
得	-9.27817
7	-9.2792
なし	-9.27932
能力	-9.27954
|	-9.28016
上げる	-9.28037
調	-9.28098
シ	-9.28149
歩	-9.28322
▁僕は	-9.28431
広く	-9.28536
進	-9.28594
結婚	-9.28733
学問	-9.28792
違い	-9.28817
談	-9.28839
ができますか	-9.29008
に入る	-9.2902
作用	-9.2907
毒	-9.29135
つける	-9.29181
▁ショートメッセージ	-9.29324
取る	-9.29492
横	-9.29587
▁外	-9.29618
号	-9.29696
新聞	-9.29702
多	-9.29786
進む	-9.29806
幕	-9.29827
大学	-9.29944
ケ	-9.30061
じゃない	-9.30148
立つ	-9.30417
運	-9.30427
ひどく	-9.30431
史	-9.30474
抜き	-9.30664
出る	-9.30694
くる	-9.30852
何か	-9.30939
やる	-9.31029
119	-9.31108
経験	-9.31115
連	-9.3114
手紙	-9.31171
経済	-9.31297
かた	-9.31299
機関	-9.31401
込み	-9.31613
壁	-9.31626
をもつ	-9.31716
てしまった	-9.31733
卵	-9.31794
規則	-9.31804
小さい	-9.31853
▁～	-9.31939
深い	-9.32053
物質	-9.32178
▁全	-9.32229
フ	-9.32242
を送る	-9.32302
牛	-9.32545
道順	-9.32564
夫	-9.32593
チ	-9.32602
針	-9.32603
自動車	-9.3273
焼き	-9.32922
鉄	-9.32925
秋	-9.32978
しなさい	-9.33169
全	-9.33259
城	-9.3334
を入れる	-9.3336
いつも	-9.335
タ	-9.33612
電話したい	-9.33619
番呼び出して	-9.33671
に関する	-9.33748
和	-9.33856
朝	-9.33927
欲	-9.33948
▁日	-9.33998
飯	-9.34214
野	-9.34261
落ち	-9.34319
▁火	-9.34366
言った	-9.34384
なければならない	-9.34403
彼に	-9.34431
行う	-9.34465
道路	-9.34481
うまく	-9.3457
肩	-9.34659
かな	-9.34679
使い	-9.34749
社	-9.34764
乱	-9.34782
ふ	-9.34869
多くの	-9.34883
策	-9.34964
法律	-9.35072
▁警察	-9.35176
を言う	-9.35249
表現	-9.35334
番に電話して	-9.35407
お知らせページ	-9.35447
万	-9.35449
隊	-9.35577
ニ	-9.35655
一定の	-9.35666
老	-9.35757
▁国	-9.35863
居	-9.35864
入っている	-9.36035
窓	-9.36277
彼が	-9.36291
起	-9.36294
形の	-9.36326
剤	-9.36349
8	-9.36353
模様	-9.36362
食事	-9.36366
▁悪	-9.36449
▁船	-9.36466
メッセージを送信	-9.36475
科の	-9.3648
殺	-9.36584
盛り	-9.36593
させた	-9.36618
変化	-9.36642
時の	-9.36723
そうな	-9.36824
歳	-9.36881
切る	-9.36906
笑い	-9.36963
ずる	-9.36996
メッセージ送信	-9.37062
白い	-9.37091
たい	-9.37251
30	-9.37265
	-9.37292
港	-9.37321
なった	-9.37344
どう	-9.37387
ますか	-9.37449
損	-9.37453
化する	-9.37478
局	-9.37543
付	-9.37778
命令	-9.3789
吹き	-9.37918
▁先	-9.37956
で写真を	-9.38001
長く	-9.38011
私に	-9.38023
ません	-9.3812
'	-9.38133
政	-9.38201
競技	-9.3824
片	-9.38283
電気	-9.38427
せる	-9.38493
財産	-9.38519
英語	-9.3875
算	-9.38767
の間	-9.3895
十	-9.39058
▁真	-9.39196
破	-9.39384
時計	-9.394
詰め	-9.39439
d	-9.39446
権利	-9.39452
▁何か	-9.39492
の上	-9.39542
のうち	-9.3956
がよい	-9.39566
変更	-9.39628
一般に	-9.39649
▁まだ	-9.39657
▁―	-9.39696
真	-9.39706
有	-9.39791
のよい	-9.39822
羽	-9.39887
行き	-9.39894
世界	-9.3997
層	-9.39981
すっかり	-9.39991
危険	-9.40033
▁風	-9.40252
を起こす	-9.40313
安	-9.40354
失	-9.40369
燭	-9.40371
▁茶	-9.40373
数学	-9.40662
旗	-9.40964
彼	-9.41002
いない	-9.41045
島	-9.41054
	-9.41222
番に電話かける	-9.41244
▁日本	-9.41282
七	-9.41448
▁非常に	-9.41698
たもの	-9.41763
送	-9.41915
メートル	-9.4198
使う	-9.41986
にして	-9.42065
II	-9.42094
食べる	-9.42154
党	-9.42157
ぼ	-9.42184
されて	-9.42246
ほう	-9.42302
コ	-9.42407
べ	-9.42456
説明	-9.42491
影	-9.42527
向き	-9.42535
証拠	-9.42535
の部分	-9.42562
うち	-9.42633
レ	-9.42648
▁第	-9.42679
そば	-9.42709
地域	-9.42723
金銭	-9.42795
番呼び出す	-9.42803
薄	-9.42811
記号	-9.42813
品物	-9.4285
率	-9.42919
他	-9.4305
▁雪	-9.43124
多く	-9.43142
全部	-9.43223
立てる	-9.43312
とした	-9.43316
心配	-9.43322
条件	-9.43323
の上に	-9.43414
文書	-9.43471
50	-9.4351
付き	-9.43797
教	-9.43915
ク	-9.44006
菓子	-9.44138
100	-9.44285
団体	-9.44392
を立てる	-9.44409
失敗	-9.44497
ミ	-9.44512
段	-9.44521
少年	-9.44525
技術	-9.4463
だと	-9.44635
ごと	-9.44824
を見る	-9.44896
電話する	-9.44993
働き	-9.45019
個	-9.4504
気が	-9.45085
付ける	-9.45272
▁正	-9.45425
才	-9.4547
切れ	-9.4555
つけた	-9.45569
あい	-9.45575
つか	-9.4561
メッセを	-9.45668
を見	-9.45712
ました	-9.45726
橋	-9.45766
作った	-9.45767
とても	-9.45917
手段	-9.45917
工	-9.45947
引	-9.46049
話す	-9.46116
指	-9.46228
対	-9.46243
▁3	-9.4627
注意	-9.46274
切	-9.46389
分の	-9.46487
好	-9.46753
やすい	-9.46757
ニュース	-9.46851
意味	-9.46866
▁電卓	-9.4687
株	-9.46886
金を	-9.46888
庭	-9.46956
床	-9.47152
酸	-9.47233
の行き方	-9.47371
じる	-9.4743
日に	-9.4745
ころ	-9.47502
に向かって	-9.47507
折	-9.47528
児	-9.47536
来た	-9.47737
▁平	-9.47799
巻	-9.47844
ひどい	-9.47935
雑誌	-9.48109
示して	-9.48175
色の	-9.4821
落	-9.4823
思想	-9.48346
解	-9.48407
わけ	-9.48409
ずっと	-9.4847
▁こう	-9.48473
すぐれた	-9.48696
端	-9.48782
どうすれば	-9.48787
のルート	-9.48803
回り	-9.48838
だけの	-9.48847
目的	-9.48876
くなる	-9.48917
があり	-9.48952
▁重	-9.49024
▁同じ	-9.49044
徳	-9.49233
伝	-9.49251
作品	-9.49257
列	-9.49457
▁月	-9.49458
はまだ	-9.49491
しく	-9.49521
▁見	-9.49664
メッセ	-9.49747
込んだ	-9.49867
がなく	-9.49896
結果	-9.50009
万円	-9.50135
を守る	-9.50142
訳	-9.50229
望	-9.50274
返す	-9.50277
▁海	-9.5028
散	-9.50363
かん	-9.5039
なんて	-9.504
派	-9.50402
目に	-9.50611
理	-9.50742
工場	-9.50768
を失う	-9.50774
利益	-9.50916
に出る	-9.50945
皿	-9.50956
もなく	-9.51008
を使って	-9.51026
韻	-9.51042
⇒	-9.51107
▁実	-9.5131
せず	-9.51337
宿	-9.51359
千	-9.51517
降り	-9.51535
の名	-9.51656
科	-9.51676
礼	-9.51709
週間	-9.51714
▁そう	-9.51798
▁公	-9.51853
現象	-9.51978
取り消す	-9.52002
流れ	-9.5202
▁古	-9.52059
そんな	-9.52082
苦	-9.52095
事情	-9.52131
知識	-9.52248
くて	-9.52383
▁初	-9.524
▁花	-9.52498
陣	-9.52526
すべき	-9.52591
腕	-9.52618
間に	-9.52711
の下	-9.52762
陰	-9.52817
一つ	-9.52949
を得る	-9.53043
葉は	-9.53131
らす	-9.53169
やめ	-9.53182
▁そんな	-9.53187
の道順	-9.53195
あまり	-9.53271
家族	-9.53347
▁他人の	-9.53351
▁有	-9.53369
駅	-9.53448
変	-9.53511
砂	-9.53586
▁昔	-9.53748
価値	-9.53774
元気かいのお知らせ	-9.53821
入れる	-9.54057
され	-9.54106
大いに	-9.54163
普通	-9.54298
辞	-9.54319
読み	-9.54355
▁名	-9.54433
勝	-9.54501
両	-9.5452
他人の	-9.54533
跡	-9.5456
らせる	-9.54566
投げ	-9.54594
建築	-9.54689
早く	-9.54711
称	-9.54798
分け	-9.54841
大きく	-9.54941
▁彼は私に	-9.54958
を持つ	-9.54958
岩	-9.5496
勢力	-9.55013
灯	-9.55036
番する	-9.55153
市	-9.55189
好き	-9.55256
します	-9.55268
行った	-9.55282
肌	-9.55328
女性	-9.55332
れた	-9.55377
ということ	-9.55534
辺	-9.55579
の一	-9.55747
▁赤	-9.55874
どんな	-9.56019
▁物事の	-9.56057
具	-9.56077
胸	-9.56157
義	-9.56236
示	-9.56251
堂	-9.56331
▁血	-9.56383
約	-9.56419
すり	-9.56516
向	-9.56527
▁長	-9.56546
強く	-9.56621
▁酒	-9.56637
くれ	-9.56684
▁今	-9.56729
夢	-9.5685
追い	-9.56993
言うこと	-9.57029
判断	-9.57203
により	-9.57232
当たり	-9.57388
演説	-9.57399
受け	-9.57456
校	-9.57539
来る	-9.57556
としての	-9.57588
題	-9.5759
{	-9.57632
組	-9.57679
検査	-9.57719
芸	-9.5772
転	-9.57762
▁ひと	-9.57814
婦人	-9.57879
液	-9.58003
さえ	-9.5801
▁雨	-9.58208
銀	-9.58208
余	-9.58232
ものが	-9.58274
ほどの	-9.58277
理論	-9.58308
飛び	-9.58337
寺	-9.58412
近	-9.58489
氏	-9.58489
いること	-9.58606
やり	-9.58631
格	-9.5864
の件	-9.58738
状の	-9.58739
ごろ	-9.58745
てきた	-9.58807
見える	-9.58809
▁横	-9.58871
そこ	-9.58955
削除	-9.59007
倍	-9.59051
前の	-9.59127
のですか	-9.59197
位置	-9.59233
一つの	-9.59291
差	-9.59338
政府	-9.59376
幅	-9.59475
相手の	-9.5958
高く	-9.59595
衣	-9.59604
今	-9.59622
▁よく	-9.59691
▁救急車呼ぶ	-9.59749
t	-9.59761
はその	-9.59762
精神	-9.5977
さない	-9.59787
取	-9.59877
枚	-9.59881
互いに	-9.59971
寒	-9.60056
箸	-9.60105
恩	-9.60369
末	-9.60383
▁早	-9.60446
それに	-9.60544
込んで	-9.60656
抜け	-9.6077
全く	-9.60775
キ	-9.60777
営	-9.60778
つる	-9.60821
しよう	-9.60823
ド	-9.60836
がつく	-9.60847
速	-9.60868
に当たる	-9.60955
入る	-9.60991
友	-9.6101
程度	-9.61044
いまから電話	-9.61055
釮	-9.61126
のだ	-9.61135
反	-9.61196
氷	-9.61197
質問	-9.61201
かね	-9.61263
職業	-9.61264
衣服	-9.61264
修	-9.6135
工業	-9.61402
解決	-9.61437
素	-9.61441
帽子	-9.61514
成功	-9.61562
られて	-9.61579
が彼の	-9.616
取り消し	-9.61642
言語	-9.61703
はっきり	-9.61724
矢	-9.6174
うそ	-9.6185
不足	-9.61857
▁多	-9.61888
弱	-9.61913
▁戦争	-9.61929
者が	-9.61934
岸	-9.61951
かかる	-9.62123
願	-9.62145
院	-9.62239
略	-9.62284
なって	-9.62353
彼女は	-9.62449
起こる	-9.62457
打	-9.62466
と言った	-9.62507
責任	-9.62513
激しく	-9.62522
でなく	-9.62548
反対	-9.62593
程	-9.62714
、「	-9.62744
がないこと	-9.62745
パン	-9.62761
上げ	-9.62771
飾り	-9.62776
かさ	-9.62792
▁それ	-9.62793
OK	-9.62834
北	-9.62928
バ	-9.62941
賞	-9.62976
軸	-9.62988
茲	-9.63112
ざ	-9.63134
▁君が	-9.63182
材	-9.63234
自	-9.63294
場合	-9.6348
痛	-9.63544
逆	-9.63572
人は	-9.63633
上がる	-9.63639
政策	-9.63673
持	-9.63689
配	-9.63692
彼女の	-9.637
内容	-9.63715
炎	-9.63765
少し	-9.638
商売	-9.63837
善	-9.63854
滅	-9.63919
大きい	-9.63931
汁	-9.63946
ガラス	-9.63959
墨	-9.63978
一方	-9.63983
と言う	-9.63994
受	-9.6403
取りやめ	-9.64089
良	-9.64099
▁女	-9.64217
まえ	-9.64236
にした	-9.64256
すれば	-9.64326
患者	-9.64573
蔵	-9.64607
ことだ	-9.64656
空気	-9.64685
階級	-9.64776
皆	-9.64776
のもの	-9.64791
のいい	-9.6484
聞き	-9.64865
に住む	-9.64904
黄	-9.64908
せん	-9.64928
を更新する	-9.64932
番して	-9.64965
晩	-9.6502
列車	-9.65022
ちゃん	-9.65057
▁年	-9.65137
離	-9.65137
を見て	-9.65277
経	-9.65358
▁救急車	-9.6536
見て	-9.65402
の類	-9.65456
▁川	-9.65567
おり	-9.65591
できた	-9.65592
は何	-9.65627
距離	-9.65653
かどうか	-9.65686
給	-9.65762
裏	-9.65766
おく	-9.6578
契約	-9.65783
援助	-9.65831
係	-9.65854
さし	-9.65869
原因	-9.65981
～	-9.66104
霊	-9.66124
犯罪	-9.66209
差し	-9.66224
ひも	-9.66226
ブ	-9.66454
ぶり	-9.66554
価格	-9.66564
割り	-9.66566
健康	-9.66584
いった	-9.66599
すべて	-9.66622
弾	-9.66623
織物	-9.66626
境	-9.6663
期間	-9.66643
要	-9.66647
銃	-9.6667
仕事を	-9.66712
才能	-9.66767
青	-9.66776
要求	-9.66791
材料	-9.668
金属	-9.66922
しまった	-9.66951
乳	-9.67013
たちは	-9.67134
A	-9.67174
言って	-9.67204
装	-9.67246
▁足	-9.67264
はい	-9.67276
仕	-9.67282
▁直	-9.6729
放送	-9.67319
彼を	-9.67471
留	-9.67478
▁これらの	-9.67481
仲間	-9.67541
委員会	-9.67641
働く	-9.67737
性の	-9.67822
習	-9.67858
まったく	-9.6801
積	-9.68016
等の	-9.68045
治	-9.6808
南	-9.68107
最も	-9.68141
会議	-9.68147
便	-9.68154
がよく	-9.68278
生徒	-9.68279
泥	-9.68303
意識	-9.68542
器具	-9.68612
▁元気かいのお知らせ	-9.68681
▁親	-9.68755
をもって	-9.69068
スト	-9.69129
体を	-9.69176
綿	-9.69195
学生	-9.69221
▁再	-9.69291
自然	-9.69304
知恵	-9.69382
属	-9.69409
▁総	-9.69455
などに使う	-9.69466
もっと	-9.69539
の悪い	-9.69556
側	-9.69672
食物	-9.6974
飲む	-9.69749
かり	-9.69775
攻撃	-9.69856
選	-9.7003
聞	-9.70031
計算	-9.70042
でメッセージ	-9.70044
更新	-9.70077
深く	-9.7008
▁新しい	-9.70167
を変更する	-9.70271
花が咲く	-9.70278
希望	-9.7028
苦労	-9.70308
事故	-9.70333
ム	-9.7034
潮	-9.7044
松	-9.70464
剣	-9.70525
所に	-9.70558
られている	-9.70579
死んだ	-9.70617
食い	-9.70655
努力	-9.70665
作る	-9.70888
問	-9.70914
務	-9.7095
罰	-9.71069
望み	-9.71084
習慣	-9.71172
▁天気	-9.71187
うちに	-9.71227
収	-9.7131
物事の	-9.71316
を削除	-9.71324
枝	-9.71344
▁強	-9.71357
中である	-9.71362
を使う	-9.71383
林	-9.71502
もち	-9.71516
涙	-9.71552
▁野	-9.71581
清	-9.7162
念	-9.71766
気分	-9.71774
各	-9.718
させ	-9.71831
走	-9.71887
編	-9.71957
評判	-9.7206
批評	-9.7212
雄	-9.72135
追加	-9.72191
商	-9.72224
作り	-9.72272
を張る	-9.72336
言い方	-9.72337
ついて	-9.7237
見た	-9.7238
▁朝	-9.72402
紅	-9.72432
を打つ	-9.72511
死ぬ	-9.72526
▁入	-9.72612
討	-9.72646
犯	-9.72688
▁逆	-9.72694
▁メッセ	-9.7272
判	-9.72825
在	-9.72865
昔	-9.72871
それが	-9.72921
やった	-9.72928
ばか	-9.7293
は彼の	-9.73142
孫	-9.73142
振り	-9.73211
れて	-9.73229
▁熱	-9.73248
ネ	-9.73323
底	-9.73478
都市	-9.73505
▁愛	-9.73691
泣く	-9.73796
上に	-9.73834
パ	-9.73877
食品	-9.73897
集	-9.74026
予定	-9.74061
過	-9.74072
舌	-9.74072
正しい	-9.74114
細工	-9.7413
領	-9.7414
飛行	-9.74151
急	-9.74163
従	-9.74198
籍	-9.7422
すぎる	-9.74235
経路	-9.74307
に達する	-9.74342
級	-9.74536
くず	-9.74537
ほとんど	-9.74555
キロ	-9.74592
章	-9.7466
、...	-9.74697
返事	-9.74741
▁ひ	-9.74751
▁自然	-9.74802
もある	-9.74847
ましたか	-9.74859
旅	-9.74862
合わせ	-9.74881
につく	-9.74985
ほ	-9.74994
観	-9.75029
へ行く	-9.75038
弟	-9.75071
残	-9.75136
製品	-9.75137
舟	-9.7515
次の	-9.75187
銭	-9.75209
年齢	-9.75225
綱	-9.75263
者は	-9.75269
立派な	-9.75297
違う	-9.75319
州	-9.75464
冠	-9.75472
産業	-9.7548
ずに	-9.75489
の多い	-9.755
顔つき	-9.75515
年間	-9.75531
丸	-9.75536
笑う	-9.75562
宮	-9.75653
に似た	-9.75733
▁とても	-9.75839
しゃ	-9.75887
蝿	-9.75908
ハ	-9.76084
人だ	-9.76118
泙	-9.76201
ガス	-9.76314
離れ	-9.76321
に電話をかける	-9.76353
保護	-9.76421
立場	-9.76422
九	-9.76459
家に	-9.76462
▁警察を呼ぶ	-9.76474
条	-9.76513
考える	-9.76562
まず	-9.76577
を取り	-9.76629
メ	-9.76629
黒い	-9.76671
香	-9.76764
▁彼は私の	-9.76858
水を	-9.76878
知っている	-9.76891
理由	-9.76906
マイル	-9.76921
東	-9.77056
茎	-9.7707
▁身	-9.77085
があって	-9.77241
祭	-9.77275
▁鉄	-9.77281
軍隊	-9.77387
体の	-9.77444
心が	-9.77453
趣味	-9.77476
▁自動車	-9.77485
百	-9.77489
階	-9.77492
芸術	-9.77497
初めて	-9.77507
を行なう	-9.77519
殿	-9.77542
▁黒	-9.77542
必要	-9.77609
15	-9.77627
▁それが	-9.77666
売	-9.777
▁両	-9.77763
冬	-9.77795
けた	-9.77922
性格	-9.7804
▁土	-9.78186
▁肉	-9.78187
勢い	-9.78192
わざ	-9.78209
文学	-9.78221
狂	-9.78348
に電話する	-9.78439
の中	-9.78451
替え	-9.78503
友人	-9.78524
らず	-9.78582
省	-9.78631
▁それを	-9.7866
癖	-9.78664
十分	-9.78667
圧	-9.78717
▁こ	-9.7875
症	-9.78808
別の	-9.78839
生物	-9.78854
Δ	-9.78869
芝居	-9.78899
服装	-9.78916
▁君	-9.79017
ぐらい	-9.79066
裁判所	-9.79078
息子	-9.79094
をやる	-9.79106
期待	-9.79171
テ	-9.79258
国家	-9.79333
▁主	-9.79337
▁他	-9.7937
わら	-9.79413
やか	-9.79495
紋	-9.79558
割	-9.79602
うこと	-9.79625
走る	-9.79636
な人	-9.79743
ページを	-9.79787
左	-9.79791
勢	-9.79805
傾向	-9.79865
商品	-9.79996
みな	-9.80025
密	-9.80051
炭	-9.80056
かもしれない	-9.80057
教え	-9.80059
部隊	-9.8006
▁救急車を呼ぶ	-9.801
何の	-9.80136
バス	-9.80157
心に	-9.80208
将来	-9.80257
られない	-9.80308
物事	-9.80366
屋根	-9.80467
に電話かける	-9.80548
交	-9.806
と同じ	-9.80682
ついた	-9.80697
▁多くの	-9.80722
ホーム画面	-9.80856
▁ショートメッセージを	-9.80864
を求める	-9.80907
納	-9.80916
脚	-9.80964
助	-9.81086
始めた	-9.81164
]	-9.81182
販売	-9.81196
一日	-9.81301
呂	-9.81306
人形	-9.81347
結	-9.81398
▁寝	-9.81411
露	-9.81519
したり	-9.81667
生産	-9.81733
心を	-9.81747
▁半	-9.81759
▁警察呼びに電話	-9.81883
たくさん	-9.81888
達	-9.81892
▁文	-9.81912
めた	-9.81996
を受けて	-9.82082
全体	-9.82106
▁ア	-9.82136
苦しい	-9.82207
を入れて	-9.82235
ちょっと電話	-9.82237
短い	-9.82274
かわ	-9.82319
▁明	-9.8232
細	-9.8232
▁何ができるか教えて	-9.82398
チーム	-9.82419
の言葉	-9.82448
の称	-9.82487
9	-9.82552
収入	-9.82582
手を	-9.82596
ができる	-9.82801
ポンド	-9.82814
早	-9.82853
▁5	-9.82882
交渉	-9.82944
ていない	-9.83084
志	-9.83118
▁片	-9.83139
処理	-9.8315
印刷	-9.83162
止め	-9.83296
いく	-9.83378
の時	-9.83433
動作	-9.83455
▁物事を	-9.83464
相談	-9.83469
▁春	-9.83545
鵑	-9.83549
撃	-9.83574
渡し	-9.83585
▁地	-9.83731
退	-9.83761
回る	-9.83796
物語	-9.83847
となって	-9.83902
食べ	-9.83928
筒	-9.83965
▁青	-9.83985
▁原	-9.83998
漢	-9.84025
豆	-9.8404
B	-9.84052
畑	-9.84063
景	-9.84084
▁急	-9.84116
ホ	-9.84165
あの	-9.84171
置き	-9.84174
ちゃ	-9.84202
菜	-9.84226
ようにする	-9.84338
一人	-9.84428
でメッセ	-9.84444
行い	-9.84527
サ	-9.84572
情報	-9.8463
どうなる	-9.84685
▁馬	-9.8471
のことを	-9.84751
設備	-9.84755
気持ち	-9.84758
動き	-9.84779
議	-9.84828
とう	-9.84883
▁新聞	-9.84978
▁反	-9.84979
絶	-9.84992
後に	-9.85055
教師	-9.85058
死ぬこと	-9.85159
巻き	-9.85176
調査	-9.85222
でき	-9.85234
喜び	-9.85251
を確認	-9.85271
急に	-9.85275
令	-9.85328
たら	-9.85351
▁石	-9.85353
兄	-9.85374
書類	-9.85457
さっと	-9.8547
家の	-9.8553
なかなか	-9.85606
目を	-9.85647
涼	-9.85894
▁旧	-9.85949
▁男	-9.85951
満足	-9.85966
施設	-9.85966
縄	-9.85971
飲み	-9.86021
きり	-9.86033
に立つ	-9.86113
君の	-9.86151
費用	-9.86159
当て	-9.86289
聞く	-9.86303
勉強	-9.86337
づ	-9.86354
願い	-9.86362
何も	-9.86404
極	-9.8641
ツ	-9.86412
生まれ	-9.86413
直接	-9.86433
を引く	-9.86539
るように	-9.86588
あたり	-9.86654
物事を	-9.86721
▁一つの	-9.86744
手で	-9.86755
彼女	-9.86886
-	-9.869
させて	-9.86992
総	-9.87012
ヒ	-9.87065
典	-9.87077
▁試験	-9.87094
▁腹	-9.87122
わからない	-9.87233
症状	-9.87247
効果	-9.87265
態	-9.87291
まま	-9.873
企業	-9.87411
顔を	-9.87422
電車	-9.87446
しても	-9.87526
▁彼らの	-9.87528
秘密	-9.8754
ガ	-9.87553
二つの	-9.87564
諸	-9.87587
選手	-9.8773
若い	-9.87915
丁	-9.87926
時期	-9.87951
ようだ	-9.87959
決定	-9.88015
世間	-9.88016
単に	-9.88051
織り	-9.8808
間違い	-9.88084
ないように	-9.88097
範囲	-9.88152
甲	-9.88208
決	-9.88231
許	-9.88237
をつけた	-9.8834
まき	-9.88351
役目	-9.8839
障害	-9.88408
作業	-9.88408
俳優	-9.8843
閑	-9.88441
勘定	-9.88463
置	-9.88505
近く	-9.88548
していない	-9.88565
をさす	-9.88587
とか	-9.88599
重い	-9.88666
▁かん	-9.88702
蕕	-9.88745
ヤ	-9.88762
作家	-9.88804
能	-9.88851
放	-9.88893
が強い	-9.88899
まった	-9.88965
がら	-9.88971
▁牛	-9.89062
を切る	-9.89102
資金	-9.89182
徒	-9.89224
以上	-9.89267
単位	-9.89304
▁引き	-9.89312
遠	-9.89317
答え	-9.89327
インターネットのページを	-9.89363
絹	-9.89374
盤	-9.89619
主に	-9.89629
ましょう	-9.89666
▁詩	-9.89688
常	-9.89707
▁コ	-9.89925
かげ	-9.89945
▁彼女が	-9.89946
間の	-9.89962
が出る	-9.89966
旧	-9.90007
の間に	-9.90025
関	-9.90113
やつ	-9.90129
▁老	-9.90185
▁死	-9.90205
初	-9.90215
雑	-9.90244
西	-9.90271
▁和	-9.90272
▁ス	-9.90454
▁ニュース	-9.90489
件	-9.90491
国民	-9.90611
反応	-9.90615
際	-9.90641
樹	-9.90653
んでいる	-9.90653
麦	-9.90671
勝利	-9.9069
荷	-9.90709
に電話したい	-9.90722
をつけ	-9.9078
宝	-9.90782
票	-9.90821
教授	-9.9086
づけ	-9.90943
選挙	-9.90989
型の	-9.91027
ても	-9.91072
激しい	-9.91104
のための	-9.9112
▁sho	-9.91123
▁客	-9.91151
を追加する	-9.91162
自分で	-9.91194
エ	-9.91266
を持っている	-9.91275
やって	-9.91279
資格	-9.91286
報告	-9.91303
労働者	-9.91314
襪	-9.91341
▁電気	-9.91473
▁法	-9.9164
ひき	-9.91664
ul	-9.91807
文句	-9.91832
ずつ	-9.91849
▁きょうは	-9.91853
▁非	-9.91968
発する	-9.91987
一面に	-9.92012
工事	-9.92058
覚え	-9.92089
はもう	-9.9215
方向	-9.9217
▁別	-9.92253
砂糖	-9.92296
勇	-9.92298
飛ぶ	-9.92315
扱い	-9.92387
名前	-9.92411
▁もっと	-9.92467
とし	-9.92468
料金	-9.92563
哲学	-9.92564
しん	-9.92567
▁未	-9.92723
合って	-9.92797
緑	-9.92972
私を	-9.9298
考え方	-9.93024
券	-9.93028
太陽	-9.93077
▁胸	-9.93101
粒	-9.93125
ごとに	-9.93132
▁あの人は	-9.93133
臭	-9.9315
見え	-9.93154
突	-9.93169
多くは	-9.93226
モ	-9.93256
だよ	-9.93306
遊	-9.9331
中で	-9.93331
▁国際	-9.93337
あき	-9.93341
知らせ	-9.93342
やめる	-9.93423
革	-9.93469
刃	-9.93505
▁しょう	-9.93563
細長い	-9.93644
▁社会	-9.93651
ことがある	-9.93655
化学	-9.93703
e	-9.93705
一杯	-9.93717
をなす	-9.9372
精	-9.9375
猫	-9.93858
につける	-9.93957
で写真を送信	-9.93992
▁雑	-9.94026
ボール	-9.94187
自由に	-9.94188
をつけて	-9.94279
▁薄	-9.94422
異	-9.94473
▁連	-9.94474
▁警察呼ぶ	-9.94492
湖	-9.94519
でメッセを	-9.94596
儀	-9.94792
右	-9.94848
身分	-9.94925
しないこと	-9.94952
塔	-9.94952
系統	-9.94956
眠	-9.95007
あること	-9.95095
民族	-9.95147
でメッセージを	-9.95167
しなければならない	-9.95191
寒い	-9.95192
▁軽	-9.95208
細い	-9.95296
灰	-9.95327
またその	-9.95333
困	-9.95376
パーティー	-9.95437
深	-9.9551
を表す	-9.95587
の木	-9.95661
人々	-9.95672
▁彼は自分の	-9.9568
通信	-9.95703
思う	-9.95725
くって	-9.95782
ておく	-9.95833
ただ	-9.95833
譴	-9.95942
再	-9.95951
順	-9.95965
かき	-9.95966
我々の	-9.9599
笑	-9.96025
出すこと	-9.9603
そこに	-9.9606
銀行	-9.96086
録	-9.96087
宗教	-9.96134
リー	-9.962
合わせる	-9.96293
テレビ	-9.96297
紳士	-9.96304
勇気	-9.96309
られ	-9.96312
ていること	-9.96314
▁自由	-9.96341
投票	-9.96377
子供たち	-9.96393
▁五	-9.96398
評	-9.9641
帰り	-9.96486
▁銀	-9.96504
うつ	-9.96561
があること	-9.96573
を敬って言う	-9.96695
私が	-9.96732
みんな	-9.96757
させること	-9.9683
▁健康	-9.96915
暗	-9.96921
載	-9.9693
▁変	-9.96935
そうに	-9.96956
普通の	-9.97005
において	-9.97031
使	-9.97122
らい	-9.97164
▁鼻	-9.97197
▁ひどく	-9.97198
美人	-9.97219
になり	-9.97238
こんな	-9.97248
系	-9.9729
がん	-9.97305
東京	-9.97315
と彼は	-9.97345
金額	-9.97406
待ち	-9.9741
目の	-9.9743
物体	-9.97469
守	-9.97491
芽	-9.97507
わき	-9.97533
年の	-9.97565
年に	-9.97568
尺	-9.97571
闘	-9.97599
で作った	-9.97616
菌	-9.97629
弔	-9.97651
めて	-9.97651
▁救急車呼びに電話	-9.97706
脈	-9.9776
狭い	-9.97791
話題	-9.97808
初め	-9.97812
写	-9.97817
科学	-9.9787
▁OK	-9.97971
▁歯	-9.97986
防	-9.98053
忘れ	-9.98156
盛んに	-9.98216
写し	-9.98235
手に	-9.98243
元気	-9.98254
が高い	-9.98317
池	-9.98327
むこと	-9.98561
忠告	-9.98692
打つ	-9.98816
なくなる	-9.98846
変わった	-9.98849
一時	-9.98954
実験	-9.98967
塗り	-9.98998
膜	-9.99037
限り	-9.99049
▁を用いないことが多い	-9.99063
演技	-9.99067
▁物事が	-9.99127
わかる	-9.99167
▁耳	-9.99204
しながら	-9.99228
だから	-9.99237
自分	-9.99239
刑	-9.9924
若	-9.99433
以外の	-9.99442
▁どんな	-9.99472
▁塩	-9.99499
速度	-9.99517
▁転	-9.99565
かし	-9.99616
▁腕	-9.9964
咲く	-9.99644
▁仮	-9.99703
製の	-9.99732
気候	-9.998
スマホ画面	-9.99811
べきだ	-9.99829
臣	-9.99835
▁相手の	-9.99863
怒り	-9.99866
ことができる	-9.999
▁カ	-9.99924
かぎ	-9.99944
紫	-10.0004
われ	-10.0009
がうまい	-10.001
存在	-10.0012
こむ	-10.0013
▁いや	-10.002
を行う	-10.0021
まわり	-10.0026
源	-10.0028
感覚	-10.0032
宗	-10.0033
をあげる	-10.0034
ホーム画面へ	-10.0035
さらに	-10.0036
華	-10.0041
構造	-10.0044
巣	-10.0045
規定	-10.0045
連絡	-10.0047
折り	-10.0049
で写真送信	-10.005
信仰	-10.0051
労働	-10.0056
▁大きな	-10.0063
任務	-10.0063
我	-10.0073
形式	-10.0077
さす	-10.0078
ット	-10.0086
少しも	-10.0086
みち	-10.0086
寒さ	-10.009
出た	-10.0091
すぐに電話	-10.0094
▁背	-10.0097
ホテル	-10.0097
それは	-10.01
縫い	-10.0102
鏡	-10.0108
かみ	-10.0111
勝負	-10.0113
の日	-10.0115
▁根	-10.0119
▁魚	-10.013
スマホ画面に	-10.0135
▁彼を	-10.0136
にかける	-10.0138
ことを言う	-10.0143
メッセを送信	-10.0153
益	-10.0156
現	-10.0165
暗い	-10.0165
匹	-10.0166
ドレス	-10.0168
▁そ	-10.017
の家	-10.017
元気かい予約状況	-10.0172
小屋	-10.0173
実は	-10.0173
指導	-10.0174
古い	-10.0176
講	-10.0182
一生	-10.0184
署名	-10.0188
發	-10.0188
せき	-10.0197
ふるまい	-10.02
財	-10.0202
の音	-10.0206
違うよ	-10.0206
しま	-10.0207
コード	-10.0215
地帯	-10.0216
していること	-10.0216
アメリカ	-10.0221
観賞用	-10.0225
得意	-10.0227
相手に	-10.0235
処置	-10.0237
しみ	-10.0241
▁こんな	-10.0245
▁the	-10.0251
寄せ	-10.0254
男だ	-10.0256
ドア	-10.0256
養	-10.0257
の子	-10.026
たけ	-10.0263
▁分	-10.0263
白く	-10.0265
接	-10.0266
信号	-10.027
ようにして	-10.027
げる	-10.0271
けが	-10.0273
のです	-10.0278
静かに	-10.0292
▁発	-10.0294
とる	-10.0294
不安	-10.0295
▁常	-10.0297
死に	-10.0297
時代の	-10.0304
迫	-10.0307
を受けた	-10.0308
ノ	-10.031
楽器	-10.0314
商人	-10.0317
負け	-10.0319
調べ	-10.032
買い	-10.0322
他人	-10.0324
がる	-10.0326
イン	-10.0326
戮	-10.0334
ようにした	-10.0335
休み	-10.0337
ぐあい	-10.0338
の下に	-10.034
祭り	-10.0347
小さく	-10.0347
スマホ画面へ	-10.0347
▁さあ	-10.0354
恐れ	-10.0356
突き	-10.0358
送り	-10.0358
テーブル	-10.036
戦う	-10.0365
作物	-10.0373
先に	-10.0379
口を	-10.0386
に近い	-10.0395
ませんか	-10.0397
▁旅	-10.0397
族	-10.0398
うわさ	-10.0402
神経	-10.0414
必ず	-10.0429
荷物	-10.0438
はとても	-10.0439
道を	-10.0439
帳	-10.0444
▁学校	-10.0452
われる	-10.0452
を上げる	-10.0457
偏	-10.0459
市場	-10.0461
釣り	-10.0462
▁学問	-10.0467
刺激	-10.047
▁私が	-10.047
翼	-10.0477
貸し	-10.0477
のみ	-10.0478
つり	-10.0478
真実	-10.048
弦	-10.0481
にかけて	-10.0482
思	-10.0483
▁油	-10.0483
元気かいの履歴を管理	-10.0484
揚げ	-10.0489
発見	-10.0499
渡	-10.0507
証	-10.0512
焼	-10.0515
運命	-10.0516
暮らす	-10.0517
写真を送信	-10.0521
かえる	-10.0531
高さ	-10.054
グ	-10.0542
うまい	-10.0543
刻	-10.0544
歩いて	-10.0549
本の	-10.0552
そうじゃない	-10.0563
液体	-10.0569
ジ	-10.0573
▁病気	-10.0573
住む	-10.0576
ホーム画面に	-10.0578
脱	-10.0584
冷	-10.0589
賛成	-10.0603
張	-10.0603
温	-10.0605
の中の	-10.0606
因	-10.0608
美しく	-10.061
河	-10.0616
魂	-10.0618
勝ち	-10.0618
静	-10.0622
▁取り	-10.0623
の実	-10.0625
開	-10.0629
貨幣	-10.063
区域	-10.0632
子寬	-10.0636
営業	-10.0639
手続き	-10.0644
かない	-10.0646
容器	-10.0661
欠点	-10.0667
ソ	-10.0669
きちんと	-10.067
の経路	-10.0672
事務	-10.0677
を出して	-10.0678
びん	-10.0679
ビ	-10.0693
メッセ送信	-10.0695
の道	-10.07
くら	-10.0703
演	-10.071
寄り	-10.0711
自由	-10.0726
利用	-10.073
▁ふ	-10.073
薄く	-10.0731
を加える	-10.0732
をよく	-10.0733
区	-10.0734
煮	-10.0737
▁{	-10.0738
くれた	-10.0738
発音	-10.0744
谷	-10.0748
抵抗	-10.0756
肥料	-10.0758
をつく	-10.0758
返	-10.0758
君は	-10.0765
名声	-10.0766
これを	-10.0767
っぽ	-10.0767
行って	-10.0775
詩人	-10.0775
および	-10.0777
▁軍	-10.0778
禁止	-10.0779
▁深	-10.078
環境	-10.0781
殻	-10.0781
笛	-10.0783
越し	-10.0785
あるいは	-10.0786
▁草	-10.0787
銅	-10.0788
貿易	-10.0789
方針	-10.0791
▁砂	-10.0792
減	-10.0792
戦闘	-10.0794
品種	-10.0795
!、	-10.08
出席	-10.0801
きょう	-10.0801
泣き	-10.0802
薄い	-10.0803
レース	-10.0805
の方	-10.0812
ってしまった	-10.0813
価	-10.0819
段階	-10.0828
さら	-10.0832
コーヒー	-10.0833
かかった	-10.0833
ことのたとえ	-10.084
注文	-10.0841
にとって	-10.0842
器官	-10.0842
中国	-10.0843
しなかった	-10.0844
あて	-10.0845
っぱ	-10.0858
つま	-10.0859
思い出	-10.0863
さき	-10.0866
身を	-10.0873
周	-10.0879
軽	-10.0881
洋	-10.0889
▁ひどい	-10.0892
払う	-10.0895
▁宿	-10.0899
▁世間	-10.0904
立った	-10.0906
主張	-10.0907
理解	-10.091
▁我々の	-10.091
まり	-10.0922
結び	-10.0924
外出	-10.0927
義務	-10.0929
野菜	-10.0929
▁いまから電話	-10.0929
くなった	-10.0931
▁結婚	-10.0932
炉	-10.0935
わせる	-10.0939
分ける	-10.094
出来事	-10.094
千円	-10.0941
敗	-10.0942
暑い	-10.0943
内に	-10.0943
ったり	-10.0946
黄色	-10.0947
をお	-10.0948
射	-10.0949
予算	-10.095
▁差し	-10.0953
尻	-10.0954
いだ	-10.0959
に入れる	-10.096
元気かいの予約	-10.0963
物事が	-10.0965
軽く	-10.097
家具	-10.0971
a	-10.0971
重要な	-10.0971
におい	-10.0977
下の	-10.098
実に	-10.0982
降	-10.0982
遠い	-10.0985
立っている	-10.0986
ック	-10.099
かせる	-10.099
▁母	-10.0995
科の多年生植物	-10.0997
つけて	-10.0999
してください	-10.1003
食べ物	-10.1008
歴史	-10.1009
ダ	-10.1018
掛ける	-10.1024
▁奇	-10.1028
▁清	-10.103
ひとつ	-10.1031
都	-10.1032
解釈	-10.1033
垂れ	-10.1037
がなかった	-10.1037
塁	-10.104
始め	-10.1048
るような	-10.1048
かなり	-10.1051
のお知らせ	-10.1065
状態になる	-10.1068
幸福	-10.1069
と言って	-10.1071
かける	-10.1075
番号	-10.1077
壇	-10.108
上がり	-10.1085
広告	-10.1087
犯人	-10.1087
のある人	-10.1089
忙しい	-10.1091
レストラン	-10.1091
共和国	-10.1092
瓩	-10.1093
餅	-10.1093
講演	-10.1093
コート	-10.1094
の仕事	-10.1097
でしょうか	-10.1099
ばかりの	-10.1102
いと	-10.1104
そのまま	-10.1104
値段	-10.1107
▁裏	-10.1108
種類の	-10.1108
▁パ	-10.111
でないこと	-10.1112
に乗る	-10.1113
獣	-10.1115
限	-10.1121
▁紙	-10.1121
業者	-10.1122
仕事に	-10.1122
事が	-10.1124
袖	-10.1127
焼け	-10.1132
呼び	-10.1133
恵	-10.1137
鬼	-10.1142
広い	-10.1148
平和	-10.1148
それぞれ	-10.1151
どおりに	-10.1152
封	-10.1152
国の	-10.1167
殺す	-10.1175
落とす	-10.118
趣	-10.118
集団	-10.1182
災難	-10.1193
訪問	-10.1203
建	-10.1208
▁対	-10.1212
答	-10.1215
上着	-10.1218
むし	-10.1222
続き	-10.1232
困難	-10.1232
功	-10.1235
でした	-10.1236
▁あなたの	-10.1237
街	-10.1239
┐	-10.124
続く	-10.1241
▁子寬	-10.1243
ていった	-10.1247
呼吸	-10.1249
運転	-10.125
欄	-10.1251
エネルギー	-10.1252
▁筆	-10.1256
きず	-10.1257
荒	-10.1261
目標	-10.1263
鬚	-10.1263
▁冬	-10.1267
ピ	-10.1269
ごみ	-10.127
仕事をする	-10.1272
いつ	-10.1275
▁秋	-10.128
借り	-10.1284
そうした	-10.129
時には	-10.1291
踏み	-10.1291
▁-	-10.1291
裁判	-10.1293
愚	-10.1295
水が	-10.1296
時刻	-10.1296
▁彼はいつも	-10.1298
良い	-10.1305
すばらしい	-10.1312
悲しみ	-10.1312
机	-10.1313
▁開	-10.1314
の大	-10.1319
安全	-10.1324
▁10	-10.1328
争い	-10.1334
の意	-10.1342
▁あ	-10.1357
地震	-10.1358
の数	-10.136
風に	-10.1365
帰	-10.1365
人たち	-10.1366
□・	-10.1368
いたずら	-10.1375
歳だ	-10.1381
想	-10.1382
なっている	-10.1383
ごく	-10.1385
ようとする	-10.1387
で彼は	-10.1387
役所	-10.1388
案内	-10.1391
資本	-10.1394
だって	-10.1395
果	-10.1395
▁近	-10.1396
とび	-10.1397
センチ	-10.14
▁腰	-10.14
売買	-10.1402
▁来	-10.1403
▁互いに	-10.1408
自身	-10.1408
繊維	-10.141
ひげ	-10.141
微	-10.141
身の	-10.1412
なしに	-10.1413
腸	-10.1417
の結果	-10.1418
彼女に	-10.1418
▁湯	-10.1422
細く	-10.1424
抜く	-10.1425
医学	-10.1431
手が	-10.1437
勤	-10.144
会員	-10.1441
▁着	-10.1443
視	-10.1446
鐘	-10.1448
はいよ	-10.1452
ええ	-10.1455
▁思い	-10.1459
出版	-10.1466
舞台	-10.1467
なること	-10.1474
▁好	-10.1474
の前に	-10.1475
脳	-10.148
まって	-10.1482
奪	-10.1482
出来	-10.1485
後ろ	-10.1487
かご	-10.1489
用意	-10.1494
地面	-10.1494
あって	-10.1496
好きな	-10.1496
と思った	-10.1499
二つ	-10.1499
課	-10.1508
鉄道	-10.1514
▁極	-10.1521
実際に	-10.1524
いろいろな	-10.1526
羊	-10.1527
並み	-10.1528
まじ	-10.1535
左右	-10.1538
表情	-10.1548
はこの	-10.1549
を取って	-10.1551
過ぎる	-10.1551
恋	-10.1551
過ぎ	-10.1553
回し	-10.1553
容	-10.1555
方式	-10.1555
房	-10.1558
技	-10.1559
▁人間	-10.156
意志	-10.156
プ	-10.156
どり	-10.1566
かけた	-10.1568
こそ	-10.1568
ひとり	-10.1568
繰り	-10.1571
ダンス	-10.1572
吟	-10.1573
コードのページを	-10.1574
▁自分	-10.1575
籠	-10.1576
个	-10.1577
以下	-10.1584
n	-10.1592
臭い	-10.1597
取った	-10.1605
温度	-10.1609
▁映画	-10.1616
長さ	-10.1616
タバコ	-10.162
動詞	-10.1624
を開く	-10.1624
見込み	-10.1633
梅	-10.1634
ものである	-10.1634
外国	-10.1635
つぎ	-10.1639
交通	-10.1639
智	-10.164
鋭い	-10.1645
薬品	-10.1648
に応じて	-10.1648
廃	-10.1648
締め	-10.1653
進歩	-10.1656
▁丸	-10.1656
経路は	-10.1656
頃	-10.1658
▁ラジオ	-10.1659
▁敵	-10.1659
役人	-10.1664
▁人が	-10.1664
落ちる	-10.1664
以上の	-10.1667
えて	-10.1671
組み	-10.1671
▁特	-10.1672
相場	-10.1679
誤り	-10.1683
ぜ	-10.1686
来て	-10.1689
方の	-10.1692
▁光	-10.1693
の形	-10.17
はよく	-10.1701
一本	-10.1702
非	-10.1708
の手	-10.1711
幸	-10.1713
譲	-10.1714
▁この本は	-10.1714
についての	-10.1715
具合	-10.172
機会	-10.172
はじめ	-10.1721
屈	-10.1727
家庭	-10.1727
恥	-10.1731
増	-10.1732
刈り	-10.1736
ぼう	-10.1736
ザ	-10.174
医者	-10.1741
いす	-10.1745
がその	-10.1747
仲	-10.1749
△	-10.1749
差別	-10.1753
▁胃	-10.1753
しり	-10.1758
使用	-10.1764
論文	-10.1767
奥	-10.1769
洗い	-10.1775
進んで	-10.1779
直す	-10.1781
▁I	-10.1784
のついた	-10.1787
興	-10.1788
途	-10.1789
スマホへ	-10.1797
▁骨	-10.1801
出て	-10.1801
つめ	-10.1803
トン	-10.1805
▁頭	-10.1806
突然	-10.1806
わかった	-10.1808
書いた	-10.1815
やり方	-10.1816
に用いる	-10.1819
あいさつ	-10.182
▁古い	-10.182
にくい	-10.1823
順に	-10.1823
導	-10.1829
ないで	-10.1832
そうよ	-10.1832
してある	-10.1835
を書く	-10.184
いっぱい	-10.184
奇	-10.1844
みそ	-10.1847
福	-10.185
県	-10.1855
刊	-10.1856
栽培	-10.1857
住	-10.1859
亡	-10.186
スポーツ	-10.1861
▁駅	-10.1864
起こった	-10.1868
▁ちょっと電話	-10.1869
揚	-10.1869
つまらない	-10.1879
▁現代	-10.1879
別れ	-10.1884
次第に	-10.1885
太	-10.1885
ズ	-10.1885
回復	-10.1887
非難	-10.1891
君主	-10.1892
もうけ	-10.1893
▁選挙	-10.1893
の本	-10.1894
みる	-10.1895
拍子	-10.1895
いう	-10.1896
冊	-10.1899
参	-10.1905
インターネットのページ	-10.1906
郷	-10.1907
製造	-10.1908
舎	-10.1909
訓	-10.191
細胞	-10.191
相手を	-10.1913
血液	-10.1914
かえって	-10.1918
弟子	-10.1919
いなか	-10.1926
▁一定の	-10.1927
更に	-10.1927
▁政	-10.1938
議会	-10.1939
注	-10.1945
と共に	-10.1947
らなかった	-10.1953
練習	-10.1963
コードのページ	-10.1966
スマホ	-10.1969
コードを	-10.1972
いている	-10.1973
一定	-10.1974
▁米	-10.1975
取って	-10.1976
記憶	-10.1986
▁放	-10.1986
▁異	-10.1989
にあって	-10.199
日の	-10.1992
▁大学	-10.1995
英	-10.1995
漁	-10.1999
休暇	-10.2001
▁雲	-10.2003
▁唐	-10.2004
出発	-10.2005
の声	-10.2005
車を	-10.2006
保証	-10.2011
伝え	-10.2012
挙	-10.2014
未	-10.2015
短	-10.2015
になっていた	-10.2016
興奮	-10.2019
クラス	-10.2019
他人に	-10.2024
君に	-10.2026
汗	-10.2026
▁低	-10.2028
の経路は	-10.2031
そり	-10.2034
肺	-10.2034
マン	-10.2037
下げ	-10.2045
ズボン	-10.2049
光景	-10.2049
大形の	-10.2052
▁交通	-10.2052
都合	-10.2053
赤い	-10.2053
第	-10.2054
▁石油	-10.2054
変わり	-10.2055
胴	-10.2055
▁言い	-10.2057
道徳	-10.2059
話を	-10.2063
声で	-10.2063
痛み	-10.2065
▁まったく	-10.2066
棚	-10.2067
▁メッセを	-10.2069
かく	-10.2075
盛	-10.2076
▁すぐに電話	-10.2077
館	-10.2078
聴	-10.208
勘	-10.2082
秒	-10.2084
寮	-10.2085
走り	-10.2087
地に	-10.2095
▁やめ	-10.2095
賃	-10.2096
感謝	-10.2101
遅れ	-10.2105
けんか	-10.2116
にすること	-10.2118
▁彼らはその	-10.2126
ちゃんと	-10.2135
文化	-10.2135
らん	-10.2137
返し	-10.2139
なくなった	-10.2143
ポ	-10.2144
▁東	-10.2154
しき	-10.2155
▁物の	-10.2155
行動する	-10.2155
れない	-10.2158
なんか	-10.2161
に従って	-10.2162
歌手	-10.2166
かど	-10.217
▁国家	-10.217
成績	-10.2173
親切	-10.2175
12	-10.2177
越	-10.2177
o	-10.2178
触れ	-10.218
▁東京	-10.2186
いき	-10.2187
公園	-10.2205
武士	-10.2205
すみ	-10.221
者に	-10.2211
労	-10.2212
魔	-10.2213
僕	-10.2214
兵士	-10.2214
競走	-10.2221
錠	-10.2223
当然	-10.2225
の世界	-10.2227
化粧	-10.2227
▁町	-10.2227
まね	-10.2231
医	-10.2231
だろうか	-10.2232
興行	-10.2233
を抜く	-10.2233
▁遠	-10.2235
体が	-10.2236
すべての	-10.224
っこ	-10.2241
真理	-10.2242
からの	-10.2245
胃	-10.2245
までの道順	-10.2245
本当に	-10.2246
婚	-10.2252
勉強する	-10.2255
▁数	-10.2259
逃げ	-10.2259
苦しみ	-10.226
緊張	-10.226
おし	-10.226
輸送	-10.2261
シャツ	-10.2261
▁元気かいの予約	-10.2269
広	-10.2277
の一部	-10.2277
付く	-10.2284
おけ	-10.229
まし	-10.2295
形で	-10.2301
▁氷	-10.2301
意気	-10.2304
意にも	-10.2308
暮らし	-10.2311
補	-10.2317
であろう	-10.232
▁単	-10.2322
動く	-10.2325
包み	-10.2328
▁乳	-10.2329
満	-10.233
余り	-10.2331
証明	-10.2335
じゃないか	-10.2336
給料	-10.2343
▁ニュース記事	-10.2344
演奏	-10.2345
▁夏	-10.2346
戒	-10.2348
しめ	-10.2349
▁鉄道	-10.2349
一般	-10.235
▁彼女はその	-10.2352
肥	-10.2354
正直	-10.2356
取ること	-10.2356
持つ	-10.2356
つら	-10.2357
ようと	-10.2364
せい	-10.2367
疑い	-10.2367
切った	-10.237
種類	-10.2371
傾	-10.2372
の花	-10.2381
妙	-10.2382
軒	-10.2382
攻め	-10.2383
書く	-10.2401
姉	-10.2402
激	-10.2403
あか	-10.2406
くじ	-10.2407
頂	-10.2408
交際	-10.2408
すぎて	-10.2414
主として	-10.2421
継ぎ	-10.2422
っぽい	-10.2424
の自由	-10.2424
元気かい私の予約	-10.2425
愛情	-10.2429
嫌	-10.243
雅	-10.2431
助け	-10.2431
しないで	-10.2433
てください	-10.2435
履歴	-10.2437
ビール	-10.2438
楽しみ	-10.2438
圓	-10.2439
パーセント	-10.244
彫刻	-10.244
集合	-10.2442
しろ	-10.2443
▁庭	-10.2444
競争	-10.2448
病院	-10.2451
休	-10.2457
続けて	-10.2457
先生	-10.246
▁追	-10.2463
いろいろ	-10.2465
▁聖	-10.2465
心の	-10.2475
ところで	-10.2477
気体	-10.2481
▁粗	-10.2481
持っている	-10.2482
世話	-10.2489
鳴る	-10.249
婦	-10.2495
までの行き方	-10.2497
▁左	-10.2501
は私の	-10.2504
細かい	-10.2507
練	-10.2511
したい	-10.2511
するために	-10.2512
回す	-10.2512
鋼	-10.2515
ほか	-10.2515
ようになる	-10.2516
見ること	-10.252
十分に	-10.2521
下に	-10.253
他に	-10.2536
人口	-10.2539
去	-10.2539
どろ	-10.2539
簡単に	-10.254
の状態	-10.254
外に	-10.2545
▁鳥	-10.2551
方面	-10.2554
ものだった	-10.2556
を買う	-10.256
までの経路	-10.2562
ール	-10.2564
ならぬ	-10.2576
修行	-10.258
ものと	-10.2583
そのように	-10.2584
▁はい	-10.2584
を保つ	-10.2585
覧	-10.2588
阿	-10.2588
夫婦	-10.259
驚いた	-10.2592
を引き	-10.2593
津	-10.2593
教会	-10.2594
を持って	-10.2594
▁定	-10.2596
してしまった	-10.2597
穂	-10.2597
エンジン	-10.26
坂	-10.2604
天井	-10.2604
▁万	-10.2605
制限	-10.2606
だめだ	-10.2608
をとり	-10.2611
雷	-10.2612
好み	-10.2612
ふるまう	-10.2612
なお	-10.2613
霜	-10.2613
役者	-10.2613
庁	-10.2615
慮	-10.2616
否	-10.2616
向こう	-10.2616
ボ	-10.2617
ゴ	-10.2621
襟	-10.2621
附	-10.2621
以来	-10.2621
発展	-10.2622
だが	-10.2623
▁立ち	-10.2625
かず	-10.2626
英雄	-10.2626
甘い	-10.2626
知らず	-10.2631
詩歌	-10.2633
▁よい	-10.2633
を入れた	-10.2634
がけ	-10.2634
▁人間の	-10.2635
ピアノ	-10.2636
象	-10.2636
あらゆる	-10.2637
手当	-10.2641
勤務	-10.2643
奏	-10.2646
生命	-10.2646
洗	-10.2648
場面	-10.265
さび	-10.265
道理	-10.2654
▁肩	-10.2655
ほお	-10.2655
物の	-10.2658
▁僕の	-10.2658
社長	-10.2658
f	-10.2664
生活をする	-10.2669
番組	-10.2672
してくれた	-10.2675
▁美	-10.268
▁千	-10.2681
読む	-10.2682
電流	-10.2682
ウェッブページ	-10.2683
最後	-10.2683
▁日本の	-10.2688
寝る	-10.2691
実行	-10.2693
すじ	-10.2695
の色	-10.2698
▁フ	-10.2699
首を	-10.2701
▁弱	-10.2703
行くこと	-10.2703
たとえ	-10.2704
するさま	-10.2707
幾ら	-10.2709
準備	-10.271
いたします	-10.2716
▁精神	-10.2719
体に	-10.2721
頭に	-10.2725
多数	-10.273
なあ	-10.2738
しやすい	-10.274
狩り	-10.2743
れている	-10.2743
じっと	-10.2745
の選手	-10.2747
▁あの男は	-10.2752
▁泥	-10.2753
前後	-10.2756
同情	-10.2758
数量	-10.276
を送信	-10.2762
信用	-10.2762
くり	-10.2767
職人	-10.2768
赤ん坊	-10.2768
インド	-10.277
▁荒	-10.2776
将	-10.2779
事態	-10.2784
隠し	-10.2785
ちょう	-10.2787
生まれた	-10.279
物が	-10.2792
帽	-10.2793
▁北	-10.2795
姓	-10.2795
傘	-10.2797
ゲーム	-10.2807
訓練	-10.2807
▁退	-10.2807
m	-10.2808
▁あなたは	-10.2809
臨	-10.2809
りして	-10.281
▁病	-10.281
青年	-10.2811
報道	-10.2817
▁切り	-10.2817
の強い	-10.2819
すぎ	-10.2825
ずいぶん	-10.2826
頭を	-10.2831
損害	-10.2832
ニュースアプリ	-10.2835
聞いて	-10.2835
▁世界	-10.2836
大変	-10.2837
を払う	-10.2839
存	-10.2843
至	-10.2853
に従う	-10.2853
話をする	-10.2854
あげる	-10.2854
元気かいの記録を管理	-10.2855
▁音楽	-10.2858
開き	-10.286
▁きわめて	-10.2863
で行く	-10.2867
逃げる	-10.2873
ひざ	-10.2879
が早い	-10.2883
立てた	-10.2888
▁改	-10.289
儀式	-10.2897
はあまり	-10.2904
くさ	-10.2906
の原料	-10.2914
受ける	-10.2915
▁サ	-10.2916
ものか	-10.2918
▁夢	-10.2922
▁密	-10.2923
なす	-10.2923
▁当	-10.2924
訴	-10.2924
花を	-10.2929
得た	-10.2932
おじ	-10.2933
成分	-10.2938
を変える	-10.2939
舞	-10.2944
標	-10.2944
確	-10.2945
っていない	-10.2947
▁若	-10.2948
時代に	-10.2949
髪の毛	-10.2951
バー	-10.2955
少女	-10.2958
口に	-10.2963
のど	-10.2963
構え	-10.2965
の手紙	-10.2967
迷	-10.2968
航	-10.2969
盗	-10.297
▁私には	-10.2971
比	-10.2974
興味	-10.2979
頭の	-10.298
をはかる	-10.2981
重要	-10.2982
多い	-10.2982
井	-10.2985
全然	-10.2986
翻訳	-10.2989
厚い	-10.2989
の前	-10.2992
白色	-10.2992
毎日	-10.2994
詠	-10.2995
ケーキ	-10.2995
ひそかに	-10.2995
元素記号	-10.2996
老人	-10.2996
天候	-10.2997
踊り	-10.2998
500	-10.2998
火事	-10.2999
▁オ	-10.3001
画家	-10.3001
貧乏	-10.3004
風景	-10.3004
秘	-10.301
います	-10.3013
染め	-10.3015
将軍	-10.3017
y	-10.3018
を述べる	-10.3019
遠く	-10.3019
写真送信	-10.302
勢いよく	-10.3021
▁一度	-10.3025
のないこと	-10.3029
の単位	-10.303
ワ	-10.303
たま	-10.303
丸く	-10.3033
▁コーヒー	-10.3033
であるさま	-10.3037
▁父	-10.3038
与	-10.3038
条約	-10.3038
2、3	-10.3039
未来	-10.3041
住宅	-10.3041
あし	-10.3042
▁在	-10.3045
の人々	-10.3046
てある	-10.3047
個人	-10.305
ギ	-10.3052
燃料	-10.3054
熟	-10.3056
の葉	-10.3056
提案	-10.3058
ようになった	-10.3062
標準	-10.3064
終わり	-10.3068
くらい	-10.3072
空間	-10.3076
落ちた	-10.3078
灯火	-10.3081
▁現	-10.3087
布地	-10.3091
そんなに	-10.3092
整理	-10.3101
▁きょう	-10.3104
▁綿	-10.311
▁首	-10.3115
本を	-10.3121
▁角	-10.3121
承知	-10.3124
▁過	-10.3129
人生	-10.313
がき	-10.3133
府	-10.3134
あら	-10.3136
残り	-10.314
▁家庭	-10.3151
▁いつも	-10.3151
▁陰	-10.3164
軽い	-10.3165
襲	-10.3167
頭が	-10.3181
塊	-10.3185
坐	-10.3187
期限	-10.3189
40	-10.3192
▁ニュースアプリ	-10.3192
一度	-10.3195
しておく	-10.3196
まるで	-10.3204
のことで	-10.3205
寸	-10.321
近い	-10.3211
縦	-10.3212
対象	-10.3212
幹	-10.3213
つつ	-10.3215
流し	-10.3216
劇場	-10.3218
ものではない	-10.322
引く	-10.3221
はなかった	-10.3222
予想	-10.3224
留め	-10.3224
▁レ	-10.3225
特定の	-10.323
の皮	-10.3234
▁ロンドン	-10.3234
想像	-10.3236
▁昔の	-10.3236
しましょう	-10.3236
を受け	-10.3238
なければ	-10.3241
弓	-10.3245
貝	-10.3246
若者	-10.325
そうです	-10.3252
▁学生	-10.3254
が起こる	-10.3257
ゴム	-10.3257
隠れ	-10.3257
辞書	-10.3259
キャンセル	-10.3263
早い	-10.3264
r	-10.3264
麻	-10.3269
▁少し	-10.3269
彼らは	-10.3271
▁西	-10.3271
もとの	-10.3272
敷	-10.3272
▁すぐれた	-10.3273
いかにも	-10.3275
いろ	-10.3275
▁普通	-10.3277
爆発	-10.328
行かない	-10.3283
呼ぶ	-10.3285
くぎ	-10.3286
合った	-10.329
の先	-10.3292
青い	-10.3293
倒れ	-10.3293
か月	-10.3296
文法	-10.3305
▁ハ	-10.3316
▁彼女	-10.3317
▁道路	-10.3319
までに	-10.332
風の	-10.3325
いろいろの	-10.3325
状況	-10.3326
▁焼き	-10.3327
男子	-10.3332
贈り物	-10.3332
▁遺	-10.3338
しようと	-10.3344
いっしょに	-10.3347
形に	-10.3348
はまったく	-10.3354
▁劇	-10.3362
多年生植物	-10.3364
職務	-10.3366
流れる	-10.3366
まで経路	-10.3367
艦	-10.3369
中央	-10.3375
円形	-10.3378
銘	-10.3381
蓋	-10.3381
除	-10.3382
を打ち	-10.3383
ディ	-10.3383
泳ぎ	-10.3385
決意	-10.3386
損失	-10.3388
微笑	-10.3388
会合	-10.3389
祝い	-10.3391
▁ガス	-10.3399
代わり	-10.3401
組合	-10.3402
が違う	-10.3404
をかけて	-10.3406
監督	-10.341
▁廃	-10.3413
▁薬	-10.3414
実力	-10.3415
自慢	-10.3416
外部	-10.3416
急いで	-10.3417
気質	-10.3419
大きさ	-10.3427
クラブ	-10.3428
不幸	-10.3429
持って	-10.3454
保険	-10.3459
に似て	-10.346
宇宙	-10.346
▁罪	-10.3462
終	-10.3462
種種の	-10.3463
珍しい	-10.3468
▁これで	-10.3469
切符	-10.3469
▁苦	-10.347
日本の	-10.347
富	-10.3472
ヨーロッパ	-10.3474
晴れ	-10.3476
ラジオ	-10.3484
風呂	-10.3484
懐	-10.3485
いで	-10.3488
要素	-10.3489
中心	-10.3493
かれ	-10.3493
皮膚	-10.3493
b	-10.3494
ところだった	-10.3494
▁素	-10.3495
▁私たちは	-10.3497
乾	-10.3497
生き	-10.3501
負	-10.3503
▁共	-10.3504
照	-10.3506
ばら	-10.3507
唱	-10.3509
▁脱	-10.3514
物に	-10.3515
足を	-10.3516
を見た	-10.3517
追	-10.3517
文明	-10.3519
現実	-10.3523
力を	-10.3528
ペン	-10.3532
▁皆	-10.3532
帆	-10.3532
らか	-10.3533
しかった	-10.354
▁エ	-10.3541
などから	-10.3543
切って	-10.3548
干し	-10.3549
をかけ	-10.3553
始める	-10.3558
治療	-10.3558
決心	-10.3559
の上で	-10.3561
ゆく	-10.3563
咲き	-10.3565
ロー	-10.3567
▁代	-10.357
固	-10.3571
護	-10.3577
運ぶ	-10.3578
に乗って	-10.3578
いますか	-10.3579
野球	-10.358
しるし	-10.3581
瓦	-10.3583
児童	-10.3584
印象	-10.3584
少々	-10.3585
革命	-10.3585
名詞	-10.3585
酸素	-10.3586
カード	-10.3586
多少	-10.3586
強盗	-10.3587
▁余	-10.3588
通知	-10.3589
▁メモ	-10.3589
共	-10.3591
までの	-10.3593
眼鏡	-10.3596
ですね	-10.3597
▁機械	-10.3598
置く	-10.36
連れ	-10.36
権力	-10.3603
とおり	-10.3606
はずれ	-10.3609
▁元気かいの履歴を管理	-10.3613
一層	-10.3614
止	-10.3615
薬用	-10.3623
錣	-10.3628
状に	-10.3629
▁通	-10.363
等を	-10.3631
そのもの	-10.3634
事は	-10.3646
をつけること	-10.3647
緑色	-10.3653
合わせて	-10.3655
▁冷	-10.3657
面目	-10.3657
農	-10.3661
ゲ	-10.3661
医師	-10.3667
現在	-10.3667
はいつも	-10.3668
衆	-10.367
律	-10.3673
セ	-10.3678
記事	-10.3683
の中を	-10.3685
遺	-10.3685
ベッド	-10.3686
枕	-10.3688
▁江戸時代	-10.3691
編集	-10.3693
に出かける	-10.3697
生涯	-10.3697
侮辱	-10.3698
目が	-10.37
女の子	-10.3705
通し	-10.3709
腐	-10.371
なくて	-10.3716
▁門	-10.3719
身体	-10.3721
金持ち	-10.3725
筋肉	-10.3726
威	-10.3728
特	-10.3728
たん	-10.3735
カー	-10.3735
あれ	-10.3736
電報	-10.3736
▁しん	-10.3739
の神	-10.374
英国	-10.3742
はね	-10.3744
メッセージいまから	-10.3744
かる	-10.3746
あご	-10.3749
大臣	-10.3751
の出	-10.3752
▁四	-10.3752
上がった	-10.3752
経営	-10.3756
合格	-10.3759
いなかった	-10.3763
覆い	-10.3764
のり	-10.3765
えり	-10.3765
をとって	-10.3767
紀	-10.3773
▁聞き	-10.3774
歴	-10.3783
▁端	-10.3785
丈	-10.3785
酢	-10.3787
肝	-10.3787
選択	-10.3787
すなわち	-10.3788
レンズ	-10.3788
アルコール	-10.3788
▁何できる	-10.3788
友だち	-10.3788
よくない	-10.379
わない	-10.3796
▁西洋	-10.3798
再び	-10.3799
に富む	-10.3799
から成る	-10.38
森	-10.3803
▁やめる	-10.3805
にいる	-10.3806
主人	-10.3806
きまり	-10.3812
▁ひざ	-10.3814
暑さ	-10.3815
▁軍隊	-10.3819
▁ど	-10.3821
ひな	-10.3824
あわ	-10.3824
足が	-10.3825
たて	-10.3828
方が	-10.3831
大工	-10.3839
▁王	-10.3846
ついで	-10.3847
のもとに	-10.3848
結晶	-10.3851
スマホに	-10.3859
倒	-10.3862
人気	-10.3865
仕立て	-10.3866
述べる	-10.3871
▁店	-10.3873
こわ	-10.3874
▁もし	-10.3878
我々は	-10.388
尊	-10.3881
正月	-10.3883
▁絵	-10.3884
浮	-10.3884
に置く	-10.3886
における	-10.3887
▁政治	-10.389
▁指	-10.3898
蛇	-10.3899
ビル	-10.39
みた	-10.3905
人と	-10.3908
▁共同	-10.391
原稿	-10.391
▁激しい	-10.391
▁右	-10.391
元気かい俺の予約	-10.391
丘	-10.391
庭園	-10.391
ふく	-10.391
カメラ	-10.3913
つぶ	-10.3914
▁面	-10.3914
にかかる	-10.3914
げた	-10.3916
ロンドン	-10.3916
いくら	-10.3916
兄弟	-10.3918
脂	-10.3918
触	-10.3919
きわめて	-10.3921
なん	-10.3921
上で	-10.3926
ちょうど	-10.3927
加	-10.3927
粗	-10.3931
泉	-10.3939
継	-10.3941
求	-10.3941
育	-10.3946
住民	-10.3948
▁漢字の	-10.3951
文体	-10.3953
測	-10.3954
創	-10.3954
を作ること	-10.3957
飛行機	-10.3958
燃え	-10.3962
むく	-10.3963
いいえ	-10.3963
保	-10.3966
▁アメリカ	-10.3967
所有	-10.3968
祖	-10.3975
謀	-10.3975
住んでいる	-10.3979
壮	-10.3982
了	-10.3985
謝	-10.3988
掌	-10.3988
りする	-10.3989
が多く	-10.399
分析	-10.3992
椅子	-10.3996
クリーム	-10.3996
テスト	-10.3997
刑罰	-10.3997
元素	-10.3997
協定	-10.3997
を解く	-10.4002
からだ	-10.4003
▁精	-10.4007
の姿	-10.401
一体	-10.4014
積み	-10.4017
内閣	-10.4021
だね	-10.4022
暑	-10.4029
最初の	-10.4035
はすべて	-10.4036
買	-10.404
殺人	-10.4042
▁末	-10.4044
入った	-10.4046
情勢	-10.4046
知らない	-10.4047
▁you	-10.4051
▁国民	-10.4051
でいる	-10.4052
▁荷	-10.4053
心から	-10.4056
擦	-10.4057
人間の	-10.4062
着物	-10.4064
ジョーク	-10.407
不満	-10.4075
季節	-10.408
眠り	-10.408
名を	-10.4083
の生活	-10.4085
の際	-10.4087
群	-10.4091
信頼	-10.4092
そのような	-10.4096
成功する	-10.4105
欠	-10.4106
進行	-10.4109
やみ	-10.4109
▁宇宙	-10.411
倒す	-10.4111
漬け	-10.4119
すそ	-10.4121
茶色	-10.4121
のお	-10.4124
分野	-10.4124
ながめ	-10.4128
の力	-10.4128
分類	-10.413
濃	-10.4132
拝	-10.4135
安い	-10.4138
名誉	-10.4138
告	-10.4139
分子	-10.4139
判決	-10.414
妹	-10.4145
捨てる	-10.4146
琴	-10.4148
たく	-10.4151
頼み	-10.4151
ですよ	-10.4154
演劇	-10.4156
ベ	-10.4156
しばらく	-10.4157
鍋	-10.4159
本当の	-10.4159
▁戦	-10.4161
専	-10.4167
一家	-10.4167
半分	-10.4167
佑	-10.4168
しきりに	-10.417
藩	-10.4171
▁陸	-10.4172
駆け	-10.4174
停止	-10.4179
堅く	-10.4181
地球	-10.4185
有名	-10.4195
むだ	-10.4195
身に	-10.4196
烈	-10.4199
の高い	-10.4203
部屋に	-10.4204
失敗した	-10.4205
請求	-10.4206
ほんの	-10.4206
鉛	-10.4206
役に立たない	-10.4206
舛	-10.4207
蝋	-10.4207
▁えーと電卓	-10.4209
どんどん	-10.4209
事項	-10.4209
何を	-10.421
最	-10.4211
ざっと	-10.4212
簡単な	-10.422
言い訳	-10.422
自信	-10.422
ありません	-10.4223
半ば	-10.4223
者の	-10.4224
発言	-10.4226
▁動物	-10.4227
賃金	-10.4229
それで	-10.4229
▁それで	-10.4231
にならない	-10.4237
鉢	-10.4237
▁すぐ	-10.4237
催	-10.4241
水素	-10.4241
振	-10.4242
最高	-10.4248
難しい	-10.4249
張る	-10.4251
議員	-10.4252
▁人生の	-10.4253
かけて	-10.4255
跳び	-10.4256
せずに	-10.4256
▁合	-10.4266
はし	-10.4273
事を言う	-10.4273
▁天気予報	-10.4275
▁石炭	-10.4275
暦	-10.4277
たつ	-10.4278
ほかの	-10.4278
を知らない	-10.4285
ますます	-10.4294
じゃ	-10.43
お薬屋さん	-10.4301
を避ける	-10.4301
を破る	-10.4302
▁急に	-10.4308
ところだ	-10.4311
ここ	-10.4314
時間の	-10.4314
大名	-10.4321
キー	-10.4325
植	-10.4326
を食う	-10.4326
歩き	-10.4326
を置く	-10.433
第一	-10.4335
用具	-10.4338
似	-10.4339
開いた	-10.4341
てくれた	-10.4342
▁諸	-10.4344
▁甘	-10.4345
被害	-10.4347
▁霊	-10.4349
の大きさ	-10.435
▁壁	-10.4352
を求めて	-10.4354
盛んな	-10.4355
忌	-10.436
▁a	-10.4363
得点	-10.4366
賊	-10.4367
首相	-10.4368
つぼ	-10.437
なわ	-10.4371
方に	-10.4372
何でも	-10.4374
へい	-10.4375
▁流行	-10.4375
普通は	-10.4375
話が	-10.4376
だれも	-10.4382
気の	-10.4382
言えば	-10.4382
柳	-10.4383
借	-10.4385
まで行き方	-10.4385
躍	-10.4386
官庁	-10.4389
に入って	-10.439
いやな	-10.439
相撲	-10.439
がついている	-10.4392
更	-10.4392
on	-10.4395
▁煙	-10.4395
弾丸	-10.4396
i	-10.4397
平均	-10.4399
▁暗	-10.4399
やや	-10.4404
ナイフ	-10.4409
伴	-10.4411
開く	-10.4412
垣	-10.4414
羅	-10.442
渡る	-10.4421
根拠	-10.4421
少ない	-10.4424
桃	-10.4425
緩	-10.4425
糞	-10.4426
事物	-10.4426
掃除	-10.4426
200	-10.4427
協力	-10.4427
情況	-10.4428
友情	-10.4429
武器	-10.4431
ことができなかった	-10.4433
学習	-10.4433
あらし	-10.4435
勤め	-10.4437
示す	-10.4438
役に立つ	-10.4439
とげ	-10.4439
▁寒	-10.4441
葬	-10.4443
やぶ	-10.4444
▁洋	-10.4447
▁痛	-10.445
▁あまり	-10.4455
は今	-10.4455
の男	-10.4456
▁大統領	-10.446
▁虫	-10.446
浅い	-10.4462
統一	-10.4465
区分	-10.4467
流行	-10.4469
に出	-10.4469
やっと	-10.447
顔色	-10.4471
新しく	-10.4474
c	-10.4474
足で	-10.4484
ここに	-10.4485
低く	-10.4486
移	-10.4487
信じ	-10.4487
うす	-10.4488
くこと	-10.4489
▁野球で	-10.4492
どこか	-10.4495
しわ	-10.4495
▁突然	-10.4497
人民	-10.4498
必要な	-10.4498
▁列車は	-10.4499
の所	-10.4506
▁経済	-10.4508
▁回	-10.4538
交換	-10.454
食う	-10.4541
泊	-10.4546
織	-10.4547
まれた	-10.4556
▁いかにも	-10.4559
▁メッセージを	-10.4562
行われる	-10.4564
▁板	-10.457
りすること	-10.4572
ことはできない	-10.4574
だい	-10.4579
隣	-10.458
天皇	-10.458
ワイン	-10.4582
鉱	-10.4584
得る	-10.4587
▁英国	-10.459
ゆっくり	-10.4592
定めた	-10.4599
▁ニュースを	-10.46
▁メッセージ	-10.4601
したりする	-10.4604
がたい	-10.4606
聴衆	-10.4606
猟	-10.4606
やら	-10.461
はえ	-10.4612
ウェッブページを	-10.4615
数字	-10.4619
をする人	-10.4621
▁泣き	-10.4623
ひじ	-10.4626
てん	-10.4628
が起こった	-10.4628
双	-10.4629
胆	-10.463
航海	-10.4631
顔に	-10.4631
禁	-10.4632
に陥る	-10.4633
あげ	-10.4637
きめ	-10.464
京	-10.464
最後の	-10.4642
おもちゃ	-10.4643
姿勢	-10.4644
原料	-10.4645
▁to	-10.4648
塵	-10.4648
	-10.4648
玄関	-10.4648
待遇	-10.4649
裸	-10.4651
欲望	-10.4651
機能	-10.4651
ねじ	-10.4652
解説	-10.4652
神社	-10.4654
領土	-10.4655
60	-10.4656
電波	-10.4658
合図	-10.466
走った	-10.4665
集まり	-10.467
ぼく	-10.467
の中心	-10.4672
ども	-10.4674
陸	-10.4674
予約を確認	-10.4677
帰る	-10.4678
分量	-10.4679
▁船が	-10.4687
違います	-10.4688
▁バ	-10.4693
re	-10.4694
家屋	-10.4694
尊敬	-10.47
までのルート	-10.4701
まつ	-10.4704
完全に	-10.4708
できなかった	-10.4708
わず	-10.4708
▁細	-10.4711
▁糸	-10.4713
無用	-10.4715
聖	-10.4717
あの人	-10.4717
おいて	-10.472
西洋	-10.4722
を掛ける	-10.473
コース	-10.4737
こん	-10.4738
恨み	-10.4742
洋服	-10.4742
の種	-10.4751
京都	-10.4752
おう	-10.4758
▁破	-10.4759
▁屋根	-10.4761
世の	-10.4765
目的で	-10.4768
沈	-10.4768
はら	-10.4769
態度で	-10.477
自然に	-10.4775
▁竹	-10.4778
違反	-10.4791
▁彼は私	-10.4791
真っ	-10.4791
全員	-10.4793
さい	-10.4797
▁円	-10.4798
申し	-10.4803
いえ	-10.4816
えた	-10.4816
建て	-10.4817
明日	-10.4817
面積	-10.4818
発表	-10.4818
を調べる	-10.4818
あるもの	-10.4819
域	-10.4822
タイ	-10.4829
▁教育	-10.4833
かま	-10.4834
にあった	-10.4835
▁英語	-10.4837
▁A	-10.4842
関連	-10.4843
通じ	-10.4843
まれる	-10.4844
言う語	-10.4845
きれいに	-10.4846
掛かり	-10.4852
負担	-10.4853
まで道順	-10.4855
に暮らす	-10.4855
にお	-10.4856
検	-10.4857
の変化	-10.4857
女の	-10.4859
うん	-10.4859
おい	-10.4864
男の子	-10.4864
ほこり	-10.4865
どの	-10.4866
糖	-10.4866
勅	-10.4868
▁急いで	-10.4868
審	-10.4869
▁メ	-10.4869
随	-10.487
こんで	-10.487
っか	-10.4872
畳	-10.4872
好意	-10.4873
髄	-10.4874
秩序	-10.4874
内の	-10.4874
両親	-10.4875
餌	-10.4876
三味線	-10.4876
棟	-10.4876
看護婦	-10.4876
闘争	-10.4876
▁乱	-10.4876
」(↓	-10.4877
衣装	-10.4877
なべ	-10.4877
概念	-10.4879
反射	-10.4879
恐ろしい	-10.4881
療法	-10.4883
漁業	-10.4883
外交	-10.4884
様式	-10.4884
鶏	-10.4885
待つ	-10.4885
せよ	-10.4885
朱	-10.4885
弁護士	-10.4885
竜	-10.4886
枯れ	-10.4887
くび	-10.4889
牛乳	-10.489
課程	-10.489
僕は	-10.4891
以前	-10.4892
を付ける	-10.4893
さや	-10.4895
散歩	-10.4895
警察	-10.4896
きれ	-10.4898
世の中	-10.4902
石炭	-10.4902
一致	-10.4902
ったもの	-10.4904
インク	-10.4905
記者	-10.4908
初夏	-10.491
▁マ	-10.491
▁紙のメモ	-10.491
政党	-10.4914
異なる	-10.4916
目つき	-10.492
をちょっと	-10.4922
違った	-10.4922
だめ	-10.4926
国際	-10.4927
論理	-10.4929
つまり	-10.493
つけること	-10.4934
困る	-10.4934
決め	-10.4935
▁犬は	-10.4936
浸	-10.4939
▁振り	-10.494
▁旅行	-10.4942
水面	-10.4943
評価	-10.4948
▁雄	-10.495
到着	-10.4951
の念	-10.4952
▁矢	-10.4953
時は	-10.4956
▁警	-10.4958
特別	-10.496
完成	-10.4961
ところに	-10.4962
▁太陽	-10.4963
太い	-10.497
▁黄	-10.4973
ひら	-10.4975
修理	-10.4979
近くに	-10.4979
事の	-10.4987
締める	-10.4992
▁残	-10.5
▁南	-10.5002
▁このメモ	-10.5004
無い	-10.5005
しゃべる	-10.5008
歩くこと	-10.5009
眠る	-10.501
霧	-10.5015
事実を	-10.5015
扱う	-10.5022
立てて	-10.5028
にあたる	-10.5029
ぬか	-10.503
着る	-10.5032
項	-10.5034
さく	-10.5035
らしく	-10.5036
もつ	-10.5038
われた	-10.5039
預	-10.5042
定め	-10.5049
明け	-10.5054
どちら	-10.5058
▁尻	-10.506
意見を	-10.506
待	-10.5061
改	-10.5062
するように	-10.5068
に住んでいる	-10.507
に自生する	-10.507
処	-10.507
束	-10.5077
諸国	-10.5077
▁帰	-10.5079
為	-10.5081
▁猫	-10.5082
さず	-10.5085
仕方	-10.5086
比較	-10.5086
欠席	-10.5087
述	-10.5088
則	-10.5089
▁間	-10.509
▁今は	-10.509
往	-10.5091
併	-10.5092
どうも	-10.5096
淡	-10.5098
の代わりに	-10.5099
承	-10.51
かえ	-10.5101
暇	-10.5101
だれ	-10.5103
牢	-10.5105
残っている	-10.5107
アフリカ	-10.5107
笋	-10.5108
を通して	-10.5108
唇	-10.5108
諒	-10.5108
爾	-10.5108
くちびる	-10.5108
官吏	-10.511
改革	-10.511
観念	-10.511
貯金	-10.5111
別に	-10.5111
仕掛け	-10.5112
驚く	-10.5113
▁潮	-10.5118
独	-10.5118
つの	-10.5119
稲	-10.5119
濁	-10.5123
見解	-10.5123
ほうがよい	-10.5123
ことはない	-10.5124
▁窓	-10.5126
にわたって	-10.5129
基準	-10.513
▁飛行	-10.5131
中毒	-10.5133
▁科学	-10.5134
湿度	-10.5134
批判	-10.5135
構成	-10.5136
きっと	-10.5138
を入れ	-10.5138
大統領	-10.5139
▁せい	-10.5141
江戸	-10.5141
証人	-10.5143
食糧	-10.5145
々と	-10.5153
形勢	-10.5154
設けた	-10.5158
同意	-10.5158
の半分	-10.516
えない	-10.5162
如	-10.5163
出血	-10.5163
歓迎	-10.5164
去る	-10.5164
読者	-10.5166
警官	-10.5177
石油	-10.5177
漏れ	-10.5179
死んで	-10.518
無理	-10.5181
▁浮き	-10.5187
▁相	-10.519
したこと	-10.5191
彼ら	-10.5192
いこと	-10.5195
常識	-10.5196
種子	-10.5197
まれ	-10.5203
▁心配	-10.5207
両者	-10.5207
無し	-10.5208
▁職業	-10.5208
▁君に	-10.5211
▁結	-10.5214
日間	-10.5215
装飾	-10.5219
▁毒	-10.5221
▁床	-10.5235
▁だれも	-10.5235
てる	-10.5239
▁黙	-10.5242
▁波	-10.5243
を防ぐ	-10.5243
そで	-10.5251
細長く	-10.5252
丈夫	-10.5262
物理	-10.5262
私には	-10.5265
屋敷	-10.5266
圧力	-10.5267
ーク	-10.5268
てくる	-10.5268
通す	-10.527
備	-10.5281
そっと	-10.5285
ホーム	-10.5288
を含む	-10.5289
▁減	-10.5293
手術	-10.5295
成長	-10.5295
気性	-10.5298
厚く	-10.53
その他	-10.5301
をつくる	-10.5309
用心	-10.5309
▁船の	-10.5311
男性	-10.5312
採	-10.5313
と彼女は	-10.5314
政権	-10.5315
▁ただ	-10.5316
充分	-10.5322
▁is	-10.5322
敵を	-10.5323
者を	-10.5324
▁二つの	-10.5327
▁将来	-10.5329
すき	-10.5329
築	-10.533
短く	-10.5332
卒	-10.5333
直し	-10.5333
鈴	-10.5334
が大きい	-10.5335
を結ぶ	-10.5336
はどう	-10.5336
赤く	-10.5338
迷惑	-10.534
の間で	-10.5341
よかった	-10.5342
▁パン	-10.5343
に当たって	-10.5343
麗	-10.5344
▁彼女に	-10.5345
こい	-10.5345
禄	-10.5346
フィルム	-10.5346
スカート	-10.5346
を施す	-10.5346
▁漢字の偏	-10.5347
災害	-10.5347
元気かい予約状況を削除	-10.5348
を加えて	-10.535
は全く	-10.535
観察	-10.5351
元気かい予約を削除	-10.5351
会社の	-10.5352
▁命	-10.5353
開け	-10.5353
続ける	-10.5354
に属する	-10.5356
〇	-10.5359
かばん	-10.536
代表	-10.5363
一言	-10.5364
通る	-10.5365
果実	-10.5366
大陸	-10.5367
に基づいて	-10.5368
行事	-10.5368
感心	-10.5371
湿	-10.5372
▁落	-10.5373
郵便	-10.5374
などに用いる	-10.5374
仕上げ	-10.5376
ート	-10.5376
▁短	-10.5379
▁息	-10.5379
▁尊	-10.5382
卒業	-10.5382
寄せる	-10.5384
講義	-10.5392
業務	-10.5394
世紀	-10.5397
収穫	-10.5397
衣類	-10.5398
伸び	-10.5399
現代	-10.54
栄養	-10.5402
りんご	-10.5404
イギリス	-10.5405
;...	-10.5406
堅い	-10.5411
小切手	-10.5413
夕方	-10.5415
わい	-10.5416
大衆	-10.5418
るさま	-10.5423
▁物を	-10.5424
を落とす	-10.5425
事だ	-10.5426
乱れ	-10.5428
こっそり	-10.5429
靴討い	-10.543
消え	-10.543
の働き	-10.5431
低い	-10.5431
などにする	-10.5435
▁安	-10.5435
▁どうも	-10.5437
供給	-10.5444
悔	-10.5445
▁手書きメモ	-10.5447
こちら	-10.5451
事務所	-10.5457
▁まあ	-10.5459
緒	-10.546
ひま	-10.5461
辰雄	-10.547
▁七	-10.5474
と思って	-10.5476
ショートメッセージを	-10.5478
届け	-10.5482
託	-10.5487
▁キャンセル	-10.5494
▁メモを	-10.5497
ではなかった	-10.5498
直線	-10.5499
作法	-10.5507
メッセージすぐに	-10.5507
招待	-10.5509
不注意	-10.551
不思議	-10.5511
貨	-10.5512
切れない	-10.552
の意味	-10.5532
びる	-10.5533
すぐれていること	-10.5538
みて	-10.5543
コン	-10.5547
▁そんなに	-10.5549
られていた	-10.5552
実現	-10.5559
わずか	-10.5559
の端	-10.5563
むら	-10.5563
帝	-10.5564
化合物	-10.5565
▁銅	-10.5567
父親	-10.557
一緒に	-10.5571
主な	-10.5573
季	-10.5578
おもしろい	-10.558
宅	-10.5582
湾	-10.5583
尿	-10.5583
授業	-10.5584
▁人と	-10.5585
▁天皇	-10.5586
飼い	-10.5589
▁商売	-10.5589
ヌ	-10.559
罎	-10.559
芋	-10.559
功績	-10.559
往復	-10.559
境遇	-10.559
の俗称	-10.5591
気温	-10.5591
観測	-10.5591
K	-10.5591
ホール	-10.5591
同盟	-10.5591
射撃	-10.5592
農民	-10.5593
太刀	-10.5593
わる	-10.5595
テープ	-10.5596
元気かいの予約状況を管理	-10.5598
内で	-10.56
編み	-10.5601
の長さ	-10.5601
あけ	-10.5602
やま	-10.5608
▁万事	-10.5609
度の	-10.561
仕事が	-10.5612
▁輪	-10.5612
ボタン	-10.5614
それと	-10.5614
へび	-10.5615
をかけた	-10.5617
▁火事	-10.5617
意図	-10.5619
になるだろう	-10.5621
専門	-10.5623
駐車場	-10.5636
を切って	-10.5639
索	-10.5639
共に	-10.5642
▁奥	-10.5644
あま	-10.5645
らせ	-10.5645
としている	-10.5651
気味	-10.5653
所で	-10.5653
▁けん	-10.5653
降る	-10.5657
理想	-10.5657
奴	-10.5658
切手	-10.5659
▁スポーツ	-10.5661
太鼓	-10.5662
股	-10.5662
申し出	-10.5666
乾燥	-10.5666
外側	-10.5666
区別	-10.5667
詞	-10.5667
婿	-10.5668
▁その本は	-10.5669
恐怖	-10.5672
お礼	-10.5672
かえること	-10.5674
▁脳	-10.5676
州の人	-10.5677
がつかない	-10.5678
▁折り	-10.5681
葉が	-10.5681
宝石	-10.5682
合っている	-10.5685
唐	-10.5687
警察呼びに電話	-10.569
ではなく	-10.5693
替える	-10.57
△□	-10.5707
順序	-10.571
▁ロ	-10.5716
▁けい	-10.5721
を始める	-10.5724
貴	-10.5726
▁宗教	-10.5726
▁食い	-10.5727
壁に	-10.573
くずれ	-10.573
わか	-10.573
しようとする	-10.5736
虎	-10.5743
産物	-10.5747
途中で	-10.5751
氏の	-10.5752
出入り	-10.5753
水道	-10.5756
幾	-10.5756
によく	-10.5757
粋	-10.5757
▁検	-10.5758
手形	-10.5765
事に	-10.5771
となっている	-10.5773
使って	-10.5774
足りない	-10.5774
目で	-10.5774
▁軽い	-10.5774
につれて	-10.5779
▁橋	-10.578
参加	-10.5784
わり	-10.5785
がって	-10.5785
没	-10.5785
が非常に	-10.5786
同時に	-10.5789
▁議論	-10.579
母親	-10.5791
▁彼は彼女の	-10.5792
紙を	-10.5796
▁事実	-10.5796
許可	-10.5798
デ	-10.5799
時間を	-10.5803
そら	-10.5805
まく	-10.5805
徴	-10.5808
ほうが	-10.5811
園	-10.5811
名簿	-10.5817
加工	-10.5818
嘆	-10.582
障	-10.5822
▁米国の	-10.5822
犠牲	-10.5822
たりする	-10.5824
膳	-10.5824
参り	-10.5826
もらう	-10.5826
その問題	-10.5827
関心	-10.5828
しょう	-10.583
腓	-10.5831
旋	-10.5832
ニュースを	-10.5832
欧	-10.5835
推測	-10.5836
てしまう	-10.5836
権限	-10.5836
▁彼女には	-10.5837
を通じて	-10.5839
沼	-10.5839
圏	-10.584
すばやく	-10.584
	-10.584
ing	-10.584
らないこと	-10.5841
討ち	-10.5845
障子	-10.5846
いつまでも	-10.5846
を通す	-10.5849
わく	-10.585
あります	-10.5851
形態	-10.5853
背中	-10.5856
しょ	-10.5858
残った	-10.5859
自分が	-10.586
▁十	-10.586
こま	-10.5861
元気かい予約を追加	-10.5862
▁今まで	-10.5863
厳	-10.5866
▁かい	-10.5871
投手	-10.5871
ましい	-10.5872
提	-10.5874
過ぎて	-10.5874
元気かいの予約管理	-10.5875
あぶら	-10.5876
▁どうぞ	-10.5879
細かく	-10.5883
を知る	-10.5884
なまり	-10.5885
タン	-10.589
u	-10.5893
ばらばら	-10.5895
言葉を	-10.5897
負ける	-10.5899
なめ	-10.59
と読む	-10.5902
p	-10.5904
元気かい予約を更新	-10.5905
延	-10.5905
基	-10.5905
政治家	-10.5905
承諾	-10.5912
聞こえる	-10.5913
痛い	-10.5916
その他の	-10.5918
はほとんど	-10.5919
自ら	-10.592
造り	-10.5924
山の	-10.5924
やつだ	-10.5926
までルート	-10.5927
▁きのう	-10.5927
▁居	-10.5929
貸	-10.593
までは	-10.5931
をし	-10.5933
式の	-10.5933
特徴	-10.5934
▁純	-10.5935
は彼に	-10.5936
金属製の	-10.5937
易	-10.5938
▁銀行	-10.5939
▁舞台	-10.594
▁復	-10.594
酔	-10.5942
軍人	-10.5943
死後	-10.5943
してはいけない	-10.5944
▁少年は	-10.5945
昆虫	-10.5947
を感じる	-10.5948
美術	-10.5951
▁彼と	-10.5953
復	-10.5953
起こり	-10.5953
嫁	-10.5954
はしない	-10.5956
▁船は	-10.5956
鉛筆	-10.5956
▁何ができる	-10.5957
がわからない	-10.5958
だて	-10.5959
が一番	-10.596
▁風が	-10.5965
▁テレビ	-10.5965
所得	-10.5967
▁とう	-10.5971
少しずつ	-10.5973
何とか	-10.5973
ヘルパー	-10.5975
▁いろいろな	-10.5976
▁一般	-10.5977
たか	-10.5977
h	-10.5985
クロ	-10.599
ぜん	-10.5994
読書	-10.6001
以後	-10.6002
最大の	-10.6002
沈黙	-10.6006
▁子供	-10.601
後の	-10.6013
▁こういう	-10.6013
あわせ	-10.6016
落とし	-10.602
借金	-10.6022
あなたの	-10.6025
はり	-10.6026
分けて	-10.6027
おど	-10.6028
やろう	-10.603
会話	-10.6032
昔の	-10.6033
で彼の	-10.6041
子供を	-10.6042
主君	-10.6042
扇	-10.6042
日本人	-10.6044
表面	-10.6048
言え	-10.605
の様子	-10.606
ひとりで	-10.6063
怠	-10.6063
惨	-10.6064
バター	-10.6064
さお	-10.6065
飲食	-10.6066
止める	-10.6073
▁買い	-10.6073
見えない	-10.6075
司	-10.6076
況	-10.6078
黒く	-10.6079
果物	-10.608
向かい	-10.6083
場合に	-10.6086
停	-10.6088
塀	-10.6092
飲	-10.6093
O	-10.6095
盆	-10.6096
蜜	-10.6096
予防	-10.6096
符号	-10.6096
集中	-10.6096
雰囲気	-10.6097
僂	-10.6097
▁ちょっと電卓	-10.6097
たっぷり	-10.6097
遒	-10.6097
サービス	-10.6097
滝	-10.6097
爆弾	-10.6097
〕↓	-10.6097
わけにはいかない	-10.6098
家が	-10.6098
思わず	-10.6098
機構	-10.6098
インチ	-10.6098
原理	-10.6099
立って	-10.6101
元気かい予約追加	-10.6101
種類が多い	-10.6102
どうして	-10.6104
録音	-10.6104
を図る	-10.6104
職員	-10.6104
▁せん	-10.6105
たより	-10.6105
ぼろ	-10.6107
きれいな	-10.6108
兵器	-10.6109
▁京都	-10.611
しっかり	-10.611
まゆ	-10.6113
車輪	-10.6115
によれば	-10.6116
▁玉	-10.6119
上から	-10.6123
作ること	-10.6123
程度の	-10.6124
連合	-10.6125
▁運動	-10.6134
かれる	-10.6135
の方が	-10.6136
並べ	-10.6143
利子	-10.6144
彼らの	-10.6145
▁散	-10.6146
フィート	-10.6148
生活の	-10.6149
木材	-10.6149
自殺	-10.6149
述べた	-10.6151
▁ズボン	-10.6152
を出した	-10.6152
力がある	-10.6154
無事	-10.6157
▁シ	-10.6158
▁表	-10.6159
ボールを	-10.6161
の地	-10.6164
その時	-10.6168
などのため	-10.617
ピン	-10.617
高木	-10.617
期日	-10.6172
考えて	-10.6172
の肉	-10.6179
▁副	-10.618
その仕事	-10.6184
誓い	-10.6186
部下	-10.6186
したら	-10.619
されていた	-10.6191
アップ	-10.6192
利益を	-10.6193
ならない	-10.6193
を聞いて	-10.6196
▁航空	-10.6197
へ行って	-10.6204
武	-10.6204
向け	-10.6205
暴	-10.6205
止まる	-10.6206
家を	-10.6206
元気かい予約状況を更新	-10.6207
どおり	-10.6225
スープ	-10.6228
侍	-10.6229
厳しい	-10.6231
きびしい	-10.6232
続いて	-10.6233
▁ばら	-10.6235
階段	-10.6239
野原	-10.6239
昨日	-10.624
桜	-10.6241
警	-10.6243
格好	-10.6243
後で	-10.6243
捕	-10.6243
けて	-10.6246
たくさんの	-10.6249
スター	-10.6249
これは	-10.6251
副	-10.6252
すわる	-10.6253
体は	-10.6255
まずい	-10.6258
を得た	-10.6258
しかた	-10.6261
らぬ	-10.6262
納める	-10.6264
の事	-10.6271
著	-10.6271
▁利	-10.6275
吸い	-10.6276
あや	-10.6284
がありますか	-10.6284
一年	-10.6297
上げた	-10.6299
漢字	-10.6299
▁激	-10.63
全身	-10.6304
一年生植物	-10.6308
l	-10.6312
十二	-10.6312
g	-10.6314
病人	-10.6315
俳句	-10.6322
ったら	-10.6323
をかく	-10.6324
▁これが	-10.6325
話し	-10.6326
憂	-10.633
▁友人	-10.6332
▁善	-10.6333
一部分	-10.6333
慢	-10.6335
▁あらゆる	-10.6335
を覚える	-10.6336
に見える	-10.6339
▁戸	-10.6339
ネクタイ	-10.6339
わす	-10.634
現場	-10.6343
軌道	-10.6344
▁打ち	-10.6345
雇	-10.6346
が長く	-10.6346
住所	-10.6347
無色	-10.635
体裁	-10.6352
承認	-10.6352
鎖	-10.6353
碑	-10.6353
セット	-10.6357
奮	-10.6358
縞	-10.6358
蜂	-10.6359
栓	-10.636
認識	-10.636
鼎	-10.636
モデル	-10.636
絵の具	-10.636
せりふ	-10.636
故障	-10.636
見せ	-10.6361
通貨	-10.6362
操作	-10.6362
討論	-10.6363
結論	-10.6365
伝説	-10.6367
めがね	-10.6367
平たい	-10.6367
住み	-10.6368
▁神社	-10.6368
むしろ	-10.6371
色が	-10.6374
きん	-10.6375
あなたに	-10.6375
ふき	-10.6379
大小	-10.638
まあ	-10.6383
するための	-10.6384
いち	-10.6385
▁人から	-10.6387
鳴らす	-10.6391
明かり	-10.6391
週	-10.6393
日光	-10.6398
▁百	-10.6403
▁微	-10.6403
刺	-10.6404
おかしい	-10.6407
彼女を	-10.6407
活	-10.641
▁ノー	-10.6412
とめる	-10.6416
の中から	-10.6419
彼には	-10.642
花が	-10.6421
がたくさん	-10.6424
人人	-10.6427
用語	-10.643
してくれ	-10.6431
開発	-10.6435
なさま	-10.6435
▁舌	-10.6436
▁危険	-10.6436
用紙	-10.6439
速く	-10.6452
じり	-10.6455
つもり	-10.6456
の人たち	-10.6458
音声	-10.6464
風俗	-10.6464
はずれた	-10.6465
を捨てる	-10.6465
っきり	-10.6466
ショー	-10.6466
▁自分で	-10.6466
ほしい	-10.647
だという	-10.647
を争う	-10.647
景色	-10.6471
▁犬	-10.6475
▁少しも	-10.6476
ていて	-10.6476
くだ	-10.6478
▁夫婦	-10.6479
漏	-10.6481
書くこと	-10.6482
電線	-10.6483
ないさま	-10.6486
メッセージをいまから	-10.6489
蚕	-10.6492
の底	-10.6492
しているさま	-10.6494
部屋を	-10.6495
残る	-10.6497
わざと	-10.6498
を食べる	-10.6499
使うこと	-10.65
供	-10.65
即	-10.6501
ならず	-10.6501
戦い	-10.6502
つい	-10.6502
はず	-10.6503
を全部	-10.6507
かしら	-10.6509
ねえ	-10.6512
灰色	-10.6516
浮き	-10.6518
眉	-10.6518
行政	-10.6518
幸運	-10.6521
まだら	-10.6526
農業	-10.6531
非常	-10.6531
奉	-10.6531
天下	-10.6535
世間の	-10.6535
▁秘密	-10.6537
イエス	-10.6539
▁平和	-10.6539
かじ	-10.654
よごれ	-10.6541
貨物	-10.6544
でもない	-10.6544
浪	-10.6545
退屈	-10.6548
リン	-10.6549
消	-10.6549
げん	-10.6556
張った	-10.6562
さけ	-10.6562
▁彼はまだ	-10.6562
▁補	-10.6563
渡す	-10.6564
統	-10.6565
どうか教えて	-10.6565
お医者	-10.6566
▁外国	-10.6567
今の	-10.6569
▁虚	-10.6571
のあまり	-10.6577
▁その事	-10.6578
▁加	-10.6579
詰める	-10.6581
ばし	-10.6585
祖父	-10.6585
安定	-10.6595
手本	-10.6595
まん	-10.6597
卓	-10.6598
▁市	-10.66
外の	-10.6601
騒ぎ	-10.6602
こんだ	-10.6603
水中に	-10.6604
はいない	-10.6604
塗	-10.6605
の裏	-10.6608
委員	-10.661
三角形	-10.661
ペ	-10.6617
考えが	-10.6619
比べ	-10.6622
弊	-10.6623
しました	-10.6625
酷	-10.6626
摂	-10.6629
紺	-10.663
敬	-10.663
峰	-10.663
干渉	-10.663
支出	-10.663
侵入	-10.663
槍	-10.663
錦	-10.663
雀	-10.663
に違いない	-10.6631
以外に	-10.6631
はさみ	-10.6631
元気かいの予約状況を削除	-10.6632
旧称	-10.6632
絶えず	-10.6632
紙幣	-10.6632
19	-10.6633
朝廷	-10.6633
残らず	-10.6634
曲芸	-10.6635
企て	-10.6638
制御	-10.6638
を好む	-10.6638
しまう	-10.664
ふろ	-10.6644
ふり	-10.6646
鉄砲	-10.6647
食堂	-10.6651
疑	-10.6654
▁満	-10.6654
ちり	-10.6657
▁霧	-10.6658
ぐら	-10.6659
を抱く	-10.666
▁長い	-10.6662
両手	-10.6665
歩いた	-10.6666
の内容	-10.6667
見物	-10.6669
▁乾	-10.667
▁画	-10.6677
一切の	-10.6677
子ども	-10.6679
▁絶	-10.668
社員	-10.6684
にはいること	-10.6688
ふた	-10.6689
に入れて	-10.6689
の表面	-10.6689
なければならなかった	-10.6689
しゃれ	-10.669
試み	-10.6698
▁銃	-10.6699
▁心臓	-10.67
だす	-10.67
坊	-10.6702
俗に	-10.6705
を出すこと	-10.6707
▁彼女は彼の	-10.6709
▁商業	-10.6713
▁電	-10.6718
速力	-10.672
台所	-10.6721
くれる	-10.6721
の関係	-10.6722
物や	-10.6725
むき	-10.6726
▁空気	-10.6726
々に	-10.6727
を決める	-10.673
越す	-10.6733
守り	-10.6734
主義者	-10.6743
▁アン	-10.6745
掛	-10.6746
▁縦	-10.6753
を果たす	-10.6755
▁金銭	-10.6755
消化	-10.6759
▁個人	-10.6761
合わない	-10.6764
▁多くの人	-10.6765
らずに	-10.6768
心地	-10.677
残念	-10.6775
鉱物	-10.6775
ポケット	-10.6779
が足りない	-10.6781
絶対に	-10.6788
て来た	-10.6795
▁至	-10.6795
くも	-10.6796
を招く	-10.6797
合わせた	-10.6798
がきく	-10.6799
食べた	-10.6799
大切な	-10.68
今まで	-10.6802
▁毛	-10.6803
になると	-10.6803
低	-10.6808
過ぎた	-10.6812
勝手に	-10.6815
はかりごと	-10.682
するため	-10.6821
の利益	-10.6827
診	-10.6827
義理	-10.6831
影響	-10.6832
体操	-10.6836
海岸	-10.6838
前もって	-10.6841
たくない	-10.6843
レコード	-10.6843
表面に	-10.6843
▁進	-10.6843
▁優	-10.6846
仏教で	-10.6848
にしている	-10.685
常に	-10.685
発明	-10.6851
寄る	-10.6852
たれ	-10.6853
じて	-10.6853
ちょっと電話かける	-10.6854
もう少し	-10.6856
利害	-10.6857
▁そのような	-10.6857
分解	-10.6858
読むこと	-10.686
▁テニス	-10.686
もり	-10.686
ねん	-10.6861
のび	-10.687
特有の	-10.687
事件の	-10.6871
▁ゴルフ	-10.6873
の水	-10.6875
優勝	-10.6876
を聞く	-10.6877
ものは	-10.6881
を待つ	-10.6885
ノー	-10.6886
原産	-10.6886
誤解	-10.6887
高度	-10.6887
花は	-10.6888
行うこと	-10.6889
▁禁	-10.6889
のあたり	-10.6891
珍	-10.6897
火山	-10.6897
還	-10.6897
担	-10.6898
僕の	-10.6899
お客	-10.6899
喜んで	-10.69
▁普通の	-10.6901
藤	-10.6903
潔	-10.6904
配当	-10.6904
富士	-10.6904
よろしい	-10.6904
鹿	-10.6905
投資	-10.6905
遺伝	-10.6907
つながり	-10.6907
憤	-10.6907
ランプ	-10.6907
倉	-10.6907
丹	-10.6907
オーバー	-10.6908
枠	-10.6908
よろしく	-10.6908
逐	-10.6908
	-10.6908
ごちそう	-10.6908
交替	-10.6908
やさしい	-10.6908
▁布	-10.6908
理屈	-10.6908
疾	-10.6909
設計	-10.6909
▁さい	-10.6909
ベルト	-10.6909
配置	-10.691
口から	-10.691
関節	-10.6911
▁ビール	-10.6911
▁冗談	-10.6911
運び	-10.6912
証言	-10.6912
柔らかい	-10.6913
最後まで	-10.6914
視線	-10.6915
とじ	-10.6915
困った	-10.6916
勝手	-10.6919
食欲	-10.6919
あとに	-10.6921
平面	-10.6922
頼む	-10.6925
▁民	-10.6927
干	-10.6929
いけ	-10.693
▁ニュース記事を	-10.6931
みずから	-10.6931
とその	-10.6932
▁ある事	-10.6934
失礼	-10.6935
刃物	-10.6936
合計	-10.6937
の後	-10.6938
を持ち	-10.6941
明るく	-10.6941
はどんな	-10.6942
与えられた	-10.6945
無知	-10.6947
たばこ	-10.6947
芸術家	-10.6947
といって	-10.6949
その家	-10.6952
あせ	-10.6952
のまま	-10.6953
▁たくさんの	-10.6956
混乱	-10.6957
勝つ	-10.696
済	-10.6961
問題を	-10.6961
を描く	-10.6961
▁緑	-10.6961
手紙を	-10.6965
候補者	-10.6967
移り	-10.6967
▁愚	-10.6967
完全な	-10.6968
時から	-10.6968
申	-10.6969
飲食物	-10.6971
味方	-10.6972
大和	-10.6974
▁髪を	-10.6975
ボート	-10.6977
消し	-10.6988
▁彼は私を	-10.699
着陸	-10.6991
▁機	-10.6997
くい	-10.7002
たまえ	-10.7002
すきま	-10.7002
固く	-10.7003
男の	-10.7005
ります	-10.7006
今日	-10.7007
私たちに	-10.7008
踏	-10.701
つや	-10.7011
にわたる	-10.7014
売る	-10.7015
▁地球	-10.7015
▁最	-10.7018
白色の	-10.7018
さか	-10.7019
仏教	-10.7022
見かけ	-10.7023
茂	-10.7024
▁生き	-10.7025
隠	-10.7025
▁直接	-10.7029
集まって	-10.7036
並	-10.7036
▁敵の	-10.7037
瞬間	-10.7052
草木	-10.7053
いま	-10.7053
単	-10.7053
▁人口	-10.7054
絵画	-10.7056
静かな	-10.7058
宴会	-10.706
▁広	-10.7061
招	-10.7063
してきた	-10.7067
▁ピアノ	-10.7069
出された	-10.7069
▁商	-10.7074
航空機	-10.7077
▁妻	-10.7078
地上	-10.7079
自転車	-10.7079
体長	-10.7083
責	-10.7085
▁要	-10.7088
囲	-10.7088
のところ	-10.7088
▁防	-10.7091
▁ばか	-10.7093
浅	-10.7094
現れ	-10.7095
ってきた	-10.7099
もう一度	-10.7099
震	-10.71
本当	-10.7101
魅力	-10.7102
の女	-10.7105
ばた	-10.7105
を選ぶ	-10.7108
貫	-10.7109
壊	-10.7111
▁どの	-10.7113
等級	-10.7117
集まる	-10.7121
暮	-10.7125
▁岩	-10.7127
需要	-10.7127
被	-10.7127
名前を	-10.7127
生きている	-10.7129
ホームヘルパー	-10.713
▁うん	-10.7134
弱い	-10.7135
凍	-10.7137
幾つかの	-10.7137
フェ	-10.7137
ックス	-10.7138
に備えて	-10.7139
かれた	-10.714
与える	-10.7142
いつでも	-10.7148
だということ	-10.7149
豚	-10.7149
低木	-10.7149
心理	-10.715
考	-10.7152
そういうもの	-10.7153
パリ	-10.7157
の跡	-10.7159
メッセージをすぐに	-10.7161
獄	-10.7164
事柄を	-10.7168
理由で	-10.7168
▁底	-10.7169
細菌	-10.717
最近	-10.7171
博士	-10.7172
駆	-10.7173
は我々の	-10.7173
▁星	-10.7178
で書く	-10.7178
日本語	-10.7178
うれしい	-10.7178
石を	-10.7179
80	-10.7179
はずだ	-10.718
瓶	-10.7181
山田	-10.7181
よそ	-10.7182
賀	-10.7182
気を	-10.7183
過ごす	-10.7184
▁現金	-10.7186
進んだ	-10.7187
人柄	-10.7189
忍	-10.719
ますよ	-10.7191
均	-10.7191
喪	-10.7193
腺	-10.7193
操縦	-10.7193
並び	-10.7193
硬貨	-10.7193
顕微鏡	-10.7193
捜査	-10.7193
沙	-10.7193
紛争	-10.7194
に住み	-10.7194
染料	-10.7194
技能	-10.7194
塗料	-10.7195
はるかに	-10.7195
更に広く	-10.7195
廊下	-10.7195
だいぶ	-10.7196
教訓	-10.7196
点で	-10.7197
対策	-10.7197
便利	-10.7198
鳴く	-10.7198
市民	-10.7199
過失	-10.7199
▁身分	-10.7199
うるさい	-10.72
▁身体	-10.72
公衆	-10.72
▁試	-10.7202
▁今日の天気	-10.7205
見識	-10.7206
▁あんな	-10.7207
ぶち	-10.7207
観客	-10.7208
に反する	-10.7208
押	-10.7209
となり	-10.7213
▁座	-10.7214
さまざまな	-10.7216
本能	-10.7216
作戦	-10.7216
を要求する	-10.7217
で働く	-10.7217
小岩	-10.7222
鳴	-10.7222
へ電話	-10.7223
及ぶ	-10.7225
▁ホテル	-10.7227
おお	-10.7227
おき	-10.7229
分布	-10.7229
▁リ	-10.7231
伝染病	-10.7232
しめる	-10.7232
がなくて	-10.7234
米国	-10.7234
鉱石	-10.7235
罪人	-10.7235
ありさま	-10.7238
に置いて	-10.7239
を感じた	-10.7241
確かに	-10.7241
不正	-10.7243
事をする	-10.7243
天体	-10.7246
16	-10.7247
備え	-10.7247
しまい	-10.7247
の長	-10.725
電灯	-10.7252
どのくらい	-10.7252
▁絹	-10.7253
▁絶対	-10.7253
わかり	-10.7255
に必要な	-10.7256
▁流	-10.7258
はどうなる	-10.7261
▁国内	-10.7263
資産	-10.7265
を知っている	-10.7266
身なり	-10.7269
に会う	-10.7269
受けた	-10.727
▁知識	-10.7272
▁現在	-10.7275
いていた	-10.7276
原子	-10.7278
救急車を呼ぶ	-10.7278
▁名誉	-10.728
▁増	-10.7283
燃える	-10.7283
その仕事を	-10.7283
以前に	-10.7284
もん	-10.7284
夕	-10.7285
述べること	-10.7285
▁歴史	-10.7286
かつ	-10.7287
▁種	-10.7288
小鳥	-10.729
が立つ	-10.7293
しお	-10.7296
▁言語	-10.7302
混ぜ	-10.7302
男女	-10.7303
人格	-10.7305
を加え	-10.7306
っていること	-10.7306
すい	-10.7311
▁すっかり	-10.7316
こめ	-10.7323
沖	-10.7324
そんな事を	-10.7326
倒れた	-10.7328
以外	-10.7329
水分	-10.7331
まくら	-10.7332
▁悪い	-10.7333
されること	-10.734
最高の	-10.7341
ませる	-10.7343
我々	-10.7344
始	-10.7345
気に	-10.7347
敵に	-10.7349
蒸	-10.7351
▁配	-10.7352
悪事	-10.7359
施	-10.7359
▁夕食	-10.7361
を利用して	-10.7362
の夜	-10.7362
仕方がない	-10.7365
動機	-10.7366
なみ	-10.7369
▁私はその	-10.737
主題	-10.7371
▁会社	-10.7371
▁ここ	-10.7372
用事	-10.7372
▁その時	-10.7375
▁他人	-10.7376
必要がある	-10.7378
▁車の	-10.7379
以上に	-10.7381
そこで	-10.7381
を売る	-10.7382
左右に	-10.7382
見本	-10.7383
▁遊	-10.7385
▁ゆう	-10.739
にあう	-10.7391
材は	-10.7392
責任を	-10.7392
二人	-10.7392
▁息子	-10.7392
ぶどう酒	-10.7395
雨が	-10.7396
の目	-10.7398
栄	-10.74
大分	-10.7401
致	-10.7402
▁刀	-10.7403
しばしば	-10.7403
注射	-10.7404
の差	-10.7405
効	-10.7407
糸を	-10.7408
執	-10.7408
染み	-10.741
▁こん	-10.7414
贈	-10.7421
▁法律	-10.7421
ときに	-10.7425
を見せる	-10.7425
過去	-10.7425
行列	-10.7425
計略	-10.7426
腕を	-10.7427
私たち	-10.7431
黄色の	-10.7432
けち	-10.7432
いけない	-10.7435
とすること	-10.7436
辞職	-10.7436
▁献	-10.7438
▁核	-10.7438
まわる	-10.744
渋	-10.7441
浴	-10.7442
てはいけない	-10.7443
の値段	-10.7444
をやめる	-10.7447
▁だれが	-10.7447
何とも	-10.7448
▁地震	-10.7451
引け	-10.7451
むりに	-10.7451
わしい	-10.7452
うけ	-10.7452
に行う	-10.7452
裂	-10.7453
物理学	-10.7453
C	-10.7455
楽しい	-10.7462
リズム	-10.7463
不運	-10.7463
▁義	-10.7463
次第	-10.7464
彩	-10.7464
曲がった	-10.7465
ベル	-10.7466
測定	-10.7467
が私の	-10.7468
泥棒	-10.7468
かぜ	-10.7469
介	-10.7477
斑	-10.748
稿	-10.748
悲しい	-10.7481
を見ると	-10.7482
▁行き	-10.7483
新たに	-10.7484
まさに	-10.7484
浩	-10.7484
瀬	-10.7485
拡大	-10.7485
が大きく	-10.7486
棺	-10.7486
亀	-10.7486
ほぼ	-10.7487
祖母	-10.7487
ヨ	-10.7487
活字	-10.7487
椎	-10.7488
佞	-10.7488
磴	-10.7488
ユーモア	-10.7488
酔い	-10.7488
硫酸	-10.7488
太平洋	-10.7488
タイヤ	-10.7488
寿命	-10.7488
いくつかの	-10.7489
飲料	-10.7489
幕府	-10.7489
代名詞	-10.7491
元気かいの予約を削除	-10.7492
出ること	-10.7493
ニュース記事	-10.7493
結合	-10.7494
▁もと	-10.7495
体温	-10.7497
配達	-10.7499
時間に	-10.75
予約	-10.75
論じ	-10.75
伏	-10.7501
美味	-10.7501
召	-10.7507
行こう	-10.7507
遊女	-10.7507
訴訟	-10.7511
幸い	-10.7513
彫り	-10.7514
有名な	-10.752
失敗する	-10.7521
生ずる	-10.7522
殺し	-10.7523
▁あれ	-10.7524
語る	-10.7524
▁天皇の	-10.7525
ければ	-10.7525
の終わり	-10.7529
バック	-10.7529
二度と	-10.7532
法則	-10.7532
げに	-10.7535
裁	-10.7536
▁家の	-10.7539
▁山の	-10.7539
がみ	-10.754
筋道	-10.754
お金	-10.754
かつて	-10.7542
入学	-10.7543
日が	-10.7544
すか	-10.7544
支配	-10.7546
景気	-10.7546
▁最後の	-10.7546
国会	-10.7546
▁厳	-10.755
はっきりと	-10.755
かわり	-10.7556
横に	-10.7557
みず	-10.7559
一同	-10.7559
無罪	-10.7561
なもの	-10.7562
迎え	-10.7564
打って	-10.7565
▁英	-10.7567
すぐれている	-10.7567
体力	-10.7572
続	-10.7573
不思議な	-10.7575
の程度	-10.7576
▁食	-10.7577
作者	-10.7578
込むこと	-10.7582
飛ばす	-10.7583
ード	-10.7586
ちっとも	-10.7586
まっすぐに	-10.7591
態度が	-10.7595
夏の	-10.7596
白髪	-10.7599
感動	-10.7604
考えを	-10.7605
苦痛	-10.7605
▁過去	-10.7607
相当	-10.7608
▁仕事を	-10.761
▁巨	-10.7611
知る	-10.7614
人情	-10.7615
授	-10.7616
大変な	-10.7617
床に	-10.7618
を発する	-10.7619
世辰	-10.7621
▁このメモを	-10.7623
を誤る	-10.7624
出かける	-10.7628
応	-10.763
▁運	-10.7631
描いた	-10.7634
最大	-10.7636
あれこれと	-10.7639
▁涙	-10.764
入れること	-10.764
符	-10.7642
▁麦	-10.7642
ぶっ	-10.7646
▁議会	-10.7647
垂	-10.7651
二人の	-10.7658
任垢	-10.7659
懸	-10.766
▁官	-10.7662
光線	-10.7666
たび	-10.7667
うんと	-10.7669
側の	-10.767
仮	-10.7671
甘	-10.7673
なくなること	-10.7677
寄付	-10.7679
についている	-10.7681
▁しゅう	-10.7685
つとめ	-10.7685
▁混	-10.7687
は彼	-10.7688
髪を	-10.7689
どき	-10.7695
スタ	-10.7698
をつかむ	-10.7699
反対の	-10.7701
死者	-10.7703
に行って	-10.7706
ねずみ	-10.7706
売れ	-10.7713
べる	-10.7714
著者	-10.7714
上下	-10.7715
でメッセを送信	-10.7716
▁卑	-10.7718
望む	-10.7719
の位置	-10.772
暮れ	-10.772
▁動物の	-10.7723
ング	-10.7725
フル	-10.7725
▁休	-10.7725
仰	-10.7726
まして	-10.7728
▁えん	-10.7728
崩	-10.773
育て	-10.7732
▁押し	-10.7737
述べ	-10.7739
▁釣り	-10.774
▁元	-10.7741
結構	-10.7742
縫	-10.7744
当たる	-10.7746
にふける	-10.7747
ニューヨーク	-10.7749
脂肪	-10.775
されない	-10.775
冗談	-10.775
はなかなか	-10.7751
保存	-10.7754
下げる	-10.7754
ものです	-10.7756
その計画	-10.7761
が長い	-10.7764
滴	-10.7764
騷ぎ	-10.7767
実際の	-10.7768
▁タクシー	-10.7768
先の	-10.7769
当選	-10.777
を定める	-10.777
▁バス	-10.7771
指を	-10.7771
小型の	-10.7772
さなかった	-10.7772
ふる	-10.7776
割れ	-10.7777
▁漁	-10.7779
民主	-10.7782
訪	-10.7784
現在の	-10.7784
せた	-10.7785
宣	-10.7785
禍	-10.7786
鶴	-10.7787
ついている	-10.7788
及ばない	-10.7788
塞	-10.7788
慶	-10.7789
巡	-10.7789
叫ぶ	-10.7789
叙	-10.7789
並ぶ	-10.7789
嚢	-10.779
摩	-10.779
ているさま	-10.779
某	-10.779
楼	-10.779
虐	-10.779
▁電卓アプリ	-10.7791
缺	-10.7791
	-10.7791
よろい	-10.7791
喜ぶ	-10.7791
描写	-10.7791
独占	-10.7791
セント	-10.7791
300	-10.7791
変わって	-10.7791
惑星	-10.7791
業績	-10.7791
抗議	-10.7792
宿泊	-10.7792
統制	-10.7792
辞典	-10.7792
なま	-10.7792
散らす	-10.7793
つらい	-10.7793
限界	-10.7793
座敷	-10.7793
付きの	-10.7793
人や	-10.7794
うま	-10.7794
わし	-10.7794
うわ	-10.7795
刷り	-10.7796
行儀	-10.7796
獲物	-10.7796
綴じ	-10.7796
立ち上がる	-10.7797
鈍	-10.7797
々しい	-10.7797
間違っている	-10.7798
マッチ	-10.7799
筆跡	-10.7799
縁起	-10.78
▁せき	-10.78
核	-10.78
車両	-10.7801
乗る	-10.7802
が出た	-10.7802
箇所	-10.7803
ゴルフ	-10.7803
上昇	-10.7803
不良	-10.7803
いずれ	-10.7804
コップ	-10.7804
頭痛	-10.7804
固定	-10.7804
▁霜	-10.7804
ではありません	-10.7805
混	-10.7805
油断	-10.7806
偶然	-10.7806
めい	-10.7806
▁先生は	-10.7807
▁被	-10.7809
▁その家は	-10.7812
空中	-10.7815
ささ	-10.7816
財政	-10.7816
質の	-10.7817
議長	-10.7818
話した	-10.7819
ねば	-10.782
どうぞ	-10.7821
養子	-10.7822
▁偏	-10.7823
けること	-10.7823
迷い	-10.7825
▁秘	-10.7826
官職	-10.7829
高知	-10.7831
小形の	-10.7833
けない	-10.7834
▁自動車の	-10.7836
▁事務	-10.7837
実際	-10.7838
進むこと	-10.7838
をたたく	-10.7841
▁暴	-10.7841
ってしまう	-10.7853
視力	-10.7853
独立	-10.7856
していて	-10.7857
一種の	-10.7863
きて	-10.7864
元気かいの予約を追加	-10.7864
長いこと	-10.7866
折れ	-10.7866
を集める	-10.7866
途中	-10.7867
ぬき	-10.787
見せる	-10.787
▁政府	-10.7872
賭け	-10.7874
黒色	-10.7876
のとおり	-10.7877
温泉	-10.7878
対照	-10.7878
言葉で	-10.7878
冷え	-10.7879
▁物事	-10.7879
▁列車	-10.788
安心	-10.7881
後ろに	-10.7888
入って	-10.7891
方がいい	-10.7894
を失った	-10.7896
に言う	-10.7904
st	-10.7908
くわ	-10.791
その言葉	-10.7911
幸せ	-10.7912
移動	-10.7915
▁故	-10.7916
うみ	-10.7917
回った	-10.7917
たな	-10.7919
科の落葉高木	-10.7923
警察を呼ぶ	-10.7924
を止める	-10.7924
▁富	-10.7926
ミリ	-10.7927
のたとえ	-10.793
ごう	-10.7931
▁神経	-10.7932
根性	-10.7934
終わった	-10.7935
なぐる	-10.7935
きわ	-10.7938
抱	-10.7942
あらわ	-10.7943
成立	-10.7943
▁父は	-10.7945
上がって	-10.7945
がついた	-10.7947
識	-10.7947
四方	-10.7948
優	-10.7948
のような形	-10.7952
私たちの	-10.7954
三つ	-10.7955
ブラ	-10.7955
▁郵便	-10.7959
▁当時	-10.7966
を研究する	-10.7968
終わる	-10.7969
いました	-10.7971
▁昼	-10.7972
設	-10.7984
あう	-10.7985
ラー	-10.7989
生活を送る	-10.7989
だらけの	-10.799
▁書き	-10.799
吹く	-10.7999
▁どちら	-10.7999
運送	-10.7999
周囲	-10.8001
しら	-10.8004
を踏む	-10.8007
嫌い	-10.8009
丸い	-10.8012
ぬく	-10.8019
数値	-10.8019
に出す	-10.8021
▁葉	-10.8024
書いてある	-10.803
▁世間の	-10.8041
詰	-10.8046
▁女性	-10.8048
異常	-10.8052
おこる	-10.8053
ばね	-10.8054
今日の天気	-10.8055
力士	-10.8058
▁いつ	-10.8059
の話	-10.806
のほう	-10.8061
風邪	-10.8061
くそ	-10.8062
は実に	-10.8063
争	-10.8065
換	-10.8065
親切に	-10.8065
あん	-10.8069
▁はん	-10.8069
ぱっと	-10.8071
を追って	-10.8072
決断	-10.8073
沢	-10.8074
含	-10.8074
▁元気かいの記録を管理	-10.8076
兵隊	-10.8077
▁党	-10.8077
庫	-10.808
▁牛乳	-10.8082
驚き	-10.8084
権威	-10.8084
るだろう	-10.8084
のようなもの	-10.8085
うちの	-10.8087
余地	-10.8087
譜	-10.8089
連続	-10.809
元気かいの予約を変更	-10.8091
▁鈍	-10.8093
すごい	-10.8094
破壊	-10.8096
療	-10.8098
循環	-10.8098
敏	-10.8098
ミルク	-10.8099
服従	-10.8099
著作	-10.81
▁裸	-10.81
審議	-10.81
カル	-10.8101
範	-10.8102
財産を	-10.8102
渡り	-10.8103
溝	-10.8103
"	-10.8103
妊	-10.8103
味噌	-10.8103
束縛	-10.8103
訂正	-10.8103
アジア	-10.8103
診察	-10.8103
男女が	-10.8104
70	-10.8104
やたらに	-10.8104
給与	-10.8104
オレンジ	-10.8104
救助	-10.8104
新潟	-10.8104
保管	-10.8105
味わい	-10.8105
合唱	-10.8107
どころ	-10.8108
▁次の	-10.8109
水準	-10.8109
元気かいの予約削除	-10.8109
言ったこと	-10.811
党派	-10.811
喜劇	-10.811
前提	-10.8111
教員	-10.8112
入場	-10.8114
▁がん	-10.8115
▁彼はもう	-10.8115
近くの	-10.8116
w	-10.8116
付属	-10.8117
風習	-10.8118
十分な	-10.8119
ませた	-10.8119
▁顔	-10.8119
なか	-10.8122
でメッセ送信	-10.8122
項目	-10.8125
確実な	-10.8125
童	-10.8128
曲線	-10.8128
▁村	-10.8129
に着く	-10.813
をかき	-10.813
発達	-10.813
が来る	-10.8131
▁ここから	-10.8132
わん	-10.8132
活気	-10.8133
群衆	-10.8134
▁あらし	-10.8134
今は	-10.8135
どれ	-10.8135
例外	-10.8136
▁だれでも	-10.8137
▁大いに	-10.8137
▁自分が	-10.8138
月に	-10.8138
ウイスキー	-10.8139
▁硬	-10.8139
▁新しく	-10.814
無礼	-10.814
▁それには	-10.814
献	-10.8141
掻き	-10.8141
図書館	-10.8142
ジョン	-10.8142
を鳴らす	-10.8142
根本	-10.8142
手先	-10.8143
郊外	-10.8143
バラ	-10.8144
仮名	-10.8144
▁なぜ	-10.8145
敷き	-10.8146
▁スキー	-10.8148
▁ほ	-10.8148
読んだ	-10.8149
遠慮	-10.8149
大事な	-10.8149
昼	-10.815
粘土	-10.815
岩石	-10.815
▁最高	-10.8151
ですが	-10.8152
するような	-10.8152
▁100	-10.8153
ふけ	-10.8155
虚	-10.8155
缶	-10.8156
以前の	-10.8156
春の	-10.8156
暖かい	-10.8156
客の	-10.8156
少	-10.8157
かたく	-10.8157
テニス	-10.8157
を塗る	-10.8158
▁立派な	-10.8161
天才	-10.8163
臣下	-10.8164
黙って	-10.8165
物品	-10.8165
威力	-10.8167
面会	-10.8167
赤色	-10.8168
やってみる	-10.8168
風流	-10.8169
非常な	-10.8169
死亡	-10.817
を重ねる	-10.8171
家柄	-10.8174
存在する	-10.8179
支持	-10.8179
の土地	-10.8185
▁研究	-10.8185
物価	-10.8186
集会	-10.8187
に生える	-10.8198
秘密を	-10.8198
傾斜	-10.8198
ごま	-10.8198
姿を	-10.8201
品質	-10.8201
発生	-10.8204
いくつ	-10.8207
ティー	-10.8207
の調子	-10.8209
他方	-10.8209
所へ	-10.821
てしまうこと	-10.8211
▁そんなこと	-10.8213
話だ	-10.8213
カン	-10.8214
一点	-10.8215
▁土地	-10.8217
映	-10.8218
▁棒	-10.8221
火薬	-10.8228
難い	-10.8232
▁他の	-10.8235
打撃	-10.8235
買う	-10.8237
が強く	-10.8238
抜ける	-10.824
▁露	-10.8249
との間に	-10.8249
名の	-10.8249
▁怒り	-10.8252
全体の	-10.8253
れん	-10.8254
は彼を	-10.8255
▁卵	-10.8255
不平	-10.8256
潜	-10.8257
明るい	-10.8257
動かす	-10.8258
まめ	-10.8258
フランス語	-10.8259
▁気が	-10.8262
▁雌	-10.8263
地点	-10.8269
信する	-10.8269
回転	-10.8271
爆	-10.8279
輸出	-10.828
▁室内	-10.8283
▁鬼	-10.8286
閉	-10.8288
きなさい	-10.8288
科目	-10.8289
▁墓	-10.829
▁人生	-10.8291
を捕える	-10.8292
□□	-10.8294
とく	-10.8294
へ行った	-10.8294
▁労働	-10.8297
上り	-10.8301
▁質	-10.8308
ネズミ	-10.8311
▁じょう	-10.8312
確かな	-10.8314
▁ちょうど	-10.8318
もらった	-10.8318
▁新年	-10.8319
丈夫な	-10.832
計画を	-10.8325
歌う	-10.8327
既に	-10.8331
矛盾	-10.8333
つもりだ	-10.8335
se	-10.8336
▁超	-10.8337
あげた	-10.8338
否定	-10.8338
そうする	-10.8341
▁午後	-10.8342
君が	-10.8342
戸口	-10.8346
▁温	-10.8352
大体	-10.8352
扱	-10.8359
樹木	-10.8361
生まれつき	-10.8365
届	-10.8366
一面	-10.8369
改善	-10.837
▁縁	-10.8371
▁死に	-10.8372
資料	-10.8374
埋め	-10.8375
確か	-10.8376
▁インド	-10.8388
四角	-10.8389
▁渋	-10.8393
ざら	-10.8393
示すこと	-10.8395
▁道理	-10.8395
帝国	-10.8396
上げて	-10.84
離婚	-10.8401
悟	-10.8403
▁議長	-10.8405
熱い	-10.8406
▁若い	-10.8407
将校	-10.8407
▁ピ	-10.8408
重大	-10.8412
裁判官	-10.8413
縛	-10.8416
却	-10.8417
軽蔑	-10.8419
孔	-10.8419
▁農業	-10.842
▁歌	-10.8421
に過ぎない	-10.8422
のなか	-10.8422
険	-10.8422
呪	-10.8422
▁ニューヨーク	-10.8423
あめ	-10.8423
を欠く	-10.8423
を作り	-10.8424
発行する	-10.8424
相続	-10.8424
ぞっとする	-10.8424
環	-10.8424
キャ	-10.8425
貌	-10.8425
こみ	-10.8425
焼いた	-10.8425
あきらめ	-10.8425
寡	-10.8426
ごたごた	-10.8426
ハンカチ	-10.8426
娯楽	-10.8426
偉大な	-10.8426
屬	-10.8426
くちばし	-10.8426
証券	-10.8427
悩み	-10.8427
ろうそく	-10.8427
農場	-10.843
元気かいの予約追加	-10.843
坊主	-10.8432
執行	-10.8432
元気かい予約更新	-10.8432
同士	-10.8433
狂言	-10.8435
を読む	-10.8436
優先	-10.8436
▁狂	-10.8437
念仏	-10.8437
申し上げます	-10.8438
面白い	-10.8438
▁帆	-10.8439
を失って	-10.8439
のうちに	-10.8439
▁松	-10.8441
平らな	-10.8441
元気かい予約状況を管理	-10.8442
目録	-10.8443
戦術	-10.8445
入れた	-10.8446
不在	-10.8446
前から	-10.8447
辰討い	-10.8447
科の常緑高木	-10.8448
単語	-10.8449
演ずる	-10.8455
弱点	-10.8456
うら	-10.8456
たりして	-10.8457
語句	-10.8459
▁能	-10.846
ロン	-10.8462
母音	-10.8463
▁生活	-10.8463
おかし	-10.8465
むち	-10.8465
あげよう	-10.8467
所帯	-10.8467
じん	-10.8473
まわること	-10.8473
▁きゅう	-10.8473
もみ	-10.8474
駄	-10.8476
あさ	-10.8476
お願い	-10.8477
を洗う	-10.8477
むずかしい	-10.848
鬱	-10.8482
18	-10.8482
元気かい予約管理	-10.8483
ものがある	-10.8485
▁粉	-10.8486
めし	-10.8487
▁ベ	-10.8488
留める	-10.8489
きびしく	-10.8489
危機	-10.8489
雑草	-10.8489
幼児	-10.849
仁	-10.849
▁順	-10.849
ドアを	-10.8491
の出来事	-10.8492
ロープ	-10.8493
▁その子は	-10.8494
苦心	-10.8495
脇	-10.8495
飽き	-10.8495
談話	-10.8495
乱暴な	-10.8496
第三	-10.8497
▁飯	-10.8497
爪	-10.8498
健	-10.85
▁福	-10.8501
。「―	-10.8503
預金	-10.8503
両端	-10.8504
などによって	-10.8504
容易に	-10.8506
自己	-10.8506
超	-10.8506
合うこと	-10.8506
なっていた	-10.8507
走者	-10.8508
中国の	-10.8509
戻	-10.8509
S	-10.851
を吹く	-10.8511
▁文学	-10.8512
たえ	-10.8512
▁そうじゃな	-10.8513
所を	-10.8513
▁激しく	-10.8514
▁貸	-10.8515
山脈	-10.8515
訴え	-10.8516
▁遠く	-10.8516
▁コン	-10.852
の小	-10.852
せり	-10.852
▁ぼう	-10.852
濃い	-10.8521
▁長く	-10.8522
穀物	-10.8523
形は	-10.8525
水路	-10.8525
音節	-10.8526
書いて	-10.8532
▁イエス	-10.8534
▁猿	-10.8539
に多い	-10.8539
▁印刷	-10.8541
一部	-10.8541
縮	-10.8543
午後	-10.8543
元気かい予約を変更	-10.8543
▁生産	-10.8544
言葉に	-10.8545
っておく	-10.8546
せない	-10.8547
木綿	-10.8548
こつ	-10.8548
ぼんやり	-10.8549
もしない	-10.8553
はわからない	-10.8554
いないこと	-10.8558
しかない	-10.8559
ようとした	-10.856
とれる	-10.8566
があれば	-10.8566
ときの	-10.8569
ほめ	-10.857
成功した	-10.8578
▁全身	-10.8578
こり	-10.8578
墓	-10.8581
捜し	-10.8583
してやる	-10.8585
その場に	-10.8587
▁ヨーロッパ	-10.8592
▁安全	-10.8593
▁だれか	-10.8594
のもとで	-10.8596
気譴	-10.8597
▁仕事の	-10.8598
上手	-10.8598
まと	-10.8599
返すこと	-10.8601
用いる	-10.8601
生え	-10.8602
不意	-10.8603
は何も	-10.861
▁寸	-10.861
みぞ	-10.861
▁うちの	-10.8612
片方	-10.8612
とまる	-10.8612
敵の	-10.8615
プレー	-10.8619
境界	-10.862
我々に	-10.8625
紙のメモを	-10.8625
誠	-10.8626
としても	-10.8626
▁家族	-10.8631
▁すばらしい	-10.8632
おしゃべり	-10.8633
認められる	-10.8634
鳴り	-10.8637
▁約束	-10.864
に手を	-10.864
▁煮	-10.8648
っても	-10.8648
ed	-10.8652
スーツ	-10.8652
重ね	-10.8652
機嫌	-10.8653
有様	-10.8655
石川	-10.8655
拾い	-10.8655
宣伝	-10.8659
そうと	-10.866
クリスマス	-10.8662
溶	-10.8663
時などに	-10.8663
をとった	-10.8663
知った	-10.8666
大きいこと	-10.8667
▁いろいろの	-10.867
らせて	-10.8672
▁割り	-10.8674
だけだ	-10.8675
▁都	-10.8676
買った	-10.8677
が好きだ	-10.8679
騒	-10.8679
構	-10.8682
▁目の	-10.8682
居住	-10.8684
知り	-10.8684
あうこと	-10.8684
耳に	-10.8687
づく	-10.8689
なぞ	-10.8689
最後に	-10.8694
▁学校の	-10.8694
下ろす	-10.8695
の問題	-10.8697
本来	-10.8697
当てる	-10.8697
美しさ	-10.8699
の縁	-10.8699
しないように	-10.8699
立っていた	-10.8703
▁化学	-10.8704
かけている	-10.8709
換え	-10.871
代理	-10.8713
時間が	-10.8713
▁参	-10.8714
▁雷	-10.8715
▁帯	-10.8716
妙な	-10.8717
▁トムは	-10.8717
かに	-10.8717
たれる	-10.8717
▁目を	-10.8719
攻	-10.872
宮中	-10.8721
まとまり	-10.8721
▁生命	-10.8724
だんだん	-10.8724
調和	-10.8728
覚	-10.873
遅れて	-10.8732
▁元気	-10.8732
磨	-10.8734
おいで	-10.8735
惑	-10.8736
と思っている	-10.8737
▁あなたが	-10.8737
すす	-10.8739
については	-10.8739
不明	-10.8741
▁このような	-10.8741
▁潜	-10.8743
ゆう	-10.8743
らせた	-10.8745
呼び名	-10.8745
▁読み	-10.8745
ぴったり	-10.8747
拍手	-10.8752
警察呼ぶ	-10.8752
遣い	-10.8753
書簡	-10.8754
向きの	-10.8754
旨	-10.8754
トム	-10.8754
鼓	-10.8756
祝	-10.8756
を用いて	-10.8757
公務員	-10.8757
吏	-10.8757
覇	-10.8757
紊	-10.8758
つれ	-10.8759
冒	-10.8759
姫	-10.8759
に沿って	-10.8759
ストライキ	-10.8759
兇	-10.8759
有楽町	-10.8759
Г	-10.8759
▁of	-10.8759
陳述	-10.8759
しつこく	-10.8759
樹脂	-10.8759
殺到	-10.8759
欠陥	-10.8759
めでたい	-10.876
わざわい	-10.876
教科書	-10.876
どうにか	-10.876
ネット	-10.876
及び	-10.876
グラス	-10.876
陶器	-10.8761
貴族	-10.8761
ゴール	-10.8761
社交	-10.8761
洗う	-10.8762
技師	-10.8762
編成	-10.8763
補給	-10.8763
工夫	-10.8763
最終	-10.8763
照明	-10.8764
分裂	-10.8764
表す	-10.8764
仮定	-10.8764
あくび	-10.8765
▁いえ	-10.8765
元気かいの予約変更	-10.8766
害虫	-10.8768
帳面	-10.8768
▁都市	-10.8768
親しみ	-10.877
の絵	-10.8772
▁心に	-10.8772
鱗	-10.8773
順番	-10.8774
正午	-10.8774
一行	-10.8775
▁財産	-10.8775
陸地	-10.8777
その知らせ	-10.8778
は私	-10.8779
向く	-10.878
えん	-10.8783
ダース	-10.8783
やってきた	-10.8784
90	-10.8785
いくらか	-10.8786
体制	-10.8787
牛肉	-10.8787
気圧	-10.8788
▁僕	-10.8788
おれ	-10.8789
感ずる	-10.879
法案	-10.879
人数	-10.8794
▁相手を	-10.8795
無限	-10.8799
然たる	-10.8799
につき	-10.88
ています	-10.88
部品	-10.8801
んです	-10.8803
何時	-10.8805
包	-10.8806
頂上	-10.8806
国を	-10.8808
▁元気かいの私の予約	-10.8808
一枚	-10.8809
をうまく	-10.8809
お前	-10.8811
は大	-10.8813
故	-10.8814
ができた	-10.8818
通りに	-10.882
▁後ろ	-10.882
さる	-10.8821
危険な	-10.8822
誤	-10.8825
がち	-10.8825
部門	-10.8833
それから	-10.8834
投	-10.8838
上等	-10.8839
は彼女の	-10.8841
野心	-10.8842
ぎわ	-10.8846
かち	-10.8848
陽気	-10.8849
元気かいの予約状況	-10.8849
あお	-10.8852
菊	-10.8853
腕前	-10.8855
読んで	-10.8856
伝統	-10.8856
られなかった	-10.8857
が出	-10.8858
を計る	-10.8858
を飲む	-10.8858
疎	-10.886
もっとも	-10.886
▁終	-10.886
方方	-10.8862
先例	-10.8862
じゅう	-10.8863
添え	-10.8866
間を	-10.8867
正一	-10.887
を進める	-10.8871
口論	-10.8872
前途	-10.8873
ふだん	-10.8875
の空	-10.8876
じょう	-10.8876
しっかりした	-10.888
純	-10.8882
記念	-10.8884
繭	-10.8884
結婚式	-10.8885
重大な	-10.8887
昔から	-10.8887
繰り返し	-10.8889
で売る	-10.8893
遅れる	-10.8893
出される	-10.8893
聞かせ	-10.8895
元気かいの予約状況を更新	-10.8895
▁墨	-10.8897
ろうとする	-10.8898
遅れた	-10.8898
口実	-10.8898
音を	-10.8898
とんでもない	-10.8899
夜明け	-10.8899
をあげて	-10.8907
が必要だ	-10.8907
年代	-10.8909
察	-10.8912
元気かい予約を管理	-10.8912
▁皮膚	-10.8912
だけを	-10.8912
の材料	-10.8914
を助ける	-10.8916
盲	-10.8918
▁炭	-10.8918
つくり	-10.892
天子	-10.8922
あぶ	-10.8923
▁池	-10.8925
▁教	-10.8925
▁米国	-10.8926
日中	-10.8928
まない	-10.8928
を作った	-10.893
上品	-10.8931
とること	-10.8936
固めた	-10.8937
ぶる	-10.8941
座席	-10.8941
の低い	-10.8941
と一緒に	-10.8941
眺め	-10.8942
情報を	-10.8948
納め	-10.8949
▁ええ	-10.8949
ゆき	-10.895
起こす	-10.8952
かわからない	-10.896
指図	-10.896
っくり	-10.8967
▁ふた	-10.8968
を指す	-10.8972
それぞれの	-10.8976
指定	-10.8986
腹が	-10.8989
和歌	-10.8991
等が	-10.8995
は全部	-10.8996
ありますか	-10.8997
▁節	-10.8999
吐	-10.9
その結果	-10.9
晴	-10.9003
三度	-10.9005
▁彼ら	-10.9007
恐	-10.9008
さずに	-10.9009
外れ	-10.9014
▁弓	-10.9018
楽しむ	-10.902
を教える	-10.9022
うず	-10.9022
感ずること	-10.9022
絶え	-10.9022
▁ちょう	-10.9024
邪魔	-10.9025
トラック	-10.903
▁婦人	-10.903
の方向	-10.9032
見通し	-10.9032
下手	-10.9034
土台	-10.9034
を言って	-10.9036
の基礎	-10.9037
ぶらぶら	-10.9038
アパート	-10.904
誠実	-10.9041
▁武	-10.9041
りっぱな	-10.9044
▁堅	-10.9049
メッセすぐに	-10.9052
▁旗	-10.9054
ようとして	-10.9055
▁気候	-10.906
ファ	-10.906
▁浮	-10.9062
状態にある	-10.9065
ュ	-10.9069
▁しゃ	-10.9074
睡眠	-10.9074
出する	-10.9075
んじ	-10.9075
以	-10.9076
▁彼はこの	-10.9076
区画	-10.9077
ところがある	-10.9078
▁戦闘	-10.9078
衛	-10.9079
に関して	-10.908
天皇の	-10.9083
いって	-10.9083
永	-10.9085
に入れた	-10.9086
救急車呼ぶ	-10.9086
問い	-10.9088
▁広く	-10.909
大将	-10.9091
絞	-10.9091
勤勉	-10.9091
地位に	-10.9092
柔らかく	-10.9093
審判	-10.9093
魚を	-10.9095
にしたもの	-10.9096
ましょうか	-10.9096
に入った	-10.9096
陶	-10.9096
看板	-10.9097
乙	-10.9097
ばり	-10.9099
のころ	-10.9099
蝶	-10.91
を用いる	-10.91
洗たく	-10.91
防止	-10.9101
奈良	-10.9101
冥	-10.9102
宜	-10.9102
燐	-10.9103
顕	-10.9104
聯	-10.9104
翔太	-10.9104
梁	-10.9104
艇	-10.9104
ハムレット	-10.9104
科の海魚	-10.9104
窒素	-10.9104
器械	-10.9104
璽	-10.9104
壺	-10.9104
瑠	-10.9104
陶磁器	-10.9104
タイプライター	-10.9104
▁接	-10.9104
休憩	-10.9104
陳列	-10.9104
を救う	-10.9104
タイム	-10.9104
見事な	-10.9104
存じます	-10.9105
太郎	-10.9105
解雇	-10.9105
圧迫	-10.9105
▁営業	-10.9105
体験	-10.9107
ようやく	-10.9107
ライン	-10.9108
ニア	-10.9108
を少し	-10.9109
まもなく	-10.9109
忠実	-10.9109
高低	-10.911
元気かいの予約を更新	-10.9111
元気かい予約削除	-10.9111
つづ	-10.9112
金で	-10.9112
ばち	-10.9114
大輝	-10.9114
方向に	-10.9114
▁ボート	-10.9115
観音	-10.9116
させない	-10.9117
▁向こう	-10.9118
仕切り	-10.9118
に与える	-10.9119
のもと	-10.9119
ンド	-10.912
間もなく	-10.912
針金	-10.912
を受けること	-10.9121
あちこち	-10.9122
の食事	-10.9123
正しく	-10.9124
布団	-10.9125
▁太	-10.9126
かかり	-10.9127
急ぐ	-10.913
世間に	-10.913
▁ガラス	-10.9132
▁クロ	-10.9133
ジュ	-10.9133
出勤	-10.9133
明らかに	-10.9133
結ぶ	-10.9134
きている	-10.9134
敬称	-10.9135
▁胴	-10.9138
ほうがいい	-10.9138
りません	-10.9141
題目	-10.9142
▁二重	-10.9143
厚	-10.9143
あぶない	-10.9144
知れ	-10.9144
上野	-10.9146
複雑な	-10.9146
最新	-10.9147
指導者	-10.9147
特別の	-10.9148
重量	-10.915
▁盲	-10.915
処理する	-10.9154
やく	-10.9157
元気かいの予約を管理	-10.9158
近所	-10.9162
雌	-10.9163
▁建築	-10.9164
辛	-10.9166
高熱	-10.9168
会う	-10.9171
とど	-10.9171
に来る	-10.9173
物事に	-10.9174
資	-10.9177
整	-10.9179
▁うまい	-10.9181
小型	-10.9183
めん	-10.9184
道楽	-10.9184
わからなかった	-10.9185
占め	-10.9186
をふるう	-10.9187
の者	-10.9187
▁教会	-10.9193
▁料理	-10.9193
あとで	-10.9194
かせ	-10.9194
んこ	-10.9194
▁のど	-10.9196
学部	-10.9196
▁彼女は彼	-10.9196
手足	-10.9197
▁子供たちは	-10.9198
▁昨夜	-10.9199
支払い	-10.92
ろうと	-10.92
身の上	-10.9203
かのように	-10.9204
書いたもの	-10.9204
手袋	-10.9205
てい	-10.9208
説き	-10.9208
縫う	-10.9208
注意して	-10.921
空想	-10.921
▁深く	-10.9211
ばい	-10.9211
元気かい予約状況を変更	-10.9217
▁自動	-10.9217
大会	-10.9217
盗み	-10.9221
▁デ	-10.9222
の間の	-10.9224
程度が	-10.9224
えること	-10.9225
▁ロケット	-10.9226
らく	-10.923
▁利益	-10.9232
▁登山	-10.9233
を越えて	-10.9233
ことをする	-10.9233
は決して	-10.9235
▁一日	-10.9235
邪	-10.9236
▁懐	-10.9237
ある事	-10.9237
飛	-10.9238
だし	-10.9238
刑務所	-10.924
▁モ	-10.924
を立て	-10.9245
夕食	-10.9248
序	-10.925
くち	-10.9251
▁医学	-10.9252
有効	-10.9252
▁私に	-10.9254
ほん	-10.9254
漫	-10.9256
そうじゃな	-10.9257
おこ	-10.9258
の光	-10.9258
平等	-10.9258
▁世界の	-10.9259
を呼ぶ	-10.9259
ニュース記事を	-10.9259
郵便局	-10.926
理性	-10.9261
▁選	-10.9261
定められた	-10.9262
地獄	-10.9262
蚊	-10.9263
女性の	-10.9263
ティ	-10.9265
はできない	-10.9267
室内	-10.9269
近代	-10.9269
発射	-10.9271
えび	-10.9272
最初に	-10.9273
としては	-10.9277
その金を	-10.928
を明らかにする	-10.9281
▁心の	-10.9283
処分	-10.9283
11	-10.9285
▁雨が	-10.9285
でメッセージ送信	-10.9285
▁4	-10.9285
おくこと	-10.9285
多数の	-10.9286
川口	-10.929
ーン	-10.9293
▁女の	-10.9293
をもち	-10.9295
逃	-10.9298
そのことを	-10.93
を行うこと	-10.9302
▁全く	-10.9303
にあること	-10.9304
に打ち	-10.9307
▁ゴム	-10.9309
来ること	-10.9309
こぶ	-10.9311
顔が	-10.9315
画面	-10.9316
ばん	-10.9317
ために使う	-10.9319
あんな	-10.9322
のそばに	-10.9322
のほうが	-10.9323
生地	-10.9324
が少ない	-10.9325
歌い	-10.9327
昇	-10.9327
を抑える	-10.9328
を取り除く	-10.9329
通行	-10.9331
だち	-10.9331
▁君主	-10.9331
彼も	-10.9333
の動き	-10.9335
▁戦い	-10.9346
0	-10.9346
▁なん	-10.9348
▁集団	-10.9351
つきの	-10.9352
▁良	-10.9352
▁森	-10.9352
精力	-10.9353
偽	-10.9357
を立てて	-10.936
キリスト教	-10.9362
▁寺	-10.9364
▁短い	-10.9365
を引いて	-10.9367
黙	-10.9369
けば	-10.9372
とらえる	-10.9374
が見えた	-10.9375
代金	-10.9376
国語	-10.9378
報酬	-10.9382
当局	-10.9384
の性質	-10.9384
くつ	-10.9384
▁中国	-10.9387
態度をとる	-10.9387
さわ	-10.9387
焦	-10.9388
▁各	-10.9389
規	-10.939
吹	-10.9394
アウト	-10.9396
で行う	-10.9397
工学	-10.9397
最初	-10.9399
▁中間	-10.94
募集	-10.9404
をもっている	-10.9404
顔をする	-10.9405
最低	-10.9408
▁三つ	-10.9412
年月	-10.9412
▁毎日	-10.9412
ちょっとした	-10.9413
指揮	-10.9416
助言	-10.9418
を出し	-10.9419
をとること	-10.9421
ょ	-10.9423
探	-10.9423
財布	-10.9423
集めること	-10.9424
一節	-10.9425
加減	-10.9426
のち	-10.9426
衰え	-10.9428
物資	-10.9429
▁パリ	-10.9429
がまだ	-10.9432
負傷	-10.9436
わずかに	-10.9439
時まで	-10.944
道は	-10.9442
揺れる	-10.9442
はだれ	-10.9442
に設けた	-10.9443
廷	-10.9445
▁わら	-10.9446
斜	-10.9448
便宜	-10.9448
沸	-10.9448
願います	-10.945
柔	-10.945
との間	-10.9451
を入れておく	-10.9452
にかかわる	-10.9452
簡	-10.9453
の社会	-10.9453
滞	-10.9454
あがった	-10.9455
渡した	-10.9456
原則	-10.9457
を持った	-10.9458
拳	-10.9458
賦	-10.9459
木に	-10.9459
膿	-10.9459
妄	-10.9461
達也	-10.9461
っています	-10.9461
ショック	-10.9461
塾	-10.9461
どっち	-10.9461
汚染	-10.9461
従業員	-10.9461
狼	-10.9461
四日市	-10.9461
グループ	-10.9461
纏	-10.9461
博物館	-10.9461
うろこ	-10.9461
覚悟	-10.9461
貯蔵	-10.9461
泳ぐ	-10.9462
詳細	-10.9462
園芸	-10.9462
経歴	-10.9462
警備	-10.9463
御用	-10.9463
志願	-10.9463
豆腐	-10.9463
書斎	-10.9463
街路	-10.9463
汽車	-10.9464
▁そうです	-10.9464
消防	-10.9464
策略	-10.9464
予期	-10.9464
接近	-10.9464
香料	-10.9465
内臓	-10.9466
▁降	-10.9466
法規	-10.9466
入浴	-10.9467
命題	-10.9468
曇り	-10.947
下がり	-10.947
はいけない	-10.9472
指輪	-10.9472
誓う	-10.9472
▁その男は	-10.9474
崩れ	-10.9474
女房	-10.9475
土砂	-10.9476
基地	-10.9476
囲い	-10.9479
学術	-10.948
釮呂	-10.948
局面	-10.9482
▁希望	-10.9483
神聖な	-10.9483
ビー	-10.9484
賢	-10.9484
指示	-10.9485
動植物	-10.9485
化した	-10.9486
間隔	-10.9486
まじり	-10.9487
陽子	-10.9489
角度	-10.9489
労力	-10.949
▁彼は彼女	-10.9491
▁ドア	-10.9491
助力	-10.9495
血管	-10.9496
平行	-10.9497
勝った	-10.9501
▁いまから電話かける	-10.9502
わが	-10.9503
暖	-10.9504
▁いまから電話をかける	-10.9504
▁文章	-10.9504
でメッセージを送信	-10.9507
落葉	-10.9507
心理学	-10.9509
けい	-10.9509
を造る	-10.9511
実質	-10.9514
各地	-10.9514
がよくない	-10.9514
植え	-10.9516
り込む	-10.9516
尋ねる	-10.9521
標本	-10.9521
大した	-10.9521
水で	-10.9521
掛かる	-10.9522
▁弾	-10.9523
▁蒸気	-10.9526
ざん	-10.9526
品物を	-10.9526
生存	-10.9527
によって起こる	-10.9528
旅行する	-10.9529
警戒	-10.9529
おきて	-10.953
相応	-10.953
所属	-10.953
を起こさせる	-10.9531
通った	-10.9533
生み	-10.9533
お金を	-10.9534
▁すぐに電話したい	-10.9536
表紙	-10.9536
豊かな	-10.9536
おおい	-10.9538
なぐり	-10.9538
▁植物の	-10.9538
なんだ	-10.9539
ができない	-10.9541
あげること	-10.9542
私も	-10.9545
▁世論	-10.9552
冷たい	-10.9553
▁演劇	-10.9554
こわい	-10.9556
あく	-10.9557
を合わせる	-10.9557
怒	-10.9557
口が	-10.9559
尽	-10.9561
やむ	-10.9561
抜	-10.9563
さげ	-10.9565
きき	-10.9565
ほかに	-10.9568
隆	-10.9568
もなかった	-10.9569
結局	-10.957
擦れ	-10.957
人の心	-10.9571
組み立て	-10.9572
▁略	-10.9573
ということは	-10.9574
対立	-10.9575
これで	-10.9576
へん	-10.9577
▁殺人	-10.9578
▁証拠	-10.958
頭から	-10.958
たちまち	-10.9581
の量	-10.9581
人相	-10.9588
きく	-10.9589
冬の	-10.9591
消毒	-10.9593
が出ている	-10.9595
連中	-10.9597
飲んで	-10.9598
ずり	-10.9599
荒れ	-10.9601
元気かいの予約状況を追加	-10.9601
速い	-10.9602
ひく	-10.9604
快	-10.9605
を営む	-10.9606
消す	-10.9607
▁権力	-10.9607
人生の	-10.9608
手書きメモを	-10.9611
休日	-10.9613
してもらう	-10.9614
▁貴	-10.9614
おどし	-10.9616
▁心が	-10.9619
受信	-10.9621
ライ	-10.9623
▁ホ	-10.9624
ねり	-10.9625
を放つ	-10.9628
の面	-10.9628
車で	-10.9631
日数	-10.9631
▁次	-10.9631
浄	-10.9632
軍事	-10.9633
▁消	-10.9634
が高く	-10.9634
にあり	-10.9634
かび	-10.9636
適当な	-10.9636
戒め	-10.9637
逸	-10.9637
秋に	-10.9639
蔵書	-10.9639
▁嫁	-10.964
▁・・	-10.9641
▁どんなに	-10.9641
▁計画	-10.9644
皮肉	-10.9644
に引き	-10.9646
うっかり	-10.9646
▁工場	-10.9647
説教	-10.9647
スパイ	-10.9648
人種	-10.9654
呉	-10.9655
寺院	-10.9655
一切	-10.9657
を迎える	-10.9658
くだらない	-10.9658
を十分に	-10.9658
▁規則	-10.9659
▁二人	-10.9662
▁かく	-10.9663
とめ	-10.9666
についた	-10.9667
▁物価	-10.9668
▁自己	-10.9669
どういう	-10.967
えさ	-10.967
はっきりしない	-10.9673
進め	-10.9674
用に	-10.9674
考えること	-10.9675
用いること	-10.9676
結構です	-10.9678
を許す	-10.9679
繁	-10.9679
▁恋	-10.9681
▁あちこち	-10.9683
行け	-10.9684
快楽	-10.9686
▁夕	-10.9688
地面に	-10.969
開ける	-10.9692
リング	-10.9695
▁仕	-10.9696
正確に	-10.9696
民間	-10.9703
任せ	-10.9704
無料	-10.9707
▁離	-10.9708
正面	-10.9709
大勢	-10.9711
学校へ	-10.9712
▁彼女は私に	-10.9712
が広い	-10.9712
▁深い	-10.9713
小川	-10.9717
靴下	-10.9717
偉	-10.9717
の儀式	-10.9718
様子だ	-10.972
胸に	-10.972
古代	-10.9721
クラ	-10.9722
大量	-10.9723
雨で	-10.9727
の深い	-10.9732
がわかる	-10.9734
どうしても	-10.9736
▁経験	-10.9739
に合わせて	-10.974
の三	-10.974
▁臨時	-10.9742
▁海上	-10.9743
金の	-10.9744
年度	-10.9744
▁立	-10.9745
▁神の	-10.9749
囚	-10.9749
の前で	-10.9751
今日の気温	-10.9751
ふと	-10.9752
分離	-10.9757
正体	-10.976
▁目的	-10.9764
遺憾	-10.9764
将棋	-10.9764
の最高	-10.9765
音を立てて	-10.9765
金品	-10.9766
たった	-10.9766
見方	-10.9771
で死ぬ	-10.9772
収益	-10.9773
はち	-10.9773
はなれ	-10.9775
衰	-10.9777
べた	-10.9778
女子	-10.9781
ついていた	-10.9782
▁だれ	-10.9782
取れ	-10.9785
胸が	-10.9785
▁最近	-10.9785
ll	-10.9787
主権	-10.9788
望遠鏡	-10.979
語り	-10.979
のあと	-10.979
可能性	-10.9793
器物	-10.9793
めぐり	-10.9793
にやる	-10.9793
事故で	-10.9794
▁てい	-10.9797
有利	-10.9797
かということ	-10.9799
包帯	-10.9799
出来た	-10.9799
そうして	-10.98
▁本当に	-10.9803
そこから	-10.9806
▁ほかの	-10.9807
を与えた	-10.981
なおす	-10.9811
方角	-10.9813
溶液	-10.9815
から出る	-10.9815
を演ずる	-10.9815
にしよう	-10.982
知らぬ	-10.982
づき	-10.982
昨年	-10.9821
立つこと	-10.9821
及	-10.9821
モン	-10.9821
出かけ	-10.9823
簿	-10.9823
ェ	-10.9824
論争	-10.9824
藻	-10.9825
熊	-10.9825
証書	-10.9826
惜	-10.9827
よし	-10.9828
愁	-10.983
食器	-10.983
妥協	-10.983
かという	-10.983
姦	-10.9831
杖	-10.9831
データ	-10.9831
蘭	-10.9831
ストーブ	-10.9831
澆	-10.9831
餡	-10.9831
衝撃	-10.9831
栗	-10.9831
急速に	-10.9831
かっこう	-10.9831
栄誉	-10.9831
舞踊	-10.9831
ぶつぶつ	-10.9831
雌雄異株	-10.9832
区役所	-10.9832
寿司	-10.9832
ッと	-10.9832
輪郭	-10.9832
ポンプ	-10.9832
留守	-10.9832
▁名声	-10.9832
封筒	-10.9832
鑑定	-10.9832
直ちに	-10.9833
▁理	-10.9833
未熟	-10.9833
と思います	-10.9833
立派に	-10.9833
を認める	-10.9833
恩恵	-10.9833
▁この絵は	-10.9833
検討	-10.9833
シェ	-10.9834
パイ	-10.9834
思案	-10.9834
解放	-10.9834
信念	-10.9835
育ち	-10.9835
失望	-10.9835
過程	-10.9835
怪しい	-10.9835
吉田	-10.9835
ヘビ	-10.9836
難儀	-10.9836
ホン	-10.9836
宗派	-10.9837
血統	-10.9837
判定	-10.9837
を満たす	-10.9837
素質	-10.9838
サイン	-10.9838
父母	-10.9839
パー	-10.9839
後悔	-10.9839
改めて	-10.9839
楽曲	-10.9841
容疑者	-10.9842
はずれる	-10.9843
根は	-10.9843
の流れ	-10.9845
を追う	-10.9845
すぎた	-10.9846
現われた	-10.9847
格式	-10.9847
回路	-10.9847
かまわない	-10.9848
生活費	-10.9852
広がる	-10.9852
ぐち	-10.9852
点を	-10.9854
を押し	-10.9855
永久	-10.9855
絶対	-10.9857
はありません	-10.9857
延べ	-10.9858
のですが	-10.9858
話は	-10.9858
スク	-10.9859
▁老人	-10.9859
その本	-10.9859
親類	-10.9859
▁一番	-10.9859
引っ	-10.986
おか	-10.986
金具	-10.986
知らせる	-10.9862
世代	-10.9862
行われた	-10.9862
つなぎ	-10.9862
直角	-10.9863
意向	-10.9864
市長	-10.9865
代代	-10.9865
毛皮	-10.9865
に向けて	-10.9867
地区	-10.987
▁自転車	-10.987
格子	-10.9871
ろりと	-10.9873
者たち	-10.9874
アル	-10.9875
んだろう	-10.9876
規模	-10.9876
からとった	-10.9876
▁反対	-10.9881
上級	-10.9881
場合には	-10.9884
達者	-10.9886
言わない	-10.9887
にしておく	-10.9889
はいかがですか	-10.9889
▁ほんの	-10.9889
は必ず	-10.9891
▁相撲で	-10.9895
釣	-10.9895
二度	-10.9899
作られた	-10.9899
年金	-10.9902
ございます	-10.9903
ある事柄	-10.9906
を共にする	-10.9907
▁ちょっとした	-10.9907
▁傷	-10.9908
並んで	-10.9909
メッセをすぐに	-10.9912
っ子	-10.9913
のあるもの	-10.9913
ドン	-10.9914
▁勘定	-10.9918
心身	-10.9919
行ける	-10.9919
住まい	-10.9921
を通る	-10.9924
をいだく	-10.9925
リスト	-10.9926
▁前もって	-10.9926
▁既	-10.9926
▁すべて	-10.9927
クリ	-10.9928
わび	-10.9929
▁へい	-10.9929
となるもの	-10.9933
党の	-10.9934
通っている	-10.9937
家来	-10.9939
ちょっと送信	-10.9939
ーション	-10.994
が悪いこと	-10.9941
限度	-10.9941
決めること	-10.9946
▁ごく	-10.9946
木製の	-10.9947
きざ	-10.9952
思いやり	-10.9952
さば	-10.9953
心は	-10.9953
▁電車	-10.9955
それより	-10.9956
に合わない	-10.9959
水平	-10.9959
が上がる	-10.996
かなかった	-10.9962
で買う	-10.9964
決めた	-10.9966
動かない	-10.9966
用品	-10.9968
▁ああ	-10.9969
あけた	-10.997
▁我々	-10.9972
呼んで	-10.9973
個の	-10.9974
認め	-10.9975
に入れ	-10.9976
を下す	-10.9976
時節	-10.9978
使える	-10.9978
すべきだ	-10.9984
犬を	-10.9987
困難な	-10.9988
▁親の	-10.9992
▁偽	-10.9992
それをした	-10.9994
を唱える	-10.9995
ものもある	-10.9996
▁お前	-11
誰	-11.0001
安楽	-11.0001
心配事	-11.0003
日本では	-11.0009
打者	-11.0011
ばな	-11.0011
るほど	-11.0011
現れる	-11.0012
しゅ	-11.0013
さめ	-11.0017
ようだった	-11.002
先生の	-11.0021
はん	-11.0022
もらい	-11.0022
▁荷物	-11.0024
度合	-11.0027
気力	-11.0027
こけ	-11.0031
▁読書	-11.0032
立候補	-11.0034
▁蚊	-11.0038
▁近くの	-11.0038
労働組合	-11.0038
▁一体	-11.0041
▁旅館	-11.0042
▁水が	-11.0044
両方	-11.0045
▁月の	-11.0045
馬の	-11.0045
▁空腹	-11.0046
本を読む	-11.0046
動脈	-11.0047
▁稲	-11.0047
は皆	-11.005
大部分	-11.0052
飾	-11.0053
を突き	-11.0055
はある	-11.0056
の席	-11.0057
詳しく	-11.0059
握り	-11.0059
方法で	-11.006
の女性	-11.0061
スミス	-11.0063
代々木	-11.0064
疑問	-11.0064
▁会議	-11.0064
ミサイル	-11.0066
立てること	-11.0067
奏者	-11.0069
泡	-11.0069
碁	-11.007
憲法	-11.0072
悪魔	-11.0073
医療	-11.0074
煩	-11.0074
可	-11.0075
ではないが	-11.0076
入れて	-11.0077
いたり	-11.0077
子供の	-11.0078
染める	-11.0078
その事	-11.0079
こともある	-11.008
請	-11.0081
猿	-11.0083
巨	-11.0085
▁彼は英語	-11.0085
水泳	-11.0086
解決する	-11.0087
ままに	-11.0088
絵美	-11.0088
に出ている	-11.0089
多分	-11.009
どん	-11.0092
▁結局	-11.0092
すぐに電話をかける	-11.0093
の時に	-11.0098
ニュースアプリを	-11.0098
in	-11.0102
輩	-11.0103
が少し	-11.0112
の意見	-11.0112
塗った	-11.0112
方へ	-11.0114
くない	-11.0114
▁S	-11.0115
いい加減	-11.0115
あがる	-11.0116
聖人	-11.0126
あえ	-11.0128
全国	-11.0129
▁流れ	-11.0133
っちり	-11.0133
比例	-11.0133
▁現在の	-11.0134
与えること	-11.0134
▁民間	-11.0136
▁景気	-11.0136
厳重に	-11.0137
聞いた	-11.0137
▁世の中	-11.0138
▁勇	-11.0138
帳簿	-11.0138
人人の	-11.014
くみ	-11.0141
囚人	-11.0144
砕	-11.0145
▁明るい	-11.0145
思った	-11.0145
試	-11.0145
かめ	-11.0147
選び	-11.0148
を向ける	-11.0152
月の	-11.0152
にすぎない	-11.0153
滞在	-11.0154
が低い	-11.0157
▁鶏	-11.0158
▁計算機	-11.0159
に多く	-11.0161
説明する	-11.0161
はしばしば	-11.0163
が集まって	-11.0166
▁多数の	-11.0171
慣れ	-11.0171
ありがとう	-11.0172
ものとして	-11.0173
▁遊び	-11.0173
いても	-11.0175
女王	-11.0175
けん	-11.0176
水に	-11.0178
ことば	-11.0178
▁訴訟	-11.0179
込んでいる	-11.018
古くから	-11.018
倒れる	-11.0181
体系	-11.0181
増し	-11.0182
▁衣服	-11.0183
▁群	-11.0184
珠	-11.0185
地中に	-11.0187
▁車は	-11.0187
火災	-11.0189
酒を飲む	-11.0189
一人の	-11.019
つぶし	-11.0191
▁浅	-11.0193
耕	-11.0193
をもたらす	-11.0194
ふう	-11.0197
そっくり	-11.0197
でん	-11.0198
フライ	-11.0198
すごく	-11.0199
それだけ	-11.0199
いじ	-11.0199
消費	-11.0201
のほか	-11.0201
遊ぶ	-11.0202
技芸	-11.0202
をもらう	-11.0203
忠	-11.0203
用いられる	-11.0203
郎	-11.0204
気管	-11.0204
けれど	-11.0206
経過	-11.0206
軌	-11.0207
久	-11.0207
違	-11.021
由	-11.021
歌舞伎	-11.021
爵	-11.021
があります	-11.021
争う	-11.0211
の型	-11.0211
ふるい	-11.0212
閲	-11.0212
まとまった	-11.0212
翔	-11.0213
秀	-11.0213
曹	-11.0214
渦	-11.0215
捕虜	-11.0215
崇拝	-11.0216
はいけません	-11.0216
釘	-11.0216
悗	-11.0216
ウサギ	-11.0216
桁	-11.0216
繋	-11.0216
凌	-11.0216
疲労	-11.0216
紹介	-11.0216
陵	-11.0216
ダイヤモンド	-11.0216
デザイン	-11.0216
皇后	-11.0216
の異称	-11.0216
脅迫	-11.0216
▁金を	-11.0216
熟練	-11.0216
スペイン	-11.0216
庶民	-11.0216
姉妹	-11.0216
修繕	-11.0216
多量の	-11.0217
当事者	-11.0217
サイズ	-11.0217
議決	-11.0217
にかなう	-11.0218
に比べて	-11.0218
▁んーメモ	-11.0218
民主主義	-11.0218
突起	-11.0219
▁びん	-11.0219
によらず	-11.022
うそをつく	-11.022
まじめ	-11.022
育つ	-11.0221
四つ	-11.0222
それ以上	-11.0222
原始	-11.0223
撃ち	-11.0223
衆生	-11.0223
ブル	-11.0224
よりどころ	-11.0224
産卵	-11.0224
交代	-11.0225
採用	-11.0225
▁はしご	-11.0226
近ごろ	-11.0227
風刺	-11.0228
日付	-11.0228
せて	-11.0229
こぶし	-11.023
無駄	-11.023
身振り	-11.023
入りの	-11.0231
ああ	-11.0231
体格	-11.0232
さっぱり	-11.0233
薬剤	-11.0235
伝言	-11.0236
許し	-11.0237
離れて	-11.0237
彼女が	-11.0237
▁りょう	-11.0237
解剖	-11.0237
特色	-11.0237
占領	-11.0238
どっと	-11.0239
パイプ	-11.024
目方	-11.0241
ケアマネちゃん	-11.0242
寝室	-11.0243
年ごろ	-11.0247
固い	-11.0248
家から	-11.0248
光る	-11.0249
きまった	-11.0249
図形	-11.025
▁独り	-11.0251
▁どうして	-11.0257
母の	-11.026
ねらい	-11.026
じきに	-11.026
有利な	-11.0263
▁この辺	-11.0263
眠っている	-11.0265
側に	-11.0267
ごらん	-11.0267
湿気	-11.0268
境地	-11.0269
しも	-11.027
専用	-11.027
奇妙な	-11.0271
どのように	-11.0273
診断	-11.0275
その日	-11.0276
農家	-11.0277
そうなる	-11.0279
の外	-11.028
親切な	-11.028
頭部	-11.0283
▁水中	-11.0285
主要な	-11.0285
疲れた	-11.0287
本位	-11.0287
パス	-11.0288
並べて	-11.0291
くし	-11.0295
▁情	-11.0296
歳の	-11.0296
刺し	-11.0299
致しま	-11.0299
中から	-11.0301
通ずる	-11.0302
が彼	-11.0308
▁使い	-11.0308
怒る	-11.0309
はみな	-11.0309
を書いた	-11.0311
▁病人	-11.0313
を言い	-11.0313
続けた	-11.0313
▁わずかな	-11.0316
輸入	-11.0317
▁仲	-11.0321
伝わる	-11.0322
▁うまく	-11.0323
時々	-11.0323
を下げる	-11.0324
ことができた	-11.0325
親子	-11.0327
花火	-11.0327
▁ローマ	-11.0327
▁切	-11.0328
を広げる	-11.033
▁夜間	-11.0331
青色	-11.0332
の部屋	-11.0333
▁ぼく	-11.0334
やけ	-11.0336
免	-11.0337
降りる	-11.0339
▁紅	-11.0341
向いて	-11.0343
きび	-11.0346
▁彼はそれを	-11.0347
個個の	-11.0347
除け	-11.0347
▁可	-11.0347
それをする	-11.0348
▁その問題は	-11.0348
中です	-11.0349
▁飛び	-11.035
花屋	-11.0351
▁投	-11.0351
▁逃げ	-11.0352
年末	-11.0355
などのために	-11.0356
とりで	-11.0356
抱え	-11.0356
▁野球	-11.0358
▁受	-11.0359
かたち	-11.036
めく	-11.0363
かおり	-11.0365
学年	-11.0366
向かう	-11.0367
▁正直	-11.0371
礼服	-11.0372
生きる	-11.0373
▁麻	-11.0373
で使う	-11.0373
てやる	-11.0375
▁馬の	-11.0375
こむこと	-11.0375
書面	-11.0377
会った	-11.0377
▁城	-11.0381
▁一時	-11.0382
紅色	-11.0383
品を	-11.0383
女中	-11.0383
▁受け	-11.0384
土を	-11.0385
▁土地の	-11.0387
にかかっている	-11.0387
しまって	-11.0389
じま	-11.039
宴	-11.0392
に応じる	-11.0393
▁それでは	-11.0395
の間を	-11.0395
アン	-11.0398
重み	-11.0398
を得て	-11.0399
意味を	-11.0404
▁彼は今	-11.0405
のうちで	-11.0405
の一番	-11.0407
▁豆	-11.0412
っちゃ	-11.0412
つば	-11.0413
休む	-11.0415
トレ	-11.0418
電球	-11.0418
ぶつ	-11.0422
解け	-11.0425
見ると	-11.0426
受け取る	-11.0426
一座	-11.0427
とめること	-11.0428
を敷く	-11.0429
産する	-11.0429
冒険	-11.0432
薬を	-11.0432
ようになっている	-11.0433
▁空中	-11.0433
英語の	-11.0433
▁元気かい予約	-11.0434
▁インフレ	-11.0435
極めて	-11.0438
だま	-11.0439
候補	-11.0441
は私に	-11.0444
を傷つける	-11.0445
ヘ	-11.0445
を使い	-11.0446
と言い	-11.0446
鋼鉄	-11.0446
▁長期	-11.0451
を忘れ	-11.0451
▁りんご	-11.0453
すね	-11.0454
心臓	-11.0455
いれ	-11.0455
悪いこと	-11.0456
煮え	-11.0456
有毒	-11.0457
を増す	-11.046
I	-11.0461
ここで	-11.0464
だれか	-11.0464
物事をする	-11.0465
欲しい	-11.0466
攻撃する	-11.047
気風	-11.0471
見当	-11.0471
納得	-11.0471
▁恐怖	-11.0471
強硬	-11.0473
まらない	-11.0474
一般の	-11.0474
あだ	-11.0474
奉仕	-11.0475
に着いた	-11.0476
機械の	-11.0476
▁地下	-11.0476
▁この種の	-11.0479
大切	-11.0479
▁何の	-11.048
補助	-11.048
吸	-11.0481
買って	-11.0482
▁給料	-11.0482
連れて	-11.0489
面に	-11.049
硬	-11.0497
闇	-11.0497
すえ	-11.0499
お医者ちゃん	-11.0501
しそう	-11.0503
透	-11.0503
とった	-11.0505
動力	-11.0507
グラフ	-11.0508
軍艦	-11.0508
えている	-11.0509
自分に	-11.051
に終わる	-11.051
競馬	-11.0512
固体	-11.0514
▁平塚	-11.0514
じゃま	-11.0515
分けること	-11.0517
▁彼は彼女に	-11.0517
▁国家の	-11.0518
申し込み	-11.0518
二つ以上の	-11.0518
▁盛	-11.0521
三十	-11.0522
乗客	-11.0522
出さない	-11.0523
▁夕方	-11.0523
▁大衆	-11.0524
水中	-11.0524
中国で	-11.0527
を捜す	-11.0527
て作った	-11.0527
飽	-11.0529
人類	-11.053
一方の	-11.0531
の頭	-11.0534
その人の	-11.0534
商品を	-11.0534
▁貸し	-11.0535
ぬけ	-11.0538
振る	-11.0541
植える	-11.0544
一人で	-11.0545
森林	-11.0547
美しいこと	-11.0547
おさめ	-11.0548
酸化	-11.0551
がっている	-11.0551
を離れて	-11.0552
かたい	-11.0556
言い分	-11.0557
▁賞	-11.0557
慕	-11.0557
添	-11.0557
▁何となく	-11.0557
▁たとえ	-11.0558
▁あれは	-11.0562
な話	-11.0562
に満ちた	-11.0562
▁今日の天気予報	-11.0568
演奏する	-11.057
の準備	-11.0571
触れる	-11.058
踊る	-11.0583
ウイルス	-11.0583
認める	-11.0584
良心	-11.0588
▁手紙を	-11.0589
速さ	-11.0591
磁	-11.0592
災	-11.0593
醜	-11.0593
維持	-11.0594
▁偶然	-11.0597
吉	-11.0597
なくても	-11.06
頼り	-11.06
見えた	-11.0602
たての	-11.0603
五十	-11.0604
収集	-11.0604
に思う	-11.0604
手前	-11.0605
締まった	-11.0605
一生懸命	-11.0606
洞	-11.0606
節約	-11.0607
状態で	-11.0608
▁書物の	-11.0608
ないでください	-11.0608
引用	-11.0609
岡	-11.061
サン	-11.061
あとから	-11.0611
煮た	-11.0611
糧	-11.0611
芳香	-11.0612
撮影	-11.0613
潤	-11.0614
▁for	-11.0614
劼	-11.0614
監視	-11.0614
瞭	-11.0614
希	-11.0614
蓮	-11.0614
廃止	-11.0615
繩	-11.0615
ふち	-11.0615
旬	-11.0615
伐	-11.0616
資源	-11.0616
笠	-11.0616
宵	-11.0616
蛾	-11.0616
椶	-11.0616
遍	-11.0616
桶	-11.0616
佐々木	-11.0616
北海道	-11.0616
市ヶ谷	-11.0616
柿	-11.0616
ジョーンズ	-11.0616
動揺	-11.0616
颪	-11.0616
鮓	-11.0616
漢方薬	-11.0616
宣言	-11.0616
の持ち主	-11.0617
を伴う	-11.0617
領域	-11.0617
叩き	-11.0617
警告	-11.0617
接触	-11.0618
徹底的に	-11.0618
討議	-11.0618
超過	-11.0618
直径	-11.0618
登録	-11.0618
ヒット	-11.0618
往来	-11.0619
▁割	-11.0619
弁舌	-11.062
カラー	-11.062
付近	-11.062
切れる	-11.0621
を有する	-11.0621
石けん	-11.0621
運営	-11.0622
炭素	-11.0622
やわらかい	-11.0622
を奪う	-11.0622
戻す	-11.0622
茶わん	-11.0623
ところを	-11.0624
▁従	-11.0626
ケアマネさん	-11.0627
ぐっと	-11.0628
幸子	-11.0629
飲んだ	-11.0632
外観	-11.0633
だれが	-11.0633
を伸ばす	-11.0634
自治	-11.0634
を固める	-11.0634
▁この車は	-11.0635
雇用	-11.0635
ある人	-11.0636
上位	-11.0636
会談	-11.0636
▁ヘルパー	-11.0637
またその人	-11.0637
街道	-11.064
赤ちゃん	-11.064
マイ	-11.0641
廻	-11.0641
正確な	-11.0642
情熱	-11.0645
船橋	-11.0645
▁わき	-11.0645
代表的な	-11.0647
馴れ	-11.0647
質量	-11.0647
仕上げる	-11.0648
機関車	-11.0648
ダイ	-11.0649
それをする人	-11.0649
▁高い	-11.0649
台風	-11.0649
▁あの人の	-11.065
▁ハイ	-11.0651
▁違う	-11.0653
を聞いた	-11.0656
▁島	-11.0656
ものはない	-11.0656
刻み	-11.0656
磁石	-11.0658
焦げ	-11.0658
はじめて	-11.0659
社会的	-11.066
て下さい	-11.0661
山林	-11.0661
変化する	-11.0661
は一	-11.0664
不快	-11.0666
骨折り	-11.0666
かせた	-11.0668
地所	-11.0668
費用を	-11.0669
▁ポ	-11.0669
フランス	-11.067
名称	-11.067
相違	-11.067
▁人民	-11.0671
洗礼	-11.0672
▁甲	-11.0672
大使	-11.0673
みつ	-11.0676
割引	-11.0677
現世	-11.0679
生計	-11.0679
馬車	-11.068
ついに	-11.0682
▁実験	-11.0682
取り上げる	-11.0683
麻薬	-11.0685
客に	-11.0685
臭気	-11.0687
するもの	-11.0688
巧みな	-11.0688
を作って	-11.0689
▁独	-11.0689
目的地	-11.0696
とされる	-11.0697
を支配する	-11.0699
▁医者	-11.07
のしかた	-11.0701
支払う	-11.0702
席を	-11.0703
▁あの人	-11.0709
いかない	-11.0713
土地を	-11.0713
ばかな	-11.0715
栽培する	-11.0717
ぐさ	-11.0718
元気かいの予約状況を変更	-11.0719
▁競	-11.072
に訴える	-11.0721
▁町の	-11.0721
の第	-11.0723
巧みに	-11.0725
▁飛行機	-11.0729
▁しゅ	-11.0733
形を	-11.0736
周囲に	-11.0737
▁折	-11.0737
いり	-11.074
押して	-11.0742
▁大勢	-11.0743
車に	-11.0743
▁キリスト教	-11.0744
▁新たに	-11.0745
直接に	-11.0747
精神的	-11.0748
が同じ	-11.0749
二十	-11.075
▁子供を	-11.0751
正式に	-11.0753
返る	-11.0754
なが	-11.0757
すら	-11.0758
法定	-11.0759
▁賃金	-11.0759
うる	-11.076
▁人工	-11.076
去った	-11.0762
ばかりだ	-11.0764
作ったもの	-11.0764
を組む	-11.0766
▁トランプ	-11.0771
意地悪	-11.0771
一歩	-11.0776
は非常に	-11.0777
へりくだって言う語	-11.0778
関数	-11.0779
ファン	-11.0781
を隠す	-11.0783
を買って	-11.0786
香気	-11.0786
▁おお	-11.0788
追放	-11.0789
だと思う	-11.0795
もとになる	-11.0798
まっすぐ	-11.0798
▁掛け	-11.0799
ものであること	-11.08
の病気	-11.0801
伸びる	-11.0804
昇進	-11.0804
登	-11.0804
▁熟	-11.0806
立ち去る	-11.0807
乗り物	-11.0808
本来の	-11.0808
▁裁判	-11.0811
人工	-11.0811
剥	-11.0813
議事	-11.0815
知性	-11.0816
トロ	-11.0816
▁猛	-11.0822
▁川の	-11.0824
ケアマネ	-11.0827
▁中国の	-11.0832
長官	-11.0833
▁ちょっと電話する	-11.0834
ように見える	-11.0834
ふさが	-11.0835
の形式	-11.0837
に従事する	-11.0837
くさい	-11.0839
等しい	-11.0839
た人	-11.0839
煮る	-11.084
覚えている	-11.0842
▁頭を	-11.0842
我々を	-11.0844
うんざり	-11.0845
斜面	-11.0847
▁近代	-11.0848
▁速	-11.0849
先が	-11.0851
誘惑	-11.0857
▁ユ	-11.0859
呼	-11.086
を振る	-11.0862
はだめだ	-11.0863
▁国会	-11.0865
バイ	-11.0866
似た	-11.0867
▁ぶどう	-11.0871
まち	-11.0871
ばかりで	-11.0871
▁水上	-11.0873
窓から	-11.0876
▁実際の	-11.0876
かわい	-11.0877
▁悲しみ	-11.0877
するだろう	-11.0878
▁標準	-11.0879
▁強く	-11.0879
▁わが国	-11.088
25	-11.0884
▁借金	-11.0885
▁軍事	-11.0885
要点	-11.0888
▁はっきりと	-11.0888
今日の天気予報	-11.0889
変わらない	-11.0889
病気が	-11.089
▁八	-11.0901
わずかな	-11.0901
▁夏の	-11.0902
ためしに	-11.0904
依頼	-11.0904
下り	-11.0905
地下	-11.0905
▁売	-11.0906
いまから電話する	-11.0906
共同	-11.0907
再生	-11.0907
小道	-11.0908
キリスト	-11.0908
るもの	-11.091
▁乗り	-11.0911
を見つける	-11.0911
気づか	-11.0913
ケアマネージャ	-11.0916
▁沈	-11.0917
利き	-11.0917
▁幼	-11.0919
▁上着	-11.092
償	-11.092
を寄せる	-11.0921
▁全体	-11.0924
を持たない	-11.0925
食べて	-11.0926
に働く	-11.0927
タイプ	-11.0928
▁本を	-11.0928
誕生日	-11.0932
守ること	-11.0932
▁古代	-11.0934
礼拝	-11.0934
▁英語の	-11.0936
その地方	-11.0937
対抗	-11.0937
を言った	-11.0938
▁プロ	-11.0939
頼	-11.0941
報い	-11.0942
▁気温	-11.0942
ちょうどよい	-11.0946
▁机	-11.0947
粗末な	-11.0948
危	-11.0949
膝	-11.0949
並べた	-11.095
礼儀	-11.0951
貧困	-11.0952
飾る	-11.0953
をあけて	-11.0956
禅	-11.0956
お世辞	-11.0956
an	-11.0957
昼食	-11.0957
たまった	-11.0958
総合	-11.0959
っていった	-11.0962
恋愛	-11.0962
元気かいの俺の予約	-11.0962
さまざま	-11.0963
隔	-11.0963
▁彼は病気	-11.0963
文芸	-11.0964
にまで	-11.0965
を忘れる	-11.0966
帰って	-11.0968
の建物	-11.0968
▁食糧	-11.0969
▁準	-11.0971
▁猫は	-11.0972
暴力	-11.0972
出世	-11.0977
発生する	-11.098
▁貧	-11.0981
を与えて	-11.0982
複雑	-11.0983
つくった	-11.0983
合併	-11.0984
万物	-11.0985
金を使う	-11.0985
何度も	-11.0986
慈悲	-11.0986
いまから電話したい	-11.0987
刑事	-11.0988
▁まったくの	-11.099
借りた	-11.0991
▁からだ	-11.0991
スキー	-11.0992
なしで	-11.0994
▁人種	-11.0995
生える	-11.0995
賛	-11.0995
狭く	-11.0995
光の	-11.0996
▁信用	-11.0998
展	-11.0999
彼らに	-11.0999
団結	-11.0999
太く	-11.0999
すぐに電話したい	-11.0999
蒸気	-11.1
制服	-11.1001
▁魔	-11.1003
巻く	-11.1004
掃	-11.1004
伝えること	-11.1005
を貸す	-11.1006
れていた	-11.1008
っていく	-11.1009
拠	-11.1012
を詰める	-11.1013
▁竜	-11.1014
おうと	-11.1014
回って	-11.1015
長所	-11.1015
をひく	-11.1015
うわべ	-11.1016
▁笑い	-11.1016
▁me	-11.1016
儒	-11.1016
重なる	-11.1017
物音	-11.1019
舞い	-11.102
なくてはならない	-11.1021
▁すべての	-11.1022
▁it	-11.1022
ジャ	-11.1023
を振り	-11.1023
兆	-11.1023
一文	-11.1024
蕨	-11.1024
偶	-11.1024
のではない	-11.1025
▁フランス	-11.1026
大事に	-11.1026
間に合う	-11.1026
僚	-11.1026
側面	-11.1026
鑑	-11.1026
許す	-11.1027
河川	-11.1027
あな	-11.1027
模範	-11.1028
括	-11.1029
江	-11.1029
三郎	-11.103
邸	-11.103
免許	-11.1031
サラダ	-11.1031
石灰	-11.1032
誌	-11.1032
はなはだしい	-11.1032
▁相撲	-11.1032
開始	-11.1032
櫃	-11.1032
詐欺	-11.1032
督	-11.1033
適応	-11.1033
ゾ	-11.1033
唾	-11.1033
屑	-11.1033
落ち着かない	-11.1033
鹿児島	-11.1033
嵐	-11.1033
稔	-11.1033
働いている	-11.1033
鮗	-11.1033
鷲	-11.1033
の中には	-11.1033
佳	-11.1033
にもかかわらず	-11.1033
せっけん	-11.1033
▁そいつは	-11.1033
余裕	-11.1033
広がり	-11.1033
をしない	-11.1033
思慮	-11.1034
プール	-11.1034
採決	-11.1034
▁このあたり	-11.1034
移植	-11.1034
すべり	-11.1034
供養	-11.1034
土壌	-11.1034
審理	-11.1034
拒絶	-11.1034
冷却	-11.1034
断わる	-11.1034
麻酔	-11.1035
起訴	-11.1035
を高める	-11.1035
諸島	-11.1036
一心に	-11.1036
ダム	-11.1036
陣営	-11.1036
詳しい	-11.1036
ならわし	-11.1036
弁当	-11.1036
談判	-11.1036
感想	-11.1037
セ氏	-11.1037
▁液体	-11.1038
ことには	-11.1038
推論	-11.1039
追跡	-11.1039
定まった	-11.104
配給	-11.104
まともに	-11.104
科の鳥	-11.1041
修正	-11.1041
色彩	-11.1042
能率	-11.1042
ペンス	-11.1043
何時間も	-11.1043
▁不思議な	-11.1043
共有	-11.1043
祖先	-11.1044
ひろ	-11.1044
画像	-11.1044
けれども	-11.1044
までの間	-11.1045
続け	-11.1045
を過ごす	-11.1046
死体	-11.1047
代わりに	-11.1047
を振るう	-11.1047
▁干	-11.1048
早春	-11.1048
そく	-11.1049
れんが	-11.105
善悪	-11.105
中国原産	-11.105
自在	-11.1051
どうやって	-11.1052
天地	-11.1054
気象	-11.1054
設ける	-11.1056
奥さん	-11.1056
校長	-11.1057
▁壁に	-11.1059
毛布	-11.1062
は彼が	-11.1062
やってくる	-11.1065
一気に	-11.1065
氏名	-11.1067
流す	-11.1069
料理屋	-11.1071
に乏しい	-11.1073
親しい	-11.1074
外国人	-11.1074
▁早く	-11.1074
かぎり	-11.1076
▁やっと	-11.1077
一族	-11.108
▁ろう	-11.1081
▁強い	-11.1081
になるもの	-11.1084
▁拝	-11.1086
こな	-11.1087
中野	-11.1087
破り	-11.1089
交差	-11.109
なぜ	-11.109
▁男の	-11.1091
あける	-11.1092
木の枝	-11.1093
を犯す	-11.1094
音を立てる	-11.1096
▁海外	-11.1096
子孫	-11.1097
酸性	-11.1098
用法	-11.11
ぶき	-11.1101
死を	-11.1105
の時代	-11.1105
落とした	-11.1105
トラ	-11.1106
すわった	-11.1107
▁観	-11.1108
巻いた	-11.1111
▁二つ以上の	-11.1111
▁市場	-11.1111
▁機会	-11.1112
▁列	-11.1112
だけだった	-11.1114
発車	-11.1115
両面	-11.1116
責め	-11.1118
学校で	-11.1118
成り	-11.1121
の成績	-11.1121
の一人	-11.1124
専門家	-11.1128
テレビで	-11.1128
退く	-11.1129
▁ケアマネージャ	-11.1129
もく	-11.113
の少ない	-11.1131
ar	-11.1133
▁彼らが	-11.1135
の布	-11.1135
▁ぼ	-11.1138
ご親切	-11.1138
▁この仕事は	-11.1139
集める	-11.114
公正	-11.1143
とかく	-11.1144
を消す	-11.1149
すわり	-11.1149
飲み物	-11.115
建てた	-11.115
▁年の	-11.1151
▁張り	-11.1151
定めること	-11.1151
遠くまで	-11.1153
出ている	-11.1153
▁難	-11.1156
▁奉	-11.116
やってみ	-11.1163
肉体	-11.1163
国民の	-11.1164
▁食事	-11.1164
▁全部	-11.1164
口調で	-11.1166
んでいた	-11.1167
いません	-11.1169
の練習	-11.117
ガン	-11.117
▁ほう	-11.1174
去ること	-11.1174
合金	-11.1175
当地	-11.1177
全面	-11.1179
真の	-11.1179
▁天皇が	-11.118
できません	-11.1182
忘れる	-11.1183
がさ	-11.1183
そこまで	-11.1183
▁君たち	-11.1184
▁水泳	-11.1185
と思っていた	-11.1185
▁汗	-11.1185
▁その計画は	-11.1187
▁以前	-11.1188
をひどく	-11.1188
金は	-11.1189
▁食卓	-11.1191
▁あす	-11.1194
▁彼女は彼に	-11.1196
てもらいたい	-11.1196
存する	-11.1198
暗やみ	-11.1198
お手	-11.1199
国家が	-11.1201
外国から	-11.1201
やせ	-11.1202
行きます	-11.1202
▁商品	-11.1205
差し出す	-11.1206
子供が	-11.1207
太り	-11.1209
楽な	-11.121
は私には	-11.121
割合	-11.1211
アメリカ人	-11.1211
▁いまからメッセ	-11.1211
所がある	-11.1212
きたない	-11.1212
▁人は	-11.1212
字形	-11.1213
▁晩	-11.1215
を覆う	-11.1218
は我々	-11.1221
▁筋肉	-11.1225
▁安全チェック	-11.1227
純粋	-11.123
▁階段	-11.123
▁陽	-11.123
▁付け	-11.1234
停車	-11.1234
多いこと	-11.1235
▁少年	-11.1236
が激しく	-11.1236
ひた	-11.1241
対等	-11.1241
に耐える	-11.1243
憲	-11.1246
つかない	-11.1246
▁飛	-11.1248
いすに	-11.1251
▁風は	-11.1251
受け入れる	-11.1251
遇	-11.1252
新年	-11.1256
腫	-11.1257
▁勢い	-11.1257
の身	-11.1258
の妻	-11.1261
魚の	-11.1262
▁中央	-11.1262
▁助	-11.1263
を変えること	-11.1265
▁人気	-11.1265
千人	-11.1266
家で	-11.1269
▁踏み	-11.1269
社会主義	-11.1271
ほし	-11.1272
しています	-11.1274
▁ボ	-11.1275
▁会員	-11.1282
▁小川	-11.1283
安く	-11.1283
いれる	-11.1284
目下	-11.1284
天気予報	-11.129
▁酒を	-11.1294
▁実際に	-11.1295
ものを言う	-11.1295
▁ある人	-11.1296
▁返	-11.1296
を変えて	-11.1297
もって	-11.1299
て行く	-11.13
メッセいまから	-11.13
▁時計を	-11.13
近づく	-11.1301
に直接	-11.1302
▁順序	-11.1306
▁六	-11.1307
注目	-11.1307
たって	-11.1308
焼いて	-11.1308
離れた	-11.1309
遅く	-11.131
▁今の	-11.1311
枯	-11.1314
▁市役所	-11.1315
品位	-11.1316
▁そんなことは	-11.1317
争うこと	-11.132
意を表す	-11.1321
されていない	-11.1328
隔て	-11.1329
喜	-11.133
ボートを	-11.1332
をもった	-11.1332
学ぶ	-11.1332
毛織物	-11.1332
▁だれかが	-11.1333
▁うわさ	-11.1333
直すこと	-11.1335
▁□・	-11.1336
務め	-11.1336
が見える	-11.1339
秋の	-11.1341
求める	-11.1341
返して	-11.1342
おち	-11.1343
―	-11.1347
数の	-11.1347
かけら	-11.1347
の品	-11.1353
▁雪が	-11.1354
川の	-11.1355
調節	-11.1358
顧	-11.136
▁町田	-11.136
腕に	-11.1364
▁皇	-11.1365
を始めた	-11.1366
を催す	-11.1368
学説	-11.1369
▁手紙の	-11.1369
▁ペン	-11.137
マス	-11.1374
やること	-11.1377
テレビの	-11.1381
にふさわしい	-11.1384
他国	-11.1386
▁子供の	-11.1387
痛む	-11.1387
図書	-11.1391
at	-11.1393
に当たった	-11.1394
指で	-11.1395
▁三角	-11.1395
ぜいたく	-11.1397
▁フォ	-11.1398
工作	-11.1401
驚	-11.1402
▁俺の元気かい予約	-11.1403
▁カーテン	-11.1403
▁照	-11.1404
▁鉛筆	-11.1404
にせ	-11.1404
るようにする	-11.1404
わずかの	-11.1405
レン	-11.1406
▁ねじ	-11.1408
▁いまから電話する	-11.1408
の法則	-11.1409
初期	-11.1412
▁特別に	-11.1414
▁休暇	-11.1414
大体の	-11.1414
浜	-11.1417
▁相手に	-11.1417
▁皮	-11.1418
お辞儀	-11.1418
を引き起こす	-11.1419
▁投票	-11.1419
果て	-11.1419
▁大声で	-11.1423
賞賛	-11.1424
担当	-11.1424
充	-11.1424
▁伝	-11.1424
弁解	-11.1424
を表す語	-11.1424
統計	-11.1425
返り	-11.1426
仙	-11.1426
トンネル	-11.1427
学期	-11.1428
▁重い	-11.1428
は日本	-11.1429
民衆	-11.143
故郷	-11.143
佐	-11.1431
パーティーに	-11.1433
三人	-11.1434
飼	-11.1434
▁火の	-11.1434
うそつき	-11.1434
頬	-11.1435
電信	-11.1436
拙	-11.1436
傍	-11.1437
井戸	-11.1438
遅刻	-11.1438
患	-11.144
▁推	-11.1444
異議	-11.1444
ざる	-11.1444
社会の	-11.1444
役割	-11.1445
りょう	-11.1445
漆	-11.1446
楽に	-11.1446
陸軍	-11.1446
推	-11.1447
真偽	-11.1447
▁捨て	-11.1449
就	-11.1449
仏像	-11.145
足の	-11.1451
気持が	-11.1452
家事	-11.1455
巾	-11.1455
架	-11.1456
救急車呼びに電話	-11.1457
もてなす	-11.1458
謡	-11.1459
援	-11.1459
釈	-11.146
世に	-11.1461
教室	-11.1461
ヨット	-11.1461
規準	-11.1462
為替	-11.1462
落ち着いて	-11.1462
ホームセンター	-11.1464
改良	-11.1464
の命令	-11.1464
をやめて	-11.1465
頻	-11.1465
己	-11.1466
意思	-11.1466
諾	-11.1466
の字	-11.1466
省略	-11.1466
がいる	-11.1466
辱	-11.1466
篤	-11.1467
疑わしい	-11.1467
センター	-11.1467
▁安全度のチェック	-11.1467
焦点	-11.1467
糊	-11.1467
昂	-11.1467
舷	-11.1467
に適した	-11.1467
配偶者	-11.1467
オランダ	-11.1467
ヲ	-11.1467
国分寺	-11.1467
御茶ノ水	-11.1467
撫	-11.1467
マラリア	-11.1467
鮨	-11.1467
茶碗	-11.1467
蟻	-11.1467
宣誓	-11.1468
大急ぎで	-11.1468
プログラム	-11.1468
俸給	-11.1468
浜松町	-11.1468
稽古	-11.1468
暖房	-11.1468
企画	-11.1468
開閉	-11.1468
やかましい	-11.1468
起伏	-11.1469
ダブル	-11.1469
福岡	-11.1469
感染	-11.1469
1000	-11.1469
チュ	-11.1469
合わせること	-11.1469
橋本	-11.1469
ジャック	-11.1469
融通	-11.147
英語を話す	-11.147
迷信	-11.147
返答	-11.147
助かる	-11.147
水晶	-11.147
住居	-11.147
弦楽器	-11.147
ほほえみ	-11.147
孝行	-11.147
ことがない	-11.147
給仕	-11.147
肺炎	-11.147
おじいさん	-11.147
羽織	-11.147
翔さん	-11.147
航路	-11.1471
宮殿	-11.1471
しきたり	-11.1471
かかっている	-11.1471
暴風雨	-11.1471
バンド	-11.1471
敗北	-11.1471
たいへん	-11.1471
推進	-11.1471
近藤	-11.1471
わがまま	-11.1471
測量	-11.1472
に基づく	-11.1472
講師	-11.1472
の祝い	-11.1472
あわてて	-11.1472
学識	-11.1472
書かれた	-11.1473
牧師	-11.1473
いまから電話かける	-11.1474
道ばた	-11.1474
別称	-11.1475
女優	-11.1476
同じであること	-11.1476
握手	-11.1477
を大きく	-11.1477
すこし	-11.1477
領地	-11.1477
寂しい	-11.1477
警報	-11.1477
熱狂	-11.1478
いまから電話をかける	-11.1478
およそ	-11.1479
食事を	-11.148
▁精神的	-11.148
特性	-11.148
三つの	-11.1481
うちわ	-11.1481
樹皮	-11.1481
食物を	-11.1481
金沢	-11.1482
田町	-11.1483
を離れる	-11.1483
複数	-11.1486
▁私は彼に	-11.1486
艦船	-11.1486
うまくいった	-11.1487
微妙な	-11.1487
神秘	-11.1488
の幅	-11.1491
判事	-11.1491
退職	-11.1491
▁陸軍	-11.1494
寺の	-11.1494
化石	-11.1494
ききめ	-11.1495
のだろう	-11.1495
小銃	-11.1496
みせ	-11.1496
好機	-11.1497
外へ	-11.1497
二階	-11.15
高等	-11.1502
案外	-11.1505
同様	-11.1505
万ドル	-11.1505
体質	-11.151
必要である	-11.1511
済む	-11.1512
あす	-11.1513
まっている	-11.1515
努力して	-11.1515
ぬれ	-11.1515
指名	-11.1516
▁平均	-11.1516
紅葉	-11.1519
の根	-11.1521
・△	-11.1524
よみ	-11.1527
▁ちょっと電話したい	-11.153
それとも	-11.153
▁産	-11.1531
んぼ	-11.1532
時に使う	-11.1533
たね	-11.1533
香り	-11.1533
を越える	-11.1533
水辺	-11.1534
にわか	-11.1535
を要する	-11.154
体つき	-11.1541
発達した	-11.1541
疲れる	-11.1544
染色	-11.1544
通話	-11.1544
▁羽	-11.1546
▁何でも	-11.1552
かぶり	-11.1553
寄	-11.1553
を強めて言う	-11.1554
この辺	-11.1555
波が	-11.1555
en	-11.1556
頑	-11.1558
会見	-11.1558
なのか	-11.1559
与えられる	-11.1559
暖か	-11.156
関係にある	-11.1561
につくこと	-11.1562
関係がある	-11.1564
はしご	-11.1564
の便	-11.1565
調べる	-11.1565
組み合わせ	-11.1566
を伝える	-11.1569
変わる	-11.157
サイ	-11.1572
おこす	-11.1573
張って	-11.1573
手紙を書く	-11.1573
全体が	-11.1575
むやみに	-11.1576
設け	-11.1577
してくれる	-11.1578
ねた	-11.158
をあらわす	-11.1581
抜け出	-11.1581
むり	-11.1582
ばく	-11.1582
を吸う	-11.1585
ブレーキ	-11.1587
の高さ	-11.159
▁一年	-11.159
何度	-11.1591
▁いなか	-11.1593
これが	-11.1593
問題だ	-11.1593
のうわさ	-11.1598
言論	-11.1599
ップ	-11.16
をしていた	-11.1601
信者	-11.1601
▁浄	-11.1602
面から	-11.1603
鬚垢	-11.1604
教える	-11.1605
しっと	-11.1606
の形に	-11.1608
重さ	-11.1608
果実は	-11.1609
大勢の	-11.1615
いろいろと	-11.1616
▁つい	-11.1618
漫画	-11.1621
▁攻撃	-11.1622
万事	-11.1623
▁月が	-11.1625
▁シャ	-11.1625
に代わって	-11.1625
動くこと	-11.1626
▁いいえ	-11.1627
▁in	-11.1627
使用する	-11.1627
ルト	-11.1628
の先に	-11.1628
結婚した	-11.1629
形成	-11.1632
考えた	-11.1632
けり	-11.1633
シン	-11.1634
群がって	-11.1636
たたく	-11.1636
意外	-11.1638
▁登	-11.1639
バン	-11.164
クラスの	-11.164
の口	-11.1643
▁凡	-11.1649
るところ	-11.165
ほめる	-11.165
ボン	-11.1651
▁逸	-11.1651
滑り	-11.1653
まかせ	-11.1655
うしろ	-11.1656
いかに	-11.1657
肉屋	-11.1658
つもりで	-11.1658
▁ここは	-11.166
▁隣	-11.1663
前線	-11.1665
ずれ	-11.1665
整理する	-11.167
お互いに	-11.1671
▁林	-11.1672
▁田舎	-11.1672
っけ	-11.1672
時半	-11.1674
帰った	-11.1675
▁安全度のチェック診断	-11.1676
▁ちょっと電話かける	-11.1677
個人の	-11.1678
キス	-11.1679
たびに	-11.168
▁宣伝	-11.1683
るために	-11.1683
es	-11.1683
ント	-11.1685
慎重に	-11.169
▁そこに	-11.1693
あれこれ	-11.1699
▁夫	-11.1702
▁頭の	-11.1703
▁蹴	-11.1703
苗	-11.1704
法人	-11.1705
守備	-11.1707
の動物	-11.1709
意を表す語	-11.1711
に似る	-11.1712
▁ぜひ	-11.1712
▁寒さ	-11.1713
▁予備	-11.1714
のように見える	-11.1719
からぬ	-11.172
すわって	-11.1722
決して	-11.1722
荷車	-11.1723
完全	-11.1726
繰り返して	-11.1726
少数	-11.1729
が終わる	-11.1729
だまして	-11.1733
面倒	-11.1735
天然	-11.1735
心中	-11.1737
▁第一	-11.1737
本式	-11.1737
▁授業	-11.1738
▁彼はよく	-11.1738
文を	-11.174
▁四つ	-11.174
嫌いだ	-11.1741
メッセちょっと	-11.1741
働きをする	-11.1741
効力	-11.1744
けつ	-11.1745
そなえ	-11.1746
一等	-11.1747
骨折	-11.175
文字を	-11.1752
▁建物の	-11.1753
十字	-11.1754
ようにすること	-11.1758
を並べて	-11.1758
産の	-11.1759
▁ドイツ	-11.176
医者に	-11.176
染	-11.1761
よけ	-11.1762
おば	-11.1762
芸人	-11.1762
につけた	-11.1766
一対	-11.1767
に分ける	-11.1768
海面	-11.1771
対立する	-11.1771
作文	-11.1772
不法	-11.1772
ゆっくりと	-11.1772
行きの	-11.1773
▁陰暦	-11.1774
海水	-11.1775
座る	-11.1776
載せる	-11.1776
▁今度	-11.1779
確かめ	-11.1779
▁体の	-11.1782
耳を	-11.1783
をあける	-11.1783
卵を	-11.1783
▁たん	-11.1783
こび	-11.1786
▁引っ	-11.1788
▁金属	-11.179
の雨	-11.179
保つ	-11.1791
▁どうすれば	-11.1793
貧しい	-11.1794
とれた	-11.1798
▁何も	-11.18
起こること	-11.18
下着	-11.1802
優劣	-11.1802
言っている	-11.1811
吐き	-11.1812
報告書	-11.1812
おそ	-11.1814
出ない	-11.1814
加える	-11.1814
食事をする	-11.1814
いやだ	-11.1817
総計	-11.182
むだな	-11.182
▁彼は金	-11.1823
集まった	-11.1825
を焼く	-11.1826
の世話をする	-11.1827
▁天気は	-11.1828
うた	-11.1828
▁宝	-11.183
変な	-11.183
とって	-11.1834
せること	-11.1834
つぐ	-11.1835
先端	-11.1836
で写真をちょっと	-11.1837
押さえ	-11.1838
さを	-11.1838
▁遠慮	-11.1841
▁香	-11.1842
博	-11.1843
大船	-11.1844
を組んで	-11.1845
詩文	-11.1845
ことのできる	-11.1845
を見つけた	-11.1849
テン	-11.1851
零	-11.1854
の内側	-11.1855
探検	-11.1855
そのための	-11.1856
▁粘土	-11.1856
斬	-11.1857
▁巡	-11.186
▁あなたに	-11.1863
決まった	-11.1866
はやり	-11.1866
出発する	-11.1868
のほかに	-11.1869
堀	-11.1869
船の	-11.187
で見る	-11.187
いも	-11.1872
家畜	-11.1876
止ま	-11.1876
催し	-11.1877
長い間	-11.1878
▁芝居	-11.1878
or	-11.1879
たない	-11.1881
殺すこと	-11.1883
▁欠	-11.1884
ゆくこと	-11.1884
英語で	-11.1887
三角	-11.1888
着物の	-11.1891
熱病	-11.1893
のかたまり	-11.1897
▁みかん	-11.1898
なければいけない	-11.19
を流す	-11.1901
たりすること	-11.1902
▁朱	-11.1902
和服	-11.1903
徹底	-11.1905
寿	-11.1905
気配	-11.1906
都会	-11.1907
とがめ	-11.1907
に通じ	-11.1908
ーター	-11.1908
祈り	-11.1908
救	-11.1909
泊まる	-11.191
署	-11.1912
厭	-11.1912
阿佐ヶ谷	-11.1913
口をきく	-11.1914
怨	-11.1916
億	-11.1916
幣	-11.1918
慣習	-11.1918
を聞き	-11.1919
日暮里	-11.192
堕落	-11.192
ッシュ	-11.192
酌	-11.192
▁たい	-11.192
寛	-11.1921
痴	-11.1921
発揮	-11.1921
渇	-11.1921
粛	-11.1921
撰	-11.1921
妓	-11.1922
話に	-11.1922
そちら	-11.1922
糠	-11.1922
錫	-11.1922
寵	-11.1922
チェス	-11.1922
讚	-11.1922
慾	-11.1922
蛋白質	-11.1922
恐ろしさ	-11.1922
廚	-11.1922
×	-11.1922
じゃがいも	-11.1922
杭	-11.1922
本八幡	-11.1922
January	-11.1922
▁船舶	-11.1922
チャンス	-11.1922
蝕	-11.1922
キツネ	-11.1922
武蔵浦和	-11.1922
瓜	-11.1922
葦	-11.1922
ワイシャツ	-11.1922
平安時代	-11.1922
叉	-11.1922
おもむき	-11.1922
狐	-11.1922
鞍	-11.1922
を汚す	-11.1922
でたらめ	-11.1922
セールスマン	-11.1922
システム	-11.1922
▁梅	-11.1922
あやまち	-11.1922
ひたすら	-11.1922
措置	-11.1922
燃焼	-11.1922
簡易	-11.1922
スケート	-11.1922
営利	-11.1922
摩擦	-11.1922
▁追い	-11.1923
形容詞	-11.1923
救済	-11.1923
工芸	-11.1923
装備	-11.1923
鼠	-11.1923
ソース	-11.1923
類似	-11.1923
好奇心	-11.1924
防衛	-11.1924
会計	-11.1924
雨が降る	-11.1924
いか	-11.1924
なしの	-11.1924
まあまあ	-11.1924
砂漠	-11.1924
▁その船は	-11.1924
▁すぐにメッセ	-11.1925
著しい	-11.1925
あやしい	-11.1925
▁観光	-11.1925
福井	-11.1925
情緒	-11.1925
武装	-11.1925
▁去年	-11.1926
にかなった	-11.1926
冷淡	-11.1926
々しく	-11.1926
プラス	-11.1927
視野	-11.1927
雌雄	-11.1927
電池	-11.1927
調理	-11.1927
▁長い間	-11.1928
円満	-11.1928
造った	-11.1928
たてる	-11.193
▁蛇	-11.193
元気かいの予約更新	-11.1931
各自	-11.1931
▁本の	-11.1931
建造物	-11.1931
を運ぶ	-11.1931
豪	-11.1931
辞任	-11.1932
淫	-11.1932
漬物	-11.1932
商店	-11.1934
おとな	-11.1934
が来た	-11.1934
教養	-11.1934
衛生	-11.1934
卑	-11.1935
ののしる	-11.1935
が変わる	-11.1935
雄弁	-11.1936
妊娠	-11.1936
につけて	-11.1936
一時的に	-11.1937
光沢	-11.1937
貧	-11.1939
平たく	-11.1939
不機嫌	-11.1939
伴奏	-11.1939
たとえば	-11.1939
どころか	-11.194
偉い	-11.194
強制	-11.194
▁彼らは彼を	-11.194
奇跡	-11.1941
打った	-11.1941
統治	-11.1941
ユ	-11.1941
裂く	-11.1942
愛する	-11.1942
▁台風	-11.1944
世界の	-11.1944
食塩	-11.1945
を祝う	-11.1945
召使	-11.1946
道義	-11.1946
倫理	-11.1947
▁鉱山	-11.1947
▁そら	-11.1949
かたまり	-11.1949
流通	-11.195
空港	-11.195
浴び	-11.1951
一日中	-11.1951
秘書	-11.1952
驚いて	-11.1952
▁気の	-11.1953
さつ	-11.1953
▁注文	-11.1953
どれほど	-11.1954
▁事故	-11.1955
▁夜の	-11.1955
個ある	-11.1956
育てる	-11.1956
人員	-11.1956
▁ちょっと電話をかける	-11.1956
月給	-11.1957
続いている	-11.1959
組んだ	-11.196
経文	-11.196
▁高く	-11.1961
▁海岸	-11.1962
自分たち	-11.1963
ずること	-11.1964
しだ	-11.1964
出来る	-11.1964
海軍	-11.1965
伏せ	-11.1966
▁トラック	-11.1969
申し立て	-11.1969
▁書物	-11.197
記憶力	-11.197
ちょっと電話したい	-11.197
批評家	-11.1971
▁彼は自分が	-11.1971
もっともな	-11.1972
客が	-11.1973
▁主人	-11.1974
悲し	-11.1974
を養う	-11.1975
協会	-11.1976
一見	-11.1976
毛糸	-11.1976
こじき	-11.1977
所在	-11.1978
課税	-11.1978
偽り	-11.1979
田氏	-11.1979
延び	-11.198
刊行	-11.198
へたな	-11.198
含み	-11.198
見張り	-11.198
▁彼女はいつも	-11.1981
ぞう	-11.1982
▁ニュースアプリを	-11.1983
向上	-11.1983
死の	-11.1983
その本を	-11.1985
はだれも	-11.1985
だけが	-11.1985
目盛り	-11.1986
なんと	-11.1986
の内部	-11.1988
立法	-11.1989
の壁	-11.199
本人	-11.1992
▁凍	-11.1993
▁7	-11.1993
が弱い	-11.1994
戦線	-11.1995
万人	-11.1995
のこ	-11.2
五月	-11.2001
動物の	-11.2002
気分が	-11.2002
現状	-11.2002
をねらって	-11.2003
おかね	-11.2003
元気かい予約状況を追加	-11.2004
で話す	-11.2005
▁彼女は夫	-11.2006
を打って	-11.2007
十六	-11.2007
▁染め	-11.2008
へた	-11.2008
▁ダ	-11.2008
24	-11.2009
居る	-11.2009
お話し	-11.201
は少しも	-11.2015
生まれる	-11.2018
賢い	-11.2019
現金	-11.202
が多くて	-11.2021
▁be	-11.2023
▁漢字	-11.2023
彼にとって	-11.2025
不快な	-11.2026
▁体を	-11.2026
手腕	-11.2027
カリ	-11.2027
なき	-11.2028
の立場	-11.203
かなければならない	-11.2031
よくなる	-11.2032
歌を	-11.2033
つくこと	-11.2033
を示した	-11.2039
しすぎる	-11.2043
魚類	-11.2043
に落ちる	-11.2043
捨て	-11.2044
▁法廷	-11.2044
離す	-11.2045
半分に	-11.2047
しなければ	-11.2048
行進	-11.2048
耐え	-11.2053
のがれ	-11.2053
にできる	-11.2054
▁この本	-11.2056
目玉	-11.2056
の転	-11.2057
▁兄	-11.2057
▁今から	-11.2057
書類を	-11.2058
武家	-11.206
▁彼はなかなか	-11.2061
の群れ	-11.2062
宿屋	-11.2063
▁お茶	-11.2063
数える	-11.2065
▁そこで	-11.2067
ままで	-11.207
ところです	-11.2071
▁行政	-11.2073
▁遅	-11.2081
離れない	-11.2086
をまく	-11.2089
を残す	-11.2091
▁野菜	-11.2092
▁アメリカの	-11.2095
を免れる	-11.2099
特別な	-11.2099
▁ここで	-11.2105
▁誤	-11.2106
茶色の	-11.2107
が欲しい	-11.2107
▁政府の	-11.211
に見	-11.2114
行きたい	-11.2114
▁高級	-11.2116
寝ること	-11.2116
科の哺乳動物	-11.2117
へと	-11.2118
つもりです	-11.2119
明後日の天気	-11.2122
はすっかり	-11.2123
▁針	-11.2126
の表面に	-11.2127
心得	-11.2127
ふし	-11.2129
を張って	-11.2129
でございます	-11.213
主体	-11.213
をつかさどる	-11.2131
導体	-11.2132
ショートメッセージ送信	-11.2134
を受けている	-11.2134
まわし	-11.2135
両側	-11.2141
後ろから	-11.2144
庭に	-11.2147
に変える	-11.2147
売ること	-11.2148
とするもの	-11.2153
二本の	-11.2153
逮捕	-11.2155
▁除	-11.2155
ステ	-11.2155
▁ビ	-11.2156
▁山野に自生	-11.2159
わが国	-11.216
▁冷たい	-11.2161
共通	-11.2161
を助け	-11.2162
は何ですか	-11.2163
と考えた	-11.2164
▁あの子は	-11.2164
狂い	-11.2165
一度に	-11.2166
身につける	-11.2167
貴人の	-11.2168
▁できるだけ	-11.2169
などについて	-11.2172
無言	-11.2173
煮て	-11.2173
▁歩	-11.2173
てゆく	-11.2175
▁美術	-11.2178
競売	-11.2179
▁ごみ	-11.2179
▁神仏	-11.2182
に答える	-11.2188
を得ること	-11.2188
▁必	-11.219
改め	-11.219
極め	-11.2191
規律	-11.2192
降って	-11.2192
送ること	-11.2193
▁情報	-11.2194
▁海底	-11.2195
防御	-11.2197
りますか	-11.2197
にも使う	-11.2199
▁隠	-11.2203
▁毎	-11.2203
の四	-11.2206
ラム	-11.2208
絵を	-11.2208
さじ	-11.2214
感じられる	-11.2215
江戸時代	-11.2216
▁これから	-11.222
に向かう	-11.2223
▁心を	-11.2223
確信	-11.2223
てき	-11.2224
商品の	-11.2225
を強く	-11.2227
の原因	-11.2228
▁税金	-11.2228
▁病気の	-11.2228
澈	-11.2229
▁何もかも	-11.2231
▁艶	-11.2231
▁オリンピック	-11.2231
悦	-11.2234
▁パーティー	-11.2236
▁それは君の	-11.2237
は君の	-11.2237
有罪	-11.2237
▁十分に	-11.2239
▁馬に	-11.2241
はすぐ	-11.2241
眼球	-11.2246
消息	-11.2246
ンタ	-11.2247
神仏に	-11.2253
と思い	-11.2255
挑戦	-11.2256
に触れる	-11.2258
ドルの	-11.2262
▁正しい	-11.2264
▁閉	-11.2267
机の上に	-11.2269
先生は	-11.2273
健康に	-11.2273
▁警察は	-11.2274
を尽くす	-11.2274
生じた	-11.2275
▁歳の	-11.2275
づかい	-11.2276
▁輸出	-11.2281
現れること	-11.2282
心の中	-11.2282
▁タ	-11.2283
の巣	-11.2284
風が	-11.2285
▁演説	-11.2286
をさし	-11.2287
空き	-11.2288
に強い	-11.2288
チン	-11.2295
励	-11.2297
の罪	-11.2297
▁英国の	-11.2299
鉄の	-11.2299
続いた	-11.23
歯が	-11.2304
皮膚が	-11.2306
us	-11.2307
▁あの男	-11.2307
保守	-11.2309
吸収	-11.231
緑色の	-11.2311
▁太陽が	-11.2315
すぐれて	-11.2316
の少年	-11.232
飛行機の	-11.2321
のない人	-11.2324
初めの	-11.2325
くらいの	-11.2326
蒼	-11.2326
▁家具	-11.2327
がきかない	-11.2331
▁不幸	-11.2331
平気で	-11.2332
熱帯	-11.2332
とら	-11.2333
に富んだ	-11.2333
誇り	-11.2333
伝染	-11.2335
▁地面	-11.2338
の場合	-11.2345
の中央	-11.2348
忙しく	-11.235
主張する	-11.2352
してしまう	-11.2352
を変え	-11.2354
衝突	-11.2355
忠義	-11.2355
百万	-11.2358
足に	-11.2359
▁財政	-11.236
▁ケアマネ	-11.236
▁医者は	-11.2361
かねて	-11.2361
ないもの	-11.2362
友達	-11.2362
間違って	-11.2362
していないこと	-11.2364
遣	-11.2365
うらみ	-11.2365
くれませんか	-11.2366
のまわり	-11.2366
不自由	-11.2368
便で	-11.237
あがり	-11.237
▁弾丸	-11.2371
を経て	-11.2373
といった	-11.2374
▁命令	-11.2374
困っている	-11.2376
凡	-11.2376
欠乏	-11.2377
特殊	-11.2377
一組	-11.2377
地形	-11.2378
啓	-11.2378
げない	-11.2378
削り	-11.2378
▁弁護士	-11.2378
ダイヤ	-11.238
齢	-11.2381
陽	-11.2381
損なう	-11.2383
尚	-11.2383
通して	-11.2385
従うこと	-11.2385
加え	-11.2386
を頼む	-11.2386
に達した	-11.2388
剛	-11.2388
▁慈善	-11.239
輿	-11.2391
ふくれ	-11.2391
木造	-11.2391
穏	-11.2392
胎	-11.2393
申告	-11.2393
隅	-11.2394
▁静	-11.2394
ったりして	-11.2394
曲がり	-11.2395
を表わす	-11.2395
肋	-11.2396
得られる	-11.2396
著述	-11.2396
さかずき	-11.2397
運搬	-11.2397
を帯びた	-11.2397
越谷	-11.2397
芳	-11.2397
爆撃	-11.2397
舵	-11.2397
誦	-11.2397
紡	-11.2397
鍵	-11.2398
オペラ	-11.2398
尋問	-11.2398
胚	-11.2398
猶予	-11.2398
よろこび	-11.2398
喧	-11.2398
さいたま副都心	-11.2398
メキシコ	-11.2398
尼	-11.2398
屁	-11.2398
コンクリート	-11.2398
方程式	-11.2398
荻窪	-11.2398
錬	-11.2398
鞘	-11.2398
びっくりした	-11.2398
乗組員	-11.2398
暁	-11.2398
稀	-11.2398
臥	-11.2398
まなざし	-11.2398
唄	-11.2398
釜	-11.2398
▁喫煙	-11.2398
ぐるぐる	-11.2398
諺	-11.2398
刺繍	-11.2398
ギター	-11.2398
はらわた	-11.2398
のこぎり	-11.2398
硫黄	-11.2399
ぼろぼろ	-11.2399
威厳	-11.2399
専攻	-11.2399
箇条	-11.2399
稼ぎ	-11.2399
是非	-11.2399
ow	-11.2399
応援	-11.2399
思考	-11.2399
ほんとに	-11.2399
を請う	-11.2399
訪ねて	-11.2399
胎児	-11.2399
収縮	-11.2399
簡略	-11.2399
茶の湯	-11.2399
辛抱	-11.2399
静岡	-11.2399
予告	-11.2399
さらさら	-11.24
科の昆虫	-11.24
楽譜	-11.24
一定期間	-11.24
節操	-11.24
演芸	-11.24
▁砂糖	-11.24
のぞく	-11.2401
スタート	-11.2401
仲裁	-11.2401
知覚	-11.2401
操	-11.2401
殺菌	-11.2401
久子	-11.2401
うさぎ	-11.2402
▁その犬は	-11.2402
単純	-11.2402
推理	-11.2402
ふとん	-11.2402
公債	-11.2402
コール	-11.2402
組合せ	-11.2403
軍備	-11.2403
済んだ	-11.2403
押す	-11.2403
を職業とする人	-11.2404
カバー	-11.2404
農作物	-11.2404
文献	-11.2405
つめた	-11.2405
表示	-11.2405
もらおう	-11.2406
通勤	-11.2406
延長	-11.2406
分担	-11.2406
うどん	-11.2406
ゆとり	-11.2406
改正	-11.2407
▁国連	-11.2408
どうだ	-11.2408
煙突	-11.2408
音階	-11.2408
田端	-11.2409
ひび	-11.2409
とがある	-11.2409
機密	-11.241
選んだ	-11.241
かば	-11.241
親族	-11.241
▁その場	-11.241
くらべ	-11.2411
たちに	-11.2411
動かし	-11.2412
▁どうか	-11.2412
用途	-11.2412
曲がる	-11.2412
生死	-11.2413
惜しい	-11.2414
つまみ	-11.2415
を働く	-11.2415
▁ワ	-11.2415
▁凶	-11.2416
いぼ	-11.2416
ってくれ	-11.2416
活用	-11.2417
甲板	-11.2417
高校	-11.2419
常用	-11.2419
▁失業	-11.242
政府が	-11.242
特殊な	-11.2421
意義	-11.2421
機知	-11.2421
運ばれ	-11.2422
いやしい	-11.2423
縁側	-11.2423
恵み	-11.2423
長調	-11.2424
持ち上げる	-11.2425
▁ド	-11.2425
結び目	-11.2426
線路	-11.2427
整った	-11.2427
噴火	-11.2427
を決め	-11.2428
▁彼女は私の	-11.2429
ことに決めた	-11.2429
きし	-11.243
声が	-11.243
顔の	-11.2431
善行	-11.2432
時速	-11.2432
幼	-11.2432
何もない	-11.2433
種々	-11.2433
現われる	-11.2434
▁化粧	-11.2434
もつれ	-11.2435
よせ	-11.2435
▁肌	-11.2438
に欠ける	-11.2439
魚肉	-11.244
皇	-11.2441
大声で	-11.2442
聞こえ	-11.2442
▁何とか	-11.2442
▁快	-11.2442
フィ	-11.2442
なのだ	-11.2444
もうける	-11.2444
の精神	-11.2444
▁他の人	-11.2444
紛	-11.2446
トル	-11.2447
新宿	-11.2447
▁はっきり	-11.2447
たばこを	-11.2448
泣いて	-11.2448
番目の	-11.2448
冷たく	-11.2449
結う	-11.2449
とも言う	-11.2449
ってくる	-11.245
シュ	-11.2452
よこ	-11.2452
寝床	-11.2453
準	-11.2453
役に立	-11.2455
かぶ	-11.2456
消える	-11.2456
コンピューター	-11.2456
▁彼女は私	-11.2457
忍び	-11.246
▁競馬	-11.2461
視する	-11.2461
を吐く	-11.2461
応用	-11.2462
知能	-11.2462
赤字	-11.2463
田畑	-11.2463
天気は	-11.2463
ないようにする	-11.2464
陰暦	-11.2464
▁自己の	-11.2465
名高い	-11.2465
いちばん	-11.2465
正反対	-11.2466
品行	-11.2466
買い物	-11.2466
長年	-11.2467
様子が	-11.2467
は少し	-11.2468
小児	-11.2468
▁貧乏	-11.2468
とがった	-11.2469
▁魚の	-11.2469
カーテン	-11.2469
俺の元気かい予約	-11.2469
乗った	-11.247
何となく	-11.2472
思いがけない	-11.2472
万円の	-11.2472
朝食	-11.2472
青木	-11.2473
そうとする	-11.2473
笑った	-11.2475
こういう	-11.2477
▁突き	-11.2478
敷物	-11.2478
をたてる	-11.2479
ワン	-11.2479
▁物が	-11.248
当たった	-11.248
の全	-11.2481
やがて	-11.2481
就職	-11.2482
初めから	-11.2484
金が	-11.2488
下がる	-11.249
通俗	-11.249
泊まり	-11.2492
到着した	-11.2492
▁抜き	-11.2493
下落	-11.2494
これらの	-11.2495
腹に	-11.2495
▁養	-11.2495
から出た	-11.2496
職場	-11.2496
▁契約	-11.2499
がえ	-11.25
手落ち	-11.2501
さして	-11.2502
▁この問題	-11.2504
ちょっと電話をかける	-11.2505
上部	-11.2508
生まれて	-11.2508
割り当て	-11.2509
▁事件	-11.251
運んだ	-11.251
興奮する	-11.2511
した人	-11.2513
移住	-11.2513
飛んで	-11.2515
事務を	-11.2516
で私は	-11.2517
使者	-11.2518
を防ぐために	-11.2519
蕕覆	-11.2519
含む	-11.2521
▁森林	-11.2522
▁僧	-11.2525
▁体操	-11.2527
意地	-11.2529
17	-11.253
▁ほとんど	-11.253
を改める	-11.2531
▁格	-11.2531
届く	-11.2533
急な	-11.2534
然として	-11.2535
誤って	-11.2535
こえ	-11.2536
▁交	-11.2536
ぜいたくな	-11.2537
▁レコード	-11.2537
に耐え	-11.2537
▁肺	-11.2538
何よりも	-11.2539
いったん	-11.2542
格別	-11.2549
その場の	-11.2549
東方	-11.2549
出席者	-11.255
何が	-11.2552
交わ	-11.2552
候	-11.2552
金町	-11.2553
来客	-11.2555
主語	-11.256
を添える	-11.256
プロ	-11.2562
吹いて	-11.2563
などによる	-11.2565
進み	-11.2565
の方法	-11.2567
▁うそ	-11.2567
どこへ	-11.2567
過去の	-11.2568
▁完	-11.2569
ないだろう	-11.257
のだが	-11.2573
▁さて	-11.2574
時機	-11.2574
合せ	-11.2575
△・	-11.2579
論者	-11.258
自分自身	-11.2582
▁着物	-11.2584
の学生	-11.2584
人間が	-11.2588
なよ	-11.2591
事件を	-11.2592
の士	-11.2593
ませて	-11.2593
▁これ以上	-11.2595
色素	-11.2596
に接する	-11.2597
して行く	-11.2597
返事をする	-11.2598
▁事態は	-11.2599
木の葉	-11.2599
がついて	-11.2601
収容	-11.2601
▁人々は	-11.2602
逆に	-11.2602
▁完全	-11.2602
はっきりした	-11.2603
分間	-11.2604
▁警官は	-11.2605
▁その後	-11.2605
▁彼はとても	-11.2609
数を	-11.2609
守る	-11.2615
▁きん	-11.2616
千万	-11.2618
他から	-11.2619
が悪かった	-11.2621
の強さ	-11.2621
の心	-11.2622
愉快	-11.2625
それについて	-11.2627
ロック	-11.2628
尽くす	-11.2628
兼ね	-11.2629
▁手を	-11.263
コーヒーを	-11.263
約一	-11.2631
運転手	-11.2632
に役立つ	-11.2633
この世に	-11.2633
▁貨物	-11.2634
荷物を	-11.2634
▁つる	-11.2635
▁野原	-11.2635
てくれ	-11.2636
くま	-11.2636
こじ	-11.2637
絹織物	-11.2638
▁そのことは	-11.264
共通の	-11.2641
しようという	-11.2643
▁実際	-11.2646
にたとえ	-11.2646
慎重	-11.2649
に立ち	-11.265
▁何を	-11.2651
遠方	-11.2653
はえている	-11.2653
盛る	-11.2656
▁哀	-11.2658
掘り	-11.2658
篠つつ	-11.2661
たくさんある	-11.2662
しらせ	-11.2663
下男	-11.2664
こも	-11.2664
黙ってい	-11.2665
▁エンジン	-11.2668
負けた	-11.2669
▁それは私	-11.2671
手柄	-11.2671
ラン	-11.2673
海外	-11.2674
苦しむ	-11.2676
ゆで	-11.2681
知らなかった	-11.2681
▁桜	-11.2684
暮らしを	-11.2686
炎症	-11.2687
ドラッグストア	-11.2692
生じ	-11.2693
▁回転	-11.2695
の進行	-11.2697
残りの	-11.2699
を利用する	-11.2699
海の	-11.2701
むだに	-11.2701
▁初めて	-11.2703
わかれ	-11.2703
▁もう少し	-11.2704
智子	-11.2704
しっかりと	-11.2706
今にも	-11.2707
がたくさんある	-11.2708
ーズ	-11.2709
▁擬	-11.2713
聞くこと	-11.2713
を取り戻す	-11.2714
受け入れ	-11.2716
鷹	-11.2716
▁食事の	-11.2718
▁軟	-11.2722
に身を	-11.2725
▁交番	-11.2727
の範囲	-11.2728
にかかった	-11.2729
勝つこと	-11.2729
▁しっかり	-11.2729
を遂げる	-11.2731
▁うら	-11.2731
▁即	-11.2732
類の	-11.2733
使った	-11.2734
山地	-11.2734
▁その日	-11.2734
独身	-11.2735
ありのまま	-11.2735
ふな	-11.2736
おこった	-11.274
たたき	-11.274
輝く	-11.2741
穏やかな	-11.2744
を積む	-11.2744
▁文化	-11.2748
▁校	-11.2749
できている	-11.275
帰ること	-11.2751
▁広い	-11.2752
前方	-11.2755
につけ	-11.2757
▁はち	-11.2759
こく	-11.2763
議案	-11.2767
▁健	-11.2772
▁金属元素	-11.2774
ダー	-11.2776
情事	-11.2777
起きる	-11.2777
置いた	-11.2778
延ばす	-11.2778
重く	-11.2782
日常生活	-11.2785
▁二つ	-11.2787
どうした	-11.2787
しあわせ	-11.2788
の人が	-11.2789
ことになっている	-11.279
▁母は	-11.279
破る	-11.2792
写真いまから	-11.2793
称号	-11.2794
▁広告	-11.2795
と言っても	-11.2796
▁元気かいの予約状況	-11.2798
いいですか	-11.2799
どことなく	-11.28
のかね	-11.2801
おもしろ	-11.2801
ということだ	-11.2802
そんなことを	-11.2803
をはる	-11.2803
メッセをちょっと	-11.2805
▁あいつ	-11.2807
のしるし	-11.2811
入口	-11.2812
をふ	-11.2815
神仏	-11.2818
てもらう	-11.282
▁川口	-11.2821
それによって	-11.2821
食べること	-11.2821
る様子	-11.2824
末期	-11.2824
▁田	-11.2824
▁金融	-11.2825
たちの	-11.2826
年は	-11.2827
▁原子力	-11.283
よいこと	-11.2832
弁護	-11.2834
に同じ	-11.2835
タオル	-11.2835
水戸	-11.2837
荒荒しい	-11.2838
以下の	-11.2838
夫人	-11.284
ぐらいの	-11.2842
▁賢	-11.2842
がかり	-11.2843
結核	-11.2843
▁その仕事は	-11.2844
おろす	-11.2844
研究する	-11.2846
織った	-11.2846
出てきた	-11.2846
の気持	-11.2847
▁我	-11.2847
として使う	-11.2847
に似ている	-11.285
な言葉	-11.2851
▁あん	-11.2853
は私が	-11.2855
▁同情	-11.2855
のあいだ	-11.2855
を帯びる	-11.2857
▁豪	-11.2858
が彼女の	-11.2859
験	-11.286
▁本当	-11.286
ともに	-11.2863
ようか	-11.2865
忘	-11.2865
を見せて	-11.2865
紫色	-11.2866
比較的	-11.2866
をひき	-11.2867
ちょっと電話する	-11.2867
チームは	-11.2868
法廷	-11.2869
おろし	-11.2869
▁なべ	-11.2869
▁貿易	-11.287
=	-11.2871
に出て	-11.2871
与えた	-11.2873
勇敢	-11.2873
担保	-11.2873
別別	-11.2874
孝	-11.2874
ぐいと	-11.2875
正当	-11.2875
複製	-11.2877
青森	-11.2882
横浜	-11.2884
▁楽	-11.2885
分からない	-11.2887
盟	-11.2889
▁空港	-11.2889
のありさま	-11.2889
毎	-11.2891
作成	-11.2891
隙	-11.2892
拭	-11.2892
をたくさん	-11.2893
▁金の	-11.2893
西日暮里	-11.2893
降伏	-11.2893
呑	-11.2893
あばれ	-11.2893
拒否	-11.2894
斎	-11.2894
扇動	-11.2895
模	-11.2895
傑	-11.2895
開拓	-11.2895
ないでくれ	-11.2895
を帯びて	-11.2895
頸	-11.2896
ぺ	-11.2896
堪	-11.2896
こつこつ	-11.2896
ソーダ	-11.2896
びょう	-11.2896
恒	-11.2897
拡張	-11.2897
弄	-11.2897
奸	-11.2898
碧	-11.2898
宇	-11.2898
莫大な	-11.2898
宛	-11.2898
妾	-11.2898
綾	-11.2898
X	-11.2898
衛星	-11.2898
に適する	-11.2898
ふらふら	-11.2898
適当に	-11.2898
尖	-11.2898
嵩	-11.2898
普及	-11.2898
鉤	-11.2898
鵐	-11.2898
みじめな	-11.2898
篇	-11.2898
過剰	-11.2898
ぞんざい	-11.2898
歎	-11.2898
歪	-11.2898
罵	-11.2898
リットル	-11.2898
自尊心	-11.2898
ハワイ	-11.2898
芯	-11.2898
岡崎	-11.2898
▁安全度のチェックチェック	-11.2898
マイナス	-11.2898
キング	-11.2898
俳諧	-11.2898
鶯谷	-11.2898
急激に	-11.2898
インディアン	-11.2898
唯一の	-11.2898
審査	-11.2898
乗車券	-11.2898
落ちぶれ	-11.2898
散らし	-11.2898
めいめい	-11.2899
疑惑	-11.2899
率直に	-11.2899
整頓	-11.2899
派閥	-11.2899
標識	-11.2899
決まり	-11.2899
顧問	-11.2899
葉を	-11.2899
を使わず	-11.2899
ゼロ	-11.2899
守護	-11.2899
予測	-11.2899
を続ける	-11.29
おとなしく	-11.29
路傍	-11.29
統率	-11.29
部類	-11.29
復活	-11.29
わかりません	-11.29
吹雪	-11.29
音響	-11.29
雨が降った	-11.29
確率	-11.29
汲み	-11.29
検閲	-11.29
対応	-11.2901
地理	-11.2901
▁えーっとメモ	-11.2901
遺跡	-11.2901
譲歩	-11.2901
講和	-11.2901
中枢	-11.2901
池袋	-11.2901
やって来た	-11.2902
垣根	-11.2902
新たな	-11.2902
冷酷	-11.2902
一つ一つ	-11.2902
多年	-11.2903
落第	-11.2903
かわいがる	-11.2903
テレ	-11.2903
講座	-11.2903
まげ	-11.2904
ハエ	-11.2904
させられた	-11.2904
▁あの店は	-11.2904
農夫	-11.2905
絶滅	-11.2905
楽観	-11.2906
しばる	-11.2906
流儀	-11.2907
の女神	-11.2907
ノート	-11.2908
後れ	-11.2909
定義	-11.2909
稲毛	-11.291
交わり	-11.291
ってはいけない	-11.291
加熱	-11.291
▁全国	-11.2911
南部	-11.2911
大型	-11.2911
だした	-11.2911
の下部	-11.2911
小形で	-11.2912
結んだ	-11.2912
不景気	-11.2912
その地位	-11.2912
一連の	-11.2912
よいか	-11.2912
羊毛	-11.2913
の第一	-11.2914
花嫁	-11.2914
動いて	-11.2915
流派	-11.2915
巡回	-11.2915
放電	-11.2916
開業	-11.2916
災い	-11.2917
平野	-11.2917
乳児	-11.2917
敵陣	-11.2918
辰討	-11.2918
フランスの	-11.2918
不況	-11.2919
ねばり	-11.2919
ねうち	-11.2919
特権	-11.292
待った	-11.292
▁売り	-11.292
北部	-11.2922
首席	-11.2923
羽毛	-11.2924
▁九	-11.2924
低下	-11.2924
論説	-11.2925
に帰する	-11.2925
▁相手	-11.2925
遠くに	-11.2926
体積	-11.2926
のごとく	-11.2926
▁成人	-11.2927
撃つ	-11.2929
こね	-11.293
引力	-11.293
遅い	-11.2931
から降りる	-11.2931
当たって	-11.2933
煎じ	-11.2934
▁高等	-11.2934
悟り	-11.2934
メートルの	-11.2934
▁物事に	-11.2936
支払いを	-11.2941
帰宅	-11.2942
慣用	-11.2942
熱湯	-11.2943
価値がある	-11.2944
さらし	-11.2946
黄色い	-11.2947
続けざまに	-11.2947
うね	-11.2947
を失うこと	-11.2948
番をする	-11.295
乱暴	-11.295
非行	-11.295
かかって	-11.2951
を告げる	-11.2952
▁枝	-11.2952
定規	-11.2952
欠けた	-11.2952
V	-11.2952
▁並	-11.2953
▁ぶどう酒	-11.2953
外界	-11.2954
取り入れ	-11.2954
学業	-11.2955
脚本	-11.2956
こころ	-11.2956
の誤り	-11.2956
つな	-11.2956
度胸	-11.2957
午前	-11.2958
至急	-11.2958
お宅	-11.2959
▁神田	-11.2959
答える	-11.296
左側	-11.296
▁そこへ	-11.2962
何でもない	-11.2966
▁ロープを	-11.2966
内外	-11.297
我が国	-11.2973
よく知っている	-11.2976
告げ	-11.2977
に通じている	-11.2977
を除く	-11.2979
のが好きだ	-11.298
きつい	-11.2981
中傷	-11.2981
ぬる	-11.2982
▁この家は	-11.2983
耐	-11.2984
あふれる	-11.2985
▁彼の顔は	-11.2985
言いなさい	-11.2986
をさっと	-11.2986
のけ	-11.2989
人や物	-11.2993
邦	-11.2994
力で	-11.2995
隠して	-11.2995
▁聴衆は	-11.2995
名古屋	-11.2995
当時	-11.2997
▁教師	-11.2998
ろく	-11.3
怪	-11.3
▁箱	-11.3001
お父さん	-11.3001
毎年	-11.3002
職業の人	-11.3003
勝手な	-11.3003
真珠	-11.3003
▁姉	-11.3004
それも	-11.3006
▁断	-11.3007
世俗	-11.3008
経費	-11.3008
えば	-11.3008
▁別に	-11.3008
▁仲間	-11.3008
したりして	-11.3008
その音	-11.3009
に起こる	-11.3009
いなさい	-11.3009
書物を	-11.3009
ガソリン	-11.3009
その知らせを聞いて	-11.301
無事に	-11.301
葬儀	-11.301
笑って	-11.301
当然の	-11.3012
▁いまから電話したい	-11.3013
好きなように	-11.3013
まねをする	-11.3014
▁東京の	-11.3014
▁冷や	-11.3015
基本	-11.3015
登戸	-11.3015
する装置	-11.3017
猛	-11.3018
バイオリン	-11.3018
ラーメン	-11.3018
髪の毛を	-11.3019
やって来る	-11.302
▁病気で	-11.302
かむ	-11.3021
他と	-11.3021
累	-11.3021
同一	-11.3023
便り	-11.3023
を張った	-11.3024
に加わる	-11.3024
って行く	-11.3025
を貸して	-11.3025
er	-11.3026
▁君には	-11.3026
をおおう	-11.3026
平塚	-11.3027
こちらの	-11.3028
を打った	-11.3031
見られる	-11.3033
生活を	-11.3036
▁正義	-11.3037
町田	-11.3037
の作品	-11.3038
回転する	-11.3038
宝物	-11.3041
混ぜる	-11.3042
香水	-11.3045
▁安全診断	-11.3045
▁凝	-11.3046
▁そうだ	-11.3051
の娘	-11.3051
焼く	-11.3051
人材	-11.3051
▁供	-11.3053
相場が	-11.3056
こし	-11.3058
がわ	-11.3059
手首	-11.3061
悪口	-11.3061
▁天体	-11.3061
たまる	-11.3065
メッセージをちょっと	-11.3066
▁責任	-11.3066
知らせること	-11.307
いすを	-11.3071
が多かった	-11.3071
もら	-11.3076
その場所	-11.3077
▁明日	-11.3077
▁専門	-11.3077
の諸	-11.3078
▁燃え	-11.3079
まるい	-11.3079
の町	-11.3081
法律で	-11.3081
ぶた	-11.3082
物を言う	-11.3082
は約	-11.3082
がどんなに	-11.3086
活動の	-11.3086
▁医療	-11.3087
▁その事故	-11.3091
と思われる	-11.3091
はぎ	-11.3092
治める	-11.3093
乗物	-11.3093
▁探	-11.3094
求め	-11.3094
そうでない	-11.3094
やれ	-11.3096
に戻る	-11.3096
かを	-11.3096
つかず	-11.3097
取れる	-11.3097
擦り	-11.3098
を重んずる	-11.3102
さも	-11.3104
続くこと	-11.311
一流の	-11.3112
▁日曜	-11.3112
▁彼は何	-11.3113
を占める	-11.3113
▁何と	-11.3113
門の	-11.3113
だな	-11.3113
▁焼け	-11.3113
離して	-11.3116
ということを	-11.3117
▁判	-11.3119
外出する	-11.3123
ばかりに	-11.3123
しますか	-11.3124
▁6	-11.3126
をつぐ	-11.3126
本部	-11.3127
▁借り	-11.3127
いらっしゃい	-11.3127
なだれ	-11.3129
しかる	-11.3131
付いて	-11.3131
月光	-11.3132
▁それらの	-11.3134
割に	-11.3135
うえ	-11.3135
振動	-11.3136
する時	-11.3136
暗く	-11.3136
▁イタリア	-11.3137
▁完全に	-11.3138
▁小麦粉	-11.3138
身代	-11.314
弱く	-11.3142
の形容	-11.3142
負けて	-11.3142
めったに	-11.3144
ことができない	-11.3144
下にある	-11.3144
はかり	-11.3146
▁脂肪	-11.3146
大型の	-11.315
行動を	-11.315
南北	-11.3151
▁よそ	-11.3152
▁家を	-11.3153
味が	-11.3154
討い	-11.3155
▁訳	-11.3157
▁資本	-11.3159
実例	-11.3159
を積み	-11.3161
熱意	-11.3161
日本に	-11.3161
を断つ	-11.3163
▁娘	-11.3163
一瞬	-11.3163
はだか	-11.3163
外へ出	-11.3165
身体の	-11.3166
誓	-11.3166
を授ける	-11.3166
▁まっ	-11.3166
▁寂	-11.3168
神話	-11.3168
大津	-11.3169
鋳	-11.3169
メッセをいまから	-11.317
そうもない	-11.317
をたく	-11.3171
と見	-11.3171
国旗	-11.3172
▁序	-11.3173
戯	-11.3175
▁野外	-11.3177
末に	-11.3178
君も	-11.3179
現物	-11.318
日曜日に	-11.3182
▁いま	-11.3182
の温度	-11.3183
感じた	-11.3184
ことではない	-11.3186
の長い	-11.3186
とは君も	-11.3186
で人を	-11.3188
債務	-11.3189
祈願	-11.3191
▁長距離	-11.3191
▁主君	-11.3191
文章の	-11.3192
物だ	-11.3192
▁郵便局	-11.3192
▁切符	-11.3193
動的	-11.3197
▁立体	-11.32
力が	-11.3202
を集めて	-11.3203
まけ	-11.3207
の山	-11.3207
によい	-11.3208
賭	-11.3208
にはいって	-11.3209
▁付	-11.3209
を成す	-11.321
出家	-11.3211
助けること	-11.3211
方は	-11.3213
状態にする	-11.3214
▁今日の天気どう	-11.3215
ゼ	-11.3215
▁博	-11.3218
▁申し	-11.3218
妨害	-11.3218
から見て	-11.322
▁季節	-11.3221
男が	-11.3221
の空気	-11.3223
▁陸上	-11.3225
リラ	-11.3232
▁彼は彼女を	-11.3235
をふさぐ	-11.3239
▁意志	-11.324
シー	-11.3241
の中間	-11.3241
▁ふだん	-11.3241
引き受ける	-11.3242
んだり	-11.3242
▁ちょっとメッセージ	-11.3244
になってしまった	-11.3245
▁ガ	-11.3247
▁みんな	-11.3247
▁重大な	-11.3249
聞かせる	-11.3251
山々	-11.3253
いやになる	-11.3253
と水	-11.3254
▁一家の	-11.3259
会うこと	-11.3261
りたい	-11.3262
▁整	-11.3262
がすっかり	-11.3263
フレ	-11.3263
描	-11.3267
あがって	-11.3271
やりなさい	-11.3271
大事	-11.3271
やり方で	-11.3272
▁知恵	-11.3273
成功の	-11.3274
後世	-11.3274
垂れる	-11.3274
人に対して	-11.3277
激怒	-11.3278
生糸	-11.328
一般の人	-11.3281
を求め	-11.3284
ve	-11.3284
事態が	-11.3284
行われ	-11.3285
おくれ	-11.3286
くわえ	-11.3286
集めて	-11.3288
走って	-11.3291
▁住宅	-11.3293
勢いで	-11.3296
がなくなる	-11.3297
▁ト	-11.3298
酒を	-11.3298
▁ひとり	-11.3305
写真いまから送信	-11.3305
と違って	-11.3306
銀行に	-11.3306
地下茎	-11.3307
のドレス	-11.3313
船が	-11.3314
西方	-11.3317
▁天子の	-11.3317
てはならない	-11.3318
の印	-11.332
調べること	-11.332
本性	-11.332
利益を得る	-11.3322
すみません	-11.3327
狭	-11.3328
に出た	-11.3331
駒	-11.3331
無理に	-11.3332
はいくら	-11.3334
の研究	-11.3334
こっけいな	-11.3335
仕事の	-11.3335
しつけ	-11.3338
▁日光	-11.334
仲よく	-11.3343
がひどく	-11.3347
▁儀式	-11.3348
ィ	-11.3349
使われる	-11.3349
の子供	-11.3349
▁いちばん	-11.3351
しうる	-11.3351
▁思いがけない	-11.3351
の勢い	-11.3351
▁暖かい	-11.3354
こしらえ	-11.3355
すぐに電話する	-11.3355
の相違	-11.3356
が速い	-11.3357
いただき	-11.3357
厄介	-11.3358
を含んだ	-11.3359
▁弔	-11.3362
声を	-11.3363
メッセージちょっと	-11.3366
内容を	-11.3366
芸能	-11.3367
▁病人は	-11.3368
中間	-11.337
内閣の	-11.3371
昨	-11.3374
を休む	-11.3375
地主	-11.3377
▁特別	-11.3378
やりかた	-11.3379
▁彼は我々	-11.3379
の敬称	-11.3379
▁予	-11.3381
言動	-11.3382
グラ	-11.3383
が低く	-11.3387
増加	-11.3388
▁議論の	-11.3388
豪雨	-11.3391
北浦和	-11.3392
今や	-11.3393
十五	-11.3395
に合う	-11.3395
徹	-11.3395
ていく	-11.3396
決議	-11.3396
く思う	-11.3397
を祈る	-11.3398
透明	-11.34
槽	-11.3405
▁大塚	-11.3405
履	-11.3406
つかみ	-11.3406
ふえ	-11.3407
掛けて	-11.3407
しようとした	-11.3408
▁マッチ	-11.341
衰えた	-11.3411
気持だ	-11.3411
▁秋の	-11.3411
塚	-11.3411
忙	-11.3411
釣り合い	-11.3412
恵比寿	-11.3413
わけではない	-11.3413
▁海軍	-11.3414
▁低い	-11.3414
に会った	-11.3415
借りること	-11.3415
摘	-11.3416
▁ポスト	-11.3417
査	-11.3418
幾何学	-11.3419
を目的とする	-11.3419
服を着て	-11.3419
▁産業	-11.3419
坑	-11.342
浮かんだ	-11.342
止まった	-11.3421
四谷	-11.3421
荘	-11.3421
▁それだけ	-11.3421
視界	-11.3422
陳	-11.3422
要領	-11.3422
免疫	-11.3422
のにおい	-11.3422
違える	-11.3423
盾	-11.3423
飼育	-11.3423
ニュ	-11.3423
萌	-11.3424
撮	-11.3424
信じられない	-11.3424
薪	-11.3424
因果	-11.3424
阻	-11.3424
かっさい	-11.3424
ばさみ	-11.3424
きっかけ	-11.3424
ひ孫さん	-11.3424
虹	-11.3424
ぅ	-11.3424
櫛	-11.3424
デパート	-11.3424
瑞	-11.3424
病原体	-11.3424
W	-11.3424
桑	-11.3424
おめでとう	-11.3424
のんびり	-11.3424
叛	-11.3424
植民地	-11.3424
裾	-11.3424
.	-11.3424
おだやかな	-11.3424
ペーパー	-11.3424
肖像画	-11.3424
コンサート	-11.3424
梨	-11.3424
みょう	-11.3425
当てはまる	-11.3425
ジョージ	-11.3425
負債	-11.3425
申請	-11.3425
決勝	-11.3425
免除	-11.3425
舗装	-11.3425
憎しみ	-11.3425
囃子	-11.3425
容貌	-11.3425
僧侶	-11.3425
盗賊	-11.3425
佐藤さん	-11.3425
酒を飲んで	-11.3425
艦隊	-11.3425
my	-11.3425
粘液	-11.3425
包装	-11.3426
閉鎖	-11.3426
▁おい	-11.3426
到来	-11.3426
耕作	-11.3426
スタイル	-11.3426
戯曲	-11.3426
忘れない	-11.3426
たまたま	-11.3426
モーター	-11.3427
付き合い	-11.3427
▁別の	-11.3427
爵位	-11.3427
こまかい	-11.3427
▁すい	-11.3427
態勢	-11.3427
見積もり	-11.3427
かせぐ	-11.3427
を襲った	-11.3427
生殖	-11.3428
協議	-11.3428
レール	-11.3428
のろい	-11.3428
▁年齢	-11.3428
スズメ	-11.3428
だけに	-11.3428
新横浜	-11.3429
基礎	-11.3429
ともかく	-11.3429
厳しく	-11.3429
実は食用	-11.343
揃い	-11.343
実業家	-11.343
を求めること	-11.343
ひれ	-11.343
予言	-11.343
風采	-11.343
無視	-11.343
それとなく	-11.343
不吉	-11.3431
調布	-11.3431
おばあさん	-11.3431
千代さん	-11.3432
開放	-11.3432
栄光	-11.3432
奉公	-11.3432
成行き	-11.3432
思い切って	-11.3433
たたいた	-11.3434
高等学校	-11.3434
左翼	-11.3434
不動産	-11.3434
東西	-11.3434
添う	-11.3435
登場	-11.3435
未婚	-11.3436
西宮	-11.3436
軍勢	-11.3436
くせ	-11.3436
▁手紙	-11.3436
がうまく	-11.3436
を利用した	-11.3436
主成分	-11.3436
ラテン語	-11.3437
写生	-11.3437
禁煙	-11.3437
ひいき	-11.3437
社寺	-11.3437
変種	-11.3437
下駄	-11.3438
彩色	-11.3438
施行	-11.3438
▁わずかの	-11.3438
絞り	-11.3439
秋田	-11.3439
通商	-11.3439
性能	-11.3439
▁ソ	-11.3439
風味	-11.3439
ふれ	-11.344
元気かい予約変更	-11.344
響き	-11.344
がれる	-11.3441
若葉	-11.3441
転覆	-11.3441
上映	-11.3441
を掘り	-11.3441
遠慮なく	-11.3444
出入口	-11.3444
公務	-11.3445
所にある	-11.3446
概して	-11.3447
砕く	-11.3448
変動	-11.345
たやすく	-11.3451
合同	-11.3451
任意	-11.3452
歩き方	-11.3453
歩行	-11.3453
割れ目	-11.3453
感じだ	-11.3453
分け前	-11.3455
散る	-11.3455
万歳	-11.3455
想像力	-11.3456
給水	-11.3456
ありがたい	-11.3456
▁傍	-11.3456
恋人	-11.3457
おそれ	-11.3457
あえて	-11.3457
▁その車は	-11.3458
▁危	-11.346
子宮	-11.346
チャ	-11.3463
きのこ	-11.3463
古来	-11.3465
敵軍	-11.3465
七日	-11.3465
▁しかし	-11.3465
元来	-11.3466
贈物	-11.3466
小舟	-11.3466
▁8	-11.3466
不完全	-11.3466
過ごした	-11.3466
最上	-11.3467
▁クリスマスの	-11.3467
▁違います	-11.3467
相当な	-11.3468
さわやかな	-11.3468
入札	-11.3468
祈る	-11.3469
しぼり	-11.3469
感じがする	-11.3469
不要	-11.3469
食肉	-11.347
まひ	-11.347
新作	-11.3471
手順	-11.3471
楽しむこと	-11.3471
木炭	-11.3471
▁施	-11.3473
会社に	-11.3473
直立	-11.3473
▁泥棒	-11.3474
公害	-11.3475
▁洪水	-11.3475
▁牧	-11.3476
増大	-11.3477
言行	-11.3478
もてなし	-11.3478
うすい	-11.3479
食用にする	-11.3479
に強く	-11.3479
横木	-11.3482
▁経	-11.3484
少なく	-11.3486
よめ	-11.3487
▁犬が	-11.3488
内内	-11.3489
生えている	-11.3489
群生	-11.3489
▁人間は	-11.3489
整える	-11.3489
野生	-11.349
はく	-11.3491
開会	-11.3492
君には	-11.3492
すう	-11.3493
▁日本は	-11.3494
せみ	-11.3495
の所に	-11.3495
迫る	-11.3497
そんな事	-11.3498
よる	-11.35
あれば	-11.3502
余分	-11.3504
大形で	-11.3506
▁社	-11.3507
上等の	-11.3508
育てること	-11.3508
▁禅	-11.3509
を測る	-11.3511
目黒	-11.3511
▁元気かいの俺の予約	-11.3512
ってくれた	-11.3512
を得ようと	-11.3513
▁古典	-11.3514
との関係	-11.3515
できるように	-11.3515
▁官庁	-11.3516
会長	-11.3517
忘れた	-11.3517
力量	-11.3517
物腰	-11.3518
▁無線	-11.3518
発火	-11.3519
間違いない	-11.3519
居間	-11.352
の美しさ	-11.3521
▁記憶	-11.3523
はさんで	-11.3523
人込み	-11.3524
の方へ	-11.3525
▁必ず	-11.3525
曜	-11.3526
車に乗	-11.3526
鉄製の	-11.3529
それら	-11.3529
▁暴力	-11.3531
を高く	-11.3534
大金	-11.3535
▁組み	-11.3535
削	-11.3536
論理学	-11.3536
細工物	-11.3538
を持つこと	-11.3538
▁漫	-11.354
大洋	-11.354
物質の	-11.3542
▁はるか	-11.3542
起源	-11.3543
捕え	-11.3544
を生ずる	-11.3545
目立つ	-11.3546
科学者	-11.3546
余所	-11.3547
の階級	-11.3549
を動かして	-11.3549
▁スト	-11.3552
検事	-11.3552
うるさく	-11.3554
ばった	-11.3554
度に	-11.3555
を踊る	-11.3556
リス	-11.3558
異常な	-11.3559
▁けんか	-11.3561
▁紫	-11.3561
学生たち	-11.3562
吐き気	-11.3562
だれにも	-11.3563
▁羊	-11.3564
で暮らす	-11.3565
〕「	-11.3568
彼から	-11.3568
▁いつもの	-11.3569
▁シン	-11.3569
頭脳	-11.3569
いとこ	-11.3569
ドイツ	-11.357
二重	-11.3571
気球	-11.3571
▁出来	-11.3572
▁死刑	-11.3573
距離を	-11.3575
逃れる	-11.3577
居所	-11.3578
陥	-11.358
生きて	-11.358
すむ	-11.3581
けし	-11.3581
青銅	-11.3581
暮らしている	-11.3582
▁欲	-11.3583
▁意味	-11.3583
つくす	-11.3584
▁ク	-11.3585
をなくした	-11.3587
辛い	-11.3587
つえ	-11.3588
君子	-11.3589
穏やか	-11.359
倉庫	-11.3591
▁車を	-11.3592
チーズ	-11.3592
ピストル	-11.3594
あらかじめ	-11.3594
直る	-11.3595
▁幾	-11.3596
▁ボール	-11.3597
M	-11.3597
透明な	-11.3597
カップ	-11.3599
となること	-11.3599
上手に	-11.3601
鳩	-11.3601
に任せる	-11.3602
自分の意見を	-11.3605
必	-11.3605
烏	-11.3606
を書いて	-11.3607
▁碁	-11.3608
の目的で	-11.3608
大丈夫	-11.361
エル	-11.361
内側に	-11.361
艶	-11.3611
合成	-11.3611
しゃく	-11.3612
見ている	-11.3613
なので	-11.3615
がだんだん	-11.3616
属する	-11.3616
▁げん	-11.3619
法令	-11.362
交番	-11.3621
▁トラ	-11.3623
書籍	-11.3624
知れない	-11.3624
その話	-11.3625
和紙	-11.3626
紛れ	-11.363
分に	-11.363
▁口で	-11.3631
▁一緒に	-11.3632
午前中	-11.3633
性質が	-11.3633
携帯	-11.3633
印刷物	-11.3635
▁外国語	-11.3635
の弱い	-11.3637
ミス	-11.3638
そろって	-11.364
▁会合	-11.3641
を直す	-11.3642
しゅう	-11.3643
寸法	-11.3644
何だか	-11.3647
電子	-11.3649
▁私の元気かい予約	-11.3651
材木	-11.3654
住むこと	-11.3654
野党	-11.3655
出世する	-11.3656
をまぜて	-11.3663
▁別れ	-11.3664
あて名	-11.3664
ジー	-11.3665
▁かぎ	-11.3666
▁どこか	-11.3668
うまくいく	-11.3668
に仕える	-11.3668
▁小さい	-11.3668
外面	-11.3668
を防ぎ	-11.3669
はねる	-11.3669
さくら	-11.3671
今年	-11.3671
▁呉	-11.3672
して作った	-11.3672
定期	-11.3675
いまからショートメッセージ	-11.3676
▁荒れ	-11.3678
売れる	-11.3678
▁鋭い	-11.3679
▁喜び	-11.3679
▁過去の	-11.368
平らに	-11.3682
▁彼女は自分の	-11.3683
年生	-11.3684
みなさい	-11.3684
▁どう	-11.3684
▁ほかに	-11.3686
締	-11.3687
上流	-11.3687
のあること	-11.3687
▁寺院	-11.3687
いてください	-11.3689
英文学	-11.369
▁内部	-11.3691
甘味	-11.3692
着く	-11.3692
▁かなりの	-11.3694
希望を	-11.3695
をよくする	-11.3696
を除いた	-11.3696
天国	-11.3696
しがたい	-11.3698
便所	-11.3699
▁私は彼の	-11.3703
▁珍	-11.3704
下書き	-11.3704
マイク	-11.3706
木の葉が	-11.3707
どうか	-11.3708
▁彼女と	-11.3708
の顔	-11.371
型に	-11.371
やっている	-11.3713
▁座席	-11.3713
▁祝	-11.3714
▁知	-11.3714
被告人	-11.3716
ハイ	-11.3716
聞こえた	-11.3716
なれて	-11.3717
▁ダンス	-11.3718
思うように	-11.3719
になれ	-11.372
進める	-11.372
全体を	-11.3721
▁鳥が	-11.3724
▁食べ	-11.3726
溺	-11.3726
▁核兵器	-11.373
▁湿	-11.373
▁チ	-11.3731
▁畑	-11.3733
正しくない	-11.3735
見えること	-11.3738
移す	-11.374
▁水平	-11.374
が無い	-11.3741
▁B	-11.3743
びき	-11.3745
入り乱れ	-11.3746
引かれ	-11.3746
▁男女の	-11.3748
先生に	-11.3748
一筆	-11.3749
だます	-11.3749
迎える	-11.3749
宗教的	-11.3751
一度も	-11.3751
どうぞお	-11.3754
聞こえない	-11.3755
ラブ	-11.3756
ぶどう	-11.3757
動作が	-11.3758
花びら	-11.3758
は彼女	-11.3759
▁公園	-11.3761
▁朝食	-11.3766
▁悲しい	-11.3766
▁太鼓	-11.3767
付けた	-11.377
周囲の	-11.3771
所がない	-11.3771
をつくること	-11.3772
その内容	-11.3773
を飾る	-11.3776
の寸法	-11.3777
急ぎの	-11.3777
どちらか	-11.3778
泣	-11.378
てくれる	-11.3781
没する	-11.3782
陰で	-11.3782
▁恵	-11.3783
▁生徒	-11.3786
下がった	-11.3787
▁物語	-11.3789
のだから	-11.3789
世を	-11.379
っていて	-11.3792
づら	-11.3792
一個	-11.3792
▁辞書	-11.3793
埋	-11.3794
▁湿度	-11.3796
ことが多い	-11.3797
を扱う	-11.3797
のぼる	-11.3799
学生が	-11.3799
わな	-11.38
中で一番	-11.38
の上の	-11.38
▁宝石	-11.38
建築物	-11.3804
雄は	-11.3805
初めに	-11.3805
▁小便	-11.3806
無く	-11.3806
ひざを	-11.3807
ようなことを	-11.3807
並べる	-11.3808
を減らす	-11.3809
反抗	-11.3809
決める	-11.3812
貯	-11.3813
せられる	-11.3813
▁解	-11.3813
を並べる	-11.3815
写真をいまから	-11.3816
告げる	-11.3816
変えること	-11.3817
着いた	-11.3817
切断	-11.3818
▁終わり	-11.3821
尽くし	-11.3821
流れている	-11.3821
られます	-11.3824
ほどに	-11.3825
ゆり	-11.3826
寂	-11.3827
をおろす	-11.3828
この世	-11.3833
▁記念	-11.3834
誇	-11.3836
個体	-11.3838
ローマ	-11.3839
取り決め	-11.384
の大きい	-11.3841
敬意	-11.3842
▁累	-11.3843
▁如	-11.3845
尋ね	-11.385
自動車の	-11.3851
間に合わせ	-11.3852
なう	-11.3854
を獲得する	-11.3857
捜索	-11.3859
高温	-11.386
蒸留	-11.3861
自殺する	-11.3862
国家の	-11.3863
▁家畜	-11.3864
▁僕が	-11.3866
変だ	-11.3869
らなければならない	-11.387
を整える	-11.3871
枝を	-11.3871
あがること	-11.3874
▁ギリシャ	-11.388
▁緊急	-11.3883
を害する	-11.3883
随意	-11.3884
もろ	-11.3886
のまわりに	-11.3886
全体に	-11.3887
日から	-11.3887
が出て	-11.3888
▁吹き	-11.3889
▁心身	-11.3891
▁童	-11.3892
▁いったん	-11.3897
調子で	-11.3897
が異なる	-11.3899
をこめて	-11.39
の中へ	-11.3902
▁彼は我々に	-11.3902
下宿	-11.3902
弾力	-11.3903
組んで	-11.3904
散歩する	-11.3906
考えている	-11.3906
訪問する	-11.3907
▁暇	-11.3907
してはならない	-11.3908
の広い	-11.3909
染めた	-11.3911
本質	-11.3912
ばかげた	-11.3913
▁約	-11.3913
▁フランス語	-11.3914
からなる	-11.3915
まっ	-11.3915
てから	-11.3917
釈迦	-11.3918
もし	-11.3919
▁十分な	-11.3919
お薬屋	-11.392
▁抜	-11.392
行か	-11.3921
▁書類	-11.3921
▁私の元気かいの予約	-11.3923
を発揮する	-11.3923
▁射	-11.3923
刷	-11.3925
▁続	-11.3928
意味で	-11.393
にし	-11.3931
なんとか	-11.3933
を脱ぐ	-11.3935
自国	-11.3935
はいられない	-11.3937
▁その事件	-11.3937
▁猛烈な	-11.3937
揚げる	-11.3939
▁じゅ	-11.3943
サー	-11.3945
▁その問題	-11.3946
可能	-11.3948
においがする	-11.3948
が切れ	-11.395
楽しく	-11.395
の体	-11.395
りました	-11.3951
ある場所	-11.3952
きめる	-11.3953
▁しゃく	-11.3954
国籍	-11.3954
▁排	-11.3954
伸	-11.3956
甚	-11.3957
▁大体	-11.3958
まれな	-11.3959
径	-11.3961
▁へたな	-11.3961
いっぱいに	-11.3961
すわっている	-11.3962
すぐれた人	-11.3963
やっかいな	-11.3964
荒い	-11.3965
▁恐ろしい	-11.3967
抑制	-11.3967
そこなう	-11.3968
恥ずかしい	-11.3968
巣鴨	-11.3968
相手が	-11.397
をねらう	-11.3971
それまで	-11.3972
均衡	-11.3975
▁さく	-11.3976
って来る	-11.3976
嫡	-11.3976
だらだら	-11.3977
継続	-11.3978
班	-11.3978
黄褐色	-11.3978
小学校	-11.3978
伯	-11.3978
独創	-11.3979
私の元気かいの予約	-11.3979
イオン	-11.3979
誕生	-11.3979
ョ	-11.3979
契	-11.3979
殴	-11.3979
田園	-11.3979
牙	-11.3979
k	-11.398
須	-11.398
カルシウム	-11.398
交互に	-11.398
籤	-11.398
莫	-11.398
すさまじい	-11.398
擇	-11.398
燗	-11.398
ブランデー	-11.398
濫	-11.398
群れをなして	-11.398
カナダ	-11.398
仲たがい	-11.398
篭	-11.398
鰐	-11.398
▁相互	-11.398
ケーブル	-11.398
ドラマ	-11.398
扉	-11.398
桐	-11.398
武蔵小杉	-11.398
絃	-11.398
蔓	-11.398
行なわれた	-11.398
飴	-11.398
千代子さん	-11.398
桜木町	-11.398
鯛	-11.398
卜	-11.398
竿	-11.398
チョーク	-11.398
咳	-11.398
帥	-11.398
びっくりして	-11.398
薫	-11.398
子寬燭舛	-11.398
猛烈に	-11.398
やかましく	-11.398
庵	-11.398
スプーン	-11.398
培養	-11.398
独特の	-11.398
せなかった	-11.398
▁この上なく	-11.398
を築く	-11.398
昭和	-11.398
封建	-11.398
転換	-11.398
堤防	-11.398
粘膜	-11.398
包囲	-11.398
誇張	-11.398
頑固	-11.398
いただけませんか	-11.3981
停泊	-11.3981
倉敷	-11.3981
助詞	-11.3981
補佐	-11.3981
効能	-11.3981
たくましい	-11.3981
に次ぐ	-11.3981
苦悩	-11.3981
健太	-11.3981
規格	-11.3981
人工衛星	-11.3981
遊戯	-11.3981
見せかけ	-11.3981
少なくとも	-11.3981
祝賀	-11.3982
慣例	-11.3982
あらまし	-11.3982
征服	-11.3982
勝敗	-11.3982
知り合い	-11.3982
接待	-11.3982
恒星	-11.3982
われわれ	-11.3982
タンク	-11.3982
調停	-11.3982
車は	-11.3982
宿題	-11.3982
尽き	-11.3982
貝殻	-11.3982
かなわない	-11.3983
仕組み	-11.3983
未知の	-11.3983
記載	-11.3983
患部	-11.3983
仕返し	-11.3983
屈折	-11.3983
就業	-11.3983
誤差	-11.3983
何らかの	-11.3983
依存	-11.3983
わざわざ	-11.3983
やりくり	-11.3983
混雑	-11.3983
いっそう	-11.3984
残忍	-11.3984
往生	-11.3984
くする	-11.3984
静脈	-11.3985
から関内まで	-11.3985
威光	-11.3985
本日	-11.3985
脱獄	-11.3985
きっぱり	-11.3986
単独	-11.3986
ノン	-11.3986
酒に酔って	-11.3986
必ずしも	-11.3986
とらわれ	-11.3986
解散	-11.3986
真似	-11.3986
座標	-11.3987
信託	-11.3987
世襲	-11.3987
▁国境	-11.3987
値上げ	-11.3987
強制的に	-11.3987
浄土	-11.3988
絶縁	-11.3988
オール	-11.3988
隠れた	-11.3988
著書	-11.3988
武術	-11.3988
四季	-11.3989
剣術	-11.3989
敬礼	-11.3989
強烈な	-11.3989
発育	-11.3989
鳥獣	-11.3989
異なった	-11.399
信頼できる	-11.399
連結	-11.399
仙台	-11.399
政務	-11.399
笑顔	-11.399
食べられる	-11.3991
難破	-11.3992
破滅	-11.3992
令状	-11.3992
▁明日の天気	-11.3992
通用	-11.3992
感じを与える	-11.3992
連邦	-11.3993
いたしました	-11.3993
子供ちゃん	-11.3993
不可能だ	-11.3993
定期的に	-11.3993
順位	-11.3994
話し方	-11.3994
全集	-11.3994
廻り	-11.3995
▁活	-11.3995
ぞっとし	-11.3996
へだて	-11.3996
苦難	-11.3997
百年	-11.3997
ース	-11.3998
たいてい	-11.3998
取扱い	-11.3999
海産	-11.3999
漢文	-11.3999
暗記	-11.4
を申し込む	-11.4001
無臭	-11.4001
喜んだ	-11.4001
すがた	-11.4001
伝達	-11.4001
どけ	-11.4001
走っている	-11.4002
厚木	-11.4002
枚方	-11.4003
障り	-11.4003
のに用いる	-11.4004
悪党	-11.4004
声明	-11.4005
泣いた	-11.4005
ほぐ	-11.4006
ほれ	-11.4006
連隊	-11.4006
無効	-11.4007
からといって	-11.4007
ダン	-11.4008
を免れ	-11.4008
性欲	-11.4009
観光客	-11.401
合奏	-11.401
まぶた	-11.401
答えた	-11.4011
一段と	-11.4011
器量	-11.4011
を生む	-11.4012
らっぱ	-11.4012
▁疲れ	-11.4012
をたたき	-11.4012
とされている	-11.4013
ハー	-11.4014
をうかがう	-11.4014
自称	-11.4014
乗船	-11.4015
壊れ	-11.4015
見渡す	-11.4015
の際に	-11.4016
過ち	-11.4016
もらって	-11.4016
▁年をとって	-11.4017
▁人情	-11.4017
くぎり	-11.4017
ひそ	-11.4017
これだけ	-11.4018
善意	-11.4018
渡った	-11.4018
気絶	-11.4018
体内に	-11.4018
をさせる	-11.402
not	-11.4021
▁井戸	-11.4022
植物の	-11.4022
店員	-11.4023
所有者	-11.4025
▁小さな	-11.4025
こわれた	-11.4026
▁その話は	-11.4027
なさけ	-11.4028
まさ	-11.4029
読み方	-11.403
平凡な	-11.4031
敬意を表する	-11.4031
▁えい	-11.4031
川越	-11.4032
唱える	-11.4032
もせず	-11.4032
▁筋	-11.4032
大学で	-11.4034
退学	-11.4037
さまざまの	-11.4037
書きしるす	-11.4037
▁その仕事	-11.4038
もよい	-11.4039
放す	-11.4039
賢明な	-11.4039
自分を	-11.404
積み重ね	-11.4043
支配者	-11.4043
▁火山	-11.4043
▁声を	-11.4043
好きだ	-11.4045
ときは	-11.4046
しょうゆ	-11.4047
滑	-11.4047
▁冷静	-11.4051
駒込	-11.4052
広げ	-11.4053
に浮かぶ	-11.4053
走ること	-11.4054
▁彼はドア	-11.4054
▁その土地	-11.4055
書画	-11.4058
▁厚	-11.4059
重ねて	-11.4059
ほのか	-11.4059
を取った	-11.4059
堅	-11.406
もともと	-11.4061
いわれ	-11.4061
の客	-11.4063
▁彼は父親	-11.4064
小僧	-11.4064
の責任	-11.4064
を構成する	-11.4065
▁不可	-11.4067
武者	-11.4067
移し	-11.4067
一刻	-11.4068
▁゚	-11.4068
▁漸	-11.4069
上方	-11.4073
無関係	-11.4074
音便	-11.4076
地表	-11.4078
船を	-11.4079
th	-11.4079
村上さん	-11.4079
の月	-11.4079
てきている	-11.4079
分の一	-11.408
びれ	-11.408
▁軒	-11.408
腕力	-11.4081
祝う	-11.4081
のではないかと	-11.4082
浄化	-11.4084
風土	-11.4085
の割合	-11.4085
熱心な	-11.4089
換える	-11.4092
▁信号	-11.4095
洋子	-11.4095
寄せ集め	-11.4095
言う事	-11.4097
無作法	-11.41
その場	-11.4101
歌劇	-11.4101
のそば	-11.4101
ためになる	-11.4101
本体	-11.4102
ができ	-11.4102
た時	-11.4102
三日	-11.4102
▁彼から	-11.4103
登り	-11.4103
霧が	-11.4103
国外	-11.4104
水の	-11.4106
▁兼	-11.4106
内輪	-11.4106
亜	-11.4107
真相	-11.4107
しぼ	-11.4107
めちゃめちゃに	-11.4108
▁恐れ	-11.411
中身	-11.4111
▁農	-11.4112
関係がない	-11.4113
しめた	-11.4113
ひる	-11.4114
▁赤ん坊は	-11.4114
を妨げる	-11.4114
すらすらと	-11.4114
を探る	-11.4116
▁部屋の	-11.4116
▁舟	-11.4116
の役	-11.412
不当	-11.412
漢字の	-11.412
▁寄	-11.4121
えら	-11.4122
と言えば	-11.4122
知事	-11.4126
慣れる	-11.4126
活動する	-11.4127
▁弟	-11.4128
ふたり	-11.4129
暴動	-11.4129
▁さっさと	-11.4131
削る	-11.4134
法会	-11.4135
の支払い	-11.4137
月末	-11.4139
▁ペ	-11.4139
▁天地	-11.414
▁大便	-11.414
こっそりと	-11.414
▁悲	-11.4143
んじゃない	-11.4143
磁気	-11.4146
家へ	-11.4147
独自の	-11.4147
の形で	-11.4148
靴討	-11.415
を飛ばす	-11.415
体重	-11.4153
着ける	-11.4153
▁複	-11.4154
▁地上	-11.4155
強いこと	-11.4159
しょく	-11.4164
悪人	-11.4167
をひいて	-11.4167
通う	-11.4168
一種	-11.417
▁疑問	-11.4171
▁水は	-11.4172
違っている	-11.4174
固有の	-11.4174
▁台所	-11.4176
計画を立てる	-11.4177
皮を	-11.4181
してから	-11.4181
がね	-11.4182
▁文章の	-11.4182
じゅうたん	-11.4182
かねる	-11.4183
寄って	-11.4185
▁勇気	-11.4188
何事も	-11.4188
国王	-11.4189
くてたまらない	-11.4189
有機	-11.4191
変え	-11.4193
言ったり	-11.4194
ておきなさい	-11.4198
相談する	-11.4198
これこれ	-11.4198
〇〇	-11.4198
倒し	-11.4198
タクシー	-11.42
相対	-11.4201
すでに	-11.4201
ずく	-11.4202
きら	-11.4202
に足りない	-11.4202
音を立て	-11.4203
▁網	-11.4204
▁出産	-11.4206
けがれ	-11.4206
はいい	-11.4206
▁先生	-11.4207
▁彼はどんな	-11.4208
話して	-11.4209
とどめ	-11.4211
的には	-11.4211
▁事業	-11.4211
▁今までに	-11.4212
心の中に	-11.4214
年ごとに	-11.4215
D	-11.4216
俺の元気かいの予約	-11.4216
たびたび	-11.4216
いよいよ	-11.4217
でもある	-11.4217
伸ばし	-11.4218
請け	-11.4218
と考えている	-11.4219
甘く	-11.4221
涙を流す	-11.4221
安全かどうかの診断	-11.4221
繁殖	-11.4222
の仲間	-11.4222
国土	-11.4222
ビタミン	-11.4223
▁戦争の	-11.4223
公開	-11.4226
ばくち	-11.4228
優しい	-11.4228
▁豊	-11.4228
▁すぐに電話かける	-11.4228
仕える	-11.4229
どうやら	-11.423
T	-11.423
建設	-11.4231
そうしたもの	-11.4231
熱心	-11.4232
哀	-11.4234
明治	-11.4234
梅雨	-11.4234
山頂	-11.4234
偏見	-11.4235
▁どん	-11.4236
の地位	-11.4236
固め	-11.4237
を引いた	-11.4239
そう言った	-11.424
インフレ	-11.424
ぜひ	-11.4241
旅館	-11.4241
▁没	-11.4244
▁裁縫	-11.4244
□・・	-11.4245
▁むり	-11.4245
予備	-11.4246
その問題について	-11.4247
酸味	-11.4247
▁日常	-11.4247
▁貴人	-11.4247
の下で	-11.4248
に現れた	-11.4249
悪意	-11.425
地味	-11.4253
▁辛	-11.4254
蹴	-11.4255
▁一人	-11.4256
▁顔を	-11.4259
海底	-11.426
腹を立てる	-11.4261
トリ	-11.4263
▁ヘ	-11.4263
があまり	-11.4267
して下さい	-11.4268
チョウ	-11.4268
▁巻き	-11.4269
▁彼はひどく	-11.4272
二人以上	-11.4273
▁よし	-11.4275
六つ	-11.4277
▁女子	-11.4278
芸者	-11.4278
正常	-11.4278
はずいぶん	-11.4282
▁彼も	-11.4282
語った	-11.4283
外見	-11.4283
▁サン	-11.4284
立体	-11.4286
いるさま	-11.4287
▁兄弟	-11.429
はかない	-11.4291
▁風呂	-11.4291
熟した	-11.4296
▁事件の	-11.4297
本心	-11.4297
▁得	-11.4299
おぼれ	-11.4299
赤道	-11.4302
足音	-11.4302
召し	-11.4304
みえ	-11.4306
まさか	-11.4307
を注ぐ	-11.4307
いくさ	-11.4307
私にとって	-11.4307
でいた	-11.4308
仏道	-11.4308
ぼし	-11.4308
占	-11.4311
の者が	-11.4311
綴	-11.4311
ld	-11.4312
かなりの	-11.4313
ことになる	-11.4313
▁地獄	-11.4313
いし	-11.4314
噴	-11.4314
セーター	-11.4315
▁昆虫	-11.4315
同等	-11.4316
うっとり	-11.4316
頼んで	-11.4318
高値	-11.4319
通過	-11.4319
に言えば	-11.4319
大根	-11.4321
先日	-11.4322
をうつ	-11.4323
▁とんでもない	-11.4323
▁種種の	-11.4324
やってみた	-11.4324
大砲	-11.4337
▁言葉を	-11.4339
成る	-11.4339
切に	-11.434
▁彼は妻	-11.4344
千万円	-11.4345
▁ポケット	-11.4345
▁赤道	-11.4345
主人の	-11.4348
▁和歌	-11.4349
▁この問題は	-11.4353
一撃	-11.4354
▁セ	-11.4354
▁聴覚	-11.4357
安全度のチェック診断	-11.4361
過労	-11.4365
の糸	-11.4366
この点	-11.4367
▁靴を	-11.4368
▁烏	-11.4369
組む	-11.4369
天気どう	-11.4369
の骨	-11.4371
▁江戸時代に	-11.4371
の旅	-11.4372
悪口を言う	-11.4374
▁do	-11.4376
▁だれにも	-11.4377
の回転	-11.4378
▁燃料	-11.4378
いかがですか	-11.4379
▁貝	-11.438
の新	-11.4381
に来た	-11.4382
乱暴に	-11.4384
十一	-11.4385
意味の	-11.4387
▁めでたい	-11.4388
テント	-11.4388
正直に	-11.4388
事を行う	-11.4394
散り	-11.4397
as	-11.4398
あふれてい	-11.44
を開始する	-11.4402
見掛け	-11.4403
月日	-11.4404
外から	-11.4405
▁応	-11.4406
意見を述べる	-11.4407
▁排水	-11.4408
▁ホームヘルパー	-11.4409
▁熱帯	-11.4409
▁こんなに	-11.441
科の落葉低木	-11.4411
グレ	-11.4411
けもの	-11.4413
母親の	-11.4413
助けて	-11.4413
▁恩	-11.4414
に添える	-11.4415
集まっている	-11.4415
ならなかった	-11.4416
ぐり	-11.4416
浦和	-11.4417
はっと	-11.4419
かざ	-11.442
日常の	-11.442
▁呼び	-11.4422
▁食物	-11.4422
武士の	-11.4424
の母	-11.4426
▁費用は	-11.4426
公平に	-11.4427
の花が	-11.4427
金属を	-11.4427
できるだけ	-11.4427
▁穀物	-11.4428
▁バイオリン	-11.4428
打ち解け	-11.4432
作られる	-11.4432
潔白	-11.4433
前兆	-11.4436
土曜日	-11.4436
▁講義	-11.4438
を知らせる	-11.4442
問題について	-11.4442
りやすい	-11.4445
あとの	-11.4446
此	-11.4446
▁堅い	-11.4451
手荷物	-11.4451
生理	-11.4453
抜いて	-11.4453
を加えた	-11.4453
俗人	-11.4454
駐車	-11.4454
管轄	-11.4455
平地	-11.4456
さあ	-11.4458
であり	-11.446
▁情け	-11.446
ter	-11.4461
の薬	-11.4462
せば	-11.4463
せられた	-11.4464
こわす	-11.4464
湿度はどう	-11.4465
説得	-11.4465
きる	-11.4472
▁灰	-11.4473
に関すること	-11.4476
▁身分の高い人	-11.4476
をあて	-11.4478
間柄	-11.4479
▁じゃ	-11.448
の発達	-11.448
戦争で	-11.4482
▁大丈夫	-11.4483
党員	-11.4487
▁小麦	-11.4487
がとれる	-11.4487
大声	-11.4488
五センチ	-11.4488
▁ある事を	-11.449
▁まるで	-11.4492
のでなく	-11.4492
▁非常な	-11.4494
呈	-11.4494
燃	-11.4495
のところで	-11.4496
▁インク	-11.4496
の花が咲く	-11.4497
あんなに	-11.4497
土地の	-11.4498
て言う語	-11.4499
概	-11.4499
をしのぐ	-11.45
ことがわかっ	-11.4501
苦しく	-11.4503
発作	-11.4503
悪事を	-11.4506
に及ぶ	-11.4506
監禁	-11.4507
ごし	-11.4507
を乱す	-11.4508
▁木の	-11.4508
ずし	-11.4508
▁くず	-11.4511
上陸	-11.4512
▁ある物	-11.4512
通ってい	-11.4513
つる草	-11.4513
米を	-11.4517
確実	-11.4518
伝える	-11.4521
送金	-11.4522
かぬ	-11.4523
をたたいて	-11.4524
溶け	-11.4525
にぶい	-11.4525
焼ける	-11.4529
じょうず	-11.4529
長崎	-11.453
へや	-11.453
を捜した	-11.453
相模原	-11.4532
配り	-11.4533
滅び	-11.4533
ウエスト	-11.4535
を浴びる	-11.4538
推定	-11.454
漠	-11.4542
を晴らす	-11.4542
を見捨て	-11.4543
の仲	-11.4544
供える	-11.4544
箇	-11.4544
潰	-11.4544
模型	-11.4544
▁みだらな	-11.4544
▁エレベーター	-11.4545
の車	-11.4545
▁子供は	-11.4545
の鳥	-11.4545
だれの	-11.4546
尋ねた	-11.4547
嘆願	-11.4548
不定	-11.4548
でこぼこ	-11.4549
▁都会	-11.4549
提供	-11.4549
▁妊娠	-11.455
認	-11.455
宣告	-11.4551
始末	-11.4551
ねばならない	-11.4551
選ぶ	-11.4552
永遠	-11.4553
絹布	-11.4553
写真をいまから送信	-11.4554
八王子	-11.4554
▁昨夜は	-11.4555
になるような	-11.4556
注ぎ	-11.4556
一か所に	-11.4556
高円寺	-11.4558
媒	-11.4559
▁送	-11.4559
ブラウン	-11.4561
鋒	-11.4562
を禁じ	-11.4562
▁今日の	-11.4563
賓	-11.4563
ないうちに	-11.4564
▁国の	-11.4564
委	-11.4564
蕩	-11.4565
惜しみ	-11.4566
に伴う	-11.4566
提携	-11.4566
蹐	-11.4566
に値する	-11.4566
斗	-11.4567
表した	-11.4567
F	-11.4567
需	-11.4567
弥	-11.4567
ばばさん	-11.4567
混合	-11.4567
せっせと	-11.4568
杉	-11.4568
を禁ずる	-11.4568
兎	-11.4568
▁あの男の	-11.4568
苛	-11.4568
を払って	-11.4568
喝	-11.4568
拳銃	-11.4568
悊	-11.4568
款	-11.4568
奨	-11.4568
誼	-11.4568
吾	-11.4568
にかかわらず	-11.4568
紗	-11.4568
憐	-11.4568
鯉	-11.4568
朴	-11.4568
タッチ	-11.4568
ホルモン	-11.4568
大げさに	-11.4568
G	-11.4568
ぎゅっと	-11.4568
ちゅうちょ	-11.4568
コルク	-11.4568
ソファー	-11.4568
詮	-11.4568
▁飢え	-11.4568
ジャングル	-11.4568
トマト	-11.4568
文房具	-11.4568
燕	-11.4568
痔	-11.4568
いわゆる	-11.4568
うろたえ	-11.4568
をきわめる	-11.4568
スイッチ	-11.4568
曚	-11.4568
次から次へと	-11.4568
L	-11.4568
を慰める	-11.4568
奨学金	-11.4568
閨	-11.4568
を仰ぐ	-11.4568
徐々に	-11.4568
たぶん	-11.4568
表彰	-11.4568
▁二十四気	-11.4568
煩悩	-11.4568
たきぎ	-11.4568
イングランド	-11.4568
夜が明け	-11.4568
催促	-11.4569
巡査	-11.4569
プリント	-11.4569
保障	-11.4569
カーブ	-11.4569
外套	-11.4569
五月ごろ	-11.4569
放射線	-11.4569
発酵	-11.4569
郡	-11.4569
周旋	-11.4569
潜水艦	-11.4569
ミシン	-11.4569
激励	-11.457
セメント	-11.457
腐敗	-11.457
功労	-11.457
ウェ	-11.457
やさしく	-11.457
結末	-11.457
賃上げ	-11.457
ミング	-11.457
ギヤ	-11.457
量を	-11.457
関東	-11.457
簿記	-11.457
郷里	-11.457
元気かい俺の予約状況	-11.4571
デート	-11.4571
土俵	-11.4571
皇族	-11.4571
元気かい私の予約状況	-11.4571
考えてみ	-11.4571
光栄	-11.4571
婚礼	-11.4571
休止	-11.4571
鮮明	-11.4572
誠意	-11.4572
デモ	-11.4572
長い年月	-11.4572
に含まれる	-11.4572
僕が	-11.4572
球技	-11.4572
ジャム	-11.4572
冷凍	-11.4572
浜辺	-11.4572
たくみに	-11.4573
住んでいた	-11.4573
發里	-11.4573
な男	-11.4573
ソン	-11.4573
因縁	-11.4573
▁東洋	-11.4574
工具	-11.4574
ポン	-11.4574
神秘的な	-11.4574
ほんの少し	-11.4574
百姓	-11.4574
達成	-11.4574
ある種の	-11.4575
▁電力	-11.4575
情景	-11.4575
失策	-11.4575
危害	-11.4576
自動的に	-11.4576
草稿	-11.4576
卒業生	-11.4576
▁この部屋は	-11.4576
殺害	-11.4577
荒廃	-11.4577
映画館	-11.4577
明らか	-11.4577
寄生	-11.4577
はげしく	-11.4577
に報いる	-11.4577
渡辺	-11.4578
カット	-11.4578
に相当する	-11.4578
のないように	-11.4578
売り上げ	-11.4579
に入っている	-11.4579
高貴	-11.4579
体育	-11.4579
可能な	-11.458
大崎	-11.458
実施	-11.458
成句	-11.458
▁妻の	-11.458
会わない	-11.458
緑色で	-11.458
要約	-11.4581
こぼし	-11.4581
おおもと	-11.4581
定刻	-11.4582
断定	-11.4582
半島	-11.4582
不便	-11.4582
所沢	-11.4582
沈む	-11.4582
九州	-11.4583
夏休み	-11.4583
図案	-11.4583
皮膚病	-11.4583
合議	-11.4583
にあずかる	-11.4583
▁中古	-11.4583
パンチ	-11.4583
クマ	-11.4583
逆転	-11.4583
一晩中	-11.4583
反省	-11.4583
みがき	-11.4583
火鉢	-11.4584
と聞いて	-11.4584
不愉快	-11.4584
歴史的	-11.4584
生育	-11.4584
を証明する	-11.4584
真価	-11.4584
くじら	-11.4584
重荷	-11.4585
見出し	-11.4586
原野	-11.4587
手がかり	-11.4587
▁処女	-11.4587
長生き	-11.4587
利息	-11.4587
から西川口まで	-11.4587
計器	-11.4588
となえる	-11.4589
▁鉄道の	-11.4589
上司	-11.4591
ちがい	-11.4592
粒子	-11.4592
あげく	-11.4592
すっきり	-11.4593
純白	-11.4593
音を出す	-11.4593
もはや	-11.4593
ところがあった	-11.4595
たぐい	-11.4595
選手権	-11.4596
読み書き	-11.4596
その上	-11.4597
暗示	-11.4597
この計画	-11.4597
群集	-11.4598
けがをした	-11.4598
をなしている	-11.46
▁ペンキ	-11.46
血が	-11.4601
にあてる	-11.4601
出帆	-11.4601
▁肉屋	-11.4601
整数	-11.4602
砂糖を	-11.4602
黄色で	-11.4602
を愛する	-11.4602
杯の	-11.4603
陣地	-11.4604
▁男性	-11.4604
一年中	-11.4604
▁幽	-11.4604
日常	-11.4605
くれない	-11.4605
大学の	-11.4605
公判	-11.4605
救い	-11.4606
砂利	-11.4606
多くの人	-11.4606
▁脊椎動物の	-11.4607
一まとまり	-11.4608
あざやかな	-11.4608
▁れい	-11.4609
の列車	-11.4609
を他の	-11.4609
に気づいた	-11.461
引き出し	-11.461
好ましくない	-11.461
をこしらえる	-11.461
▁頬	-11.4611
歌曲	-11.4611
かって	-11.4611
▁拙	-11.4612
時ごろ	-11.4612
▁表面	-11.4612
穂状	-11.4612
不和	-11.4613
当座	-11.4613
単なる	-11.4614
ちがう	-11.4615
の政治	-11.4615
をいう	-11.4617
切ること	-11.4618
坊や	-11.4618
▁シェイクスピア	-11.4619
学位	-11.4619
▁当て	-11.462
▁身長	-11.4621
破れ	-11.4621
▁女性の	-11.4621
との中間	-11.4623
通例	-11.4623
と言われる	-11.4623
▁ほら	-11.4624
を確かめる	-11.4625
資本家	-11.4625
獲得	-11.4627
主役	-11.4627
▁私は彼女	-11.4627
帆船	-11.463
実が	-11.463
柔らかな	-11.4632
ぶね	-11.4633
に参加する	-11.4633
▁天気どう	-11.4634
説く	-11.4634
浮かぶ	-11.4634
のおかげで	-11.4634
方策	-11.4636
くだもの	-11.4636
谷間	-11.4637
浅く	-11.4637
音程	-11.4637
主任	-11.4637
包む	-11.4638
々たる	-11.464
そうな様子	-11.4641
もも	-11.4643
帰国	-11.4643
第三者	-11.4645
才気	-11.4645
休息	-11.4646
下院	-11.4648
をたどる	-11.4649
▁興行	-11.4649
酔う	-11.465
▁こく	-11.465
▁新聞の	-11.465
の景色	-11.4653
メッセージをケアマネージャ	-11.4654
▁肥	-11.4655
で写真すぐに	-11.4655
▁こちら	-11.4656
に似ているが	-11.4656
▁天気予報どう	-11.4656
あいている	-11.4657
不明の	-11.4657
高輪	-11.4659
すぐにメッセ	-11.4659
半期	-11.466
にすむ	-11.4662
▁°	-11.4662
登る	-11.4663
▁聖書	-11.4663
かれて	-11.4664
度数	-11.4664
水や	-11.4665
はかま	-11.4665
ふところ	-11.4666
▁質問	-11.4668
▁キリスト教で	-11.467
金持	-11.4672
示した	-11.4672
よくよく	-11.4675
▁昼食	-11.4677
全世界	-11.4678
創作	-11.4678
おかず	-11.4678
乗せて	-11.4678
▁阿	-11.4678
▁なお	-11.468
王国	-11.4681
斜めに	-11.4682
作物の	-11.4682
枝が	-11.4685
歩道	-11.4685
きました	-11.4685
返した	-11.4686
がちだ	-11.4686
蕕譴	-11.4687
▁不平	-11.469
にそむく	-11.4692
のしみ	-11.4692
▁困難	-11.4693
を述べた	-11.4693
小説家	-11.4693
投げる	-11.4695
▁公共	-11.4696
になるように	-11.4696
上演	-11.4697
▁絵画	-11.4697
▁透	-11.4698
生物が	-11.4701
た食品	-11.4701
を巻く	-11.4703
▁しばらく	-11.4705
▁彼は友人	-11.4705
▁警戒	-11.4706
あわせること	-11.4708
どく	-11.4709
を結び	-11.4709
▁結果は	-11.471
▁敬	-11.4711
物事を行う	-11.4712
▁濃	-11.4712
をごまかす	-11.4714
腐れ	-11.4714
ーム	-11.4714
とらえ	-11.4715
ショートメッセージちょっと	-11.4715
▁ジョン	-11.4718
仮に	-11.4718
自分から	-11.4718
▁私たちの	-11.4719
政界	-11.472
越年生	-11.4722
つやがある	-11.4723
なれば	-11.4724
▁株式	-11.4725
▁明日香	-11.4726
に分けて	-11.4727
日曜	-11.4728
を見ること	-11.4728
は僕の	-11.4729
降った	-11.4729
かぶと	-11.473
の羽	-11.4731
銃声	-11.4731
▁20	-11.4732
不作	-11.4732
白色で	-11.4734
▁ここに	-11.4734
の荒い	-11.4734
▁食物を	-11.4734
っぽく	-11.4734
よくわかる	-11.4736
▁軍艦	-11.4736
大笑い	-11.4736
▁技術	-11.4737
加わる	-11.4738
をきれいに	-11.4739
貯え	-11.474
に悩む	-11.4741
赤ん坊を	-11.4741
東洋	-11.4741
実地に	-11.4742
てやった	-11.4742
学校の	-11.4743
すわること	-11.4744
点数	-11.4745
▁職務	-11.4745
じじ	-11.4748
▁ジャ	-11.4748
割れた	-11.475
手に入れ	-11.4752
ができて	-11.4752
平方	-11.4758
▁ちょっとショートメッセージ	-11.4759
▁頓	-11.4763
去って	-11.4764
を握る	-11.4765
の一派	-11.4765
正確	-11.4766
のだろうか	-11.4767
大家	-11.4769
を勤める	-11.477
▁釣	-11.4775
▁軍人	-11.4776
に話す	-11.4781
もしなかった	-11.4781
▁かわいい	-11.4781
ていないこと	-11.4783
▁つめ	-11.4784
あの世	-11.4784
小便	-11.4784
をつなぐ	-11.4785
出発した	-11.4785
▁加古川	-11.4787
▁春の	-11.4787
助けてくれ	-11.4787
求めること	-11.4788
道が	-11.479
誠に	-11.479
▁又	-11.4793
▁狩猟	-11.4793
▁彼女は自分	-11.4794
急所	-11.4795
▁運賃	-11.4795
待ってい	-11.4795
を抜いて	-11.4796
▁人類	-11.4799
▁しょ	-11.4799
ならす	-11.4799
会場	-11.48
廃物	-11.4801
▁悪魔	-11.4802
▁彼女を	-11.4804
新聞で	-11.4805
かろう	-11.4807
▁カメラ	-11.4807
海上	-11.4811
の意志	-11.4816
あれほど	-11.4817
南浦和	-11.4818
詩の	-11.482
その上に	-11.4822
スピード	-11.4823
▁まさか	-11.4824
▁衆	-11.4824
夏に	-11.4827
料理の	-11.4829
共鳴	-11.483
論ずる	-11.4831
分別	-11.4833
すぐれたもの	-11.4833
斜め	-11.4835
ポスト	-11.4835
進路	-11.4835
が落ちる	-11.4836
一派	-11.4837
になります	-11.4838
だらけ	-11.4839
▁今日の気候	-11.4841
に咲く	-11.4841
細君	-11.4842
じた	-11.4844
実体	-11.4844
おぼれる	-11.4845
通じている	-11.4845
をなして	-11.4845
▁邪	-11.485
ふん	-11.4851
日曜日	-11.4851
▁この世	-11.4852
で写真ちょっと	-11.4855
の報道	-11.4855
をつけない	-11.4855
その場で	-11.4857
行ない	-11.486
をつか	-11.4863
▁実物	-11.4863
花の	-11.4864
焼けて	-11.4864
▁侍	-11.4867
拾	-11.4867
▁枕	-11.4868
▁ベッド	-11.487
その日の	-11.4871
端に	-11.4871
を楽しむ	-11.4872
▁家屋	-11.4873
▁意地	-11.4873
▁白い	-11.4874
巻きつけ	-11.4876
▁会場	-11.4877
の表	-11.4877
▁正面	-11.4878
▁いまから救急車	-11.4878
不幸な	-11.488
を望む	-11.4881
当時の	-11.4883
音の	-11.4883
H	-11.4884
▁ジョンは	-11.4884
幾つ	-11.4885
をすっかり	-11.4885
▁明かり	-11.4888
陰謀	-11.4889
したものだ	-11.4889
接する	-11.4889
しません	-11.489
ジャズ	-11.4892
られること	-11.4893
ったりする	-11.4895
凶	-11.4895
歩調	-11.4896
飼う	-11.4898
で打つ	-11.4901
イタリア	-11.4901
小麦粉	-11.4901
▁工事	-11.4903
を加えること	-11.4903
▁怪	-11.4904
思っている	-11.4906
そろえ	-11.4907
食卓	-11.4908
田舎	-11.4908
僕に	-11.4909
▁まめ	-11.491
をかむ	-11.4912
がたまる	-11.4913
食料	-11.4913
一通り	-11.4914
なまけ	-11.4914
今日の天気はどう	-11.4914
航空	-11.4915
野外	-11.4916
▁T	-11.4917
じき	-11.4918
くれと	-11.4918
▁建設	-11.4918
時期に	-11.4919
インターネットのページホーム画面	-11.4919
のほうへ	-11.4921
遅	-11.4921
▁むだ	-11.4922
に走る	-11.4922
靴覆	-11.4923
▁すぐにメッセージ	-11.4923
大気	-11.4923
の着物	-11.4924
したりすること	-11.4924
当日	-11.4925
▁誤った	-11.4925
もんか	-11.4926
から離れて	-11.4928
▁保険	-11.4928
私たちは	-11.4928
▁すでに	-11.4929
税金	-11.4929
虫が	-11.4931
任命	-11.4933
の小説	-11.4934
の豊かな	-11.4934
▁老い	-11.4935
北方	-11.4937
に残る	-11.4938
済み	-11.4938
つみ	-11.4942
問題が	-11.4942
ひね	-11.4943
申し上げ	-11.4943
▁運命	-11.4945
▁長さ	-11.4948
かかっていた	-11.4949
いまからメッセ	-11.495
等で	-11.495
▁原子	-11.4952
の価格	-11.4952
ぶった	-11.4953
その辺	-11.4954
運動をする	-11.4954
神道	-11.4955
小石	-11.4956
▁パイプ	-11.4959
てない	-11.4962
恐れて	-11.4963
ばか者	-11.4964
粉末	-11.4964
西部	-11.4967
人人が	-11.497
本国	-11.4971
▁かき	-11.4972
▁かぜ	-11.4972
▁穴	-11.4973
野菜を	-11.4973
告白	-11.4976
一か月	-11.4979
はまるで	-11.4979
▁禁酒	-11.4982
を去る	-11.4982
▁書籍	-11.4983
を与えること	-11.4983
持っていること	-11.4984
版画	-11.4984
努力を	-11.4987
仕入れ	-11.4989
吹く風	-11.4989
▁洗濯	-11.4989
信じる	-11.4993
青空	-11.4995
を上げて	-11.4995
プレ	-11.4997
の保護	-11.4998
流出	-11.4998
▁お薬屋	-11.4999
書物の	-11.5
時だ	-11.5
の力で	-11.5
映画の	-11.5001
▁きょうの	-11.5001
に属し	-11.5003
くっつく	-11.5005
してやった	-11.5006
▁雲が	-11.5011
現れた	-11.5012
馬に乗って	-11.5013
尊重	-11.5015
寬	-11.5017
▁なぞ	-11.5018
▁予想	-11.502
経済的	-11.502
たがる	-11.502
見ても	-11.5021
降ろ	-11.5027
力学	-11.5027
一番よい	-11.503
音が	-11.503
▁憲法	-11.5033
打ち明け	-11.5033
こもって	-11.5036
表現する	-11.5039
女だ	-11.504
をつぶす	-11.5042
大人	-11.5043
フォー	-11.5043
始まる	-11.5043
▁彼らに	-11.5043
▁通信	-11.5044
▁ラーメン	-11.5044
▁特別の	-11.5045
すし	-11.5045
六月	-11.5045
きれない	-11.5046
▁駄	-11.5047
しなければならなかった	-11.5048
糸で	-11.5051
▁爪	-11.5052
▁とん	-11.5055
▁袖	-11.5056
多くの人が	-11.5057
▁やり	-11.5059
▁昨日	-11.506
はじき	-11.5061
頑張	-11.5063
性的	-11.5063
たいと思う	-11.5064
▁栄養	-11.5066
▁濃い	-11.5067
大都市	-11.5067
▁準備	-11.5067
債	-11.5068
番目	-11.5068
部屋の中	-11.5068
察する	-11.5071
▁いつか	-11.5075
▁値段	-11.5076
右手	-11.5076
値打ち	-11.5077
の戦い	-11.5078
ずき	-11.5078
君を	-11.5079
ローマ字	-11.5082
▁かなり	-11.5082
同類の	-11.5082
時刻に	-11.5087
▁就職	-11.5087
から成り	-11.5091
言いつけ	-11.5093
簡単	-11.5093
ないのに	-11.5095
暖地	-11.5096
▁天才	-11.5096
に帰る	-11.5097
▁手術	-11.51
かぶる	-11.5101
の幼虫	-11.5102
ドライブ	-11.5102
▁ほお	-11.5103
の技術	-11.5104
額に	-11.5104
の重さ	-11.5105
ないかと	-11.5105
を捜して	-11.5108
に分かれて	-11.5109
があったら	-11.511
▁やがて	-11.5112
つかまえる	-11.5112
紙の	-11.5112
▁品質	-11.5114
の順序	-11.5114
に立って	-11.5114
新人	-11.5115
学士	-11.5115
▁費用	-11.5116
▁図書館	-11.5116
のうちの	-11.5118
飛行機が	-11.5119
公認	-11.5119
あじ	-11.5121
言われる	-11.5121
ドリ	-11.5125
▁部屋を	-11.5128
まぶ	-11.5128
は薬用	-11.5128
見せること	-11.5129
余る	-11.513
がかかる	-11.5131
▁まっすぐ	-11.5133
を挙げる	-11.5134
突き出た	-11.5134
▁婚約	-11.5134
している人	-11.5137
未開	-11.5138
ひっくり返	-11.5139
大胆	-11.514
飛んでい	-11.5142
まとめた	-11.5142
をもらって	-11.5143
の中にある	-11.5145
痛みが	-11.5145
五弁	-11.5147
臨終	-11.515
▁たいていの	-11.5154
軽率	-11.5155
旗を	-11.5156
の知識	-11.5156
やすく	-11.5157
気になった	-11.5158
腰掛け	-11.5159
が悪く	-11.5159
恨	-11.516
の成功を	-11.516
反乱	-11.5162
歩き回る	-11.5163
をしないこと	-11.5164
募	-11.5164
努力した	-11.5164
山道	-11.5167
御所	-11.5167
が残る	-11.5168
婦人用	-11.5169
▁畳	-11.5169
お茶を	-11.517
▁会計	-11.5171
縁組	-11.5172
記した	-11.5172
反逆	-11.5172
倍の	-11.5172
共産主義	-11.5173
その物	-11.5173
般	-11.5174
にはいる	-11.5176
が切れる	-11.5176
厄	-11.5177
人々が	-11.5178
征	-11.5178
こっち	-11.5179
ホームヘルパーさん	-11.5181
なるほど	-11.5181
の主人	-11.5181
捻	-11.5182
小作	-11.5183
茅ヶ崎	-11.5183
出資	-11.5183
もありません	-11.5184
▁内閣	-11.5184
究	-11.5184
舞浜	-11.5184
汽	-11.5185
南越谷	-11.5185
渡辺さん	-11.5185
威勢	-11.5186
痕	-11.5186
液体の	-11.5187
囲碁	-11.5188
申しあげます	-11.5188
婆	-11.5188
を支える	-11.5189
臼	-11.519
出てくる	-11.519
まんまと	-11.519
研	-11.519
容赦	-11.5191
キュ	-11.5191
謹	-11.5191
肢	-11.5191
絵をかく	-11.5192
いかがわしい	-11.5192
スピーチ	-11.5192
粟	-11.5193
爐	-11.5193
遡	-11.5193
廓	-11.5193
瘡	-11.5193
屠	-11.5193
狡	-11.5193
畔	-11.5193
註	-11.5193
アルミニウム	-11.5193
x	-11.5193
あこがれ	-11.5193
灌	-11.5193
ナトリウム	-11.5193
欺	-11.5193
祥	-11.5193
丁寧に	-11.5193
吠	-11.5193
撥	-11.5193
鄙	-11.5193
オフィス	-11.5193
オーケストラ	-11.5193
俊	-11.5193
只	-11.5193
武蔵溝の口	-11.5193
猥	-11.5193
疵	-11.5193
そわそわ	-11.5193
ちょっぴり	-11.5193
とは限らない	-11.5193
ステレオ	-11.5193
ボクサー	-11.5193
そろばん	-11.5193
准	-11.5193
誅	-11.5193
途方もない	-11.5193
聾	-11.5193
ぐるりと	-11.5193
斧	-11.5193
未亡人	-11.5193
稜	-11.5193
窟	-11.5193
躯	-11.5193
サーカス	-11.5193
幾重にも	-11.5193
漿	-11.5193
謙遜	-11.5193
孟	-11.5193
びっくりする	-11.5193
が伴う	-11.5193
けしからぬ	-11.5193
プラスチック	-11.5193
いろんな	-11.5193
膨張	-11.5193
鎌倉	-11.5193
グラム	-11.5193
正方形	-11.5193
用途が広い	-11.5193
かろうじて	-11.5193
認可	-11.5193
伸縮	-11.5194
採掘	-11.5194
徴候	-11.5194
調味料	-11.5194
か否か	-11.5194
崩壊	-11.5194
明日の気候	-11.5194
ニュー	-11.5194
至る所	-11.5194
のらくら	-11.5194
強引に	-11.5194
ラッパ	-11.5194
問答	-11.5194
誓約	-11.5194
包丁	-11.5194
実践	-11.5194
ブラック	-11.5194
を越えた	-11.5194
こまかく	-11.5194
も同然だ	-11.5194
きく科の多年生植物	-11.5194
圧縮	-11.5195
諸侯	-11.5195
▁メッセージお医者	-11.5195
同種の	-11.5195
動物が	-11.5195
を売って	-11.5195
完結	-11.5195
のぞき	-11.5195
語彙	-11.5195
の度合	-11.5195
預かり	-11.5195
進退	-11.5195
隔たり	-11.5195
喪失	-11.5195
何年も	-11.5195
しのぎ	-11.5195
▁地球は	-11.5195
索引	-11.5195
傍聴	-11.5195
意匠	-11.5195
了解	-11.5196
設けられた	-11.5196
謝礼	-11.5196
弊害	-11.5196
傑作	-11.5196
容積	-11.5196
参照	-11.5196
保有	-11.5196
どなた	-11.5196
曇った	-11.5196
わきまえ	-11.5196
海苔	-11.5197
堅固	-11.5197
He	-11.5197
例えば	-11.5197
加藤	-11.5197
限定	-11.5197
中年	-11.5197
ペット	-11.5197
炊事	-11.5197
全般	-11.5197
答案	-11.5197
担任	-11.5197
あんまり	-11.5198
充実	-11.5198
引退	-11.5198
身分の低い	-11.5198
ちょろ	-11.5198
▁その川は	-11.5198
ジム	-11.5198
▁抗	-11.5198
さいころ	-11.5198
を備えた	-11.5199
呑み	-11.5199
くろ	-11.5199
執着	-11.52
溶接	-11.52
荷造り	-11.5201
牢屋	-11.5201
減少	-11.5201
返礼	-11.5201
しかたがない	-11.5201
容量	-11.5201
偽造	-11.5202
ジェット機	-11.5202
特質	-11.5202
八尾	-11.5202
▁もう一度	-11.5202
酒宴	-11.5202
選挙区	-11.5202
をつけたもの	-11.5202
になりたい	-11.5202
を刈る	-11.5203
の午後	-11.5203
優良	-11.5203
採点	-11.5203
逃亡	-11.5203
女郎	-11.5204
修士	-11.5204
▁その劇は	-11.5204
無分別	-11.5204
指紋	-11.5204
▁馬を	-11.5204
別れる	-11.5205
泳いで	-11.5205
手を振って	-11.5206
▁独立	-11.5206
不振	-11.5206
あたま	-11.5207
美容	-11.5207
天災	-11.5207
敵意	-11.5207
言葉づかい	-11.5208
よりずっと	-11.5208
に至る	-11.5208
片づける	-11.5208
忌み	-11.5208
伝記	-11.5209
グル	-11.5209
技法	-11.5209
合い図	-11.5209
即席	-11.521
羽根	-11.521
▁船を	-11.521
骨組	-11.5211
昼夜	-11.5211
▁幸運	-11.5211
ぐれ	-11.5212
こども	-11.5212
ハム	-11.5213
▁海水浴	-11.5213
考えられる	-11.5213
豊富な	-11.5213
金庫	-11.5214
学級	-11.5214
複写	-11.5214
皇室	-11.5215
傷害	-11.5215
▁山野	-11.5215
占い	-11.5216
▁余計な	-11.5217
愛好	-11.5217
引っぱる	-11.5217
文壇	-11.5218
好んで	-11.5218
露骨	-11.5218
はいる	-11.5218
競技場	-11.522
額面	-11.522
ぴったり合う	-11.5221
もめん	-11.5221
平常	-11.5221
フォ	-11.5221
今頃	-11.5221
たいした	-11.5222
を引き出す	-11.5222
消費者	-11.5222
食料品	-11.5223
婦人服	-11.5223
立川	-11.5223
領主	-11.5224
休め	-11.5224
和解	-11.5225
化粧品	-11.5225
▁王子	-11.5226
▁にわかに	-11.5227
債権者	-11.5227
草原	-11.5227
通常	-11.5227
血筋	-11.5227
列車に間に合	-11.5228
をなくす	-11.523
話し合う	-11.523
地盤	-11.523
慣れた	-11.523
分割	-11.523
は言えない	-11.5231
実在	-11.5231
▁浜	-11.5231
旅費	-11.5231
後退	-11.5231
計算する	-11.5231
遺産	-11.5233
▁戦場	-11.5233
年頃	-11.5233
薄弱	-11.5233
年寄り	-11.5234
魔法	-11.5235
▁P	-11.5235
優美な	-11.5236
天罰	-11.5236
国防	-11.5237
の全体	-11.5237
着用	-11.5237
っ面	-11.5239
霊魂	-11.524
なことをする	-11.5241
あわせて	-11.5241
晴れた	-11.5242
我慢する	-11.5242
買手	-11.5243
海辺	-11.5245
病気になった	-11.5245
力のある	-11.5245
仮面	-11.5246
第二	-11.5246
言う言葉	-11.5248
下ろし	-11.5249
▁原文	-11.5252
腹は白	-11.5255
ある期間	-11.5255
防火	-11.5256
解き	-11.5257
に書く	-11.5257
▁元気かい私の予約	-11.5258
が短い	-11.5258
下る	-11.526
呂覆	-11.5261
▁責め	-11.5261
に上る	-11.5263
の和	-11.5264
見張る	-11.5264
▁彼は仕事	-11.5264
太陽が	-11.5264
一般的な	-11.5264
┐	-11.5264
どうでも	-11.5265
▁群衆は	-11.5265
できます	-11.5267
船乗り	-11.5268
が最も	-11.5269
歩み	-11.5271
中村	-11.5271
引き抜く	-11.5272
がとても	-11.5273
に反して	-11.5273
で遊ぶ	-11.5278
などで作った	-11.5278
僕には	-11.5278
文筆	-11.5278
野鳥	-11.5279
▁体重	-11.5281
を曲げる	-11.5281
底に	-11.5282
どぶ	-11.5282
陸上	-11.5284
▁いまからメッセージを	-11.5284
斬り	-11.5284
なかま	-11.5285
道化	-11.5286
▁いか	-11.5286
親等	-11.5289
周期	-11.5289
▁その人の	-11.529
直行	-11.5292
してよい	-11.5292
じろ	-11.5292
警察に	-11.5292
個人的な	-11.5293
看護	-11.5294
一塁	-11.5294
結果として	-11.5295
」、「	-11.5296
今後	-11.5297
方々	-11.5297
▁書物を	-11.5301
皮膚に	-11.5301
▁ちゅう	-11.5301
淡水	-11.5302
高級	-11.5303
の周り	-11.5305
に気をつけ	-11.5306
妨げ	-11.5307
苦しめる	-11.531
▁芝居で	-11.5311
▁恋愛	-11.5311
右側	-11.5313
▁スピード	-11.5315
あらい	-11.5315
放送局	-11.5315
もいい	-11.5315
哀れな	-11.5317
防水	-11.532
真空	-11.5321
罰金	-11.5321
さびしい	-11.5322
関税	-11.5323
そのため	-11.5323
本当だ	-11.5325
に産する	-11.5326
個性	-11.5327
▁自然の	-11.533
捕らえ	-11.5331
がよかった	-11.5332
がほしい	-11.5334
こない	-11.5336
出なかった	-11.5337
▁話の	-11.5337
あるものを	-11.5339
の模様	-11.534
学校へ行く	-11.5343
打ち上げ	-11.5343
開けた	-11.5344
待って	-11.5344
▁計算	-11.5346
に変わる	-11.5346
じょうずな	-11.5349
の季節	-11.535
を大いに	-11.535
▁紅茶	-11.5352
かんで	-11.5352
を感ずる	-11.5352
同行	-11.5356
▁酸	-11.5356
桜の	-11.5359
▁あご	-11.5359
それらの	-11.536
▁少女	-11.536
指先	-11.5361
▁側	-11.5361
なやつ	-11.5363
が合わない	-11.5364
にしても	-11.5364
信心	-11.5364
雑用	-11.5365
絶望	-11.5367
▁喜んで	-11.5367
の側	-11.5368
▁ガソリンスタンド	-11.5368
来世	-11.5369
沈んで	-11.5373
▁湖	-11.5373
▁酔っぱら	-11.5375
論点	-11.5376
あいつ	-11.5377
に分け	-11.5377
そうだった	-11.5378
▁琴	-11.5378
▁ちょっとメッセ	-11.5379
▁彼は僕	-11.538
▁受験	-11.5381
大波	-11.5382
刺す	-11.5382
応じ	-11.5383
地震で	-11.5384
▁いん	-11.5385
▁ケアマネージャさん	-11.5387
あいだ	-11.5388
言を言う	-11.5393
▁修	-11.5394
あたる	-11.5397
高め	-11.5397
▁平面	-11.5397
が上手	-11.5398
戻り	-11.5398
つなぐ	-11.5399
しかけ	-11.5399
なのです	-11.5399
見切り	-11.5401
語法	-11.5405
▁そこは	-11.5406
ためには	-11.5406
引いた	-11.5407
演習	-11.5407
とうてい	-11.5408
よごれた	-11.5409
終わりまで	-11.541
そうな顔	-11.541
を起こし	-11.541
▁刺	-11.541
固める	-11.5412
との間の	-11.5415
もちろん	-11.5415
親に	-11.5416
支配人	-11.5417
生意気な	-11.5418
さかい	-11.5419
まとめて	-11.542
▁おれ	-11.5421
というのが	-11.5422
はめ	-11.5422
洗って	-11.5423
▁ちょ	-11.5423
ホテルに	-11.5423
製本	-11.5424
出ていた	-11.5424
面が	-11.5424
ひとみ	-11.5425
▁同一	-11.5426
掘	-11.5427
圧倒	-11.5427
を付けた	-11.5428
▁おや	-11.5431
噴出	-11.5431
説明した	-11.5431
円の	-11.5432
▁支払い	-11.5435
▁問題を	-11.5436
るため	-11.5436
穴から	-11.5436
紙や	-11.5436
▁近頃	-11.5436
書き方	-11.5436
▁他人が	-11.5437
お話	-11.5438
として用いる	-11.5441
糸で織った	-11.5443
分けた	-11.5443
金銭を	-11.5444
▁海の	-11.5445
生徒たち	-11.5446
子音	-11.5448
がしら	-11.5449
に少し	-11.5452
悪い事	-11.5453
進化	-11.5454
債券	-11.5454
またはその	-11.5456
▁締め	-11.5457
の機会	-11.5458
仏事	-11.5458
▁武力	-11.5459
手に入れた	-11.5461
▁原稿	-11.5462
高いこと	-11.5465
▁悪い事	-11.5465
▁他のもの	-11.5466
首に	-11.5466
到着する	-11.5467
車が	-11.5468
聞いている	-11.5468
をせず	-11.547
尽きる	-11.5471
死者の	-11.5471
▁食料	-11.5476
ター	-11.5477
に苦しむ	-11.548
▁冒険	-11.5481
捨てること	-11.5483
に出席する	-11.5484
生気	-11.5484
▁暑さ	-11.5486
の茎	-11.5486
後足	-11.5486
▁仏教	-11.5487
共同で	-11.5488
があ	-11.5488
に構える	-11.549
▁江戸時代の	-11.5493
この仕事	-11.5493
晴れる	-11.5495
状態である	-11.5501
熱心に	-11.5502
になりますか	-11.5503
そこへ	-11.5504
つけている	-11.5506
めったにない	-11.5508
味をつけた	-11.5509
▁スープ	-11.5509
小数	-11.551
▁きびしい	-11.5511
ばかりだった	-11.5513
数が多い	-11.5515
方言	-11.5515
振って	-11.5516
▁英語を	-11.5521
に変わった	-11.5521
▁彼は仕事に	-11.5522
▁蚕	-11.5523
立たせる	-11.5523
気持で	-11.5524
の時間	-11.5525
▁ついに	-11.5528
▁細かい	-11.5529
決算	-11.5534
っこい	-11.5534
▁彼は大	-11.5535
めかし	-11.5535
▁僕には	-11.5535
うれしそう	-11.5536
きいた	-11.5538
▁he	-11.5539
が痛む	-11.5539
それでも	-11.554
を登る	-11.554
訴える	-11.554
を証明し	-11.5544
まつる	-11.5546
し合う	-11.5547
分配	-11.5548
召集	-11.5548
▁仏の	-11.5548
たちが	-11.555
▁波が	-11.555
指に	-11.5552
人類の	-11.5553
▁週	-11.5553
すぐ近く	-11.5554
は人間	-11.5554
を離れた	-11.5554
入れ物	-11.5556
▁感情を	-11.5557
洪水	-11.5557
犯罪者	-11.5559
場合の	-11.5559
▁動物が	-11.556
種目	-11.5561
を使った	-11.5562
残した	-11.5564
トップ	-11.5564
考慮	-11.5564
▁どうやら	-11.557
映え	-11.5572
▁ゆっくり	-11.5572
に注意	-11.5573
洗濯	-11.5575
秘蔵	-11.5576
というものは	-11.5577
▁我々が	-11.5577
天性	-11.5577
▁梅雨	-11.5579
くじけ	-11.5582
が広く	-11.5584
▁もち	-11.5585
▁月に	-11.5585
▁国王	-11.5587
結婚の	-11.5587
▁亜	-11.5588
小枝	-11.5588
が大嫌い	-11.5589
気持を表す	-11.559
ある所	-11.5591
▁幾ら	-11.5592
山の中	-11.5593
ゲル	-11.5593
きらう	-11.5596
犬に	-11.5596
愛想	-11.5597
凝	-11.5597
のに必要な	-11.5598
▁ボートは	-11.5598
下級の	-11.5599
いう音	-11.5599
なめらかで	-11.5599
▁もとの	-11.5602
流感	-11.5603
目上の人	-11.5603
の作用	-11.5603
松本	-11.5603
マー	-11.5604
に勝つ	-11.5605
▁ヒ	-11.5606
はますます	-11.5606
両方の	-11.5607
放射能	-11.5607
新橋	-11.5608
我慢できない	-11.5608
ドイツ語	-11.561
又	-11.5611
狩猟	-11.5611
式に	-11.5612
完	-11.5612
二枚	-11.5612
の特徴	-11.5612
運賃	-11.5612
近頃	-11.5613
代用	-11.5614
千葉	-11.5614
乏しい	-11.5615
のを防ぐ	-11.5615
に等しい	-11.5616
シャ	-11.5617
柔道	-11.5618
にひた	-11.5619
▁成功	-11.562
▁細かく	-11.562
学生の	-11.562
同点	-11.5624
ロケット	-11.5624
▁ろく	-11.5625
らせること	-11.5625
を送って	-11.5627
▁藪	-11.5629
評価する	-11.5629
▁あいにく	-11.5629
▁はく	-11.5629
▁柏	-11.5629
群れ	-11.5629
頓	-11.563
登山	-11.5631
キン	-11.5631
間接	-11.5632
実を結ぶ	-11.5632
あざ	-11.5633
きのう	-11.5634
設立	-11.5634
武力	-11.5634
事情が	-11.5635
朝早く	-11.5635
なくては	-11.5636
をまぜ	-11.5637
▁代金	-11.5637
▁手の	-11.5637
はかなり	-11.5638
外国語	-11.5638
商業	-11.5639
言い伝え	-11.564
核実験	-11.5641
つむ	-11.5641
から離れた	-11.5641
▁法令	-11.5641
非難する	-11.5645
鳥類	-11.5645
▁婿	-11.5646
穴をあける	-11.5648
明け方	-11.5649
肩を	-11.5652
▁耐	-11.5652
と違った	-11.5652
私の元気かい予約	-11.5653
株式	-11.5655
だったので	-11.5657
極度	-11.5658
▁ほこり	-11.5659
ボス	-11.566
気をつける	-11.5661
を設ける	-11.5661
▁彼の目	-11.5661
▁妙	-11.5663
▁労働者	-11.5663
を包む	-11.5664
万年	-11.5664
重病	-11.5665
込んでいた	-11.5665
安全診断	-11.5666
▁陸地	-11.5667
すぐに電話かける	-11.5668
le	-11.5668
▁飲み	-11.5668
科の魚	-11.5668
出入	-11.567
いつか	-11.5671
努力する	-11.5671
おそい	-11.5673
横たわる	-11.5673
▁攻め	-11.5674
▁世に	-11.5677
本文の	-11.5677
豊田	-11.5677
を動かす	-11.5678
その年の	-11.5678
行けば	-11.5681
変える	-11.5682
に当てる	-11.5684
とどめる	-11.5686
ざま	-11.5688
ひもで	-11.5689
を合わせて	-11.569
はま	-11.5695
▁劇場	-11.5695
一時に	-11.5696
生きた	-11.5697
生徒に	-11.5698
まぜて	-11.5699
裁断	-11.5699
▁労	-11.57
で旅行する	-11.5701
集まること	-11.5703
を習う	-11.5703
▁収穫	-11.5704
を当てる	-11.5704
をかわす	-11.5704
乗り換え	-11.5704
もその	-11.5705
ある場所に	-11.5706
▁登戸	-11.5708
▁彼らは我々	-11.5708
〕(	-11.5708
▁天気はどう	-11.5709
▁便	-11.5712
▁脇	-11.5712
▁水銀	-11.5713
照らし	-11.5714
すてき	-11.5716
ごまかし	-11.5726
即座に	-11.5726
山腹	-11.5727
つくる	-11.5727
ボクシング	-11.5728
突く	-11.5728
▁才	-11.573
▁いっしょに	-11.5733
ふやすこと	-11.5733
何人かの	-11.5734
どうしたら	-11.5736
投票で	-11.5738
を認めた	-11.5738
派遣する	-11.5739
に起こった	-11.5742
これ以上	-11.5742
▁大変な	-11.5742
ケアマネージャさん	-11.5743
▁淡	-11.5744
はいつ	-11.5744
▁救	-11.5745
前後に	-11.575
唱え	-11.5752
▁圧力	-11.5752
放つ	-11.5753
砲火	-11.5754
正規の	-11.5754
じょうずに	-11.5755
▁彼は自分	-11.5757
▁詩歌	-11.5759
して歩く	-11.576
監督する	-11.576
んでしょう	-11.5761
▁かすかな	-11.5763
▁臨	-11.5764
▁特許	-11.5766
▁民族	-11.5766
一致しない	-11.5767
▁フィ	-11.5767
より先に	-11.5767
定める	-11.5768
スコットランド	-11.5769
服用	-11.577
積んで	-11.577
延期	-11.5772
の像	-11.5772
金色の	-11.5773
塗る	-11.5775
▁田畑	-11.5775
▁知能	-11.5776
▁町中	-11.5778
翻	-11.5779
彼女の顔	-11.578
▁掻き	-11.5781
▁批判	-11.5781
斯	-11.5784
老年	-11.5785
おもて	-11.5786
を業とする	-11.5788
▁岩石	-11.5788
▁きっと	-11.5789
ドルで	-11.5789
▁土木	-11.579
卒業する	-11.5791
んば	-11.5791
付いた	-11.5792
賢明	-11.5792
▁治安	-11.5793
尽くした	-11.5793
玄	-11.5793
叫び声	-11.5794
あっ	-11.5794
技巧	-11.5795
▁彼らは彼の	-11.5795
ボタンを	-11.5796
の発生	-11.5797
抑え	-11.5797
▁敗	-11.5797
クル	-11.5798
言っても	-11.5798
の要求	-11.58
▁刀を	-11.5801
▁予算	-11.5802
上品な	-11.5804
かわいい	-11.5804
▁鳥の	-11.5805
腰を	-11.5806
▁我が	-11.5806
▁死者の	-11.5807
しるした	-11.5808
来週	-11.5808
▁その人が	-11.5809
うぬぼれ	-11.581
とま	-11.5812
▁官職	-11.5812
おこって	-11.5813
いるもの	-11.5816
れなかった	-11.5817
自宅	-11.5817
那覇	-11.5817
を問わず	-11.582
▁テーブル	-11.5821
ゅ	-11.5822
一般的	-11.5822
死者の霊	-11.5823
絡	-11.5824
裁ち	-11.5825
三位	-11.5827
帝王	-11.5829
すすめる	-11.5829
▁軍隊の	-11.583
▁最初	-11.583
に出かけた	-11.583
新聞社	-11.5831
▁蒸し	-11.5832
首位	-11.5833
ケアマネージャさんへ	-11.5834
言われた	-11.5834
思わない	-11.5835
燐酸	-11.5836
すまい	-11.5837
の端に	-11.5837
おろか	-11.5837
今では	-11.5838
放射	-11.5838
町を	-11.5839
から落ちる	-11.5839
勲章	-11.5841
委任	-11.5841
した食品	-11.5842
互いの	-11.5842
、000	-11.5843
倒産	-11.5844
▁淫	-11.5845
▁教養	-11.5847
類を	-11.5847
光が	-11.5847
閣	-11.5848
棒を	-11.5848
恋の	-11.5848
神聖	-11.5849
狩	-11.5849
粘	-11.5849
飯田橋	-11.5849
全力を尽く	-11.5849
隻	-11.5849
歩いていった	-11.585
岐	-11.585
余計	-11.585
吹田	-11.585
+	-11.585
に移る	-11.5851
御徒町	-11.5851
紐	-11.5852
監	-11.5852
殖	-11.5852
春日部	-11.5852
小さいこと	-11.5853
をこうむる	-11.5853
て彼は	-11.5853
惰	-11.5853
浪費	-11.5854
生き生き	-11.5854
看	-11.5855
を失わせる	-11.5855
遷	-11.5855
駐	-11.5855
叢	-11.5856
疾患	-11.5856
新浦安	-11.5856
骸	-11.5856
しつつある	-11.5857
▁フットボール	-11.5857
鶴見	-11.5857
寓	-11.5858
臆	-11.5858
爛	-11.5858
是	-11.5858
卦	-11.5859
拘	-11.5859
高崎	-11.5859
ぎりぎり	-11.5859
租	-11.5859
はなはだ	-11.5859
をそそる	-11.586
鎌	-11.586
断わった	-11.586
癌	-11.586
歿	-11.586
沃	-11.586
袴	-11.586
ユダヤ	-11.586
ぎざぎざ	-11.586
眩	-11.586
挿	-11.586
檀	-11.586
にぎやかに	-11.586
カウント	-11.586
ブラジル	-11.586
思わぬ	-11.586
のろのろ	-11.586
シーズン	-11.586
ハンドル	-11.586
肘	-11.586
輝かしい	-11.586
遥	-11.586
鉾	-11.586
▁濡れ	-11.586
じーじ	-11.586
アクセント	-11.586
劫	-11.586
撚	-11.586
盃	-11.586
芥	-11.586
蠅	-11.586
鞭	-11.586
▁んーこのメモ	-11.586
▁札幌	-11.586
ふすま	-11.586
伽	-11.586
柵	-11.586
癒	-11.586
けばけばし	-11.586
轍	-11.586
大げさな	-11.586
訛	-11.586
歓喜	-11.586
翅	-11.586
著名な	-11.586
むなしく	-11.586
》	-11.586
たくらみ	-11.586
寛大な	-11.586
もっぱら	-11.586
蛙	-11.586
に先立って	-11.586
憤慨	-11.586
石器時代	-11.586
盂蘭盆	-11.586
閣僚	-11.586
抄	-11.586
スーツケース	-11.586
go	-11.586
なじみ	-11.586
最良の	-11.586
参詣	-11.586
醤油	-11.586
選ばれた	-11.586
ボストン	-11.586
何回も	-11.586
ざらざら	-11.586
協同	-11.586
伊勢	-11.586
始終	-11.586
ビロード	-11.5861
澱粉	-11.5861
屈辱	-11.5861
虐待	-11.5861
じりじり	-11.5861
シーツ	-11.5861
二枚貝	-11.5861
The	-11.5861
ジェ	-11.5861
繁栄	-11.5861
といわれる	-11.5861
リンゴ	-11.5861
メント	-11.5861
彫像	-11.5861
旋律	-11.5861
ケース	-11.5861
隔離	-11.5861
つまらぬ	-11.5861
とは思えない	-11.5861
増進	-11.5861
持続	-11.5861
どろぼう	-11.5861
お願いします	-11.5862
亭主	-11.5862
とにかく	-11.5862
記述	-11.5862
お断わり	-11.5862
秋葉原	-11.5862
装束	-11.5862
視覚	-11.5862
淡水魚	-11.5862
レーダー	-11.5862
思う存分	-11.5862
失敬	-11.5862
堂々と	-11.5862
考案	-11.5862
こわくて	-11.5862
見晴らし	-11.5862
誤植	-11.5863
▁じゅん	-11.5863
▁この辞書は	-11.5863
傍観	-11.5863
接続	-11.5863
かまわず	-11.5863
に付する	-11.5863
規制	-11.5863
課題	-11.5863
ブック	-11.5863
リボン	-11.5863
晴天	-11.5863
低気圧	-11.5863
絶頂	-11.5863
士官	-11.5863
けいれん	-11.5863
を持たず	-11.5863
ろうばい	-11.5864
を混ぜて	-11.5864
その道	-11.5864
通り過ぎる	-11.5864
あわれみ	-11.5864
助動詞	-11.5864
福島	-11.5864
官僚	-11.5864
会いたい	-11.5864
欲求	-11.5864
石膏	-11.5864
静止	-11.5864
だけでも	-11.5865
湾曲	-11.5865
謝罪	-11.5865
テレビ番組	-11.5865
見えなかった	-11.5865
男女間の	-11.5865
重複	-11.5865
さえすれば	-11.5865
立ち上がった	-11.5865
ごろごろ	-11.5865
きめられた	-11.5865
通告	-11.5865
悪くない	-11.5865
になりそうだ	-11.5866
責める	-11.5866
厳格	-11.5866
めぐって	-11.5866
小言	-11.5866
祝辞	-11.5866
落胆	-11.5866
機関銃	-11.5866
軽快	-11.5866
余暇	-11.5866
暴徒	-11.5867
あらわす	-11.5867
感激	-11.5867
にらむ	-11.5867
財界	-11.5867
満塁	-11.5867
幹部	-11.5867
ぜんまい	-11.5867
女性が	-11.5867
良く	-11.5868
呼吸器	-11.5868
雑貨	-11.5868
順次	-11.5868
堅苦しい	-11.5868
改造	-11.5868
送った	-11.5868
▁彼の行為は	-11.5869
探知	-11.5869
を指した	-11.5869
断片	-11.5869
種をまく	-11.5869
圧制	-11.5869
組立て	-11.5869
判明	-11.5869
厳密	-11.5869
つぶした	-11.5869
よく似ている	-11.587
作り出す	-11.587
根本的な	-11.587
の苦しみ	-11.5871
しばらくの間	-11.5871
申し分	-11.5871
処方	-11.5871
右翼	-11.5871
技量	-11.5871
電圧	-11.5871
上皇	-11.5872
授業料	-11.5872
成果	-11.5872
高齢	-11.5872
かまど	-11.5872
断面	-11.5873
▁穂	-11.5873
けわしい	-11.5873
主婦	-11.5873
平気だ	-11.5874
多大の	-11.5874
宿題を	-11.5874
選ばれる	-11.5874
言わずに	-11.5874
を拾う	-11.5875
証明書	-11.5875
首都	-11.5875
検定	-11.5875
嘆き	-11.5875
戸籍	-11.5875
▁市川	-11.5875
極秘	-11.5875
ゆったり	-11.5875
曲がっている	-11.5875
尽力	-11.5876
つぼみ	-11.5876
仕様	-11.5877
勤めている	-11.5877
だと思った	-11.5878
鈴木	-11.5879
なりゆき	-11.5879
所持	-11.588
というたとえ	-11.588
溜め	-11.588
アジ	-11.588
豊中	-11.588
禁制	-11.588
有限	-11.5881
こぼれた	-11.5881
告げ知らせる	-11.5881
▁彼らは彼に	-11.5881
むかし	-11.5881
畜	-11.5881
▁その国は	-11.5881
配合	-11.5881
能楽	-11.5882
石英	-11.5882
並んでいる	-11.5882
おおわれ	-11.5882
性交	-11.5882
水蒸気	-11.5882
体長約	-11.5883
やなぎ	-11.5883
通訳	-11.5883
武芸	-11.5883
国に	-11.5884
ヘルパーさん	-11.5884
不当な	-11.5884
見世物	-11.5884
風紀	-11.5885
作曲	-11.5886
られず	-11.5886
おいしい	-11.5887
てもらえ	-11.5887
▁出発	-11.5887
まじない	-11.5888
人夫	-11.5888
▁藤沢	-11.5888
すくい	-11.5888
をはずす	-11.5889
はげしい	-11.5889
のなら	-11.589
引き続いて	-11.589
文脈	-11.5891
何もしないで	-11.5891
を採る	-11.5891
水溶液	-11.5892
参上	-11.5892
口語	-11.5892
を早める	-11.5892
風潮	-11.5893
断言	-11.5893
摺り	-11.5893
伏せる	-11.5893
いのち	-11.5894
そこら	-11.5894
歳月	-11.5895
▁ウエ	-11.5895
の腕	-11.5896
知ること	-11.5896
が上手だ	-11.5896
構内	-11.5896
球面	-11.5896
富山	-11.5896
疑う	-11.5896
をほどく	-11.5897
味の	-11.5897
おわり	-11.5898
引き受けた	-11.5898
三〇センチ	-11.5899
兵役	-11.5899
黄緑色	-11.5899
▁芸術	-11.5899
一応	-11.59
早朝	-11.59
借金の	-11.59
を私に	-11.59
ざお	-11.5901
照会	-11.5901
調達	-11.5901
胸を	-11.5902
▁何事も	-11.5902
官位	-11.5903
今のところ	-11.5903
取り柄	-11.5905
が一つ	-11.5905
▁市内	-11.5906
のぼり	-11.5906
▁芝生	-11.5906
それに使う	-11.5907
学び	-11.5907
してもらった	-11.5908
▁戦略	-11.5908
加えた	-11.5909
ずくで	-11.5909
政治上の	-11.591
鳴き	-11.591
ふくら	-11.591
明朝	-11.591
ふくらませ	-11.5912
大騷ぎ	-11.5912
のふち	-11.5912
空模様	-11.5913
明白	-11.5913
現役	-11.5914
船員	-11.5915
つきあい	-11.5915
悪くなった	-11.5916
松山	-11.5917
▁we	-11.5919
をなめる	-11.592
苦労して	-11.592
順順に	-11.5921
▁主要	-11.5921
雑音	-11.5921
有料	-11.5921
度量	-11.5922
メン	-11.5923
添えた	-11.5924
インター	-11.5924
くずれる	-11.5924
はたいてい	-11.5924
減ること	-11.5924
▁航海	-11.5926
その時の	-11.5926
出生	-11.5926
感じる	-11.5927
ランド	-11.5927
おこう	-11.5928
かかわり	-11.5928
熱情	-11.5928
形式の	-11.5929
で読む	-11.593
箱根	-11.593
生活している	-11.593
大きさは	-11.5932
悲しむ	-11.5932
チック	-11.5932
▁吸	-11.5934
お返し	-11.5934
▁最も	-11.5934
相手方	-11.5935
しましたか	-11.5935
無精	-11.5935
散文	-11.5935
が互いに	-11.5935
釈迦の	-11.5936
斯く	-11.5936
出会った	-11.5937
とんぼ	-11.5937
▁バラ	-11.5937
が始まる	-11.5938
点検	-11.5939
きざし	-11.5939
しわざ	-11.594
わきへ	-11.594
▁仏法	-11.5941
クタ	-11.5943
話すこと	-11.5943
出費	-11.5945
下品な	-11.5945
インターネットのページスマホ画面	-11.5946
差す	-11.5947
悲劇	-11.5947
業とする人	-11.5948
総会	-11.5948
浮気	-11.5949
が出来	-11.5949
命名	-11.5951
▁走り	-11.5951
とお	-11.5951
木戸	-11.5951
もらいたい	-11.5952
めんどう	-11.5952
爆薬	-11.5953
▁水を	-11.5954
病気で	-11.5954
見られた	-11.5954
▁目が	-11.5955
まぜ	-11.5955
公平な	-11.5955
助手	-11.5956
で書いた	-11.5956
自生	-11.5957
駅で	-11.5958
値段が	-11.5958
職につく	-11.5959
問い合わせ	-11.596
▁そのことで	-11.596
▁宮	-11.5961
を許さない	-11.5961
豊か	-11.5964
は十分	-11.5967
拝む	-11.5967
装飾用	-11.5967
熱帯地方	-11.5969
はただ	-11.5969
出産	-11.5971
できる限り	-11.5972
▁狭	-11.5974
をふく	-11.5974
少しもない	-11.5975
ものがない	-11.5978
▁アイス	-11.5978
点火	-11.5979
▁藩	-11.598
になるまで	-11.598
上にある	-11.5981
かすり	-11.5982
埋葬	-11.5985
▁犯罪	-11.5986
▁道路の	-11.5987
縮める	-11.5987
▁細菌	-11.5988
頭上に	-11.5988
を捨てて	-11.5988
原子核	-11.5989
人出	-11.5991
正式の	-11.5992
大層	-11.5993
木村	-11.5994
のを見た	-11.5994
たままで	-11.5995
▁刑事	-11.5995
いでいる	-11.5997
▁柳	-11.5997
▁競走	-11.6
認めること	-11.6
▁はな	-11.6002
▁金銭を	-11.6004
を決する	-11.6006
などして	-11.6006
空軍	-11.6007
無数の	-11.6007
▁文語	-11.601
▁水の	-11.601
しゅん	-11.6011
人から	-11.6012
状のもの	-11.6013
捜す	-11.6013
台本	-11.6014
を二つ	-11.6016
▁足の	-11.6016
抽象	-11.6018
打たれ	-11.6019
▁丁	-11.6019
家系	-11.602
▁海水	-11.602
を示すため	-11.6024
水夫	-11.6025
女に	-11.6025
から他の	-11.6026
系の	-11.6027
極端	-11.6028
が下がる	-11.6028
らないで	-11.6029
地元	-11.6031
を与え	-11.6032
うとうと	-11.6033
はいり	-11.6034
が急に	-11.6037
▁アラビア	-11.6038
▁北朝霞	-11.6038
絹糸	-11.6038
悲観	-11.6039
を借りる	-11.604
二次	-11.604
▁スミス	-11.604
んだね	-11.6041
の店	-11.6042
汗を	-11.6042
用など	-11.6042
をまねる	-11.6043
メッセージをすぐに送信	-11.6043
を突く	-11.6045
意外な	-11.6046
大臣の	-11.6047
資力	-11.6048
含まれている	-11.6049
でやる	-11.6049
▁幽霊	-11.6049
▁きつね	-11.605
を負う	-11.605
の出身	-11.6051
支配する	-11.6056
りましたか	-11.6056
をはく	-11.6058
しかも	-11.6058
はありませんか	-11.6059
すわ	-11.6059
何より	-11.6063
をかけること	-11.6064
酒場	-11.6066
くだく	-11.6068
のかしら	-11.6068
の後に	-11.607
使用者	-11.6071
正式	-11.6075
みがく	-11.6076
安心した	-11.608
▁交渉	-11.6081
どうし	-11.6081
▁さし	-11.6081
気品	-11.6081
記入する	-11.6081
肥え	-11.6082
▁顔の	-11.609
まっすぐな	-11.6091
機械など	-11.6091
その後	-11.6096
能力がある	-11.6097
▁ドレス	-11.6097
家に帰	-11.6099
やめろ	-11.61
▁翻	-11.6102
▁公式	-11.6102
▁頭が	-11.6102
▁中世	-11.6102
北に	-11.6105
おさめる	-11.6105
すぐにして	-11.6105
all	-11.6107
あつ	-11.6107
上尾	-11.6107
人目	-11.6109
急性	-11.6111
似ている	-11.6113
人前で	-11.6114
を捨て	-11.6114
に終わった	-11.6115
なぎ	-11.6116
は君に	-11.6116
▁ちり	-11.6117
近寄	-11.6117
ばって	-11.6119
▁放射能	-11.612
▁この薬は	-11.6121
の種子	-11.6122
製作	-11.6122
どちらも	-11.6123
▁愛想	-11.6124
を集めた	-11.6125
等に	-11.6125
14	-11.6125
伝えた	-11.6126
大半	-11.6127
▁練習	-11.6128
▁眠り	-11.6129
▁ミサイル	-11.613
でしたか	-11.613
取得	-11.6131
かゆ	-11.6132
▁文明の	-11.6133
▁代々木	-11.6134
いつまで	-11.6136
で写真をちょっと送信	-11.6137
▁せつ	-11.6137
額を	-11.6138
生んだ	-11.6139
▁女王	-11.614
の涙	-11.6141
天下に	-11.6142
▁元気かい俺の予約	-11.6143
から見た	-11.6144
わないこと	-11.6146
ろうか	-11.6147
さげる	-11.6148
▁実用	-11.615
他のもの	-11.615
ふえる	-11.6152
株の	-11.6153
▁鏡	-11.6154
の不足	-11.6155
▁特定の	-11.6156
▁太陽の	-11.6158
ほしいと	-11.6159
四十	-11.616
若く	-11.6162
▁胡	-11.6162
労働者の	-11.6164
ようなものだ	-11.6166
▁なるほど	-11.6167
を願う	-11.6171
引いて	-11.6173
▁ものの	-11.6176
などに対して	-11.6176
本文	-11.6177
木の実	-11.6179
▁剣	-11.618
ふるまいをする	-11.6181
▁水道橋	-11.6182
最中	-11.6183
▁どうしても	-11.6184
眺める	-11.6185
そと	-11.6187
水の流れ	-11.6189
▁午前	-11.6189
ひだ	-11.6189
▁子供に	-11.6191
ほかの人	-11.6191
本物の	-11.6191
ばば	-11.6192
▁ジャズ	-11.6193
の緒	-11.6194
ないと	-11.6196
が二つ	-11.6199
ぶつかる	-11.62
月曜日	-11.6201
るようにして	-11.6203
この本	-11.6204
われている	-11.6206
目の前に	-11.6207
来るだろう	-11.6207
箱に	-11.6207
▁厳しい	-11.6208
乗っている	-11.6209
▁正常	-11.621
▁徳	-11.621
いじめ	-11.6211
握	-11.6212
の出る	-11.6212
出頭	-11.6212
▁女の子	-11.6212
歓迎する	-11.6214
錐	-11.6215
り込んだ	-11.6215
に使った	-11.6217
ひと組	-11.6218
順調に	-11.6219
▁彼らには	-11.6219
▁経済学	-11.622
仏教の	-11.622
の才	-11.6221
腹の中	-11.6222
戦場で	-11.6223
▁紛	-11.6223
こぎ	-11.6224
▁倹約	-11.6226
の象徴	-11.6228
にはまだ	-11.623
始めて	-11.6231
の上を	-11.6232
相当の	-11.6233
つある	-11.6233
に出ること	-11.6233
いられない	-11.6234
ておいた	-11.6234
閉め	-11.6234
バル	-11.6235
印刷した	-11.6236
がなくなった	-11.6236
は全然	-11.6238
取り除く	-11.6238
の通り	-11.6238
つぶれる	-11.6238
をもらった	-11.6241
数日	-11.6242
の先生	-11.6242
▁勢いよく	-11.6243
安く買	-11.6243
法律上	-11.6243
価値を	-11.6243
▁最低	-11.6244
▁私の考え	-11.6245
して行う	-11.6245
▁明治	-11.6245
氏は	-11.6246
▁今日の天気はどう	-11.6247
▁正気	-11.6247
▁用意	-11.6247
まわって	-11.6248
▁遠い	-11.6252
▁キャンプ	-11.6254
から作る	-11.6254
戦場	-11.6255
くれたまえ	-11.6256
▁今日の天気予報どう	-11.6256
▁地方	-11.6256
その作品	-11.6258
泣くこと	-11.6259
クス	-11.6259
だめになる	-11.6261
内部の	-11.6261
も言う	-11.6264
越え	-11.6265
快感	-11.6267
ある者	-11.6268
ージ	-11.6268
▁公開	-11.6268
▁優しい	-11.6269
北アメリカ	-11.6269
目の前	-11.6269
▁芸者	-11.627
▁あいつは	-11.627
明日の	-11.6271
活発な	-11.6272
▁p	-11.6273
▁有効	-11.6273
微生物	-11.6273
▁易	-11.6274
回した	-11.6274
ブリ	-11.6276
だつ	-11.6284
▁彼は私より	-11.6284
▁珍しい	-11.6284
▁感謝の	-11.6284
のとき	-11.6284
の所で	-11.6285
を送った	-11.6286
に倒れる	-11.6286
▁時計の	-11.6291
▁会は	-11.6292
にひどく	-11.6294
折れる	-11.6296
社会に	-11.6296
学科	-11.6297
てんで	-11.6299
くどく	-11.63
ように作った	-11.6301
小包	-11.6302
調整	-11.6303
を抑え	-11.6305
知っていた	-11.6305
やかん	-11.6306
ん坊	-11.6307
被告	-11.6309
神経が	-11.6309
▁その町	-11.631
▁前途	-11.6312
をめぐらす	-11.6313
▁定期	-11.6314
利口	-11.6317
取れた	-11.6319
▁その事件は	-11.632
その土地の	-11.632
長時間	-11.6323
手紙は	-11.6323
書き入れる	-11.6323
はげ	-11.6323
演奏会	-11.6323
▁痛み	-11.6324
頭髪	-11.6324
▁肛門	-11.6327
▁彼は新しい	-11.6327
▁北千住	-11.6328
呂い	-11.6328
とりこ	-11.633
▁機械の	-11.6332
▁ここでは	-11.6333
できず	-11.6334
になっていること	-11.6336
を生じ	-11.6336
▁鳩	-11.6338
の人口は	-11.6338
権力を	-11.6338
▁スミスさん	-11.6339
月曜日に	-11.634
勤める	-11.6341
目は	-11.6342
内容が	-11.6342
行っても	-11.6344
賞金	-11.6345
兼	-11.6347
ぬれる	-11.6347
▁股	-11.6348
▁なんとか	-11.6351
ちゃら	-11.6351
仮の	-11.6351
▁段	-11.6352
の手段	-11.6354
をみがく	-11.6356
はしなかった	-11.6356
▁元気かい予約を管理	-11.6357
鮮	-11.6357
飛行機など	-11.6359
生意気	-11.6359
排	-11.6359
の主	-11.6362
あげて	-11.6362
鎮	-11.6362
ペンキ	-11.6363
電子計算機	-11.6363
▁憎	-11.6363
境目	-11.6364
▁年代	-11.6364
▁大ばか	-11.6364
なしだ	-11.6365
下剤	-11.6367
ワシ	-11.6368
▁ウイスキー	-11.6369
どこまでも	-11.637
幻	-11.637
おしろい	-11.6371
騎	-11.6371
藁	-11.6371
新車	-11.6373
▁言葉の	-11.6374
満員	-11.6375
そろそろ	-11.6376
川が	-11.6376
幽霊	-11.6377
馬鹿	-11.6377
刀剣	-11.6378
ガソリンスタンド	-11.6378
をかいて	-11.6378
きつね	-11.638
などがある	-11.638
を弾く	-11.6381
さっさと	-11.6382
悩む	-11.6382
生物学	-11.6382
を割る	-11.6383
法廷で	-11.6384
精一杯	-11.6384
▁文法	-11.6386
を通って	-11.6387
▁19	-11.6387
詰まり	-11.6389
▁すぐにメッセージを	-11.6392
正義	-11.6394
惨事	-11.6394
昨夜	-11.6395
の両側に	-11.6396
でメッセージちょっと	-11.6397
▁頭脳	-11.6397
地下の	-11.6397
将来に	-11.6397
旅客	-11.6398
方面に	-11.6398
五つの	-11.6398
▁ショートメッセージを送信	-11.6399
からずっと	-11.64
受験	-11.6401
▁佐世保	-11.6401
▁熊本	-11.6402
▁盛り	-11.6403
▁豊作	-11.6403
グロ	-11.6405
外国に	-11.6405
底の	-11.6405
抜けた	-11.6407
▁苦痛	-11.6407
練り	-11.6409
単数	-11.6409
特売	-11.641
一月	-11.6411
的な態度	-11.6411
興味が	-11.6412
は大変な	-11.6412
フィートの	-11.6412
規模の	-11.6412
持っていた	-11.6413
まことに	-11.6413
はまず	-11.6415
言いたい	-11.6415
展覧会	-11.6416
すまない	-11.6416
の後ろ	-11.6419
を使ってする	-11.6419
▁移	-11.6419
の評判	-11.6426
我が	-11.6426
耕地	-11.6428
万一	-11.6428
たまらない	-11.6432
ション	-11.6432
味わう	-11.6434
▁操	-11.6434
わずに	-11.6435
▁男子	-11.6436
戻る	-11.6437
輝	-11.644
で写真をいまから	-11.644
▁被告	-11.644
利く	-11.6442
したまえ	-11.6442
相手と	-11.6442
寒中	-11.6444
▁いね科の	-11.6445
のよしあし	-11.6447
▁鬱	-11.6447
通路	-11.6447
はうまく	-11.6451
▁あるもの	-11.6452
握る	-11.6452
世論	-11.6453
面の	-11.6453
普通より	-11.6454
▁今にも	-11.6454
幹線道路	-11.6456
▁人生は	-11.6456
詰めて	-11.6457
灯台	-11.6457
でひどく	-11.6457
▁時間を	-11.6457
写真ちょっと	-11.6458
▁詳	-11.6459
に落ちた	-11.6461
ジャー	-11.6461
に思うこと	-11.6461
の余地がない	-11.6462
の影響	-11.6463
従来の	-11.6463
▁えーっとこのメモ	-11.6464
▁震	-11.6465
▁ぜいたく	-11.6465
二本	-11.6467
の入口	-11.6468
許さない	-11.6471
▁健全な	-11.6471
▁書画	-11.6472
寝て	-11.6475
▁雁	-11.6475
▁安全度の診断	-11.6476
がすぐれている	-11.6476
人名	-11.6478
▁忍び	-11.6479
▁wi	-11.6479
明日の天気はどう	-11.648
茎は	-11.648
柔らか	-11.648
モー	-11.648
を凝らす	-11.6481
据え	-11.6482
▁衣服の	-11.6482
守って	-11.6484
▁皆さん	-11.6485
▁空中に	-11.6486
遊びに	-11.6488
▁コンピューター	-11.6489
澄	-11.6489
入国	-11.6489
文章を	-11.6491
条件を	-11.6491
目先	-11.6492
りながら	-11.6492
の柄	-11.6493
ガー	-11.6494
の本質	-11.6495
豊富	-11.6495
に似た形	-11.6495
あしら	-11.6496
目立って	-11.6496
粉にしたもの	-11.6497
他の事	-11.6497
アイロン	-11.6499
▁話を	-11.6499
の上部	-11.6499
▁それは彼の	-11.6501
油絵	-11.6504
巧	-11.6504
▁ちょっと警察	-11.6505
▁連続	-11.6505
だけでなく	-11.6507
を敬っ	-11.651
▁罪人を	-11.6511
▁大気	-11.6513
穀	-11.6513
▁重要な	-11.6513
騒ぐ	-11.6514
▁無理に	-11.6515
平凡	-11.6516
いん	-11.6517
▁終身	-11.6517
[...]
