<unk>	0
<s>	0
</s>	0
▁	-2.39598
。	-3.1509
、	-3.73748
の	-4.0249
・	-4.26914
を	-4.54983
。「	-4.55417
」	-4.59476
に	-4.63267
する	-4.86007
が	-4.9165
は	-4.9346
こと	-5.09375
で	-5.09667
と	-5.36371
)	-5.57875
る	-5.61584
▁彼は	-5.62721
た	-5.74184
」「	-5.987
人	-5.99671
した	-6.01389
また	-6.07141
や	-6.07429
な	-6.08556
だ	-6.1144
から	-6.12747
して	-6.1994
(	-6.2682
て	-6.31501
その	-6.39981
も	-6.4905
い	-6.50791
もの	-6.58566
し	-6.6495
か	-6.70056
など	-6.77205
である	-6.79578
▁その	-6.79665
す	-6.81748
をする	-6.83916
物	-6.84462
□	-6.86389
った	-6.86484
者	-6.86492
り	-6.87313
▁(	-6.95345
」(	-6.96382
く	-6.99079
▁この	-6.99942
▁彼女は	-7.00283
1	-7.01004
特に	-7.05018
すること	-7.07125
になる	-7.11556
などの	-7.12691
がある	-7.15756
さま	-7.20212
には	-7.20298
または	-7.2144
所	-7.21555
家	-7.23278
って	-7.253
手	-7.28235
▁彼の	-7.28357
ること	-7.28748
として	-7.29815
ない	-7.29826
時	-7.31205
▁...	-7.33064
している	-7.36353
▁えー	-7.37883
う	-7.39432
▁〔	-7.39814
大	-7.40541
心	-7.40907
日	-7.41172
ある	-7.41211
水	-7.41905
などを	-7.42025
ー	-7.42884
語	-7.43265
子	-7.43476
▁LINE	-7.43655
目	-7.45926
一	-7.46159
ている	-7.47493
いた	-7.47525
〕	-7.47741
的	-7.47947
本	-7.4809
力	-7.48361
き	-7.48391
さ	-7.48539
です	-7.49037
お	-7.50755
よ	-7.51396
だった	-7.52228
地	-7.54523
事	-7.56689
転じて	-7.56741
;	-7.57057
2	-7.57085
み	-7.5716
用	-7.59227
という	-7.59284
ように	-7.60199
色	-7.60249
金	-7.60821
ら	-7.61221
では	-7.61575
国	-7.62545
▁電話	-7.63244
へ	-7.63686
気	-7.66884
上	-7.67322
口	-7.67898
年	-7.68795
つ	-7.69667
道	-7.70535
3	-7.70906
中	-7.71083
▁あの	-7.72552
▁SMS	-7.73159
風	-7.73412
っと	-7.74831
いる	-7.77424
まで	-7.77728
などが	-7.77971
法	-7.78145
む	-7.78435
SMS	-7.79029
にする	-7.79763
によって	-7.80892
ちょっと	-7.81159
的な	-7.81799
名	-7.82159
▁彼らは	-7.82339
させる	-7.82834
▁大	-7.83189
▁ちょっと	-7.83739
された	-7.83918
分	-7.84243
見	-7.84359
方	-7.85291
木	-7.85489
体	-7.85672
俗	-7.86179
書	-7.86423
下	-7.86465
などで	-7.86553
性	-7.87182
のある	-7.87597
の一つ	-7.88193
電話	-7.88406
め	-7.89523
数	-7.89579
点	-7.90407
より	-7.90807
!	-7.91632
取り	-7.9428
ような	-7.94301
▁「	-7.94563
学	-7.94604
話	-7.9476
会	-7.95446
仏	-7.96747
音	-7.97149
119	-7.97471
すぐに	-7.98733
よく	-8.01089
...	-8.0121
車	-8.01751
いい	-8.01777
5	-8.01946
小	-8.02203
船	-8.02239
出	-8.02647
長	-8.02672
仕事	-8.02921
ほど	-8.03531
時間	-8.03658
▁それは	-8.04486
ね	-8.04748
線	-8.05154
▁人の	-8.05187
生	-8.05377
山	-8.05398
形	-8.05517
「	-8.06215
紙	-8.06382
月	-8.06513
火	-8.06665
ご	-8.06695
場	-8.06928
文	-8.06942
の一種	-8.07095
▁一	-8.07224
がない	-8.07302
考え	-8.07472
間	-8.07844
だろう	-8.09367
のない	-8.09998
言葉	-8.10054
声	-8.10475
下さい	-8.10517
▁お	-8.1078
頭	-8.11001
女	-8.11294
ず	-8.11815
彼は	-8.11882
になった	-8.12263
▁すぐに	-8.12423
こ	-8.12605
海	-8.13819
人の	-8.13864
前	-8.14479
例	-8.14789
品	-8.15103
行	-8.15338
もう	-8.15964
される	-8.1738
様子	-8.18007
などに	-8.18262
それ	-8.18803
▁ん	-8.18921
▁手	-8.19962
屋	-8.20681
▁いまから	-8.20773
足	-8.21477
いまから	-8.21667
え	-8.22
▁人を	-8.22549
ために	-8.22648
着	-8.23014
▁私は	-8.23061
この	-8.23594
ていた	-8.23922
戦	-8.24114
よい	-8.24156
そう	-8.24951
男	-8.25246
のように	-8.25355
何	-8.25947
の略	-8.26001
送る	-8.26093
よう	-8.27149
番	-8.27352
に対して	-8.27357
花	-8.27497
かった	-8.27515
馬	-8.27724
状態	-8.28017
切り	-8.29084
10	-8.29275
先	-8.29467
っている	-8.29941
石	-8.30124
顔	-8.30505
いて	-8.3061
▁110	-8.30856
なく	-8.30868
のために	-8.30912
んだ	-8.31356
▁無	-8.31884
じ	-8.32621
度	-8.33141
世	-8.33821
▁彼が	-8.33953
(=	-8.3406
面	-8.34112
れ	-8.34594
後	-8.34941
論	-8.35005
出す	-8.3543
彼の	-8.36676
自分の	-8.37173
さん	-8.37253
言	-8.37742
神	-8.37977
食	-8.38023
ん	-8.38655
▁小	-8.38868
靴	-8.39184
内	-8.39416
問題	-8.39818
メッセージ	-8.39954
▁もう	-8.40074
なさい	-8.4074
式	-8.41482
▁水	-8.41563
身	-8.41966
的に	-8.42802
白	-8.42948
歌	-8.43092
等	-8.43391
熱	-8.43625
何ができるか教えて	-8.43902
これ	-8.44322
高	-8.44789
にも	-8.45012
だけ	-8.45034
ですか	-8.45709
ば	-8.45784
け	-8.4603
時に	-8.46173
草	-8.46274
LINE	-8.46319
二	-8.46805
業	-8.46818
▁人に	-8.47013
役	-8.47548
ます	-8.47559
▁彼はその	-8.47631
空	-8.47638
)「	-8.47754
板	-8.47845
なかった	-8.48482
それを	-8.48815
引き	-8.48845
来	-8.49236
となる	-8.49587
なら	-8.49802
三	-8.49883
書き	-8.49942
をつける	-8.50049
できる	-8.50944
服	-8.50987
部	-8.5148
ながら	-8.51578
ため	-8.52511
薬	-8.52546
にある	-8.52561
酒	-8.5296
ち	-8.53029
部分	-8.53231
骨	-8.53295
作	-8.53473
4	-8.53587
流	-8.53593
外	-8.53807
による	-8.5406
量	-8.54238
そ	-8.5469
の総称	-8.54823
っ	-8.5492
▁不	-8.55162
台	-8.55262
夜	-8.55305
のため	-8.55443
毛	-8.55575
言う	-8.55716
もと	-8.55842
しない	-8.56132
店	-8.56965
でも	-8.56975
場所	-8.57063
生活	-8.57112
天	-8.57942
光	-8.58031
代	-8.5819
に対する	-8.58209
任	-8.58294
わ	-8.583
ものだ	-8.58308
ス	-8.58492
込む	-8.58512
主義	-8.58696
か教えて	-8.58879
雨	-8.58933
病	-8.59128
死	-8.59814
字	-8.6035
表	-8.6063
垢	-8.60892
器	-8.60917
意	-8.60973
植物	-8.61314
とする	-8.61372
兵	-8.61508
状	-8.61567
▁私の	-8.61735
無	-8.61768
主	-8.61982
ぐ	-8.62031
布	-8.62107
のような	-8.62243
態度	-8.62417
ための	-8.63145
土	-8.63221
魚	-8.6333
▁金	-8.63682
権	-8.6372
入れ	-8.64335
病気	-8.64464
機	-8.64807
せ	-8.65028
関係	-8.65115
職	-8.65172
愛	-8.65312
はない	-8.65536
ぞ	-8.65722
をした	-8.66036
の人	-8.66183
していた	-8.66511
味	-8.6657
運動	-8.6694
室	-8.66991
であること	-8.67013
上の	-8.671
▁彼女の	-8.67233
行為	-8.67498
について	-8.68034
あなた	-8.69068
ま	-8.69227
大きな	-8.69231
前に	-8.69406
鳥	-8.69554
がいい	-8.69957
発	-8.70334
悪	-8.70545
油	-8.70583
られた	-8.70787
装置	-8.70806
髪	-8.70827
曲	-8.70881
五	-8.70884
中に	-8.71244
もない	-8.71264
をとる	-8.7165
音楽	-8.71813
角	-8.72201
感	-8.7245
肉	-8.72488
客	-8.73025
用の	-8.73037
を出す	-8.73057
血	-8.73333
雲	-8.73342
られる	-8.73395
道具	-8.73662
御	-8.73712
▁本	-8.73978
筆	-8.74072
元	-8.74138
送信する	-8.7427
ところ	-8.74481
化	-8.74481
持ち	-8.74542
行く	-8.74639
▁自分の	-8.74807
命	-8.74862
葉	-8.75358
ください	-8.75583
比ゆ的に	-8.75791
組織	-8.75991
料理	-8.76139
計画	-8.76228
でない	-8.76241
人を	-8.76248
腹	-8.76316
ル	-8.76344
部屋	-8.76394
性質	-8.76802
物を	-8.76929
▁山	-8.77019
こう	-8.77062
波	-8.77154
人に	-8.77255
付け	-8.77328
人が	-8.77338
位	-8.7737
学校	-8.77376
▁新	-8.77763
不	-8.7789
▁これは	-8.77948
を受ける	-8.77955
他の	-8.78049
立	-8.78119
える	-8.7845
米	-8.78518
絵	-8.78521
種	-8.78707
める	-8.78727
イ	-8.78967
動	-8.79361
になっている	-8.79401
門	-8.79762
実	-8.79928
メッセージを	-8.80102
図	-8.80193
入	-8.80257
座	-8.80293
▁これ	-8.80476
に電話	-8.80755
何ができる	-8.80814
思い	-8.80819
何できる	-8.80856
れる	-8.80976
会社	-8.80983
相	-8.81024
合	-8.81038
根	-8.81325
』	-8.8147
犬	-8.81868
であった	-8.81924
を作る	-8.82161
ぶ	-8.82189
説	-8.82482
その人	-8.82576
時代	-8.83062
師	-8.83224
/	-8.83284
ルビ	-8.83416
制	-8.83468
送信	-8.83519
ものを	-8.83671
とは	-8.83811
私の	-8.83877
ぎ	-8.83892
砲	-8.83908
▁『	-8.84203
▁1	-8.84232
になって	-8.84289
ど	-8.84481
回	-8.84611
節	-8.84616
席	-8.8462
類	-8.8464
打ち	-8.84738
▁彼には	-8.84973
歩く	-8.85082
土地	-8.85112
重	-8.85456
雪	-8.85492
画	-8.85697
を取る	-8.85771
のは	-8.86021
罪	-8.86028
意見	-8.8608
リ	-8.86117
に使う	-8.86793
▁ある	-8.86869
そういう	-8.86933
ろ	-8.86951
▁君は	-8.87007
官	-8.87138
期	-8.87294
▁口	-8.87321
界	-8.87451
▁我々は	-8.87534
▁あなた	-8.87543
しい	-8.88256
通り	-8.8837
▁私	-8.88468
文字	-8.88535
眼	-8.88565
すぐ	-8.88618
$	-8.88933
食用	-8.89184
をして	-8.8927
町	-8.89586
なる	-8.89861
様	-8.89971
べき	-8.90354
私	-8.90416
管	-8.90656
つき	-8.90727
とも	-8.90872
▁出	-8.90945
箱	-8.91059
々	-8.91124
をかける	-8.91274
軍	-8.91413
▁内	-8.91557
茶	-8.9161
たち	-8.91753
▁電話したい	-8.91885
別	-8.92083
まだ	-8.922
事を	-8.92202
び	-8.92335
▁電話かける	-8.92479
首	-8.92901
▁彼	-8.93246
立ち	-8.93326
敵	-8.93393
美しい	-8.93833
見る	-8.93863
路	-8.94071
糸	-8.94076
直	-8.94096
刀	-8.94208
事実	-8.94299
ラ	-8.94473
夏	-8.94846
入り	-8.94867
6	-8.94889
質	-8.95416
なこと	-8.95443
一回	-8.95467
輪	-8.95696
のか	-8.95709
ではない	-8.95787
社会	-8.95847
傷	-8.9589
田	-8.9614
然	-8.96154
川	-8.96247
旅行	-8.96334
額	-8.96365
▁電話をかける	-8.96579
んで	-8.96747
虫	-8.96848
新しい	-8.96999
行動	-8.97042
小説	-8.97077
ぬ	-8.97543
中の	-8.97597
▁夜	-8.97653
売り	-8.97672
新	-8.977
親	-8.97939
つく	-8.98132
札	-8.98419
かす	-8.98559
姿	-8.98567
劇	-8.99085
事柄	-8.99256
棒	-8.9938
出し	-8.99636
ア	-8.99725
印	-8.99868
▁2	-9.00129
教育	-9.00171
▁電話する	-9.00244
したもの	-9.00291
知	-9.00344
をすること	-9.00468
詩	-9.00557
に行く	-9.00603
歯	-9.00659
柱	-9.00742
縁	-9.00797
高い	-9.00867
僧	-9.01086
六	-9.0116
ける	-9.01538
父	-9.01734
玉	-9.01853
値	-9.01926
帯	-9.02051
ン	-9.02126
ばかり	-9.02182
きた	-9.02385
ナ	-9.02419
▁空	-9.02468
言い	-9.02726
情	-9.02745
君	-9.02835
たり	-9.02951
あり	-9.02954
されている	-9.0301
辰	-9.03032
げ	-9.03094
立て	-9.03242
星	-9.03342
利	-9.03386
できない	-9.03427
子供	-9.03738
映画	-9.03746
湯	-9.03762
古	-9.03798
正	-9.03799
感じ	-9.03874
母	-9.03912
▁下	-9.0396
計	-9.04042
っていた	-9.0409
人間	-9.04148
れば	-9.04202
通	-9.04252
日本	-9.04279
句	-9.04341
つけ	-9.04433
が悪い	-9.04493
▁木	-9.04547
円	-9.04627
よりも	-9.04772
私は	-9.04863
強	-9.04914
の中に	-9.05404
員	-9.05414
妻	-9.05452
}	-9.0577
版	-9.05884
背	-9.06188
次	-9.06209
あと	-9.06312
なり	-9.06336
とり	-9.06381
試験	-9.06576
記	-9.06626
覆	-9.06861
団	-9.0706
里	-9.07134
▁生	-9.07517
同じ	-9.07558
非常に	-9.07603
戦争	-9.07661
動物	-9.07724
定	-9.08003
ト	-9.08087
文章	-9.0831
建物	-9.08361
かけ	-9.0866
約束	-9.08684
があった	-9.08802
原	-9.089
を与える	-9.09285
春	-9.09297
掛け	-9.09353
▁神	-9.0944
成	-9.09455
らない	-9.09492
オ	-9.09548
赤	-9.09591
地方	-9.09633
ドル	-9.09733
らしい	-9.09815
ひ	-9.0997
押し	-9.10104
▁君の	-9.10164
村	-9.10184
製	-9.10321
たる	-9.10342
粉	-9.10408
筋	-9.10519
電話をかける	-9.10656
試合	-9.10765
そういう人	-9.10792
まる	-9.10822
戸	-9.10961
いっぺん	-9.11065
事件	-9.11253
尾	-9.1158
ないこと	-9.11644
すこと	-9.11874
▁気	-9.11918
柄	-9.1212
事業	-9.12151
四	-9.122
煙	-9.12251
▁目	-9.12407
楽	-9.12423
▁上	-9.12431
耳	-9.1255
合い	-9.12577
穴	-9.12684
▁御	-9.12865
難	-9.12875
▁自	-9.12971
費	-9.13048
▁後	-9.13093
造	-9.13245
地位	-9.13508
竹	-9.13659
ひと	-9.13693
袋	-9.13835
▁天	-9.13898
活動	-9.13928
になること	-9.14088
案	-9.14095
相手	-9.1414
腰	-9.14141
網	-9.14165
型	-9.14342
研究	-9.1435
そうだ	-9.14561
を示す	-9.14622
▁高	-9.14682
長い	-9.14714
とき	-9.14853
人物	-9.14973
税	-9.14989
杯	-9.15104
の中で	-9.15181
黒	-9.15284
に対し	-9.1546
写真	-9.15515
機械	-9.15832
書物	-9.1614
調子	-9.16172
感情	-9.16274
公	-9.16459
への	-9.16653
小さな	-9.1675
一番	-9.16774
が多い	-9.16803
かい	-9.17176
▁白	-9.17262
やり直す	-9.17305
あ	-9.17332
▁何	-9.17399
カ	-9.175
だけで	-9.17536
電話する	-9.17714
術	-9.17719
害	-9.17993
悪い	-9.17997
明	-9.18068
同	-9.18234
▁前	-9.18257
▁三	-9.18258
強い	-9.18677
しか	-9.18714
▁彼に	-9.18719
▁心	-9.1881
s	-9.18912
合う	-9.18961
をしている	-9.18962
政治	-9.1902
マ	-9.19071
取引	-9.19117
いや	-9.19351
行う	-9.19612
▁中	-9.19653
となった	-9.19862
電	-9.19886
弁	-9.20212
寝	-9.20236
八	-9.20489
まい	-9.20582
▁同	-9.20592
制度	-9.2081
方法	-9.20857
タ	-9.20898
半	-9.21041
でしょう	-9.21112
ロ	-9.21174
番呼び出す	-9.21233
美	-9.21348
民	-9.21452
当	-9.21843
球	-9.21921
断	-9.21995
。↓	-9.22071
鼻	-9.22232
読	-9.22418
報	-9.2242
料	-9.22458
士	-9.22735
塩	-9.22881
なし	-9.23073
皮	-9.23107
払い	-9.232
遊び	-9.2334
と思う	-9.23376
乗	-9.23387
ができますか	-9.23414
20	-9.23484
張り	-9.23485
能力	-9.2388
ろう	-9.23967
調	-9.24056
像	-9.24075
彼に	-9.24376
結婚	-9.2442
▁僕は	-9.24435
のに使う	-9.24463
焼き	-9.24511
学問	-9.24546
▁二	-9.24548
広く	-9.24617
30	-9.24644
ウ	-9.24694
談	-9.24771
毒	-9.24879
学者	-9.24956
に入る	-9.24975
シ	-9.25157
平	-9.25297
大学	-9.25502
号	-9.25602
議論	-9.25608
進む	-9.25647
作用	-9.25653
隊	-9.25688
7	-9.25698
幕	-9.25751
何か	-9.25769
秋	-9.25921
▁外	-9.25937
横	-9.26025
産	-9.26146
運	-9.26165
出した	-9.26208
多	-9.26221
気持	-9.26397
上げる	-9.26524
やめ	-9.26587
王	-9.26695
やり直し	-9.26738
ッ	-9.26744
抜き	-9.26757
▁ご	-9.26789
てしまった	-9.26847
経験	-9.26867
を入れる	-9.2705
詰め	-9.2738
ケ	-9.27403
得	-9.27406
卵	-9.27536
かた	-9.27545
規則	-9.27556
小さい	-9.27588
歩	-9.2771
ひどく	-9.27727
深い	-9.27736
物質	-9.27769
立つ	-9.2783
どう	-9.27842
信	-9.27911
▁～	-9.27987
番に電話かける	-9.28176
壁	-9.28189
▁全	-9.28222
違い	-9.28278
夫	-9.28297
針	-9.28345
つける	-9.28612
|	-9.28778
取る	-9.29022
をもつ	-9.2904
城	-9.2909
くる	-9.29215
朝	-9.29342
手紙	-9.29407
やる	-9.29437
自動車	-9.29441
野	-9.29602
全	-9.29603
いつも	-9.29606
に関する	-9.29649
欲	-9.29692
番に電話して	-9.29772
込み	-9.30016
▁国	-9.3003
起	-9.30073
言った	-9.30097
なければならない	-9.30104
出る	-9.30166
経済	-9.30191
娘	-9.30235
鉄	-9.30242
うまく	-9.30337
新聞	-9.30377
社	-9.30518
牛	-9.30682
ゆ	-9.30801
フ	-9.30802
法律	-9.30813
ニ	-9.30845
食事	-9.30857
チ	-9.30862
策	-9.30894
使い	-9.30901
真	-9.30948
落ち	-9.3097
▁火	-9.31035
110	-9.3106
息	-9.31106
時の	-9.3116
万	-9.31235
にして	-9.31294
乗り	-9.31298
表現	-9.31337
▁船	-9.31382
和	-9.31391
連	-9.31611
?	-9.31806
しなさい	-9.32016
▁風	-9.32016
形の	-9.32065
一定の	-9.32128
科の	-9.32128
笑い	-9.32301
電話かける	-9.32478
窓	-9.32526
▁悪	-9.32694
させた	-9.32701
そうな	-9.32777
を言う	-9.3278
歳	-9.32803
8	-9.32891
彼が	-9.32967
ずる	-9.33119
	-9.33221
港	-9.33247
損	-9.33392
局	-9.33448
命令	-9.33681
史	-9.33802
政	-9.33942
進	-9.33969
片	-9.34023
'	-9.34062
ふ	-9.34143
競技	-9.34163
英語	-9.342
▁先	-9.34286
▁警察	-9.343
長く	-9.3434
白い	-9.34432
多くの	-9.34538
模様	-9.34554
のうち	-9.34585
ますか	-9.34602
切る	-9.34687
機関	-9.347
世界	-9.3472
殺	-9.34756
メッセージ送信	-9.34848
財産	-9.34869
私に	-9.34918
変化	-9.34923
肩	-9.35156
付	-9.35171
時計	-9.35199
すっかり	-9.35225
剤	-9.35325
権利	-9.35378
せる	-9.35413
を見	-9.35485
一般に	-9.35503
▁真	-9.35647
▁―	-9.35656
▁何か	-9.35682
居	-9.35878
道路	-9.35928
の上	-9.35957
なった	-9.36029
がよい	-9.36139
化する	-9.36175
ません	-9.36212
失	-9.36291
有	-9.36429
▁まだ	-9.36493
数学	-9.36553
証拠	-9.36561
他	-9.36652
危険	-9.36661
層	-9.3668
旗	-9.3669
十	-9.3686
付ける	-9.36876
盛り	-9.37115
	-9.37151
▁茶	-9.37324
食べる	-9.37325
かな	-9.37387
少年	-9.37427
七	-9.37507
電気	-9.37525
使う	-9.37735
安	-9.37764
算	-9.37803
党	-9.37829
くなる	-9.37841
老	-9.37859
ほう	-9.37925
II	-9.38023
を起こす	-9.38127
金銭	-9.38129
薄	-9.38406
のよい	-9.3842
破	-9.38547
説明	-9.3855
あった	-9.38619
▁第	-9.38627
地域	-9.38638
品物	-9.38639
島	-9.38671
記号	-9.38742
吹き	-9.38749
たい	-9.38839
率	-9.38842
▁そう	-9.38978
メートル	-9.39031
うち	-9.39072
とした	-9.39092
心配	-9.39097
しく	-9.39099
の部分	-9.39176
条件	-9.39211
全部	-9.39242
▁日本	-9.393
児	-9.39362
文書	-9.39366
50	-9.39436
燭	-9.39467
大きく	-9.39492
普通	-9.39564
差	-9.39664
の上に	-9.39769
d	-9.39816
教	-9.39826
立てる	-9.39841
橋	-9.39925
たもの	-9.39965
乱	-9.4
失敗	-9.40012
100	-9.40033
菓子	-9.40042
団体	-9.40059
彼	-9.40095
されて	-9.40156
行き	-9.40246
苦	-9.40257
技術	-9.40293
やすい	-9.40356
を立てる	-9.40389
レ	-9.40399
▁日	-9.40515
才	-9.40738
働き	-9.40855
▁正	-9.40886
いない	-9.4109
ク	-9.41332
切	-9.41395
切れ	-9.41422
手段	-9.41783
▁非常に	-9.41798
とても	-9.41814
指	-9.4187
ました	-9.42096
作った	-9.42288
色の	-9.42309
多く	-9.42309
雑誌	-9.42345
ごと	-9.42434
分の	-9.42438
飯	-9.42515
影	-9.42534
電話したい	-9.42608
庭	-9.42614
の間	-9.42701
向き	-9.42714
対	-9.42903
床	-9.42923
ぼ	-9.4294
株	-9.42982
付き	-9.42997
ころ	-9.43195
に向かって	-9.43275
折	-9.43328
▁3	-9.43355
を見る	-9.43539
解	-9.43659
巻	-9.43708
引	-9.43712
あい	-9.43831
思想	-9.44276
個	-9.44322
好	-9.44325
端	-9.44391
すぐれた	-9.44432
日に	-9.44474
じる	-9.44532
らす	-9.44567
ずっと	-9.44595
目的	-9.44654
▁こう	-9.44795
回り	-9.4494
伝	-9.45052
万円	-9.45122
称	-9.45189
分け	-9.45191
▁重	-9.45224
▁雪	-9.45255
列	-9.45257
工	-9.45268
がなく	-9.4527
つけた	-9.45398
流れ	-9.4543
はまだ	-9.45469
があり	-9.45484
話す	-9.45537
作品	-9.45542
だけの	-9.45544
番する	-9.45557
酸	-9.45645
だと	-9.45726
徳	-9.45843
気が	-9.459
▁月	-9.4595
訳	-9.45998
わけ	-9.46066
望	-9.46099
を守る	-9.46118
来た	-9.46139
散	-9.46187
返す	-9.46211
つか	-9.46266
派	-9.46271
結果	-9.46284
注意	-9.46445
じゃない	-9.46498
工場	-9.46512
皿	-9.46598
込んだ	-9.4666
に出る	-9.46697
▁海	-9.46821
番に電話	-9.46877
利益	-9.46906
もなく	-9.46929
せず	-9.46935
知識	-9.46956
▁同じ	-9.46971
⇒	-9.47036
花が咲く	-9.47087
▁花	-9.47216
▁警察を呼ぶ	-9.4739
ひどい	-9.47437
降り	-9.4746
段	-9.47461
週間	-9.47636
落	-9.47711
かん	-9.47783
そんな	-9.47815
を使って	-9.47821
言うこと	-9.47828
▁見	-9.47862
現象	-9.47908
コ	-9.47978
意味	-9.47986
陰	-9.48103
宿	-9.48146
▁古	-9.48197
▁実	-9.48316
あまり	-9.48343
一つ	-9.48499
韻	-9.48716
理	-9.48849
の下	-9.48964
▁長	-9.48991
胸	-9.48997
▁そんな	-9.49021
家族	-9.49051
千	-9.49226
され	-9.49245
礼	-9.49296
すべき	-9.49441
▁他人の	-9.49467
変	-9.49468
の名	-9.49648
目に	-9.49771
事情	-9.49841
早く	-9.49842
▁初	-9.50006
入れる	-9.50006
両	-9.50175
陣	-9.50221
他人の	-9.50283
転	-9.50334
▁公	-9.50344
▁昔	-9.50362
建築	-9.50384
価値	-9.50432
らせる	-9.50548
▁平	-9.50577
大いに	-9.50704
間に	-9.50719
岩	-9.5076
葉は	-9.50804
金を	-9.50912
勢力	-9.50942
灯	-9.50961
女性	-9.51026
行った	-9.51101
好き	-9.51179
砂	-9.51301
具	-9.51425
てきた	-9.51433
を失う	-9.51445
▁今	-9.51637
なんて	-9.51639
を持つ	-9.51783
▁彼は私に	-9.51861
▁酒	-9.51917
取り消し	-9.51925
どんな	-9.51944
義	-9.51982
羽	-9.52043
▁有	-9.5214
します	-9.52162
ということ	-9.52164
向	-9.52265
投げ	-9.52316
番呼び出して	-9.5237
今	-9.52383
▁物事の	-9.52438
夢	-9.52623
▁血	-9.52666
を得る	-9.52778
読み	-9.52988
べ	-9.53052
約	-9.53056
取	-9.53072
▁名	-9.53138
演説	-9.53143
判断	-9.53236
受け	-9.53275
{	-9.53386
としての	-9.53474
題	-9.53489
組	-9.53529
強く	-9.53541
婦人	-9.53625
芸	-9.53633
検査	-9.53667
記録	-9.53894
腕	-9.5392
辞	-9.53929
余	-9.53983
ほどの	-9.54026
▁雨	-9.5408
肌	-9.54108
近	-9.54114
くれ	-9.5412
ごろ	-9.54125
の一	-9.54189
理論	-9.54236
清	-9.54236
格	-9.54356
t	-9.54526
氏	-9.54542
さない	-9.54544
キ	-9.54578
来る	-9.5468
倍	-9.54894
辺	-9.549
ものが	-9.54933
により	-9.54952
送	-9.54984
市	-9.54999
銀	-9.55009
位置	-9.55123
そこ	-9.55127
うそ	-9.55177
賞	-9.55178
のですか	-9.55246
▁ひと	-9.55307
跡	-9.55337
精神	-9.55386
晩	-9.5543
一つの	-9.55477
衣	-9.55545
やり	-9.55766
枚	-9.55845
▁横	-9.55896
質問	-9.55935
追い	-9.55938
末	-9.56024
箸	-9.56024
政府	-9.56092
聞き	-9.56171
起こる	-9.56187
高く	-9.56203
そば	-9.56221
どうすれば	-9.5637
いること	-9.56454
全く	-9.56528
幅	-9.56657
れた	-9.56669
がつく	-9.5668
メッセージを送信	-9.56702
くて	-9.56703
営	-9.56705
はその	-9.56706
込んで	-9.56746
▁よく	-9.56751
液	-9.56754
程度	-9.56813
番して	-9.56833
はっきり	-9.56849
空気	-9.56858
に当たる	-9.56879
成功	-9.56881
氷	-9.56926
友	-9.56933
衣服	-9.57
入る	-9.57041
釮	-9.57054
職業	-9.5709
、「	-9.57135
前の	-9.57226
帽子	-9.57293
かね	-9.57315
工業	-9.57343
不足	-9.57375
校	-9.57414
言語	-9.57451
解決	-9.57458
矢	-9.57493
弱	-9.57581
さえ	-9.57647
場合	-9.57707
彼女は	-9.57766
寺	-9.57865
岸	-9.57875
しよう	-9.57958
ド	-9.57961
▁戦争	-9.5805
▁多	-9.58057
示	-9.58096
人は	-9.58163
素	-9.58212
責任	-9.58221
反対	-9.58252
速	-9.58319
かかる	-9.58349
相手の	-9.58393
見える	-9.5846
パン	-9.585
互いに	-9.58528
でなく	-9.5853
状の	-9.58558
それに	-9.58565
せん	-9.5863
飾り	-9.58701
▁君が	-9.58877
ざ	-9.58951
茲	-9.59042
自	-9.59044
のだ	-9.59086
激しく	-9.59305
すり	-9.59309
大きい	-9.59418
配	-9.59426
持	-9.59494
がないこと	-9.5951
商売	-9.59579
政策	-9.59597
バ	-9.59637
一方	-9.59645
炎	-9.59689
上がる	-9.59717
墨	-9.5973
良	-9.59742
が彼の	-9.5984
滅	-9.59849
にした	-9.599
残	-9.59906
▁早	-9.59985
者が	-9.60157
略	-9.60159
仕事を	-9.60178
院	-9.60192
▁強	-9.6024
逆	-9.60244
当たり	-9.60248
と言った	-9.60258
ことだ	-9.60457
▁入	-9.6047
青	-9.60527
すれば	-9.60606
階級	-9.60641
皆	-9.60698
▁それ	-9.60727
距離	-9.60755
列車	-9.60802
▁女	-9.60872
上げ	-9.60931
と言う	-9.6094
取り消す	-9.60977
経	-9.61099
材	-9.61156
反	-9.61214
修	-9.61284
抜け	-9.613
北	-9.6136
飛び	-9.61421
打	-9.61432
の類	-9.61513
契約	-9.61514
かさ	-9.61515
恩	-9.61547
さし	-9.61722
援助	-9.61755
原因	-9.61781
彼女の	-9.6181
ガラス	-9.61853
少し	-9.61855
～	-9.61858
科	-9.6186
犯罪	-9.61922
寒	-9.61926
まえ	-9.61951
ひも	-9.6201
見て	-9.62015
いった	-9.62025
雄	-9.62136
健康	-9.62213
▁救急車	-9.62298
ぶり	-9.62363
かどうか	-9.62401
差し	-9.62427
価格	-9.62455
できた	-9.62479
織物	-9.6253
期間	-9.62556
金属	-9.6258
材料	-9.62628
才能	-9.6267
なって	-9.62699
程	-9.62707
乳	-9.62763
軸	-9.62872
働く	-9.62893
A	-9.62929
等の	-9.62986
装	-9.63143
言って	-9.63184
ましたか	-9.63241
放送	-9.63254
を送る	-9.63257
のもの	-9.63438
離	-9.63458
を見て	-9.63466
最も	-9.63516
まったく	-9.63599
▁これらの	-9.63605
習	-9.6376
おく	-9.63765
願	-9.63778
▁足	-9.63779
便	-9.63792
会議	-9.63815
すべて	-9.63822
彼を	-9.63824
善	-9.63917
生徒	-9.63995
裏	-9.64022
に住む	-9.64051
泥	-9.64057
霊	-9.64059
▁赤	-9.6408
のいい	-9.64261
ム	-9.64273
▁川	-9.64279
おり	-9.64435
意識	-9.64468
要	-9.64543
つる	-9.6461
銃	-9.64627
息子	-9.64696
ブ	-9.64741
違う	-9.64803
学生	-9.64823
務	-9.64836
は何	-9.64929
綿	-9.64938
自然	-9.64975
聞	-9.65026
▁直	-9.65106
▁親	-9.65221
食物	-9.65326
スト	-9.65381
などに使う	-9.65408
仕	-9.65429
知恵	-9.65477
留	-9.65489
飲む	-9.65541
境	-9.65647
委員会	-9.65657
攻撃	-9.65691
弾	-9.65724
▁年	-9.65744
選	-9.65753
▁再	-9.65805
計算	-9.65852
深く	-9.65872
係	-9.65876
希望	-9.65944
勝	-9.6596
汁	-9.65965
積	-9.65965
苦労	-9.65989
事故	-9.66158
潮	-9.66175
しまった	-9.66176
努力	-9.66218
▁新しい	-9.66242
上に	-9.66415
食い	-9.66425
体を	-9.66482
作る	-9.66741
の悪い	-9.66767
枝	-9.66773
給	-9.66835
痛	-9.66861
問	-9.66884
物事の	-9.6689
堂	-9.66988
られている	-9.6701
望み	-9.6701
うちに	-9.67097
習慣	-9.67101
罰	-9.67151
をもって	-9.67154
性の	-9.67234
もち	-9.67325
を打つ	-9.67341
中である	-9.6736
死ぬ	-9.67439
死んだ	-9.6755
かり	-9.67554
収	-9.67568
がよく	-9.67581
仲間	-9.67727
▁野	-9.67828
割り	-9.67876
各	-9.67915
作り	-9.67963
評判	-9.67992
▁逆	-9.68007
批評	-9.68048
させ	-9.6812
紅	-9.68164
もっと	-9.68231
言い方	-9.6826
ついて	-9.6828
昔	-9.68315
られて	-9.68332
▁総	-9.68392
剣	-9.68519
討	-9.68549
判	-9.68551
▁朝	-9.6857
犯	-9.68573
気分	-9.68698
天気	-9.68735
器具	-9.68767
、...	-9.68837
たちは	-9.68856
ばか	-9.68961
都市	-9.69106
教え	-9.69351
者は	-9.69506
を使う	-9.69516
食品	-9.69543
返事	-9.69723
集	-9.69754
に電話する	-9.69763
在	-9.69771
念	-9.69771
正しい	-9.69802
舌	-9.69821
▁救急車呼ぶ	-9.69842
属	-9.69876
飛行	-9.69905
ほとんど	-9.69943
予定	-9.6998
編	-9.70043
細工	-9.70053
領	-9.70062
籍	-9.70137
に達する	-9.70144
勇	-9.70175
を張る	-9.70191
すぎる	-9.7022
涙	-9.70263
くず	-9.70326
ページ	-9.70326
商	-9.70338
につく	-9.70441
旅	-9.70467
キロ	-9.70479
メッセ	-9.70526
それが	-9.70529
マイル	-9.70539
章	-9.70593
もある	-9.7078
所に	-9.70816
丸	-9.7087
▁自然	-9.70901
置き	-9.70912
年齢	-9.7098
振り	-9.71041
立派な	-9.71047
製品	-9.71067
離れ	-9.71124
急	-9.71158
産業	-9.71206
底	-9.71396
笑う	-9.71466
顔つき	-9.71581
▁ショートメッセージ	-9.71582
の多い	-9.71587
内容	-9.71616
に似た	-9.71669
蝿	-9.71837
食べ	-9.71868
泣く	-9.71917
観	-9.71998
ガス	-9.72
ほ	-9.72049
▁とても	-9.72051
黄	-9.72141
林	-9.72201
九	-9.72208
まず	-9.72221
▁君	-9.72253
人だ	-9.72289
は彼の	-9.72293
立場	-9.72334
れて	-9.72346
ずに	-9.72361
従	-9.72392
別の	-9.72632
黒い	-9.72635
年間	-9.72642
服装	-9.72749
合わせ	-9.72754
考える	-9.72796
理由	-9.7286
茎	-9.72872
▁救急車呼びに電話	-9.72942
次の	-9.72952
メ	-9.73032
祭	-9.73129
水を	-9.73137
15	-9.73154
があって	-9.73163
初めて	-9.73178
趣味	-9.73205
へ行く	-9.73215
芸術	-9.7322
▁土	-9.73331
銭	-9.73365
綱	-9.73419
階	-9.73427
軍隊	-9.73449
▁熱	-9.73454
過	-9.73485
冬	-9.73497
冠	-9.73634
文学	-9.7375
▁彼は私の	-9.73768
性格	-9.73775
な人	-9.7378
を取り	-9.73808
勢い	-9.73825
資金	-9.73939
はい	-9.74094
わざ	-9.74115
やった	-9.74218
友人	-9.74264
▁肉	-9.74323
▁ひ	-9.74331
▁鉄	-9.74384
ハ	-9.74467
必要	-9.74476
駅	-9.74514
▁それを	-9.74523
圧	-9.74596
芝居	-9.74622
保護	-9.74625
条	-9.74703
ネ	-9.74734
症	-9.74737
情報	-9.74745
をやる	-9.74757
諸	-9.74774
Δ	-9.74798
生物	-9.74806
うこと	-9.74824
国家	-9.74848
売	-9.74868
南	-9.74873
患者	-9.74886
ぐらい	-9.74943
要求	-9.74946
ミ	-9.74961
級	-9.74991
裁判所	-9.75021
▁自動車	-9.75049
▁両	-9.75054
期待	-9.75164
やか	-9.7527
商品	-9.75317
走る	-9.75365
▁救急車を呼ぶ	-9.75375
わら	-9.75392
体の	-9.75453
紋	-9.75475
▁電気	-9.75489
蔵	-9.75522
替え	-9.75553
極	-9.75572
見た	-9.75574
州	-9.75665
▁主	-9.75708
勢	-9.75717
傾向	-9.75791
炭	-9.758
▁他	-9.75801
密	-9.75844
バス	-9.75864
心が	-9.7589
の中	-9.75932
部隊	-9.75991
▁それが	-9.76013
みな	-9.76068
全体	-9.76121
屋根	-9.76209
と同じ	-9.76321
交	-9.7634
に電話かける	-9.76344
香	-9.76499
▁多くの	-9.7652
狂	-9.76546
家に	-9.76624
納	-9.76673
しゃ	-9.76719
何の	-9.76735
十分	-9.7675
泙	-9.7677
けた	-9.7679
▁青	-9.76803
助	-9.76831
したり	-9.76843
を行なう	-9.76891
癖	-9.76898
▁黒	-9.76903
省	-9.7694
一日	-9.77031
始めた	-9.77057
結	-9.77099
]	-9.77111
販売	-9.77125
呂	-9.77236
人形	-9.77289
松	-9.77321
られない	-9.77467
たくさん	-9.77673
彼女	-9.77689
▁半	-9.77718
知っている	-9.77744
ようにする	-9.77814
めた	-9.7791
短い	-9.77936
収入	-9.78021
を受けて	-9.78071
左	-9.78083
宮	-9.78086
苦しい	-9.7813
9	-9.78258
かもしれない	-9.78342
かわ	-9.78357
治	-9.78453
心を	-9.78459
物事	-9.78485
▁身	-9.78669
交渉	-9.78697
▁愛	-9.78725
の称	-9.78736
ちゃ	-9.78805
を入れて	-9.78882
印刷	-9.78893
ていない	-9.78951
の言葉	-9.79069
志	-9.79079
相談	-9.79104
止め	-9.79121
動作	-9.79162
脚	-9.79181
▁片	-9.79394
舟	-9.79475
鵑	-9.79478
撃	-9.79496
物語	-9.79574
チーム	-9.79577
▁こ	-9.7969
ヤ	-9.79692
らず	-9.79732
豆	-9.79788
B	-9.79794
畑	-9.79806
後に	-9.79808
露	-9.7982
ポンド	-9.79859
OK	-9.79962
となって	-9.79988
側	-9.80003
景	-9.8001
わからない	-9.80094
▁5	-9.80259
一人	-9.80446
サ	-9.80458
割	-9.80462
東	-9.80499
▁寝	-9.80509
動き	-9.80659
設備	-9.80683
議	-9.8076
▁馬	-9.80793
▁警察呼びに電話	-9.80883
急に	-9.80894
手を	-9.80909
選手	-9.80929
家の	-9.80966
でき	-9.80998
百	-9.81103
死ぬこと	-9.81106
しても	-9.81181
とう	-9.81183
君の	-9.81198
ができる	-9.81252
走	-9.81267
なかなか	-9.81304
テーブル	-9.81306
▁急	-9.81368
を求める	-9.81542
受	-9.81559
費用	-9.81589
処理	-9.816
飲み	-9.81738
パ	-9.81739
に立つ	-9.81825
テ	-9.81871
施設	-9.81895
縄	-9.819
いく	-9.81909
細	-9.81925
あの	-9.8201
取りやめ	-9.8201
きり	-9.82053
直接	-9.82061
▁地	-9.82064
生まれ	-9.82103
何も	-9.82105
を引く	-9.82222
▁文	-9.82312
達	-9.82341
巻き	-9.82365
▁物事を	-9.8237
ホ	-9.8253
がら	-9.82563
をつけた	-9.82704
の時	-9.82716
当て	-9.82724
▁石	-9.82751
▁男	-9.8281
▁一つの	-9.82855
▁旧	-9.82926
典	-9.83006
さっと	-9.83022
ヒ	-9.83101
▁反	-9.83118
回る	-9.83118
症状	-9.83175
電車	-9.83178
ガ	-9.83229
態	-9.83234
効果	-9.83254
二つの	-9.83299
▁試験	-9.83446
勘定	-9.83498
早	-9.8361
若い	-9.83613
させて	-9.83672
丁	-9.83674
令	-9.83683
目を	-9.83702
秘密	-9.83723
喜び	-9.83726
たら	-9.83772
兄	-9.83823
ようだ	-9.83825
書類	-9.83917
近く	-9.83927
をさす	-9.83943
範囲	-9.83949
単に	-9.83976
負け	-9.83988
間違い	-9.84005
織り	-9.84006
決定	-9.84024
ついた	-9.84245
決	-9.84278
物事を	-9.8428
まま	-9.84301
行い	-9.84322
障害	-9.84335
俳優	-9.84358
重い	-9.8444
返	-9.84511
管理	-9.8456
能	-9.84584
勉強	-9.84706
づ	-9.84733
間の	-9.84738
作家	-9.84771
聞く	-9.84771
▁かん	-9.84772
ても	-9.84864
▁和	-9.8491
▁彼らの	-9.84923
が強い	-9.84949
徒	-9.84955
答え	-9.8496
▁腹	-9.84983
殿	-9.85082
絹	-9.85102
単位	-9.85172
盤	-9.85545
▁引き	-9.85553
主に	-9.85679
▁彼女が	-9.85949
とし	-9.85956
雑	-9.85971
やつ	-9.85978
蕕	-9.85984
以上	-9.8617
が出る	-9.86251
でメッセージ	-9.86316
の間に	-9.86321
菜	-9.86332
発する	-9.8638
際	-9.86476
荷	-9.86519
反応	-9.86537
甲	-9.86679
勝利	-9.86703
選挙	-9.86741
票	-9.86785
教授	-9.86789
ましょう	-9.8682
涼	-9.8685
作業	-9.86854
総	-9.86857
財	-9.86906
していない	-9.86969
▁老	-9.86985
のことを	-9.87019
▁sho	-9.8706
を持っている	-9.87109
を切る	-9.87127
▁転	-9.87129
中で	-9.87147
んでいる	-9.87162
とか	-9.87171
報告	-9.87234
労働者	-9.87236
資格	-9.87248
襪	-9.8726
▁原	-9.87313
▁牛	-9.87433
漢	-9.87458
願い	-9.87496
方向	-9.87547
絶	-9.87586
しん	-9.87652
▁客	-9.87684
文句	-9.87764
工事	-9.87784
ずつ	-9.87811
一面に	-9.87957
覚え	-9.87976
ニュース	-9.87976
▁非	-9.88042
手で	-9.88054
ul	-9.88066
砂糖	-9.88124
闘	-9.88158
放	-9.88193
飛ぶ	-9.88243
料金	-9.88268
扱い	-9.88301
▁もっと	-9.88348
気持ち	-9.88426
に電話をかける	-9.88488
哲学	-9.88493
弟	-9.88605
ひき	-9.88662
忘れ	-9.88682
緑	-9.88701
順	-9.88704
合って	-9.88799
のための	-9.88827
初	-9.88834
考え方	-9.88908
▁ア	-9.88917
券	-9.88956
くって	-9.88994
ごとに	-9.89031
遊	-9.89039
多くは	-9.8905
臭	-9.89077
リー	-9.89085
▁きょうは	-9.89115
知らせ	-9.89146
谷	-9.89165
革	-9.8919
▁あの人は	-9.89221
麦	-9.89227
刃	-9.89238
遠	-9.893
化学	-9.89391
精	-9.89425
あたり	-9.89475
▁法	-9.89491
e	-9.89501
役目	-9.8952
につける	-9.89555
はもう	-9.89557
猫	-9.89614
をなす	-9.89621
▁しょう	-9.89688
をつけ	-9.89705
激しい	-9.89716
ないように	-9.8974
自分で	-9.89764
出して	-9.89771
ボール	-9.89934
ツ	-9.89968
常	-9.89991
出すこと	-9.90011
旧	-9.90028
筒	-9.90028
ていること	-9.90065
▁雑	-9.90113
満足	-9.90116
湖	-9.90146
異	-9.90222
に電話したい	-9.90237
させること	-9.90278
ておく	-9.90376
右	-9.90439
樹	-9.90507
だよ	-9.90534
▁国際	-9.90569
身分	-9.906
自由に	-9.90605
顔を	-9.90621
国民	-9.90644
儀	-9.90719
▁薄	-9.90752
まき	-9.90753
私が	-9.90816
眠	-9.90875
▁社会	-9.90876
塔	-9.9088
民族	-9.90881
るように	-9.90885
▁いや	-9.90897
灰	-9.90996
深	-9.91018
時期	-9.91041
細い	-9.91053
寒い	-9.9111
渡し	-9.91127
▁ス	-9.91142
パーティー	-9.91188
▁連	-9.91383
通信	-9.91416
▁死	-9.91519
調査	-9.91549
らい	-9.91593
思う	-9.91653
心に	-9.91687
▁彼は自分の	-9.91687
かき	-9.91705
銀行	-9.91817
置	-9.91828
またその	-9.91834
わき	-9.91837
太陽	-9.91845
▁別	-9.91854
録	-9.91868
我々の	-9.91868
譴	-9.91871
テレビ	-9.91959
を表す	-9.92056
孫	-9.9207
うつ	-9.92139
▁自由	-9.9214
そこに	-9.92197
教師	-9.9222
かける	-9.92285
評	-9.92338
ただ	-9.92346
普通の	-9.92351
許	-9.92377
をつけて	-9.9239
見え	-9.92483
みんな	-9.92502
ソ	-9.92519
がん	-9.9253
池	-9.9259
を敬って言う	-9.92622
モ	-9.92636
-	-9.92644
▁未	-9.92759
があること	-9.92771
▁どんな	-9.92785
やめる	-9.92786
において	-9.92829
▁胸	-9.92829
現	-9.92835
ことがある	-9.92879
載	-9.92915
退	-9.92926
こんな	-9.9299
▁変	-9.93005
将来	-9.93037
▁健康	-9.93038
美人	-9.93072
になり	-9.93157
しなければならない	-9.93165
自分	-9.93235
そうに	-9.93262
待ち	-9.933
年の	-9.93394
と彼は	-9.93405
写し	-9.93447
得意	-9.93459
で作った	-9.93477
一杯	-9.93558
宝	-9.93575
系統	-9.93606
科学	-9.93643
初め	-9.93648
脈	-9.93664
企業	-9.93691
狭い	-9.9372
芽	-9.93725
話題	-9.93738
合わせる	-9.93762
の木	-9.93777
物体	-9.9381
私を	-9.93846
金額	-9.93863
弔	-9.93916
元気	-9.9401
盛んに	-9.9406
暗	-9.9409
▁鼻	-9.94196
▁五	-9.94204
名前	-9.94242
▁歯	-9.94266
が高い	-9.94275
年に	-9.94302
▁明	-9.94318
▁魚	-9.94604
突	-9.94628
忠告	-9.94652
それは	-9.94654
やって	-9.94735
▁詩	-9.94745
変わった	-9.94757
打つ	-9.94786
▁耳	-9.94843
宗教	-9.94861
かみ	-9.94964
▁警察呼ぶ	-9.94968
▁腕	-9.94971
刑	-9.94974
限り	-9.94978
▁を用いないことが多い	-9.94992
演技	-9.94996
一時	-9.9508
しながら	-9.95141
帰り	-9.9518
▁物事が	-9.95247
▁銀	-9.95258
あること	-9.95272
わかる	-9.95379
▁仮	-9.95465
困	-9.95477
かぎ	-9.95514
運転	-9.95572
時代の	-9.95586
われ	-9.9574
怒り	-9.95753
臣	-9.95759
られ	-9.95767
紫	-9.95797
粒	-9.95816
道を	-9.95822
製の	-9.95839
こむ	-9.95937
▁ひどく	-9.95975
まわり	-9.95982
系	-9.96006
▁そ	-9.96016
がうまい	-9.96017
▁塩	-9.96033
ことができる	-9.96039
存在	-9.9612
迫	-9.96124
出た	-9.96155
守	-9.96194
源	-9.96202
感覚	-9.96242
宗	-9.96258
労働	-9.96268
再	-9.96293
巣	-9.96302
さらに	-9.96307
しないこと	-9.96317
構造	-9.96346
▁すぐに電話	-9.96374
規定	-9.96379
連絡	-9.96396
折り	-9.96406
細長い	-9.96407
信仰	-9.96412
をあげる	-9.96457
手に	-9.96489
を行う	-9.96537
少しも	-9.96561
笑	-9.96648
任務	-9.96668
世間	-9.96676
縫い	-9.96771
みち	-9.96785
すぐに電話	-9.96785
形式	-9.96795
鏡	-9.96818
ット	-9.96856
勇気	-9.96864
投票	-9.96923
勝負	-9.9695
西	-9.96984
かし	-9.97041
▁相手の	-9.97126
▁大きな	-9.97163
目の	-9.97231
なければ	-9.97249
ことを言う	-9.97281
暗い	-9.97409
益	-9.97477
古い	-9.97534
あき	-9.97542
匹	-9.97585
べきだ	-9.97656
指導	-9.97659
小屋	-9.97663
▁根	-9.977
実験	-9.97769
一生	-9.97775
せき	-9.97792
恥	-9.97793
膜	-9.97803
發	-9.9781
づけ	-9.9781
署名	-9.97813
めて	-9.97833
保証	-9.97894
ふるまい	-9.9798
▁彼を	-9.9799
きちんと	-9.98015
だから	-9.98101
接	-9.98138
していること	-9.98152
ようにした	-9.98187
▁春	-9.98199
たけ	-9.98218
▁背	-9.98251
ようにして	-9.98336
イン	-9.98344
処置	-9.98357
荷物	-9.98365
▁コ	-9.98416
▁こんな	-9.9847
▁the	-9.98473
▁新聞	-9.98546
死に	-9.9864
信号	-9.98667
不安	-9.98691
うわさ	-9.98709
相手に	-9.98736
口を	-9.98766
▁軽	-9.988
げる	-9.98837
男だ	-9.98859
ドレス	-9.98937
買い	-9.98984
調べ	-9.9902
楽器	-9.99025
を受けた	-9.99055
他人	-9.99072
恐れ	-9.99101
商人	-9.99107
以外の	-9.99121
▁旅	-9.99135
生産	-9.99156
なくなる	-9.99179
塗り	-9.99214
ドア	-9.99244
メッセを	-9.99254
戮	-9.99268
休み	-9.99295
ぐあい	-9.9931
小さく	-9.99352
祭り	-9.99396
先に	-9.99408
使	-9.99434
のです	-9.99471
▁さあ	-9.99477
戦う	-9.99564
煮	-9.997
にかける	-9.99714
突き	-9.99717
に近い	-9.99783
我	-9.99866
族	-9.99892
除	-9.9991
防	-9.99955
神経	-9.99968
子供たち	-9.99999
咲く	-10.0005
グ	-10.0008
しま	-10.0011
はとても	-10.0011
必ず	-10.0014
を上げる	-10.0021
賛成	-10.0023
作物	-10.0027
静かに	-10.0031
偏	-10.0034
市場	-10.0035
の家	-10.0036
帳	-10.0036
釣り	-10.0038
▁発	-10.0052
われる	-10.0053
の音	-10.0053
尺	-10.006
菌	-10.0066
翼	-10.0069
型の	-10.007
阿	-10.0073
つり	-10.0077
揚げ	-10.0078
速度	-10.0079
むこと	-10.008
の日	-10.009
発見	-10.0092
違うよ	-10.0095
アメリカ	-10.0096
▁学問	-10.0098
開	-10.0102
うまい	-10.0103
地帯	-10.0104
!、	-10.0113
▁私が	-10.0114
焼	-10.0123
刻	-10.0125
くなった	-10.0127
▁分	-10.0127
▁油	-10.013
住む	-10.014
寒さ	-10.0142
歩いて	-10.0147
かえる	-10.015
関	-10.0152
誤り	-10.0153
君は	-10.0153
趣	-10.016
温	-10.0175
のみ	-10.0176
非難	-10.0182
越し	-10.0186
因	-10.0201
の実	-10.0201
美しく	-10.0201
河	-10.0207
泣き	-10.0211
営業	-10.0213
液体	-10.0215
貨幣	-10.0223
区域	-10.0224
送り	-10.0226
暮らす	-10.023
思	-10.0231
手続き	-10.0237
思い出	-10.025
びん	-10.0259
容器	-10.0259
欠点	-10.0262
ビ	-10.0264
役所	-10.0269
▁病気	-10.0274
ませんか	-10.0276
なっている	-10.0277
事務	-10.0279
寄り	-10.0304
演	-10.0305
を加える	-10.0306
薄く	-10.0311
にとって	-10.0318
ちょっと電話	-10.033
利用	-10.0331
区	-10.0332
くら	-10.0335
むし	-10.0335
養	-10.0339
▁学校	-10.0339
ってしまった	-10.0342
名声	-10.0343
ええ	-10.0346
発音	-10.0348
抵抗	-10.035
肥料	-10.035
環境	-10.0355
ちゃん	-10.0355
▁{	-10.0359
貿易	-10.0364
減	-10.0365
刺激	-10.0365
講	-10.0366
▁カ	-10.0368
戦闘	-10.0369
実は	-10.0369
および	-10.0369
禁止	-10.0371
閑	-10.0372
薄い	-10.0373
殻	-10.0374
笛	-10.0375
の道	-10.0377
きょう	-10.0378
子寬	-10.0378
あるいは	-10.0379
本の	-10.0379
▁軍	-10.0382
渡	-10.0383
方針	-10.0384
の子	-10.0384
▁砂	-10.0385
品種	-10.0388
▁深	-10.039
出席	-10.0396
レース	-10.0397
けが	-10.0404
価	-10.041
中国	-10.0412
かかった	-10.0414
運命	-10.0414
▁草	-10.0418
分ける	-10.042
をお	-10.0424
さら	-10.0424
殺す	-10.0431
あて	-10.0433
器官	-10.0434
しなかった	-10.044
これを	-10.0442
ジ	-10.0445
野菜	-10.0448
とる	-10.0449
っぱ	-10.045
白く	-10.0464
エ	-10.0465
課	-10.0465
▁OK	-10.0467
まり	-10.047
周	-10.047
東京	-10.0471
コーヒー	-10.0473
ことのたとえ	-10.0477
詩人	-10.0486
払う	-10.049
敗	-10.0495
降	-10.05
写	-10.0502
立った	-10.0505
理解	-10.0506
外出	-10.0509
▁宿	-10.0512
人々	-10.0515
出来事	-10.0515
結び	-10.0517
下の	-10.0517
義務	-10.0521
予算	-10.0524
炉	-10.0528
共和国	-10.0529
かげ	-10.053
▁清	-10.053
千円	-10.0533
しみ	-10.0534
暑い	-10.0536
▁我々の	-10.0537
尻	-10.0541
家具	-10.0545
食べ物	-10.0552
ノ	-10.0556
におい	-10.0564
軽く	-10.0565
a	-10.0565
にかけて	-10.0572
立っている	-10.0579
歴史	-10.0585
科の多年生植物	-10.0588
ていった	-10.0592
主張	-10.0595
実に	-10.0598
ひとつ	-10.0601
いだ	-10.0602
▁何ができるか教えて	-10.0608
してください	-10.0609
▁常	-10.0615
っぽ	-10.0616
始め	-10.0617
段階	-10.0618
物事が	-10.0619
に入れる	-10.0627
垂れ	-10.0628
の中の	-10.063
自由	-10.0632
解釈	-10.0634
をよく	-10.0636
▁取り	-10.0637
値段	-10.0642
幸福	-10.0642
広い	-10.0647
掛ける	-10.0649
広告	-10.066
張	-10.0661
上がり	-10.0662
状態になる	-10.0663
番号	-10.0669
貸し	-10.0672
いと	-10.0672
壇	-10.0673
犯人	-10.0678
忙しい	-10.0684
真実	-10.0685
弦	-10.0685
智	-10.0685
瓩	-10.0686
餅	-10.0686
講演	-10.0686
コート	-10.0687
獣	-10.0689
そのまま	-10.069
紳士	-10.069
のある人	-10.0694
袖	-10.0701
でしょうか	-10.0707
それぞれ	-10.0709
限	-10.0712
でないこと	-10.0714
種類の	-10.0717
に乗る	-10.0719
を出して	-10.072
観賞用	-10.0721
証	-10.0721
ばかりの	-10.0723
平和	-10.0724
銅	-10.0725
集団	-10.0751
奪	-10.0752
ダ	-10.0752
行って	-10.0774
落とす	-10.0778
▁奇	-10.0782
がる	-10.0786
災難	-10.0788
上着	-10.0795
▁-	-10.0795
建	-10.0797
訪問	-10.0802
どおりに	-10.0806
答	-10.0809
と言って	-10.0817
続き	-10.0825
身を	-10.0826
功	-10.0828
ホテル	-10.0828
続く	-10.0828
街	-10.0831
┐	-10.0833
魂	-10.0833
の下に	-10.0833
仕事をする	-10.0834
がなかった	-10.0834
華	-10.0838
いまから電話	-10.0842
ごみ	-10.0844
エネルギー	-10.0844
目標	-10.0856
▁筆	-10.0865
裁判	-10.0867
したい	-10.0868
ズ	-10.0874
業者	-10.0876
勝ち	-10.0877
愚	-10.0877
良い	-10.0878
射	-10.0883
きず	-10.0883
福	-10.0883
時刻	-10.0884
机	-10.0885
冷	-10.0885
でした	-10.0886
すばらしい	-10.0887
悲しみ	-10.0888
呼び	-10.0892
触れ	-10.0897
▁彼はいつも	-10.0898
そうした	-10.0905
いき	-10.091
時には	-10.0912
黄色	-10.0919
返し	-10.092
つま	-10.0923
争い	-10.0924
水が	-10.0925
内に	-10.0929
脱	-10.093
地震	-10.0931
重要な	-10.0932
▁開	-10.0937
▁パ	-10.0938
の意	-10.0957
ごく	-10.0961
借り	-10.0965
かなり	-10.0966
いたずら	-10.0968
資本	-10.0969
の大	-10.097
地面	-10.0973
歳だ	-10.0976
▁対	-10.0978
センチ	-10.098
意志	-10.0982
案内	-10.0985
▁互いに	-10.0985
▁秋	-10.0985
微	-10.0986
腸	-10.0991
なること	-10.0991
売買	-10.0995
の結果	-10.0998
自身	-10.1
▁近	-10.1002
ひげ	-10.1002
繊維	-10.1002
▁ふ	-10.1004
わせる	-10.1004
医学	-10.1004
とび	-10.1006
▁腰	-10.1008
抜く	-10.1011
彼女に	-10.1015
会員	-10.1015
縦	-10.1017
風に	-10.1018
仕事に	-10.1018
▁紙	-10.102
▁10	-10.1024
視	-10.1026
出来	-10.1029
鐘	-10.1036
外国	-10.104
舞台	-10.1041
かない	-10.1042
▁人間	-10.1044
若	-10.1047
▁あなたの	-10.1053
後ろ	-10.1053
脳	-10.1061
出版	-10.1064
鬼	-10.1064
なくなった	-10.1065
キャンセル	-10.1068
▁湯	-10.1068
封	-10.1069
遠い	-10.1069
焼け	-10.1071
▁好	-10.1076
ないで	-10.1077
用意	-10.1079
と思った	-10.1081
好きな	-10.1083
あって	-10.1084
□・	-10.1086
▁ひどい	-10.1087
鉄道	-10.109
締め	-10.1093
ったり	-10.1093
実際に	-10.1098
かご	-10.1099
いろいろな	-10.1101
羊	-10.1104
荒	-10.1104
落ちる	-10.111
つけて	-10.1114
まじ	-10.1116
恋	-10.1119
高さ	-10.1119
並み	-10.1121
の前に	-10.1128
るような	-10.1129
左右	-10.1129
頂	-10.113
都	-10.1131
こそ	-10.1141
表情	-10.1143
ようとする	-10.1144
方式	-10.1146
プ	-10.1146
過ぎる	-10.115
房	-10.1151
技	-10.1151
▁数	-10.1154
▁あ	-10.1157
▁子寬	-10.1163
吟	-10.1165
▁裏	-10.1166
籠	-10.1169
个	-10.1169
はこの	-10.1174
温度	-10.1176
n	-10.1176
長さ	-10.1177
▁自分	-10.1177
トン	-10.1181
鬚	-10.1186
臭い	-10.1191
▁着	-10.1193
▁来	-10.1195
論文	-10.1196
の仕事	-10.1202
太	-10.1203
してある	-10.1204
▁差し	-10.1209
いっぱい	-10.1211
▁冬	-10.1212
書いた	-10.1212
交通	-10.1216
動詞	-10.1216
ものである	-10.1217
鋭い	-10.1217
つぎ	-10.122
廃	-10.122
についての	-10.1222
タバコ	-10.1223
見込み	-10.1224
▁極	-10.1225
▁頭	-10.1228
▁思い	-10.1229
二つ	-10.123
提案	-10.1234
頃	-10.1237
薬品	-10.124
の数	-10.1245
役人	-10.1247
組み	-10.1248
以上の	-10.1257
広	-10.1259
▁丸	-10.1261
さき	-10.1264
▁敵	-10.127
▁ラジオ	-10.1272
はよく	-10.1273
機会	-10.1276
の本	-10.1282
ぼう	-10.1292
▁光	-10.1293
非	-10.1296
一本	-10.1298
事が	-10.1303
人たち	-10.1304
仲	-10.1305
譲	-10.1307
具合	-10.1311
の方	-10.1313
そうです	-10.1315
屈	-10.132
住	-10.1322
奥	-10.1327
▁やめる	-10.1327
軽	-10.1328
経営	-10.1329
▁この本は	-10.1329
さす	-10.1329
で彼は	-10.133
△	-10.133
医者	-10.1333
ザ	-10.1335
気候	-10.1339
使用	-10.1341
以下	-10.1344
差別	-10.1346
寄せ	-10.1347
かけた	-10.1348
身の	-10.135
つめ	-10.1355
洗い	-10.136
のついた	-10.1362
▁胃	-10.1363
しり	-10.1364
直す	-10.1365
流行	-10.1365
増	-10.1368
取った	-10.1378
▁I	-10.1384
突然	-10.1384
▁結婚	-10.1398
一定	-10.1399
踏み	-10.1401
を開く	-10.1402
に応じて	-10.1403
やり方	-10.1405
進んで	-10.1411
あいさつ	-10.1412
いている	-10.1416
導	-10.1417
にくい	-10.1419
起こった	-10.142
ダンス	-10.1421
まって	-10.1422
いす	-10.1422
がその	-10.1426
だろうか	-10.1427
順に	-10.1427
わかった	-10.1429
▁古い	-10.1435
スポーツ	-10.1436
みそ	-10.1439
▁骨	-10.1439
取って	-10.1442
揚	-10.1445
を書く	-10.1447
痛み	-10.1449
栽培	-10.1457
盛	-10.1458
君主	-10.1464
参	-10.1464
いいえ	-10.1467
想	-10.1475
隠し	-10.1475
つまらない	-10.1475
回復	-10.1479
もうけ	-10.1481
容	-10.1483
▁現代	-10.1486
拍子	-10.1488
いなか	-10.149
冊	-10.1492
ひとり	-10.1495
の形	-10.1496
みる	-10.1498
刈り	-10.1498
帰	-10.1501
舎	-10.1502
細胞	-10.1503
訓	-10.1503
君に	-10.1505
どり	-10.1505
▁選挙	-10.1509
弟子	-10.151
回し	-10.1512
かえって	-10.1512
頼み	-10.1516
相手を	-10.1518
いう	-10.1519
困難	-10.1519
注	-10.1519
出て	-10.1527
者に	-10.1535
と共に	-10.1541
次第に	-10.1543
らなかった	-10.1544
興	-10.1544
汗	-10.1555
を保つ	-10.1558
議会	-10.156
記憶	-10.1563
ピ	-10.1563
▁一定の	-10.1565
休暇	-10.1567
でメッセを	-10.1569
英	-10.1569
▁政	-10.157
漁	-10.1572
挙	-10.1584
出発	-10.1587
細く	-10.1587
短	-10.1588
伝え	-10.1588
未	-10.1589
進歩	-10.159
血液	-10.1591
にあって	-10.1594
マン	-10.1599
まった	-10.1599
▁米	-10.1603
▁異	-10.1604
奇	-10.1607
▁唐	-10.1609
クラス	-10.1611
興奮	-10.1618
▁大学	-10.162
下げ	-10.1621
手が	-10.1623
▁低	-10.1623
赤い	-10.1623
ズボン	-10.1624
遅れ	-10.1625
下に	-10.1626
承知	-10.1626
▁世間	-10.1627
都合	-10.1627
そり	-10.1627
胴	-10.1631
かく	-10.1632
大形の	-10.164
光景	-10.1641
▁人が	-10.1644
変わり	-10.1647
いつ	-10.1649
道徳	-10.1652
だって	-10.1654
走り	-10.1657
▁石油	-10.1659
▁交通	-10.1664
僕	-10.1667
館	-10.1669
欄	-10.1669
聴	-10.1673
秒	-10.1677
来て	-10.168
過ぎ	-10.1683
栄養	-10.1684
第	-10.1684
注文	-10.1685
賃	-10.1687
▁まったく	-10.1689
感謝	-10.169
ポ	-10.1691
▁言い	-10.1695
けんか	-10.17
文化	-10.1702
洋	-10.1717
▁彼らはその	-10.1727
行動する	-10.1727
件	-10.1729
親切	-10.1734
▁映画	-10.1751
なんか	-10.1752
しき	-10.1753
▁オ	-10.1755
の前	-10.1757
種類	-10.1757
てください	-10.1757
に従って	-10.1757
かど	-10.1758
くれた	-10.1762
歌手	-10.1764
からだ	-10.1767
▁現	-10.177
▁物の	-10.1773
12	-10.1775
他人に	-10.1777
交際	-10.1783
にすること	-10.1784
成績	-10.1784
魔	-10.1787
武士	-10.1791
競走	-10.1795
まね	-10.1796
暮らし	-10.1799
化粧	-10.1802
っこ	-10.1804
肺	-10.1806
兵士	-10.1807
の世界	-10.1808
更に	-10.1812
当然	-10.1815
錠	-10.1815
胃	-10.182
医	-10.182
▁はい	-10.1828
ール	-10.1829
を抜く	-10.1833
本当に	-10.1834
開いた	-10.1835
真理	-10.1836
話を	-10.184
声で	-10.1841
人口	-10.1845
婚	-10.1845
車を	-10.1847
郷	-10.1847
給料	-10.1848
れない	-10.1852
緊張	-10.1853
苦しみ	-10.1853
輸送	-10.1854
シャツ	-10.1854
家庭	-10.1866
に用いる	-10.1868
の一部	-10.1869
▁鉄道	-10.187
じゃないか	-10.1871
付く	-10.1877
方の	-10.1878
補	-10.1891
おけ	-10.1895
えて	-10.1895
意気	-10.1896
まし	-10.19
形で	-10.19
意にも	-10.1903
満	-10.1904
練習	-10.1908
であろう	-10.1911
動く	-10.1912
の声	-10.1914
▁特	-10.1916
一般	-10.192
演奏	-10.192
▁氷	-10.1921
包み	-10.1922
になっていた	-10.1925
余り	-10.1925
正直	-10.1928
肥	-10.193
先生	-10.1943
持つ	-10.1944
戒	-10.1945
疑い	-10.1949
攻め	-10.1949
越	-10.1952
梅	-10.1952
国の	-10.1953
▁乳	-10.1955
妙	-10.1965
書く	-10.1967
▁彼女はその	-10.1967
でメッセージを	-10.197
▁左	-10.1971
切った	-10.1971
しないで	-10.1973
ようになる	-10.1976
してしまった	-10.1983
てある	-10.1986
激	-10.1987
興行	-10.1998
の自由	-10.1999
さび	-10.1999
助け	-10.2001
ようと	-10.2002
愛情	-10.2003
勉強する	-10.2007
は私の	-10.2009
くじ	-10.2009
富	-10.2011
報道	-10.2011
病院	-10.2013
ビール	-10.2014
継ぎ	-10.2015
▁東	-10.2015
すべての	-10.2022
競争	-10.2022
雅	-10.2023
嫌	-10.2027
繰り	-10.2028
楽しみ	-10.2031
圓	-10.2032
寮	-10.2032
パーセント	-10.2032
彫刻	-10.2032
いろいろ	-10.2034
集合	-10.2035
▁夏	-10.2037
▁国家	-10.2042
でメッセ	-10.2051
続けて	-10.2065
気体	-10.2065
すぎて	-10.2066
取ること	-10.207
▁庭	-10.2071
▁放	-10.2071
▁聖	-10.2074
逃げ	-10.2078
細かい	-10.2081
鳴る	-10.2084
十分に	-10.2085
持っている	-10.2085
婦	-10.2088
▁粗	-10.2089
▁単	-10.2094
回す	-10.2095
なしに	-10.21
ほか	-10.21
方面	-10.2102
練	-10.2105
鋼	-10.2107
どろ	-10.2114
の状態	-10.2121
簡単に	-10.2138
外に	-10.2144
あか	-10.2148
o	-10.2152
なくて	-10.2153
刊	-10.2155
だが	-10.2156
を買う	-10.2156
ものだった	-10.2157
亡	-10.216
の花	-10.216
▁美	-10.2161
教会	-10.2162
夫婦	-10.2164
ならぬ	-10.2165
穂	-10.2166
バー	-10.2172
修行	-10.2173
▁鳥	-10.2173
▁ちょっと電話	-10.2174
なお	-10.2175
エンジン	-10.2175
制限	-10.218
▁精神	-10.2182
を持って	-10.2183
雷	-10.2186
霜	-10.2187
驚いた	-10.2188
だめだ	-10.2193
ボ	-10.2193
りして	-10.2194
坂	-10.2196
天井	-10.2197
庁	-10.2198
▁定	-10.2199
甘い	-10.2199
してくれた	-10.2199
m	-10.2202
の手紙	-10.2204
否	-10.2204
ところで	-10.2204
ふるまう	-10.2205
好み	-10.2205
詩歌	-10.2206
がけ	-10.2208
慮	-10.2208
役者	-10.2211
ピアノ	-10.2211
手当	-10.2212
あらゆる	-10.2212
附	-10.2214
ひそかに	-10.2214
そのように	-10.2216
象	-10.2217
英雄	-10.2219
生命	-10.2222
勤務	-10.2223
知らず	-10.2223
前後	-10.2224
場面	-10.2227
▁人間の	-10.2228
道理	-10.2229
を引き	-10.223
するさま	-10.2232
をとり	-10.2234
火事	-10.2234
▁万	-10.2241
たとえ	-10.2246
奏	-10.2246
読む	-10.2251
社長	-10.2252
建て	-10.2258
生活をする	-10.2259
番組	-10.2266
電流	-10.2268
準備	-10.2276
▁立ち	-10.2289
すじ	-10.2291
メッセ送信	-10.2293
f	-10.2294
ほかの	-10.2297
の原料	-10.2297
いたします	-10.2307
▁薬	-10.231
別れ	-10.2311
見ること	-10.2312
▁日本の	-10.2323
▁フ	-10.2328
▁弱	-10.2328
の色	-10.2329
しめ	-10.233
なあ	-10.233
じっと	-10.2333
体に	-10.2335
同情	-10.2335
しやすい	-10.2337
すぎ	-10.2342
地に	-10.2344
狩り	-10.2345
▁あの男は	-10.2348
他に	-10.2349
数量	-10.2349
れている	-10.2352
製造	-10.2355
職人	-10.2356
軒	-10.236
ぜ	-10.2363
ものと	-10.2363
覧	-10.2365
将	-10.2371
▁王	-10.2376
▁泥	-10.2378
比	-10.2378
▁あなたは	-10.2378
主として	-10.2383
事態	-10.2384
臨	-10.2384
最後	-10.2385
帽	-10.2386
ずいぶん	-10.2387
姓	-10.2388
青年	-10.2388
の強い	-10.2392
おし	-10.2393
勘	-10.2396
ゲーム	-10.2399
訓練	-10.24
ボタン	-10.24
しておく	-10.2404
途	-10.2408
を払う	-10.2421
話をする	-10.2423
くり	-10.2423
行くこと	-10.2426
至	-10.2428
らん	-10.2433
興味	-10.2436
ちゃんと	-10.244
に従う	-10.2445
かえ	-10.2446
勤	-10.2448
あげる	-10.2449
▁僕の	-10.2451
くさ	-10.2453
▁千	-10.2459
が早い	-10.2462
逃げる	-10.2463
儀式	-10.2467
▁きわめて	-10.2472
▁よい	-10.2484
を入れた	-10.2486
本を	-10.2488
世話	-10.2488
かせる	-10.249
口に	-10.2491
▁世界	-10.2492
▁改	-10.2493
頭に	-10.2497
19	-10.2499
終わり	-10.2501
しろ	-10.2507
日の	-10.2511
立てた	-10.2513
去	-10.2513
▁きょう	-10.2514
首を	-10.2516
得た	-10.2518
受ける	-10.2518
訴	-10.252
どこ	-10.2523
成分	-10.2528
を取って	-10.2528
舞	-10.253
塁	-10.2532
確	-10.2533
少女	-10.2534
標	-10.2537
聞いて	-10.2538
▁当	-10.2538
▁密	-10.2539
で行く	-10.2543
構え	-10.2547
髪の毛	-10.2547
迷	-10.2547
なす	-10.2552
をはかる	-10.2554
▁夢	-10.2555
時代に	-10.2561
盗	-10.2561
航	-10.2561
翻訳	-10.2562
毎日	-10.2563
老人	-10.2566
せい	-10.2569
心の	-10.2569
たま	-10.2569
労	-10.2571
ものか	-10.2572
います	-10.2573
重要	-10.2573
貧乏	-10.2577
浮	-10.2581
厚い	-10.2582
秘	-10.2585
染め	-10.2586
ケーキ	-10.2588
元素記号	-10.2589
踊り	-10.259
500	-10.2591
天候	-10.2592
勢いよく	-10.2596
はあまり	-10.2596
風景	-10.2598
ワ	-10.2605
▁切り	-10.2608
将軍	-10.2609
を述べる	-10.2609
条約	-10.2612
住宅	-10.2614
向こう	-10.2618
終	-10.2619
はなかった	-10.2624
物が	-10.2628
の単位	-10.2629
2、3	-10.2632
ほお	-10.2632
未来	-10.2633
大変	-10.2634
あし	-10.2635
であるさま	-10.2635
倒	-10.2636
日本の	-10.2639
標準	-10.264
▁一度	-10.2643
ようになった	-10.2643
はね	-10.2648
与	-10.2651
▁コーヒー	-10.2652
▁在	-10.2656
のないこと	-10.2658
ひざ	-10.266
あら	-10.2662
敷	-10.2664
一度	-10.2664
人生	-10.2667
物の	-10.2669
そんなに	-10.2674
くらい	-10.2674
灯火	-10.2675
寝る	-10.2675
▁少し	-10.2683
布地	-10.2684
体が	-10.2684
頭を	-10.2685
多数	-10.269
▁西	-10.2692
▁過	-10.2695
個人	-10.2696
呼ぶ	-10.2696
もとの	-10.27
たん	-10.2701
整理	-10.2702
の葉	-10.2708
頭の	-10.2711
傾	-10.2712
▁追	-10.2718
▁機械	-10.2723
時間を	-10.2726
がき	-10.273
▁綿	-10.2736
▁遠	-10.2737
残り	-10.2743
多い	-10.2748
全然	-10.275
▁彼女	-10.275
▁私には	-10.2753
の上で	-10.2753
襲	-10.2759
の選手	-10.276
信用	-10.2764
傘	-10.2771
▁角	-10.2773
塊	-10.2778
坐	-10.278
以来	-10.278
期限	-10.2782
公園	-10.2782
するために	-10.2784
40	-10.2785
微笑	-10.2785
対象	-10.2786
まるで	-10.2789
▁首	-10.2793
流し	-10.2793
のことで	-10.2794
▁いつも	-10.2795
予想	-10.2798
つつ	-10.2803
▁陰	-10.2803
特定の	-10.2804
画家	-10.2805
幹	-10.2806
想像	-10.281
留め	-10.281
ものではない	-10.2811
ゴ	-10.2816
すみ	-10.2816
しましょう	-10.2817
貝	-10.282
▁焼き	-10.2825
実行	-10.2827
引く	-10.2828
▁東京	-10.2831
の人々	-10.2832
ゴム	-10.2832
辞書	-10.2833
▁北	-10.2835
爆発	-10.2837
若者	-10.2838
損害	-10.2841
▁ロンドン	-10.2844
いかにも	-10.285
▁昔の	-10.2859
麻	-10.2859
こわ	-10.2864
くぎ	-10.2868
彼らは	-10.2871
が起こる	-10.2875
いろ	-10.2876
▁学生	-10.2877
文法	-10.2879
合った	-10.288
倒れ	-10.289
までの	-10.2892
▁遺	-10.2898
青い	-10.29
男子	-10.2902
いろいろの	-10.2904
▁すぐれた	-10.2907
おじ	-10.2907
贈り物	-10.2914
はじめ	-10.2915
はまったく	-10.2918
▁サ	-10.293
を打ち	-10.2937
職務	-10.2939
▁荒	-10.2948
の手	-10.2951
しようと	-10.2951
多年生植物	-10.2957
艦	-10.2962
流れる	-10.2963
会合	-10.2963
円形	-10.2966
銘	-10.2974
蓋	-10.2974
詠	-10.2976
インド	-10.2977
泳ぎ	-10.2977
祝い	-10.2978
決意	-10.2979
損失	-10.2981
組合	-10.2994
急いで	-10.2994
形に	-10.2996
の先	-10.2996
メッセを送信	-10.2998
実力	-10.3002
監督	-10.301
y	-10.3013
をかけて	-10.3015
クラブ	-10.3021
▁劇	-10.3022
▁ガス	-10.3024
気質	-10.3025
▁廃	-10.303
保険	-10.3033
が違う	-10.3033
▁退	-10.3034
丘	-10.3038
の皮	-10.3039
かれ	-10.304
大きさ	-10.304
珍しい	-10.3042
落ちた	-10.3042
遠く	-10.3044
切符	-10.3044
弓	-10.3047
いっしょに	-10.3047
宇宙	-10.3047
ヨーロッパ	-10.3048
▁脱	-10.3051
ラジオ	-10.3052
風呂	-10.306
に似て	-10.306
をつく	-10.3063
中心	-10.3064
▁何ができる	-10.3065
赤ん坊	-10.3067
乾	-10.3071
を変える	-10.3071
熟	-10.3073
行かない	-10.3074
照	-10.3076
要素	-10.3082
b	-10.3082
持って	-10.309
ギ	-10.3091
▁罪	-10.3096
▁私たちは	-10.3096
までに	-10.31
ところだった	-10.3101
てくれた	-10.3102
などから	-10.3104
負	-10.3104
固	-10.3105
唱	-10.3106
文明	-10.3109
▁肩	-10.311
▁共	-10.3111
▁ショートメッセージを	-10.3112
上がった	-10.3116
現実	-10.3118
府	-10.3124
ばら	-10.3126
▁普通	-10.3126
足を	-10.3131
▁代	-10.3135
帆	-10.3137
つら	-10.314
をかけ	-10.3142
治療	-10.3144
干し	-10.3146
軽い	-10.3154
咲き	-10.3155
現在	-10.3157
安全	-10.3158
共	-10.3161
っぽい	-10.3162
しるし	-10.3164
いますか	-10.3168
護	-10.317
始める	-10.3172
しかった	-10.3174
に乗って	-10.3174
瓦	-10.3176
に富む	-10.3176
児童	-10.3177
印象	-10.3177
権力	-10.3177
の中を	-10.3177
運ぶ	-10.3178
少々	-10.3178
革命	-10.3178
名詞	-10.3178
酸素	-10.3179
多少	-10.3179
カード	-10.3179
強盗	-10.318
通知	-10.3182
のど	-10.3186
眼鏡	-10.3189
りする	-10.3189
▁雲	-10.3191
はずれ	-10.3197
▁余	-10.3207
一層	-10.3208
を見た	-10.321
寸	-10.3215
皮膚	-10.3218
錣	-10.3221
近い	-10.3223
頭が	-10.3225
▁母	-10.3226
農	-10.3226
完成	-10.3227
中央	-10.3229
証明	-10.3229
人と	-10.323
薬用	-10.323
ですね	-10.3237
ちょう	-10.3238
等を	-10.3238
開き	-10.3239
緑色	-10.324
をつけること	-10.3249
種種の	-10.325
ゆく	-10.3251
▁道路	-10.3253
面目	-10.3253
▁これで	-10.3253
花を	-10.3258
医師	-10.326
ベッド	-10.3262
枕	-10.3262
そのもの	-10.3263
律	-10.3264
燃料	-10.3265
編集	-10.3268
▁何できる	-10.3274
記事	-10.3275
女の子	-10.3279
通し	-10.3283
生涯	-10.3288
に出かける	-10.3292
▁聞き	-10.3293
身体	-10.3294
侮辱	-10.3298
▁病	-10.3303
腐	-10.3303
金持ち	-10.3303
筋肉	-10.3304
あれ	-10.3309
をとって	-10.3313
英国	-10.3318
威	-10.332
えり	-10.3325
ペン	-10.3329
▁素	-10.3331
電報	-10.3334
物に	-10.3337
大臣	-10.334
たく	-10.3345
休	-10.3347
覆い	-10.3361
▁ど	-10.3362
あわ	-10.3364
生まれた	-10.3367
よくない	-10.3368
▁しん	-10.3373
▁軍隊	-10.3373
歴	-10.3373
▁駅	-10.3375
ディ	-10.338
すなわち	-10.338
アルコール	-10.338
レンズ	-10.3381
友だち	-10.3381
▁江戸時代	-10.3382
我々は	-10.3384
暑さ	-10.3387
▁四	-10.3388
主人	-10.3389
代わり	-10.3389
ひな	-10.3391
から成る	-10.3391
再び	-10.3393
の神	-10.3395
▁右	-10.3399
きまり	-10.3406
▁端	-10.341
▁西洋	-10.341
でいる	-10.342
とおり	-10.3423
らか	-10.3424
大工	-10.3429
原料	-10.3435
▁苦	-10.3438
結晶	-10.3439
不幸	-10.3442
▁若	-10.3447
足が	-10.3448
▁通	-10.345
かる	-10.3454
幸	-10.3457
尊	-10.3463
ちょうど	-10.3463
述べる	-10.3464
生き	-10.3465
劇場	-10.3466
空間	-10.347
蛇	-10.3472
のもとに	-10.3473
正月	-10.3475
のり	-10.3475
はし	-10.348
における	-10.3482
相場	-10.3482
原稿	-10.3484
庭園	-10.3485
に置く	-10.3486
カメラ	-10.3488
方が	-10.3488
ビル	-10.3492
兄弟	-10.3493
脂	-10.3493
ロンドン	-10.3494
住んでいる	-10.3494
カー	-10.3497
合わせて	-10.3497
名を	-10.3498
なん	-10.3499
きわめて	-10.3499
▁激しい	-10.35
懐	-10.3501
にかかる	-10.3503
▁もし	-10.3503
ふく	-10.3505
粗	-10.3506
どこか	-10.3508
平均	-10.3509
▁共同	-10.3514
幾ら	-10.3514
果	-10.3515
触	-10.3518
所有	-10.3525
加	-10.3525
▁指	-10.3526
泉	-10.3529
▁政治	-10.353
継	-10.3532
求	-10.3535
げた	-10.3536
あらし	-10.3538
風の	-10.3539
住民	-10.3543
▁アメリカ	-10.3545
測	-10.3546
文体	-10.3546
々に	-10.3549
はすべて	-10.355
▁漢字の	-10.3553
むだ	-10.3555
っていない	-10.3559
だね	-10.3564
祖	-10.3566
謀	-10.3567
はいつも	-10.3573
壮	-10.3575
了	-10.3577
掌	-10.358
謝	-10.358
分析	-10.3585
一体	-10.3588
椅子	-10.3589
クリーム	-10.3589
テスト	-10.3589
内閣	-10.359
刑罰	-10.359
元素	-10.359
協定	-10.359
上で	-10.3593
最初の	-10.3596
晴れ	-10.36
買	-10.36
着物	-10.3609
飛行機	-10.3612
▁精	-10.3613
積み	-10.3613
殺人	-10.3617
いくら	-10.3618
▁ひざ	-10.362
▁国民	-10.362
何を	-10.3623
暑	-10.3624
発展	-10.3626
はいよ	-10.3636
心から	-10.3638
季節	-10.3642
はえ	-10.3643
▁you	-10.3645
眠り	-10.3652
擦	-10.3655
不満	-10.3658
▁面	-10.3661
▁荷	-10.3662
ジョーク	-10.3662
群	-10.3663
人間の	-10.3669
を解く	-10.3671
存	-10.3671
信頼	-10.3672
呼吸	-10.3675
▁町	-10.3675
そのような	-10.3676
成功する	-10.3677
隠れ	-10.3679
▁いまから電話	-10.3679
うん	-10.3681
▁末	-10.3682
棚	-10.3682
燃え	-10.3682
の際	-10.3685
欠	-10.3693
情勢	-10.3693
倒す	-10.3694
分類	-10.3697
ながめ	-10.3698
張る	-10.37
濃	-10.3706
の姿	-10.3707
漬け	-10.3712
分野	-10.3713
やみ	-10.3715
進行	-10.3718
琴	-10.3723
ですよ	-10.3723
名誉	-10.3726
すそ	-10.3729
分子	-10.3731
演劇	-10.3731
安い	-10.3731
告	-10.3732
しばらく	-10.3732
白色	-10.3733
▁バ	-10.3738
捨てる	-10.3744
藩	-10.3747
鍋	-10.3748
決心	-10.3752
本当の	-10.3752
専	-10.3754
最	-10.3755
地球	-10.3761
佑	-10.3761
しきりに	-10.3769
判決	-10.3769
停止	-10.3772
追	-10.3774
▁陸	-10.3781
紀	-10.3787
▁レ	-10.3788
ほんの	-10.3791
烈	-10.3791
振	-10.3792
一家	-10.3797
の生活	-10.3798
事項	-10.3799
丈	-10.3799
役に立たない	-10.3799
鉛	-10.3799
舛	-10.3799
蝋	-10.38
勤め	-10.38
いなかった	-10.38
半分	-10.3801
盛んな	-10.3801
肝	-10.3801
どんどん	-10.3802
堅く	-10.3805
たて	-10.3807
部屋に	-10.3807
最高	-10.3809
少しずつ	-10.381
言い訳	-10.3811
▁店	-10.3812
自信	-10.3813
簡単な	-10.3813
ざっと	-10.3814
半ば	-10.3818
ロー	-10.3818
賃金	-10.3818
それで	-10.3824
▁それで	-10.3825
知らない	-10.383
鉢	-10.3831
水素	-10.3834
催	-10.3838
自慢	-10.3839
せずに	-10.3841
難しい	-10.3845
の力	-10.385
が多く	-10.3851
身に	-10.3851
を受け	-10.3851
▁人生の	-10.3855
議員	-10.3856
かけて	-10.3858
跳び	-10.3858
切って	-10.3866
▁エ	-10.3868
ついで	-10.3868
の高い	-10.3869
事を言う	-10.387
暦	-10.3872
じゃ	-10.3881
▁石炭	-10.3884
を知らない	-10.3887
失敗した	-10.3891
えた	-10.3892
60	-10.3893
を避ける	-10.3895
たつ	-10.3898
を破る	-10.3901
事は	-10.3901
ところだ	-10.3903
早い	-10.391
▁門	-10.3913
大名	-10.3914
を食う	-10.3914
示す	-10.3918
ありません	-10.3918
てくる	-10.3918
歩き	-10.3919
状に	-10.392
衆	-10.3923
似	-10.3924
▁急に	-10.3928
植	-10.3928
の大きさ	-10.3934
わす	-10.3935
キー	-10.3936
被害	-10.394
賊	-10.3941
そうよ	-10.3943
遺	-10.3944
何でも	-10.3944
忌	-10.3945
だい	-10.3946
▁霊	-10.3947
なわ	-10.3953
県	-10.3954
を求めて	-10.3955
得点	-10.3956
▁甘	-10.3957
を作ること	-10.3957
柳	-10.3957
借	-10.3959
つぼ	-10.3961
相撲	-10.3965
▁皆	-10.3966
ベ	-10.3967
おい	-10.3967
時間の	-10.3969
目が	-10.397
▁洋	-10.397
弾丸	-10.3971
▁a	-10.3975
創	-10.3976
官庁	-10.3978
躍	-10.3979
普通は	-10.3982
開く	-10.399
言えば	-10.399
がついている	-10.3997
on	-10.3997
▁やめ	-10.4
ナイフ	-10.4002
いやな	-10.4003
伴	-10.4004
垣	-10.4007
▁寒	-10.4011
少ない	-10.4011
特	-10.4012
羅	-10.4013
根拠	-10.4014
渡る	-10.4017
桃	-10.4018
▁合	-10.4018
糞	-10.4019
掃除	-10.4019
200	-10.4019
情況	-10.402
協力	-10.402
友情	-10.4022
武器	-10.4024
ことができなかった	-10.4026
学習	-10.4027
とげ	-10.4027
力を	-10.4028
▁戦	-10.4028
役に立つ	-10.4031
葬	-10.4032
更	-10.4033
▁泣き	-10.4041
かず	-10.4045
第一	-10.4045
新しく	-10.4048
顔色	-10.4055
浅い	-10.4057
統一	-10.4059
区分	-10.4059
ここ	-10.4059
うす	-10.406
したりする	-10.4062
信じ	-10.4066
c	-10.4067
用具	-10.407
▁虫	-10.407
わない	-10.4074
必要な	-10.4075
ここに	-10.4079
人民	-10.408
やや	-10.4082
連れ	-10.4086
を置く	-10.4098
▁大統領	-10.41
▁あまり	-10.4104
▁諸	-10.4108
交換	-10.4112
▁突然	-10.4113
いえ	-10.4115
つもり	-10.4121
森	-10.4122
移	-10.4124
へい	-10.4132
食う	-10.4136
やぶ	-10.4138
まれた	-10.4138
織	-10.414
低く	-10.414
行われる	-10.4144
天皇	-10.4144
ますます	-10.4146
くこと	-10.4156
ゆっくり	-10.4165
泊	-10.4169
ワイン	-10.417
を掛ける	-10.417
だれも	-10.4172
▁いかにも	-10.4172
ことはできない	-10.4175
得る	-10.4178
猟	-10.418
方に	-10.4182
の男	-10.4186
がたい	-10.4188
▁壁	-10.419
定めた	-10.4193
▁すぐ	-10.4198
聴衆	-10.42
▁英国	-10.4201
話が	-10.4202
保	-10.4204
航海	-10.4205
禁	-10.4207
数字	-10.4212
顔に	-10.4212
ひじ	-10.4214
▁暗	-10.422
者の	-10.4221
双	-10.4221
▁痛	-10.4222
おう	-10.4222
請求	-10.4223
ねじ	-10.4226
▁流行	-10.4229
神社	-10.4229
彼ら	-10.4233
▁野球で	-10.4233
きめ	-10.4235
に陥る	-10.4235
▁板	-10.4237
おもちゃ	-10.424
拓也さん	-10.4241
▁to	-10.4241
ヌ	-10.4241
	-10.4241
玄関	-10.4241
推測	-10.4242
待遇	-10.4242
欲望	-10.4244
機能	-10.4244
入った	-10.4245
解説	-10.4245
あご	-10.4246
に入って	-10.4247
両親	-10.4247
陸	-10.4249
電波	-10.4251
集まり	-10.4251
合図	-10.4253
走った	-10.4255
の中心	-10.4257
発言	-10.4257
にあった	-10.4258
帰る	-10.4264
家屋	-10.4265
完全に	-10.4266
てん	-10.4267
が起こった	-10.4267
分量	-10.427
▁糸	-10.4272
去る	-10.4273
▁破	-10.4274
にならない	-10.428
違った	-10.4281
尊敬	-10.4282
西洋	-10.4287
ック	-10.4287
聖	-10.4289
地図	-10.4293
人気	-10.4296
できなかった	-10.4299
止	-10.43
わず	-10.43
有名	-10.4301
ぬか	-10.4301
やっと	-10.4303
▁動物	-10.4303
つぶ	-10.4305
無用	-10.4306
あの人	-10.4307
▁絵	-10.4307
▁船が	-10.4311
内の	-10.4312
▁経済	-10.4317
洋服	-10.4323
コース	-10.4327
沈	-10.4335
恨み	-10.4338
っか	-10.4342
こん	-10.4343
最後の	-10.4361
目的で	-10.4366
のお	-10.4367
われた	-10.4368
かま	-10.4372
▁回	-10.4377
を調べる	-10.4379
全員	-10.438
違反	-10.4384
真っ	-10.4386
まれる	-10.4387
▁屋根	-10.4391
丸く	-10.4393
自然に	-10.4396
▁竹	-10.4405
世の	-10.4406
状況	-10.4407
面積	-10.4412
牛乳	-10.4415
発表	-10.442
にいる	-10.442
の所	-10.4421
▁教育	-10.4428
拝	-10.4436
申し	-10.4437
ところに	-10.4439
ほこり	-10.444
きれいに	-10.4442
掛かり	-10.4445
畳	-10.4447
▁家庭	-10.4448
どの	-10.4448
いこと	-10.4451
負担	-10.4453
言う語	-10.4454
恐ろしい	-10.4455
糖	-10.4459
i	-10.4459
鶏	-10.446
承	-10.446
勅	-10.446
朱	-10.446
弁護士	-10.446
竜	-10.4461
審	-10.4461
駆け	-10.4462
随	-10.4462
足で	-10.4463
好意	-10.4466
男の子	-10.4466
髄	-10.4466
秩序	-10.4467
世の中	-10.4467
餌	-10.4468
看護婦	-10.4469
闘争	-10.4469
課程	-10.447
」(↓	-10.447
衣装	-10.447
僕は	-10.4471
枯れ	-10.4471
概念	-10.4472
反射	-10.4472
外交	-10.4474
▁A	-10.4474
警察	-10.4475
療法	-10.4475
漁業	-10.4476
様式	-10.4477
石炭	-10.4477
くび	-10.4479
待つ	-10.4479
せよ	-10.448
りすること	-10.448
インク	-10.448
さや	-10.448
政党	-10.4481
かばん	-10.4481
▁急いで	-10.4484
の種	-10.4491
に暮らす	-10.4495
こんで	-10.4499
初夏	-10.4502
異なる	-10.4505
記者	-10.4507
ート	-10.4508
目つき	-10.4513
を付ける	-10.4523
つまり	-10.4524
明日	-10.4524
通じ	-10.4524
論理	-10.4525
特別	-10.4526
水面	-10.453
困る	-10.4531
▁ハ	-10.4531
しわ	-10.4533
決め	-10.4535
▁振り	-10.4536
だめ	-10.4538
仕立て	-10.4542
の念	-10.4544
▁太陽	-10.4551
をする人	-10.4553
浸	-10.4554
太い	-10.4558
洗	-10.4559
修理	-10.4559
▁間	-10.4561
▁円	-10.4563
意見を	-10.4564
ひら	-10.4565
▁警	-10.4567
霧	-10.458
re	-10.4583
▁矢	-10.4588
締める	-10.4593
▁宇宙	-10.46
そうじゃない	-10.4601
直し	-10.4606
扱う	-10.4615
眠る	-10.4616
態度で	-10.462
定め	-10.462
▁彼は私	-10.4622
にあたる	-10.4623
きれ	-10.4625
項	-10.4626
もつ	-10.4634
にお	-10.4634
立てて	-10.4634
預	-10.4639
改	-10.4641
▁細	-10.4643
育	-10.4649
はどう	-10.4656
嘆	-10.4657
▁尻	-10.4661
処	-10.4662
ノー	-10.4665
事実を	-10.4667
淡	-10.4671
だれ	-10.4671
暇	-10.4673
為	-10.4674
京	-10.4676
どうも	-10.4678
おいて	-10.4678
欠席	-10.4679
歩くこと	-10.4679
▁マ	-10.468
束	-10.4681
諸国	-10.4682
則	-10.4682
女の	-10.4683
往	-10.4683
併	-10.4683
を通して	-10.4686
大統領	-10.4688
さず	-10.4688
さい	-10.4689
の変化	-10.4692
独	-10.4692
気の	-10.4693
関心	-10.4696
姿勢	-10.4697
別に	-10.4697
塵	-10.47
仕掛け	-10.47
笋	-10.4701
唇	-10.4701
爾	-10.4701
諒	-10.4701
くちびる	-10.4701
官吏	-10.4703
残っている	-10.4703
やら	-10.4703
観念	-10.4703
改革	-10.4703
貯金	-10.4704
▁猫	-10.4705
驚く	-10.4706
▁雄	-10.4707
まれ	-10.4707
▁今は	-10.4708
批判	-10.471
基準	-10.4715
ほうがよい	-10.4716
見解	-10.4716
まつ	-10.472
食糧	-10.472
にわたって	-10.4724
裸	-10.4724
さく	-10.4725
中毒	-10.4727
証人	-10.4728
▁乱	-10.4728
仕事が	-10.473
▁犬は	-10.4736
の半分	-10.474
こちら	-10.4741
よかった	-10.4744
形勢	-10.4745
▁潮	-10.4748
静	-10.475
石油	-10.4752
同意	-10.4755
置く	-10.4756
時は	-10.4757
国際	-10.4758
ことはない	-10.4758
読者	-10.4759
▁飛行	-10.4761
警官	-10.4765
てる	-10.4767
構成	-10.4768
漏れ	-10.4769
設けた	-10.4769
物理	-10.4771
歓迎	-10.4772
ぼく	-10.4774
は今	-10.4781
▁列車は	-10.4784
種子	-10.4784
▁浮き	-10.4788
死んで	-10.4789
▁英語	-10.4789
▁命	-10.4797
以前	-10.4799
両者	-10.4801
無し	-10.4804
はら	-10.4808
ましい	-10.4813
装飾	-10.4816
私には	-10.4825
▁残	-10.4825
そで	-10.4829
▁だれも	-10.4831
▁結	-10.4832
▁黙	-10.4843
▁職業	-10.4843
▁波	-10.4844
▁黄	-10.4846
〇	-10.4851
丈夫	-10.4855
みた	-10.4856
▁君に	-10.4857
屋敷	-10.4859
通す	-10.4861
つの	-10.4861
置いて	-10.4862
手術	-10.4872
▁床	-10.4874
野球	-10.4875
すき	-10.4876
をつくる	-10.4877
▁毒	-10.4877
鉱	-10.4878
厚く	-10.4878
▁心配	-10.4879
そっと	-10.488
▁旅行	-10.4886
その他	-10.4889
気性	-10.4889
圧力	-10.489
の間で	-10.4891
成長	-10.4894
▁船の	-10.4907
政権	-10.4907
用心	-10.4907
つけること	-10.491
男性	-10.4911
充分	-10.4914
赤く	-10.4914
を結ぶ	-10.4916
タン	-10.4916
を落とす	-10.4918
▁減	-10.4918
▁is	-10.4919
こい	-10.4921
敵を	-10.4921
築	-10.4923
は全く	-10.4926
卒	-10.4926
が非常に	-10.4927
鈴	-10.4931
短く	-10.4931
続ける	-10.4932
▁せい	-10.4932
迷惑	-10.4933
一言	-10.4936
禄	-10.4939
棟	-10.4939
フィルム	-10.4939
レストラン	-10.4939
承認	-10.4939
スカート	-10.4939
ホーム	-10.4939
▁漢字の偏	-10.494
災害	-10.494
などにする	-10.4942
乱れ	-10.4942
▁ただ	-10.4943
観察	-10.4944
▁パン	-10.4944
に属する	-10.4946
▁落	-10.4946
郵便	-10.495
▁メ	-10.4951
代表	-10.4951
果実	-10.4955
セ	-10.4956
検	-10.4958
大陸	-10.496
を施す	-10.4962
仕上げ	-10.4962
に基づいて	-10.4962
行事	-10.4964
湿	-10.4964
講義	-10.4967
などに用いる	-10.4967
▁彼女に	-10.4968
業務	-10.4969
収穫	-10.4972
現代	-10.4974
会社の	-10.4976
りんご	-10.4979
卒業	-10.4982
遠慮	-10.4983
なまり	-10.4984
▁尊	-10.4985
堅い	-10.4985
世紀	-10.4986
▁二つの	-10.4987
あげ	-10.4987
▁短	-10.4987
イエス	-10.4988
伸び	-10.4988
夕方	-10.4989
大衆	-10.4992
するように	-10.4996
なべ	-10.4996
近くに	-10.4997
わい	-10.4999
イギリス	-10.5
;...	-10.5002
小切手	-10.5003
々と	-10.5004
消え	-10.5008
ったもの	-10.5009
誓い	-10.502
こっそり	-10.502
▁父	-10.5021
▁どうぞ	-10.5023
靴討い	-10.5024
の意味	-10.5027
ひま	-10.5028
無理	-10.5028
州の人	-10.503
供給	-10.5032
か月	-10.5032
低い	-10.5042
違います	-10.5044
緒	-10.5046
と思って	-10.5046
あるもの	-10.505
の働き	-10.505
▁息	-10.5053
▁安	-10.5057
▁どうも	-10.5058
ではなかった	-10.5067
▁まあ	-10.5068
届け	-10.5078
明け	-10.5081
直線	-10.5089
衣類	-10.5092
▁帰	-10.5094
不注意	-10.5099
作法	-10.51
不思議	-10.5102
招待	-10.5104
貨	-10.5107
切れない	-10.5108
コン	-10.511
▁七	-10.511
タイ	-10.5128
すぐれていること	-10.5131
主な	-10.5139
しょう	-10.514
▁南	-10.5142
わずか	-10.5142
どちら	-10.5143
自分が	-10.5149
一緒に	-10.5151
帝	-10.5156
授業	-10.5157
化合物	-10.5158
父親	-10.5158
ーク	-10.5162
びる	-10.5162
胆	-10.5163
実現	-10.5164
の端	-10.5164
▁万事	-10.5169
季	-10.5171
に当たって	-10.5171
むら	-10.5171
▁そんなに	-10.5172
おもしろい	-10.5173
宅	-10.5174
らしく	-10.5174
湾	-10.5176
尿	-10.5176
みて	-10.5177
るさま	-10.5177
を切って	-10.5177
飼い	-10.5181
らないこと	-10.5182
あま	-10.5183
芋	-10.5183
功績	-10.5183
往復	-10.5183
境遇	-10.5183
の俗称	-10.5184
観測	-10.5184
ホール	-10.5184
同盟	-10.5184
隣	-10.5185
延	-10.5185
農民	-10.5186
▁天皇	-10.5189
かえること	-10.5192
内で	-10.5194
編み	-10.5194
専門	-10.5199
テープ	-10.5199
気味	-10.5205
へび	-10.5207
寄せる	-10.5208
フランス語	-10.5212
意図	-10.5213
の長さ	-10.5213
濁	-10.522
細かく	-10.5223
▁科学	-10.523
▁いえ	-10.5232
索	-10.5232
奴	-10.5232
理想	-10.5233
稲	-10.5237
股	-10.5237
太鼓	-10.5237
らせ	-10.5238
葉が	-10.5238
共に	-10.5239
▁商売	-10.524
出血	-10.524
に住んでいる	-10.524
無い	-10.5241
乾燥	-10.5241
を入れ	-10.5242
られていた	-10.5246
恐怖	-10.5247
江戸	-10.5249
お礼	-10.525
わる	-10.5251
切手	-10.5252
宝石	-10.5256
降る	-10.5256
▁けん	-10.5258
詞	-10.526
唐	-10.5262
▁奥	-10.5266
着る	-10.5267
▁ロ	-10.527
区別	-10.5272
合っている	-10.5272
▁火事	-10.5272
がつかない	-10.5276
評価	-10.5276
所で	-10.5276
▁スポーツ	-10.528
ではなく	-10.528
▁脳	-10.528
▁人と	-10.5287
外部	-10.5287
くずれ	-10.5287
r	-10.5289
を始める	-10.5293
▁輪	-10.5295
待	-10.5296
貴	-10.5299
△□	-10.5301
壁に	-10.5301
者を	-10.5305
替える	-10.5306
順序	-10.5306
▁宗教	-10.5312
しようとする	-10.5319
途中で	-10.5321
▁けい	-10.5326
事だ	-10.5329
によく	-10.5332
出入り	-10.5333
虎	-10.5334
わり	-10.5337
首相	-10.5338
産物	-10.534
手形	-10.5341
粋	-10.5349
▁軽い	-10.5349
その問題	-10.5356
▁食い	-10.5358
を知る	-10.536
までは	-10.536
▁純	-10.5362
足りない	-10.5364
てしまう	-10.5368
没	-10.5368
につれて	-10.5372
山の	-10.5375
参加	-10.5377
となっている	-10.5377
同時に	-10.5378
をし	-10.5392
許可	-10.5393
徴	-10.5396
事の	-10.5396
使って	-10.5398
京都	-10.5398
▁将来	-10.5399
母親	-10.54
園	-10.5403
日間	-10.5407
名簿	-10.5411
目で	-10.5412
述	-10.5412
障	-10.5414
犠牲	-10.5414
と彼女は	-10.5416
膳	-10.5417
加工	-10.5417
参り	-10.5417
▁米国の	-10.5418
腓	-10.5423
旋	-10.5424
欧	-10.5428
権限	-10.5429
を通す	-10.543
むく	-10.543
過ぎて	-10.5431
を通じて	-10.5432
沼	-10.5432
きっと	-10.5432
ほうが	-10.5433
	-10.5433
すばやく	-10.5433
事物	-10.5433
▁相	-10.5433
ing	-10.5433
▁彼女には	-10.5436
u	-10.5437
討ち	-10.5438
障子	-10.5439
いつまでも	-10.5439
しょ	-10.5439
厳	-10.5439
あります	-10.5441
どうして	-10.5445
形態	-10.5446
がって	-10.5446
今の	-10.5453
そら	-10.5454
メッセージ送	-10.5454
残った	-10.5456
p	-10.5458
投手	-10.5463
が大きい	-10.5466
あぶら	-10.5469
をかけた	-10.5473
▁十	-10.5475
▁橋	-10.548
提	-10.548
はしない	-10.5481
なめ	-10.5483
になるだろう	-10.5483
基	-10.5483
ねん	-10.5488
くだ	-10.549
ばらばら	-10.5494
▁メッセ	-10.5496
通る	-10.5497
と読む	-10.5497
はり	-10.55
聞こえる	-10.5502
痛い	-10.5506
上から	-10.5511
それと	-10.5512
易	-10.5512
開け	-10.5513
承諾	-10.5513
造り	-10.5515
政治家	-10.5515
軍人	-10.5515
表面	-10.5517
まく	-10.5518
自ら	-10.5518
昆虫	-10.5522
してはいけない	-10.5522
利益を	-10.5524
やつだ	-10.5524
美術	-10.5526
▁きのう	-10.5526
その他の	-10.5527
h	-10.5529
金属製の	-10.5531
死後	-10.5531
鉛筆	-10.5531
酔	-10.5534
▁少年は	-10.5536
特徴	-10.5537
所得	-10.5541
起こり	-10.5542
致	-10.5544
▁船は	-10.5544
悔	-10.5545
▁議論	-10.5549
負ける	-10.5549
▁舞台	-10.5558
▁銀行	-10.5561
何とか	-10.5562
してくれ	-10.5565
貸	-10.5565
ぜん	-10.5565
の代わりに	-10.5565
読書	-10.5571
▁一般	-10.5577
▁テレビ	-10.5587
▁とう	-10.5592
▁音楽	-10.5592
としている	-10.5596
▁いろいろな	-10.5596
以後	-10.5598
落とし	-10.5601
沈黙	-10.5602
最大の	-10.5602
たか	-10.5607
ふう	-10.561
▁こういう	-10.5611
後の	-10.5614
主君	-10.5617
やろう	-10.5619
がわからない	-10.5623
▁彼と	-10.5625
会話	-10.5626
日本人	-10.5627
域	-10.5628
▁物を	-10.5629
関連	-10.5643
だて	-10.5643
▁彼は彼女の	-10.5645
さお	-10.5649
採	-10.5655
怠	-10.5656
ひとりで	-10.5657
卓	-10.5657
惨	-10.5657
バター	-10.566
惑	-10.5666
司	-10.5668
を出した	-10.5669
でメッセを送信	-10.5674
黒く	-10.5679
▁風が	-10.568
停	-10.5681
しっかり	-10.5682
高木	-10.5683
まゆ	-10.5684
塀	-10.5684
合格	-10.5685
事務所	-10.5688
家を	-10.5688
盆	-10.5689
蜜	-10.5689
符号	-10.5689
たっぷり	-10.5689
遒	-10.5689
僂	-10.5689
サービス	-10.5689
雰囲気	-10.5689
集中	-10.569
爆弾	-10.569
〕↓	-10.569
わけにはいかない	-10.5691
借金	-10.5691
思わず	-10.5691
機構	-10.5691
射撃	-10.5691
インチ	-10.5691
原理	-10.5692
太刀	-10.5692
種類が多い	-10.5695
は彼に	-10.5695
録音	-10.5697
職員	-10.5697
を図る	-10.5698
あけ	-10.5698
仕方	-10.5698
止める	-10.5699
生活の	-10.57
ぼろ	-10.57
きれいな	-10.5701
兵器	-10.5702
▁買い	-10.5702
作ること	-10.5707
果物	-10.5711
の方が	-10.5711
の様子	-10.5716
どおり	-10.5716
連合	-10.5717
木材	-10.5718
▁今まで	-10.5719
フィート	-10.572
場合に	-10.5721
たより	-10.5725
ども	-10.5729
利子	-10.5734
やま	-10.5737
述べた	-10.5742
無事	-10.5746
自殺	-10.5751
▁散	-10.5755
力がある	-10.5755
ピン	-10.5757
言葉を	-10.5757
▁電	-10.5757
期日	-10.5761
▁復	-10.5763
▁その本は	-10.5768
申し出	-10.577
▁ズボン	-10.5771
の肉	-10.5772
これは	-10.5773
茶色	-10.5775
部下	-10.5776
武	-10.5779
その時	-10.5784
その仕事	-10.5785
▁副	-10.579
▁せん	-10.5794
体は	-10.5794
アップ	-10.5795
ボールを	-10.5796
▁玉	-10.5796
▁航空	-10.5797
わか	-10.5797
を聞いて	-10.5798
に自生する	-10.5799
襟	-10.5799
止まる	-10.58
▁表	-10.58
を感じる	-10.5802
スープ	-10.5803
侍	-10.5803
されていた	-10.5806
厳しい	-10.5806
おど	-10.5806
きびしい	-10.5807
如	-10.5811
式の	-10.5811
階段	-10.5812
野原	-10.5814
昨日	-10.5814
ゲ	-10.5817
警	-10.5818
向け	-10.5818
▁検	-10.5824
ってきた	-10.5826
副	-10.5828
続いて	-10.5829
なさま	-10.5833
後で	-10.5835
すわる	-10.5838
度の	-10.5838
まずい	-10.5839
捕	-10.584
がありますか	-10.5841
格好	-10.5842
おお	-10.5845
▁ばら	-10.5845
しゃべる	-10.5847
デ	-10.5847
言え	-10.5849
▁シ	-10.585
▁銅	-10.5852
を得た	-10.5853
託	-10.5855
しかた	-10.5856
著	-10.5862
を防ぐ	-10.5862
細長く	-10.5864
▁市	-10.5864
分けて	-10.5865
あわせ	-10.5869
納める	-10.5869
漢字	-10.5869
吸い	-10.5872
三味線	-10.5873
見えない	-10.5874
全身	-10.5879
桜	-10.5882
l	-10.5886
などのため	-10.5888
備	-10.5893
▁善	-10.5894
立って	-10.5895
現場	-10.59
十二	-10.59
一年生植物	-10.5905
の地	-10.5905
に見える	-10.5907
あなたの	-10.5907
話し	-10.5909
並べ	-10.5915
俳句	-10.5916
▁激	-10.5916
一部分	-10.5926
が一番	-10.5927
はどんな	-10.5931
を覚える	-10.5932
憂	-10.5933
ネクタイ	-10.5934
たくさんの	-10.5935
軌道	-10.5936
井	-10.5936
表す	-10.5939
まん	-10.594
住所	-10.5941
をかく	-10.5942
セット	-10.5943
無色	-10.5944
体裁	-10.5945
碑	-10.5946
▁事実	-10.5948
▁広	-10.5949
麗	-10.595
渡り	-10.595
奮	-10.5951
あなたに	-10.5951
縞	-10.5951
ふき	-10.5951
まあ	-10.5952
蜂	-10.5952
妹	-10.5952
鼎	-10.5953
栓	-10.5953
認識	-10.5953
モデル	-10.5953
家が	-10.5953
染料	-10.5953
絵の具	-10.5953
せりふ	-10.5953
故障	-10.5953
▁あらゆる	-10.5954
通貨	-10.5955
操作	-10.5955
で彼の	-10.5955
討論	-10.5956
に出	-10.5958
伝説	-10.596
平たい	-10.596
事に	-10.5961
が長く	-10.5963
むしろ	-10.5964
週	-10.5964
ぶち	-10.5964
▁運動	-10.5965
散歩	-10.5965
▁友人	-10.5967
によれば	-10.5973
いち	-10.5973
の底	-10.5975
鳴らす	-10.5975
ていて	-10.5977
▁打ち	-10.5978
大小	-10.5979
けて	-10.5979
の事	-10.5979
▁神社	-10.5982
活	-10.5984
の中から	-10.5989
▁人から	-10.5991
きん	-10.5995
おかしい	-10.5995
ならない	-10.6005
子供を	-10.6006
とめる	-10.6009
かれる	-10.6011
ないさま	-10.6014
▁霧	-10.6016
書くこと	-10.6021
を全部	-10.6022
がたくさん	-10.6023
▁微	-10.6025
景色	-10.6027
用紙	-10.6028
刺	-10.6028
世間の	-10.6029
はず	-10.603
用語	-10.6032
開発	-10.6039
つい	-10.6045
音声	-10.6056
はずれた	-10.6058
▁自分で	-10.6061
を捨てる	-10.6061
を争う	-10.6061
風俗	-10.6062
戦い	-10.6064
蚕	-10.6065
▁絶	-10.6066
かじ	-10.6067
到着	-10.6067
▁これが	-10.6068
ならず	-10.6069
ショー	-10.6073
▁舌	-10.6073
▁縦	-10.6075
て来た	-10.6077
部屋を	-10.6078
漏	-10.6079
あう	-10.608
電線	-10.608
酢	-10.6087
だという	-10.609
を含む	-10.609
▁夫婦	-10.6092
眉	-10.6092
行政	-10.6093
わざと	-10.6095
非常	-10.6095
かしら	-10.6095
幸運	-10.6095
人人	-10.6101
しているさま	-10.6102
復	-10.6103
浮き	-10.6103
色が	-10.6103
▁少しも	-10.6105
灰色	-10.6105
農業	-10.6105
奉	-10.6106
ったら	-10.611
さけ	-10.6117
はほとんど	-10.6118
天下	-10.6118
家は	-10.6118
ねえ	-10.6119
残る	-10.6121
速く	-10.6122
まだら	-10.6123
ほしい	-10.6123
クロ	-10.6124
するための	-10.6126
上げた	-10.6127
使うこと	-10.6128
▁戸	-10.6129
の裏	-10.613
よごれ	-10.6132
ちょっと電話をかける	-10.6132
げん	-10.6133
考えて	-10.6136
浪	-10.6137
退屈	-10.6137
▁百	-10.6146
でもない	-10.6149
白色の	-10.615
▁かい	-10.615
もらう	-10.6152
統	-10.6157
張った	-10.616
▁平和	-10.6162
▁彼はまだ	-10.6163
扇	-10.6168
せない	-10.6178
▁補	-10.6181
ペ	-10.6183
▁秘密	-10.6183
彼には	-10.6184
水中に	-10.6185
安定	-10.6187
住み	-10.6188
こんだ	-10.6194
幾	-10.6195
騒ぎ	-10.6195
▁虚	-10.6198
三角形	-10.6202
敬	-10.6204
はいない	-10.6204
比べ	-10.6205
行うこと	-10.6208
雇	-10.6208
恵	-10.6215
を知っている	-10.6215
酷	-10.6219
鹿	-10.622
姉	-10.622
摂	-10.6222
倉	-10.6223
予防	-10.6223
槍	-10.6223
侵入	-10.6223
峰	-10.6223
干渉	-10.6223
滝	-10.6223
支出	-10.6223
雀	-10.6223
錦	-10.6223
に違いない	-10.6224
旧称	-10.6225
紙幣	-10.6225
飲食	-10.6226
絶えず	-10.6226
朝廷	-10.6226
しました	-10.6227
残らず	-10.6227
曲芸	-10.6228
口から	-10.6229
を好む	-10.6231
企て	-10.6231
制御	-10.6232
▁外国	-10.6233
ちり	-10.6234
頼む	-10.6235
ふろ	-10.6236
鉄砲	-10.6241
食堂	-10.6242
疑	-10.6242
車輪	-10.6243
のまま	-10.6247
ぐら	-10.625
ります	-10.6251
を出すこと	-10.6252
ふり	-10.6252
を抱く	-10.6255
顔をする	-10.6255
歩いた	-10.6255
▁居	-10.6257
といって	-10.6261
しゃれ	-10.6262
子ども	-10.6267
ふた	-10.6269
▁満	-10.6275
昔の	-10.6275
見物	-10.628
社員	-10.6281
にはいること	-10.6282
試み	-10.6283
▁乾	-10.6288
坊	-10.6295
の内容	-10.6297
だす	-10.6297
▁心臓	-10.6301
程度の	-10.6301
名前を	-10.6302
の人たち	-10.6303
▁銃	-10.6303
守り	-10.6303
ものは	-10.6305
茂	-10.6305
▁画	-10.6307
黄色の	-10.6308
速力	-10.631
低	-10.6311
一切の	-10.6311
▁商業	-10.6313
台所	-10.6318
むき	-10.6321
越す	-10.6323
▁危険	-10.6323
▁彼女は彼の	-10.6325
▁折り	-10.6326
を決める	-10.6327
▁山の	-10.6331
の関係	-10.6331
鉱物	-10.6337
物や	-10.6342
掛	-10.6344
たまえ	-10.6345
花が	-10.6348
俗に	-10.6348
消化	-10.6352
ポケット	-10.6353
▁多くの人	-10.6353
▁長い	-10.6353
が私の	-10.6355
合わない	-10.6357
過ぎた	-10.6358
きわ	-10.6359
を食べる	-10.6368
心地	-10.637
供	-10.6372
今まで	-10.6373
暴	-10.6375
が足りない	-10.6375
の表面	-10.6377
絶対に	-10.6386
▁金銭	-10.6387
を招く	-10.6389
大切な	-10.6389
g	-10.6389
はかりごと	-10.6395
▁至	-10.6395
がきく	-10.6396
勝手に	-10.6396
僕の	-10.64
時から	-10.6401
表面に	-10.6402
食べた	-10.6403
常に	-10.6404
レコード	-10.6409
一年	-10.6409
男の	-10.641
体操	-10.6411
▁気が	-10.6414
合わせた	-10.6415
海岸	-10.6415
前もって	-10.6416
診	-10.6419
らぬ	-10.642
義理	-10.6422
花は	-10.6422
たりする	-10.6431
もう少し	-10.6433
貨物	-10.6438
特有の	-10.6442
発明	-10.6442
仏教で	-10.6445
利害	-10.6449
▁優	-10.6451
そんな事を	-10.6452
もり	-10.6453
読むこと	-10.6456
分解	-10.6459
氏の	-10.6459
を聞く	-10.646
▁空気	-10.646
のあたり	-10.6462
たくない	-10.6466
してきた	-10.6467
珍	-10.6468
高度	-10.6468
寄る	-10.6468
ますよ	-10.6468
▁テニス	-10.6468
一致	-10.6469
原産	-10.6469
火山	-10.6474
を待つ	-10.6475
塗	-10.6477
誤解	-10.648
▁そのような	-10.648
喜んで	-10.648
勝手	-10.6487
担	-10.649
▁さい	-10.6491
鎖	-10.6493
沢	-10.6494
いけ	-10.6494
潔	-10.6496
配当	-10.6497
投資	-10.6498
申	-10.6499
つながり	-10.6499
遺伝	-10.6499
圏	-10.6499
憤	-10.65
ランプ	-10.65
丹	-10.65
枠	-10.65
オーバー	-10.65
逐	-10.6501
	-10.6501
やさしい	-10.6501
交替	-10.6501
理屈	-10.6501
K	-10.6501
疾	-10.6501
設計	-10.6502
ベルト	-10.6502
関節	-10.6503
とじ	-10.6504
▁禁	-10.6505
証言	-10.6505
▁あんな	-10.6505
運び	-10.6505
柔らかい	-10.6506
結論	-10.6507
干	-10.6507
▁ばか	-10.6508
彼女を	-10.6508
視線	-10.6508
にしている	-10.6508
折れ	-10.651
配置	-10.651
食欲	-10.6513
▁ある事	-10.6513
感心	-10.6513
▁冗談	-10.6515
困った	-10.6516
のび	-10.6517
平面	-10.652
みずから	-10.6521
合計	-10.6525
刃物	-10.6528
勝つ	-10.6531
▁ビール	-10.6532
混乱	-10.6532
与えられた	-10.6538
明るく	-10.6539
無知	-10.6539
あや	-10.6539
消し	-10.6541
あとに	-10.6546
▁個人	-10.655
▁普通の	-10.655
ボート	-10.6554
完全な	-10.6554
その仕事を	-10.6556
しまう	-10.6556
の後	-10.6559
▁布	-10.656
移り	-10.656
事件の	-10.656
味方	-10.6565
さか	-10.6566
候補者	-10.6572
たばこ	-10.6573
▁愚	-10.6573
▁生き	-10.6576
日光	-10.6577
仏教	-10.6579
▁彼は私を	-10.6579
▁たくさんの	-10.6579
ード	-10.6584
いま	-10.6589
着陸	-10.6592
くれる	-10.6593
▁緑	-10.6597
踏	-10.6601
すきま	-10.6602
にわたる	-10.6607
売る	-10.6608
見かけ	-10.6613
あせ	-10.6619
並	-10.6619
▁民	-10.6623
つや	-10.6625
集まって	-10.6626
くい	-10.6627
▁地球	-10.6627
草木	-10.6627
▁防	-10.663
絵画	-10.6632
▁毛	-10.6633
っきり	-10.6634
の利益	-10.664
うれしい	-10.6645
瞬間	-10.6647
航空機	-10.6649
▁敵の	-10.6652
出された	-10.6654
▁最	-10.6655
▁機	-10.6656
宴会	-10.6657
自転車	-10.6657
リン	-10.6657
▁商	-10.6658
本当	-10.666
を加えて	-10.6661
▁直接	-10.6661
に入れて	-10.6666
その家	-10.6671
もう一度	-10.6675
二人	-10.6676
▁キャンセル	-10.6677
体長	-10.6677
弱い	-10.668
責	-10.668
固く	-10.6681
囲	-10.6682
じり	-10.6686
▁ピアノ	-10.669
魅力	-10.6693
▁リ	-10.6695
▁要	-10.6696
を選ぶ	-10.6702
被	-10.6702
等級	-10.6705
貫	-10.6706
▁どの	-10.6706
生きている	-10.6708
即	-10.6711
凍	-10.6711
集まる	-10.6712
そうじゃな	-10.6715
詰める	-10.6715
壊	-10.672
暮	-10.672
とその	-10.672
いつでも	-10.6722
需要	-10.6723
かれた	-10.6723
▁イエス	-10.6726
の女	-10.6728
地上	-10.6729
に備えて	-10.673
問題を	-10.6731
パリ	-10.6732
幾つかの	-10.6732
▁座	-10.6734
スター	-10.6736
▁人口	-10.6737
▁物事	-10.6738
警察呼びに電話	-10.6739
最近	-10.6739
低木	-10.6741
細菌	-10.6744
心理	-10.6744
皮肉	-10.6744
てはいけない	-10.6745
考	-10.6745
私たち	-10.6749
人柄	-10.675
そういうもの	-10.675
過ごす	-10.6752
になると	-10.6753
日が	-10.6753
獄	-10.6755
を持ち	-10.6758
慢	-10.6761
博士	-10.6762
よそ	-10.6762
▁妻	-10.6763
飲	-10.6764
めがね	-10.6764
理由で	-10.6765
を加え	-10.6765
予約	-10.6765
委員	-10.6765
は彼	-10.6766
のあまり	-10.6766
悪事	-10.6767
どき	-10.6767
は我々の	-10.6768
くも	-10.6768
日本語	-10.6768
はずだ	-10.677
向かい	-10.6772
事をする	-10.6772
▁岩	-10.6773
瓶	-10.6774
進んだ	-10.6774
ばた	-10.6776
で書く	-10.6778
▁底	-10.6784
喪	-10.6785
腺	-10.6786
津	-10.6786
紺	-10.6786
操縦	-10.6786
硬貨	-10.6786
捜査	-10.6786
顕微鏡	-10.6786
沙	-10.6786
紛争	-10.6787
技能	-10.6787
塗料	-10.6787
更に広く	-10.6788
はさみ	-10.6788
廊下	-10.6788
だいぶ	-10.6789
教訓	-10.6789
の水	-10.6789
鳴く	-10.6789
対策	-10.679
すい	-10.6791
▁現金	-10.6791
市民	-10.6792
▁流	-10.6792
過失	-10.6792
公衆	-10.6793
うるさい	-10.6793
▁窓	-10.6796
見識	-10.6798
現れ	-10.68
に反する	-10.6801
となり	-10.6804
をかき	-10.6804
米国	-10.6805
を要求する	-10.6805
わかり	-10.6809
作戦	-10.6809
本能	-10.681
さまざまな	-10.681
じて	-10.681
鳴	-10.6812
不正	-10.6813
おき	-10.6813
点で	-10.6815
▁その家は	-10.6818
▁身体	-10.6818
天体	-10.6819
▁身分	-10.682
確かに	-10.682
分布	-10.6822
ありさま	-10.6822
及ぶ	-10.6823
しめる	-10.6823
でメッセージを送信	-10.6823
伝染病	-10.6824
▁星	-10.6826
腕を	-10.6827
消	-10.6827
備え	-10.6829
ング	-10.683
に必要な	-10.6832
かつ	-10.6832
しまい	-10.6833
▁髪を	-10.6834
押	-10.6834
罪人	-10.6835
を感じた	-10.6835
明かり	-10.6835
なければならなかった	-10.6839
両手	-10.6839
どのくらい	-10.6841
電灯	-10.6843
▁利	-10.6844
手紙を	-10.6845
16	-10.6846
▁元	-10.685
原子	-10.6851
▁絶対	-10.6856
を描く	-10.686
夕	-10.6861
に会う	-10.6863
▁国内	-10.6863
80	-10.6865
受けた	-10.6865
ぬき	-10.6868
▁アン	-10.6869
男女	-10.687
身なり	-10.6872
以前に	-10.6877
の跡	-10.6879
こめ	-10.6884
小鳥	-10.6885
ませる	-10.6885
述べること	-10.6888
▁絹	-10.6889
石を	-10.6892
混ぜ	-10.6892
が立つ	-10.6897
▁歴史	-10.69
▁現在	-10.6901
人格	-10.6903
っていること	-10.6904
もん	-10.6905
外の	-10.6907
私たちに	-10.6908
らずに	-10.691
沖	-10.6923
倒れた	-10.6923
そこで	-10.6926
水分	-10.6928
主義者	-10.693
まくら	-10.693
最高の	-10.6935
静かな	-10.6944
の長	-10.6944
がなくて	-10.6945
を利用して	-10.6945
気に	-10.6946
招	-10.6946
単	-10.6946
▁言語	-10.6948
泥棒	-10.695
▁知識	-10.6955
うけ	-10.6965
主題	-10.6966
▁夕食	-10.6968
動機	-10.6969
必要がある	-10.697
ぶどう酒	-10.6971
を売る	-10.6975
なみ	-10.6977
左右に	-10.6977
わく	-10.6978
見本	-10.698
執	-10.698
▁私はその	-10.6984
染み	-10.6985
▁家の	-10.6986
を見ると	-10.6988
蒸	-10.6989
えない	-10.6995
▁車の	-10.6996
▁ゆう	-10.6998
▁すっかり	-10.6998
ばり	-10.6998
効	-10.6999
しばしば	-10.7
責任を	-10.7001
栄	-10.7004
▁配	-10.7005
▁遊	-10.7007
お金	-10.7008
我々	-10.7009
贈	-10.7011
渋	-10.7014
けち	-10.7017
行列	-10.7018
計略	-10.7018
を見せる	-10.7018
▁他人	-10.702
財産を	-10.702
次第	-10.7021
フェ	-10.7024
をやめる	-10.7026
にあう	-10.7026
▁こん	-10.7026
C	-10.7029
るだろう	-10.703
まわる	-10.7031
浴	-10.7036
楽しい	-10.7036
引け	-10.7037
不運	-10.7037
わしい	-10.704
かぜ	-10.704
いけない	-10.7042
▁献	-10.7047
むりに	-10.7048
▁核	-10.7048
▁彼ら	-10.7048
の値段	-10.7048
殺し	-10.7049
▁仕事を	-10.705
▁増	-10.7052
▁だれが	-10.7054
▁ゴルフ	-10.7054
たれ	-10.7055
悲しい	-10.7056
以上に	-10.7057
ベル	-10.7057
敵に	-10.7059
新たに	-10.7059
測定	-10.7062
▁悪い	-10.7064
リズム	-10.7066
考えを	-10.7067
▁その時	-10.7068
賀	-10.7069
何とも	-10.707
還	-10.707
フル	-10.7071
介	-10.7071
とすること	-10.7071
斑	-10.7073
活字	-10.7073
稿	-10.7073
▁地震	-10.7075
▁法律	-10.7076
の目	-10.7076
均	-10.7078
まさに	-10.7078
並び	-10.7079
論じ	-10.7079
棺	-10.7079
ほぼ	-10.708
失敗する	-10.708
椎	-10.708
佞	-10.708
ユーモア	-10.708
亀	-10.708
太平洋	-10.7081
ごちそう	-10.7081
保存	-10.7081
硫酸	-10.7081
酔い	-10.7081
ときに	-10.7081
タイヤ	-10.7081
寿命	-10.7081
拡大	-10.7081
飲料	-10.7081
いくつかの	-10.7082
最後まで	-10.7082
幕府	-10.7082
代名詞	-10.7084
結合	-10.7087
すか	-10.7089
体温	-10.709
配達	-10.7092
有名な	-10.7094
美味	-10.7094
以外に	-10.7095
観客	-10.7096
遊女	-10.7101
彫り	-10.7106
生ずる	-10.7107
廻	-10.7111
召	-10.7113
▁会社	-10.7114
▁義	-10.7115
▁あれ	-10.7116
甘	-10.7118
今日	-10.7118
法則	-10.7119
景気	-10.7119
幸い	-10.712
国会	-10.7122
お客	-10.7124
二度と	-10.7127
裁	-10.7127
▁刀	-10.7129
筋道	-10.7133
▁天皇の	-10.7136
かつて	-10.7138
ぼんやり	-10.714
横に	-10.714
の夜	-10.7141
入学	-10.7142
済	-10.7142
▁冷	-10.7147
の終わり	-10.7147
山田	-10.7147
物理学	-10.7149
みず	-10.7149
すぐれている	-10.7149
かわり	-10.7154
一同	-10.7154
はっきりと	-10.7155
無罪	-10.7156
支配	-10.716
▁官	-10.7161
▁村	-10.7162
体力	-10.7162
続	-10.7162
迎え	-10.7163
▁最後の	-10.7163
出ること	-10.7163
▁厳	-10.7165
打って	-10.7165
飛ばす	-10.7175
込むこと	-10.7176
作者	-10.718
▁過去	-10.7181
の差	-10.7182
▁英	-10.7183
苦痛	-10.7188
白髪	-10.7189
ちっとも	-10.719
態度が	-10.7194
相当	-10.7194
人情	-10.7195
感動	-10.7195
の程度	-10.7197
語る	-10.7199
応	-10.7201
されること	-10.7202
しお	-10.7202
知る	-10.7203
春の	-10.7204
床に	-10.7205
▁涙	-10.7207
授	-10.7212
▁種	-10.7217
世辰	-10.7219
夏の	-10.7221
出かける	-10.7222
最大	-10.7223
▁政府	-10.7223
▁ここ	-10.7227
まして	-10.7227
符	-10.7227
すぐに電話する	-10.7231
▁麦	-10.7231
売れ	-10.7231
▁加	-10.7231
大変な	-10.7232
あれこれと	-10.7234
▁混	-10.7245
垂	-10.7247
ねば	-10.7251
任垢	-10.7253
が大きく	-10.7253
光線	-10.7256
ぶっ	-10.7258
に行って	-10.7258
懸	-10.7259
▁煙	-10.726
死者	-10.7263
をつかむ	-10.7265
質の	-10.7266
うんと	-10.7271
つとめ	-10.7272
たび	-10.7273
▁進	-10.7275
寄付	-10.7278
のところ	-10.728
▁しゅう	-10.7287
▁どちら	-10.7287
上下	-10.7288
糸を	-10.7295
ねずみ	-10.7295
雨が	-10.7296
ているさま	-10.7297
入れること	-10.7298
側の	-10.7302
▁試	-10.7303
反対の	-10.7305
行こう	-10.7305
彼らの	-10.7306
著者	-10.7306
絶え	-10.7306
暮れ	-10.7307
へ行って	-10.731
▁運	-10.7318
に行う	-10.7318
で働く	-10.7318
震	-10.7318
▁事務	-10.7318
仰	-10.7318
なま	-10.7319
育て	-10.732
▁卑	-10.7321
ニューヨーク	-10.7323
▁動物の	-10.7323
冗談	-10.7323
崩	-10.7325
述べ	-10.7326
の位置	-10.7326
脂肪	-10.7326
でメッセ送信	-10.733
過去	-10.7332
結構	-10.7333
当たる	-10.7335
縫	-10.7335
▁えん	-10.7336
いていた	-10.7336
はなかなか	-10.7343
さなかった	-10.7344
割れ	-10.7345
実際の	-10.7347
を集める	-10.7348
手本	-10.7349
気を	-10.7354
滴	-10.7356
を定める	-10.7358
騷ぎ	-10.7359
彩	-10.7359
ものです	-10.736
警察呼ぶ	-10.736
ついている	-10.7361
況	-10.7362
駆	-10.7363
巡	-10.7363
与える	-10.7363
豚	-10.7364
うま	-10.7365
▁もと	-10.7366
小型の	-10.7367
▁釣り	-10.7371
健	-10.7371
マッチ	-10.7374
弊	-10.7374
ふる	-10.7374
▁タクシー	-10.7374
民主	-10.7375
核	-10.7375
訪	-10.7377
宣	-10.7378
禍	-10.7379
隆	-10.7379
及ばない	-10.738
つらい	-10.738
塞	-10.7381
偶然	-10.7381
慶	-10.7381
叫ぶ	-10.7382
叙	-10.7382
嚢	-10.7383
摩	-10.7383
楼	-10.7383
某	-10.7383
虐	-10.7383
よろしく	-10.7383
喜ぶ	-10.7383
缺	-10.7383
	-10.7383
よろい	-10.7384
鶴	-10.7384
描写	-10.7384
独占	-10.7384
なもの	-10.7384
セント	-10.7384
300	-10.7384
変わって	-10.7384
業績	-10.7384
が長い	-10.7384
抗議	-10.7385
宿泊	-10.7385
統制	-10.7385
辞典	-10.7385
ゴルフ	-10.7385
限界	-10.7386
座敷	-10.7386
実際	-10.7388
便利	-10.7388
刷り	-10.7389
綴じ	-10.7389
行儀	-10.7389
立ち上がる	-10.739
間違っている	-10.7391
筆跡	-10.7392
ではありません	-10.7393
議長	-10.7393
縁起	-10.7394
車両	-10.7395
空中	-10.7395
箇所	-10.7395
髪を	-10.7396
虚	-10.7396
指を	-10.7396
上昇	-10.7396
頭痛	-10.7396
下げる	-10.7397
油断	-10.7398
回った	-10.7399
どうぞ	-10.7399
官職	-10.7403
▁漁	-10.7404
▁父は	-10.7405
ってしまう	-10.7406
カル	-10.7406
をたたく	-10.7407
▁バス	-10.7407
▁ここから	-10.7409
事柄を	-10.7409
伏	-10.7411
言葉で	-10.7411
話した	-10.7413
乗る	-10.7417
迷い	-10.742
▁被	-10.742
に住み	-10.7422
計画を	-10.7423
小形の	-10.7426
鉱石	-10.7427
▁霜	-10.7429
が出た	-10.743
▁せき	-10.7431
芸術家	-10.7431
途中	-10.7432
独立	-10.7436
冷え	-10.7438
進むこと	-10.7439
走者	-10.7441
のたとえ	-10.7442
ミリ	-10.7446
視力	-10.7447
▁秘	-10.7449
▁偏	-10.7453
▁うん	-10.7454
温泉	-10.7456
品質	-10.7459
資産	-10.7459
時間に	-10.746
賭け	-10.7463
しら	-10.7467
黒色	-10.7468
一種の	-10.7469
長いこと	-10.7469
対照	-10.747
いました	-10.7472
げに	-10.7482
方がいい	-10.7485
その言葉	-10.7488
を失った	-10.7489
その計画	-10.749
不思議な	-10.749
移動	-10.7491
するため	-10.7493
安心	-10.7496
連続	-10.7496
後ろに	-10.75
描いた	-10.7503
に言う	-10.7504
うみ	-10.7507
▁当時	-10.7511
たな	-10.7511
幸せ	-10.7511
識	-10.7513
科の落葉高木	-10.7516
ごう	-10.7517
▁列車	-10.7518
がついた	-10.7518
を止める	-10.7519
きて	-10.7521
ラー	-10.7523
現在の	-10.7524
今は	-10.7525
根性	-10.7526
▁神経	-10.7528
人や	-10.7531
を誤る	-10.7531
抱	-10.7533
成立	-10.7534
のような形	-10.7535
優	-10.7537
なぐる	-10.7537
四方	-10.7544
生活を送る	-10.7545
驚き	-10.7548
入って	-10.7549
三つ	-10.755
あらわ	-10.7552
上がって	-10.7564
▁郵便	-10.7568
を研究する	-10.7569
周囲	-10.757
していて	-10.7571
してやる	-10.7573
運送	-10.7576
だらけの	-10.7578
設	-10.7579
▁昼	-10.758
残念	-10.7581
▁ちょっと電話したい	-10.7582
なくなること	-10.7589
吹く	-10.7589
は実に	-10.7594
終わった	-10.7594
▁行き	-10.7596
嫌い	-10.7597
を踏む	-10.7598
隠	-10.7598
くわ	-10.7599
▁世間の	-10.7602
するような	-10.7604
終わる	-10.7607
仮	-10.7611
ぬく	-10.7613
以外	-10.7615
▁違う	-10.7616
じん	-10.7621
丸い	-10.7622
書いてある	-10.7624
数値	-10.7624
ばね	-10.763
うちの	-10.7631
領土	-10.7641
異常	-10.7641
わし	-10.7641
あん	-10.7643
詰	-10.7645
力士	-10.7649
付きの	-10.7652
おこる	-10.7656
争	-10.7657
姿を	-10.7657
▁はん	-10.766
▁次の	-10.7663
含	-10.7663
くそ	-10.7665
決断	-10.7665
▁裸	-10.7665
浅	-10.7666
▁食	-10.7666
を追って	-10.7668
庫	-10.7672
権威	-10.7676
▁メッセを	-10.7677
兵隊	-10.7681
余地	-10.7681
▁渋	-10.7682
のようなもの	-10.7682
されない	-10.7683
勤勉	-10.7683
譜	-10.7684
どころ	-10.7684
すごい	-10.7686
破壊	-10.7689
発達	-10.769
療	-10.769
循環	-10.7691
ミルク	-10.7692
審議	-10.7693
▁生産	-10.7694
著作	-10.7694
並ぶ	-10.7694
範	-10.7695
罎	-10.7695
妊	-10.7696
磴	-10.7696
"	-10.7696
溝	-10.7696
アジア	-10.7696
束縛	-10.7696
訂正	-10.7696
診察	-10.7696
▁女性	-10.7696
やたらに	-10.7697
給与	-10.7697
オレンジ	-10.7697
救助	-10.7697
保管	-10.7698
味わい	-10.7698
合唱	-10.77
牢	-10.7701
水準	-10.7702
男女が	-10.7702
童	-10.7702
ドアを	-10.7702
▁書き	-10.7703
党派	-10.7703
喜劇	-10.7703
前提	-10.7703
教員	-10.7705
アフリカ	-10.7705
群衆	-10.7706
疎	-10.7706
どれ	-10.7707
言ったこと	-10.7708
入場	-10.7708
請	-10.7708
物品	-10.7709
影響	-10.7709
気温	-10.7709
風習	-10.7711
付属	-10.7712
言わない	-10.7712
十分な	-10.7712
親切に	-10.7713
ウイスキー	-10.7714
掻き	-10.7715
献	-10.7716
ジョン	-10.7716
図書館	-10.7717
項目	-10.7718
確実な	-10.7718
バラ	-10.7719
根本	-10.7721
曲線	-10.7721
ませた	-10.7722
昼	-10.7724
鈍	-10.7724
▁富	-10.7725
岩石	-10.7725
粘土	-10.7725
に着く	-10.7729
例外	-10.7729
暖かい	-10.7732
ばし	-10.7733
テニス	-10.7733
無礼	-10.7733
▁それには	-10.7733
を鳴らす	-10.7735
べる	-10.7736
天才	-10.7738
仮名	-10.7739
読んだ	-10.7739
敷き	-10.7739
臣下	-10.774
▁党	-10.774
郊外	-10.7741
缶	-10.7741
バック	-10.7743
大事な	-10.7743
非常な	-10.7745
ごま	-10.7745
所へ	-10.7748
▁彼はもう	-10.7749
なか	-10.7749
▁なぜ	-10.7751
一面	-10.7752
▁スキー	-10.7754
のとおり	-10.7754
赤色	-10.7755
存在する	-10.7755
死亡	-10.7758
▁新しく	-10.7759
威力	-10.7759
家柄	-10.7761
面会	-10.7761
がみ	-10.7761
を重ねる	-10.7762
物価	-10.7762
風流	-10.7763
▁そんなこと	-10.7765
を発する	-10.7767
▁牛乳	-10.7767
やってみる	-10.7768
支持	-10.777
▁ほ	-10.7774
▁がん	-10.7774
いくつ	-10.7775
▁故	-10.7777
けること	-10.7778
集会	-10.7779
を果たす	-10.7779
の土地	-10.7781
あうこと	-10.7783
▁最高	-10.7783
傾斜	-10.7784
てしまうこと	-10.7784
少	-10.7786
st	-10.7788
▁自分が	-10.779
火薬	-10.779
こつ	-10.7791
▁巨	-10.7793
かたく	-10.7796
きなさい	-10.7797
発生	-10.7797
▁名誉	-10.7798
先の	-10.7799
に生える	-10.7801
一点	-10.7804
の話	-10.7804
他方	-10.7804
▁立派な	-10.7806
ティー	-10.7806
買う	-10.7814
は私	-10.7814
▁学校の	-10.7814
映	-10.7814
ですが	-10.7816
▁100	-10.7818
▁あらし	-10.7818
話だ	-10.7821
▁松	-10.7821
明るい	-10.7823
▁大いに	-10.7828
不平	-10.7829
▁研究	-10.7832
打撃	-10.7832
▁デ	-10.7834
ければ	-10.7838
との間に	-10.7839
そうする	-10.7844
わん	-10.7844
が強く	-10.7844
▁露	-10.7845
まと	-10.7849
月に	-10.785
たえ	-10.7859
常識	-10.7864
▁鬼	-10.7865
地点	-10.7865
黙って	-10.7867
▁安全	-10.7868
閉	-10.7871
全体の	-10.7871
▁雌	-10.7871
科目	-10.7875
▁いつ	-10.7882
病人	-10.7883
を捕える	-10.7884
けない	-10.7892
▁室内	-10.7893
客の	-10.7895
ネズミ	-10.7898
最後に	-10.7899
▁墓	-10.79
上り	-10.7903
ックス	-10.7903
チャ	-10.7903
動かす	-10.7905
たりして	-10.7905
前から	-10.7906
燃える	-10.7906
□□	-10.7909
確かな	-10.7909
あげた	-10.7912
▁先生は	-10.7912
歌う	-10.7913
丈夫な	-10.7915
▁新年	-10.7921
▁心の	-10.7921
▁じょう	-10.7923
▁卵	-10.7925
国を	-10.7925
▁人生	-10.7929
▁労働	-10.7929
▁福	-10.7929
既に	-10.793
頼	-10.7934
矛盾	-10.7934
考えが	-10.7935
大体	-10.7938
否定	-10.7939
▁超	-10.7941
▁ちょうど	-10.7945
確か	-10.7947
▁死に	-10.7951
se	-10.7951
樹木	-10.7954
▁午後	-10.7955
辞職	-10.7956
生まれつき	-10.7957
戸口	-10.7958
埋め	-10.796
届	-10.796
資料	-10.7968
についている	-10.7969
つもりだ	-10.7971
見せる	-10.7975
▁温	-10.7982
四角	-10.7982
ところがある	-10.7982
とく	-10.7982
縛	-10.7982
換	-10.7983
は彼を	-10.7983
ざら	-10.7984
難い	-10.7984
を出し	-10.7984
▁他の	-10.7985
帝国	-10.7992
示すこと	-10.7993
離婚	-10.7994
悟	-10.7995
▁ノー	-10.7995
が来る	-10.7995
70	-10.7998
将校	-10.7999
熱い	-10.8001
▁土地	-10.8005
裁判官	-10.8006
らせて	-10.8006
が彼	-10.8007
▁顔	-10.8007
施	-10.8009
却	-10.801
重大	-10.8012
孔	-10.8012
はるかに	-10.8012
に過ぎない	-10.8014
焼いた	-10.8014
呪	-10.8015
あめ	-10.8016
を欠く	-10.8016
発行する	-10.8016
相続	-10.8017
▁議長	-10.8017
環	-10.8017
ぞっとする	-10.8017
貌	-10.8018
あきらめ	-10.8018
のなか	-10.8018
娯楽	-10.8019
ハンカチ	-10.8019
偉大な	-10.8019
ごたごた	-10.8019
屬	-10.8019
くちばし	-10.8019
申し上げます	-10.8019
証券	-10.802
▁道理	-10.802
悩み	-10.802
ろうそく	-10.802
▁農業	-10.8021
こみ	-10.8021
を作り	-10.8023
農場	-10.8023
獲物	-10.8024
坊主	-10.8025
執行	-10.8025
軽蔑	-10.8025
々しい	-10.8026
同士	-10.8026
狂言	-10.8028
▁暴	-10.803
念仏	-10.803
面白い	-10.8031
午後	-10.8032
したら	-10.8032
▁だれでも	-10.8034
平らな	-10.8034
▁狂	-10.8034
粉末	-10.8035
を失って	-10.8036
目録	-10.8037
戦術	-10.8038
▁ニューヨーク	-10.8039
不在	-10.8039
なっていた	-10.8041
を洗う	-10.8041
単語	-10.8042
っても	-10.8044
の問題	-10.8045
むずかしい	-10.8048
弱点	-10.8049
駄	-10.8051
母音	-10.8051
カン	-10.8052
語句	-10.8053
形は	-10.8054
演ずる	-10.8058
むち	-10.8058
あげよう	-10.8059
▁若い	-10.806
所帯	-10.8063
きびしく	-10.8063
危機	-10.8063
幼児	-10.8064
仁	-10.8064
ロープ	-10.8068
あさ	-10.8068
まわること	-10.8068
わからなかった	-10.8069
お願い	-10.8069
を読む	-10.8069
脇	-10.8071
爪	-10.8072
混	-10.8073
もみ	-10.8073
▁きゅう	-10.8073
▁僕	-10.8077
18	-10.8077
預金	-10.8077
ブラ	-10.8078
財政	-10.808
自己	-10.8081
のうちに	-10.8083
ふけ	-10.8083
雑草	-10.8084
S	-10.8085
留める	-10.8086
超	-10.8087
▁その子は	-10.809
乱暴な	-10.809
めし	-10.8091
ものがある	-10.8091
第三	-10.8092
談話	-10.8092
▁縁	-10.8093
穀物	-10.8095
せり	-10.8096
濃い	-10.8096
両端	-10.8097
▁あの人	-10.8098
。「―	-10.8099
などによって	-10.81
▁粉	-10.8104
よろしい	-10.8105
を吹く	-10.8105
▁能	-10.8105
訴え	-10.8106
容易に	-10.8108
山脈	-10.8108
▁棒	-10.8108
▁コン	-10.8116
変え	-10.8117
水路	-10.8117
の出来事	-10.8118
音節	-10.812
一部	-10.8124
▁文学	-10.8128
社会的	-10.8128
▁貸	-10.8131
▁だれか	-10.8131
に多い	-10.8132
▁質	-10.8136
当てる	-10.814
もしない	-10.8142
木綿	-10.8143
縮	-10.8145
墓	-10.8145
▁猿	-10.8147
▁激しく	-10.8147
▁ぼう	-10.8151
に出す	-10.8154
書いて	-10.8155
抜ける	-10.8158
しかない	-10.8158
戻	-10.8158
があれば	-10.8161
その場に	-10.8162
とれる	-10.8164
▁自動車の	-10.8166
ほめ	-10.8167
▁長く	-10.8167
こり	-10.8168
に手を	-10.817
私たちの	-10.8176
生え	-10.8178
▁寸	-10.818
▁印刷	-10.8181
気譴	-10.8188
▁全身	-10.8193
はわからない	-10.8193
▁順	-10.8194
不意	-10.8194
ようとした	-10.8195
上手	-10.82
片方	-10.82
入れた	-10.8201
みぞ	-10.8201
返すこと	-10.8203
せた	-10.8203
境界	-10.8203
ときの	-10.8203
敵の	-10.8207
▁ヨーロッパ	-10.8216
プレー	-10.8217
とまる	-10.8222
っておく	-10.8223
につき	-10.8228
耳に	-10.8228
認められる	-10.8229
おしゃべり	-10.8232
知った	-10.8232
鳴り	-10.8232
が好きだ	-10.8236
▁うちの	-10.8237
ed	-10.824
宣伝	-10.8241
としても	-10.8243
スーツ	-10.8247
ヨ	-10.8251
クリスマス	-10.8252
大きいこと	-10.8252
有様	-10.8252
をとった	-10.8252
ロン	-10.8252
▁インド	-10.8255
知り	-10.8255
時などに	-10.8257
溶	-10.8258
▁すばらしい	-10.8263
の小	-10.8263
▁歌	-10.8263
言葉に	-10.8265
▁池	-10.8265
我々に	-10.8266
向きの	-10.8269
なぞ	-10.8272
名の	-10.8272
▁生活	-10.8272
下ろす	-10.8273
騒	-10.8276
構	-10.8277
美しさ	-10.8277
買った	-10.8279
づく	-10.8285
▁いろいろの	-10.8286
へ行った	-10.8288
秘密を	-10.8291
立っていた	-10.8294
だんだん	-10.8294
を用いて	-10.8296
成功した	-10.8298
れん	-10.8299
だけだ	-10.8299
上げて	-10.83
宮中	-10.83
▁家族	-10.8301
▁トムは	-10.8302
代理	-10.8304
▁ちょっとした	-10.831
かけている	-10.831
ゆう	-10.8312
まとまり	-10.8312
腹が	-10.8317
▁目の	-10.8321
不明	-10.8321
妙な	-10.8325
時間が	-10.8325
捜し	-10.8326
もらった	-10.8329
調和	-10.833
おいで	-10.833
曲がった	-10.8331
ぴったり	-10.8331
おれ	-10.8334
もっとも	-10.8337
呼び名	-10.8338
以前の	-10.8339
▁参	-10.834
▁雷	-10.8341
その知らせ	-10.8342
▁化学	-10.8342
しないように	-10.8344
遣い	-10.8345
▁このような	-10.8346
つれ	-10.8346
忍	-10.8346
書簡	-10.8347
旨	-10.8347
▁読み	-10.8348
鼓	-10.8349
公務員	-10.835
吏	-10.835
覇	-10.835
紊	-10.8351
めでたい	-10.8352
ストライキ	-10.8352
姦	-10.8352
兇	-10.8352
婿	-10.8352
に沿って	-10.8352
Г	-10.8352
▁of	-10.8352
陳述	-10.8352
しつこく	-10.8352
樹脂	-10.8352
殺到	-10.8352
欠陥	-10.8352
わざわい	-10.8353
教科書	-10.8353
どうにか	-10.8353
こま	-10.8353
及び	-10.8353
グラス	-10.8353
たれる	-10.8353
ゴール	-10.8354
陶器	-10.8354
▁生命	-10.8354
社交	-10.8354
陸地	-10.8355
技師	-10.8355
補給	-10.8355
編成	-10.8355
工夫	-10.8356
分裂	-10.8356
照明	-10.8356
最終	-10.8356
仮定	-10.8357
働いて	-10.836
害虫	-10.8361
帳面	-10.8361
親しみ	-10.8362
比較	-10.8364
鱗	-10.8365
正午	-10.8367
順番	-10.8367
モン	-10.8368
らせた	-10.8371
祝	-10.8372
洗う	-10.8373
えん	-10.8375
▁写真	-10.8375
それから	-10.8375
一行	-10.8376
ダース	-10.8377
牛肉	-10.838
体制	-10.8381
▁煮	-10.8381
がち	-10.8381
やってきた	-10.8382
法案	-10.8384
出される	-10.8387
そうと	-10.8388
包	-10.8388
90	-10.839
▁あなたが	-10.8392
無限	-10.8393
部品	-10.8393
然たる	-10.8395
読んで	-10.8399
いくらか	-10.8399
一枚	-10.8403
頂上	-10.8412
メッセージを送	-10.8415
危険な	-10.8418
通りに	-10.8419
▁相手を	-10.842
覚	-10.8423
合うこと	-10.8425
部門	-10.8425
上等	-10.8426
陽気	-10.8427
菊	-10.8427
を塗る	-10.8429
伝統	-10.8431
については	-10.8431
▁都市	-10.8432
かち	-10.8433
と思っている	-10.8433
衰え	-10.8434
トム	-10.8436
野心	-10.8437
お前	-10.8438
の縁	-10.8438
▁台風	-10.8442
腕前	-10.8444
君が	-10.8445
あお	-10.8447
前途	-10.8447
遅れて	-10.8448
▁財産	-10.8448
られなかった	-10.845
ふだん	-10.845
じょう	-10.8451
方方	-10.8451
を計る	-10.8451
スタ	-10.8452
先例	-10.8455
ぎわ	-10.8455
つくり	-10.8456
▁犬	-10.8459
▁後ろ	-10.8459
んです	-10.846
の間の	-10.846
結婚式	-10.8461
▁仕事の	-10.8462
を進める	-10.8464
口論	-10.8465
察	-10.8467
中国の	-10.8468
重大な	-10.8469
人数	-10.8471
▁彼女は彼	-10.8471
ができた	-10.8473
ろうとする	-10.8474
すぐに電話かける	-10.8475
聞かせ	-10.8475
日中	-10.8476
の空	-10.8477
しっかりした	-10.8477
▁休	-10.8479
泡	-10.8481
繭	-10.8482
年代	-10.8483
さる	-10.8485
遅れた	-10.8486
盲	-10.8487
夜明け	-10.8488
口実	-10.849
繰り返し	-10.8492
かに	-10.8492
を飲む	-10.8494
で売る	-10.8494
天子	-10.8498
▁いいえ	-10.8499
を助ける	-10.8502
が必要だ	-10.8504
を少し	-10.8507
遅れる	-10.8507
拍手	-10.8509
ぶる	-10.8509
座席	-10.8517
ばい	-10.8518
▁皮膚	-10.8519
のほう	-10.852
上品	-10.8524
納め	-10.8525
でメッセージ送信	-10.8527
優勝	-10.8527
固めた	-10.8529
本来	-10.8531
ゆき	-10.8532
▁ちょう	-10.8534
▁米国	-10.8535
出する	-10.8536
▁終	-10.8536
始	-10.8537
起こす	-10.8538
の低い	-10.854
居住	-10.8544
の材料	-10.8547
と一緒に	-10.8547
指図	-10.855
あとで	-10.8552
▁墨	-10.8552
っくり	-10.8555
どこで	-10.8557
▁炭	-10.8557
▁帯	-10.8558
▁怒り	-10.8558
道は	-10.8561
資	-10.8563
を指す	-10.8566
世間に	-10.8569
輸出	-10.8573
トラック	-10.8574
外れ	-10.8574
▁ふた	-10.8576
は決して	-10.8576
は全部	-10.8579
▁ピ	-10.8583
とど	-10.8584
指定	-10.8585
さずに	-10.859
吐	-10.8591
▁その事	-10.8593
三度	-10.8594
▁なん	-10.8597
晴	-10.8598
に入れた	-10.8598
0	-10.8598
その結果	-10.8599
は何も	-10.8603
▁目を	-10.8604
▁しゃ	-10.8606
うず	-10.8609
下手	-10.861
ありますか	-10.861
等が	-10.861
▁京都	-10.861
邪魔	-10.8617
を作った	-10.8622
りっぱな	-10.8622
を教える	-10.8622
あぶ	-10.8624
回転	-10.8624
を言って	-10.8625
▁私に	-10.8625
さっぱり	-10.8627
かめ	-10.8628
のもと	-10.8628
土台	-10.863
望む	-10.8634
▁クロ	-10.8635
アパート	-10.8639
にあること	-10.8645
それぞれの	-10.8645
▁鈍	-10.8655
に入った	-10.8656
を用いる	-10.8659
以	-10.866
▁武	-10.8661
裂	-10.8662
誠実	-10.8664
おくこと	-10.8665
顔が	-10.8665
睡眠	-10.8667
に関して	-10.8668
情報を	-10.8669
まない	-10.8669
区画	-10.8669
問い	-10.8669
天皇の	-10.8671
衛	-10.8672
ュ	-10.8675
ばち	-10.8677
永	-10.8678
ています	-10.868
の食事	-10.868
とること	-10.8681
▁婦人	-10.8681
の基礎	-10.8681
絞	-10.8684
用いる	-10.8684
審判	-10.8685
に来る	-10.8686
水道	-10.8687
陶	-10.8689
看板	-10.8689
知れ	-10.8689
乙	-10.869
に与える	-10.869
だけを	-10.8692
パイ	-10.8692
蝶	-10.8693
防止	-10.8693
は彼女の	-10.8694
瀬	-10.8694
冥	-10.8694
美咲さん	-10.8696
あちこち	-10.8696
顕	-10.8696
窒素	-10.8697
聯	-10.8697
梁	-10.8697
艇	-10.8697
璽	-10.8697
壺	-10.8697
科の海魚	-10.8697
瑠	-10.8697
ハムレット	-10.8697
陶磁器	-10.8697
器械	-10.8697
タイプライター	-10.8697
休憩	-10.8697
陳列	-10.8697
を救う	-10.8697
存じます	-10.8698
太郎	-10.8698
解雇	-10.8698
圧迫	-10.8698
シェ	-10.8699
ましょうか	-10.8699
体験	-10.8699
ようやく	-10.87
勝さん	-10.87
ライン	-10.87
忠実	-10.8702
高低	-10.8703
の面	-10.8703
▁彼はこの	-10.8704
手先	-10.8704
させない	-10.8706
ファ	-10.8708
観音	-10.8709
を呼ぶ	-10.871
渡す	-10.871
針金	-10.8711
仕切り	-10.8711
ジュ	-10.8711
▁戦闘	-10.8712
厚	-10.8713
まもなく	-10.8713
間もなく	-10.8714
処理する	-10.8715
にふける	-10.8716
布団	-10.8716
方向に	-10.8718
▁節	-10.8719
のころ	-10.872
出勤	-10.872
▁建築	-10.872
かかり	-10.872
急ぐ	-10.8722
▁旗	-10.8723
結ぶ	-10.8723
うわ	-10.8723
敬称	-10.8726
はかり	-10.8727
ほうがいい	-10.873
▁ボート	-10.8731
特別の	-10.8732
感ずる	-10.8732
平等	-10.8734
題目	-10.8736
あぶない	-10.8737
▁二重	-10.8738
▁ガラス	-10.8739
複雑な	-10.874
雌	-10.874
▁営業	-10.8741
の絵	-10.8741
指導者	-10.8741
重量	-10.8742
柔らかく	-10.8744
占め	-10.8748
正しく	-10.8749
紙を	-10.875
▁接	-10.8751
を受けること	-10.8751
不良	-10.8756
会う	-10.8757
高熱	-10.8759
注意して	-10.876
▁盲	-10.876
を立て	-10.876
誤	-10.8761
▁太	-10.8761
の方向	-10.8762
小型	-10.8764
▁胴	-10.8766
が上がる	-10.8767
んこ	-10.8772
飽き	-10.8775
明らかに	-10.8776
道楽	-10.8778
をふるう	-10.8779
ほん	-10.878
をうまく	-10.8785
▁子供たちは	-10.8785
手足	-10.8786
免	-10.8786
程度が	-10.8792
整	-10.8794
失礼	-10.8795
▁うまい	-10.8795
手袋	-10.8796
身の上	-10.8797
投	-10.8797
うら	-10.8798
書いたもの	-10.8799
ろうと	-10.8801
縫う	-10.8801
めん	-10.8802
ことをする	-10.8802
▁懐	-10.8803
空想	-10.8803
説き	-10.8803
はできない	-10.8804
やく	-10.8806
▁潜	-10.8807
おこ	-10.8809
んじ	-10.8809
大会	-10.8811
邪	-10.8814
刑務所	-10.8814
まっすぐに	-10.8815
じゅう	-10.8816
▁親の	-10.8817
鬱	-10.8819
ある事	-10.8819
ンド	-10.882
夕食	-10.8821
▁教会	-10.8822
を明らかにする	-10.8823
序	-10.8824
飛	-10.8825
有効	-10.8826
科の常緑高木	-10.8827
を越えて	-10.8827
▁ロケット	-10.8829
▁浮	-10.883
漫	-10.8831
地獄	-10.8831
▁登山	-10.8835
理性	-10.8836
蚊	-10.8838
かのように	-10.8839
室内	-10.8841
盗み	-10.8842
多数の	-10.8843
その金を	-10.8844
くち	-10.8844
近代	-10.8844
の光	-10.885
ちょっと電話かける	-10.885
定められた	-10.8857
▁心に	-10.8857
をあげて	-10.8858
ちょっと電話したい	-10.8861
▁森	-10.8861
支払い	-10.8864
ティ	-10.8865
▁世界の	-10.8866
をもち	-10.8866
が見える	-10.8866
けば	-10.8868
音を	-10.8869
▁深く	-10.887
発射	-10.8872
状態にある	-10.8879
ショートメッセージを	-10.8879
▁寺	-10.888
処分	-10.8883
のそばに	-10.8884
いじ	-10.8885
最初に	-10.8887
▁一日	-10.8888
こぶ	-10.8891
のほうが	-10.8892
▁利益	-10.8892
▁医学	-10.8894
逃	-10.8896
えび	-10.8896
救急車呼ぶ	-10.8898
11	-10.8898
歌い	-10.8902
あんな	-10.8903
爆	-10.8905
ちょっとした	-10.8906
▁自動	-10.8907
▁女の	-10.8907
来ること	-10.8908
▁各	-10.8914
が出	-10.8914
そのことを	-10.8916
所を	-10.8916
昇	-10.8916
彼も	-10.8917
が少ない	-10.8918
▁選	-10.8918
通行	-10.8924
女性の	-10.8925
▁料理	-10.8925
黙	-10.8925
のもとで	-10.8925
アル	-10.8926
だち	-10.8927
材は	-10.8927
を行うこと	-10.8929
きている	-10.8931
に打ち	-10.8932
▁ゴム	-10.8934
精力	-10.8936
を突き	-10.8936
の動き	-10.894
生地	-10.8943
賢	-10.8946
和歌	-10.8947
代金	-10.8948
だし	-10.8948
▁弓	-10.8949
最初	-10.8951
て下さい	-10.8953
を引いて	-10.8954
おどし	-10.8956
ばん	-10.896
▁君主	-10.8961
が見えた	-10.8962
見通し	-10.8962
▁戦い	-10.8963
▁全く	-10.8966
てい	-10.8966
にしたもの	-10.8966
とらえる	-10.8969
当局	-10.8976
報酬	-10.8978
工学	-10.8979
御用	-10.898
つきの	-10.898
いないこと	-10.8981
焦	-10.8981
態度をとる	-10.8982
のち	-10.8983
最低	-10.8983
▁押し	-10.8984
国語	-10.8984
をもっている	-10.8985
▁集団	-10.8985
くつ	-10.8989
はっきりしない	-10.8993
募集	-10.8997
▁三つ	-10.8997
なんだ	-10.8999
年月	-10.9001
▁中国	-10.9004
の性質	-10.9004
はだれ	-10.9006
▁中間	-10.9008
に設けた	-10.9008
▁硬	-10.9008
財布	-10.9009
指揮	-10.901
▁良	-10.9013
助言	-10.9014
をとること	-10.9017
▁短い	-10.9017
一節	-10.9018
加減	-10.9019
物資	-10.902
がまだ	-10.9027
負傷	-10.9028
渡した	-10.9032
っています	-10.9032
胸に	-10.9035
揺れる	-10.9036
▁パリ	-10.9037
廷	-10.9038
わずかに	-10.9039
便宜	-10.9041
▁毎日	-10.9041
沸	-10.9041
の調子	-10.9042
柔	-10.9043
との間	-10.9045
を入れておく	-10.9045
簡	-10.9045
にかかわる	-10.9046
の量	-10.9047
滞	-10.9047
あがった	-10.9048
洗たく	-10.9048
お父さん	-10.9049
の社会	-10.9049
を持った	-10.9049
原則	-10.9049
拳	-10.9051
賦	-10.9052
願います	-10.9052
膿	-10.9052
キャ	-10.9052
旅行する	-10.9053
妄	-10.9053
ショック	-10.9053
味噌	-10.9054
冒	-10.9054
汚染	-10.9054
どっち	-10.9054
従業員	-10.9054
塾	-10.9054
博物館	-10.9054
熊	-10.9054
纏	-10.9054
グループ	-10.9054
狼	-10.9054
うろこ	-10.9054
貯蔵	-10.9054
覚悟	-10.9054
泳ぐ	-10.9055
園芸	-10.9055
ネット	-10.9055
経歴	-10.9055
警備	-10.9055
志願	-10.9056
街路	-10.9056
書斎	-10.9056
してもらう	-10.9057
汽車	-10.9057
崩れ	-10.9057
消防	-10.9057
予期	-10.9057
策略	-10.9057
香料	-10.9057
接近	-10.9057
法規	-10.9059
内臓	-10.9059
を起こさせる	-10.9059
入浴	-10.906
命題	-10.9061
曇り	-10.9063
下がり	-10.9063
ドン	-10.9064
指輪	-10.9065
▁その男は	-10.9067
女房	-10.9068
土砂	-10.9069
基地	-10.9069
▁元気	-10.9071
釮呂	-10.9073
囲い	-10.9073
学術	-10.9073
は大	-10.9074
局面	-10.9075
神聖な	-10.9076
動植物	-10.9076
間隔	-10.9078
さげ	-10.9081
労力	-10.9081
を立てて	-10.9082
▁わら	-10.9083
角度	-10.9083
いって	-10.9084
気圧	-10.9084
けい	-10.9085
注目	-10.9088
がよくない	-10.9088
助力	-10.9088
平行	-10.9089
血管	-10.909
救急車を呼ぶ	-10.9091
勝った	-10.9091
人の心	-10.9091
▁弾	-10.9092
ライ	-10.9093
▁彼は彼女	-10.9093
心理学	-10.9098
化した	-10.9099
植え	-10.9099
豊かな	-10.91
パー	-10.9101
実質	-10.9102
を造る	-10.9102
品物を	-10.9103
としては	-10.9103
お金を	-10.9104
各地	-10.9106
▁のど	-10.9106
遺憾	-10.9107
手前	-10.9109
警戒	-10.911
表紙	-10.9115
標本	-10.9115
相応	-10.9115
掛かる	-10.9118
ために使う	-10.9119
ができない	-10.912
暖	-10.9121
生存	-10.9123
おきて	-10.9124
冷たい	-10.9126
▁降	-10.9126
を合わせる	-10.9126
▁ドア	-10.9127
所属	-10.9127
怒	-10.9128
ざん	-10.9128
頭から	-10.9128
なぐり	-10.9128
生み	-10.913
通った	-10.913
すべきだ	-10.913
あく	-10.9132
私も	-10.9136
おおい	-10.9136
やむ	-10.9138
近所	-10.914
へん	-10.9141
これで	-10.9146
結局	-10.9147
▁希望	-10.9148
▁植物の	-10.915
きき	-10.915
こわい	-10.9151
▁世論	-10.9154
消す	-10.9155
あげること	-10.9155
組み立て	-10.9156
擦れ	-10.9158
▁略	-10.916
ひく	-10.9161
ほかに	-10.9164
尽	-10.9165
画面	-10.9166
まめ	-10.9169
はち	-10.9169
▁文章	-10.9174
一歩	-10.9176
快	-10.9177
くない	-10.9177
▁演劇	-10.9178
金で	-10.9178
潜	-10.918
対立	-10.9182
▁消	-10.9183
▁自己	-10.9183
大した	-10.9184
飲んで	-10.9186
消毒	-10.9187
連中	-10.9188
休日	-10.9189
が出ている	-10.9191
人相	-10.9191
水で	-10.9192
きく	-10.9193
彼らに	-10.9194
受信	-10.9194
の者	-10.9194
で行う	-10.9196
冬の	-10.9197
を営む	-10.9199
▁殺人	-10.9203
速い	-10.9206
浄	-10.9206
軍事	-10.9206
適当な	-10.9211
▁いまから電話かける	-10.9212
一切	-10.9213
についた	-10.9214
逸	-10.9214
が高く	-10.9215
抜	-10.9215
進め	-10.9216
▁ホ	-10.9218
を放つ	-10.922
戒め	-10.9221
うっかり	-10.9222
スパイ	-10.9223
説教	-10.9223
O	-10.9225
日数	-10.9227
時まで	-10.9227
かび	-10.9228
▁権力	-10.9229
寺院	-10.923
ねり	-10.923
▁貴	-10.9232
蔵書	-10.9232
緩	-10.9233
くだらない	-10.9234
誠	-10.9234
どういう	-10.9236
繁	-10.9237
人種	-10.9238
▁心が	-10.9243
思った	-10.9247
▁どんなに	-10.9254
▁雨が	-10.9258
を迎える	-10.9258
わが	-10.9263
を十分に	-10.9266
見方	-10.9267
大勢	-10.9269
人生の	-10.9276
結構です	-10.9276
感ずること	-10.9278
おか	-10.9278
民間	-10.9279
を許す	-10.9282
ヘビ	-10.9282
▁物価	-10.9282
ビー	-10.9283
▁飯	-10.9285
考えること	-10.9286
正面	-10.9288
もらい	-10.9288
地面に	-10.9289
古代	-10.929
▁あちこち	-10.929
車で	-10.9293
無料	-10.9297
▁夕	-10.9303
リング	-10.9304
大量	-10.9304
かわからない	-10.9306
靴下	-10.9306
を取り除く	-10.931
秋に	-10.931
▁彼女は私に	-10.931
▁4	-10.9311
女王	-10.9312
母の	-10.9312
が広い	-10.9313
▁恋	-10.9317
の儀式	-10.932
▁工場	-10.932
▁離	-10.9324
機嫌	-10.9324
様子だ	-10.9325
集めること	-10.9325
出かけ	-10.9326
▁都	-10.9326
の前で	-10.9328
▁証拠	-10.9328
偉	-10.9329
年度	-10.933
に合わせて	-10.9331
物事に	-10.9332
任せ	-10.9333
▁かく	-10.9334
▁臨時	-10.9335
偽	-10.934
囚	-10.9341
正確に	-10.9342
正体	-10.9343
がわかる	-10.9343
▁規則	-10.9344
そうして	-10.9345
キリスト教	-10.9345
ついていた	-10.9347
はなれ	-10.9349
から出る	-10.9353
将棋	-10.9355
扱	-10.9356
▁海上	-10.9357
女子	-10.9357
に引き	-10.9358
ふと	-10.936
の深い	-10.9361
金品	-10.9363
収益	-10.9367
▁ホテル	-10.9369
改善	-10.937
えさ	-10.937
事故で	-10.9371
ょ	-10.9376
換え	-10.9381
主権	-10.9381
にやる	-10.9381
胸が	-10.9382
望遠鏡	-10.9383
ごらん	-10.9384
可能性	-10.9385
音を立てて	-10.9388
の最高	-10.9388
有利	-10.9389
衰	-10.9389
器物	-10.939
包帯	-10.939
雨で	-10.9391
出来た	-10.9391
そこから	-10.9392
取れ	-10.9394
分離	-10.9397
を演ずる	-10.9398
語り	-10.9403
▁深い	-10.9404
らく	-10.9406
▁てい	-10.9407
方角	-10.9407
を与えた	-10.9407
よし	-10.9407
溶液	-10.9408
証書	-10.9408
ッと	-10.9409
にしよう	-10.941
知らぬ	-10.941
づき	-10.9413
▁我々	-10.9413
大将	-10.9414
父母	-10.9414
昨年	-10.9414
なおす	-10.9416
論争	-10.9417
藻	-10.9418
方法で	-10.9418
久	-10.942
根は	-10.942
かということ	-10.9422
▁経験	-10.9422
宜	-10.9422
愁	-10.9422
妥協	-10.9423
岡	-10.9424
杖	-10.9424
雌雄異株	-10.9424
データ	-10.9424
蘭	-10.9424
栗	-10.9424
寡	-10.9424
餡	-10.9424
衝撃	-10.9424
ストーブ	-10.9424
澆	-10.9424
姫	-10.9424
舞踊	-10.9424
かっこう	-10.9424
栄誉	-10.9424
急速に	-10.9424
いずれ	-10.9425
輪郭	-10.9425
留守	-10.9425
ポンプ	-10.9425
封筒	-10.9425
と思います	-10.9425
見事な	-10.9425
鑑定	-10.9425
恩恵	-10.9425
食器	-10.9425
引っ	-10.9426
直ちに	-10.9426
未熟	-10.9426
立派に	-10.9426
検討	-10.9426
▁この絵は	-10.9426
思案	-10.9427
解放	-10.9427
▁だれ	-10.9427
信念	-10.9428
過程	-10.9428
怪しい	-10.9428
失望	-10.9428
ホン	-10.9428
難儀	-10.9429
を認める	-10.9429
ニア	-10.9429
宗派	-10.943
血統	-10.943
判定	-10.943
を満たす	-10.943
サイン	-10.9431
絶対	-10.9431
後悔	-10.9432
改めて	-10.9433
立つこと	-10.9434
楽曲	-10.9435
容疑者	-10.9436
魚を	-10.9437
優先	-10.9437
だということ	-10.9438
を追う	-10.9439
▁お前	-10.9439
格式	-10.944
素質	-10.944
回路	-10.944
現われた	-10.9441
かまわない	-10.9441
永久	-10.9443
ぐち	-10.9445
生活費	-10.9445
▁目的	-10.9445
クリ	-10.9446
広がる	-10.9446
はありません	-10.9447
すぎた	-10.9451
辰討い	-10.9451
かという	-10.9452
▁ええ	-10.9453
親類	-10.9453
金具	-10.9455
世代	-10.9455
者たち	-10.9455
▁帆	-10.9456
つなぎ	-10.9456
直角	-10.9456
知らせる	-10.9456
行われた	-10.9457
はずれる	-10.9457
代代	-10.9457
意向	-10.9457
市長	-10.9459
毛皮	-10.9461
警察を呼ぶ	-10.9462
のですが	-10.9463
▁本当に	-10.9463
格子	-10.9464
地区	-10.9464
のあと	-10.9464
釣	-10.9465
規模	-10.9466
からとった	-10.9466
上級	-10.9467
用いること	-10.9468
意味を	-10.9468
▁名声	-10.9469
ろりと	-10.947
その本	-10.9475
んだろう	-10.9478
達者	-10.9478
を抑える	-10.9479
▁老人	-10.948
つづ	-10.948
はいかがですか	-10.948
飲食物	-10.9481
子供の	-10.9482
二度	-10.9486
ある事柄	-10.9489
▁相撲で	-10.9489
心身	-10.9491
作られた	-10.9492
場合には	-10.9495
▁ベ	-10.9495
を共にする	-10.9499
▁自転車	-10.9499
はいけない	-10.9499
っ子	-10.9504
を通る	-10.9506
を送信	-10.9508
の流れ	-10.951
入れて	-10.9513
▁ほんの	-10.9513
木に	-10.9514
となるもの	-10.9515
住まい	-10.9517
▁既	-10.9521
▁へい	-10.9522
方へ	-10.9522
をいだく	-10.9523
▁傷	-10.9525
通っている	-10.9526
おかし	-10.9527
ございます	-10.953
限度	-10.9533
に合わない	-10.9533
水平	-10.9533
家来	-10.9534
学校へ	-10.9534
動かない	-10.9537
きざ	-10.9541
思いやり	-10.9542
行け	-10.9542
▁前もって	-10.9543
木製の	-10.9545
▁一番	-10.9546
▁反対	-10.9546
もなかった	-10.9546
決めること	-10.9548
それより	-10.9549
わび	-10.9549
▁ああ	-10.9551
▁すべて	-10.9554
重ね	-10.9556
さば	-10.9557
▁最近	-10.9558
で買う	-10.9558
あけた	-10.9559
党の	-10.9563
困難な	-10.9566
使える	-10.9567
▁昨夜	-10.9568
ばかりだ	-10.9569
個の	-10.957
の女性	-10.9571
時節	-10.9573
呼んで	-10.9575
しゅ	-10.9576
てやる	-10.9577
こけ	-10.958
口が	-10.9581
安楽	-10.9582
▁ごく	-10.9583
すえ	-10.9588
ものもある	-10.959
日本では	-10.959
気力	-10.959
仕方がない	-10.9592
誰	-10.9592
▁稲	-10.9595
打者	-10.9598
を唱える	-10.9601
はある	-10.9601
心配事	-10.9601
ぶらぶら	-10.9602
▁電車	-10.9607
▁ちょっと電話をかける	-10.9609
ようだった	-10.9614
度合	-10.9615
立候補	-10.9619
先生の	-10.9621
してくれる	-10.9622
ヘ	-10.9623
用品	-10.9627
労働組合	-10.9628
決めた	-10.9628
家から	-10.9632
は皆	-10.9633
詳しく	-10.9634
握り	-10.9634
注射	-10.9636
本を読む	-10.9636
スミス	-10.9637
を下す	-10.9638
疑問	-10.9639
両方	-10.9639
ミサイル	-10.964
解決する	-10.9644
碁	-10.9645
て作った	-10.9646
憲法	-10.9646
悪魔	-10.9648
クラ	-10.9649
医療	-10.9649
▁割り	-10.965
▁空腹	-10.965
▁蚊	-10.965
▁読書	-10.9652
大部分	-10.9652
一人の	-10.9652
▁月の	-10.9654
▁遠く	-10.9654
▁荷物	-10.9655
増し	-10.9657
猿	-10.9658
大分	-10.9661
水泳	-10.9662
の品	-10.9662
どん	-10.9664
奏者	-10.9665
で死ぬ	-10.9666
るほど	-10.9667
救急車呼びに電話	-10.9668
▁一体	-10.9669
in	-10.9671
いまから電話かける	-10.9672
ではないが	-10.9673
はん	-10.9675
が少し	-10.9678
すぐに電話をかける	-10.9678
くみ	-10.9679
多分	-10.9681
▁彼は英語	-10.9685
中です	-10.9685
の席	-10.9685
立てること	-10.9687
染める	-10.9687
▁立	-10.9688
▁浅	-10.969
こともある	-10.969
輩	-10.9697
の型	-10.9698
▁仕	-10.9702
全国	-10.9704
説明する	-10.9704
いい加減	-10.9705
その事	-10.9706
拾い	-10.9708
馬の	-10.9708
ままに	-10.9711
あがる	-10.9711
開ける	-10.9715
▁彼は彼女に	-10.9715
▁水が	-10.9716
恐	-10.9716
▁結局	-10.9716
採用	-10.9717
囚人	-10.9721
煩	-10.9722
さめ	-10.9723
飽	-10.9724
聖人	-10.9724
▁会議	-10.9728
▁S	-10.9728
与えること	-10.973
帳簿	-10.973
っちり	-10.9732
比例	-10.9733
話は	-10.9734
聞いた	-10.9735
を向ける	-10.9737
砕	-10.9738
選び	-10.9739
▁現在の	-10.974
吹	-10.9741
アウト	-10.9743
それをする	-10.9745
にすぎない	-10.9746
許し	-10.9747
▁民間	-10.9747
はしばしば	-10.9748
パイプ	-10.9749
ものとして	-10.9751
をもらう	-10.9751
滞在	-10.9755
▁世の中	-10.9756
倒れる	-10.9757
心は	-10.9758
が低い	-10.9758
▁景気	-10.9759
▁野球	-10.976
▁明るい	-10.976
けん	-10.9764
それだけ	-10.9765
ありがとう	-10.9766
まじめ	-10.9766
攻	-10.9766
体系	-10.9768
人人の	-10.9768
慣れ	-10.9771
古くから	-10.9772
▁訴訟	-10.9773
地中に	-10.9776
光る	-10.9778
珠	-10.9778
経過	-10.978
酒を飲む	-10.978
▁鶏	-10.9781
地位に	-10.9781
磨	-10.9782
火災	-10.9782
外側	-10.9783
が集まって	-10.9785
耕	-10.9785
のほか	-10.9786
▁多数の	-10.9786
込んでいる	-10.9787
▁勘定	-10.9788
をもたらす	-10.9789
そっくり	-10.9789
どうか	-10.979
フライ	-10.979
ルート	-10.9792
すごく	-10.9793
消費	-10.9793
技芸	-10.9793
忠	-10.9795
違	-10.9795
用いられる	-10.9796
四つ	-10.9797
▁飛び	-10.9797
けれど	-10.9798
▁そうじゃな	-10.9799
背中	-10.98
争う	-10.9801
郎	-10.9801
歌舞伎	-10.9803
爵	-10.9803
閲	-10.9805
まとまった	-10.9805
祖父	-10.9806
秀	-10.9806
曹	-10.9807
免許	-10.9807
渦	-10.9808
捕虜	-10.9808
崇拝	-10.9808
姉妹	-10.9808
はいけません	-10.9809
釘	-10.9809
桁	-10.9809
ダイヤモンド	-10.9809
陵	-10.9809
ウサギ	-10.9809
デザイン	-10.9809
繋	-10.9809
紹介	-10.9809
▁for	-10.9809
凌	-10.9809
悗	-10.9809
皇后	-10.9809
の異称	-10.9809
脅迫	-10.9809
サイズ	-10.9809
スペイン	-10.9809
庶民	-10.9809
修繕	-10.9809
タイム	-10.9809
▁群	-10.981
当事者	-10.981
多量の	-10.981
にかなう	-10.981
詳細	-10.981
渡辺	-10.981
議決	-10.981
に比べて	-10.9811
民主主義	-10.9811
突起	-10.9811
豆腐	-10.9811
さわ	-10.9812
ブル	-10.9812
によらず	-10.9812
うそをつく	-10.9813
育つ	-10.9813
原始	-10.9814
それ以上	-10.9815
衆生	-10.9815
撃ち	-10.9816
産卵	-10.9817
よりどころ	-10.9817
があります	-10.9817
交代	-10.9818
学部	-10.9819
刺し	-10.982
誓う	-10.982
近ごろ	-10.982
機械の	-10.9821
風刺	-10.9821
を使い	-10.9822
こぶし	-10.9823
身振り	-10.9823
無駄	-10.9824
樹皮	-10.9824
体格	-10.9825
占領	-10.9826
決して	-10.9826
薬剤	-10.9828
遊ぶ	-10.9828
伝言	-10.9828
特色	-10.9829
解剖	-10.983
ああ	-10.9833
▁はしご	-10.9834
きまった	-10.9834
ということは	-10.9836
寝室	-10.9836
ドイツ語	-10.9839
▁衣服	-10.9839
年ごろ	-10.9841
固い	-10.9842
図形	-10.9844
目方	-10.9845
▁りょう	-10.9846
それをした	-10.9846
ことができた	-10.9849
ことば	-10.9852
▁独り	-10.9852
確認	-10.9854
▁びん	-10.9855
点を	-10.9856
有利な	-10.9856
湿気	-10.986
境地	-10.986
眠っている	-10.9863
奇妙な	-10.9865
に出ている	-10.9866
はみな	-10.9867
頭部	-10.9875
▁遊び	-10.9875
によって起こる	-10.9875
ばな	-10.9876
その日	-10.9878
飾	-10.9878
主要な	-10.9879
親切な	-10.988
どっと	-10.988
本位	-10.988
ちょっと電話する	-10.9881
を下げる	-10.9882
疲れた	-10.9883
物事をする	-10.9888
並べて	-10.989
歳の	-10.9891
訴訟	-10.9895
伝わる	-10.9897
▁どうして	-10.9898
べた	-10.9899
見ると	-10.9899
犬を	-10.9899
彼女が	-10.99
通ずる	-10.9902
せて	-10.9904
怒る	-10.9906
農家	-10.9909
どのように	-10.9909
▁流れ	-10.991
▁水中	-10.9915
を書いた	-10.9915
時々	-10.9916
診断	-10.9917
輸入	-10.9918
続けた	-10.9919
清水	-10.992
親子	-10.992
▁投	-10.9923
にしておく	-10.9925
変更	-10.9925
神の	-10.9925
花火	-10.9926
に入れ	-10.9927
で使う	-10.9927
形を	-10.9929
知れない	-10.9929
青色	-10.993
▁夜間	-10.9932
行ける	-10.9934
そうなる	-10.9934
会った	-10.9934
水に	-10.9934
▁その問題は	-10.9935
▁ローマ	-10.9936
▁神の	-10.9937
書面	-10.9937
でん	-10.994
▁教	-10.9941
の部屋	-10.9941
▁乗り	-10.9941
個個の	-10.9943
きび	-10.9945
年末	-10.9949
▁情	-10.9951
抱え	-10.9952
▁馬の	-10.9954
降りる	-10.9954
が悪いこと	-10.9956
じきに	-10.996
▁仲	-10.996
▁理	-10.9965
かたち	-10.9966
ダイ	-10.9966
礼服	-10.9967
しも	-10.9969
▁それでは	-10.9969
くし	-10.9969
紅色	-10.9971
▁今の	-10.9972
▁麻	-10.9972
こむこと	-10.9973
▁金を	-10.9973
学年	-10.9974
向かう	-10.9974
除け	-10.9974
生きる	-10.9976
宴	-10.998
▁土地の	-10.998
休む	-10.9982
かおり	-10.9982
女中	-10.9982
とりで	-10.9983
かなかった	-10.9984
▁使い	-10.9987
めく	-10.9987
のあるもの	-10.9989
押して	-10.9989
探	-10.9989
▁彼はそれを	-10.999
重み	-10.9992
にかかっている	-10.9995
致しま	-10.9996
の一番	-10.9998
悪いこと	-11
▁紅	-11.0001
は一	-11.0002
▁正直	-11.0003
知性	-11.0007
ここで	-11.0008
のうちで	-11.0008
商品を	-11.0008
冒険	-11.0009
薬を	-11.0009
電球	-11.0009
塗った	-11.0014
トレ	-11.0014
しまって	-11.0016
つば	-11.0016
つぶし	-11.0017
月の	-11.0018
を忘れ	-11.0022
一座	-11.0022
などのために	-11.0023
買って	-11.0024
▁一時	-11.0026
とめること	-11.003
候補	-11.0032
り込む	-11.0034
を敷く	-11.0034
攻撃する	-11.0034
年金	-11.0036
ようになっている	-11.0036
I	-11.0036
煮え	-11.0038
にあり	-11.0038
有毒	-11.0038
極めて	-11.0039
鋼鉄	-11.0039
▁インフレ	-11.004
快楽	-11.0044
に終わる	-11.0045
の時に	-11.0046
▁長期	-11.0046
▁受け	-11.0046
だま	-11.0047
受け取る	-11.0047
▁切	-11.0049
欲しい	-11.005
▁空中	-11.0051
英語の	-11.0053
補助	-11.0055
だれか	-11.0055
吸	-11.0056
じま	-11.0056
たちまち	-11.0057
▁モ	-11.0059
を離れて	-11.0063
▁豆	-11.0064
の三	-11.0065
▁貸し	-11.0065
は私に	-11.0066
▁議会	-11.0066
の外	-11.0067
見当	-11.0067
強硬	-11.007
奉仕	-11.0071
動力	-11.0071
闇	-11.0071
▁城	-11.0073
▁地下	-11.0073
あだ	-11.0074
連れて	-11.0074
すね	-11.0076
ーン	-11.0077
▁この種の	-11.0077
▁りんご	-11.0079
とんでもない	-11.008
▁おお	-11.008
品を	-11.0081
森林	-11.0081
一般の	-11.0083
軍艦	-11.0083
可	-11.0084
競馬	-11.0087
ものはない	-11.0087
固体	-11.0088
いで	-11.009
納得	-11.0091
▁受	-11.0091
▁机	-11.0091
気風	-11.0092
二つ以上の	-11.0093
▁恐怖	-11.0093
記念	-11.0094
心臓	-11.0097
乗客	-11.0097
自分に	-11.0098
三十	-11.0099
グラフ	-11.01
するもの	-11.0101
▁広く	-11.0103
じゃま	-11.0105
土を	-11.0106
の頭	-11.0106
▁すぐに電話かける	-11.0107
▁彼は今	-11.0107
おさめ	-11.0107
すぐに電話したい	-11.0108
人類	-11.011
申し込み	-11.0119
▁国家の	-11.0121
を捜す	-11.0122
分けること	-11.0123
に着いた	-11.0123
やけ	-11.0123
中国で	-11.0123
▁給料	-11.0124
一人で	-11.0126
選択	-11.0128
しそう	-11.0131
ようとして	-11.0137
建てた	-11.014
五十	-11.014
▁向こう	-11.0141
ないでください	-11.0141
振る	-11.0142
▁大衆	-11.0146
▁夕方	-11.0146
酸化	-11.0146
植える	-11.0148
水中	-11.0148
慕	-11.0149
の出	-11.015
美しいこと	-11.0155
言い分	-11.0156
に満ちた	-11.0157
認める	-11.0158
かたい	-11.0158
んでいた	-11.0159
ll	-11.0159
▁ハイ	-11.0159
添	-11.016
まらない	-11.016
その人の	-11.0162
▁何となく	-11.0165
▁割	-11.0166
一方の	-11.0166
だれが	-11.0167
踊る	-11.0174
用に	-11.0174
▁そうだ	-11.0174
な話	-11.0175
をちょっと	-11.0175
ップ	-11.0176
ウイルス	-11.0179
サン	-11.0183
見えた	-11.0183
速さ	-11.0184
磁	-11.0185
▁書物の	-11.0185
醜	-11.0185
災	-11.0186
の準備	-11.0188
吉	-11.0188
良心	-11.0189
▁あれは	-11.0189
維持	-11.0189
変化する	-11.0193
▁盛	-11.0194
面に	-11.0195
▁たとえ	-11.0196
状態で	-11.0196
あとから	-11.0197
演奏する	-11.0197
収集	-11.0198
に思う	-11.0198
締まった	-11.0198
洞	-11.0199
敏	-11.0199
簿	-11.0201
節約	-11.0201
ェ	-11.0202
引用	-11.0202
▁従	-11.0202
どうしても	-11.0202
糧	-11.0204
芳香	-11.0204
惜	-11.0204
ふち	-11.0205
撮影	-11.0206
燐	-11.0206
藤	-11.0207
希	-11.0207
瞭	-11.0207
蓮	-11.0207
廃止	-11.0207
旬	-11.0208
監視	-11.0208
資源	-11.0209
笠	-11.0209
宵	-11.0209
蛾	-11.0209
遍	-11.0209
椶	-11.0209
北海道	-11.0209
柿	-11.0209
動揺	-11.0209
桶	-11.0209
鮓	-11.0209
颪	-11.0209
散らす	-11.0209
▁町の	-11.0209
たての	-11.0209
の持ち主	-11.0209
領域	-11.021
を伴う	-11.021
漢方薬	-11.021
叩き	-11.021
警告	-11.021
接触	-11.0211
徹底的に	-11.0211
討議	-11.0211
超過	-11.0211
直径	-11.0211
登録	-11.0211
ヒット	-11.0211
往来	-11.0213
カラー	-11.0213
弁舌	-11.0213
▁偶然	-11.0213
付近	-11.0213
を有する	-11.0214
石けん	-11.0214
炭素	-11.0215
運営	-11.0215
やわらかい	-11.0215
戻す	-11.0215
を奪う	-11.0215
茶わん	-11.0216
飲んだ	-11.0223
赤ちゃん	-11.0224
を固める	-11.0224
自治	-11.0225
を伸ばす	-11.0225
外観	-11.0226
上位	-11.0226
煮た	-11.0228
雇用	-11.0228
▁この車は	-11.0229
会談	-11.023
▁車は	-11.0232
台風	-11.0232
トロ	-11.0233
街道	-11.0234
正確な	-11.0236
磁石	-11.0237
延べ	-11.0237
質量	-11.0237
情熱	-11.0238
代表的な	-11.024
またその人	-11.0243
フランス	-11.0243
それをする人	-11.0244
を聞いた	-11.0244
▁病人	-11.0245
はじめて	-11.0247
仕上げる	-11.0247
相違	-11.0249
刻み	-11.025
焦げ	-11.025
山林	-11.0252
客に	-11.0252
洗礼	-11.0254
に答える	-11.0256
ついに	-11.0256
ぐっと	-11.0258
中から	-11.0258
骨折り	-11.0259
▁晩	-11.0259
落葉	-11.0263
大使	-11.0263
▁甲	-11.0264
切れる	-11.0265
▁実験	-11.0266
地所	-11.0267
名称	-11.0267
割引	-11.0267
みつ	-11.0271
入りの	-11.0271
生計	-11.0273
出てきた	-11.0275
取り上げる	-11.0276
すわった	-11.0276
麻薬	-11.0277
馬車	-11.0277
現世	-11.0277
めぐり	-11.0277
臭気	-11.0278
目的地	-11.028
並べた	-11.0281
▁子供	-11.0281
巧みな	-11.0282
支払う	-11.0285
並んで	-11.0286
が同じ	-11.0287
栽培する	-11.0291
を支配する	-11.0293
▁人民	-11.0297
▁人工	-11.0298
を作って	-11.0299
なくても	-11.0299
ばかな	-11.03
ところを	-11.0301
土地を	-11.0303
を増す	-11.0303
いかない	-11.0303
の第	-11.0304
巧みに	-11.0307
ファン	-11.031
おうと	-11.031
のしかた	-11.0311
とされる	-11.0311
に訴える	-11.0312
に多く	-11.0314
ぐさ	-11.032
▁競	-11.032
リスト	-11.0321
▁何の	-11.0321
長官	-11.0322
▁独	-11.0322
マイ	-11.0323
▁可	-11.0324
精神的	-11.0326
費用を	-11.033
▁わき	-11.0331
周囲に	-11.0332
▁医者	-11.0332
▁ポ	-11.0333
を得て	-11.0343
の間を	-11.0349
まっすぐ	-11.0349
正式に	-11.0349
添え	-11.0353
法定	-11.0354
▁大勢	-11.0356
▁しゅ	-11.0357
関数	-11.0357
意地悪	-11.0358
は非常に	-11.0361
た人	-11.0363
を組む	-11.0365
▁うまく	-11.0365
▁新たに	-11.0366
とった	-11.0366
▁飛行機	-11.0366
▁熟	-11.0367
▁トランプ	-11.0369
へりくだって言う語	-11.0374
はお	-11.0375
香気	-11.0376
直接に	-11.0377
▁高い	-11.038
去った	-11.0383
もとになる	-11.0385
金の	-11.0387
に従事する	-11.0389
登	-11.039
追放	-11.0392
乗り物	-11.0395
に応じる	-11.0397
伸びる	-11.0403
だと思う	-11.0403
たたく	-11.0406
アン	-11.0406
すら	-11.0406
立ち去る	-11.0406
ものであること	-11.0408
議事	-11.0409
服従	-11.041
昇進	-11.0411
剥	-11.0415
ふさが	-11.0416
ように見える	-11.0417
先が	-11.0417
作ったもの	-11.0418
うる	-11.0422
と言い	-11.0424
窓から	-11.0426
▁猛	-11.0428
くさい	-11.0429
を傷つける	-11.0429
等しい	-11.0431
我々を	-11.0431
うんざり	-11.0435
地下	-11.0435
報い	-11.0438
▁折	-11.0442
呼	-11.0442
覚えている	-11.0443
斜面	-11.0444
ことには	-11.0447
▁川の	-11.0448
を隠す	-11.0449
動脈	-11.045
煮る	-11.0451
▁裁判	-11.0451
似た	-11.0453
を振る	-11.0456
▁夏の	-11.0456
返る	-11.0457
まち	-11.0458
誘惑	-11.0459
の形式	-11.0461
▁近代	-11.0461
はだめだ	-11.0465
▁あの人の	-11.047
▁ユ	-11.0471
たまった	-11.0472
流す	-11.0475
物音	-11.0476
▁ぶどう	-11.0476
▁水上	-11.0477
要点	-11.0477
再生	-11.0478
バイ	-11.0479
さまざま	-11.0479
▁プロ	-11.048
ようにすること	-11.0484
25	-11.0485
共同	-11.0486
▁掛け	-11.0487
変わらない	-11.0488
このごろ	-11.0491
▁わが国	-11.0492
ばかりで	-11.0492
ためしに	-11.0492
キリスト	-11.0494
の意見	-11.0496
▁実際の	-11.0497
▁国会	-11.0498
▁軍事	-11.05
依頼	-11.0501
▁幼	-11.0503
下り	-11.0503
ぶつ	-11.0503
▁はっきりと	-11.0505
かわい	-11.0508
▁標準	-11.051
わずかな	-11.0511
▁堅	-11.0512
守ること	-11.0513
償	-11.0515
タイプ	-11.0516
浜	-11.0516
▁悲しみ	-11.0517
▁英語の	-11.0518
つくった	-11.0521
を持たない	-11.0522
粗末な	-11.0522
誕生日	-11.0523
膝	-11.0523
礼拝	-11.0524
小道	-11.0525
危	-11.0525
礼儀	-11.0526
貧困	-11.0526
▁速	-11.0528
に働く	-11.053
を見つける	-11.053
を忘れる	-11.0531
禅	-11.0531
お世辞	-11.0531
昼食	-11.0532
仙	-11.0533
総合	-11.0534
を詰める	-11.0535
恋愛	-11.0537
巨	-11.0537
ちょうどよい	-11.0537
文芸	-11.0539
▁沈	-11.0542
対抗	-11.0544
▁古代	-11.0544
暴力	-11.0546
規	-11.0547
生える	-11.0549
透	-11.055
いまから電話をかける	-11.055
▁違います	-11.0551
ある人	-11.0552
隔	-11.0554
用事	-11.0557
飾る	-11.056
を寄せる	-11.0562
▁上着	-11.0562
気づか	-11.0563
刑事	-11.0563
発生する	-11.0563
▁猫は	-11.0565
出世	-11.0567
蒸気	-11.0567
スキー	-11.0569
舞い	-11.0569
ゼ	-11.0569
▁羽	-11.0569
がっている	-11.0573
複雑	-11.0575
許す	-11.0576
万物	-11.0576
合併	-11.0577
金を使う	-11.0578
▁全体	-11.0579
▁準	-11.0579
▁彼は病気	-11.0579
借りた	-11.0582
続け	-11.0583
何度も	-11.0585
▁ほかの	-11.0585
賛	-11.0587
を貸す	-11.0588
▁貧	-11.0589
をあけて	-11.0592
▁食糧	-11.0594
ジャ	-11.0594
▁逃げ	-11.0594
制服	-11.0595
▁まったくの	-11.0601
長所	-11.0603
▁商品	-11.0603
巻く	-11.0604
拠	-11.0605
の建物	-11.0608
っていく	-11.0608
儒	-11.0609
うわべ	-11.061
▁すべての	-11.061
死体	-11.0611
斜	-11.0612
なくてはならない	-11.0614
なしで	-11.0614
一文	-11.0614
▁からだ	-11.0615
▁me	-11.0615
▁人種	-11.0615
偶	-11.0617
の中には	-11.0617
伝えること	-11.0617
のではない	-11.0617
僚	-11.0619
鑑	-11.0619
団結	-11.0619
側面	-11.0619
由	-11.0619
兆	-11.062
河川	-11.062
模範	-11.0621
括	-11.0621
江	-11.0621
死を	-11.0622
邸	-11.0623
▁it	-11.0623
れんが	-11.0624
サラダ	-11.0624
石灰	-11.0624
誌	-11.0624
駿	-11.0625
開始	-11.0625
を祝う	-11.0625
櫃	-11.0625
詐欺	-11.0625
疑わしい	-11.0625
にもかかわらず	-11.0625
督	-11.0625
嵐	-11.0625
ゾ	-11.0625
佳	-11.0625
屑	-11.0625
直美さん	-11.0626
鮗	-11.0626
唾	-11.0626
鷲	-11.0626
落ち着かない	-11.0626
せっけん	-11.0626
適応	-11.0626
▁フランス	-11.0626
広がり	-11.0626
余裕	-11.0626
拒絶	-11.0626
天地	-11.0626
採決	-11.0626
思慮	-11.0626
プール	-11.0627
移植	-11.0627
供養	-11.0627
土壌	-11.0627
冷却	-11.0627
審理	-11.0627
断わる	-11.0627
麻酔	-11.0627
起訴	-11.0628
を高める	-11.0628
詳しい	-11.0629
ダム	-11.0629
あな	-11.0629
陣営	-11.0629
弁当	-11.0629
セ氏	-11.0629
談判	-11.0629
感想	-11.063
ならわし	-11.063
定まった	-11.0631
の成績	-11.0631
諸島	-11.0631
追跡	-11.0632
推論	-11.0632
っていった	-11.0632
配給	-11.0633
一心に	-11.0634
指示	-11.0634
科の鳥	-11.0634
まともに	-11.0635
間に合う	-11.0635
色彩	-11.0635
ペンス	-11.0635
何時間も	-11.0636
共有	-11.0636
までの間	-11.0636
画像	-11.0637
祖先	-11.0637
けれども	-11.0637
働いている	-11.0637
▁魔	-11.0637
▁葉	-11.0639
▁子供を	-11.0639
▁竜	-11.064
を振るう	-11.064
善悪	-11.0643
中国原産	-11.0643
日付	-11.0644
自在	-11.0644
▁値段	-11.0645
どうやって	-11.0645
奥さん	-11.0645
▁液体	-11.0647
気象	-11.0648
外国人	-11.0649
校長	-11.065
▁借金	-11.0652
かせ	-11.0652
なぜ	-11.0653
毛布	-11.0656
は彼が	-11.0656
設ける	-11.0656
▁相撲	-11.0658
一気に	-11.0658
やってくる	-11.0659
▁手紙を	-11.066
氏名	-11.0662
早春	-11.0663
料理屋	-11.0664
▁干	-11.0665
重なる	-11.0667
親しい	-11.0667
出さない	-11.0669
▁子供の	-11.0669
かぎり	-11.067
は必ず	-11.067
を過ごす	-11.0671
は我々	-11.0672
ってくれ	-11.0673
責め	-11.0673
一族	-11.0674
に向けて	-11.0675
金は	-11.0676
ねらい	-11.0677
子孫	-11.0677
スク	-11.0677
パス	-11.0677
お宅	-11.0678
破り	-11.0682
交差	-11.0682
こな	-11.0683
を犯す	-11.0684
するだろう	-11.0685
あける	-11.0686
に当たった	-11.0687
木の枝	-11.0688
酸性	-11.069
音を立てる	-11.0694
存する	-11.0694
巻いた	-11.0695
ar	-11.0696
子供が	-11.0697
用法	-11.0698
▁壁に	-11.07
出ている	-11.07
落とした	-11.07
になるもの	-11.0702
▁やっと	-11.0703
数の	-11.0706
の身	-11.0706
どうした	-11.0707
発車	-11.0711
両面	-11.0711
▁海外	-11.0712
大事に	-11.0714
▁男の	-11.0714
退く	-11.0714
だけだった	-11.0715
の病気	-11.0716
やってみ	-11.0717
▁賃金	-11.0718
送ること	-11.0719
専門家	-11.072
成り	-11.072
▁二つ以上の	-11.0722
▁キリスト教	-11.0723
▁ろう	-11.0724
ご親切	-11.0727
代わりに	-11.0728
テレビで	-11.0729
遠くまで	-11.0729
食べて	-11.0729
▁笑い	-11.0732
公正	-11.0732
▁観	-11.0733
の少ない	-11.0735
の一人	-11.0738
▁機会	-11.0741
とかく	-11.0744
ぬけ	-11.0744
飲み物	-11.0745
▁以前	-11.0745
▁彼らが	-11.0747
すわり	-11.0748
ざる	-11.0748
▁その計画は	-11.0749
▁次	-11.0749
るために	-11.0751
を消す	-11.0753
定めること	-11.0756
ガン	-11.0757
去ること	-11.0758
▁市場	-11.0759
国民の	-11.0761
締	-11.0763
学校で	-11.0764
口調で	-11.0764
太く	-11.0765
字形	-11.0768
合金	-11.077
所がある	-11.0772
当地	-11.0772
いまから電話する	-11.0773
▁この仕事は	-11.0774
▁早く	-11.0775
全面	-11.0775
そこまで	-11.0777
できません	-11.0777
▁そいつは	-11.078
つかない	-11.078
▁奉	-11.0781
▁人気	-11.0781
の布	-11.0783
帰って	-11.0784
川の	-11.0786
▁天皇が	-11.0786
は君	-11.0789
ほし	-11.0789
割合	-11.079
暗やみ	-11.0791
しています	-11.0791
▁食卓	-11.0792
▁あす	-11.0793
は私には	-11.0795
をひどく	-11.0796
を置いて	-11.0797
▁水泳	-11.0798
差し出す	-11.0798
▁年の	-11.0801
きたない	-11.0802
▁強い	-11.0802
もく	-11.0806
個人の	-11.0807
を言い	-11.0809
を覆う	-11.081
太り	-11.0811
▁踏み	-11.0812
▁君たち	-11.0812
新年	-11.0816
an	-11.0816
大体の	-11.082
純粋	-11.082
停車	-11.0825
家で	-11.0826
故	-11.083
▁売	-11.0832
アメリカ人	-11.0832
対等	-11.0832
ひた	-11.0833
キス	-11.0836
が激しく	-11.0836
に耐える	-11.0839
▁中国の	-11.0841
憲	-11.0841
の妻	-11.0842
▁本を	-11.0843
を聞き	-11.0845
▁飛	-11.0846
ずり	-11.0847
▁全部	-11.0847
れていた	-11.0848
▁風は	-11.0848
受け入れる	-11.0849
千人	-11.085
遇	-11.0853
いすに	-11.0853
社会主義	-11.0854
いれる	-11.0854
▁中央	-11.0855
▁筋肉	-11.0855
腫	-11.0857
▁ほう	-11.0857
メッセージをちょっと	-11.0858
狭く	-11.0858
▁八	-11.0859
を伝える	-11.0876
にわか	-11.0876
安く	-11.0879
と思っていた	-11.0882
目下	-11.0884
▁食事	-11.0884
そく	-11.0888
がいる	-11.0891
いか	-11.0891
魚の	-11.0892
ものを言う	-11.0892
抜け出	-11.0894
近づく	-11.0894
に直接	-11.0898
もって	-11.0899
離れた	-11.0901
品位	-11.0905
▁ボ	-11.0909
おち	-11.091
真の	-11.0912
枯	-11.0912
意を表す	-11.0914
喜	-11.0916
―	-11.0917
マス	-11.0919
学ぶ	-11.092
をもった	-11.092
されていない	-11.092
務め	-11.0923
争うこと	-11.0923
▁助	-11.0923
▁勢い	-11.0924
ボートを	-11.0926
▁順序	-11.0927
毛織物	-11.0928
かけら	-11.0929
三人	-11.0929
と言っても	-11.0935
▁どうすれば	-11.0935
直すこと	-11.0936
▁会員	-11.0938
▁そんなことは	-11.0938
レン	-11.0938
▁推	-11.0942
焼いて	-11.0944
に見	-11.0944
▁雪が	-11.0947
▁強く	-11.0948
いれ	-11.0948
間を	-11.0949
苦心	-11.0951
回って	-11.0955
調節	-11.0958
本来の	-11.0959
他国	-11.0959
すわって	-11.0959
腕に	-11.0961
多いこと	-11.0963
学説	-11.0964
▁汗	-11.0964
図書	-11.0966
を振り	-11.0967
ぜいたく	-11.0971
テレビの	-11.0974
にふさわしい	-11.0974
▁産	-11.0975
痛む	-11.0976
▁時計を	-11.0978
▁ある人	-11.0981
求める	-11.0981
を始めた	-11.0981
工作	-11.0988
▁だれかが	-11.0989
▁皇	-11.0991
▁□・	-11.0991
すべり	-11.0994
を催す	-11.0994
▁三角	-11.0995
▁カーテン	-11.0995
at	-11.0996
硬	-11.0998
統計	-11.1
わずかの	-11.1
故郷	-11.1004
民衆	-11.1004
初期	-11.1005
たって	-11.1007
▁うわさ	-11.1008
世に	-11.1009
達也	-11.101
▁張り	-11.101
指で	-11.101
頬	-11.101
拙	-11.1011
の法則	-11.1011
電信	-11.1011
お辞儀	-11.1011
を引き起こす	-11.1011
傍	-11.1012
井戸	-11.1012
気持が	-11.1012
▁うそ	-11.1015
賞賛	-11.1015
充	-11.1016
担当	-11.1017
弁解	-11.1018
学期	-11.102
みせ	-11.1021
りょう	-11.1021
トンネル	-11.1021
▁特別に	-11.1021
楽に	-11.1022
陸軍	-11.1022
佐	-11.1024
仏像	-11.1024
の高さ	-11.1025
の命令	-11.1026
うそつき	-11.1028
役割	-11.1029
まっている	-11.1029
をしない	-11.103
▁鉛筆	-11.103
▁大声で	-11.1032
パーティーに	-11.1032
▁拝	-11.1032
患	-11.1033
返り	-11.1033
▁ねじ	-11.1035
遅刻	-11.1036
光の	-11.1038
異議	-11.1038
漆	-11.104
楽しむ	-11.104
告げ	-11.104
ままで	-11.1041
就	-11.1041
寿	-11.1043
一生懸命	-11.1044
を表す語	-11.1046
てもらいたい	-11.1047
ーション	-11.1047
巾	-11.1048
▁照	-11.1048
架	-11.1049
及	-11.1049
久子さん	-11.105
軌	-11.105
もてなす	-11.105
謡	-11.1051
援	-11.1052
▁不思議な	-11.1052
かかっている	-11.1053
釈	-11.1053
規準	-11.1054
ヨット	-11.1054
為替	-11.1055
教室	-11.1055
▁手紙の	-11.1056
改良	-11.1057
意思	-11.1057
頻	-11.1057
己	-11.1058
諾	-11.1058
▁休暇	-11.1059
辱	-11.1059
裕子	-11.1059
篤	-11.106
省略	-11.106
糊	-11.106
撫	-11.106
焦点	-11.106
オランダ	-11.106
ヲ	-11.106
配偶者	-11.106
ジョーンズ	-11.106
鮨	-11.106
疲労	-11.106
に適した	-11.106
センター	-11.106
蟻	-11.106
茶碗	-11.106
宣誓	-11.106
プログラム	-11.1061
こつこつ	-11.1061
俸給	-11.1061
稽古	-11.1061
暖房	-11.1061
ぼろぼろ	-11.1061
企画	-11.1061
開閉	-11.1061
やかましい	-11.1061
ジャック	-11.1062
▁捨て	-11.1062
阿部さん	-11.1062
起伏	-11.1062
ダブル	-11.1062
感染	-11.1062
チュ	-11.1062
1000	-11.1062
迷信	-11.1062
住居	-11.1063
弦楽器	-11.1063
返答	-11.1063
ほほえみ	-11.1063
助かる	-11.1063
水晶	-11.1063
融通	-11.1063
孝行	-11.1063
給仕	-11.1063
宮殿	-11.1063
肺炎	-11.1063
羽織	-11.1063
航路	-11.1063
しきたり	-11.1064
法人	-11.1064
暴風雨	-11.1064
敗北	-11.1064
たいへん	-11.1064
バンド	-11.1064
わがまま	-11.1064
▁酒を	-11.1064
測量	-11.1065
講師	-11.1065
に基づく	-11.1065
▁手紙	-11.1065
英語を話す	-11.1065
学識	-11.1066
あわてて	-11.1066
牧師	-11.1066
道ばた	-11.1067
旅館	-11.1068
おば	-11.1068
別称	-11.1069
女優	-11.1069
およそ	-11.1069
社会の	-11.1069
握手	-11.107
熱狂	-11.107
すこし	-11.107
警報	-11.107
を言った	-11.1071
集める	-11.1072
寂しい	-11.1072
の祝い	-11.1073
特性	-11.1073
うちわ	-11.1075
面から	-11.1075
同じであること	-11.1075
南部	-11.1075
を離れる	-11.1076
高等	-11.1077
領地	-11.1077
複数	-11.1079
艦船	-11.1079
うまくいった	-11.108
微妙な	-11.108
▁私は彼に	-11.1081
神秘	-11.1081
退職	-11.1081
合わせること	-11.1083
てゆく	-11.1083
側に	-11.1083
▁金属	-11.1084
▁相手に	-11.1084
判事	-11.1086
えている	-11.1086
化石	-11.1087
大切	-11.1089
小銃	-11.1089
好機	-11.1091
▁精神的	-11.1091
まじり	-11.1093
▁重い	-11.1093
二階	-11.1093
万ドル	-11.1094
馴れ	-11.1096
あす	-11.1096
うた	-11.1096
案外	-11.1098
努力して	-11.11
同様	-11.1101
ことがない	-11.1101
済む	-11.1102
寄	-11.1103
▁陸軍	-11.1104
不快	-11.1105
必要である	-11.1105
試	-11.1107
ずること	-11.1107
香り	-11.1111
指名	-11.1112
紅葉	-11.1112
▁頭を	-11.1112
あえ	-11.1112
▁少年	-11.1112
にせ	-11.1114
ぬれ	-11.1119
ふるい	-11.1119
の場合	-11.1119
んぼ	-11.1122
▁伝	-11.1122
よみ	-11.1123
それとも	-11.1124
波が	-11.1125
むり	-11.1126
を越える	-11.1127
水辺	-11.1127
足の	-11.1127
るようにする	-11.1129
体質	-11.113
・△	-11.1131
体つき	-11.1134
時に使う	-11.1135
発達した	-11.1137
染色	-11.1138
通話	-11.1139
▁ぼく	-11.1139
暖か	-11.114
疲れる	-11.1141
を要する	-11.1142
食物を	-11.1142
はしご	-11.1142
▁一年	-11.1143
外国から	-11.1146
かぶり	-11.1147
なのか	-11.1147
を強めて言う	-11.1147
組み合わせ	-11.1149
設け	-11.1152
与えられる	-11.1153
会見	-11.1154
関係がある	-11.1155
むやみに	-11.1155
めい	-11.1155
変わる	-11.1156
て行く	-11.1157
何度	-11.1165
おこす	-11.1165
につくこと	-11.1166
やること	-11.1167
の根	-11.1172
の便	-11.1173
頑	-11.1173
手紙を書く	-11.1175
▁二人	-11.1182
全体が	-11.1186
張って	-11.1188
言論	-11.1189
ばく	-11.119
を与えて	-11.1192
鬚垢	-11.1193
問題だ	-11.1196
果実は	-11.1197
使用する	-11.1198
シン	-11.1198
重さ	-11.12
ブレーキ	-11.1202
信者	-11.1208
▁浄	-11.1212
▁偽	-11.1213
漫画	-11.1215
バン	-11.1216
いろいろと	-11.1216
っちゃ	-11.1217
ずれ	-11.1219
席を	-11.1223
▁つい	-11.1223
動くこと	-11.1224
けり	-11.1224
意外	-11.1225
形成	-11.1226
群がって	-11.123
▁蹴	-11.1231
に代わって	-11.1231
結婚した	-11.1232
行きの	-11.1232
教える	-11.1233
▁月が	-11.1234
二人の	-11.1234
▁平均	-11.1234
クラスの	-11.1235
▁in	-11.1238
を示した	-11.1239
いません	-11.1239
まかせ	-11.1239
大勢の	-11.1241
ボン	-11.1243
うしろ	-11.1244
▁彼女は彼に	-11.1244
整理する	-11.1245
▁ここは	-11.1246
二十	-11.1246
▁ドイツ	-11.1246
前線	-11.1249
を受けている	-11.125
の形に	-11.1256
▁いなか	-11.1258
からぬ	-11.1258
いり	-11.1258
▁凡	-11.1259
▁逸	-11.1265
加える	-11.1266
茶色の	-11.1267
ほめる	-11.1267
時半	-11.1268
ふな	-11.1269
▁列	-11.127
es	-11.1273
の先に	-11.1274
を大きく	-11.1275
の時代	-11.1276
あれこれ	-11.1276
たびに	-11.1277
▁田舎	-11.1277
▁攻撃	-11.128
帰った	-11.1282
文を	-11.1292
を変えること	-11.1296
繰り返して	-11.1296
苗	-11.1297
慎重に	-11.1297
▁島	-11.1303
よけ	-11.1304
につけた	-11.1305
意を表す語	-11.1305
守備	-11.1307
少数	-11.1307
▁宣伝	-11.1308
▁シャ	-11.1309
のように見える	-11.1312
に向かう	-11.1315
に似る	-11.1316
これが	-11.1317
産の	-11.1317
▁ぜひ	-11.1318
本式	-11.1319
荷車	-11.132
働きをする	-11.132
▁予備	-11.1321
は日本	-11.1321
天然	-11.1322
面倒	-11.1325
▁宝	-11.1325
が終わる	-11.1326
骨折	-11.1327
▁ミ	-11.1329
出ない	-11.1329
完全	-11.1333
文字を	-11.1334
効力	-11.1337
に通じ	-11.1338
一等	-11.134
そなえ	-11.1343
▁第一	-11.1346
▁そこに	-11.1346
▁彼はよく	-11.1347
いかに	-11.1349
嫌いだ	-11.135
十字	-11.1351
を並べて	-11.1351
を広げる	-11.1352
▁四つ	-11.1354
一対	-11.1354
の動物	-11.1355
染	-11.1355
対立する	-11.1355
▁建物の	-11.1356
けつ	-11.1357
確かめ	-11.136
芸人	-11.136
の幅	-11.136
いても	-11.1362
不法	-11.1362
向く	-11.1363
作文	-11.1364
▁香	-11.1364
人工	-11.1364
耳を	-11.1364
▁授業	-11.1364
サイ	-11.1365
心中	-11.1368
ゆっくりと	-11.1368
▁皮	-11.1369
よくなる	-11.1377
こび	-11.1378
を流す	-11.1378
▁陰暦	-11.138
▁フォ	-11.1381
貧しい	-11.1383
保つ	-11.1383
載せる	-11.1384
▁頭の	-11.1384
卵を	-11.1385
海面	-11.1386
に分ける	-11.1387
▁いまから電話したい	-11.1387
とれた	-11.139
食事をする	-11.139
現れる	-11.1392
辛	-11.1392
利き	-11.1393
をあける	-11.1393
優劣	-11.1397
酒を	-11.14
下着	-11.14
吐き	-11.14
つもりで	-11.1404
報告書	-11.1405
医者に	-11.1405
るもの	-11.1405
むだな	-11.1406
▁今度	-11.1407
▁静	-11.1409
メッセージちょっと	-11.1409
▁信用	-11.1411
▁引っ	-11.1412
総計	-11.1412
en	-11.1413
▁夫	-11.1413
当選	-11.1414
▁ペン	-11.1415
のがれ	-11.1417
さを	-11.1418
つぐ	-11.1419
造った	-11.1419
▁賞	-11.1422
先端	-11.1423
車に	-11.1424
いやだ	-11.1425
出発する	-11.1428
零	-11.1428
▁何でも	-11.1428
変な	-11.1432
▁六	-11.1432
ことのできる	-11.1433
詩文	-11.1433
長い間	-11.1435
たりすること	-11.1435
▁梅	-11.1436
はやり	-11.1436
押さえ	-11.1437
の口	-11.1438
遅く	-11.144
起こること	-11.1441
テン	-11.1443
を組んで	-11.1445
探検	-11.1445
三角	-11.1447
家畜	-11.1448
驚	-11.1449
斬	-11.1452
ィ	-11.1453
のかたまり	-11.1453
事件を	-11.1454
すべ	-11.1455
の雨	-11.1455
のほかに	-11.1457
つもりです	-11.1459
決まった	-11.146
そのための	-11.1461
堀	-11.1461
慈悲	-11.1466
催し	-11.1468
の世話をする	-11.1468
▁ちょっと電話する	-11.1469
▁返	-11.147
につけて	-11.1474
▁粘土	-11.1475
止ま	-11.1476
▁何も	-11.1477
▁巡	-11.1479
を見つけた	-11.1479
都会	-11.1481
救	-11.1481
をやめて	-11.1482
の内側	-11.1484
熱病	-11.1485
掃	-11.1486
とがめ	-11.1488
気配	-11.1489
▁気の	-11.1489
w	-11.1489
がさ	-11.149
和服	-11.1491
なければいけない	-11.1492
ひろ	-11.1492
殺すこと	-11.1493
惑星	-11.1496
しだ	-11.1497
徹底	-11.1498
鼠	-11.1498
好奇心	-11.1498
▁みかん	-11.1499
▁人は	-11.1499
英語で	-11.15
会計	-11.15
そちら	-11.15
嫁	-11.1501
のうわさ	-11.1501
署	-11.1504
厭	-11.1505
で見る	-11.1505
豪	-11.1506
口をきく	-11.1506
淫	-11.1507
を運ぶ	-11.1507
着物の	-11.1507
祈り	-11.1508
商店	-11.1508
怨	-11.1509
へた	-11.1509
教養	-11.1509
億	-11.1509
衛生	-11.1509
険	-11.151
卑	-11.151
幣	-11.151
慣習	-11.1511
妊娠	-11.1511
純	-11.1511
伊藤	-11.1512
堕落	-11.1512
酌	-11.1513
ッシュ	-11.1513
劼	-11.1513
貧	-11.1513
寛	-11.1513
痴	-11.1513
撰	-11.1514
渇	-11.1514
粛	-11.1514
発揮	-11.1514
はなはだしい	-11.1514
妓	-11.1514
熟練	-11.1514
泊まる	-11.1514
営利	-11.1514
糠	-11.1515
錫	-11.1515
チェス	-11.1515
叉	-11.1515
慾	-11.1515
葦	-11.1515
▁船舶	-11.1515
キツネ	-11.1515
ワイシャツ	-11.1515
瓜	-11.1515
じゃがいも	-11.1515
チャンス	-11.1515
恐ろしさ	-11.1515
廚	-11.1515
讚	-11.1515
January	-11.1515
杭	-11.1515
狐	-11.1515
蝕	-11.1515
×	-11.1515
おもむき	-11.1515
を汚す	-11.1515
鞍	-11.1515
平安時代	-11.1515
システム	-11.1515
セールスマン	-11.1515
ひたすら	-11.1515
審査	-11.1515
燃焼	-11.1515
措置	-11.1515
簡易	-11.1515
スケート	-11.1515
強制	-11.1515
摩擦	-11.1515
形容詞	-11.1516
ソース	-11.1516
工芸	-11.1516
救済	-11.1516
あやまち	-11.1516
装備	-11.1516
類似	-11.1516
加藤	-11.1517
防衛	-11.1517
雨が降る	-11.1517
ユ	-11.1517
あやしい	-11.1517
まあまあ	-11.1517
著しい	-11.1517
砂漠	-11.1517
▁その船は	-11.1517
冷淡	-11.1518
武装	-11.1518
情緒	-11.1518
プラス	-11.1519
にかなった	-11.1519
▁去年	-11.1519
コール	-11.1519
視野	-11.152
々しく	-11.152
調理	-11.152
雌雄	-11.152
電池	-11.152
円満	-11.1521
つくこと	-11.1521
吉田	-11.1522
建造物	-11.1524
各自	-11.1524
辞任	-11.1524
漬物	-11.1525
空港	-11.1525
るところ	-11.1526
▁観光	-11.1527
一日中	-11.1528
おとな	-11.1528
雄弁	-11.1529
コップ	-11.1529
不機嫌	-11.153
▁実際に	-11.153
一時的に	-11.153
ステ	-11.153
倫理	-11.1531
平たく	-11.1531
▁朱	-11.1532
裂く	-11.1532
伴奏	-11.1532
どころか	-11.1533
たとえば	-11.1534
▁彼らは彼を	-11.1534
偉い	-11.1534
が変わる	-11.1535
をひく	-11.1536
食塩	-11.1537
統治	-11.1539
道義	-11.154
海軍	-11.154
千代	-11.154
▁長い間	-11.154
ント	-11.1542
人員	-11.1544
流通	-11.1544
▁あの男	-11.1544
浴び	-11.1544
▁芝居	-11.1545
どれほど	-11.1547
驚いて	-11.1547
育てる	-11.1548
▁蛇	-11.1549
で話す	-11.1549
月給	-11.1549
個ある	-11.1549
▁鉱山	-11.155
伏せ	-11.155
続いている	-11.155
申し立て	-11.1551
組んだ	-11.1551
▁たん	-11.1553
経文	-11.1553
自分たち	-11.1554
悲し	-11.1555
さつ	-11.1556
半分に	-11.1556
へたな	-11.1557
打った	-11.156
含み	-11.1561
を養う	-11.1561
いも	-11.1561
出来る	-11.1562
田氏	-11.1563
▁彼は自分が	-11.1563
記憶力	-11.1563
はだれも	-11.1564
批評家	-11.1564
光沢	-11.1565
偽り	-11.1566
毛糸	-11.1566
もっともな	-11.1567
▁そら	-11.1568
協会	-11.1568
向上	-11.1568
▁手を	-11.1569
見張り	-11.1569
▁林	-11.1569
の内部	-11.157
ぞう	-11.157
所在	-11.157
こじき	-11.157
延び	-11.1571
課税	-11.1574
▁彼女はいつも	-11.1576
刊行	-11.1577
目盛り	-11.1578
わが国	-11.1579
が多くて	-11.1582
へと	-11.1584
なんと	-11.1587
書かれた	-11.1587
戦線	-11.1588
その本を	-11.1589
専用	-11.1589
おかね	-11.1595
万人	-11.1595
をねらって	-11.1595
認め	-11.1595
の壁	-11.1597
を打って	-11.1598
現状	-11.1598
▁トラック	-11.1599
現金	-11.1599
とめ	-11.16
▁彼女は夫	-11.16
▁夜の	-11.1601
が弱い	-11.1602
荒れ	-11.1604
24	-11.1604
ところです	-11.1609
▁遅	-11.161
居る	-11.161
っけ	-11.161
不快な	-11.1613
数える	-11.1613
▁高く	-11.1614
集まった	-11.1614
▁凍	-11.1615
賢い	-11.1615
捨て	-11.1616
手腕	-11.1617
▁海岸	-11.1617
うるさく	-11.1619
▁本の	-11.162
彼にとって	-11.1621
関係にある	-11.1622
お話し	-11.1623
動物の	-11.1623
科の哺乳動物	-11.1627
▁be	-11.1627
しすぎる	-11.163
書類を	-11.1631
本人	-11.1635
▁欠	-11.1635
離す	-11.1635
▁この本	-11.1636
話に	-11.1637
▁主人	-11.1637
客が	-11.1637
▁漢字	-11.1638
魚類	-11.1638
▁彼は金	-11.1638
▁今から	-11.1641
にできる	-11.1643
▁染め	-11.1645
行進	-11.1648
こも	-11.1648
耐え	-11.1649
の立場	-11.165
の練習	-11.165
武家	-11.1652
目玉	-11.1652
▁法廷	-11.1656
宿屋	-11.1657
▁彼はなかなか	-11.166
幸子さん	-11.1669
をまく	-11.1673
なき	-11.1677
固定	-11.1678
メッセージいまから	-11.1678
でございます	-11.1679
離れない	-11.1679
を残す	-11.1682
世界の	-11.1684
▁誤	-11.1686
性的	-11.1689
の群れ	-11.1692
▁付け	-11.1693
特別な	-11.1693
行きたい	-11.1694
ロック	-11.1699
は少しも	-11.1701
心得	-11.1704
▁アメリカの	-11.1705
▁行政	-11.1705
▁寒さ	-11.1705
▁あなたに	-11.1707
改め	-11.1708
寝ること	-11.171
後ろから	-11.171
が欲しい	-11.1711
まわし	-11.1712
▁ここで	-11.1714
忘れる	-11.1715
を免れる	-11.1715
ふし	-11.1718
▁高級	-11.1722
主体	-11.1723
働か	-11.1725
をつかさどる	-11.1725
▁登	-11.1726
の全	-11.1727
の転	-11.1729
楽な	-11.1729
を張って	-11.1733
と考えた	-11.1738
に変える	-11.174
を助け	-11.1743
ないもの	-11.1744
いたり	-11.1747
二本の	-11.1748
飛行機の	-11.1749
売ること	-11.175
肉体	-11.1751
絵を	-11.1753
は少し	-11.1754
は何ですか	-11.1755
▁野菜	-11.1755
向いて	-11.1756
の表面に	-11.1756
▁山野に自生	-11.1757
共通	-11.1758
身につける	-11.176
無言	-11.1762
▁ぼ	-11.1765
をたてる	-11.1765
▁階段	-11.1766
江戸時代	-11.1766
のこ	-11.1766
狂い	-11.1766
競売	-11.1769
煮て	-11.1773
などについて	-11.1775
▁できるだけ	-11.1777
りますか	-11.1777
極め	-11.1777
▁冷たい	-11.1777
▁注文	-11.1778
りません	-11.1778
約一	-11.1779
防御	-11.1782
貴族	-11.1784
顔の	-11.1785
逮捕	-11.1786
ラム	-11.1787
てき	-11.1788
一度に	-11.1789
規律	-11.1789
▁体の	-11.179
だけが	-11.179
▁ビ	-11.1791
にも使う	-11.1792
▁警察は	-11.1793
昔から	-11.1795
貴人の	-11.1796
感じられる	-11.1799
を強く	-11.1799
死の	-11.18
庭に	-11.1802
▁海底	-11.1803
▁美術	-11.1803
づかい	-11.1805
▁毎	-11.1808
▁必	-11.1809
の四	-11.181
飯を	-11.1811
さじ	-11.1813
▁難	-11.1813
メッセージをいまから	-11.1816
澈	-11.1818
有罪	-11.1819
をさし	-11.1823
▁輸出	-11.1824
▁ごみ	-11.1828
▁何もかも	-11.183
▁オリンピック	-11.183
愛する	-11.1831
悦	-11.1833
眼球	-11.1836
▁それは君の	-11.1836
消息	-11.1839
▁艶	-11.1839
▁針	-11.184
▁税金	-11.1841
先生は	-11.1844
に強い	-11.1844
▁投票	-11.1845
▁病気の	-11.185
とがある	-11.185
挑戦	-11.1851
▁歳の	-11.1853
を尽くす	-11.1858
▁すぐに電話する	-11.186
生じた	-11.1861
ささ	-11.1862
机の上に	-11.1863
機関車	-11.187
▁フランス語	-11.1874
▁書物	-11.1875
▁追い	-11.1876
us	-11.188
▁十分に	-11.1881
▁不幸	-11.1882
の原因	-11.1882
空き	-11.1883
▁閉	-11.1886
▁遠慮	-11.1887
初めの	-11.1887
チン	-11.1888
続いた	-11.1889
心の中	-11.189
していないこと	-11.189
座る	-11.1891
励	-11.1894
▁英国の	-11.1894
さして	-11.1896
隔て	-11.1897
保守	-11.19
▁パーティー	-11.1901
▁財政	-11.1903
うえ	-11.1906
の巣	-11.1906
皮膚が	-11.1907
熱帯	-11.1908
を決め	-11.1909
くらいの	-11.191
吸収	-11.191
鉄の	-11.1911
主張する	-11.1912
緑色の	-11.1913
降って	-11.1916
宣言	-11.1917
平気で	-11.1918
蒼	-11.192
食事を	-11.1922
健康に	-11.1925
に富んだ	-11.1926
▁太陽が	-11.1926
百万	-11.1929
トラ	-11.1929
▁特許	-11.193
すぐれて	-11.193
がきかない	-11.193
誇り	-11.1931
なしの	-11.1933
▁医者は	-11.1934
▁正しい	-11.1935
言っている	-11.1935
はすぐ	-11.1937
こえ	-11.1937
▁いまからショートメッセージ	-11.1938
修正	-11.1939
▁たい	-11.194
歯が	-11.194
忙しく	-11.1942
忠義	-11.1946
の罪	-11.195
凡	-11.195
を教え	-11.1951
ないでくれ	-11.1951
のない人	-11.1952
トル	-11.1954
かば	-11.1954
友達	-11.1955
果て	-11.1955
遣	-11.1956
間違って	-11.1957
うらみ	-11.1957
のまわり	-11.1957
あがり	-11.196
衝突	-11.1961
何もない	-11.1962
不自由	-11.1966
損なう	-11.1967
欠乏	-11.1968
便で	-11.1968
啓	-11.1968
特殊	-11.1969
ゆくこと	-11.1969
操	-11.197
を経て	-11.1971
▁抜き	-11.1972
ダイヤ	-11.1972
真偽	-11.1973
齢	-11.1974
▁演説	-11.1975
地形	-11.1976
▁家具	-11.1977
困っている	-11.1977
従うこと	-11.1978
ふくれ	-11.1978
農作物	-11.1978
▁肌	-11.1978
尚	-11.198
風が	-11.198
剛	-11.1981
陽	-11.1982
の士	-11.1983
削り	-11.1983
といった	-11.1983
▁慈善	-11.1983
よせ	-11.1984
輿	-11.1984
胎	-11.1985
穏	-11.1985
落ち着いて	-11.1986
隅	-11.1986
かねて	-11.1987
通して	-11.1987
曲がり	-11.1988
とって	-11.1988
伐	-11.1988
稔	-11.1989
肋	-11.1989
呉	-11.1989
著述	-11.1989
げない	-11.1989
さかずき	-11.199
爆撃	-11.199
芳	-11.199
運搬	-11.199
を頼む	-11.199
木造	-11.199
蛋白質	-11.199
舵	-11.199
誦	-11.199
紡	-11.199
鍵	-11.199
オペラ	-11.1991
常用	-11.1991
胚	-11.1991
尋問	-11.1991
喧	-11.1991
猶予	-11.1991
メキシコ	-11.1991
コンクリート	-11.1991
屁	-11.1991
ぐるぐる	-11.1991
よろこび	-11.1991
鞘	-11.1991
びっくりした	-11.1991
暁	-11.1991
臥	-11.1991
▁喫煙	-11.1991
マラリア	-11.1991
方程式	-11.1991
錬	-11.1991
まなざし	-11.1991
稀	-11.1991
釜	-11.1991
唄	-11.1991
諺	-11.1991
刺繍	-11.1991
ギター	-11.1991
はらわた	-11.1991
のこぎり	-11.1991
尼	-11.1991
硫黄	-11.1991
是非	-11.1991
ow	-11.1991
専攻	-11.1991
威厳	-11.1991
箇条	-11.1992
応援	-11.1992
思考	-11.1992
ほんとに	-11.1992
を請う	-11.1992
収縮	-11.1992
訪ねて	-11.1992
茶の湯	-11.1992
予告	-11.1992
さらさら	-11.1993
科の昆虫	-11.1993
楽譜	-11.1993
一定期間	-11.1993
三つの	-11.1993
節操	-11.1993
演芸	-11.1993
スタート	-11.1993
仲裁	-11.1994
のぞく	-11.1994
知覚	-11.1994
得られる	-11.1994
殺菌	-11.1994
いぼ	-11.1994
視する	-11.1994
うさぎ	-11.1994
推理	-11.1995
軍備	-11.1995
公債	-11.1995
たたいた	-11.1996
済んだ	-11.1996
ふとん	-11.1996
組合せ	-11.1996
音階	-11.1997
を職業とする人	-11.1997
カバー	-11.1997
▁ダ	-11.1997
文献	-11.1998
通勤	-11.1998
剣術	-11.1999
博さん	-11.1999
煙突	-11.1999
うどん	-11.1999
ゆとり	-11.1999
延長	-11.1999
生死	-11.2
改正	-11.2
恵み	-11.2
表示	-11.2001
ということを	-11.2001
ひび	-11.2002
くらべ	-11.2002
川に	-11.2003
選んだ	-11.2003
機密	-11.2003
親族	-11.2003
コーヒーを	-11.2004
用途	-11.2004
幼	-11.2005
暗記	-11.2006
▁彼女は私の	-11.2006
動かし	-11.2006
曲がる	-11.2007
つまみ	-11.2007
惜しい	-11.2008
▁弁護士	-11.2009
甲板	-11.201
活用	-11.201
▁国連	-11.201
つめた	-11.201
高校	-11.201
▁弾丸	-11.2012
皇	-11.2012
大声で	-11.2013
▁その場	-11.2013
に出て	-11.2013
たばこを	-11.2014
機知	-11.2014
意義	-11.2014
縁側	-11.2014
運ばれ	-11.2014
特殊な	-11.2014
ないようにする	-11.2014
北部	-11.2015
▁凶	-11.2015
いやしい	-11.2016
長調	-11.2018
持ち上げる	-11.2018
▁火の	-11.2018
線路	-11.2019
噴火	-11.202
結び目	-11.202
ようか	-11.202
もつれ	-11.2021
整った	-11.2021
を働く	-11.2022
▁失業	-11.2022
ききめ	-11.2023
ことに決めた	-11.2024
善行	-11.2025
時速	-11.2025
種々	-11.2026
シュ	-11.2026
▁お茶	-11.2028
準	-11.2028
現われる	-11.2028
風邪	-11.203
船の	-11.2032
に欠ける	-11.2033
コンピューター	-11.2033
魚肉	-11.2034
忍び	-11.2035
活気	-11.2036
知能	-11.2037
田畑	-11.2039
陰暦	-11.2039
いちばん	-11.204
おそ	-11.2041
泣いて	-11.2041
冷たく	-11.2042
結う	-11.2042
政府が	-11.2043
当たって	-11.2044
とも言う	-11.2044
寝床	-11.2044
思いがけない	-11.2047
何となく	-11.2047
聞こえ	-11.2047
朝食	-11.2048
そうとする	-11.2048
赤字	-11.2049
▁彼女は私	-11.205
よこ	-11.2051
声が	-11.2052
こういう	-11.2052
もうける	-11.2055
を吐く	-11.2055
国家が	-11.2056
応用	-11.2057
やがて	-11.2058
▁7	-11.2059
正反対	-11.2059
消える	-11.206
▁砂糖	-11.206
一組	-11.206
名高い	-11.2062
なのだ	-11.2062
品行	-11.2062
▁体を	-11.2063
とがった	-11.2063
カーテン	-11.2063
▁ワ	-11.2064
▁快	-11.2064
小児	-11.2066
▁情報	-11.2066
を改める	-11.2067
足に	-11.2068
これらの	-11.2069
職場	-11.207
の精神	-11.207
初めから	-11.207
▁競馬	-11.2073
敷物	-11.2073
加え	-11.2074
乗った	-11.2074
▁馬に	-11.2074
きし	-11.2074
してしまう	-11.2074
▁化粧	-11.2076
運転手	-11.2078
五月	-11.2078
かせた	-11.2081
泊まり	-11.2081
どうだ	-11.2082
上部	-11.2082
通俗	-11.2084
興奮する	-11.2084
とら	-11.2085
下落	-11.2085
▁他の人	-11.2086
▁命令	-11.2087
割り当て	-11.2088
▁この問題	-11.2089
から出た	-11.2091
使者	-11.2092
下がる	-11.2094
▁つる	-11.2095
▁昔から	-11.2096
手落ち	-11.2096
黙ってい	-11.2096
たてる	-11.2097
運んだ	-11.2098
▁歩	-11.2099
移住	-11.2101
生まれる	-11.2102
てやった	-11.2102
▁物が	-11.2105
を防ぐために	-11.2107
▁貧乏	-11.2107
届く	-11.2108
ーター	-11.2108
蕕覆	-11.211
▁あの子は	-11.2113
で私は	-11.2114
歌を	-11.2118
いったん	-11.2119
事務を	-11.212
に耐え	-11.212
をあらわす	-11.2121
▁突き	-11.2123
17	-11.2123
その場の	-11.2125
の学生	-11.2126
▁w	-11.2127
気分が	-11.2128
急な	-11.2131
様子が	-11.2131
然として	-11.2133
ぜいたくな	-11.2133
何よりも	-11.2134
▁魚の	-11.2134
▁政府の	-11.2134
飛んで	-11.2136
交わ	-11.2137
進み	-11.214
▁森林	-11.2141
格別	-11.2142
腹に	-11.2143
誤って	-11.2145
ないだろう	-11.2146
を添える	-11.2147
来客	-11.2148
出席者	-11.2149
商品の	-11.2149
▁レコード	-11.2153
▁体操	-11.2153
メッセちょっと	-11.2154
候	-11.2154
東方	-11.2155
合せ	-11.2158
主語	-11.2158
をはる	-11.2159
を見せて	-11.216
してから	-11.2161
▁すぐに電話したい	-11.2162
などによる	-11.2163
▁事故	-11.2166
時機	-11.2167
に任せる	-11.217
▁はっきり	-11.217
自分自身	-11.2172
吹いて	-11.2172
他から	-11.2172
に接する	-11.2174
▁完	-11.2175
▁さて	-11.2176
論者	-11.218
のだろう	-11.2182
色素	-11.2187
木の葉	-11.2188
ってくる	-11.2188
▁契約	-11.219
△・	-11.219
▁自己の	-11.219
現れること	-11.219
▁これ以上	-11.2191
返事をする	-11.2192
ドルの	-11.2193
▁桜	-11.2194
それについて	-11.2196
▁完全	-11.2199
万事	-11.2199
▁警官は	-11.2201
▁着物	-11.2203
▁約束	-11.2204
▁わずかな	-11.2208
なよ	-11.2208
金が	-11.2209
千万	-11.221
▁彼はとても	-11.2211
兼ね	-11.2213
のだが	-11.2213
▁ほとんど	-11.2215
の方法	-11.2216
愉快	-11.2216
外へ	-11.2216
両側	-11.2217
こじ	-11.2218
の強さ	-11.2218
▁交	-11.2219
▁格	-11.2221
▁博	-11.2222
共通の	-11.2222
遠方	-11.2224
はえている	-11.2226
慎重	-11.2226
▁これから	-11.2226
神仏	-11.2226
人間が	-11.2227
尽くす	-11.2229
絹織物	-11.2229
守る	-11.223
ゆで	-11.2231
▁そのことは	-11.2232
分間	-11.2232
▁きん	-11.2234
▁教師	-11.2235
しようという	-11.2235
▁母は	-11.2236
に役立つ	-11.2236
▁どこ	-11.2237
数を	-11.2238
を焼く	-11.2238
年は	-11.2239
この世に	-11.224
▁実際	-11.2241
おもしろ	-11.2241
しらせ	-11.2245
ませて	-11.2247
▁その後	-11.2247
篠つつ	-11.2248
石川さん	-11.2249
掘り	-11.2249
はすっかり	-11.2251
手柄	-11.2252
▁それは私	-11.2252
とは君も	-11.2253
たくさんある	-11.2254
をしていた	-11.2254
海外	-11.2256
下男	-11.226
▁野原	-11.2262
盛る	-11.2265
▁哀	-11.2266
の進行	-11.2266
独身	-11.2267
苦しむ	-11.2267
▁うら	-11.2267
がついて	-11.2269
わかれ	-11.2271
考えた	-11.2271
番目の	-11.2272
を表わす	-11.2274
負けた	-11.2275
どこへ	-11.2276
生じ	-11.2277
▁即	-11.2277
ったりして	-11.2278
知らなかった	-11.2279
残りの	-11.228
を利用する	-11.2283
を得ること	-11.2283
今にも	-11.2285
てくれ	-11.2285
くま	-11.2287
受け入れ	-11.2289
しっかりと	-11.2289
こく	-11.23
にたとえ	-11.2303
がたくさんある	-11.2303
を取り戻す	-11.2305
きつい	-11.2305
▁擬	-11.2312
聞くこと	-11.2313
▁軟	-11.2313
▁エンジン	-11.2315
の中央	-11.2318
▁二つ	-11.2319
ということだ	-11.2321
▁食事の	-11.2324
よいか	-11.2325
山地	-11.2327
勝つこと	-11.2329
できている	-11.233
つな	-11.2331
▁神仏	-11.2332
称号	-11.2335
▁地面	-11.2335
輝く	-11.2336
▁もう少し	-11.2336
置いた	-11.2338
の範囲	-11.2338
示している	-11.2342
研究する	-11.2342
おこった	-11.2345
穏やかな	-11.2346
の字	-11.2346
する時	-11.2348
の人が	-11.2348
につけ	-11.2351
を積む	-11.2352
病気が	-11.2353
議案	-11.2353
▁しっかり	-11.2357
▁心を	-11.2359
前方	-11.2361
▁どうか	-11.2361
情事	-11.2362
▁ソ	-11.2365
▁その仕事は	-11.2368
海の	-11.2373
帰ること	-11.2374
▁金属元素	-11.2374
しあわせ	-11.2376
▁初めて	-11.2377
日常生活	-11.2378
に同じ	-11.2378
そんなことを	-11.2378
▁何を	-11.238
遠くに	-11.238
ーズ	-11.2381
押す	-11.2382
が来た	-11.2383
▁質問	-11.2384
使った	-11.2384
顧	-11.2385
いいですか	-11.239
▁文化	-11.2391
▁はち	-11.2392
起きる	-11.2395
に身を	-11.2395
どことなく	-11.2396
のドレス	-11.2397
よいこと	-11.2399
にかかった	-11.2401
支払いを	-11.2401
はっきりした	-11.2411
延ばす	-11.2412
カリ	-11.2412
入口	-11.2413
おろす	-11.2413
てくれる	-11.2413
それによって	-11.2413
末期	-11.2415
▁あいつ	-11.2416
▁なべ	-11.2417
のしるし	-11.2418
食べること	-11.2422
類の	-11.2423
として使う	-11.2423
後れ	-11.2424
弁護	-11.2425
の気持	-11.2426
タオル	-11.2426
▁金融	-11.2426
重く	-11.2427
▁広い	-11.2428
以下の	-11.2428
荒荒しい	-11.2428
その地位	-11.2429
のかね	-11.243
or	-11.2431
こね	-11.2431
▁原子力	-11.2431
その場所	-11.2432
結核	-11.2432
動いて	-11.2433
がかり	-11.2434
ぶつぶつ	-11.2441
に似ている	-11.2442
織った	-11.2443
夫人	-11.2443
を買って	-11.2444
▁ひとり	-11.2446
▁広告	-11.2448
別別	-11.2449
比較的	-11.2449
を帯びる	-11.2449
る様子	-11.245
験	-11.2452
法廷	-11.2453
ことになっている	-11.2453
ぐらいの	-11.2454
おろし	-11.2455
が彼女の	-11.2458
たたき	-11.2458
ってはいけない	-11.2459
のあいだ	-11.2459
忘	-11.246
をたくさん	-11.2464
する装置	-11.2464
離して	-11.2464
=	-11.2465
担保	-11.2466
勇敢	-11.2466
▁賢	-11.2466
とするもの	-11.2466
海水	-11.2467
孝	-11.2467
複製	-11.247
与えた	-11.247
ぐいと	-11.247
▁豪	-11.2471
▁その日	-11.2473
まげ	-11.2474
▁あん	-11.2474
お手	-11.2474
が悪かった	-11.2478
分からない	-11.2479
▁タ	-11.2482
盟	-11.2483
潤	-11.2483
展	-11.2484
一つ一つ	-11.2484
迫る	-11.2484
した人	-11.2485
外へ出	-11.2485
毎	-11.2485
隙	-11.2485
呑	-11.2486
一度も	-11.2486
あばれ	-11.2486
拒否	-11.2487
斎	-11.2487
散らし	-11.2488
模	-11.2488
を帯びて	-11.2488
開拓	-11.2488
扇動	-11.2489
頸	-11.2489
堪	-11.2489
ソーダ	-11.2489
ぺ	-11.2489
びょう	-11.2489
明日香さん	-11.249
拡張	-11.249
弄	-11.249
文子さん	-11.249
▁水道	-11.249
舷	-11.249
萌	-11.2491
奸	-11.2491
兎	-11.2491
碧	-11.2491
宇	-11.2491
莫大な	-11.2491
衛星	-11.2491
芯	-11.2491
適当に	-11.2491
ハワイ	-11.2491
普及	-11.2491
鵐	-11.2491
ぞんざい	-11.2491
に適する	-11.2491
ふらふら	-11.2491
妾	-11.2491
宛	-11.2491
綾	-11.2491
X	-11.2491
みじめな	-11.2491
篇	-11.2491
過剰	-11.2491
歎	-11.2491
罵	-11.2491
鉤	-11.2491
尖	-11.2491
嵩	-11.2491
正一さん	-11.2491
歪	-11.2491
マイナス	-11.2491
俳諧	-11.2491
キング	-11.2491
急激に	-11.2491
インディアン	-11.2491
唯一の	-11.2491
乗車券	-11.2491
率直に	-11.2491
整頓	-11.2491
疑惑	-11.2492
めいめい	-11.2492
派閥	-11.2492
落ちぶれ	-11.2492
標識	-11.2492
顧問	-11.2492
決まり	-11.2492
を使わず	-11.2492
部類	-11.2492
守護	-11.2492
多年	-11.2492
予測	-11.2492
ゼロ	-11.2492
路傍	-11.2493
統率	-11.2493
▁凝	-11.2493
おとなしく	-11.2493
復活	-11.2493
吹雪	-11.2493
わかりません	-11.2493
雨が降った	-11.2493
音響	-11.2493
検閲	-11.2493
汲み	-11.2493
確率	-11.2493
対応	-11.2494
遺跡	-11.2494
▁あの店は	-11.2494
譲歩	-11.2494
講和	-11.2494
冷酷	-11.2494
やって来た	-11.2494
中枢	-11.2494
垣根	-11.2495
▁その犬は	-11.2495
新たな	-11.2495
ハエ	-11.2496
落第	-11.2496
講座	-11.2496
させられた	-11.2496
▁同情	-11.2497
かわいがる	-11.2497
のありさま	-11.2497
取り入れ	-11.2497
絶滅	-11.2498
楽観	-11.2499
大型	-11.2499
葉を	-11.2499
地理	-11.2499
流儀	-11.25
花嫁	-11.25
しばる	-11.25
の女神	-11.2501
ノート	-11.2501
郵便局	-11.2502
▁空港	-11.2502
定義	-11.2502
加熱	-11.2503
ともに	-11.2503
交わり	-11.2503
作成	-11.2504
の下部	-11.2504
結んだ	-11.2504
不景気	-11.2504
一連の	-11.2505
小形で	-11.2505
羊毛	-11.2507
放電	-11.2508
流派	-11.2508
不況	-11.2508
開業	-11.2509
平野	-11.251
がわ	-11.251
災い	-11.251
敵陣	-11.251
巡回	-11.2511
破る	-11.2511
乳児	-11.2511
黄色い	-11.2512
▁金の	-11.2512
特権	-11.2512
辰討	-11.2513
待った	-11.2513
ねばり	-11.2514
付けた	-11.2514
かかって	-11.2515
羽毛	-11.2516
首席	-11.2517
低下	-11.2517
論説	-11.2518
体積	-11.2519
▁全国	-11.252
のごとく	-11.2521
役に立	-11.2521
から降りる	-11.2521
▁成人	-11.2522
▁物事に	-11.2522
したりして	-11.2523
▁貿易	-11.2523
撃つ	-11.2523
引力	-11.2524
遅い	-11.2526
もらおう	-11.2526
笑った	-11.253
フランスの	-11.253
▁本当	-11.2532
午前	-11.2532
を続ける	-11.2533
フィ	-11.2534
左側	-11.2535
▁家を	-11.2535
慣用	-11.2535
の第一	-11.2535
熱湯	-11.2536
価値がある	-11.2538
欠けた	-11.2539
乱暴	-11.254
続けざまに	-11.254
に乏しい	-11.254
十六	-11.2542
は君の	-11.2542
er	-11.2544
非行	-11.2545
V	-11.2545
忘れない	-11.2547
して行く	-11.2547
▁高等	-11.2547
帰宅	-11.2548
脚本	-11.2549
学業	-11.2549
こころ	-11.255
度胸	-11.2551
▁冷や	-11.2554
がえ	-11.2555
当時	-11.2556
我が国	-11.2556
一見	-11.2557
長年	-11.2558
うね	-11.2558
何でもない	-11.2562
▁ロープを	-11.2562
かたまり	-11.2562
かぶ	-11.2563
メートルの	-11.2563
てもらう	-11.2564
を告げる	-11.2565
よく知っている	-11.2566
あふれる	-11.2566
紫色	-11.2567
小僧	-11.2569
邦	-11.2569
▁仲間	-11.257
を除く	-11.2572
▁彼の顔は	-11.2574
回転する	-11.2574
怪	-11.2575
毎年	-11.2575
▁並	-11.2576
中傷	-11.2576
真珠	-11.2578
に通じている	-11.2578
人や物	-11.2578
ろく	-11.2579
▁ぶどう酒	-11.2579
推	-11.2579
▁そこへ	-11.258
召使	-11.2581
を占める	-11.2581
大和	-11.2581
経費	-11.2582
言いなさい	-11.2583
基本	-11.2583
ガソリン	-11.2584
葬儀	-11.2585
▁聴衆は	-11.2586
書物を	-11.2586
触れる	-11.2586
内外	-11.2586
秘書	-11.2587
のが好きだ	-11.2588
答える	-11.2589
▁この家は	-11.2591
▁豊	-11.2591
職業の人	-11.2592
バイオリン	-11.2593
猛	-11.2594
博	-11.2594
▁九	-11.2594
同一	-11.2596
勝手な	-11.2596
暮らしを	-11.2597
を張った	-11.2599
逆に	-11.26
それも	-11.26
ぬる	-11.26
を動かして	-11.2601
のけ	-11.2602
髪の毛を	-11.2602
世俗	-11.2602
養子	-11.2604
▁事件	-11.2605
まねをする	-11.2606
に起こる	-11.2608
やって来る	-11.2609
その知らせを聞いて	-11.2609
行動を	-11.261
えば	-11.261
▁病気で	-11.261
無事に	-11.2611
当然の	-11.2616
の誤り	-11.2616
をおおう	-11.2617
▁何と	-11.2618
▁君には	-11.2624
▁人々は	-11.2625
▁兄	-11.2626
▁肺	-11.2627
好きなように	-11.2628
ぶた	-11.2628
その音	-11.2629
万円の	-11.2629
宝物	-11.263
でいた	-11.2631
はいくら	-11.2632
便り	-11.2634
を打った	-11.2635
▁供	-11.2638
▁何とか	-11.2639
香水	-11.2639
混ぜる	-11.2642
▁正義	-11.2643
手に入れ	-11.2644
▁焼け	-11.2645
▁枝	-11.2646
人材	-11.2647
ぶき	-11.2648
まけ	-11.2651
求め	-11.2651
こし	-11.2652
手首	-11.2654
は約	-11.2654
悪口	-11.2655
の作品	-11.2655
はぎ	-11.2658
腰を	-11.2658
▁別に	-11.2658
メッセ送	-11.266
▁楽	-11.266
つかず	-11.2662
まるい	-11.2662
が多かった	-11.2663
たない	-11.2666
性質が	-11.2668
知らせること	-11.2668
にまで	-11.267
門の	-11.2672
▁そこで	-11.2673
乗物	-11.2676
▁断	-11.2678
やれ	-11.2678
がどんなに	-11.2678
相場が	-11.268
▁彼は我々に	-11.268
と思われる	-11.2685
過去の	-11.2685
擦り	-11.2686
▁天体	-11.2686
育ち	-11.2686
小川	-11.2688
物を言う	-11.2689
に戻る	-11.2689
そうでない	-11.269
法律で	-11.2691
▁その事故	-11.2692
を重んずる	-11.2692
治める	-11.2692
外出する	-11.2693
しますか	-11.2694
取れる	-11.2695
いらっしゃい	-11.2698
動的	-11.2698
南北	-11.2698
一流の	-11.2702
寺の	-11.2703
▁医療	-11.2704
調べる	-11.2706
繩	-11.2709
▁専門	-11.271
弱く	-11.271
続くこと	-11.2714
の町	-11.2714
大事	-11.2716
力で	-11.2717
本部	-11.2717
暗く	-11.2719
含む	-11.2719
▁日曜	-11.2721
隠して	-11.2724
月光	-11.2724
なだれ	-11.2725
秋の	-11.2726
付いて	-11.2726
割に	-11.2727
討い	-11.2727
▁子供は	-11.2729
をつぐ	-11.2729
たまる	-11.273
たちに	-11.2732
さも	-11.2734
振動	-11.2735
身代	-11.2735
負けて	-11.2737
の形容	-11.2738
▁それらの	-11.274
ばかりに	-11.2743
大型の	-11.2743
めったに	-11.2744
▁イタリア	-11.2745
▁回転	-11.2745
▁彼は何	-11.2745
出家	-11.2746
▁小麦粉	-11.2746
▁借り	-11.2748
りたい	-11.2749
感じた	-11.2749
はだか	-11.275
熱意	-11.2751
▁責任	-11.2752
一瞬	-11.2753
ことができない	-11.2754
を積み	-11.2754
集めて	-11.2755
▁相手	-11.2755
味が	-11.2757
身体の	-11.2757
そうもない	-11.2757
▁地図	-11.2758
を授ける	-11.2758
神話	-11.2759
鋳	-11.2763
実例	-11.2763
▁校	-11.2764
だな	-11.2764
から見て	-11.2765
番をする	-11.2769
しかる	-11.2772
国旗	-11.2773
に入っている	-11.2774
日曜日に	-11.2775
▁寂	-11.2775
戯	-11.2777
▁脂肪	-11.2778
▁知恵	-11.2779
▁陽	-11.2782
おくれ	-11.2783
ことではない	-11.2785
▁野外	-11.2785
▁完全に	-11.2787
▁長距離	-11.2789
だした	-11.2791
▁序	-11.2792
祈願	-11.2793
にはいって	-11.2794
現物	-11.2799
債務	-11.28
末に	-11.28
の温度	-11.2801
を成す	-11.2802
賭	-11.2802
君も	-11.2802
▁判	-11.2804
▁立体	-11.2809
その地方	-11.281
のあること	-11.2811
文章の	-11.2812
▁よそ	-11.2813
▁資本	-11.2813
ラン	-11.2814
と思い	-11.2814
を集めて	-11.2814
助けること	-11.2817
妨害	-11.2819
▁主君	-11.282
の心	-11.2823
▁彼は彼女を	-11.2828
▁いま	-11.2829
▁おい	-11.2829
▁切符	-11.2834
▁陸上	-11.2835
導体	-11.2835
てはならない	-11.2836
になってしまった	-11.2839
▁整	-11.284
確信	-11.284
ていく	-11.2843
内容を	-11.2846
の中間	-11.2847
たいてい	-11.2848
いやになる	-11.2851
▁僧	-11.2853
描	-11.2855
聞かせる	-11.2856
▁一家の	-11.2857
▁季節	-11.286
▁ふだん	-11.2862
七日	-11.2862
▁付	-11.2863
▁訳	-11.2864
フレ	-11.2865
会うこと	-11.2866
物だ	-11.2866
生糸	-11.2867
後世	-11.2868
▁重大な	-11.2868
垂れる	-11.2869
やり方で	-11.287
やりなさい	-11.2871
くする	-11.2871
あがって	-11.2872
何時	-11.2873
一般の人	-11.2875
行われ	-11.2876
事態が	-11.2881
▁まっ	-11.2882
ふえ	-11.2882
▁日光	-11.2884
荷物を	-11.2886
ve	-11.2888
借りること	-11.2889
人に対して	-11.289
がすっかり	-11.2892
はく	-11.2894
すみません	-11.2895
到着した	-11.2896
をふさぐ	-11.2897
▁天子の	-11.2897
▁申し	-11.2898
の諸	-11.29
地下茎	-11.2904
駒	-11.2904
悟り	-11.2908
勢いで	-11.2909
無理に	-11.2911
しつけ	-11.2911
▁みんな	-11.2912
山々	-11.2912
調べること	-11.2914
銀行に	-11.2915
と違って	-11.2917
▁病人は	-11.292
基礎	-11.2922
と水	-11.2923
がひどく	-11.2923
の研究	-11.2923
▁6	-11.2928
本性	-11.2928
こっけいな	-11.2928
行きます	-11.2929
使われる	-11.2929
もし	-11.2934
ふれ	-11.2935
▁住宅	-11.2936
しうる	-11.2936
車は	-11.2937
中間	-11.294
によい	-11.294
▁意志	-11.2942
せること	-11.2944
こしらえ	-11.2945
の勢い	-11.2947
で人を	-11.2948
に触れる	-11.295
厄介	-11.295
を含んだ	-11.2952
が速い	-11.2957
く思う	-11.2957
船が	-11.2958
芸能	-11.296
に乗り	-11.296
成功の	-11.2962
▁いちばん	-11.2963
▁思いがけない	-11.2964
昨	-11.2965
ってくれた	-11.2966
の相違	-11.2968
十五	-11.2968
言動	-11.2968
を休む	-11.2971
の敬称	-11.2974
やりかた	-11.2974
地主	-11.2975
▁暖かい	-11.2977
男が	-11.2977
が起こって	-11.2979
▁ド	-11.2979
の子供	-11.2981
飼	-11.2983
胎児	-11.2983
浮かんだ	-11.2983
つかみ	-11.2983
▁予	-11.2985
豪雨	-11.2985
の空気	-11.2985
徹	-11.2988
決議	-11.2989
が低く	-11.2989
内閣の	-11.2989
所にある	-11.299
透明	-11.2992
グラ	-11.2992
増加	-11.2992
新作	-11.2993
の印	-11.2994
▁儀式	-11.2994
やせ	-11.2994
槽	-11.2997
耕作	-11.2998
を祈る	-11.2999
仲よく	-11.3
▁特別	-11.3002
気管	-11.3003
気持だ	-11.3003
たね	-11.3003
▁ヘ	-11.3003
忙	-11.3004
寵	-11.3005
しようとした	-11.3005
わけではない	-11.3006
のにおい	-11.3008
摘	-11.3009
に達した	-11.3009
力が	-11.3009
申告	-11.301
を目的とする	-11.3011
をひき	-11.3012
幾何学	-11.3012
ておきなさい	-11.3012
ニュ	-11.3012
坑	-11.3012
辰雄さん	-11.3013
釣り合い	-11.3014
荘	-11.3014
釈迦	-11.3014
止まった	-11.3014
陳	-11.3015
免疫	-11.3015
盾	-11.3015
視界	-11.3015
な言葉	-11.3015
要領	-11.3015
飼育	-11.3015
違える	-11.3016
を帯びた	-11.3016
チームは	-11.3016
昂	-11.3016
因果	-11.3017
信じられない	-11.3017
薪	-11.3017
かっさい	-11.3017
阻	-11.3017
みょう	-11.3017
きっかけ	-11.3017
梨	-11.3017
由美子	-11.3017
虹	-11.3017
のんびり	-11.3017
デパート	-11.3017
おめでとう	-11.3017
櫛	-11.3017
W	-11.3017
瑞	-11.3017
.	-11.3017
ぅ	-11.3017
おだやかな	-11.3017
ペーパー	-11.3017
桑	-11.3017
植民地	-11.3017
病原体	-11.3017
ソファー	-11.3017
塚	-11.3017
決勝	-11.3017
裾	-11.3017
コンサート	-11.3017
叛	-11.3017
ばさみ	-11.3017
当てはまる	-11.3018
ジョージ	-11.3018
に合う	-11.3018
申請	-11.3018
舗装	-11.3018
囃子	-11.3018
容貌	-11.3018
免除	-11.3018
盗賊	-11.3018
僧侶	-11.3018
酒を飲んで	-11.3018
my	-11.3018
粘液	-11.3018
包装	-11.3018
閉鎖	-11.3018
付き合い	-11.3019
到来	-11.3019
スタイル	-11.3019
戯曲	-11.3019
モーター	-11.3019
たまたま	-11.3019
今や	-11.302
爵位	-11.302
かせぐ	-11.302
態勢	-11.302
見積もり	-11.302
を襲った	-11.302
の山	-11.302
生殖	-11.3021
協議	-11.3021
レール	-11.3021
ひれ	-11.3021
のろい	-11.3022
こまかい	-11.3022
スズメ	-11.3022
実は食用	-11.3022
ともかく	-11.3023
揃い	-11.3023
厳しく	-11.3023
予言	-11.3023
それとなく	-11.3023
そんな事	-11.3023
不吉	-11.3023
風采	-11.3023
響き	-11.3024
感じだ	-11.3024
すむ	-11.3024
開放	-11.3025
衰えた	-11.3025
栄光	-11.3025
実業家	-11.3025
奉公	-11.3025
成行き	-11.3025
思い切って	-11.3026
鈴木	-11.3026
東西	-11.3026
高等学校	-11.3026
不動産	-11.3027
左翼	-11.3027
若葉	-11.3027
添う	-11.3027
▁海軍	-11.3028
登場	-11.3028
未婚	-11.3028
軍勢	-11.3029
写生	-11.3029
▁それだけ	-11.3029
社寺	-11.3029
施行	-11.303
主成分	-11.303
ラテン語	-11.303
を利用した	-11.303
変種	-11.303
彩色	-11.3031
ひいき	-11.3031
下駄	-11.3031
絞り	-11.3032
通商	-11.3032
性能	-11.3033
掛けて	-11.3034
▁マッチ	-11.3034
上映	-11.3034
転覆	-11.3035
概して	-11.3036
に強く	-11.3036
出入口	-11.3036
奇跡	-11.3037
遠慮なく	-11.3038
公務	-11.3038
▁わずかの	-11.3039
がうまく	-11.304
変動	-11.3041
砕く	-11.3042
▁隣	-11.3042
いるさま	-11.3043
合同	-11.3044
たやすく	-11.3045
歩行	-11.3046
任意	-11.3046
歩き方	-11.3046
割れ目	-11.3046
内内	-11.3047
▁犬が	-11.3047
あえて	-11.3048
風味	-11.3048
万歳	-11.3048
分け前	-11.3049
ありがたい	-11.3049
想像力	-11.3049
子宮	-11.3051
トリ	-11.3051
恋人	-11.3052
▁その車は	-11.3053
まひ	-11.3054
▁シン	-11.3055
▁東京の	-11.3055
笑って	-11.3055
小舟	-11.3057
おそれ	-11.3057
きのこ	-11.3058
敵軍	-11.3058
を掘り	-11.3059
くせ	-11.3059
贈物	-11.306
古来	-11.306
最上	-11.306
元来	-11.3061
▁クリスマスの	-11.3061
の娘	-11.3061
不要	-11.3061
散る	-11.3061
祈る	-11.3062
さわやかな	-11.3062
相当な	-11.3062
食肉	-11.3063
しぼり	-11.3063
入札	-11.3065
木炭	-11.3066
手順	-11.3066
直立	-11.3067
過ごした	-11.3067
公害	-11.3068
増大	-11.307
君には	-11.307
▁傍	-11.3071
言行	-11.3071
内側に	-11.3071
▁しかし	-11.3071
皮を	-11.3072
に落ちる	-11.3073
食用にする	-11.3074
うすい	-11.3074
▁危	-11.3075
横木	-11.3075
無視	-11.3076
もてなし	-11.3076
よめ	-11.3078
少なく	-11.3079
すう	-11.3081
▁牧	-11.3081
▁洪水	-11.3081
真相	-11.3083
野生	-11.3084
生えている	-11.3084
開会	-11.3086
の方へ	-11.309
会社に	-11.3091
を変えて	-11.3092
▁すい	-11.3092
せみ	-11.3093
声を	-11.3095
は彼女	-11.3095
だれにも	-11.3095
余分	-11.3096
って行く	-11.3096
大形で	-11.31
▁産業	-11.3102
▁日本は	-11.3106
を測る	-11.3106
との関係	-11.3109
力量	-11.311
居間	-11.311
それら	-11.3111
あれば	-11.3112
会長	-11.3113
りました	-11.3114
物腰	-11.3116
発火	-11.3116
間違いない	-11.3117
上等の	-11.3118
曜	-11.3118
▁古典	-11.312
▁意味	-11.312
できるように	-11.3121
人込み	-11.3121
大洋	-11.3121
鉄製の	-11.3122
論理学	-11.3124
▁無線	-11.3124
▁禅	-11.3125
科学者	-11.3126
日から	-11.3126
捕え	-11.3127
エル	-11.3128
を貸して	-11.3129
をなくした	-11.313
▁年齢	-11.3131
属する	-11.3132
細工物	-11.3132
を持つこと	-11.3135
の美しさ	-11.3137
いとこ	-11.3139
をさっと	-11.3139
を生ずる	-11.314
検事	-11.3141
目立つ	-11.3141
余所	-11.3143
に出た	-11.3143
辛い	-11.3143
リス	-11.3144
▁暴力	-11.3147
平方	-11.3148
からなる	-11.3149
学生たち	-11.315
は私が	-11.315
▁官庁	-11.3151
起源	-11.3151
を踊る	-11.3152
走って	-11.3154
つくす	-11.3154
▁いつもの	-11.3155
異常な	-11.3156
▁8	-11.3157
で暮らす	-11.3158
▁漫	-11.316
吐き気	-11.3161
居所	-11.3161
二重	-11.3161
気球	-11.3163
削	-11.3164
逃れる	-11.3165
いてください	-11.3165
倉庫	-11.3166
チーズ	-11.3166
〕「	-11.3167
必	-11.3168
を書いて	-11.3169
ピストル	-11.3169
あらかじめ	-11.3169
陥	-11.3169
上手に	-11.3171
整える	-11.3171
して作った	-11.3172
M	-11.3172
▁記憶	-11.3172
滑り	-11.3172
▁死刑	-11.3173
カップ	-11.3174
穏やか	-11.3174
▁経	-11.3174
鳩	-11.3176
の階級	-11.3177
ワン	-11.3178
頭脳	-11.3178
君子	-11.3178
の長い	-11.3178
しゃく	-11.3179
青銅	-11.318
烏	-11.3181
▁必ず	-11.3181
っていて	-11.3181
累	-11.3182
仕事の	-11.3185
▁ボール	-11.3185
あくび	-11.3186
けし	-11.3186
合成	-11.3186
艶	-11.3186
大丈夫	-11.3188
がれる	-11.3189
▁事態は	-11.3189
つえ	-11.319
和紙	-11.3193
▁組み	-11.3193
法令	-11.3195
▁別の	-11.3195
自分の意見を	-11.3195
紛れ	-11.3198
見られる	-11.3198
書籍	-11.3199
▁けんか	-11.3205
いまから電話したい	-11.3207
透明な	-11.3209
プロ	-11.321
▁羊	-11.3211
▁知	-11.3214
がだんだん	-11.3215
物質の	-11.3217
の目的で	-11.322
▁紫	-11.322
しゅう	-11.3221
を直す	-11.3221
となること	-11.3222
電子	-11.3223
午前中	-11.3224
▁社	-11.3225
何だか	-11.3225
▁碁	-11.3227
印刷物	-11.3229
▁スト	-11.323
なので	-11.323
▁口で	-11.3231
度に	-11.3233
をたく	-11.3234
▁信号	-11.3235
他と	-11.3238
出世する	-11.3239
を失うこと	-11.3239
▁外国語	-11.3243
こちらの	-11.3244
▁喜び	-11.3246
見ている	-11.3247
▁箱	-11.3247
住むこと	-11.3247
▁げん	-11.325
野党	-11.3251
あて名	-11.3251
さくら	-11.3252
定期	-11.3253
その話	-11.3254
感じがする	-11.3256
をまぜて	-11.3259
▁どう	-11.3261
外面	-11.3262
を防ぎ	-11.3263
上流	-11.3263
ダー	-11.3265
の弱い	-11.3265
▁過去の	-11.3266
うまくいく	-11.327
▁一緒に	-11.3271
▁泥棒	-11.3273
▁記念	-11.3278
▁会合	-11.3279
に仕える	-11.328
今年	-11.328
着く	-11.328
甘味	-11.3282
平らに	-11.3283
▁彼女は自分の	-11.3283
▁ダンス	-11.3288
ハイ	-11.3291
寸法	-11.3293
尽くし	-11.3294
▁緩	-11.3294
▁私は彼の	-11.3295
になれ	-11.3295
▁かなりの	-11.3296
楽しむこと	-11.3296
▁内部	-11.3297
を除いた	-11.3299
下書き	-11.33
天国	-11.33
木の葉が	-11.33
ひざを	-11.33
たちの	-11.3304
型に	-11.3304
しがたい	-11.3305
被告人	-11.3306
▁如	-11.3306
▁寺院	-11.3308
▁ほかに	-11.3308
移す	-11.3312
換える	-11.3312
そろって	-11.3312
材木	-11.3312
▁どこか	-11.3313
▁欲	-11.3313
ようなことを	-11.3313
はねる	-11.3314
の寸法	-11.3314
▁湿	-11.3315
▁珍	-11.3316
のぼる	-11.3316
▁出来	-11.3316
ルト	-11.3318
のだから	-11.3319
が無い	-11.3319
溺	-11.3319
産する	-11.332
引かれ	-11.332
思うように	-11.332
正しくない	-11.3321
希望を	-11.3321
彼から	-11.3328
▁鳥が	-11.3329
入り乱れ	-11.3329
▁核兵器	-11.3329
所がない	-11.333
ぶどう	-11.333
▁彼女と	-11.3331
進める	-11.3331
▁座席	-11.3333
▁鋭い	-11.3333
生活を	-11.3336
▁かぎ	-11.3337
車に乗	-11.3339
▁吹き	-11.3339
宗教的	-11.334
聞こえた	-11.3341
▁水平	-11.3343
一筆	-11.3344
だます	-11.3344
ラブ	-11.3345
びき	-11.3347
どちらか	-11.3348
花びら	-11.3351
がなくなる	-11.3351
着いた	-11.3351
聞こえない	-11.3351
その内容	-11.3353
尋ね	-11.3353
没する	-11.3354
だまして	-11.3354
売れる	-11.3354
を飾る	-11.3357
をつくること	-11.336
▁男女の	-11.3361
づら	-11.3364
どうぞお	-11.3365
なれて	-11.3367
調査する	-11.3372
ジー	-11.3372
先生に	-11.3375
を整える	-11.3375
周囲の	-11.3376
ことが多い	-11.3378
埋	-11.3381
▁朝食	-11.3382
一個	-11.3383
急ぎの	-11.3383
この世	-11.3383
られます	-11.3384
動作が	-11.3385
みなさい	-11.3385
を遂げる	-11.3388
やっている	-11.3389
▁小さい	-11.339
陰で	-11.3392
を扱う	-11.3393
泣	-11.3393
中で一番	-11.3394
▁悲しい	-11.3394
世を	-11.3395
を減らす	-11.3396
▁太鼓	-11.3401
迎える	-11.3401
貯	-11.3401
を並べる	-11.3404
▁小便	-11.3405
初めに	-11.3406
せられる	-11.3406
もろ	-11.3407
切断	-11.3407
行か	-11.3407
寂	-11.3409
雄は	-11.341
ゆり	-11.341
▁畑	-11.3412
をおろす	-11.3412
個体	-11.3413
取り決め	-11.3413
▁ガ	-11.3414
決める	-11.3417
▁隠	-11.3419
てきている	-11.3421
反抗	-11.3422
流れている	-11.3422
▁B	-11.3423
散歩する	-11.3426
ローマ	-11.3428
間に合わせ	-11.343
▁宝石	-11.3434
敬意	-11.3436
▁辞書	-11.3438
を獲得する	-11.3439
変えること	-11.3442
自殺する	-11.3442
誇	-11.3443
を害する	-11.3443
らなければならない	-11.3444
高温	-11.3447
なう	-11.3449
▁ト	-11.3451
▁僕が	-11.3451
捜索	-11.3451
わな	-11.3453
変だ	-11.3454
蒸留	-11.3456
を求めること	-11.3459
▁送	-11.3463
んだり	-11.3465
ほどに	-11.3465
輝	-11.3465
▁家畜	-11.3468
▁生徒	-11.3471
訪問する	-11.3473
の大きい	-11.3476
意味で	-11.348
と見	-11.3481
▁ギリシャ	-11.3481
見せかけ	-11.3483
あがること	-11.3485
弾力	-11.3485
▁緊急	-11.3485
大金	-11.3486
給水	-11.3487
ばかげた	-11.3488
をこめて	-11.3493
せなかった	-11.3493
国家の	-11.3493
告げる	-11.3494
小学校	-11.3495
下宿	-11.3496
のまわりに	-11.3496
が異なる	-11.3496
服を着て	-11.3499
伝染	-11.35
してはならない	-11.3505
染めた	-11.3506
全体に	-11.3508
を発揮する	-11.3508
▁心身	-11.351
▁いったん	-11.351
考えている	-11.3511
本質	-11.3511
▁終わり	-11.3511
の中へ	-11.3512
においがする	-11.3515
いすを	-11.3516
▁童	-11.3517
▁書類	-11.3517
刷	-11.3518
を脱ぐ	-11.352
調子で	-11.352
学生が	-11.3521
千代子さん	-11.3522
▁蒸気	-11.3524
いなさい	-11.3526
自国	-11.3529
組んで	-11.3531
▁小川	-11.3534
まさ	-11.3538
本体	-11.3538
▁猛烈な	-11.3538
可能	-11.3539
▁十分な	-11.3541
移し	-11.3542
直る	-11.3543
本日	-11.3543
▁暇	-11.3544
まれな	-11.3544
楽しく	-11.3545
尽き	-11.3545
▁じゅ	-11.3546
揚げる	-11.3548
なんとか	-11.3548
サー	-11.3548
甚	-11.3549
伸	-11.3549
国籍	-11.3549
▁続	-11.355
百年	-11.355
▁荒れ	-11.3553
って来る	-11.3553
径	-11.3553
やっかいな	-11.3555
荒い	-11.3556
▁養	-11.3557
の少年	-11.3557
ダン	-11.3557
すわっている	-11.3558
どけ	-11.3558
そこなう	-11.356
隠れた	-11.356
それまで	-11.356
▁その事件	-11.356
すぐれた人	-11.3561
恥ずかしい	-11.3561
抑制	-11.3562
ほれ	-11.3564
狭	-11.3565
▁抜	-11.3566
均衡	-11.3567
が切れ	-11.3567
駐	-11.3568
嫡	-11.3569
だらだら	-11.357
推進	-11.357
継続	-11.357
黄褐色	-11.357
班	-11.3571
田園	-11.3571
伯	-11.3571
恒	-11.3571
独創	-11.3571
誕生	-11.3571
イオン	-11.3572
牙	-11.3572
殴	-11.3572
契	-11.3572
ョ	-11.3572
k	-11.3573
藤田さん	-11.3573
カルシウム	-11.3573
須	-11.3573
交互に	-11.3573
すさまじい	-11.3573
乗組員	-11.3573
咳	-11.3573
薫	-11.3573
飴	-11.3573
莫	-11.3573
カナダ	-11.3573
ケーブル	-11.3573
ドラマ	-11.3573
桐	-11.3573
濫	-11.3573
燗	-11.3573
鯛	-11.3573
チョーク	-11.3573
仲たがい	-11.3573
行なわれた	-11.3573
ブランデー	-11.3573
篭	-11.3573
蔓	-11.3573
竿	-11.3573
卜	-11.3573
びっくりして	-11.3573
帥	-11.3573
扉	-11.3573
群れをなして	-11.3573
擇	-11.3573
鰐	-11.3573
猛烈に	-11.3573
子寬燭舛	-11.3573
▁この上なく	-11.3573
スプーン	-11.3573
培養	-11.3573
絃	-11.3573
やかましく	-11.3573
籤	-11.3573
独特の	-11.3573
庵	-11.3573
を築く	-11.3573
堤防	-11.3573
転換	-11.3573
粘膜	-11.3573
頑固	-11.3573
包囲	-11.3573
天気予報	-11.3573
誇張	-11.3573
いただけませんか	-11.3573
に次ぐ	-11.3574
停泊	-11.3574
▁排	-11.3574
補佐	-11.3574
助詞	-11.3574
規格	-11.3574
効能	-11.3574
たくましい	-11.3574
人工衛星	-11.3574
苦悩	-11.3574
祝賀	-11.3574
遊戯	-11.3574
少なくとも	-11.3574
勝敗	-11.3575
慣例	-11.3575
あらまし	-11.3575
征服	-11.3575
恒星	-11.3575
接待	-11.3575
知り合い	-11.3575
われわれ	-11.3575
富士	-11.3575
調停	-11.3575
貝殻	-11.3575
かなわない	-11.3575
ミス	-11.3575
仕組み	-11.3575
▁へたな	-11.3575
タンク	-11.3576
未知の	-11.3576
患部	-11.3576
何らかの	-11.3576
屈折	-11.3576
記載	-11.3576
就業	-11.3576
とらわれ	-11.3576
わざわざ	-11.3576
追加	-11.3576
誤差	-11.3576
やりくり	-11.3576
混雑	-11.3576
残忍	-11.3576
いっそう	-11.3577
海産	-11.3577
静脈	-11.3577
往生	-11.3578
宿題	-11.3578
脱獄	-11.3578
単独	-11.3578
威光	-11.3578
きっぱり	-11.3579
必ずしも	-11.3579
祖母	-11.3579
解散	-11.3579
酒に酔って	-11.3579
真似	-11.358
信託	-11.358
座標	-11.358
強制的に	-11.358
値上げ	-11.358
世襲	-11.358
▁国境	-11.358
オール	-11.358
絶縁	-11.3581
浄土	-11.3581
発育	-11.3581
さいころ	-11.3581
著書	-11.3581
武術	-11.3582
四季	-11.3582
敬礼	-11.3582
強烈な	-11.3582
異なった	-11.3582
鳥獣	-11.3582
を構成する	-11.3583
連結	-11.3583
信頼できる	-11.3583
政務	-11.3583
ののしる	-11.3584
笑顔	-11.3584
難破	-11.3584
令状	-11.3585
感じを与える	-11.3585
破滅	-11.3585
話し方	-11.3585
連邦	-11.3585
いたしました	-11.3586
相手が	-11.3586
順位	-11.3586
定期的に	-11.3587
三日	-11.3587
全集	-11.3587
枝を	-11.3588
へだて	-11.3589
苦難	-11.359
まっ	-11.359
漢文	-11.3591
▁約	-11.3591
▁さく	-11.3591
走っている	-11.3592
取扱い	-11.3592
の上の	-11.3592
きめる	-11.3593
喜んだ	-11.3593
廻り	-11.3593
のに用いる	-11.3593
を申し込む	-11.3594
通用	-11.3594
無臭	-11.3594
泣いた	-11.3595
伝達	-11.3595
すがた	-11.3596
からといって	-11.3596
声明	-11.3596
▁勇気	-11.3596
ねうち	-11.3597
障り	-11.3597
悪党	-11.3598
ほぐ	-11.3599
を免れ	-11.36
▁疲れ	-11.36
無効	-11.36
ときは	-11.3601
連隊	-11.3601
▁その問題	-11.3601
見渡す	-11.3601
▁食べ	-11.3601
壊れ	-11.3602
観光客	-11.3602
性欲	-11.3604
器量	-11.3604
まぶた	-11.3604
合奏	-11.3605
に会った	-11.3605
の所に	-11.3605
一段と	-11.3605
を生む	-11.3605
▁恐ろしい	-11.3606
これだけ	-11.3606
答えた	-11.3606
らっぱ	-11.3607
をうかがう	-11.3608
乗船	-11.3608
煎じ	-11.3609
過ち	-11.3609
ひそ	-11.3609
気絶	-11.3609
自称	-11.361
善意	-11.3611
体内に	-11.3611
▁その話は	-11.3611
くぎり	-11.3611
▁軒	-11.3612
not	-11.3614
唱える	-11.3616
店員	-11.3616
とされている	-11.3617
所有者	-11.3619
はさんで	-11.362
を取った	-11.362
こわれた	-11.362
独自の	-11.362
堅	-11.3621
▁年をとって	-11.3621
賢明な	-11.3622
なさけ	-11.3623
積み重ね	-11.3623
読み方	-11.3623
▁その土地	-11.3624
の際に	-11.3625
活動する	-11.3625
もせず	-11.3625
平凡な	-11.3625
ねばならない	-11.3625
退学	-11.3626
敬意を表する	-11.3626
ぞっとし	-11.3627
滑	-11.3628
▁えい	-11.3628
書きしるす	-11.3629
に浮かぶ	-11.3629
放す	-11.363
距離を	-11.3632
外界	-11.3633
定規	-11.3633
書画	-11.3635
支配者	-11.3636
▁井戸	-11.3638
しょうゆ	-11.3639
をたたき	-11.3639
走ること	-11.3643
▁幾	-11.3644
▁人情	-11.3644
▁人間は	-11.3646
米を	-11.3646
はいい	-11.3648
家へ	-11.3649
広げ	-11.3649
ほのか	-11.365
▁議論の	-11.3652
びれ	-11.3653
の体	-11.3654
もともと	-11.3654
▁冷静	-11.3655
の責任	-11.3655
いわれ	-11.3656
重ねて	-11.3657
▁彼から	-11.3659
立法	-11.366
▁彼は父親	-11.366
▁活	-11.3662
を吸う	-11.3663
武者	-11.3663
▁゚	-11.3663
ためになる	-11.3663
一刻	-11.3664
大学で	-11.3666
上方	-11.3667
無関係	-11.3668
腕力	-11.3668
音便	-11.367
無作法	-11.3671
歌劇	-11.3672
▁不可	-11.3672
地表	-11.3672
▁火山	-11.3674
▁漸	-11.3675
▁戦争の	-11.3678
の割合	-11.3678
熱心な	-11.3681
のではないかと	-11.3682
並べる	-11.3682
植物の	-11.3684
浄化	-11.3684
風土	-11.3685
尋ねる	-11.3686
をさせる	-11.3689
自分を	-11.369
祝う	-11.369
しぼ	-11.3693
の月	-11.3693
▁筋	-11.3694
のそば	-11.3694
登り	-11.3695
離れて	-11.3698
話して	-11.3698
と言えば	-11.3699
▁赤ん坊は	-11.37
えら	-11.3701
内輪	-11.3701
かむ	-11.3701
不当	-11.3703
▁秋の	-11.3704
磁気	-11.3704
関係がない	-11.3705
漢字の	-11.3706
すらすらと	-11.3706
その場	-11.3709
中身	-11.3711
▁兼	-11.3712
知事	-11.3713
▁厚	-11.3717
▁水は	-11.3717
を妨げる	-11.3719
ふたり	-11.372
暴動	-11.372
んじゃない	-11.3721
マイク	-11.3722
▁農	-11.3724
▁声を	-11.3725
▁大便	-11.3727
日の出	-11.3728
しめた	-11.3728
▁部屋の	-11.3729
慣れる	-11.373
法会	-11.3731
削る	-11.3732
さまざまの	-11.3733
こっそりと	-11.3737
月末	-11.3737
音を立て	-11.3738
▁さっさと	-11.3738
▁悲	-11.3741
▁恩	-11.3742
を飛ばす	-11.3743
強いこと	-11.3743
▁寄	-11.3744
の支払い	-11.3744
体重	-11.3744
着ける	-11.3745
靴討	-11.3748
違っている	-11.3749
一種	-11.3751
の形で	-11.3751
耐	-11.3751
の客	-11.3751
の広い	-11.3753
有機	-11.3755
▁とんでもない	-11.3755
を勤める	-11.3757
仕える	-11.3758
メッセージすぐに	-11.3759
に加わる	-11.376
通う	-11.376
▁複	-11.3761
国王	-11.3762
何事も	-11.3764
ld	-11.3765
をひいて	-11.3766
国外	-11.3767
固有の	-11.3769
▁ペ	-11.3769
計画を立てる	-11.3771
すでに	-11.3772
▁はるか	-11.3776
的には	-11.3776
タクシー	-11.3777
の母	-11.3777
▁恐れ	-11.3777
めちゃめちゃに	-11.3778
けがれ	-11.3778
暮らしている	-11.3779
▁チ	-11.3781
これこれ	-11.3781
▁貨物	-11.3782
に現れた	-11.3783
▁その仕事	-11.3785
を高く	-11.3785
▁車を	-11.3789
▁小さな	-11.379
D	-11.379
たびたび	-11.3791
▁解	-11.3791
いよいよ	-11.3791
▁疑問	-11.3792
〇〇	-11.3795
分に	-11.3795
請け	-11.3795
しょく	-11.3796
をうつ	-11.3796
年生	-11.3796
かねる	-11.3797
ビタミン	-11.3797
寄って	-11.3799
衣類を	-11.3799
忘れた	-11.38
公開	-11.38
に足りない	-11.3802
▁地上	-11.3802
▁台所	-11.3802
ばくち	-11.3803
優しい	-11.3803
年ごとに	-11.3803
就職	-11.3804
固め	-11.3805
どうやら	-11.3805
T	-11.3805
建設	-11.3806
梅雨	-11.3808
▁出産	-11.3809
哀	-11.3809
山頂	-11.381
▁彼はどんな	-11.381
偏見	-11.381
生まれて	-11.381
と考えている	-11.3811
ース	-11.3814
言ったり	-11.3814
ぜひ	-11.3815
インフレ	-11.3815
涙を流す	-11.3817
悪人	-11.3818
心の中に	-11.3818
の仲間	-11.3818
そう言った	-11.3819
▁貴人	-11.382
予備	-11.3821
繁殖	-11.3822
伸ばし	-11.3822
国土	-11.3824
くれませんか	-11.3824
そうしたもの	-11.3825
悪意	-11.3826
熱心	-11.3826
海底	-11.3826
二人以上	-11.3826
▁文章の	-11.3826
すす	-11.3827
▁日常	-11.3829
シャ	-11.3829
▁今までに	-11.3834
酸味	-11.3834
を引いた	-11.3838
その問題について	-11.384
最新の	-11.384
明治	-11.384
▁裁縫	-11.3842
ずく	-11.3842
▁大体	-11.3842
ぼし	-11.3844
外から	-11.3844
地味	-11.3846
正常	-11.3853
はかない	-11.3853
芸者	-11.3855
チョウ	-11.3855
▁サン	-11.3859
外見	-11.386
▁どん	-11.386
六つ	-11.386
倒し	-11.386
▁むり	-11.3863
立体	-11.3864
に立ち	-11.3864
が出て	-11.3865
腹を立てる	-11.3866
召し	-11.3868
□・・	-11.3872
▁彼はひどく	-11.3873
赤道	-11.3879
かなりの	-11.3879
おぼれ	-11.3879
まさか	-11.3881
うっとり	-11.3881
▁没	-11.3882
いくさ	-11.3884
があまり	-11.3884
足音	-11.3885
を断つ	-11.3887
りやすい	-11.3888
の役	-11.3889
▁事件の	-11.3895
▁燃料	-11.3896
セーター	-11.3897
大根	-11.3898
▁よし	-11.3898
に言えば	-11.3899
▁女子	-11.3899
高値	-11.39
綴	-11.3901
熟した	-11.3902
を注ぐ	-11.3903
の者が	-11.3904
意味の	-11.3906
私にとって	-11.3907
▁巻き	-11.3908
先日	-11.3909
てない	-11.3912
同等	-11.3913
▁彼は我々	-11.3914
大砲	-11.3915
やってみた	-11.3916
はずいぶん	-11.3916
引き出し	-11.3918
相談する	-11.3919
を求め	-11.3919
仏道	-11.3919
語った	-11.3923
千万円	-11.3925
▁彼も	-11.3926
の骨	-11.3928
集まっている	-11.3928
▁兄弟	-11.393
の下で	-11.393
▁種種の	-11.3933
通過	-11.3936
▁風呂	-11.3938
▁この問題は	-11.3938
みえ	-11.3943
母親の	-11.3944
▁彼はドア	-11.3944
▁和歌	-11.3946
に来た	-11.3946
一撃	-11.3947
組む	-11.3948
▁昆虫	-11.395
▁彼は妻	-11.3952
▁赤道	-11.3954
炎症	-11.3956
▁聴覚	-11.3957
▁do	-11.3957
成る	-11.3958
過労	-11.396
悪口を言う	-11.3961
全体を	-11.3962
主人の	-11.3963
あの世	-11.3965
▁我	-11.3965
自動車の	-11.3965
as	-11.3967
くわえ	-11.3968
▁ちょっと電話かける	-11.397
本心	-11.3974
を開始する	-11.3974
鷹	-11.3976
いかがですか	-11.3977
▁江戸時代に	-11.3978
▁累	-11.3978
乱暴に	-11.3978
の糸	-11.3979
▁烏	-11.3981
▁網	-11.3984
分の一	-11.3984
の新	-11.3984
けもの	-11.3985
▁国の	-11.3987
▁靴を	-11.3988
見掛け	-11.3989
テント	-11.399
事を行う	-11.3994
正直に	-11.3994
▁だれにも	-11.3994
散り	-11.3996
買い物	-11.4
科の落葉低木	-11.4001
▁事業	-11.4002
できるだけ	-11.4004
意見を述べる	-11.4005
月日	-11.4007
打ち解け	-11.4008
▁めでたい	-11.401
この点	-11.401
ぐり	-11.4011
方言	-11.4011
噴	-11.4011
の花が	-11.4012
さあ	-11.4012
平地	-11.4015
▁こんなに	-11.4016
いし	-11.4017
ならなかった	-11.4018
の旅	-11.4018
通ってい	-11.4019
ばった	-11.4024
▁熱帯	-11.4024
グレ	-11.4025
公平に	-11.4025
土曜日	-11.4027
ポン	-11.4028
▁貝	-11.4029
作物の	-11.403
手荷物	-11.4031
の薬	-11.4032
▁新聞の	-11.4032
十一	-11.4033
武士の	-11.4035
をあて	-11.4035
を知らせる	-11.4036
問題について	-11.4039
に添える	-11.404
ter	-11.404
此	-11.4041
▁バイオリン	-11.4042
▁応	-11.4042
供える	-11.4043
厳重に	-11.4044
潔白	-11.4045
▁費用は	-11.4045
無く	-11.4048
作られる	-11.4049
日常の	-11.4051
ーム	-11.4051
甘く	-11.4052
▁情け	-11.4052
生理	-11.4052
▁穀物	-11.4054
であり	-11.4054
管轄	-11.4054
抜いて	-11.4055
を加えた	-11.4056
メッセをすぐに	-11.4058
切に	-11.4059
説得	-11.4061
て言う語	-11.4064
こわす	-11.4067
あとの	-11.407
俗人	-11.4073
▁講義	-11.4076
間柄	-11.4077
せられた	-11.4078
送金	-11.4078
の羽	-11.4081
がとれる	-11.4082
五センチ	-11.4082
ごし	-11.4083
ことがわかっ	-11.4083
せば	-11.4083
簡略	-11.4083
に関すること	-11.4084
かぬ	-11.4086
▁堅い	-11.4086
水の	-11.4086
呈	-11.4087
に及ぶ	-11.4087
焼ける	-11.4089
党員	-11.4089
▁小麦	-11.409
▁大丈夫	-11.4091
大声	-11.4091
監禁	-11.4094
概	-11.4096
のところで	-11.4097
ことになる	-11.4098
▁昨夜は	-11.4098
燃	-11.4099
溶け	-11.41
の成功を	-11.4102
上陸	-11.4103
を乱す	-11.4104
つる草	-11.4105
戦争で	-11.4109
▁まるで	-11.411
▁ある事を	-11.4112
貼	-11.4115
もよい	-11.4115
▁ある物	-11.4118
▁非常な	-11.4122
▁先生	-11.4123
尋ねた	-11.4123
を捜した	-11.4123
滅び	-11.4124
だれの	-11.4127
あんなに	-11.4128
ウエスト	-11.4129
の発達	-11.413
を見捨て	-11.413
をすっかり	-11.4131
に話す	-11.4132
を浴びる	-11.4132
選ぶ	-11.4133
もらって	-11.4133
▁インク	-11.4134
になるような	-11.4134
模型	-11.4134
漠	-11.4134
をふ	-11.4135
を晴らす	-11.4135
を動かす	-11.4136
潰	-11.4136
箇	-11.4137
不定	-11.4138
嘆願	-11.4138
配り	-11.4139
にぶい	-11.414
でこぼこ	-11.414
認	-11.4142
▁じゃ	-11.4143
提供	-11.4143
推定	-11.4143
の列車	-11.4143
のでなく	-11.4143
を愛する	-11.4144
始末	-11.4144
宣告	-11.4144
自尊心	-11.4144
絹布	-11.4144
永遠	-11.4145
▁みだらな	-11.4148
▁エレベーター	-11.4149
一か所に	-11.4149
▁灰	-11.415
の仲	-11.415
注ぎ	-11.415
ふん	-11.4151
媒	-11.4151
明らか	-11.4152
le	-11.4152
ブラウン	-11.4154
査	-11.4155
鋒	-11.4155
を禁じ	-11.4155
智子さん	-11.4156
賓	-11.4156
に値する	-11.4156
▁嫁	-11.4157
▁相互	-11.4157
委	-11.4157
蕩	-11.4158
に伴う	-11.4158
惜しみ	-11.4158
蹐	-11.4159
提携	-11.4159
錯	-11.4159
ないうちに	-11.4159
混合	-11.4159
F	-11.416
弥	-11.416
需	-11.416
杉	-11.416
せっせと	-11.416
肖像画	-11.416
を払って	-11.4161
苛	-11.4161
拳銃	-11.4161
考えてみ	-11.4161
を禁ずる	-11.4161
奨	-11.4161
喝	-11.4161
誼	-11.4161
スイッチ	-11.4161
款	-11.4161
次から次へと	-11.4161
燕	-11.4161
G	-11.4161
L	-11.4161
ぎゅっと	-11.4161
ちゅうちょ	-11.4161
ジャングル	-11.4161
▁飢え	-11.4161
タッチ	-11.4161
トマト	-11.4161
文房具	-11.4161
朴	-11.4161
痔	-11.4161
詮	-11.4161
辛抱	-11.4161
ホルモン	-11.4161
大げさに	-11.4161
奨学金	-11.4161
閨	-11.4161
いわゆる	-11.4161
をきわめる	-11.4161
を仰ぐ	-11.4161
コルク	-11.4161
郡	-11.4161
うろたえ	-11.4161
を慰める	-11.4161
憐	-11.4161
▁二十四気	-11.4161
曚	-11.4161
徐々に	-11.4161
にかかわらず	-11.4161
煩悩	-11.4161
紗	-11.4161
吾	-11.4161
たぶん	-11.4161
表彰	-11.4161
たきぎ	-11.4161
イングランド	-11.4161
夜が明け	-11.4161
催促	-11.4161
巡査	-11.4162
多くの人	-11.4162
プリント	-11.4162
▁健	-11.4162
五月ごろ	-11.4162
カーブ	-11.4162
潜水艦	-11.4162
外套	-11.4162
発酵	-11.4162
周旋	-11.4162
放射線	-11.4162
セメント	-11.4162
激励	-11.4162
関東	-11.4162
ウェ	-11.4162
腐敗	-11.4162
やさしく	-11.4163
功労	-11.4163
艦隊	-11.4163
結末	-11.4163
賃上げ	-11.4163
ギヤ	-11.4163
簿記	-11.4163
ミシン	-11.4163
郷里	-11.4163
光栄	-11.4164
土俵	-11.4164
休止	-11.4164
デート	-11.4164
皇族	-11.4164
土地の	-11.4164
冷凍	-11.4164
▁都会	-11.4164
婚礼	-11.4164
鮮明	-11.4164
デモ	-11.4165
長い年月	-11.4165
球技	-11.4165
たくみに	-11.4165
に含まれる	-11.4165
となえる	-11.4165
ジャム	-11.4165
浜辺	-11.4165
詩の	-11.4165
住んでいた	-11.4165
發里	-11.4166
沈む	-11.4166
ソン	-11.4166
▁妊娠	-11.4166
因縁	-11.4166
工具	-11.4167
百姓	-11.4167
ほんの少し	-11.4167
達成	-11.4167
神秘的な	-11.4167
テレ	-11.4168
ある種の	-11.4168
情景	-11.4168
失策	-11.4168
農夫	-11.4168
危害	-11.4169
自動的に	-11.4169
売り上げ	-11.4169
草稿	-11.4169
▁この部屋は	-11.4169
荒廃	-11.4169
卒業生	-11.4169
殺害	-11.417
映画館	-11.417
に報いる	-11.417
日常	-11.417
はげしく	-11.417
▁妻の	-11.417
に相当する	-11.417
カット	-11.4171
メモ	-11.4171
体育	-11.4171
実施	-11.4171
突破	-11.4172
減少	-11.4172
高貴	-11.4172
平静	-11.4173
会わない	-11.4173
クマ	-11.4173
こぼし	-11.4173
可能な	-11.4173
禁煙	-11.4174
成句	-11.4174
不愉快	-11.4174
要約	-11.4174
誠意	-11.4174
断定	-11.4174
な男	-11.4174
不便	-11.4175
定刻	-11.4175
おおもと	-11.4176
皮膚病	-11.4176
生育	-11.4176
合議	-11.4176
反省	-11.4176
夏休み	-11.4176
パンチ	-11.4176
にあずかる	-11.4176
一晩中	-11.4177
▁中古	-11.4177
火鉢	-11.4177
逆転	-11.4177
みがき	-11.4177
真価	-11.4178
利息	-11.4178
重荷	-11.4178
歴史的	-11.4178
手がかり	-11.4178
破れ	-11.4178
くじら	-11.4179
見出し	-11.4179
原野	-11.4179
長生き	-11.418
▁電力	-11.418
▁処女	-11.418
緑色で	-11.4181
計器	-11.4181
粒子	-11.4184
▁春の	-11.4184
上司	-11.4184
あげく	-11.4185
九州	-11.4185
すっきり	-11.4185
純白	-11.4185
ちがい	-11.4186
もはや	-11.4187
黄色で	-11.4187
▁東洋	-11.4187
生きて	-11.4188
選手権	-11.4188
たぐい	-11.4189
けがをした	-11.4189
読み書き	-11.4189
音を出す	-11.419
暗示	-11.419
単なる	-11.419
群集	-11.4191
をなしている	-11.4193
出帆	-11.4193
ところがあった	-11.4194
に帰する	-11.4194
にあてる	-11.4195
整数	-11.4196
半島	-11.4198
砂利	-11.4198
陣地	-11.4198
がね	-11.4198
▁くず	-11.4198
公判	-11.4198
砂糖を	-11.42
きる	-11.42
救い	-11.42
と聞いて	-11.42
一まとまり	-11.4201
▁脊椎動物の	-11.4201
▁れい	-11.4202
あざやかな	-11.4202
ずし	-11.4203
をこしらえる	-11.4204
翌日	-11.4204
に気づいた	-11.4204
▁困難	-11.4204
てから	-11.4204
歌曲	-11.4205
不和	-11.4205
好ましくない	-11.4205
にし	-11.4206
時ごろ	-11.4206
かって	-11.4207
当座	-11.4207
をいう	-11.4209
一年中	-11.4209
▁幽	-11.421
ちがう	-11.421
と言われる	-11.4211
学位	-11.4212
坊や	-11.4213
帆船	-11.4214
確実	-11.4214
通例	-11.4216
▁シェイクスピア	-11.4217
との中間	-11.4218
問題が	-11.4218
資本家	-11.4218
を確かめる	-11.4218
▁ペンキ	-11.422
のないように	-11.422
穂状	-11.4221
主役	-11.4221
浅く	-11.4221
に参加する	-11.4225
切ること	-11.4225
不完全	-11.4226
▁身長	-11.4226
方策	-11.4228
柔らかな	-11.4228
▁頬	-11.4228
音程	-11.4229
▁拙	-11.4229
獲得	-11.423
▁食物	-11.4232
自分から	-11.4232
主任	-11.4232
々たる	-11.4234
そうな様子	-11.4234
帰国	-11.4235
示した	-11.4235
▁私は彼女	-11.4235
説く	-11.4235
浮かぶ	-11.4235
くだもの	-11.4236
▁ほら	-11.4237
谷間	-11.4238
第三者	-11.4238
才気	-11.4238
今では	-11.424
の政治	-11.424
ばかりだった	-11.424
包む	-11.424
下院	-11.4241
▁探	-11.4242
ぶね	-11.4243
酔う	-11.4244
をたどる	-11.4245
杯の	-11.4246
休息	-11.4249
活動の	-11.4249
ハー	-11.4249
正確	-11.425
はかま	-11.425
あいている	-11.4251
血が	-11.4251
に似ているが	-11.4252
▁女性の	-11.4253
ふところ	-11.4253
半期	-11.4253
にすむ	-11.4254
▁男性	-11.4255
ある場所	-11.4255
▁°	-11.4257
おかず	-11.4257
▁私たちの	-11.4258
育てること	-11.4258
登る	-11.4258
の鳥	-11.4259
▁興行	-11.4261
▁キリスト教で	-11.4262
仮に	-11.4262
度数	-11.4262
蕕譴	-11.4265
金持	-11.4265
▁聖書	-11.4267
不明の	-11.4267
大学の	-11.4268
よくよく	-11.4268
がちだ	-11.4268
▁こく	-11.4269
▁顔を	-11.427
創作	-11.427
▁身分の高い人	-11.4271
全世界	-11.4271
実が	-11.4272
▁結果は	-11.4274
王国	-11.4276
霧が	-11.4279
た時	-11.4279
枝が	-11.4279
歩道	-11.4282
にそむく	-11.4283
の景色	-11.4283
斜めに	-11.4285
▁公共	-11.4286
小説家	-11.4286
政界	-11.4288
を巻く	-11.4289
乗せて	-11.429
た食品	-11.4291
投げる	-11.4293
▁当て	-11.4294
▁昼食	-11.4296
を他の	-11.4296
加わる	-11.43
腐れ	-11.4301
▁肥	-11.4301
に分けて	-11.4301
東洋	-11.4302
を述べた	-11.4302
の模様	-11.4303
日曜	-11.4303
▁こちら	-11.4304
寄せ集め	-11.4304
あふれてい	-11.4305
▁表面	-11.4306
くてたまらない	-11.4306
をごまかす	-11.4306
▁彼は友人	-11.4306
降った	-11.4308
越年生	-11.4309
物事を行う	-11.4309
▁不平	-11.431
生物が	-11.4311
どく	-11.4312
大家	-11.4313
つやがある	-11.4316
いっぱいに	-11.4316
新聞で	-11.4317
を見ること	-11.4317
この計画	-11.4319
上演	-11.4319
かぶと	-11.432
不作	-11.4321
銃声	-11.4321
その上	-11.4322
きました	-11.4323
もも	-11.4327
の荒い	-11.4329
▁絵画	-11.433
大笑い	-11.4331
に悩む	-11.4334
▁株式	-11.4335
水や	-11.4335
▁衆	-11.4336
実地に	-11.4336
▁なお	-11.4337
▁明日	-11.4337
貯え	-11.4338
▁P	-11.4338
▁食物を	-11.434
船を	-11.4341
点数	-11.4343
の地位	-11.4343
▁敬	-11.4344
すわること	-11.4344
▁ジョン	-11.4344
を楽しむ	-11.4345
▁警戒	-11.4345
を結び	-11.4345
▁呼び	-11.4346
は僕の	-11.4347
をきれいに	-11.4347
ひね	-11.4349
割れた	-11.435
▁しばらく	-11.435
なれば	-11.4352
▁軍艦	-11.4356
▁濃	-11.4357
とどめ	-11.4357
小便	-11.436
を握る	-11.4361
返した	-11.4368
▁ジャ	-11.4368
の一派	-11.4368
▁頓	-11.4372
出発した	-11.4373
もしなかった	-11.4376
助けてくれ	-11.4376
へや	-11.4376
を起こし	-11.4376
会場	-11.4377
海上	-11.4378
▁そうです	-11.4379
に咲く	-11.4379
をつなぐ	-11.438
かれて	-11.4383
急所	-11.4383
を抜いて	-11.4384
よる	-11.4386
▁かわいい	-11.4389
ができ	-11.439
▁誠	-11.4391
かろう	-11.4391
▁職務	-11.4394
スピード	-11.4396
誓	-11.4397
廃物	-11.4399
▁釣	-11.4399
分別	-11.44
▁又	-11.4402
▁狩猟	-11.4402
去って	-11.4402
してやった	-11.4403
▁運賃	-11.4405
の車	-11.4407
巻きつけ	-11.4408
あれほど	-11.441
▁人類	-11.4411
ならす	-11.4411
ていないこと	-11.4411
▁ここに	-11.4415
シー	-11.4417
斜め	-11.4418
のだろうか	-11.4419
▁軍人	-11.4422
共鳴	-11.4422
▁悪魔	-11.4424
一派	-11.4425
下にある	-11.4426
その上に	-11.4427
はいる	-11.4429
▁しょ	-11.443
細君	-11.4433
論ずる	-11.4434
すぐれたもの	-11.4435
を望む	-11.4436
求めること	-11.4436
▁舟	-11.4436
▁まさか	-11.4437
をなして	-11.4437
実体	-11.4439
ドイツ	-11.4439
通じている	-11.4439
になります	-11.444
皮膚に	-11.444
ができて	-11.4441
日曜日	-11.4442
▁彼女は自分	-11.4444
大気	-11.4444
▁彼女を	-11.4445
道が	-11.4447
▁つめ	-11.4448
▁排水	-11.4448
しません	-11.4448
をつけない	-11.4449
おぼれる	-11.4452
もありません	-11.4452
▁カメラ	-11.4455
その日の	-11.4458
▁実物	-11.4459
▁すぐに電話をかける	-11.4459
▁老い	-11.446
その場で	-11.446
▁英語を	-11.4461
かざ	-11.4463
陰謀	-11.4463
グル	-11.4464
▁ジョンは	-11.4466
▁この世	-11.4466
などして	-11.4466
ジャズ	-11.4467
紛	-11.4467
英文学	-11.4468
だらけ	-11.4468
行ない	-11.447
凶	-11.447
N	-11.4471
歩調	-11.4471
が落ちる	-11.4472
をかむ	-11.4473
幾つ	-11.4473
不幸な	-11.4474
焼けて	-11.4475
▁邪	-11.4475
イタリア	-11.4476
小麦粉	-11.4476
飼う	-11.4481
液体の	-11.4481
食卓	-11.4483
そろえ	-11.4484
田舎	-11.4484
とらえ	-11.4484
したものだ	-11.4487
メン	-11.4487
食料	-11.4488
▁会場	-11.4488
▁技術	-11.449
航空	-11.4491
申し上げ	-11.4491
野外	-11.4492
夏に	-11.4492
から離れて	-11.4492
▁側	-11.4494
日本に	-11.4494
で打つ	-11.4496
▁彼は彼ら	-11.4496
状態にする	-11.4498
▁20	-11.4498
▁鉄道の	-11.45
当日	-11.4503
▁侍	-11.4503
に属し	-11.4504
税金	-11.4505
私たちは	-11.4507
一通り	-11.4507
便所	-11.4507
▁家屋	-11.4508
▁言葉を	-11.4509
料理の	-11.4509
を加えること	-11.451
がたまる	-11.4511
▁得	-11.4513
したりすること	-11.4513
靴覆	-11.4515
▁ベッド	-11.4516
伝える	-11.4516
▁枕	-11.4517
▁怪	-11.4519
▁正面	-11.452
もんか	-11.452
を上げて	-11.4521
端に	-11.4522
に残る	-11.4524
じき	-11.4525
▁誤った	-11.4526
済み	-11.4526
見えること	-11.4527
▁T	-11.453
▁建設	-11.4531
に走る	-11.4531
かかっていた	-11.4533
残した	-11.4533
北方	-11.4533
っぽく	-11.4534
任命	-11.4535
じた	-11.4538
▁雲が	-11.4538
の豊かな	-11.4539
▁いまから電話する	-11.4541
飛んでい	-11.4542
小石	-11.4544
つみ	-11.4544
運動をする	-11.4544
ぶった	-11.4545
その辺	-11.4545
神道	-11.4548
▁白い	-11.4549
の回転	-11.4551
を得ようと	-11.4551
られること	-11.4552
を証明する	-11.4552
▁洗濯	-11.4554
正規の	-11.4555
仕入れ	-11.4557
がかかる	-11.4557
の表	-11.4558
金属を	-11.456
意地	-11.4562
の価格	-11.4562
赤ん坊を	-11.4564
▁運命	-11.4565
ドリ	-11.4566
本国	-11.4566
の要求	-11.4566
たがる	-11.4567
表現する	-11.4569
等で	-11.457
西部	-11.4571
虫が	-11.4575
僕に	-11.4576
告白	-11.4577
▁保険	-11.4579
の作用	-11.458
のしみ	-11.4581
吹く風	-11.4582
経済的	-11.4582
版画	-11.4583
▁禁酒	-11.4583
プレ	-11.4584
▁原子	-11.4585
流出	-11.4589
▁工事	-11.4591
青空	-11.4592
を与えること	-11.4593
僕が	-11.4593
の保護	-11.4594
接する	-11.4596
▁書籍	-11.4596
くっつく	-11.4602
持っていること	-11.4603
寬	-11.4603
はまるで	-11.4604
信じる	-11.4604
悪事を	-11.4604
馬に乗って	-11.4605
の小説	-11.4605
時だ	-11.4605
の着物	-11.4606
フォー	-11.4608
下がった	-11.4608
なくては	-11.4612
▁かぜ	-11.4613
言いつけ	-11.4615
恐れて	-11.4615
▁長さ	-11.4617
尊重	-11.4617
降ろ	-11.4617
▁射	-11.4618
打ち明け	-11.4619
ありのまま	-11.4619
当時の	-11.462
▁施	-11.4622
頑張	-11.4624
▁きょうの	-11.4624
▁とん	-11.4628
力学	-11.4628
人人が	-11.4632
始まる	-11.4633
六月	-11.4636
▁抗	-11.4636
の力で	-11.4636
きれない	-11.4637
糸で	-11.4638
▁かき	-11.464
花の	-11.4642
▁いつか	-11.4642
じょうずに	-11.4646
はじき	-11.4646
▁なぞ	-11.4647
女だ	-11.4649
に帰る	-11.465
▁まめ	-11.4651
をつぶす	-11.4653
▁問題を	-11.4654
▁憲法	-11.4655
債	-11.4658
の順序	-11.466
から成り	-11.4662
同類の	-11.4662
多くの人が	-11.4663
大人	-11.4664
値打ち	-11.4666
▁ほお	-11.4666
▁パイプ	-11.4666
右手	-11.4667
▁成功	-11.4669
▁まっすぐ	-11.4669
学士	-11.4671
新人	-11.4672
ローマ字	-11.4672
簡単	-11.4672
番目	-11.4673
▁予想	-11.4673
大都市	-11.4674
▁かなり	-11.4675
▁特別の	-11.4675
▁駄	-11.4675
の戦い	-11.4676
音の	-11.4677
かぶる	-11.4677
努力を	-11.4678
見ても	-11.4678
▁爪	-11.468
は薬用	-11.4681
部屋の中	-11.4686
まぶ	-11.4687
書物の	-11.4687
野菜を	-11.4688
すし	-11.4688
据え	-11.469
ったりする	-11.4692
暖地	-11.4694
▁セ	-11.4695
▁濃い	-11.4695
の重さ	-11.4697
時刻に	-11.4698
一番よい	-11.4699
たいした	-11.4699
をもらって	-11.47
ずき	-11.4703
ドライブ	-11.4704
に分かれて	-11.4705
延期	-11.4706
くろ	-11.4709
があったら	-11.4709
あじ	-11.4711
公認	-11.4713
五弁	-11.4713
つかまえる	-11.4721
▁通信	-11.4723
飛行機が	-11.4723
▁袖	-11.4723
▁彼らは彼の	-11.4723
未開	-11.4724
▁天才	-11.4724
の幼虫	-11.4725
に立って	-11.4725
▁婚約	-11.4726
こもって	-11.4727
▁やがて	-11.4728
突き出た	-11.4729
▁昨日	-11.4729
音が	-11.473
ひっくり返	-11.4732
いただき	-11.4732
腰掛け	-11.4733
▁準備	-11.4733
休め	-11.4733
を捜して	-11.4734
まとめた	-11.4736
別れる	-11.4737
出入	-11.4738
人々が	-11.4738
▁書物を	-11.4738
の技術	-11.474
軽率	-11.4741
を挙げる	-11.4741
が悪く	-11.4742
臨終	-11.4742
▁しゃく	-11.4742
▁手術	-11.4742
をしないこと	-11.4742
▁図書館	-11.4745
やすく	-11.4747
余る	-11.4749
ぐれ	-11.475
の中にある	-11.4753
恨	-11.4753
▁トラ	-11.4753
が残る	-11.4757
にはいる	-11.4757
本当だ	-11.4757
募	-11.4757
気になった	-11.4758
婦人用	-11.4759
歩き回る	-11.476
痛みが	-11.4761
でたらめ	-11.4761
反逆	-11.4762
▁部屋を	-11.4764
旗を	-11.4765
太陽が	-11.4765
▁たいていの	-11.4765
共産主義	-11.4766
履	-11.4766
計算する	-11.4766
般	-11.4767
▁穴	-11.4767
御所	-11.4767
よりずっと	-11.4768
努力した	-11.4769
縁組	-11.477
の側	-11.477
厄	-11.477
征	-11.4771
こっち	-11.4771
正当	-11.4771
が切れる	-11.4772
山道	-11.4773
稼ぎ	-11.4773
がほしい	-11.4775
捻	-11.4775
出資	-11.4776
究	-11.4776
汽	-11.4777
威勢	-11.4778
痕	-11.4779
キュ	-11.478
察する	-11.478
囲碁	-11.478
申しあげます	-11.4781
婆	-11.4781
出てくる	-11.4781
に産する	-11.4782
を支える	-11.4782
傑	-11.4782
臼	-11.4782
まんまと	-11.4783
研	-11.4783
▁地球は	-11.4784
容赦	-11.4784
謹	-11.4784
肢	-11.4784
記した	-11.4785
リットル	-11.4785
小作	-11.4785
いかがわしい	-11.4785
絵をかく	-11.4785
スピーチ	-11.4786
爐	-11.4786
遡	-11.4786
悊	-11.4786
瘡	-11.4786
屠	-11.4786
欺	-11.4786
x	-11.4786
あこがれ	-11.4786
撥	-11.4786
灌	-11.4786
猥	-11.4786
丁寧に	-11.4786
畔	-11.4786
ちょっぴり	-11.4786
オフィス	-11.4786
俊	-11.4786
途方もない	-11.4786
鄙	-11.4786
そろばん	-11.4786
そわそわ	-11.4786
ナトリウム	-11.4786
疵	-11.4786
祥	-11.4786
聾	-11.4786
註	-11.4786
とは限らない	-11.4786
ボクサー	-11.4786
准	-11.4786
只	-11.4786
斧	-11.4786
謙遜	-11.4786
ぐるりと	-11.4786
オーケストラ	-11.4786
ステレオ	-11.4786
吠	-11.4786
未亡人	-11.4786
稜	-11.4786
誅	-11.4786
アルミニウム	-11.4786
幾重にも	-11.4786
窟	-11.4786
躯	-11.4786
廓	-11.4786
漿	-11.4786
びっくりする	-11.4786
いろんな	-11.4786
が伴う	-11.4786
プラスチック	-11.4786
昭和	-11.4786
膨張	-11.4786
進退	-11.4786
グラム	-11.4786
けしからぬ	-11.4786
用途が広い	-11.4786
認可	-11.4786
伸縮	-11.4786
正方形	-11.4786
かろうじて	-11.4786
鎌倉	-11.4786
採掘	-11.4786
か否か	-11.4786
徴候	-11.4787
調味料	-11.4787
孟	-11.4787
崩壊	-11.4787
のらくら	-11.4787
ブラック	-11.4787
至る所	-11.4787
ラッパ	-11.4787
強引に	-11.4787
問答	-11.4787
実践	-11.4787
誓約	-11.4787
包丁	-11.4787
きく科の多年生植物	-11.4787
を越えた	-11.4787
も同然だ	-11.4787
圧縮	-11.4787
同種の	-11.4788
諸侯	-11.4788
を売って	-11.4788
完結	-11.4788
語彙	-11.4788
のぞき	-11.4788
預かり	-11.4788
▁会計	-11.4788
隔たり	-11.4788
意匠	-11.4788
喪失	-11.4788
何年も	-11.4788
傑作	-11.4788
こまかく	-11.4788
索引	-11.4788
しのぎ	-11.4788
傍聴	-11.4788
弊害	-11.4788
謝礼	-11.4789
了解	-11.4789
容積	-11.4789
をねらう	-11.4789
設けられた	-11.4789
保有	-11.4789
参照	-11.4789
どなた	-11.4789
堅固	-11.4789
曇った	-11.4789
の度合	-11.4789
わきまえ	-11.4789
充実	-11.479
限定	-11.479
海苔	-11.479
ペット	-11.479
例えば	-11.479
引退	-11.479
炊事	-11.479
全般	-11.479
答案	-11.479
あんまり	-11.4791
担任	-11.4791
▁その川は	-11.4791
ちょろ	-11.4791
身分の低い	-11.4791
ニュー	-11.4791
ジム	-11.4791
ノン	-11.4791
▁仙	-11.4792
呑み	-11.4792
を備えた	-11.4792
じょうず	-11.4792
▁船を	-11.4793
くれない	-11.4793
特質	-11.4793
偽造	-11.4794
溶接	-11.4794
荷造り	-11.4794
しかたがない	-11.4794
返礼	-11.4795
ジェット機	-11.4795
酒宴	-11.4795
になりたい	-11.4795
選挙区	-11.4795
採点	-11.4796
容量	-11.4796
を刈る	-11.4796
逃亡	-11.4796
優良	-11.4796
修士	-11.4797
女郎	-11.4797
▁その劇は	-11.4797
無分別	-11.4797
泳いで	-11.4797
指紋	-11.4797
動物が	-11.4798
不振	-11.4799
なことをする	-11.4799
美容	-11.4799
食べられる	-11.48
あたま	-11.48
手を振って	-11.48
勇さん	-11.48
天災	-11.48
言葉づかい	-11.4801
に至る	-11.4801
不可能だ	-11.4801
敵意	-11.4801
牢屋	-11.4801
占い	-11.4802
忌み	-11.4802
羽根	-11.4802
片づける	-11.4802
伝記	-11.4802
合い図	-11.4803
▁江戸時代の	-11.4803
建築物	-11.4803
即席	-11.4803
技法	-11.4803
こども	-11.4803
骨組	-11.4804
昼夜	-11.4804
▁意地	-11.4805
そこへ	-11.4806
豊富な	-11.4807
学級	-11.4807
▁費用	-11.4807
複写	-11.4807
金庫	-11.4808
なすべき	-11.4808
傷害	-11.4808
したことを	-11.4808
▁品質	-11.4808
している人	-11.4809
愛好	-11.4809
▁余計な	-11.481
文壇	-11.481
好んで	-11.4811
の主人	-11.4811
露骨	-11.4811
平常	-11.4811
首に	-11.4812
通常	-11.4812
中年	-11.4812
引っぱる	-11.4812
映画の	-11.4813
ぴったり合う	-11.4813
▁畳	-11.4813
競技場	-11.4814
今頃	-11.4814
を引き出す	-11.4815
をたたいて	-11.4815
僕には	-11.4815
▁馬を	-11.4816
消費者	-11.4816
食料品	-11.4816
婦人服	-11.4816
額面	-11.4817
領主	-11.4817
は言えない	-11.4817
化粧品	-11.4818
▁内閣	-11.4818
和解	-11.482
後退	-11.482
草原	-11.482
霊魂	-11.482
血筋	-11.4821
▁にわかに	-11.4821
債権者	-11.4821
▁山野	-11.4821
考えられる	-11.4822
をなくす	-11.4822
話し合う	-11.4822
してよい	-11.4823
倍の	-11.4824
地盤	-11.4824
遺産	-11.4824
をつけたもの	-11.4824
実在	-11.4824
旅費	-11.4825
年頃	-11.4826
薄弱	-11.4826
分割	-11.4826
慣れた	-11.4827
年寄り	-11.4827
魔法	-11.4829
国防	-11.4829
我慢する	-11.483
優美な	-11.483
天罰	-11.483
渡った	-11.4831
っ面	-11.4832
ホテルに	-11.4832
あわせて	-11.4835
晴れた	-11.4835
買手	-11.4836
海辺	-11.4836
第二	-11.4837
打ち上げ	-11.4838
のほうへ	-11.484
病気になった	-11.484
▁戦場	-11.4841
▁もう一度	-11.4842
下ろし	-11.4842
着用	-11.4842
▁あの男の	-11.4843
腹は白	-11.4843
▁独立	-11.4844
言う言葉	-11.4844
の和	-11.4847
ないのに	-11.4848
ある期間	-11.4851
防火	-11.4851
解き	-11.4851
で遊ぶ	-11.4852
表した	-11.4852
呂覆	-11.4853
質が	-11.4853
船乗り	-11.4854
▁群衆は	-11.4856
▁原文	-11.4857
┐	-11.4857
▁幸運	-11.4858
▁透	-11.4858
陸上	-11.4858
▁ニュース	-11.4858
お知らせ	-11.4859
一般的な	-11.4859
どうでも	-11.486
に上る	-11.4862
見張る	-11.4862
歩み	-11.4864
できます	-11.4864
洗って	-11.4865
高級	-11.4865
引き抜く	-11.4866
力のある	-11.4866
をつくして	-11.4866
に反して	-11.4867
に気をつけ	-11.4867
文筆	-11.4869
一塁	-11.4872
どぶ	-11.4872
でメッセ送	-11.4873
斬り	-11.4873
などで作った	-11.4874
野鳥	-11.4874
なかま	-11.4878
が最も	-11.4879
警察に	-11.4879
▁責め	-11.4881
道化	-11.4882
周期	-11.4883
妨げ	-11.4883
罰金	-11.4884
の全体	-11.4884
親等	-11.4884
さらし	-11.4884
エン	-11.4885
直行	-11.4886
個人的な	-11.4887
近くの	-11.4888
▁体重	-11.4888
今後	-11.4892
高め	-11.4893
看護	-11.4894
▁その人の	-11.4894
して下さい	-11.4894
淡水	-11.4896
の周り	-11.49
関税	-11.49
一か月	-11.4902
れなかった	-11.4903
がとても	-11.4903
じろ	-11.4906
▁芝居で	-11.4906
▁自然の	-11.4907
苦しめる	-11.4907
噴出	-11.4908
▁ちゅう	-11.4909
方々	-11.491
放送局	-11.491
哀れな	-11.4911
あらい	-11.4912
至急	-11.4912
▁スピード	-11.4913
▁いか	-11.4914
防水	-11.4914
が短い	-11.4914
でメッセいまから	-11.4915
真空	-11.4915
」、「	-11.492
あわせること	-11.4921
▁浜	-11.4923
右側	-11.4924
そのため	-11.4925
出なかった	-11.4927
開けた	-11.4931
▁修	-11.4932
▁恋愛	-11.4932
ためには	-11.4932
に変わる	-11.4933
進路	-11.4933
学校へ行く	-11.4933
じょうずな	-11.4934
あるものを	-11.4936
下る	-11.4937
お茶を	-11.4937
好きだ	-11.4938
絶望	-11.4941
▁彼らに	-11.4942
桜の	-11.4942
個性	-11.4942
かんで	-11.4943
たちが	-11.4943
の意志	-11.4944
お話	-11.4945
こない	-11.4945
なやつ	-11.4947
それらの	-11.4949
指先	-11.4954
同行	-11.4954
大波	-11.4955
▁彼は仕事	-11.4957
結果として	-11.4957
▁紅茶	-11.496
の午後	-11.496
応じ	-11.4961
雑用	-11.4962
棒を	-11.4963
来世	-11.4963
を探る	-11.4965
▁彼は僕	-11.4966
論点	-11.4967
▁すぐに警察	-11.4967
あいだ	-11.4971
▁酔っぱら	-11.4974
刺す	-11.4976
▁静子さん	-11.4976
の季節	-11.4977
あいつ	-11.4978
が合わない	-11.4982
言を言う	-11.4983
はめ	-11.4985
▁酸	-11.4986
のうちの	-11.4986
▁平面	-11.4987
地震で	-11.4988
待ってい	-11.4988
のおかげで	-11.4989
あたる	-11.4989
▁受験	-11.4989
沈んで	-11.499
そうだった	-11.4993
戻り	-11.4993
引いた	-11.4994
つなぐ	-11.4994
▁いん	-11.4994
が上手	-11.4994
とうてい	-11.4997
円の	-11.4998
なのです	-11.4999
▁そこは	-11.5
もちろん	-11.5001
終わりまで	-11.5002
▁喜んで	-11.5002
出ていた	-11.5002
見切り	-11.5003
▁天地	-11.5004
演習	-11.5004
コック	-11.5005
よごれた	-11.5006
穴から	-11.5007
高いこと	-11.5008
支配人	-11.501
生意気な	-11.5012
語法	-11.5012
でメッセを送	-11.5013
▁何が	-11.5013
上にある	-11.5016
ひとみ	-11.5017
固める	-11.5018
さかい	-11.5019
にしても	-11.5019
製本	-11.5021
▁話の	-11.5023
との間の	-11.5025
に書く	-11.5026
▁琴	-11.5027
はま	-11.5029
として用いる	-11.503
▁他人が	-11.5031
に分け	-11.5031
書き方	-11.5032
圧倒	-11.5032
▁同一	-11.5034
▁おれ	-11.5035
生徒たち	-11.5036
▁背中	-11.5036
糸で織った	-11.5037
を無視して	-11.504
▁湖	-11.504
に少し	-11.5041
子音	-11.5042
を二つ	-11.5043
▁おや	-11.5046
をせず	-11.5047
債券	-11.5047
▁近頃	-11.5047
しかけ	-11.5047
進化	-11.5048
聞いている	-11.5048
掘	-11.5048
▁刺	-11.5049
ひる	-11.5049
▁支払い	-11.505
を感ずる	-11.5054
死者の	-11.5055
を証明し	-11.5056
がしら	-11.5056
仏事	-11.5057
悪い事	-11.5057
説明した	-11.5059
時期に	-11.5061
るため	-11.5061
亜	-11.5062
▁ブ	-11.5064
うれしそう	-11.5066
は人間	-11.5068
▁計算	-11.5068
▁武力	-11.5069
▁天気	-11.507
尽きる	-11.5072
熱心に	-11.5073
犬に	-11.5074
分けた	-11.5074
になるまで	-11.5074
に苦しむ	-11.5075
そうな顔	-11.5077
というのが	-11.5078
▁他のもの	-11.5078
いまから送信	-11.5079
▁悪い事	-11.5079
に構える	-11.5085
まとめて	-11.5086
▁食料	-11.5088
共同で	-11.509
して歩く	-11.509
手に入れた	-11.5091
に出席する	-11.5093
つけている	-11.5094
捨てること	-11.5094
取り除く	-11.5094
面が	-11.5095
の時間	-11.5095
になりますか	-11.5097
味をつけた	-11.5099
の機会	-11.5103
状態である	-11.5105
気持で	-11.5106
ばか者	-11.5107
てもらえ	-11.5108
すぐ近く	-11.5108
その物	-11.5109
▁木の	-11.5109
▁冒険	-11.5111
▁N	-11.5112
ゲル	-11.5117
小数	-11.5118
が痛む	-11.5118
またはその	-11.5119
▁彼は仕事に	-11.5119
▁海の	-11.512
▁仏教	-11.5121
っこい	-11.5122
きいた	-11.5123
遅	-11.5123
▁別れ	-11.5126
決算	-11.5128
めったにない	-11.5129
それでも	-11.513
に変わった	-11.513
洪水	-11.5131
まつる	-11.5133
めかし	-11.5133
を登る	-11.5136
世間で	-11.5138
▁暑さ	-11.5139
訴える	-11.5139
振って	-11.514
を離れた	-11.5143
種目	-11.5146
群れ	-11.5146
▁劇場	-11.5146
人から	-11.5148
▁スープ	-11.5149
気持を表す	-11.5149
結婚の	-11.515
▁きびしい	-11.515
車が	-11.5152
犯罪者	-11.5153
来週	-11.5153
▁耐	-11.5153
もらいたい	-11.5154
入れ物	-11.5155
トップ	-11.5155
をよくする	-11.5156
▁ついに	-11.5156
▁he	-11.5156
映え	-11.5157
し合う	-11.5158
分配	-11.5159
くじけ	-11.516
の茎	-11.516
考慮	-11.516
▁僕には	-11.5161
肩を	-11.5165
▁蚕	-11.5165
秘蔵	-11.5165
人類の	-11.5166
▁締め	-11.5166
というものは	-11.5169
天性	-11.517
愛想	-11.5171
召集	-11.5171
▁動物が	-11.5171
が大嫌い	-11.5171
▁労	-11.5172
してもらった	-11.5172
両方の	-11.5173
▁我々が	-11.5174
目上の人	-11.5178
の特徴	-11.5179
▁就職	-11.5179
を送って	-11.5181
小枝	-11.5181
のを防ぐ	-11.5181
放射能	-11.5182
▁どうやら	-11.5183
又	-11.5185
▁波が	-11.5186
狩猟	-11.5186
▁細かい	-11.5187
完	-11.5187
二枚	-11.5187
運賃	-11.5187
近頃	-11.5188
いう音	-11.5188
下級の	-11.519
代用	-11.5192
はかなり	-11.5192
▁梅雨	-11.5192
▁週	-11.5192
なめらかで	-11.5193
柔道	-11.5194
蹴	-11.5194
に勝つ	-11.5196
に注意	-11.5197
流感	-11.5198
が広く	-11.5198
▁ボートは	-11.5198
ロケット	-11.5199
努力する	-11.5201
▁国王	-11.5201
見せること	-11.5204
山の中	-11.5205
乏しい	-11.5205
間接	-11.5206
指に	-11.5206
頓	-11.5206
登山	-11.5206
に等しい	-11.5207
のに必要な	-11.5207
きのう	-11.521
ある所	-11.521
武力	-11.521
親に	-11.521
あざ	-11.5212
から離れた	-11.5214
▁弔	-11.5214
底に	-11.5215
商業	-11.5215
外国語	-11.5215
我慢できない	-11.5218
朝早く	-11.5218
同点	-11.522
信する	-11.522
をまぜ	-11.522
鳥類	-11.5221
▁ゆっくり	-11.5221
きらう	-11.5221
〕(	-11.5221
言い伝え	-11.5224
いつか	-11.5225
▁月に	-11.5225
キン	-11.5227
事情が	-11.5227
は大変な	-11.5228
株式	-11.5229
核実験	-11.523
▁藪	-11.523
場合の	-11.523
▁あいにく	-11.523
さびしい	-11.5232
動いた	-11.5234
マー	-11.5234
▁少女	-11.5234
極度	-11.5235
設立	-11.5236
らせること	-11.5238
明け方	-11.5241
▁ろく	-11.5241
の生産	-11.5242
穴をあける	-11.5243
にひた	-11.5244
ボス	-11.5249
を合わせて	-11.525
借金の	-11.5251
でもある	-11.5252
式に	-11.5252
に思うこと	-11.5254
を設ける	-11.5255
▁法令	-11.5257
科の魚	-11.526
万年	-11.526
だったので	-11.5261
実を結ぶ	-11.5263
▁代金	-11.5263
おそい	-11.5263
▁きっと	-11.5264
▁はく	-11.5265
分担	-11.5265
と違った	-11.5265
ある場所に	-11.5268
本文の	-11.5268
横たわる	-11.5272
労働者の	-11.5273
価値を	-11.5274
ざま	-11.5276
変える	-11.528
まぜて	-11.5281
その年の	-11.5282
をかわす	-11.5285
気をつける	-11.5286
重病	-11.5287
学生の	-11.5288
一時に	-11.5289
を包む	-11.5291
▁もち	-11.5292
ひもで	-11.5293
を習う	-11.5293
▁宮	-11.5294
胸を	-11.5294
裁断	-11.5295
を借りる	-11.5296
▁陸地	-11.5296
言う事	-11.5296
をはずす	-11.5298
ところは	-11.5298
で旅行する	-11.5299
▁細かく	-11.53
しなければならなかった	-11.5303
生きた	-11.5304
▁彼らは我々	-11.5305
クタ	-11.5305
▁アイ	-11.5305
君を	-11.5306
集まること	-11.5306
▁もとの	-11.5306
すてき	-11.5309
投票で	-11.5311
照らし	-11.5313
くれと	-11.5314
ボクシング	-11.5314
▁妙	-11.5316
▁ほこり	-11.5316
▁水銀	-11.5317
に当てる	-11.5319
突く	-11.5319
何人かの	-11.5319
ごまかし	-11.532
生徒に	-11.5325
があ	-11.5326
▁攻め	-11.5326
派遣する	-11.5326
▁彼の目	-11.5328
山腹	-11.5329
監督する	-11.533
つくる	-11.5332
唱え	-11.5333
▁フィ	-11.5333
しるした	-11.5333
これ以上	-11.5333
おいし	-11.5336
送った	-11.5336
はただ	-11.5336
▁世に	-11.5338
を認めた	-11.5339
▁脇	-11.5339
彼女の顔	-11.534
を業とする	-11.534
わた	-11.5341
▁やり	-11.5341
駅で	-11.5344
一致しない	-11.5344
んでしょう	-11.5345
放つ	-11.5347
▁収穫	-11.5347
すまい	-11.5352
非難する	-11.5353
するところ	-11.5353
つむ	-11.5354
砲火	-11.5354
即座に	-11.5355
を与え	-11.5356
翻	-11.5356
より先に	-11.5359
スコットランド	-11.5361
▁彼は自分	-11.5362
▁救	-11.5362
付いた	-11.5362
卒業する	-11.5362
晴れる	-11.5363
抑え	-11.5364
定める	-11.5364
▁明かり	-11.5365
の像	-11.5365
まが	-11.5365
金色の	-11.5365
▁かすかな	-11.5368
に起こった	-11.5368
服用	-11.5369
茂さん	-11.5369
塗る	-11.5371
おもて	-11.5372
頼んで	-11.5373
たいと思う	-11.5374
▁飲み	-11.5377
▁治安	-11.5378
▁低い	-11.5378
▁大変な	-11.5379
▁才	-11.5379
斯	-11.5382
上品な	-11.5382
玄	-11.5385
▁町中	-11.5385
出生	-11.5386
▁刀を	-11.5386
技巧	-11.5387
▁淡	-11.5388
叫び声	-11.539
かわいい	-11.5392
若く	-11.5392
▁田畑	-11.5393
▁知能	-11.5394
▁土木	-11.5396
に出かけた	-11.5396
▁田中	-11.5396
ドルで	-11.5397
賢明	-11.5397
▁圧力	-11.5399
言っても	-11.5401
うぬぼれ	-11.5402
から落ちる	-11.5403
町を	-11.5405
おこって	-11.5405
の発生	-11.5405
積んで	-11.5407
発作	-11.5407
尽くした	-11.5407
三位	-11.5407
▁いっしょに	-11.5408
自宅	-11.5409
▁一人	-11.5409
裁ち	-11.5411
を問わず	-11.5412
▁掻き	-11.5412
をしのぐ	-11.5412
▁死者の	-11.5413
ゅ	-11.5413
一般的	-11.5414
はますます	-11.5414
▁詩歌	-11.5415
たまらない	-11.5417
▁辛	-11.5419
▁その人が	-11.5419
帝王	-11.542
▁岩石	-11.542
▁臨	-11.5422
首位	-11.5423
新聞社	-11.5423
▁批判	-11.5426
思わない	-11.5427
▁最初	-11.5427
少しもない	-11.5427
単純	-11.5428
死者の霊	-11.5429
燐酸	-11.5429
おろか	-11.543
放射	-11.5432
委任	-11.5433
▁便	-11.5434
勲章	-11.5434
絡	-11.5435
、000	-11.5435
互いの	-11.5435
越え	-11.5437
倒産	-11.5437
拭	-11.544
だけでも	-11.544
閣	-11.544
神聖	-11.5441
狩	-11.5441
▁目が	-11.5441
粘	-11.5441
すすめる	-11.5441
全力を尽く	-11.5441
隻	-11.5442
余計	-11.5442
+	-11.5443
歩いていった	-11.5443
に移る	-11.5444
監	-11.5444
殖	-11.5445
紐	-11.5445
惰	-11.5445
をこうむる	-11.5446
を失わせる	-11.5446
生き生き	-11.5446
金銭を	-11.5447
看	-11.5448
浪費	-11.5448
遷	-11.5448
疾患	-11.5448
叢	-11.5449
▁蒸し	-11.5449
骸	-11.5449
しつつある	-11.545
寓	-11.5451
臆	-11.5451
是	-11.5451
爛	-11.5451
斗	-11.5451
拘	-11.5451
あらわす	-11.5452
ぎりぎり	-11.5452
租	-11.5452
はなはだ	-11.5452
恵子さん	-11.5452
をそそる	-11.5453
鎌	-11.5453
にぎやかに	-11.5453
》	-11.5453
癌	-11.5453
ユダヤ	-11.5453
沃	-11.5453
蛙	-11.5453
挿	-11.5453
歿	-11.5453
眩	-11.5453
ハンドル	-11.5453
歓喜	-11.5453
芥	-11.5453
R	-11.5453
思わぬ	-11.5453
眺める	-11.5453
肘	-11.5453
袴	-11.5453
輝かしい	-11.5453
轍	-11.5453
ふすま	-11.5453
シーズン	-11.5453
伽	-11.5453
盂蘭盆	-11.5453
盃	-11.5453
蠅	-11.5453
▁濡れ	-11.5453
アクセント	-11.5453
カウント	-11.5453
ブラジル	-11.5453
劫	-11.5453
大げさな	-11.5453
柵	-11.5453
訛	-11.5453
のろのろ	-11.5453
名古屋	-11.5453
遥	-11.5453
鉾	-11.5453
けばけばし	-11.5453
撚	-11.5453
鞭	-11.5453
に先立って	-11.5453
檀	-11.5453
著名な	-11.5453
鯉	-11.5453
石器時代	-11.5453
寛大な	-11.5453
抄	-11.5453
たくらみ	-11.5453
むなしく	-11.5453
もっぱら	-11.5453
go	-11.5453
閣僚	-11.5453
スーツケース	-11.5453
村上ちゃん	-11.5453
最良の	-11.5453
醤油	-11.5453
参詣	-11.5453
なじみ	-11.5453
選ばれた	-11.5453
何回も	-11.5453
ざらざら	-11.5453
ボストン	-11.5453
始終	-11.5453
協同	-11.5453
ジェ	-11.5453
ビロード	-11.5453
澱粉	-11.5453
シーツ	-11.5453
じりじり	-11.5453
虐待	-11.5453
屈辱	-11.5453
The	-11.5454
繁栄	-11.5454
といわれる	-11.5454
リンゴ	-11.5454
彫像	-11.5454
▁はな	-11.5454
旋律	-11.5454
ケース	-11.5454
ベース	-11.5454
つまらぬ	-11.5454
メント	-11.5454
増進	-11.5454
隔離	-11.5454
とは思えない	-11.5454
憎しみ	-11.5454
ショート	-11.5454
どろぼう	-11.5454
持続	-11.5454
に付する	-11.5454
お願いします	-11.5454
淡水魚	-11.5455
亭主	-11.5455
記述	-11.5455
とにかく	-11.5455
装束	-11.5455
堂々と	-11.5455
思う存分	-11.5455
視覚	-11.5455
失敬	-11.5455
ブック	-11.5455
規制	-11.5455
こわくて	-11.5455
考案	-11.5455
誤植	-11.5455
仕返し	-11.5456
お断わり	-11.5456
士官	-11.5456
かまわず	-11.5456
▁この辞書は	-11.5456
▁じゅん	-11.5456
低気圧	-11.5456
ター	-11.5456
けいれん	-11.5456
リボン	-11.5456
課題	-11.5456
晴天	-11.5456
図案	-11.5456
静止	-11.5456
を持たず	-11.5456
絶頂	-11.5456
依存	-11.5457
ろうばい	-11.5457
あわれみ	-11.5457
の端に	-11.5457
を混ぜて	-11.5457
官僚	-11.5457
助動詞	-11.5457
石膏	-11.5457
会いたい	-11.5457
欲求	-11.5457
通り過ぎる	-11.5457
レーダー	-11.5457
見えなかった	-11.5457
謝罪	-11.5458
湾曲	-11.5458
テレビ番組	-11.5458
重複	-11.5458
さえすれば	-11.5458
男女間の	-11.5458
きめられた	-11.5458
祝辞	-11.5458
立ち上がった	-11.5458
通告	-11.5458
ごろごろ	-11.5458
落胆	-11.5459
軽快	-11.5459
厳格	-11.5459
機関銃	-11.5459
悪くない	-11.5459
呼吸器	-11.5459
になりそうだ	-11.5459
駐車場	-11.5459
▁民族	-11.5459
暴徒	-11.5459
余暇	-11.5459
めぐって	-11.546
感激	-11.546
堅苦しい	-11.546
にらむ	-11.546
幹部	-11.546
探知	-11.546
ぜんまい	-11.546
した食品	-11.5461
雑貨	-11.5461
順次	-11.5461
断片	-11.5461
小言	-11.5461
改造	-11.5461
宿題を	-11.5461
種をまく	-11.5461
▁彼の行為は	-11.5461
判明	-11.5462
圧制	-11.5462
組立て	-11.5462
の苦しみ	-11.5462
を指した	-11.5462
厳密	-11.5462
しばらくの間	-11.5463
よく似ている	-11.5463
根本的な	-11.5464
技量	-11.5464
申し分	-11.5464
右翼	-11.5464
を拾う	-11.5465
処方	-11.5465
授業料	-11.5465
電圧	-11.5465
上皇	-11.5465
小さいこと	-11.5465
▁淫	-11.5465
高齢	-11.5465
かまど	-11.5465
恋の	-11.5466
▁フットボール	-11.5466
並んでいる	-11.5466
けわしい	-11.5466
平気だ	-11.5466
証明書	-11.5466
▁教養	-11.5466
主婦	-11.5466
畜	-11.5467
多大の	-11.5467
首都	-11.5467
検定	-11.5467
言わずに	-11.5467
曲がっている	-11.5468
選ばれる	-11.5468
戸籍	-11.5468
極秘	-11.5468
断面	-11.5469
尽力	-11.5469
つぼみ	-11.547
がよかった	-11.547
仕様	-11.547
嘆き	-11.547
ゆったり	-11.547
アジ	-11.5471
溜め	-11.5472
勤めている	-11.5472
作り出す	-11.5473
というたとえ	-11.5473
留学	-11.5474
有限	-11.5474
禁制	-11.5474
▁その国は	-11.5474
配合	-11.5474
むかし	-11.5474
成果	-11.5475
なりゆき	-11.5475
石英	-11.5475
所持	-11.5475
能楽	-11.5475
こぼれた	-11.5475
水蒸気	-11.5476
体長約	-11.5476
性交	-11.5476
通訳	-11.5476
断わった	-11.5477
やなぎ	-11.5477
武芸	-11.5477
女性が	-11.5478
見世物	-11.5478
告げ知らせる	-11.5478
不当な	-11.5478
▁予算	-11.5478
風紀	-11.5478
もその	-11.5479
作曲	-11.5479
ないかと	-11.5479
おおわれ	-11.5479
大きさは	-11.5481
責める	-11.5481
はげしい	-11.5481
すくい	-11.5482
まじない	-11.5482
を採る	-11.5483
文脈	-11.5483
おいしい	-11.5483
引き続いて	-11.5484
断言	-11.5484
摺り	-11.5484
水溶液	-11.5485
なしだ	-11.5486
風潮	-11.5487
を早める	-11.5487
黄緑色	-11.5488
歳月	-11.5489
いのち	-11.5489
が上手だ	-11.5489
そこら	-11.549
球面	-11.549
の知識	-11.549
おわり	-11.549
疑う	-11.549
をほどく	-11.5491
早朝	-11.5492
ざお	-11.5492
引き受けた	-11.5492
兵役	-11.5493
一応	-11.5494
人夫	-11.5494
照会	-11.5494
構内	-11.5495
官位	-11.5495
口語	-11.5495
に終わった	-11.5495
が互いに	-11.5495
▁鳥の	-11.5496
調達	-11.5496
ずくで	-11.5498
明朝	-11.5498
のぼり	-11.5498
種種	-11.5498
取り柄	-11.5498
加えた	-11.5498
▁市内	-11.5499
明白	-11.5499
▁彼は私が	-11.55
きざし	-11.55
それに使う	-11.5501
知ること	-11.5502
ふくらませ	-11.5503
学び	-11.5503
クス	-11.5504
政治上の	-11.5504
感じる	-11.5504
良く	-11.5505
空模様	-11.5505
のふち	-11.5505
大騷ぎ	-11.5506
三〇センチ	-11.5507
苦労して	-11.5507
チック	-11.5507
鳴き	-11.5508
つきあい	-11.5508
をなめる	-11.5509
添えた	-11.5509
▁官職	-11.551
度量	-11.5513
有料	-11.5513
現役	-11.5513
▁芝生	-11.5514
悲しむ	-11.5514
その道	-11.5514
雑音	-11.5515
ふくら	-11.5515
▁戦略	-11.5516
ランド	-11.5517
順順に	-11.5517
▁海水	-11.5518
熱情	-11.552
減ること	-11.552
出会った	-11.5521
かかわり	-11.5521
形式の	-11.5522
箱根	-11.5525
斯く	-11.5525
相手方	-11.5526
が一つ	-11.5526
類を	-11.5527
生活している	-11.5528
わきへ	-11.5529
▁主要	-11.5529
点検	-11.5529
無精	-11.553
散文	-11.553
行けば	-11.553
出産	-11.5531
病気で	-11.5531
しましたか	-11.5532
とんぼ	-11.5532
話すこと	-11.5532
が始まる	-11.5534
で読む	-11.5536
しわざ	-11.5537
出費	-11.5537
▁穂	-11.5538
▁道路の	-11.5538
下品な	-11.5539
爆薬	-11.5539
を曲げる	-11.5539
お返し	-11.5539
悲劇	-11.5539
総会	-11.554
浮気	-11.554
今のところ	-11.5541
▁水の	-11.5541
をふく	-11.5544
腕白	-11.5544
インター	-11.5546
問い合わせ	-11.5546
拝む	-11.555
木戸	-11.555
差す	-11.555
命名	-11.555
助手	-11.5551
公平な	-11.5551
めんどう	-11.5553
▁吸	-11.5556
を許さない	-11.5556
愛さん	-11.5556
まぜ	-11.5558
▁そのことで	-11.5558
見られた	-11.5559
装飾用	-11.5561
▁何事も	-11.5562
できる限り	-11.5565
のなら	-11.5567
詩を	-11.5567
▁出発	-11.5568
ものがない	-11.5569
の前兆	-11.5569
▁敗	-11.557
豊か	-11.5571
が出来	-11.5572
はいり	-11.5573
正式の	-11.5573
認めること	-11.5574
熱帯地方	-11.5575
▁航海	-11.5575
のを見た	-11.5576
▁バラ	-11.5576
点火	-11.5577
埋葬	-11.5581
すわ	-11.5582
原子核	-11.5583
業とする人	-11.5584
縮める	-11.5584
でメッセちょっと	-11.5584
大層	-11.5586
▁仏法	-11.5587
頭上に	-11.5587
▁アイス	-11.5588
ブリ	-11.5588
受け取った	-11.5591
を大いに	-11.5591
を決する	-11.5593
この本	-11.5593
味の	-11.5594
を捨てて	-11.5594
打たれ	-11.5594
▁金銭を	-11.5595
空軍	-11.5597
を私に	-11.5602
かすり	-11.5603
捜す	-11.5603
しゅん	-11.5603
が下がる	-11.5604
を当てる	-11.5605
抽象	-11.5607
信心	-11.5607
から見た	-11.5608
家系	-11.5608
極端	-11.5608
▁芸術	-11.5608
▁走り	-11.5609
無数の	-11.5611
ふえる	-11.5612
人出	-11.5613
状のもの	-11.5615
台本	-11.5615
▁最も	-11.5619
▁刑事	-11.5619
▁文語	-11.5619
家に帰	-11.562
絹糸	-11.562
地元	-11.5621
職につく	-11.5623
うとうと	-11.5624
支配する	-11.5624
水夫	-11.5625
▁細菌	-11.5625
▁なるほど	-11.5626
光が	-11.5628
系の	-11.5629
▁藩	-11.5629
二次	-11.563
悲観	-11.5632
▁アラビア	-11.5634
あの子	-11.5635
が急に	-11.5635
かべ	-11.5637
を突く	-11.5638
意外な	-11.5639
をまねる	-11.564
でやる	-11.5641
▁誤り	-11.5642
資力	-11.5645
をはく	-11.5645
の出身	-11.5645
▁柳	-11.5649
含まれている	-11.565
んだね	-11.5651
年間の	-11.5651
その時の	-11.5652
大臣の	-11.5654
の店	-11.5655
用など	-11.5656
のかしら	-11.5656
正式	-11.5656
何より	-11.5658
評価する	-11.5658
はありませんか	-11.5658
▁幽霊	-11.566
▁きつね	-11.566
酒場	-11.5663
しかも	-11.5664
▁すぐに救急車	-11.5664
あつ	-11.5667
記入する	-11.5668
▁競走	-11.5669
使用者	-11.567
みがく	-11.567
▁スミス	-11.5674
を捨て	-11.5674
安心した	-11.5675
▁足の	-11.5676
▁軍隊の	-11.5677
くだく	-11.5677
all	-11.5678
肥え	-11.568
似ている	-11.5686
かゆ	-11.5686
到着する	-11.5688
言われる	-11.5689
まっすぐな	-11.5689
▁幾ら	-11.569
能力がある	-11.5693
その後	-11.5694
やめろ	-11.5695
▁どうしても	-11.5696
急性	-11.5698
▁水を	-11.5699
▁資金	-11.5699
を示すため	-11.5705
乗り換え	-11.5706
人前で	-11.5707
近寄	-11.5709
▁公式	-11.571
ふやすこと	-11.571
どちらも	-11.5713
▁丁	-11.5713
をかけること	-11.5714
▁中世	-11.5715
大半	-11.5717
の両	-11.5717
なぎ	-11.5717
羽の	-11.5718
でしたか	-11.5718
▁翻	-11.5719
製作	-11.5719
▁この薬は	-11.5719
▁狭	-11.5719
▁犯罪	-11.572
いつまで	-11.572
▁ちょ	-11.5722
生んだ	-11.5724
14	-11.5725
伝えた	-11.5725
の後に	-11.5725
おさめる	-11.5726
他のもの	-11.5726
機械など	-11.5727
箱に	-11.5729
を使った	-11.5731
▁文明の	-11.5731
取得	-11.5731
▁放射能	-11.5732
▁ドレス	-11.5732
▁さし	-11.5734
の種子	-11.5734
りましたか	-11.5736
▁愛想	-11.5736
の涙	-11.5737
ようなものだ	-11.5739
こぎ	-11.574
▁実用	-11.5743
天下に	-11.5743
本文	-11.5748
▁労働者	-11.575
ひだ	-11.5753
おこう	-11.5754
▁ミサイル	-11.5756
を願う	-11.5757
▁太陽の	-11.5759
味わう	-11.5759
ほしいと	-11.5761
四十	-11.5761
▁ちり	-11.5764
いじめ	-11.5764
現れた	-11.5767
さげる	-11.5767
▁胡	-11.5772
を送った	-11.5772
水の流れ	-11.5773
の象徴	-11.5774
最中	-11.5775
木の実	-11.5777
等に	-11.5779
▁経済学	-11.578
の出る	-11.578
歓迎する	-11.578
などに対して	-11.5781
▁たった	-11.5781
▁段	-11.5781
が二つ	-11.5781
を集めた	-11.5783
バル	-11.5786
▁眠り	-11.5786
錐	-11.5786
本物の	-11.5786
乗っている	-11.579
引いて	-11.579
▁私の考え	-11.579
▁遠い	-11.5793
▁顔の	-11.5793
出頭	-11.5793
ておいた	-11.5795
に使った	-11.5796
激怒	-11.5798
▁交渉	-11.5799
の不足	-11.5799
いられない	-11.58
人目	-11.58
の緒	-11.5804
握	-11.5804
ひと組	-11.5806
▁祝	-11.5806
▁ジャズ	-11.5806
り込んだ	-11.5807
閉め	-11.5808
われている	-11.5809
をもらった	-11.5809
来るだろう	-11.581
▁午前	-11.581
そと	-11.581
内容が	-11.581
目の前に	-11.5811
▁彼らには	-11.5811
▁剣	-11.5812
ぶつかる	-11.5813
戦場で	-11.5813
▁特定の	-11.5817
前後に	-11.5817
順調に	-11.5819
▁明治	-11.5819
▁女王	-11.582
▁仏の	-11.582
▁正常	-11.5823
▁O	-11.5824
月曜日	-11.5826
メッセを送	-11.5826
ith	-11.5827
▁せつ	-11.5827
の場所	-11.5832
仏教の	-11.5833
法律上	-11.5833
から作る	-11.5835
戦場	-11.5836
はげ	-11.5836
▁鏡	-11.584
安く買	-11.5841
相当の	-11.5842
印刷した	-11.5843
腹の中	-11.5844
にはまだ	-11.5845
まわって	-11.5846
つぶれる	-11.5848
に出ること	-11.5849
山本ちゃん	-11.585
▁厳しい	-11.5851
快感	-11.5851
▁倹約	-11.5852
だめになる	-11.5853
内部の	-11.5854
▁キャンプ	-11.5855
▁会は	-11.5855
泣くこと	-11.5856
▁地獄	-11.586
▁襟	-11.586
▁二人の	-11.586
将来に	-11.586
その作品	-11.586
▁あいつは	-11.5861
数日	-11.5861
微生物	-11.5866
▁we	-11.5866
洗濯	-11.5866
つある	-11.5867
の上を	-11.5867
生気	-11.5867
目の前	-11.5867
▁女の子	-11.5869
この仕事	-11.5869
▁彼は私より	-11.587
じゅうたん	-11.587
▁最低	-11.5873
グロ	-11.5876
がなくなった	-11.5881
活発な	-11.5881
行っても	-11.5881
被告	-11.5883
▁公開	-11.5883
目は	-11.5884
▁優しい	-11.5884
▁芸者	-11.5885
取れた	-11.5888
の通り	-11.5889
川が	-11.5889
▁時計の	-11.5889
の報道	-11.5889
▁その事件は	-11.589
▁すでに	-11.5891
をめぐらす	-11.5894
▁感謝の	-11.5895
ん坊	-11.5896
小包	-11.5897
くどく	-11.5897
▁むだ	-11.5898
込んでいた	-11.5901
にひどく	-11.5901
知っていた	-11.5902
▁有効	-11.5903
始めて	-11.5904
調整	-11.5905
てんで	-11.5906
の影響	-11.5907
やかん	-11.5909
回した	-11.5909
なるように	-11.591
の所で	-11.591
▁p	-11.5912
賞金	-11.5913
▁ここでは	-11.5915
▁勢いよく	-11.5915
利口	-11.5916
に倒れる	-11.5917
▁易	-11.5918
呂い	-11.5918
を使ってする	-11.5919
を回す	-11.5919
あげて	-11.5919
頭髪	-11.592
北アメリカ	-11.592
ったりすること	-11.5921
演奏会	-11.5922
▁用意	-11.5922
書き入れる	-11.5924
兼	-11.5924
できず	-11.5926
長時間	-11.5927
仮の	-11.5928
▁肛門	-11.5929
▁定期	-11.593
鮮	-11.5931
呼び出し	-11.5933
▁大ばか	-11.5935
を生じ	-11.5935
だつ	-11.5935
▁あるもの	-11.5936
鎮	-11.5936
▁彼は新しい	-11.5936
神経が	-11.5937
はしなかった	-11.5938
折れる	-11.5939
ペンキ	-11.594
その土地の	-11.594
権力を	-11.594
電子計算機	-11.5942
▁その町	-11.5942
▁スミスさん	-11.5942
月曜日に	-11.5943
▁前途	-11.5943
▁珍しい	-11.5943
新車	-11.5944
幻	-11.5945
おしろい	-11.5945
▁ものの	-11.5946
生物学	-11.5947
排	-11.5948
ぬれる	-11.5948
柔らか	-11.5948
をみがく	-11.5948
境目	-11.5948
額を	-11.595
てもいい	-11.595
満員	-11.595
ように作った	-11.595
そろそろ	-11.5951
幽霊	-11.5951
生意気	-11.5951
の人口は	-11.5951
静子さん	-11.5952
馬鹿	-11.5952
下剤	-11.5952
刀剣	-11.5953
どこまでも	-11.5953
▁鳩	-11.5954
P	-11.5955
きつね	-11.5955
体面	-11.5955
ワシ	-11.5956
になっていること	-11.5957
さっさと	-11.5957
服装をしてい	-11.5958
飛行機など	-11.5958
法廷で	-11.5961
▁徳	-11.5962
とりこ	-11.5962
値段が	-11.5963
メッセいまから	-11.5964
クル	-11.5966
抜けた	-11.5967
昨夜	-11.5969
正義	-11.5969
騎	-11.597
受験	-11.5971
勤める	-11.5973
旅客	-11.5973
のとき	-11.5974
も言う	-11.5974
悩む	-11.5974
ふるまいをする	-11.5974
精一杯	-11.5977
を弾く	-11.5978
を割る	-11.5978
寒中	-11.5979
の両側に	-11.5979
特売	-11.5982
方面に	-11.5982
は十分	-11.5983
持っていた	-11.5984
練り	-11.5984
五つの	-11.5985
▁震	-11.5988
▁子供に	-11.5988
惨事	-11.599
▁言葉の	-11.5994
▁股	-11.5994
▁年代	-11.5995
からずっと	-11.5995
展覧会	-11.5996
の手段	-11.5998
量を	-11.5998
はいつ	-11.5999
▁憎	-11.6001
▁ウイスキー	-11.6001
単数	-11.6002
的な態度	-11.6003
外国に	-11.6004
万一	-11.6004
言いたい	-11.6004
はまず	-11.6005
ション	-11.6006
▁豊作	-11.6008
規模の	-11.601
などがある	-11.6011
▁盛り	-11.6011
すまない	-11.6011
を通って	-11.6012
通路	-11.6012
アリ	-11.6013
利く	-11.6015
底の	-11.6016
はうまく	-11.6017
の評判	-11.6017
▁我が	-11.602
のよしあし	-11.6021
▁勝ち	-11.6027
世論	-11.603
戻る	-11.603
負債	-11.6032
▁地方	-11.6034
の段	-11.6034
かなければならない	-11.6039
したまえ	-11.6039
▁人生は	-11.6042
わずに	-11.6044
▁移	-11.6045
握る	-11.6045
▁文法	-11.6049
しているのか	-11.605
▁いね科の	-11.605
幹線道路	-11.6051
おります	-11.6052
の余地がない	-11.6053
の主	-11.6053
ちゃら	-11.6054
▁操	-11.6055
灯台	-11.6055
茎は	-11.6056
▁被告	-11.6056
従来の	-11.6056
二本	-11.6058
確実に	-11.6059
ジャー	-11.606
普通より	-11.606
許さない	-11.6061
きら	-11.6062
学科	-11.6062
フィートの	-11.6063
▁詳	-11.6064
でひどく	-11.6068
随意	-11.6068
の本質	-11.6068
▁痛み	-11.6069
の後ろ	-11.6069
を凝らす	-11.6073
▁彼は大	-11.6073
▁今にも	-11.6075
▁罪人を	-11.6076
▁苦痛	-11.6076
地下の	-11.6077
▁健全な	-11.6077
澄	-11.6077
服を着	-11.6078
▁雁	-11.6081
を敬っ	-11.6082
▁ぜいたく	-11.6084
他の事	-11.6085
▁皆さん	-11.6088
遊びに	-11.6089
条件を	-11.609
粉にしたもの	-11.6091
▁書画	-11.6091
▁衣服の	-11.6092
▁空中に	-11.6093
アイロン	-11.6094
巧	-11.6096
目立って	-11.6096
▁機械の	-11.6096
を去る	-11.6096
▁手の	-11.6098
がすぐれている	-11.6098
▁男子	-11.6099
▁忍び	-11.6099
▁それは彼の	-11.61
油絵	-11.6101
人々の	-11.6101
を着ている	-11.6102
騒ぐ	-11.6105
ではないか	-11.6106
▁終身	-11.6107
平凡	-11.6107
あしら	-11.6108
をかいて	-11.6109
だけでなく	-11.6109
▁コンピューター	-11.6109
▁はっきりした	-11.6109
穀	-11.611
は嫌いだ	-11.611
まことに	-11.6111
から受ける	-11.6111
の柄	-11.6113
娘の	-11.6115
てみた	-11.6116
適切な	-11.6117
相手と	-11.6118
▁大気	-11.6118
結果を	-11.6121
の入口	-11.6122
繰り返す	-11.6122
りながら	-11.6122
泳	-11.6123
ちょっとショートメッセージ	-11.6123
威圧	-11.6124
寝て	-11.6124
社会的地位	-11.6124
郵便物	-11.6125
豊富	-11.6125
いん	-11.6126
をくじく	-11.6126
第二次大戦	-11.6126
者だ	-11.6126
▁正気	-11.6127
ざと	-11.6128
捲	-11.6128
射る	-11.6128
厚かましい	-11.6129
沈んだ	-11.6129
▁たいそう	-11.6129
▁無理に	-11.6131
の先生	-11.6134
訪れる	-11.6134
お伺い	-11.6134
守って	-11.6134
の上部	-11.6136
文章を	-11.6137
得ない	-11.6137
▁他から	-11.6138
医薬	-11.614
息子に	-11.614
お出で	-11.6141
導く	-11.6141
午	-11.6142
倫	-11.6142
カトリック	-11.6143
大胆	-11.6144
唯	-11.6144
▁ぐずぐず	-11.6144
返済	-11.6145
ごくわずか	-11.6146
に通ずる	-11.6148
▁海水浴	-11.6149
寄生	-11.6149
モー	-11.6151
苦しんで	-11.6152
裏付け	-11.6153
の記録	-11.6154
試し	-11.6156
やわらかく	-11.6157
到	-11.6157
▁故郷	-11.6157
▁過ぎ去った	-11.6157
どうし	-11.6157
秤	-11.6158
桂	-11.6158
メダル	-11.6159
采	-11.6159
兵卒	-11.6159
を知って	-11.6159
やってのける	-11.616
に加えて	-11.616
メアリー	-11.616
つち	-11.616
着るもの	-11.6161
E	-11.6161
播	-11.6161
か月間	-11.6161
匠	-11.6161
言わなかった	-11.6161
を抱いている	-11.6162
猪	-11.6162
飼料	-11.6162
硫	-11.6163
芝	-11.6163
ぷ	-11.6163
決まる	-11.6163
績	-11.6163
奔	-11.6164
メートルある	-11.6164
あちこちに	-11.6164
砥	-11.6164
杯の水	-11.6165
呼ばれ	-11.6165
確証	-11.6165
普	-11.6165
繊	-11.6165
亭	-11.6165
廟	-11.6166
諭	-11.6166
危うく	-11.6166
峠	-11.6166
促	-11.6166
撮	-11.6166
禽	-11.6166
貪	-11.6166
サーカス	-11.6166
争議	-11.6166
舗	-11.6166
薦	-11.6166
漕	-11.6167
坪	-11.6167
皺	-11.6167
螢	-11.6167
封建	-11.6167
痘	-11.6167
蒙	-11.6167
虜	-11.6167
ギリシア	-11.6167
宙	-11.6167
琶	-11.6167
ぎっしり	-11.6167
礫	-11.6167
楚	-11.6167
篆	-11.6167
	-11.6167
オートバイ	-11.6167
ぢ	-11.6167
櫓	-11.6167
皇太子	-11.6167
にぎやかな	-11.6167
ギャンブル	-11.6167
樽	-11.6167
篩	-11.6167
ぴかぴか	-11.6167
スモッグ	-11.6167
些	-11.6167
佐藤さん	-11.6167
咾	-11.6167
支援	-11.6167
旁	-11.6167
錆	-11.6167
U	-11.6167
ちょうちん	-11.6167
カクテル	-11.6167
サッカー	-11.6167
スーパー	-11.6167
ソフト	-11.6167
匂	-11.6167
取っ手	-11.6167
大言壮語	-11.6167
汎	-11.6167
洋子さん	-11.6167
湧	-11.6167
蹟	-11.6167
オルガン	-11.6167
チャンネル	-11.6167
ボーイ	-11.6167
管弦楽	-11.6167
▁遭難	-11.6167
パレード	-11.6167
廃棄物	-11.6167
昧	-11.6167
殺虫剤	-11.6167
灸	-11.6167
苑	-11.6167
鴨	-11.6167
ぬかるみ	-11.6167
はどちらですか	-11.6167
ばかばかしい	-11.6167
痰	-11.6167
癪	-11.6167
ライター	-11.6167
穢	-11.6167
をめざして	-11.6167
ふざけて	-11.6167
喝采	-11.6167
識別	-11.6167
冷蔵庫	-11.6167
はやめなさい	-11.6167
接続詞	-11.6167
グリーン	-11.6167
履歴	-11.6167
day	-11.6167
墜落	-11.6167
以内に	-11.6168
否認	-11.6168
なければなりません	-11.6168
マレー	-11.6168
邸宅	-11.6168
公然と	-11.6168
しゃくにさわる	-11.6168
の尊称	-11.6168
テンポ	-11.6168
養殖	-11.6168
閲覧	-11.6168
アーチ	-11.6168
敏感	-11.6168
概略	-11.6168
驚異	-11.6168
朽ち	-11.6168
を呈する	-11.6168
を募る	-11.6168
くよくよ	-11.6168
概算	-11.6168
悲鳴	-11.6168
憲章	-11.6168
封鎖	-11.6168
象牙	-11.6168
双眼鏡	-11.6168
攻勢	-11.6168
斑点	-11.6168
展望	-11.6168
告訴	-11.6168
に囲まれて	-11.6168
使われた	-11.6168
おのおの	-11.6169
謹んで	-11.6169
財貨	-11.6169
十干	-11.6169
農耕	-11.6169
▁熱烈な	-11.6169
疑念	-11.6169
▁少年たちは	-11.6169
バッター	-11.6169
暗礁	-11.6169
一覧表	-11.6169
成就	-11.6169
称賛	-11.6169
提灯	-11.6169
快活	-11.6169
決められた	-11.617
ロシア	-11.617
反響	-11.617
下等な	-11.617
険悪	-11.617
ばけもの	-11.617
短縮	-11.617
徹夜	-11.617
立証	-11.617
こわがる	-11.617
請負	-11.617
陪審員	-11.617
にもどる	-11.617
やっとのことで	-11.617
シーン	-11.617
制裁	-11.6171
オーストラリア	-11.6171
ペスト	-11.6171
▁暗号	-11.6171
前へ	-11.6171
スイス	-11.6171
ボルト	-11.6171
をそらす	-11.6171
融	-11.6171
放浪	-11.6171
雷鳴	-11.6171
残念なこと	-11.6171
釈迦の	-11.6171
飲酒	-11.6172
▁海洋	-11.6172
売店	-11.6172
怒りを抑える	-11.6172
損益	-11.6172
買物	-11.6172
に伴って	-11.6172
老婆	-11.6172
志望	-11.6172
危急	-11.6172
呼んだ	-11.6172
飲食店	-11.6172
徴兵	-11.6173
離陸	-11.6173
評論	-11.6173
▁その少年は	-11.6173
受精	-11.6173
就学	-11.6173
にこにこ	-11.6173
全快	-11.6174
あらため	-11.6174
連鎖	-11.6174
ゆかり	-11.6174
平行線	-11.6174
めぐらし	-11.6174
多忙	-11.6174
雪が	-11.6174
使節	-11.6174
独力で	-11.6174
富士山	-11.6174
重要でない	-11.6174
▁男女	-11.6174
けだもの	-11.6175
お手伝い	-11.6175
おやじ	-11.6175
断絶	-11.6175
▁透き	-11.6175
に迷う	-11.6175
信義	-11.6175
の中で最も	-11.6175
▁音楽の	-11.6175
白い花が咲く	-11.6175
▁高圧	-11.6176
精霊	-11.6176
紅茶	-11.6176
言い回し	-11.6177
識見	-11.6177
うなずく	-11.6177
うまくいっている	-11.6177
動物園	-11.6177
の費用	-11.6177
▁兵士たちは	-11.6177
部族	-11.6178
速達	-11.6178
▁蔵	-11.6178
革新	-11.6178
権能	-11.6178
つやのある	-11.6178
機雷	-11.6178
解明	-11.6179
泙靴	-11.6179
温度計	-11.6179
背広	-11.6179
発動機	-11.6179
低温	-11.6179
▁クレ	-11.6179
いきなり	-11.6179
執着	-11.6179
会衆	-11.618
乾杯	-11.618
オックスフォード	-11.618
仕舞い	-11.618
まるく	-11.618
具体的な	-11.618
極限	-11.6181
調印	-11.6181
をそろえる	-11.6181
ご機嫌	-11.6181
正統	-11.6181
これに	-11.6181
氷河	-11.6181
乾し	-11.6181
やりとり	-11.6181
没頭	-11.6182
小川さん	-11.6183
▁衛生	-11.6183
まわす	-11.6183
口径	-11.6184
満潮	-11.6184
湿地	-11.6184
神経質	-11.6184
禁欲	-11.6184
気擦	-11.6184
▁その映画は	-11.6184
開くこと	-11.6185
▁鼠	-11.6185
清める	-11.6185
に接して	-11.6185
800	-11.6185
翌年	-11.6185
そのとおり	-11.6185
に襲われる	-11.6185
今週	-11.6186
▁執	-11.6186
ぞうり	-11.6186
衣食	-11.6186
▁強制	-11.6187
功名	-11.6187
ご返事	-11.6187
証文	-11.6187
清らかな	-11.6187
浸水	-11.6188
旧友	-11.6188
敷地	-11.6188
旋回	-11.6188
名刺	-11.6188
情欲	-11.6188
続けること	-11.6189
用件	-11.6189
何もしないで	-11.619
投球	-11.619
主将	-11.619
零下	-11.6191
立案	-11.6191
洋風の	-11.6192
御殿	-11.6192
ゆび	-11.6192
▁それはまったく	-11.6192
▁赤ん坊が	-11.6193
頼んだ	-11.6193
の必要	-11.6194
縁談	-11.6194
卑しい	-11.6194
残高	-11.6194
温室	-11.6195
市中	-11.6195
飲物	-11.6195
陽光	-11.6195
親密	-11.6196
紅白	-11.6196
▁日本人は	-11.6196
短刀	-11.6196
甚だ	-11.6196
▁あれこれ	-11.6196
つづり	-11.6196
もできない	-11.6196
▁製造	-11.6196
のはよくない	-11.6196
しろうと	-11.6197
混合物	-11.6197
▁彼らは彼に	-11.6197
美術品	-11.6197
仲立ち	-11.6197
捕り	-11.6197
三枚	-11.6197
同封	-11.6198
おしまい	-11.6198
▁さすが	-11.6198
あっ	-11.6198
を演じる	-11.6198
学派	-11.6199
図表	-11.6199
枝葉	-11.6199
隠居	-11.6199
思いつき	-11.62
▁連続	-11.62
顔料	-11.6201
暴行	-11.6201
きること	-11.6202
等しく	-11.6202
を表し	-11.6202
▁ここまで	-11.6202
広場	-11.6203
千鳥	-11.6203
ものが多い	-11.6204
の情	-11.6204
心構え	-11.6204
無関心	-11.6204
基金	-11.6204
作り上げる	-11.6205
▁話を	-11.6205
追いかける	-11.6206
心の働き	-11.6207
要点を	-11.6207
▁人体	-11.6208
醜い	-11.6208
という名	-11.6209
▁毎月	-11.6209
▁あの人には	-11.6209
目当て	-11.6209
られず	-11.6209
▁天気が	-11.6209
くさり	-11.621
に穴をあける	-11.621
ぎり	-11.621
神霊	-11.6211
不渡り	-11.6211
こぐ	-11.6211
重なり	-11.6211
しなやかな	-11.6212
当直	-11.6212
開店	-11.6212
同様に	-11.6213
気軽に	-11.6213
▁湯気	-11.6214
一杯に	-11.6214
面接	-11.6214
北に	-11.6216
深み	-11.6216
線を引く	-11.6217
褒め	-11.6217
ごめ	-11.6217
雑種	-11.6218
あかり	-11.6218
当たった	-11.6219
女が	-11.6219
職権	-11.6219
高速	-11.6219
えらい	-11.622
選挙権	-11.6221
当番	-11.6221
盲目	-11.6221
つつある	-11.6221
配分	-11.6222
逃げ出す	-11.6222
やぎ	-11.6222
指数	-11.6222
同調	-11.6222
▁競技で	-11.6223
通らない	-11.6223
▁予約	-11.6224
路線	-11.6224
面の	-11.6224
はならない	-11.6225
の腕	-11.6225
興味が	-11.6225
そこない	-11.6225
酒は	-11.6225
を考える	-11.6226
武道	-11.6227
事には	-11.6227
合戦	-11.6227
病状	-11.6227
天文学	-11.6227
親父	-11.6227
▁それから	-11.6228
だと思った	-11.6229
夏は	-11.623
計画が	-11.623
厚さ	-11.623
雨量	-11.6231
七月	-11.6231
行き方	-11.6232
▁ウエ	-11.6233
▁ひょう	-11.6233
▁遣り	-11.6233
を得ない	-11.6234
一定の場所	-11.6234
剣道	-11.6234
変形	-11.6236
でメッセすぐに	-11.6236
右へ	-11.6236
巨大な	-11.6238
畜生	-11.6238
発着	-11.6239
にせもの	-11.6241
語尾	-11.6242
見事に	-11.6243
▁ジン	-11.6244
▁一国の	-11.6244
政体	-11.6245
けど	-11.6245
▁精密	-11.6245
背が高い	-11.6246
もう一つ	-11.6246
▁記録	-11.6246
首長	-11.6247
書状	-11.6247
て彼は	-11.6249
一覧	-11.6249
▁その二つの	-11.625
向ける	-11.6253
縛る	-11.6253
言葉や	-11.6254
しようがない	-11.6255
造花	-11.6255
真意	-11.6255
法師	-11.6256
日程	-11.6256
一国	-11.6259
ことだった	-11.626
▁ドアが	-11.6262
耕地	-11.6263
直した	-11.6264
ごえ	-11.6264
身持ち	-11.6265
番地	-11.6265
▁紛	-11.6266
ただし	-11.6266
割れる	-11.6268
▁電信	-11.6269
▁必要な	-11.6269
でメッセージすぐに	-11.6269
だん	-11.627
道筋	-11.6271
逃れ	-11.6272
▁参考	-11.6273
羽目	-11.6274
薬草	-11.6276
満月	-11.6277
ならば	-11.6278
生じる	-11.6279
を課する	-11.6279
所有している	-11.6279
藻類	-11.628
一帯	-11.628
よむ	-11.6281
に似た形	-11.6283
▁その会社は	-11.6288
力がない	-11.6288
をはめ	-11.6289
精製した	-11.629
初期の	-11.6291
▁獣	-11.6291
心情	-11.6292
月夜	-11.6292
んまり	-11.6292
の中心となる	-11.6292
てあった	-11.6292
トランク	-11.6292
幹線	-11.6297
冬は	-11.6298
道徳的	-11.63
明らかな	-11.6301
味のある	-11.6301
リンパ	-11.6301
名士	-11.6302
を待っている	-11.6302
ちゃんとした	-11.6303
片付ける	-11.6304
▁不正な	-11.6304
白色で	-11.6304
こなす	-11.6305
不服	-11.6305
陸上競技	-11.6306
を当てに	-11.6306
▁猟	-11.6306
ろうか	-11.6307
▁いまからメッセージを	-11.6307
▁手で	-11.6308
裏側	-11.6308
[...]
