<unk>	0
<s>	0
</s>	0
▁	-2.42791
。	-3.21582
、	-3.51616
の	-4.09589
・	-4.33686
を	-4.52056
。「	-4.619
」	-4.65984
に	-4.69136
する	-4.74491
は	-4.92183
が	-4.97004
と	-5.08911
こと	-5.14914
で	-5.15172
る	-5.52989
)	-5.64368
▁彼は	-5.68596
た	-5.82796
して	-5.92768
▁えー	-5.97883
」「	-6.05183
から	-6.05596
人	-6.06471
した	-6.0947
な	-6.13491
また	-6.13581
や	-6.14497
だ	-6.18131
て	-6.24219
▁ちょっと	-6.28614
(	-6.33713
その	-6.46331
したい	-6.46647
も	-6.51971
い	-6.57441
▁あの	-6.63647
もの	-6.6419
し	-6.70952
▁んー	-6.7289
か	-6.74254
▁えーっと	-6.76101
く	-6.79572
▁LINE	-6.81438
など	-6.8373
▁その	-6.85346
である	-6.86374
す	-6.89003
をする	-6.90008
物	-6.90647
□	-6.9299
り	-6.93355
者	-6.93525
った	-6.94483
▁(	-7.01195
▁この	-7.02251
」(	-7.0274
PO	-7.05724
▁彼女は	-7.0662
1	-7.07202
特に	-7.11514
すること	-7.11566
になる	-7.18212
などの	-7.18261
がある	-7.20686
さま	-7.25068
'	-7.25318
家	-7.26135
には	-7.26786
所	-7.27602
または	-7.27929
って	-7.28982
元気かい	-7.33709
▁彼の	-7.34168
手	-7.34666
ること	-7.35726
時	-7.36117
出せるようにして	-7.36256
として	-7.36559
[	-7.3713
ない	-7.37612
']	-7.37734
▁...	-7.39424
R	-7.39545
う	-7.40057
Q	-7.415
している	-7.41688
を教えて	-7.42376
子	-7.44457
などを	-7.46125
▁〔	-7.46304
心	-7.47236
日	-7.47453
大	-7.48308
水	-7.49794
ある	-7.49977
語	-7.50183
いた	-7.50327
本	-7.50617
一	-7.51308
さ	-7.52567
的	-7.52879
お	-7.53004
目	-7.53486
き	-7.53527
ている	-7.5388
SMS	-7.54163
〕	-7.54247
力	-7.5529
よ	-7.55558
です	-7.55708
開け	-7.56012
▁SMS	-7.56918
だった	-7.58213
管理	-7.6146
み	-7.61844
地	-7.62214
け	-7.62597
N	-7.62941
転じて	-7.63232
へ	-7.63459
;	-7.63552
事	-7.64127
2	-7.64191
色	-7.64517
用	-7.64591
という	-7.66241
金	-7.67861
では	-7.67872
ら	-7.69396
国	-7.69633
気	-7.69852
ように	-7.70724
出す	-7.71865
出して	-7.73233
上	-7.74295
年	-7.74444
▁電卓	-7.74788
▁電話	-7.76144
つ	-7.7635
3	-7.76922
口	-7.77326
道	-7.77431
中	-7.78182
いて	-7.79058
いる	-7.80734
まで	-7.81102
風	-7.81178
ちょっと	-7.81322
LINE	-7.81664
▁すぐに	-7.82176
ニュース	-7.82419
む	-7.8309
▁N	-7.83368
開いて	-7.8421
などが	-7.84497
見	-7.84582
すぐに	-7.84875
分	-7.85003
法	-7.85183
れ	-7.85358
を示して	-7.8597
的な	-7.86617
によって	-7.86732
にする	-7.87943
木	-7.88289
名	-7.8877
▁彼らは	-7.88802
させる	-7.89286
された	-7.89382
▁大	-7.89425
体	-7.90973
俗	-7.92044
書	-7.92595
などで	-7.9312
方	-7.93166
▁いまから	-7.93309
性	-7.93796
下	-7.94659
の一つ	-7.94672
のある	-7.9469
ニュース記事	-7.95914
点	-7.96434
電話	-7.96853
電卓	-7.97043
数	-7.97137
より	-7.97329
!	-7.97514
出せ	-7.98632
?	-7.99575
ような	-8.00006
学	-8.00626
▁「	-8.00793
取り	-8.01202
め	-8.01417
話	-8.01786
会	-8.02253
ニュースアプリ	-8.0261
仏	-8.02967
音	-8.03758
るようにして	-8.04666
場所	-8.04727
出	-8.05976
りたい	-8.06228
よく	-8.07054
...	-8.07362
船	-8.08411
5	-8.08856
110	-8.08859
火	-8.09124
ほど	-8.09291
▁ニュース	-8.09761
小	-8.09841
がない	-8.09883
▁それは	-8.09903
車	-8.10208
時間	-8.10261
長	-8.10423
線	-8.10908
形	-8.11309
言葉	-8.11311
▁人の	-8.11624
仕事	-8.11792
生	-8.1181
いまから	-8.1199
文	-8.12684
どこ	-8.12705
「	-8.12775
▁一	-8.129
場	-8.134
考え	-8.13613
の一種	-8.13623
月	-8.13684
▁お	-8.14033
山	-8.14113
ご	-8.15479
ね	-8.15507
のない	-8.15898
間	-8.16023
声	-8.16047
紙	-8.16383
だろう	-8.1676
になった	-8.17653
頭	-8.17825
▁ニュース記事	-8.17888
女	-8.18486
彼は	-8.18542
人の	-8.1906
例	-8.19501
こ	-8.19753
海	-8.20185
▁ニュースアプリ	-8.20791
ず	-8.20994
前	-8.21468
品	-8.2153
この	-8.21736
される	-8.22384
使う	-8.22943
行	-8.22995
などに	-8.23252
屋	-8.23581
もう	-8.2367
を開いて	-8.23845
様子	-8.2469
▁手	-8.25337
それ	-8.25919
▁人を	-8.2686
着	-8.27021
足	-8.27913
ために	-8.2817
ていた	-8.28658
のように	-8.28726
戦	-8.29309
▁私は	-8.29602
送れ	-8.29808
よい	-8.30338
え	-8.30381
そう	-8.32178
花	-8.32276
男	-8.32425
んだ	-8.32435
状態	-8.32451
の略	-8.32477
送信	-8.32562
よう	-8.33066
に対して	-8.33885
馬	-8.34377
石	-8.35156
かった	-8.35929
10	-8.35983
なく	-8.36735
ー	-8.36802
のために	-8.36937
▁無	-8.37496
面	-8.37958
じ	-8.38088
切り	-8.38641
っている	-8.39003
度	-8.39016
▁彼が	-8.39721
番	-8.40079
論	-8.40423
後	-8.40515
(=	-8.40551
開く	-8.40632
言	-8.41674
自分の	-8.42042
問題	-8.42517
彼の	-8.42921
先	-8.43277
▁119	-8.4395
送る	-8.44083
顔	-8.44372
▁もう	-8.44559
食	-8.44571
▁小	-8.4509
神	-8.45187
式	-8.45208
靴	-8.4582
写真	-8.45963
世	-8.4658
高	-8.46926
▁水	-8.46928
的に	-8.47743
白	-8.48134
板	-8.49016
等	-8.49432
歌	-8.49849
身	-8.50035
なかった	-8.50218
熱	-8.50374
空	-8.50693
二	-8.50839
にも	-8.51582
なら	-8.5159
ですか	-8.51762
業	-8.51821
▁人に	-8.51894
時に	-8.52016
なさい	-8.52738
役	-8.53287
っ	-8.53381
三	-8.53454
死	-8.53537
内	-8.5375
▁彼はその	-8.54159
)「	-8.5421
ま	-8.54628
引き	-8.54978
部	-8.54995
ます	-8.55246
となる	-8.55425
書き	-8.55444
草	-8.55555
量	-8.55915
▁地図	-8.56148
をつける	-8.56626
さん	-8.56644
ん	-8.56671
4	-8.56908
来	-8.56968
メッセージ	-8.57141
流	-8.57183
言う	-8.57473
服	-8.57485
ため	-8.57567
読みたい	-8.57584
骨	-8.57682
にある	-8.57688
▁私の	-8.58015
できる	-8.58073
ながら	-8.58148
送	-8.58195
それを	-8.58271
作	-8.58283
薬	-8.58837
酒	-8.58846
だけ	-8.59016
▁不	-8.59384
▁元気かい	-8.59572
メッセージを	-8.59579
やる	-8.59598
でも	-8.59641
ば	-8.59669
による	-8.59749
▁マップ	-8.59769
もと	-8.5981
表	-8.59992
しない	-8.60089
の場所は	-8.60201
部分	-8.60509
外	-8.60793
のため	-8.61024
ス	-8.61238
の総称	-8.61313
代	-8.61758
そ	-8.61763
ち	-8.62026
ものだ	-8.62198
毛	-8.62249
字	-8.62297
込む	-8.62352
店	-8.6238
台	-8.62464
夜	-8.6258
病	-8.62906
状	-8.6298
生活	-8.62981
いい	-8.63472
無	-8.64649
に対する	-8.64713
任	-8.64762
主義	-8.64839
なる	-8.64998
光	-8.65539
布	-8.66707
器	-8.66749
天	-8.66782
意	-8.66825
魚	-8.67276
垢	-8.67392
やって	-8.67402
雨	-8.67448
土	-8.67692
植物	-8.67985
装置	-8.68027
のような	-8.68097
主	-8.68257
ための	-8.6841
ル	-8.68417
せ	-8.68505
ぐ	-8.68628
▁金	-8.68642
態度	-8.68679
わ	-8.69623
権	-8.69785
をした	-8.7
職	-8.70061
の人	-8.70237
兵	-8.70712
下さい	-8.71005
入れ	-8.71078
機	-8.71656
何	-8.72027
関係	-8.72133
病気	-8.72633
ぞ	-8.72651
行為	-8.72915
はない	-8.72955
運動	-8.73157
行く	-8.73243
室	-8.73481
上の	-8.7364
であること	-8.73685
がいい	-8.73768
▁彼女の	-8.74037
していた	-8.74265
元	-8.74473
について	-8.7473
とする	-8.75287
曲	-8.75386
に電話	-8.75386
前に	-8.75582
愛	-8.75602
鳥	-8.75659
中に	-8.75708
味	-8.76273
られた	-8.7648
葉	-8.76559
使いたい	-8.76915
思い	-8.77012
髪	-8.77037
五	-8.77219
油	-8.77389
道具	-8.77467
悪	-8.77486
ページ	-8.7751
地図	-8.77925
人に	-8.78054
大きな	-8.781
感	-8.78139
角	-8.78164
私の	-8.78249
られる	-8.78266
肉	-8.78574
をとる	-8.78638
音楽	-8.78638
用の	-8.7906
▁自分の	-8.79078
血	-8.79441
信	-8.79484
める	-8.79546
筆	-8.79617
人が	-8.79807
雲	-8.80032
発	-8.80063
もない	-8.80183
人を	-8.80254
位	-8.80431
ください	-8.80455
持ち	-8.80859
▁本	-8.81009
こう	-8.81081
客	-8.81297
波	-8.81311
命	-8.81703
化	-8.81744
▁新	-8.81779
でない	-8.81832
米	-8.81936
▁これは	-8.81936
ぶ	-8.82067
物を	-8.82158
比ゆ的に	-8.82282
組織	-8.82487
料理	-8.82628
元気かい予約	-8.82853
御	-8.83315
不	-8.83345
合	-8.83354
になって	-8.83402
絵	-8.83414
性質	-8.83416
イ	-8.83439
部屋	-8.84233
腹	-8.84266
入	-8.84271
実	-8.84272
▁山	-8.84505
門	-8.85067
動	-8.85103
他の	-8.85382
になっている	-8.85435
を出す	-8.85647
立	-8.85843
ぎ	-8.85948
付け	-8.85973
師	-8.86259
雪	-8.8627
座	-8.86491
ところ	-8.86492
を作る	-8.86701
を受ける	-8.86716
▁すぐに電卓	-8.86725
れる	-8.87028
種	-8.87445
▁電話かける	-8.8749
相	-8.87813
打ち	-8.87842
』	-8.87961
▁我々は	-8.88053
説	-8.88127
マップ	-8.88169
根	-8.88286
▁1	-8.88673
ど	-8.88687
ものを	-8.88799
であった	-8.88925
▁電話したい	-8.88942
その人	-8.88964
図	-8.89064
会社	-8.89196
/	-8.89775
制	-8.89979
ルビ	-8.89984
計画	-8.90123
元気かいの	-8.9021
席	-8.90236
意見	-8.90301
官	-8.90302
▁彼には	-8.90483
犬	-8.9051
質	-8.90639
▁『	-8.90695
様	-8.90779
期	-8.90911
える	-8.9113
川	-8.91207
▁口	-8.91241
砲	-8.91341
び	-8.91361
節	-8.91423
学校	-8.91576
しい	-8.91643
界	-8.91655
を取る	-8.91809
教えて	-8.91859
類	-8.91874
画	-8.91977
直	-8.91979
罪	-8.92016
土地	-8.9204
別	-8.92322
事を	-8.9266
歩く	-8.92746
▁ある	-8.93079
町	-8.93338
べき	-8.93525
▁君は	-8.93666
文字	-8.94005
リ	-8.94877
▁私	-8.95018
のは	-8.95211
$	-8.95424
▁内	-8.95458
をかける	-8.95671
食用	-8.95692
回	-8.96009
君	-8.9611
軍	-8.96118
管	-8.96175
元気かいの履歴	-8.96353
々	-8.96545
んで	-8.96791
つき	-8.97169
茶	-8.97379
敵	-8.97533
札	-8.9759
はどこ	-8.97608
糸	-8.97627
眼	-8.97904
に使う	-8.98017
まだ	-8.98202
重	-8.98236
たち	-8.9835
立ち	-8.98527
路	-8.98571
はどうなっている	-8.98873
ろ	-8.99015
▁出	-8.99114
すぐ	-8.99115
ではない	-8.99183
詩	-8.99203
ラ	-8.99375
とも	-8.99505
ン	-9.00008
見る	-9.00072
お知らせ	-9.00133
輪	-9.00201
美しい	-9.00375
傷	-9.00516
のか	-9.00927
首	-9.00964
ルート	-9.00981
刀	-9.0107
ぬ	-9.01094
つく	-9.0116
事実	-9.01161
時代	-9.01168
入り	-9.01403
ナ	-9.01432
虫	-9.01501
なこと	-9.01566
そういう	-9.01627
とは	-9.01645
私	-9.01676
正	-9.01713
6	-9.0175
柱	-9.01893
夏	-9.01926
旅行	-9.01967
箱	-9.02009
かす	-9.02027
子供	-9.02088
元気かいの記録	-9.0245
姿	-9.02625
社会	-9.02695
中の	-9.03051
きた	-9.03063
行動	-9.03114
置いて	-9.03421
知	-9.03434
母	-9.03527
をして	-9.03574
新しい	-9.03674
小説	-9.03686
▁電話する	-9.04147
教育	-9.04193
父	-9.04336
記録	-9.04337
▁元気かいの	-9.04348
をすること	-9.04352
言い	-9.0443
耳	-9.04491
売り	-9.04559
▁夜	-9.0484
つけ	-9.04902
▁空	-9.0517
▁2	-9.05191
利	-9.05202
新	-9.05294
▁彼	-9.05353
印	-9.05417
見つけて	-9.05422
探して	-9.05632
一回	-9.05726
事柄	-9.05834
劇	-9.05908
記	-9.05941
棒	-9.0607
感じ	-9.06087
げ	-9.06097
六	-9.0617
団	-9.06287
送信する	-9.06346
したもの	-9.06546
明	-9.06723
できない	-9.06753
番に電話	-9.07203
情	-9.07219
▁電話をかける	-9.07382
に行く	-9.07454
出し	-9.07458
ける	-9.07496
▁高	-9.07829
あり	-9.07835
歯	-9.07856
が悪い	-9.0786
親	-9.07897
よりも	-9.0795
高い	-9.07984
然	-9.08
計	-9.08332
玉	-9.0867
ばかり	-9.08975
ア	-9.09283
▁元気かいの記録	-9.0939
たり	-9.09414
私は	-9.09553
通	-9.09669
人間	-9.09772
▁下	-9.09857
縁	-9.09861
約束	-9.10168
立て	-9.10183
次	-9.10193
らしい	-9.1031
額	-9.10418
天気	-9.10468
妻	-9.10476
湯	-9.10551
帯	-9.10729
かけ	-9.10803
句	-9.10842
これ	-9.11019
されている	-9.11022
あと	-9.11153
強	-9.11184
辰	-9.1122
美	-9.11228
メッセージ送信	-9.11248
里	-9.11324
なり	-9.11588
春	-9.11671
いっぺん	-9.1169
れば	-9.11967
らない	-9.11969
円	-9.12215
}	-9.12261
を見つけて	-9.12351
版	-9.12392
合い	-9.12571
▁木	-9.12694
どう	-9.12786
っていた	-9.12883
員	-9.13164
どこにある	-9.13217
試験	-9.13264
古	-9.13271
星	-9.13312
原	-9.13327
はどこにある	-9.13487
定	-9.1349
▁生	-9.13493
覆	-9.13958
▁君の	-9.13986
動物	-9.14291
▁神	-9.14313
非常に	-9.14313
戦争	-9.14522
僧	-9.1473
を与える	-9.14741
があった	-9.14741
粉	-9.14839
筋	-9.14855
ひと	-9.14945
村	-9.15075
ドル	-9.15257
▁上	-9.1531
建物	-9.15485
の中に	-9.156
難	-9.15602
とり	-9.15727
赤	-9.15815
煙	-9.15849
値	-9.15907
日本	-9.16065
▁気	-9.16191
ト	-9.16225
型	-9.16269
地方	-9.16317
掛け	-9.1638
ないこと	-9.16533
映画	-9.16842
柄	-9.16926
製	-9.16986
いや	-9.17115
四	-9.17119
成	-9.17138
そういう人	-9.17245
試合	-9.1728
たる	-9.17381
袋	-9.17867
同じ	-9.18037
▁後	-9.18048
になること	-9.18076
公	-9.18098
オ	-9.18117
▁御	-9.1841
造	-9.18561
尾	-9.18625
▁自	-9.18769
背	-9.18796
地位	-9.18878
かい	-9.18978
竹	-9.19152
活動	-9.1916
楽	-9.19256
▁目	-9.19309
費	-9.19556
▁前	-9.19688
研究	-9.19824
を示す	-9.19981
腰	-9.20064
杯	-9.20426
戸	-9.20514
道順	-9.20537
案	-9.208
マ	-9.20873
網	-9.20994
▁三	-9.2106
の中で	-9.21179
黒	-9.21365
っと	-9.21384
人物	-9.21482
すこと	-9.21762
寝	-9.21776
に対し	-9.21949
カ	-9.21954
税	-9.2213
長い	-9.22153
感情	-9.22156
文章	-9.22453
同	-9.22509
八	-9.22703
が多い	-9.22813
行き方	-9.22835
機械	-9.23058
書物	-9.23177
強い	-9.23249
への	-9.23359
▁白	-9.23378
張り	-9.23399
田	-9.23427
小さな	-9.23598
一番	-9.23604
穴	-9.23611
とき	-9.2362
ひ	-9.23671
▁天	-9.23733
だけで	-9.23774
▁心	-9.23798
術	-9.24218
ロ	-9.24269
相手	-9.24307
害	-9.24452
鼻	-9.24608
断	-9.24658
制度	-9.24672
弁	-9.24777
をしている	-9.24868
▁彼に	-9.25046
たい	-9.25216
取引	-9.25592
▁同	-9.25725
▁中	-9.25872
政治	-9.25969
産	-9.26175
事業	-9.26223
となった	-9.26227
半	-9.26237
方法	-9.26408
談	-9.26496
でしょう	-9.26658
報	-9.2684
悪い	-9.2687
まる	-9.26923
ゆ	-9.26923
士	-9.26972
合う	-9.27004
読	-9.27041
調	-9.27127
▁二	-9.27162
球	-9.27268
メッセージを送信	-9.27389
ッ	-9.2742
息	-9.27437
まい	-9.27549
平	-9.27639
やり直し	-9.27729
気持	-9.27901
事件	-9.2799
電	-9.28395
を探して	-9.28419
当	-9.28421
。↓	-9.28551
議論	-9.28758
▁ご	-9.28829
のに使う	-9.28845
出した	-9.28901
と思う	-9.28922
塩	-9.28986
像	-9.29035
▁元気かいの履歴	-9.29046
民	-9.29086
119	-9.29115
乗	-9.2916
通り	-9.2918
ろう	-9.29261
ウ	-9.29373
学者	-9.29485
皮	-9.29557
料	-9.29667
ケ	-9.29713
電話する	-9.29782
なし	-9.29912
白い	-9.29928
▁日	-9.29967
隊	-9.30148
あ	-9.30182
20	-9.30318
能力	-9.30373
得	-9.30381
ちゃん	-9.30388
|	-9.30436
そうだ	-9.30437
遊び	-9.3048
インターネットのページを	-9.30655
歩	-9.30655
シ	-9.30701
▁僕は	-9.30803
運	-9.31061
手紙	-9.31116
やり直す	-9.31133
進	-9.31205
違い	-9.31238
何か	-9.31246
学問	-9.31355
広く	-9.31444
▁外	-9.31561
上げる	-9.3157
毒	-9.31701
払い	-9.31763
娘	-9.31832
調子	-9.3188
殺	-9.31994
進む	-9.32004
号	-9.32103
に入る	-9.32136
幕	-9.32233
作用	-9.32239
横	-9.32248
の件	-9.32289
新聞	-9.32306
結婚	-9.3237
お知らせページ	-9.32401
大学	-9.32556
自動車	-9.32688
s	-9.32736
夫	-9.32749
立つ	-9.32833
ひどく	-9.32894
多	-9.33124
写真を	-9.33191
抜き	-9.33247
てしまった	-9.33357
橋	-9.33405
出る	-9.33407
取る	-9.33509
経験	-9.33678
かた	-9.33799
経済	-9.33819
機関	-9.33822
焼き	-9.34021
込み	-9.34044
をもつ	-9.34228
▁～	-9.34258
卵	-9.34311
史	-9.34312
規則	-9.34341
壁	-9.34382
物質	-9.34407
居	-9.34432
小さい	-9.34444
くる	-9.3458
王	-9.34634
深い	-9.34665
フ	-9.34787
秋	-9.35013
▁火	-9.35057
模様	-9.35099
牛	-9.35112
針	-9.35125
乗り	-9.35207
チ	-9.3532
しなさい	-9.35489
入っている	-9.35526
電話をかける	-9.3553
鉄	-9.35561
盛り	-9.35871
城	-9.35901
7	-9.3592
を入れる	-9.35962
彼に	-9.35965
タ	-9.35998
ぼ	-9.36058
なければならない	-9.36128
法律	-9.36151
切る	-9.36167
に関する	-9.36185
連	-9.36199
真	-9.3627
肩	-9.36286
いつも	-9.36386
▁何	-9.36472
▁全	-9.36477
欲	-9.36512
を見	-9.3656
朝	-9.36736
飯	-9.36853
じゃない	-9.36932
全	-9.3697
道路	-9.36984
彼が	-9.36998
つける	-9.37063
を言う	-9.37142
押し	-9.37173
うまく	-9.37178
社	-9.37254
窓	-9.37254
剤	-9.37283
多くの	-9.373
言った	-9.37349
策	-9.37387
行う	-9.37402
電話かける	-9.37577
野	-9.37624
表現	-9.37718
▁雪	-9.37807
取り消し	-9.37849
付	-9.37857
万	-9.3802
▁正	-9.38141
▁国	-9.38188
失	-9.38221
老	-9.38236
一定の	-9.38261
笑い	-9.38267
形の	-9.38306
かな	-9.3835
科の	-9.38564
▁先	-9.38574
しか	-9.38577
▁悪	-9.3866
▁船	-9.38711
の間	-9.38753
ふ	-9.38883
8	-9.38905
変化	-9.38928
乱	-9.3898
食事	-9.39054
なった	-9.39063
歳	-9.39401
私に	-9.39546
	-9.39712
させた	-9.39823
時の	-9.39824
30	-9.39828
損	-9.39877
局	-9.39974
化する	-9.39992
ますか	-9.40006
和	-9.40104
電気	-9.4017
英語	-9.40379
命令	-9.40422
のうち	-9.40434
やすい	-9.40438
▁日本	-9.40467
競技	-9.40668
長く	-9.40725
そうな	-9.40743
好	-9.40744
政	-9.40776
▁真	-9.40816
を起こす	-9.40828
片	-9.40889
七	-9.40901
ずる	-9.40964
起	-9.40992
▁風	-9.41114
財産	-9.41169
算	-9.41182
教	-9.41206
ニ	-9.41213
ほう	-9.41589
十	-9.41639
使い	-9.41699
たもの	-9.41736
がよい	-9.41785
▁何か	-9.4179
▁まだ	-9.418
行き	-9.41853
権利	-9.41869
d	-9.41891
のよい	-9.41996
▁―	-9.4209
時計	-9.42211
吹き	-9.42232
一般に	-9.4231
有	-9.42387
の上	-9.42411
層	-9.42429
危険	-9.42593
されて	-9.42621
▁茶	-9.42691
詰め	-9.42709
燭	-9.42763
ミ	-9.42899
安	-9.4292
数学	-9.43117
確認	-9.43352
証拠	-9.43373
で写真	-9.43478
あった	-9.4352
▁計算機	-9.43605
	-9.43642
ません	-9.43655
段	-9.43706
率	-9.43747
メートル	-9.43778
すっかり	-9.43856
▁非常に	-9.43916
番する	-9.43963
の部分	-9.4402
くれ	-9.44096
破	-9.4438
島	-9.44385
あなた	-9.44504
II	-9.44514
食べる	-9.4454
品物	-9.44629
いない	-9.44688
党	-9.44758
説明	-9.44858
コ	-9.44925
影	-9.44971
失敗	-9.45026
▁第	-9.45071
付ける	-9.45094
向き	-9.45111
レ	-9.45145
地域	-9.45146
落ち	-9.4518
記号	-9.45233
の道順	-9.4525
せる	-9.45305
立てる	-9.45335
薄	-9.4534
電話したい	-9.45347
彼	-9.45513
気が	-9.45563
どうか教えて	-9.45681
条件	-9.45681
金を	-9.4572
文書	-9.45905
50	-9.45932
を見る	-9.45949
変更	-9.45985
旗	-9.46098
うち	-9.46193
の上に	-9.46306
菓子	-9.46563
児	-9.46665
流れ	-9.46685
切	-9.468
ク	-9.46806
にして	-9.46842
100	-9.46849
団体	-9.46983
金銭	-9.4707
技術	-9.47088
全部	-9.47306
才	-9.47488
個	-9.47534
働き	-9.47555
分の	-9.4762
色の	-9.4768
付き	-9.47768
伝	-9.48187
▁3	-9.48274
多く	-9.48409
を立てる	-9.48463
他	-9.48466
▁これ	-9.48717
あい	-9.48727
床	-9.48778
対	-9.48808
株	-9.48871
手段	-9.48956
来る	-9.48996
かん	-9.49086
心配	-9.49214
駅	-9.4924
列	-9.49273
工	-9.49322
作った	-9.49561
庭	-9.4958
引	-9.4968
酸	-9.49793
▁同じ	-9.49901
徳	-9.49909
に向かって	-9.49944
▁そう	-9.50071
日に	-9.50086
▁電卓アプリ	-9.50103
▁重	-9.50124
来た	-9.50148
すべき	-9.5017
巻	-9.50241
世界	-9.50244
つけた	-9.50342
ずっと	-9.50476
ひどい	-9.50503
雑誌	-9.50542
ころ	-9.50566
ました	-9.50568
とても	-9.50634
思想	-9.50772
とした	-9.50784
港	-9.50789
少年	-9.50843
結果	-9.50843
目的	-9.5086
▁平	-9.50945
望	-9.50948
▁月	-9.50955
落	-9.50957
離	-9.51031
はまだ	-9.51246
▁こう	-9.51297
すぐれた	-9.51309
話す	-9.51681
わけ	-9.51693
作品	-9.51696
番に電話かける	-9.5183
指	-9.51847
▁海	-9.5196
折	-9.52015
があり	-9.52068
意味	-9.52109
降り	-9.52126
千	-9.5216
端	-9.52292
週間	-9.52405
の行き方	-9.52407
理	-9.52451
やめ	-9.52469
だと	-9.52504
万円	-9.52631
訳	-9.52691
くなる	-9.52752
を守る	-9.52781
なんて	-9.52834
回り	-9.52838
散	-9.52843
利益	-9.52866
派	-9.52905
目に	-9.52917
込んだ	-9.52941
▁初	-9.53006
工場	-9.53321
注意	-9.53354
もなく	-9.53356
皿	-9.53469
▁見	-9.535
⇒	-9.53526
らす	-9.53632
返す	-9.5369
事情	-9.53695
がなく	-9.53699
言うこと	-9.53702
ものが	-9.53736
▁実	-9.53751
▁公	-9.53759
を使って	-9.53804
の下	-9.53857
宿	-9.54016
せず	-9.54178
息子	-9.54195
礼	-9.54304
の名	-9.54334
され	-9.54336
に出る	-9.54399
そんな	-9.54658
▁古	-9.54734
だけの	-9.54925
陣	-9.5495
ごと	-9.54986
知識	-9.55031
跡	-9.55172
べ	-9.55193
韻	-9.55211
▁花	-9.55259
陰	-9.55299
あまり	-9.55394
つか	-9.55533
切れ	-9.55539
胸	-9.55546
間に	-9.55574
▁昔	-9.55579
▁他人の	-9.55629
一つ	-9.55656
市	-9.55664
現象	-9.55738
を得る	-9.55835
らせる	-9.55887
行った	-9.55893
変	-9.55909
家族	-9.55922
▁雨	-9.5603
肌	-9.5608
大いに	-9.5609
▁彼は私に	-9.56128
砂	-9.5615
▁今	-9.562
羽	-9.56486
芸	-9.56532
▁名	-9.56684
入れる	-9.5684
で写真を	-9.56874
読み	-9.56898
▁そんな	-9.56958
普通	-9.57003
価値	-9.57025
強く	-9.57026
他人の	-9.5706
投げ	-9.57118
両	-9.57202
称	-9.57261
建築	-9.57268
早く	-9.57343
▁有	-9.5737
葉は	-9.57397
勢力	-9.57432
灯	-9.57455
夢	-9.57495
岩	-9.57604
好き	-9.57696
れた	-9.57822
判	-9.57824
位置	-9.57831
大きく	-9.57832
の一	-9.57911
します	-9.5794
を失う	-9.58008
女性	-9.58023
寺	-9.58058
▁長	-9.58131
を持つ	-9.58277
▁物事の	-9.58407
示	-9.5842
具	-9.58506
▁酒	-9.58563
のルート	-9.58676
により	-9.58721
義	-9.58795
ということ	-9.58981
約	-9.59013
▁血	-9.59147
▁ひと	-9.59471
そこ	-9.59473
辺	-9.59626
判断	-9.5968
ざ	-9.59724
分け	-9.59735
向	-9.59813
当たり	-9.59962
演説	-9.59973
ほどの	-9.60003
組	-9.60038
題	-9.60039
校	-9.60104
状の	-9.60166
{	-9.60196
としての	-9.60226
さえ	-9.60268
じる	-9.60393
辞	-9.60394
転	-9.60408
婦人	-9.60461
倍	-9.60634
氏	-9.60664
苦	-9.60702
追い	-9.60716
理論	-9.60727
末	-9.60769
余	-9.60776
銀	-9.60782
相手の	-9.60844
受け	-9.60886
飛び	-9.60893
近	-9.61028
ごろ	-9.61081
格	-9.61212
▁川	-9.61218
▁横	-9.6123
腕	-9.61277
それに	-9.61326
▁よく	-9.61429
堂	-9.6153
差	-9.61542
はい	-9.61606
t	-9.6171
質問	-9.61742
しく	-9.61758
一つの	-9.61797
てきた	-9.61802
のだ	-9.61912
政府	-9.61957
衣	-9.6206
▁多	-9.62072
前の	-9.62117
幅	-9.62145
取	-9.6217
聞き	-9.62281
念	-9.62294
枚	-9.62306
見える	-9.62327
のですか	-9.62346
北	-9.62351
習	-9.62391
精神	-9.62405
なって	-9.62457
箸	-9.62529
ページを	-9.62566
さない	-9.62569
互いに	-9.62615
しよう	-9.62692
置く	-9.62856
寒	-9.62857
でなく	-9.6286
ド	-9.62891
林	-9.62894
インターネットのページ	-9.6297
今	-9.63
成功	-9.63028
がつく	-9.63028
抜け	-9.63044
恩	-9.63051
と言った	-9.63051
▁早	-9.63173
くて	-9.63191
営	-9.63196
キ	-9.63206
はその	-9.63213
やり	-9.63214
込んで	-9.63238
階級	-9.63242
全く	-9.63319
速	-9.63349
高く	-9.63364
すり	-9.63422
に当たる	-9.63441
はっきり	-9.63533
釮	-9.63547
責任	-9.63627
程度	-9.63645
反	-9.63646
かね	-9.63669
氷	-9.6378
解決	-9.6381
職業	-9.63828
工業	-9.63844
不足	-9.63845
青	-9.63853
検査	-9.63897
修	-9.63903
彼女は	-9.63963
素	-9.64021
▁戦争	-9.64124
経路	-9.64133
持	-9.64158
うそ	-9.64198
液	-9.64216
衣服	-9.64235
言語	-9.64256
者が	-9.64256
友	-9.64267
矢	-9.64305
岸	-9.64373
▁ショートメッセージ	-9.64397
追加	-9.64441
場合	-9.64481
つる	-9.64551
賞	-9.64558
入る	-9.64597
を変更する	-9.64652
解	-9.64663
院	-9.64664
かかる	-9.64677
願	-9.64749
自	-9.64866
元気かいのお知らせ	-9.64871
略	-9.64916
弱	-9.64938
起こる	-9.65006
激しく	-9.65061
がないこと	-9.65102
飾り	-9.65176
反対	-9.65208
程	-9.65209
裏	-9.65255
パン	-9.65332
バ	-9.65335
上げ	-9.65368
軸	-9.65409
側	-9.65464
ことだ	-9.65465
ブ	-9.6549
かり	-9.65526
茲	-9.65533
材	-9.65671
と言う	-9.65841
を見て	-9.65913
ずに	-9.65949
られて	-9.65968
痛	-9.65986
▁女	-9.66027
差し	-9.66051
見て	-9.66053
内容	-9.66083
大きい	-9.66098
にした	-9.66136
やった	-9.66141
逆	-9.66153
配	-9.66154
に住む	-9.66269
積	-9.66284
墨	-9.66329
滅	-9.66336
▁赤	-9.66368
汁	-9.66373
善	-9.66399
すれば	-9.664
、「	-9.66422
商売	-9.66456
計算機	-9.66465
電卓アプリ	-9.66469
政策	-9.66504
ガラス	-9.6652
を削除	-9.66539
いること	-9.66564
科	-9.6659
▁入	-9.66676
そば	-9.66739
経	-9.66744
良	-9.66891
人は	-9.66907
少し	-9.66925
患者	-9.66967
▁君が	-9.67073
のもの	-9.6711
蔵	-9.67174
空気	-9.67249
いった	-9.67447
原因	-9.67483
せん	-9.67487
晩	-9.67587
列車	-9.67655
皆	-9.67736
一方	-9.67741
の類	-9.6782
仕事を	-9.67873
違う	-9.68061
距離	-9.68071
炎	-9.68174
給	-9.68185
削除	-9.68236
おり	-9.68242
援助	-9.68257
係	-9.68278
契約	-9.68359
番呼び出す	-9.68437
黄	-9.68466
▁それ	-9.68498
かさ	-9.68602
要	-9.68608
ひも	-9.68627
～	-9.68669
霊	-9.68685
言って	-9.68686
メッセ	-9.68766
ぶり	-9.68796
犯罪	-9.68843
彼女の	-9.68933
さし	-9.69035
期間	-9.6905
必要	-9.69056
できた	-9.69058
織物	-9.69062
価格	-9.69102
割り	-9.69155
弾	-9.69166
才能	-9.69187
健康	-9.69209
かどうか	-9.69271
すべて	-9.693
▁直	-9.69396
要求	-9.69431
金属	-9.69435
望み	-9.69506
取りやめ	-9.69523
打	-9.69562
乳	-9.69582
彼を	-9.6961
材料	-9.69633
装	-9.69658
A	-9.69739
示して	-9.69806
犯	-9.6983
▁これらの	-9.69875
放送	-9.69883
留	-9.69987
性の	-9.70013
委員会	-9.70071
上がる	-9.70126
等の	-9.70135
のいい	-9.70181
仲間	-9.70182
働く	-9.70288
は何	-9.70438
まったく	-9.70486
治	-9.70488
取り消す	-9.70501
南	-9.70682
がよく	-9.70683
会議	-9.70705
かもしれない	-9.70712
最も	-9.70731
どんな	-9.70735
▁親	-9.70767
便	-9.70793
生徒	-9.70868
泥	-9.70876
とう	-9.7092
意識	-9.70962
をもって	-9.71007
おく	-9.71027
器具	-9.71032
しまった	-9.71038
コード	-9.71268
▁足	-9.71356
させ	-9.71399
メッセージ送	-9.71462
などに使う	-9.71462
わからない	-9.71512
選	-9.71526
▁再	-9.71604
綿	-9.71705
▁年	-9.71709
スト	-9.71752
▁総	-9.71765
の悪い	-9.71833
自然	-9.71842
属	-9.71845
学生	-9.71903
努力	-9.71912
知恵	-9.71943
観	-9.71943
元気かい予約状況	-9.71944
OK	-9.72036
振り	-9.72091
もっと	-9.72095
が彼の	-9.72102
たちは	-9.72104
聞	-9.72115
たくさん	-9.72188
▁新しい	-9.72307
攻撃	-9.72347
教え	-9.72358
受	-9.72381
雄	-9.72384
上に	-9.72441
銃	-9.72459
計算	-9.72559
花が咲く	-9.72567
体を	-9.72601
者は	-9.72729
苦労	-9.72841
事故	-9.72944
書類	-9.72985
食い	-9.73
▁強	-9.73011
死んだ	-9.73029
剣	-9.73084
深く	-9.73096
作る	-9.73128
別の	-9.73141
ほ	-9.73191
食物	-9.73277
問	-9.73346
うちに	-9.73405
勇	-9.73416
仕	-9.73454
罰	-9.73463
ム	-9.73481
費用	-9.73489
▁元気かいのお知らせ	-9.73509
ウェッブページ	-9.73544
▁青	-9.73545
更新	-9.73548
収	-9.73584
習慣	-9.73592
飲む	-9.73668
▁野	-9.7371
もち	-9.73726
したり	-9.73733
中である	-9.73761
を打つ	-9.73815
離れ	-9.73937
気分	-9.73943
▁熱	-9.74089
走	-9.74097
を更新する	-9.74142
られている	-9.74155
務	-9.74295
物事の	-9.74327
を取り	-9.74343
編	-9.7437
評判	-9.74418
ばか	-9.74526
批評	-9.7454
▁朝	-9.74569
涙	-9.74631
各	-9.74712
作り	-9.74736
言い方	-9.74762
枝	-9.748
紅	-9.74973
▁逆	-9.74983
討	-9.7504
死ぬ	-9.75099
があって	-9.75146
結	-9.7515
ましたか	-9.75152
昔	-9.75301
境	-9.75317
在	-9.75432
所に	-9.75492
合わせ	-9.75543
番して	-9.75691
希望	-9.75718
底	-9.7575
を張る	-9.75891
まえ	-9.75986
けた	-9.76057
ついて	-9.76062
都市	-9.76229
泣く	-9.76237
パ	-9.76248
▁自動車	-9.76264
潮	-9.76393
それが	-9.76438
予定	-9.76489
食品	-9.76511
細工	-9.76552
領	-9.76564
家に	-9.76626
集	-9.76638
舌	-9.76638
正しい	-9.76639
籍	-9.76643
飛行	-9.76714
従	-9.76766
に達する	-9.76781
番呼び出して	-9.76819
すぎる	-9.76851
笑う	-9.76898
級	-9.76958
ほとんど	-9.76982
章	-9.7706
帽子	-9.77063
丸	-9.77064
キロ	-9.77069
あたり	-9.77092
返事	-9.77104
狂	-9.77167
商	-9.77194
▁土	-9.77293
見た	-9.77359
残	-9.77372
▁自然	-9.77389
ハ	-9.7744
めた	-9.77441
旅	-9.77444
製品	-9.77544
銭	-9.77632
もある	-9.77641
綱	-9.77685
まず	-9.77771
次の	-9.77795
年齢	-9.77805
の多い	-9.77831
へ行く	-9.77857
立派な	-9.77861
州	-9.77884
冠	-9.77892
顔つき	-9.77926
は彼の	-9.77986
急	-9.78035
に似た	-9.78165
文学	-9.78209
水を	-9.78245
蝿	-9.78329
▁とても	-9.78348
▁身	-9.78388
しゃ	-9.78449
を送る	-9.78495
人だ	-9.78536
、...	-9.78591
泙	-9.78626
納	-9.78656
条	-9.7893
ガス	-9.78935
立場	-9.78959
九	-9.7902
▁彼は私の	-9.79066
ネ	-9.79081
黒い	-9.79112
▁こ	-9.79184
メ	-9.79212
につく	-9.79227
理由	-9.79351
マイル	-9.79405
▁半	-9.79419
服装	-9.79435
▁鉄	-9.79554
すぐに電話	-9.79571
茎	-9.79573
▁黒	-9.79594
を追加する	-9.79642
祭	-9.79686
紋	-9.79697
体の	-9.79729
階	-9.7979
くず	-9.7982
知っている	-9.79844
を行なう	-9.79948
殿	-9.79965
友人	-9.80032
何の	-9.80041
趣味	-9.80043
15	-9.80055
百	-9.80062
芸術	-9.80068
▁肉	-9.80095
▁安全自己診断	-9.80153
初めて	-9.8017
兄	-9.80247
心を	-9.80267
か教えて	-9.80329
売	-9.80332
軍隊	-9.8034
使い方	-9.80363
の中	-9.80377
ヤ	-9.80388
冬	-9.80433
わざ	-9.80469
心が	-9.80471
宮	-9.80519
産業	-9.80527
屋根	-9.80559
な人	-9.80598
勝	-9.80618
に電話をかける	-9.80663
性格	-9.80737
東	-9.80783
香	-9.80802
▁明	-9.80871
うこと	-9.80877
資金	-9.80898
▁それが	-9.8091
止め	-9.80962
勢い	-9.80969
省	-9.81053
癖	-9.81086
らず	-9.81107
革	-9.81144
生物	-9.81163
圧	-9.8117
症	-9.81229
Δ	-9.81289
商品	-9.81364
十分	-9.81469
裁判所	-9.81498
やか	-9.81531
早	-9.81552
ぐらい	-9.81569
るように	-9.81604
期待	-9.81645
みな	-9.81655
番に電話して	-9.81853
走る	-9.81894
わら	-9.81925
れて	-9.81943
▁電気	-9.81953
手を	-9.81991
▁主	-9.81993
国家	-9.82015
当て	-9.82027
心に	-9.82116
▁他	-9.82194
保護	-9.8221
勢	-9.82226
傾向	-9.82286
▁君	-9.82337
割	-9.82407
▁文	-9.82475
部隊	-9.82482
▁両	-9.82506
密	-9.82621
炭	-9.82622
メッセ送信	-9.82679
ついた	-9.82742
バス	-9.82782
▁多くの	-9.82912
我々の	-9.8295
始めた	-9.82975
物事	-9.8303
どうなる	-9.83063
ちゃ	-9.83125
▁天気	-9.83278
交	-9.83299
▁寝	-9.83302
の時	-9.83324
ホテル	-9.83371
▁和	-9.83375
眠	-9.83399
▁あなた	-9.83424
を受けて	-9.83432
を求める	-9.83457
と同じ	-9.83503
]	-9.83531
家の	-9.83536
退	-9.83564
脚	-9.83585
販売	-9.83616
助	-9.83681
▁愛	-9.83711
物語	-9.83718
あの	-9.8374
人形	-9.83774
一日	-9.83887
呂	-9.83911
がら	-9.83962
露	-9.84079
名前	-9.84166
達	-9.84275
の間に	-9.84286
替え	-9.84352
かわ	-9.84393
生産	-9.84393
テ	-9.84493
に立つ	-9.84519
苦しい	-9.84625
▁物事を	-9.84668
▁地	-9.84703
▁それを	-9.84718
敗	-9.84733
全体	-9.84778
を使う	-9.84782
短い	-9.84827
▁5	-9.84831
を入れて	-9.84839
チーム	-9.84855
の称	-9.84876
やめる	-9.84894
動き	-9.84953
左	-9.84954
でき	-9.85092
9	-9.85138
たら	-9.85142
細	-9.85192
収入	-9.85284
ポンド	-9.85289
交渉	-9.85467
考える	-9.85482
相談	-9.85537
処理	-9.85544
志	-9.85588
の言葉	-9.85589
▁石	-9.85652
物事を	-9.85708
清	-9.85758
印刷	-9.85766
票	-9.85898
松	-9.8593
許	-9.85953
飲み	-9.85961
▁ア	-9.85963
撃	-9.85963
鵑	-9.85968
コードのページ	-9.86021
動作	-9.86023
▁試験	-9.86043
▁原	-9.86201
▁急	-9.86297
に電話したい	-9.86352
漢	-9.86438
置き	-9.86442
湖	-9.8647
▁OK	-9.86544
景	-9.86573
食べ	-9.86584
豆	-9.86608
B	-9.86619
畑	-9.86629
喜び	-9.86691
ホ	-9.86731
▁馬	-9.86731
メッセージを送	-9.86802
舟	-9.86833
気持ち	-9.86857
行い	-9.86937
手で	-9.87063
情報	-9.87063
ていない	-9.87077
任務	-9.87077
重い	-9.87097
サ	-9.87101
をやる	-9.8714
設備	-9.87174
▁新聞	-9.87245
議	-9.87251
後に	-9.8726
一人	-9.87268
▁ひ	-9.87364
ようにする	-9.87399
となって	-9.87418
▁反	-9.87427
ウェッブページを	-9.87437
死ぬこと	-9.87563
絶	-9.87597
教師	-9.87649
さっと	-9.87766
急に	-9.8777
調査	-9.87801
彼女	-9.87837
刑	-9.87869
令	-9.87894
▁紙のメモ写真で保存	-9.8799
なかなか	-9.88044
紙のメモ記録	-9.88096
何も	-9.88158
▁旧	-9.88192
君の	-9.88199
ット	-9.8823
涼	-9.88315
施設	-9.88386
縄	-9.88391
いく	-9.88405
やつ	-9.8848
きり	-9.88527
西	-9.88617
聞く	-9.88674
ごとに	-9.88732
放	-9.88763
選手	-9.88873
勉強	-9.88886
願い	-9.88893
▁一つの	-9.88941
回る	-9.88949
を引く	-9.89025
雑	-9.89025
させて	-9.8903
▁男	-9.89052
▁片	-9.89057
▁腹	-9.89149
直接	-9.89177
ても	-9.8918
過	-9.89313
生まれ	-9.8943
このメモを写真で保存	-9.89467
年間	-9.89497
典	-9.895
総	-9.89583
んでいる	-9.89614
ヒ	-9.89635
症状	-9.89666
態	-9.89702
づ	-9.89707
まき	-9.89716
企業	-9.89837
▁魚	-9.89963
電車	-9.9
範囲	-9.90008
を切る	-9.90083
▁引き	-9.90083
ガ	-9.90125
満足	-9.9013
間の	-9.9013
渡し	-9.90141
▁かん	-9.90156
ができる	-9.90157
二つの	-9.90255
諸	-9.90271
極	-9.90294
まま	-9.90324
丁	-9.90384
▁彼らの	-9.90399
していない	-9.90437
ようだ	-9.90437
単に	-9.9045
若い	-9.90468
をさす	-9.9047
間違い	-9.90501
織り	-9.90507
決定	-9.9051
時期	-9.90539
以上	-9.90546
自分	-9.90584
決	-9.90708
甲	-9.90771
役目	-9.90776
障害	-9.90828
巻き	-9.90829
俳優	-9.9085
負け	-9.90859
閑	-9.90861
かげ	-9.90865
芝居	-9.90919
作業	-9.90963
勘定	-9.9103
近く	-9.91103
が強い	-9.91117
秘密	-9.91173
蕕	-9.91179
労働者	-9.91193
おう	-9.91211
作家	-9.91219
▁牛	-9.91225
能	-9.91424
られない	-9.91592
コードを	-9.91676
答え	-9.917
をつけた	-9.91758
▁詩	-9.91773
単位	-9.91776
送り	-9.91852
徒	-9.91897
▁ス	-9.91914
絹	-9.91952
▁法	-9.91985
のことを	-9.9201
▁コ	-9.9204
盤	-9.92045
主に	-9.92081
ましょう	-9.9214
▁老	-9.92156
段階	-9.9218
手書きメモ記録	-9.92211
紙のメモを保存	-9.92213
▁死	-9.9222
-	-9.9222
常	-9.92296
が出る	-9.92299
▁彼女が	-9.92313
▁雑	-9.92376
私を	-9.92474
旧	-9.92574
をつけ	-9.9279
初	-9.92804
菜	-9.92887
臭	-9.92962
メッセを送信	-9.9298
反応	-9.93039
遊	-9.93041
樹	-9.93082
際	-9.93119
▁客	-9.9315
効果	-9.93196
のための	-9.93221
国民	-9.93233
あき	-9.93233
麦	-9.93241
工事	-9.93266
荷	-9.93272
教授	-9.93282
遠	-9.93307
弟	-9.93307
▁湯	-9.93316
型の	-9.93324
宝	-9.93359
選挙	-9.93554
手書きメモを写真で記録	-9.93613
このメモを記録	-9.93636
激しい	-9.93637
▁sho	-9.93637
料金	-9.93685
報告	-9.93733
自分で	-9.93759
襪	-9.93762
資格	-9.93771
しても	-9.93795
を持っている	-9.93825
突き	-9.93922
られ	-9.94044
方向	-9.94148
スマホ画面ですぐ	-9.94156
ずつ	-9.94174
中で	-9.94206
文句	-9.94291
男だ	-9.94299
▁非	-9.94302
弔	-9.94328
ul	-9.94335
目を	-9.94479
モ	-9.94529
▁きょうは	-9.94536
▁もっと	-9.94689
飛ぶ	-9.94734
砂糖	-9.94874
で写真を送信	-9.94895
ったり	-9.94955
哲学	-9.94972
▁未	-9.95027
パーティー	-9.95053
一面に	-9.95056
しん	-9.95112
▁耳	-9.95113
のお知らせ	-9.95261
▁別	-9.95302
ひき	-9.95304
ないように	-9.95416
とか	-9.95423
考え方	-9.95439
券	-9.9545
▁あの人は	-9.95505
突	-9.95539
緑	-9.95552
粒	-9.95553
多くは	-9.9557
興	-9.95571
精	-9.95609
はもう	-9.95672
▁国際	-9.95677
ボール	-9.95719
だよ	-9.95724
▁社会	-9.95775
知らせ	-9.95818
太陽	-9.95849
▁しょう	-9.95932
e	-9.96014
細長い	-9.96063
刃	-9.96075
づけ	-9.96082
扱い	-9.96092
発する	-9.96108
一杯	-9.96135
化学	-9.96229
をつけて	-9.96325
メモ写真で保存	-9.96356
あること	-9.96395
猫	-9.96418
筒	-9.96518
ツ	-9.96558
人々	-9.96574
ておく	-9.96575
▁薄	-9.96605
咲く	-9.96676
迫	-9.96833
道を	-9.96868
につける	-9.96892
になり	-9.96902
出すこと	-9.9691
異	-9.9694
リー	-9.97136
ちょっと電話	-9.97207
儀	-9.97217
困	-9.97275
限り	-9.97358
塔	-9.97371
系統	-9.97375
右	-9.97419
またその	-9.97452
▁軽	-9.97479
忘れ	-9.975
寒い	-9.97542
▁どんな	-9.97634
身分	-9.97643
私が	-9.97711
民族	-9.97719
ていること	-9.97764
関	-9.97803
合わせる	-9.97845
細い	-9.97857
を表す	-9.97906
暗	-9.97964
灰	-9.98012
深	-9.98086
▁彼は自分の	-9.98098
▁五	-9.9829
通信	-9.98318
犯人	-9.98334
譴	-9.98374
まった	-9.98394
録	-9.98445
ただ	-9.98456
思う	-9.985
再	-9.98515
孫	-9.98515
笑	-9.98641
そこに	-9.98644
まり	-9.98651
銀行	-9.98677
▁自由	-9.98687
宗教	-9.98702
の木	-9.98712
紳士	-9.98724
▁銀	-9.98734
▁胸	-9.98779
があること	-9.98804
評	-9.98816
順	-9.98821
子供たち	-9.98856
しなければならない	-9.98863
投票	-9.98932
テレビ	-9.98944
時代の	-9.98994
うつ	-9.99031
させること	-9.99097
を敬って言う	-9.99114
▁健康	-9.99157
▁変	-9.99163
目の	-9.99171
と彼は	-9.99294
みんな	-9.99323
▁鼻	-9.99326
メモ保存	-9.9934
使	-9.99357
▁ひどく	-9.99379
かかった	-9.99427
年に	-9.99431
紙のメモを記録	-9.99451
このメモ記録	-9.99462
このメモ写真で記録	-9.99479
▁仮	-9.99482
メッセを	-9.99494
普通の	-9.99507
▁連	-9.99525
において	-9.99564
金額	-9.99569
かき	-9.99613
手に	-9.99615
覚え	-9.99723
変わった	-9.99746
守	-9.99778
系	-9.998
美人	-9.99805
源	-9.99904
ことがある	-9.99919
に電話する	-9.99921
得意	-9.99944
しないこと	-9.99956
らい	-9.99968
ことができる	-9.99971
尺	-9.99993
闘	-10.0002
元気	-10.0003
わき	-10.0004
菌	-10.0005
出た	-10.0006
写	-10.0007
署名	-10.0011
勤	-10.0011
をなす	-10.0014
帰り	-10.0014
いまから電話	-10.0015
合って	-10.0017
脈	-10.0019
狭い	-10.0021
▁春	-10.0021
話題	-10.0023
▁そ	-10.0027
だから	-10.003
以外の	-10.0035
芽	-10.0042
物体	-10.0045
将来	-10.0047
で写真送信	-10.005
で作った	-10.0051
とし	-10.0062
かみ	-10.0062
防	-10.0064
初め	-10.0073
が高い	-10.0073
を受けた	-10.0076
盛んに	-10.0078
▁腕	-10.0082
科学	-10.0084
手書きメモを写真で保存	-10.0096
がん	-10.0098
くって	-10.01
打つ	-10.0106
むこと	-10.0112
忠告	-10.0112
われる	-10.0122
死に	-10.0123
塗り	-10.0138
▁物事が	-10.0138
禁止	-10.0141
実験	-10.0146
膜	-10.0146
▁を用いないことが多い	-10.0148
一時	-10.0155
なくなる	-10.0157
載	-10.0162
しながら	-10.0166
わかる	-10.0169
▁転	-10.0169
▁警察	-10.017
自由に	-10.0171
まで道順	-10.0183
勝利	-10.0188
速度	-10.0192
いている	-10.0192
▁大きな	-10.0193
ホーム画面からすぐ	-10.0195
勇気	-10.0201
さらに	-10.0204
製の	-10.0207
▁カ	-10.0213
それは	-10.0214
▁紙のメモを写真で記録	-10.0216
件	-10.0217
信号	-10.0217
▁相手の	-10.0221
臣	-10.0225
怒り	-10.0238
▁背	-10.024
かし	-10.0243
池	-10.0247
▁歯	-10.0247
存在	-10.025
めて	-10.0252
がうまい	-10.0254
このメモ保存	-10.0254
こむ	-10.0255
渡	-10.0257
年の	-10.026
待ち	-10.0264
感覚	-10.0274
宗	-10.0275
華	-10.0283
こんな	-10.0284
構造	-10.0287
規定	-10.0287
連絡	-10.0289
巣	-10.0296
ビ	-10.0299
信仰	-10.0309
▁根	-10.0311
労働	-10.0313
ことを言う	-10.0314
みち	-10.0325
しま	-10.0331
を行う	-10.0331
口を	-10.0341
寒さ	-10.0347
▁発	-10.0348
形式	-10.0353
縫い	-10.0361
鏡	-10.0364
少しも	-10.0367
勝負	-10.0368
世間	-10.0374
紫	-10.0382
いだ	-10.0382
なければ	-10.0383
の日	-10.0384
べきだ	-10.0384
ドレス	-10.0389
そうに	-10.039
帳	-10.0395
メモを写真で記録	-10.0395
の家	-10.0395
益	-10.0398
▁いまから電話	-10.0404
置	-10.0408
このメモ写真で保存	-10.0408
匹	-10.0408
きちんと	-10.0416
指導	-10.0416
小屋	-10.0416
暗い	-10.0421
現	-10.0425
一生	-10.0427
観賞用	-10.0431
古い	-10.0432
演技	-10.0432
にかける	-10.0438
他人	-10.0444
折り	-10.0444
財	-10.0445
実は	-10.0451
ふるまい	-10.0456
地帯	-10.0458
かぎ	-10.046
アメリカ	-10.0468
しみ	-10.047
我	-10.0471
▁彼を	-10.0471
高さ	-10.0474
▁こんな	-10.0475
処置	-10.0476
寄せ	-10.0485
接	-10.0487
洋	-10.0487
先に	-10.0488
かける	-10.0488
▁the	-10.0491
かせる	-10.0494
思い出	-10.0496
これを	-10.0505
のです	-10.0505
白く	-10.0506
まわり	-10.0514
養	-10.0515
していること	-10.0517
▁常	-10.0525
におい	-10.0528
写真を送信	-10.0529
スマホ画面で	-10.0532
静かに	-10.0532
ようにした	-10.0534
不安	-10.0551
調べ	-10.0552
メモ記録	-10.0553
メモを記録	-10.0554
楽器	-10.0557
商人	-10.0558
げる	-10.0561
手書きメモ写真で記録	-10.0565
紙のメモを写真で保存	-10.0566
の子	-10.0567
見え	-10.0569
ノ	-10.0573
戮	-10.0576
▁安全診断	-10.0577
休み	-10.0579
ぐあい	-10.058
に電話かける	-10.0583
労	-10.0587
祭り	-10.0588
小さく	-10.0588
戦う	-10.0591
▁さあ	-10.0593
の音	-10.0595
恐れ	-10.0598
顔を	-10.0598
貸し	-10.0599
▁分	-10.0605
▁取り	-10.0608
の下に	-10.0608
ソ	-10.0608
テーブル	-10.061
作物	-10.0612
▁旅	-10.062
かえる	-10.0621
▁塩	-10.0625
イン	-10.0625
東京	-10.0635
エ	-10.0638
族	-10.064
に近い	-10.0645
▁私が	-10.0647
うわさ	-10.0659
神経	-10.066
▁油	-10.0667
相手に	-10.0674
▁学問	-10.0679
必ず	-10.0687
脱	-10.0691
を上げる	-10.0701
刻	-10.0703
はとても	-10.0707
つり	-10.071
刺激	-10.0712
偏	-10.0716
うまい	-10.0716
思	-10.0717
釣り	-10.0718
市場	-10.0718
翼	-10.0718
荷物	-10.0721
阿	-10.0722
真実	-10.0722
遠い	-10.0723
弦	-10.0723
揚げ	-10.0724
焼	-10.074
発見	-10.0741
注文	-10.0745
のみ	-10.0748
をあげる	-10.075
▁病気	-10.0752
証	-10.0752
暮らす	-10.0756
運命	-10.0768
の実	-10.0768
をお	-10.0776
器官	-10.0781
せき	-10.0787
ドア	-10.0787
a	-10.0788
▁このメモを保存	-10.079
▁メモ保存	-10.0793
▁清	-10.0804
立った	-10.0805
本の	-10.0815
▁あなたの	-10.0821
▁草	-10.0822
っぽ	-10.0823
住む	-10.0828
張	-10.083
ジ	-10.0834
区	-10.0837
光景	-10.0837
グ	-10.0839
基	-10.0841
と思った	-10.0841
静	-10.0844
の道	-10.0848
賛成	-10.0849
因	-10.085
冷	-10.0855
美しく	-10.0857
河	-10.0858
魂	-10.086
温	-10.0861
事が	-10.0864
▁ショートメッセージを	-10.0872
貨幣	-10.0872
いき	-10.0873
区域	-10.0874
勝ち	-10.0874
の中の	-10.0877
液体	-10.088
手続き	-10.0886
子寬	-10.0893
営業	-10.0896
容器	-10.0905
太	-10.0908
気候	-10.0925
たけ	-10.0925
欠点	-10.0927
行って	-10.0931
びん	-10.0937
スマホですぐ	-10.0944
体が	-10.0953
運転	-10.0955
寄り	-10.0955
▁{	-10.0956
演	-10.0959
薄く	-10.0966
自由	-10.0967
にかけて	-10.0976
▁軍	-10.0978
利用	-10.0979
を加える	-10.098
発音	-10.0989
越し	-10.0989
歩いて	-10.0992
下の	-10.0995
抵抗	-10.0998
煮	-10.1
肥料	-10.1
くら	-10.1001
▁深	-10.1004
▁砂	-10.1009
の方	-10.101
壇	-10.1013
くれた	-10.1013
詩人	-10.1019
および	-10.1019
名声	-10.1022
殻	-10.1023
笛	-10.1025
あるいは	-10.1028
方針	-10.1033
君は	-10.1036
品種	-10.1036
出席	-10.1036
環境	-10.1037
減	-10.1041
銅	-10.1044
メモ写真で記録	-10.1045
貿易	-10.1045
レース	-10.1047
戦闘	-10.1051
きょう	-10.1058
泣き	-10.1059
価	-10.1059
薄い	-10.1062
中国	-10.1076
あて	-10.1076
ことのたとえ	-10.1078
▁差し	-10.1082
コーヒー	-10.1082
を確認	-10.1088
返	-10.1093
發	-10.1097
▁我々の	-10.1104
▁ひどい	-10.1107
さき	-10.111
写し	-10.1112
▁宿	-10.1114
▁結婚	-10.1128
並み	-10.1129
しなかった	-10.1131
非難	-10.1132
スマホ画面からすぐ	-10.1142
▁ふ	-10.1146
主張	-10.1148
るような	-10.1148
外出	-10.1149
けが	-10.1149
軽	-10.1151
いつ	-10.1159
に乗る	-10.1162
▁いや	-10.1169
理解	-10.117
義務	-10.1171
谷	-10.1175
炉	-10.1177
▁使い方の自己診断	-10.1179
結び	-10.118
ってしまった	-10.1182
千円	-10.1182
暑い	-10.1184
かなり	-10.1184
食べ物	-10.119
事務	-10.1192
をよく	-10.1199
射	-10.12
僕	-10.12
軽く	-10.1201
さら	-10.1202
の大	-10.1203
立っている	-10.1205
降	-10.1205
何ができるか教えて	-10.1205
黄色	-10.1206
予算	-10.1207
尻	-10.1211
分ける	-10.1211
メモを写真で保存	-10.1215
でした	-10.1218
若	-10.1218
出来事	-10.1219
重要な	-10.1222
実に	-10.1224
物事が	-10.1226
家具	-10.1227
▁紙	-10.1229
▁駅	-10.1229
紙のメモ写真で保存	-10.123
ック	-10.1232
科の多年生植物	-10.124
してください	-10.1242
わせる	-10.1245
▁奇	-10.1256
ていった	-10.1258
▁いい	-10.1258
でしょうか	-10.126
歴史	-10.1265
ダ	-10.1268
垂れ	-10.127
解釈	-10.1273
!、	-10.1275
始め	-10.1276
身を	-10.1283
ひとつ	-10.1289
に入れる	-10.129
と言って	-10.1299
払う	-10.1299
都	-10.1299
▁元気かいの予約	-10.1306
状態になる	-10.1314
かない	-10.1315
番号	-10.132
値段	-10.1321
ばかりの	-10.1326
内に	-10.1327
幸福	-10.1327
のある人	-10.1331
忙しい	-10.1333
種類の	-10.1334
共和国	-10.1334
瓩	-10.1335
餅	-10.1335
講演	-10.1335
コート	-10.1336
▁パ	-10.134
そのまま	-10.134
をつく	-10.134
表情	-10.1341
広告	-10.1343
▁自分	-10.1344
上がり	-10.1345
焼け	-10.1347
付く	-10.1348
落とす	-10.135
でないこと	-10.1353
論文	-10.1355
の仕事	-10.1355
がなかった	-10.1357
の経路	-10.136
業者	-10.1362
限	-10.1363
殺す	-10.1364
獣	-10.1372
それぞれ	-10.1374
▁安全度の自己診断	-10.1381
袖	-10.1383
くなった	-10.1384
封	-10.1396
手書きメモを保存	-10.1399
鬼	-10.1399
手書きメモを記録	-10.1399
▁筆	-10.1405
平和	-10.1405
人たち	-10.1408
仕事に	-10.1408
広い	-10.1413
どおりに	-10.1415
取った	-10.1416
を書く	-10.1416
趣	-10.1423
▁秋	-10.1423
▁対	-10.1423
開	-10.1436
訪問	-10.1438
水が	-10.1441
災難	-10.1443
ホーム画面	-10.1445
集団	-10.1445
建	-10.1446
答	-10.1453
掛ける	-10.1457
▁腰	-10.1458
帰	-10.1464
むし	-10.1466
▁子寬	-10.1469
▁開	-10.1474
屈	-10.1477
功	-10.1478
野菜	-10.148
街	-10.1481
┐	-10.1482
仕事をする	-10.1483
▁-	-10.1484
▁10	-10.1485
続く	-10.1489
呼吸	-10.1491
欄	-10.1493
▁安全度の診断	-10.1494
スマホ画面に貼り付け	-10.1494
エネルギー	-10.1494
困難	-10.1494
都合	-10.1495
きず	-10.1495
▁安全度のチェック診断	-10.1497
▁冬	-10.1497
ズ	-10.1501
目標	-10.1505
鬚	-10.1506
▁メモを記録	-10.1506
▁手書きメモ写真で保存	-10.151
風に	-10.1516
演奏	-10.1521
▁メモを写真で記録	-10.1522
▁東京	-10.1524
▁裏	-10.1525
火事	-10.153
ごみ	-10.1531
▁彼はいつも	-10.1531
良い	-10.1533
時刻	-10.1535
コードのページを	-10.1536
ピ	-10.1536
で彼は	-10.154
荒	-10.1543
たん	-10.1548
裁判	-10.1549
□・	-10.1549
▁ちょっと電話	-10.1551
愚	-10.1551
▁すぐに電話	-10.1555
争い	-10.1565
続き	-10.1566
悲しみ	-10.1568
すばらしい	-10.1569
ひざ	-10.157
の数	-10.1573
▁人間	-10.1577
紙のメモを写真で記録	-10.1577
安全	-10.1581
▁あ	-10.1584
国の	-10.1584
出て	-10.1587
▁来	-10.1594
れない	-10.1605
地震	-10.1617
湿	-10.1618
歳だ	-10.1618
身の	-10.1619
▁互いに	-10.1624
想	-10.1625
案内	-10.1633
あって	-10.1634
役所	-10.1645
売買	-10.1645
センチ	-10.165
ひげ	-10.1651
繊維	-10.1652
なしに	-10.1653
ようとする	-10.1653
資本	-10.1654
上着	-10.1655
とび	-10.1659
の結果	-10.1661
意志	-10.1661
ごく	-10.1663
微	-10.1667
腸	-10.1675
手が	-10.1681
医学	-10.1685
鐘	-10.169
▁敵	-10.1695
二つ	-10.1698
視	-10.1702
縦	-10.1704
出版	-10.1704
奪	-10.1712
挙	-10.1715
舞台	-10.1724
▁丸	-10.1726
好きな	-10.1728
▁極	-10.1729
▁救急車を呼んで	-10.1733
他人に	-10.1735
机	-10.1735
公園	-10.1736
脳	-10.1737
だって	-10.1738
用意	-10.1743
出来	-10.1746
課	-10.1749
このメモを保存	-10.1758
君に	-10.176
周	-10.176
▁メモを写真で保存	-10.1768
鉄道	-10.177
締め	-10.1777
過ぎ	-10.178
実際に	-10.178
いろいろな	-10.1782
羊	-10.1783
地面	-10.1783
こそ	-10.1784
▁近	-10.1786
左右	-10.1787
まじ	-10.1789
▁着	-10.1796
プ	-10.1796
方式	-10.1797
容	-10.1797
房	-10.18
技	-10.1801
まって	-10.1802
▁好	-10.1805
どり	-10.1808
恋	-10.181
繰り	-10.1811
過ぎる	-10.1811
までのルート	-10.1812
吟	-10.1815
籠	-10.1818
个	-10.1819
かご	-10.1819
はじめ	-10.1823
ひとり	-10.1824
彼女に	-10.1825
以下	-10.1828
ダンス	-10.1828
かけた	-10.183
▁映画	-10.183
臭い	-10.1839
がその	-10.1841
▁光	-10.1843
の前に	-10.185
温度	-10.1857
の意	-10.186
動詞	-10.1865
長さ	-10.1869
つま	-10.1873
見込み	-10.1875
提案	-10.1876
来て	-10.1877
▁頭	-10.1877
タバコ	-10.1877
証明	-10.1878
方の	-10.1881
梅	-10.1883
ものである	-10.1883
薬品	-10.1888
▁雲	-10.1889
▁ラジオ	-10.1895
交通	-10.1897
廃	-10.19
▁特	-10.19
に応じて	-10.1903
頃	-10.1903
鋭い	-10.1904
後ろ	-10.1905
外国	-10.1906
欠	-10.1907
いっぱい	-10.1909
踏み	-10.1909
役人	-10.191
つぎ	-10.1911
はよく	-10.1912
進歩	-10.1913
ないで	-10.1913
頂	-10.1918
メモを保存	-10.1921
切った	-10.1922
相場	-10.1923
番に電話する	-10.1923
▁放	-10.1923
を送信	-10.1931
組み	-10.1938
の形	-10.1939
一本	-10.1951
n	-10.1952
譲	-10.1955
幸	-10.1956
つけて	-10.196
非	-10.1962
時には	-10.1963
についての	-10.1967
出発	-10.1971
呼び	-10.1976
▁この本は	-10.1978
にとって	-10.1979
刈り	-10.198
誤り	-10.1981
▁胃	-10.1982
ザ	-10.1982
家庭	-10.1983
▁使い方の診断	-10.1985
医者	-10.1987
われ	-10.1988
差別	-10.1995
▁人が	-10.1995
▁骨	-10.1996
しり	-10.1997
△	-10.1997
▁安全度のチェック自己診断	-10.1999
違うよ	-10.2003
のついた	-10.2007
仲	-10.2009
増	-10.2012
▁使い方のチェック	-10.2013
直す	-10.2015
さす	-10.2017
▁I	-10.2019
奥	-10.2021
注	-10.2024
はいよ	-10.2026
書いた	-10.2027
起こった	-10.2031
の本	-10.2038
進んで	-10.2039
▁思い	-10.204
日の	-10.204
▁このメモ保存	-10.2041
▁古い	-10.2044
途	-10.2045
トン	-10.2045
以上の	-10.2046
くぎ	-10.2048
順に	-10.2059
やり方	-10.2062
あいさつ	-10.2064
落ちる	-10.2065
導	-10.2067
突然	-10.2067
群	-10.2072
に用いる	-10.2075
いす	-10.2076
もうけ	-10.2082
わかった	-10.2084
みそ	-10.2085
生まれた	-10.2087
栽培	-10.2095
スマホ画面へ	-10.2096
奇	-10.2101
亡	-10.2102
▁数	-10.2105
福	-10.2107
▁皆	-10.2107
抜く	-10.2107
住	-10.2107
▁現代	-10.211
舞	-10.2111
いたずら	-10.2116
▁選挙	-10.2116
スポーツ	-10.2117
つまらない	-10.2121
にくい	-10.2121
▁一定の	-10.2123
揚	-10.2125
そうした	-10.2129
回復	-10.213
回し	-10.2131
いう	-10.2134
拍子	-10.2137
冊	-10.2141
物の	-10.2145
次第に	-10.2147
▁政	-10.2147
果	-10.2148
ぼう	-10.2148
郷	-10.2149
智	-10.2149
君主	-10.2149
舎	-10.2151
相手を	-10.2151
つめ	-10.2151
細胞	-10.2152
訓	-10.2152
の手	-10.2153
ホーム画面ですぐ	-10.2154
レストラン	-10.2154
弟子	-10.2156
かえって	-10.216
参	-10.2165
更に	-10.2166
はこの	-10.2167
製造	-10.2167
者に	-10.2169
ませんか	-10.217
いなか	-10.2177
▁米	-10.2183
補	-10.219
なくなった	-10.2194
議会	-10.2194
半分	-10.2195
らなかった	-10.2199
と共に	-10.2202
みる	-10.2205
▁大学	-10.2207
してある	-10.2211
▁異	-10.2213
一定	-10.2214
練習	-10.2225
細く	-10.2227
▁言い	-10.2231
伝え	-10.2233
▁唐	-10.2236
血液	-10.224
なること	-10.2246
攻め	-10.2247
おけ	-10.2247
記憶	-10.2249
休暇	-10.2249
英	-10.2251
漁	-10.2256
の声	-10.2257
妙	-10.2257
興奮	-10.2259
▁低	-10.226
未	-10.2263
▁世間	-10.2264
下げ	-10.2266
保証	-10.2267
短	-10.2272
そり	-10.2272
マン	-10.2275
▁交通	-10.2278
地に	-10.2281
▁石油	-10.2285
▁まったく	-10.2288
大形の	-10.2289
肺	-10.2291
声で	-10.2294
覧	-10.2294
先生	-10.2297
道徳	-10.23
にすること	-10.2303
ズボン	-10.2305
赤い	-10.2307
棚	-10.2309
紙のメモ写真で記録	-10.2309
▁安全チェック	-10.2309
手書きメモ写真で保存	-10.231
胴	-10.2311
機会	-10.2311
▁手書きメモ記録	-10.2318
▁紙のメモを保存	-10.2318
▁物の	-10.2319
館	-10.232
聴	-10.2322
痛み	-10.2324
勘	-10.2324
秒	-10.2326
寮	-10.2327
汗	-10.2328
遅れ	-10.2328
▁手書きメモ保存	-10.2328
盛	-10.2329
からの	-10.2337
▁東	-10.2342
賃	-10.2347
にあって	-10.2348
走り	-10.2351
第	-10.2352
感謝	-10.2356
会員	-10.236
洗い	-10.2361
ようにして	-10.2363
▁彼らはその	-10.2368
けんか	-10.237
くらい	-10.237
になっていた	-10.2373
話を	-10.2375
を受け	-10.2385
文化	-10.2394
ポ	-10.2397
なんか	-10.2398
返し	-10.2398
しき	-10.2401
行動する	-10.2402
触れ	-10.2403
に従って	-10.2405
てください	-10.2407
らん	-10.241
実行	-10.2411
車を	-10.2412
歌手	-10.2413
12	-10.2416
かど	-10.2417
スマホから	-10.2418
だが	-10.2423
o	-10.2424
親切	-10.2429
取って	-10.243
成績	-10.2434
▁あなたは	-10.2443
信用	-10.2444
越	-10.2445
を引き	-10.2453
兵士	-10.2455
第一	-10.2457
変わり	-10.246
▁町	-10.2465
錠	-10.2466
まね	-10.2467
盗	-10.2468
魔	-10.247
すべての	-10.2471
だろうか	-10.2473
いと	-10.2475
医	-10.2477
競走	-10.2477
おし	-10.2479
みた	-10.2483
化粧	-10.2484
武士	-10.2484
アプリ	-10.2487
▁母	-10.2487
真理	-10.2488
愛情	-10.2489
興行	-10.2492
婚	-10.2494
まし	-10.2499
こわ	-10.25
履歴	-10.25
胃	-10.2501
勉強する	-10.2502
手書きメモ保存	-10.2502
緊張	-10.2502
輸送	-10.2503
シャツ	-10.2503
苦しみ	-10.2504
形で	-10.2511
そうです	-10.2513
本当に	-10.2522
広	-10.2524
逃げ	-10.2527
▁氷	-10.2532
っこ	-10.2538
の花	-10.2544
十分に	-10.2545
意気	-10.2546
▁乳	-10.2553
じゃないか	-10.2554
電流	-10.2557
▁単	-10.2561
写真送信	-10.2561
であろう	-10.2561
▁夏	-10.2562
の一部	-10.2567
包み	-10.2569
下に	-10.2571
余り	-10.2572
つら	-10.2573
動く	-10.2575
▁鉄道	-10.2581
暮らし	-10.2584
▁彼女はその	-10.2587
▁国家	-10.2587
外に	-10.2589
▁このメモを写真で記録	-10.2589
満	-10.259
あか	-10.2591
給料	-10.2594
戒	-10.2599
さび	-10.2604
してくれた	-10.2604
持つ	-10.2612
肥	-10.2618
かく	-10.2627
助け	-10.2635
えり	-10.2636
書く	-10.2644
世話	-10.2644
を持って	-10.2648
を抜く	-10.2657
正直	-10.2657
激	-10.2659
クラス	-10.266
すみ	-10.266
▁庭	-10.2661
嫌	-10.2661
主として	-10.2663
▁安全かどうかの診断	-10.2663
交際	-10.2664
継ぎ	-10.2665
▁紙のメモ保存	-10.2665
帽	-10.2668
スマホで	-10.2671
雅	-10.2673
自身	-10.2676
楽しみ	-10.268
圓	-10.2681
パーセント	-10.2681
ボタン	-10.2682
集合	-10.2684
でメッセを	-10.2685
持っている	-10.2686
を取って	-10.2687
しないで	-10.2689
▁鳥	-10.2692
ようになる	-10.2692
▁追	-10.2692
▁左	-10.2694
続けて	-10.2697
熟	-10.2697
紙のメモ保存	-10.2698
かず	-10.2704
▁救急車呼ぶから電話して	-10.2705
病院	-10.2708
の世界	-10.2708
競争	-10.271
▁粗	-10.2711
▁退	-10.2712
▁よい	-10.2716
くじ	-10.2717
れている	-10.2718
去	-10.2722
の自由	-10.2724
ようと	-10.2725
いろいろ	-10.2726
回す	-10.2727
気体	-10.2728
▁聖	-10.2729
しめ	-10.273
婦	-10.2735
鳴る	-10.2742
どろ	-10.2745
練	-10.2747
方面	-10.275
見ること	-10.275
でメッセージ	-10.2752
借り	-10.2752
種類	-10.2753
鋼	-10.2757
ところで	-10.2758
の状態	-10.2759
細かい	-10.2767
▁美	-10.2768
口に	-10.2775
ぜ	-10.2776
人口	-10.2776
元気かいの予約	-10.2779
簡単に	-10.2779
得た	-10.2782
ものだった	-10.2786
青年	-10.2792
そのように	-10.2795
恥	-10.2796
彫刻	-10.2796
取ること	-10.2796
行くこと	-10.2798
▁万	-10.2801
すぎて	-10.2803
▁定	-10.2805
刊	-10.2806
ならぬ	-10.2817
修行	-10.2822
一般	-10.2823
を保つ	-10.2826
物が	-10.2829
決心	-10.2831
を買う	-10.2831
驚いた	-10.2832
するために	-10.2836
置け	-10.2839
だめだ	-10.2843
天井	-10.2843
をとり	-10.2844
襲	-10.2844
翻訳	-10.2847
がけ	-10.2848
夫婦	-10.2848
教会	-10.285
穂	-10.2851
ふるまう	-10.2854
好み	-10.2855
エンジン	-10.2855
否	-10.2857
庁	-10.2857
慮	-10.2858
▁人間の	-10.286
制限	-10.2863
附	-10.2863
▁安全度のチェックチェック	-10.2863
以来	-10.2863
ひそかに	-10.2863
警察	-10.2865
は私の	-10.2867
英雄	-10.2868
雷	-10.2868
ボ	-10.2868
霜	-10.287
手当	-10.2873
知らず	-10.2873
ール	-10.2875
読む	-10.2875
甘い	-10.2881
▁紙のメモ写真で記録	-10.2883
奏	-10.2887
心の	-10.2888
詩歌	-10.2889
場面	-10.2889
洗	-10.2889
▁切り	-10.289
象	-10.2891
▁僕の	-10.2892
ピアノ	-10.2892
あらゆる	-10.2894
を払う	-10.2896
勤務	-10.2898
▁フ	-10.2899
社長	-10.2899
くり	-10.2901
スマホからすぐ	-10.2901
生命	-10.2902
役者	-10.2903
f	-10.2906
▁弱	-10.2908
元気かいの履歴を管理	-10.2909
建て	-10.2909
道理	-10.291
生活をする	-10.2912
赤ん坊	-10.2912
切符	-10.2913
番組	-10.2914
ギ	-10.2914
▁面	-10.2916
▁日本の	-10.2922
▁はい	-10.2925
体に	-10.2926
の色	-10.2929
▁精神	-10.2933
なっている	-10.294
▁学校	-10.2951
ほか	-10.2951
いたします	-10.2956
▁綿	-10.2957
してしまった	-10.2958
なあ	-10.2966
たとえ	-10.2967
▁病	-10.2967
▁ハ	-10.2968
▁泥	-10.2968
他に	-10.2972
なくて	-10.2972
▁手書きメモを記録	-10.2972
▁警察を呼ぶ	-10.2975
準備	-10.2976
▁安全かどうかの自己診断	-10.2976
傾	-10.2982
寝る	-10.2983
多数	-10.2985
▁遠	-10.2988
時間を	-10.299
までに	-10.2991
しやすい	-10.2992
狩り	-10.2994
前後	-10.2996
▁あの男は	-10.2996
▁荒	-10.2997
うん	-10.2998
職人	-10.3
数量	-10.3
▁メモ写真で記録	-10.301
同情	-10.3012
ずいぶん	-10.3012
を入れた	-10.3014
すぎ	-10.3014
別れ	-10.3016
するさま	-10.3017
頭に	-10.3017
将	-10.3022
ものか	-10.3026
インド	-10.3027
なお	-10.3027
の強い	-10.3033
紀	-10.3034
姓	-10.3038
すじ	-10.3038
傘	-10.3039
恵	-10.3041
軒	-10.3043
修理	-10.3044
m	-10.3045
ゲーム	-10.3049
訓練	-10.3049
印象	-10.305
でメッセージを	-10.3051
積み	-10.3052
当然	-10.3052
好意	-10.3054
使用	-10.3063
のないこと	-10.3064
臨	-10.3066
じっと	-10.3068
てある	-10.3075
聞いて	-10.3081
損害	-10.3089
麻	-10.3093
話をする	-10.3094
に従う	-10.3097
存	-10.31
開き	-10.3102
▁密	-10.3104
▁きわめて	-10.3104
報道	-10.3112
なす	-10.3113
至	-10.3114
あげる	-10.3114
▁改	-10.3121
頭を	-10.3127
逃げる	-10.3131
▁サ	-10.3133
▁当	-10.3135
が早い	-10.3138
買い	-10.3142
立てた	-10.3143
りして	-10.3145
か月	-10.3147
▁このメモ写真で記録	-10.3147
しろ	-10.3151
えて	-10.3152
の原料	-10.3155
せい	-10.3156
を打ち	-10.3157
しかった	-10.3158
幹	-10.3158
▁過	-10.316
最後	-10.316
京都	-10.316
▁夢	-10.3163
儀式	-10.3163
訴	-10.3165
ホーム画面に	-10.3167
受ける	-10.3174
治療	-10.3178
時代に	-10.3179
成分	-10.3179
確	-10.3181
の選手	-10.3182
を述べる	-10.3184
塁	-10.3184
標	-10.3187
▁四	-10.3188
▁オ	-10.319
もとの	-10.319
髪の毛	-10.3191
を変える	-10.3192
面目	-10.3196
はあまり	-10.3197
のど	-10.3198
構え	-10.3199
迷	-10.3202
ちゃんと	-10.3203
▁手書きメモを写真で記録	-10.3209
バー	-10.3211
航	-10.3212
くさ	-10.3213
▁私には	-10.3213
わない	-10.3214
の手紙	-10.3215
比	-10.3217
スマホ	-10.3217
坂	-10.322
▁コーヒー	-10.3221
少女	-10.3224
多い	-10.3228
重要	-10.3231
ホーム画面へ貼り付け	-10.3236
画家	-10.3236
スマホ貼り付け	-10.3236
厚い	-10.3237
襟	-10.3237
元気かい俺の予約	-10.3237
詠	-10.3237
▁安全度のチェック	-10.3237
ケーキ	-10.3237
元素記号	-10.3238
▁北	-10.3239
踊り	-10.3239
▁立ち	-10.3239
500	-10.324
天候	-10.324
興味	-10.324
▁西洋	-10.3241
風景	-10.3246
▁首	-10.3252
老人	-10.3252
白色	-10.3253
▁メモ記録	-10.3253
あし	-10.3254
毎日	-10.3255
将軍	-10.3259
遠く	-10.3261
頭の	-10.3262
▁在	-10.3262
y	-10.3262
の単位	-10.3264
貧乏	-10.3265
染め	-10.3268
秘	-10.3269
予想	-10.3269
はなかった	-10.327
▁一度	-10.327
であるさま	-10.3271
合わせて	-10.3273
▁安全かどうかのチェック	-10.3273
丸く	-10.3276
勢いよく	-10.3279
2、3	-10.3282
ものと	-10.3282
たま	-10.3283
▁紙のメモ記録	-10.3283
ホーム画面から	-10.3285
与	-10.3286
ワ	-10.3287
をはかる	-10.3287
頭が	-10.3287
首を	-10.3289
倒	-10.329
未来	-10.3291
▁きょう	-10.3294
条約	-10.3294
本を	-10.3296
県	-10.3297
▁角	-10.3297
隠し	-10.3297
住宅	-10.3298
標準	-10.3299
終	-10.33
燃料	-10.3301
具合	-10.3302
▁これで	-10.3302
落ちた	-10.3302
の人々	-10.3304
ようになった	-10.3306
キャンセル	-10.3309
終わり	-10.3313
個人	-10.3317
空間	-10.3318
大変	-10.3318
灯火	-10.3324
で行く	-10.3324
の前	-10.3328
はね	-10.3328
います	-10.3329
布地	-10.3333
▁少し	-10.3337
そんなに	-10.3337
整理	-10.3341
花を	-10.3346
一度	-10.3357
▁いつも	-10.3365
承知	-10.3367
のことで	-10.3371
形に	-10.3374
▁家庭	-10.3374
府	-10.3376
▁メッセを	-10.3376
あら	-10.3386
の上で	-10.3387
全然	-10.3398
▁陰	-10.34
事態	-10.3403
流し	-10.3407
細かく	-10.341
まるで	-10.3411
人生	-10.3411
▁このメモを記録	-10.3413
っぽい	-10.3415
残り	-10.3417
軽い	-10.3422
護	-10.3423
弘	-10.3425
姉	-10.3427
塊	-10.3429
スマホ画面へ貼り付け	-10.3429
坐	-10.3429
期限	-10.3431
40	-10.3433
対象	-10.3434
引く	-10.3435
を開く	-10.3435
の皮	-10.3438
だれ	-10.3441
つつ	-10.3442
▁肩	-10.3445
▁手書きメモ写真で記録	-10.3445
▁紙のメモを写真で保存	-10.3445
▁レ	-10.3446
近い	-10.3447
ものではない	-10.3459
▁ロンドン	-10.3464
ええ	-10.3465
寸	-10.3466
▁このメモを写真で保存	-10.3469
劇場	-10.3474
▁学生	-10.3477
▁昔の	-10.3478
敷	-10.348
▁薬	-10.348
▁すぐれた	-10.3481
買	-10.3485
特定の	-10.3487
若者	-10.3488
想像	-10.349
までの行き方	-10.3494
▁救急車	-10.3496
っぱ	-10.3497
はり	-10.3498
ゴ	-10.3499
早い	-10.3499
向こう	-10.35
弓	-10.3502
貝	-10.3502
いろ	-10.3504
▁千	-10.3508
ゴム	-10.3514
辞書	-10.3515
行かない	-10.352
講	-10.3521
彼らは	-10.3522
切って	-10.3529
がき	-10.3533
いかにも	-10.3535
▁彼女	-10.3541
r	-10.3542
爆発	-10.3545
青い	-10.3546
▁道路	-10.3548
そうよ	-10.3548
▁西	-10.3548
▁劇	-10.3549
いっしょに	-10.355
唱	-10.3555
疑い	-10.3556
おじ	-10.3558
力を	-10.3559
文法	-10.3561
▁焼き	-10.3563
贈り物	-10.3564
止	-10.3565
▁遺	-10.3566
いろいろの	-10.357
▁脱	-10.3577
会合	-10.3584
休	-10.3591
男子	-10.3592
までの	-10.3601
▁潮	-10.3604
19	-10.3604
多年生植物	-10.3605
しましょう	-10.3605
▁ガス	-10.3606
▁世界	-10.3608
中央	-10.3609
森	-10.361
艦	-10.3612
▁機械	-10.3613
円形	-10.3616
大きさ	-10.3617
はまったく	-10.3621
職務	-10.3622
妹	-10.3623
銘	-10.3623
蓋	-10.3624
ディ	-10.3625
コードのページ貼り付け	-10.3625
インターネットのページ貼り付け	-10.3625
鍋	-10.3625
泳ぎ	-10.3627
決意	-10.3628
損失	-10.3629
微笑	-10.363
▁精	-10.3631
▁すぐに計算機	-10.3634
しようと	-10.3639
ばら	-10.3639
代わり	-10.3642
組合	-10.3644
除	-10.3645
▁廃	-10.3645
区分	-10.3647
祝い	-10.3648
監督	-10.3649
外部	-10.365
流れる	-10.3656
自慢	-10.3657
on	-10.3659
▁橋	-10.366
気質	-10.366
実力	-10.3661
が起こる	-10.367
急いで	-10.3678
不幸	-10.3685
▁代	-10.3687
しておく	-10.3687
をかけて	-10.3696
が違う	-10.3698
日本の	-10.3699
▁ど	-10.3699
呼ぶ	-10.37
メッセを送	-10.37
クラブ	-10.3706
▁素	-10.3707
いで	-10.371
保険	-10.3716
宇宙	-10.3717
▁紙のメモを記録	-10.3719
種種の	-10.3719
倒れ	-10.3721
珍しい	-10.3725
生き	-10.3728
▁罪	-10.3728
富	-10.373
ヨーロッパ	-10.373
イエス	-10.373
の先	-10.373
要素	-10.3731
▁共	-10.3732
▁ひざ	-10.3733
スマホ画面に	-10.3734
ラジオ	-10.3734
▁私たちは	-10.3734
ところだった	-10.3735
b	-10.3736
をとって	-10.3736
風呂	-10.3741
懐	-10.3741
皮膚	-10.3743
▁手書きメモを保存	-10.3744
このメモを写真で記録	-10.3744
とおり	-10.3751
いますか	-10.3752
負	-10.3753
乾	-10.3754
中心	-10.3756
▁メモ写真で保存	-10.3759
文明	-10.3764
ですね	-10.3765
現実	-10.3767
照	-10.377
i	-10.3772
追	-10.3773
に乗って	-10.3775
電報	-10.3778
をかけ	-10.3779
運ぶ	-10.378
のり	-10.3781
事は	-10.3782
干し	-10.3784
ペン	-10.3787
躍	-10.3787
▁余	-10.3787
などから	-10.3797
▁救急車呼ぶから電話	-10.3799
ロー	-10.38
固	-10.3803
帆	-10.3804
始める	-10.3807
咲き	-10.3808
▁門	-10.3819
ウェッブページ貼り付け	-10.3825
瓦	-10.3825
コードのページを貼り付け	-10.3825
コードを貼り付け	-10.3825
▁警察呼ぶ	-10.3826
児童	-10.3826
革命	-10.3827
少々	-10.3827
名詞	-10.3827
はいつも	-10.3827
酸素	-10.3827
カード	-10.3828
多少	-10.3828
強盗	-10.3829
連れ	-10.3829
通知	-10.3831
▁痛	-10.3835
しるし	-10.3837
はずれ	-10.3838
眼鏡	-10.384
留め	-10.3842
▁通	-10.3842
野球	-10.3848
共	-10.3849
一層	-10.3856
権力	-10.3857
ホーム画面で	-10.3857
目が	-10.3859
着物	-10.3864
▁大統領	-10.3865
を置く	-10.3869
錣	-10.387
薬用	-10.3871
▁王	-10.3873
をつけること	-10.3878
農	-10.3879
▁冷	-10.3879
ちょう	-10.3885
▁メモを保存	-10.3888
記事	-10.3889
現在	-10.3893
▁聞き	-10.3895
かる	-10.3903
緑色	-10.3904
ゲ	-10.3904
医師	-10.3912
等を	-10.3915
風の	-10.3915
律	-10.3916
ながめ	-10.3922
まれた	-10.3926
衆	-10.393
がたい	-10.3931
▁苦	-10.3932
セ	-10.3935
▁江戸時代	-10.3936
生涯	-10.3936
っていない	-10.3937
遺	-10.3942
ベッド	-10.3943
に出かける	-10.3944
枕	-10.3944
▁若	-10.3946
編集	-10.3948
ヘルプ	-10.3949
そのもの	-10.3951
▁キャンセル	-10.3952
ゆく	-10.3952
腐	-10.3958
▁しん	-10.3959
女の子	-10.3961
上がった	-10.3964
の神	-10.3964
あご	-10.3967
威	-10.397
スマホ画面から	-10.397
元気かいの記録を管理	-10.3974
通し	-10.3976
低い	-10.3977
侮辱	-10.3981
身体	-10.3982
筋肉	-10.3984
のお	-10.3985
金持ち	-10.3986
いいえ	-10.3986
カー	-10.3986
特	-10.3988
の中を	-10.3988
きわめて	-10.3991
スマホに	-10.3993
あれ	-10.3993
を作ること	-10.3995
経営	-10.3998
を出して	-10.3998
▁洋	-10.3999
英国	-10.3999
大臣	-10.4001
合格	-10.4002
▁暗	-10.4004
持って	-10.4009
ひな	-10.4019
烈	-10.402
予約を確認	-10.402
勅	-10.4022
おい	-10.4022
歴	-10.4025
に似て	-10.4027
丈	-10.4027
秩序	-10.4028
酢	-10.4029
肝	-10.4029
いなかった	-10.4029
選択	-10.4029
スマホへ貼り付け	-10.403
アルコール	-10.403
レンズ	-10.403
すなわち	-10.403
友だち	-10.403
▁メッセ	-10.4031
あわ	-10.4037
再び	-10.4038
▁軍隊	-10.404
から成る	-10.4041
に富む	-10.4042
方が	-10.4047
よくない	-10.4051
きまり	-10.4057
▁絵	-10.4059
暑さ	-10.4069
合った	-10.4083
▁政治	-10.4084
主人	-10.4084
身に	-10.4088
のもとに	-10.409
ついで	-10.4092
結晶	-10.4093
者の	-10.4094
上で	-10.4103
▁手書きメモを写真で保存	-10.4107
▁エ	-10.412
我々は	-10.4122
ふく	-10.4123
▁右	-10.4132
正月	-10.4136
尊	-10.4141
▁激しい	-10.4141
における	-10.4142
ビル	-10.4143
そうじゃない	-10.4144
▁もし	-10.4149
だね	-10.415
▁共同	-10.415
似	-10.4151
蛇	-10.4156
脂	-10.4163
にかかる	-10.4163
丘	-10.4165
原稿	-10.4166
庭園	-10.4167
カメラ	-10.417
歩くこと	-10.4174
兄弟	-10.4175
求	-10.4176
状に	-10.4176
触	-10.4177
泉	-10.418
継	-10.4182
ロンドン	-10.4182
▁指	-10.4182
育	-10.4186
▁漢字の	-10.4186
いくら	-10.4187
粗	-10.4187
住民	-10.419
文体	-10.419
信する	-10.4191
測	-10.4194
▁アメリカ	-10.4194
幾ら	-10.4195
創	-10.4196
晴れ	-10.4198
に置く	-10.4199
▁将来	-10.4203
保	-10.4205
住んでいる	-10.4205
からだ	-10.4205
意にも	-10.4209
嘆	-10.4209
所有	-10.4217
謀	-10.4217
祖	-10.4217
述べる	-10.4221
の葉	-10.4222
壮	-10.4225
飛行機	-10.4227
了	-10.4227
掌	-10.423
謝	-10.423
むく	-10.4233
分析	-10.4234
の生活	-10.4236
椅子	-10.4238
クリーム	-10.4238
インターネットのページを貼り付け	-10.4238
テスト	-10.4239
刑罰	-10.4239
元素	-10.4239
協定	-10.4239
ビール	-10.4241
勤め	-10.4245
を見た	-10.4248
ほかの	-10.425
加	-10.4257
▁店	-10.4262
▁警察呼ぶから電話して	-10.4264
物に	-10.4267
発展	-10.4267
一体	-10.4271
▁荷	-10.4271
ホーム画面へ	-10.4272
▁国民	-10.4274
の力	-10.4275
▁戦	-10.4276
人気	-10.4278
内閣	-10.4282
はすべて	-10.4284
▁末	-10.4288
とげ	-10.4288
▁you	-10.4292
心から	-10.4293
入った	-10.4295
情勢	-10.4298
殺人	-10.4305
擦	-10.4308
考えて	-10.4312
スマホへ置	-10.4313
人間の	-10.4314
不満	-10.4315
ジョーク	-10.4315
▁普通	-10.4322
覆い	-10.4329
加工	-10.433
季節	-10.4331
を解く	-10.4332
▁宇宙	-10.4336
そのような	-10.4347
信頼	-10.4347
足を	-10.4348
すそ	-10.4353
▁動物	-10.4353
進行	-10.4356
成功する	-10.4362
分野	-10.4368
拝	-10.4368
茶色	-10.437
が多く	-10.4374
津	-10.4375
張る	-10.4376
安い	-10.4377
の際	-10.4379
分類	-10.4379
判決	-10.4381
やみ	-10.4382
の姿	-10.4383
分子	-10.4385
ちょうど	-10.4386
告	-10.4388
濃	-10.4389
本当の	-10.4393
▁端	-10.4394
名誉	-10.4395
かれ	-10.4396
▁煙	-10.4398
しばらく	-10.44
にならない	-10.44
頼み	-10.4404
琴	-10.4405
おいて	-10.4406
▁救急車呼んで呼びに電話	-10.4408
専	-10.4409
佑	-10.441
一家	-10.4411
しきりに	-10.4411
ベ	-10.4413
演劇	-10.4413
知らない	-10.4414
停止	-10.4421
たて	-10.4422
の高い	-10.4423
▁警察呼ぶから電話	-10.4424
▁現	-10.4427
藩	-10.4427
堅く	-10.4434
地球	-10.4441
事項	-10.4444
部屋に	-10.4445
それで	-10.4446
暑	-10.4448
請求	-10.4448
鉛	-10.4448
▁それで	-10.4449
舛	-10.4449
を破る	-10.4449
蝋	-10.4449
盛んな	-10.445
ページを貼り付け	-10.445
ホーム	-10.445
役に立たない	-10.445
どんどん	-10.4451
スマホ画面置	-10.4453
はし	-10.4453
ざっと	-10.4454
▁合	-10.4456
言い訳	-10.4461
ほんの	-10.4462
簡単な	-10.4462
むだ	-10.4463
半ば	-10.4465
振	-10.4466
発言	-10.4467
駆け	-10.4469
自信	-10.447
なん	-10.4474
帰る	-10.4478
難しい	-10.4478
水素	-10.448
最	-10.4482
賃金	-10.4484
鉢	-10.4485
催	-10.4487
げた	-10.4489
時間の	-10.4496
▁人生の	-10.4499
議員	-10.45
の種	-10.4501
仕立て	-10.4501
▁石炭	-10.4503
らか	-10.4509
最高	-10.4509
跳び	-10.4511
たつ	-10.4511
▁すぐ	-10.4515
▁急に	-10.452
ひら	-10.4522
でいる	-10.4525
眠り	-10.4527
暦	-10.453
ホーム画面へ置	-10.453
なわ	-10.4535
事を言う	-10.4537
したりする	-10.454
ますます	-10.4543
▁壁	-10.4544
を避ける	-10.4545
の経路は	-10.4547
りする	-10.4554
▁諸	-10.4557
たく	-10.4558
▁霊	-10.4561
大名	-10.4562
60	-10.4563
を食う	-10.4564
開いた	-10.4564
歩き	-10.4565
せずに	-10.4568
キー	-10.4568
倒す	-10.4569
▁天気予報	-10.4569
植	-10.458
用具	-10.458
失敗した	-10.4581
ありません	-10.4583
▁陸	-10.4584
いえ	-10.4585
じゃ	-10.4587
被害	-10.4587
捨てる	-10.459
やや	-10.459
ここ	-10.4592
状況	-10.4598
完成	-10.4598
へい	-10.4599
かけて	-10.4599
▁やめる	-10.4601
▁流行	-10.4602
▁甘	-10.4603
▁警察呼びに電話	-10.4604
話が	-10.4607
得点	-10.4607
首相	-10.4607
を求めて	-10.461
示す	-10.4612
普通は	-10.4612
経路は	-10.4617
つぼ	-10.4618
の出	-10.4619
賊	-10.4624
何でも	-10.4628
▁a	-10.4632
▁虫	-10.4635
までの道順	-10.4636
借	-10.4638
更	-10.4639
柳	-10.4639
がついている	-10.4641
ですよ	-10.4642
に入って	-10.4643
言えば	-10.4645
官庁	-10.4646
相撲	-10.4647
弾丸	-10.4648
の大きさ	-10.4649
▁寒	-10.4649
ナイフ	-10.4652
伴	-10.4653
平均	-10.4656
垣	-10.4656
事物	-10.4658
新しく	-10.4658
いやな	-10.4659
原料	-10.4659
くこと	-10.4659
羅	-10.4662
最後の	-10.4663
根拠	-10.4664
桃	-10.4667
緩	-10.4667
スマホ画面貼り付け	-10.4667
ウェッブページを貼り付け	-10.4668
糞	-10.4668
掃除	-10.4668
200	-10.4669
情況	-10.4669
協力	-10.4669
友情	-10.4671
やぶ	-10.4671
▁あまり	-10.4672
武器	-10.4673
漁業	-10.4675
ところだ	-10.4675
学習	-10.4676
葬	-10.4676
常識	-10.4678
▁回	-10.4681
役に立つ	-10.4681
渡る	-10.4684
あらし	-10.4688
c	-10.4698
名を	-10.4698
浅い	-10.47
方に	-10.4706
統一	-10.4708
は今	-10.4709
▁警察呼んで	-10.4717
流行	-10.4717
▁突然	-10.472
▁経済	-10.4721
信じ	-10.4722
少ない	-10.4723
うす	-10.4724
やっと	-10.4725
▁野球で	-10.4733
しわ	-10.4734
忌	-10.4738
▁旅行	-10.4741
▁父	-10.4742
▁今日の天気	-10.4744
交換	-10.475
人民	-10.4752
低く	-10.4752
ことはできない	-10.476
▁列車は	-10.4766
移	-10.4766
▁涙	-10.4768
どこか	-10.4771
の所	-10.4773
▁英語	-10.4776
必要な	-10.4777
えた	-10.4778
食う	-10.4781
▁いかにも	-10.4784
織	-10.4788
女の	-10.4789
でメッセ	-10.4792
行われる	-10.4807
がって	-10.4811
ことができなかった	-10.4816
を掛ける	-10.4816
りすること	-10.482
▁英国	-10.4823
泊	-10.4824
ワイン	-10.4825
を知らない	-10.4826
鉱	-10.4828
をする人	-10.4829
通じ	-10.483
だい	-10.4835
ゆっくり	-10.4836
▁乱	-10.4839
天皇	-10.484
定めた	-10.4842
つの	-10.4844
▁泣き	-10.4844
内の	-10.4848
聴衆	-10.485
数字	-10.4854
猟	-10.4861
に出	-10.4862
浮	-10.4865
怠	-10.4867
らしく	-10.487
向け	-10.487
得る	-10.4871
双	-10.4871
胆	-10.4873
ねじ	-10.4873
▁板	-10.4875
気の	-10.4876
スマホへ	-10.4879
おもちゃ	-10.4885
だれも	-10.4886
航海	-10.4887
▁破	-10.4888
禁	-10.4889
ホーム画面に貼り付け	-10.4889
ホーム画面貼り付け	-10.489
▁to	-10.489
禄	-10.489
塵	-10.489
	-10.489
玄関	-10.489
▁救急車呼ぶ	-10.4891
推測	-10.4891
待遇	-10.4891
▁糸	-10.4892
一致	-10.4893
欲望	-10.4893
機能	-10.4893
解説	-10.4894
集まり	-10.4895
両親	-10.4895
領土	-10.4897
電波	-10.4898
てん	-10.4901
合図	-10.4901
京	-10.4906
ども	-10.4907
裸	-10.4907
走った	-10.4908
に陥る	-10.4908
神社	-10.491
目的で	-10.4911
の男	-10.4914
あげ	-10.4916
▁船が	-10.4919
の中心	-10.492
分量	-10.4921
▁バ	-10.4922
ぼく	-10.4924
世の	-10.4926
が起こった	-10.4938
有名	-10.4946
こん	-10.4946
ここに	-10.4947
▁このメモ写真で保存	-10.4947
尊敬	-10.4947
家屋	-10.4951
できなかった	-10.4951
まで経路	-10.4952
わず	-10.4953
▁折り	-10.4953
かわからない	-10.4961
まつ	-10.4963
完全に	-10.4965
▁竹	-10.4967
無用	-10.4968
▁南	-10.497
西洋	-10.4972
コース	-10.4974
聖	-10.4985
▁振り	-10.499
にいる	-10.4993
自然に	-10.5
態度で	-10.5001
▁屋根	-10.5006
はら	-10.5008
▁教育	-10.501
無い	-10.5012
▁警	-10.5017
沈	-10.5022
事の	-10.5024
全員	-10.5029
違反	-10.5033
するように	-10.5036
くび	-10.504
ぬか	-10.5047
やら	-10.5051
▁A	-10.5051
どの	-10.5052
を入れ	-10.5055
発表	-10.5056
きれ	-10.5057
したら	-10.5061
同意	-10.5063
面積	-10.5065
言う語	-10.5065
恨み	-10.5065
域	-10.5066
▁円	-10.5079
▁メ	-10.5079
祖父	-10.5084
関連	-10.5085
きめ	-10.5086
眠る	-10.5088
掛かり	-10.5094
▁マ	-10.5101
負担	-10.5101
さや	-10.5102
に暮らす	-10.5102
築	-10.5102
足で	-10.5103
▁急いで	-10.5105
男の子	-10.5107
糖	-10.5108
あの人	-10.511
審	-10.5111
随	-10.5112
検	-10.5113
待つ	-10.5115
髄	-10.5116
嫁	-10.5116
かま	-10.5117
餌	-10.5117
コード貼り付け	-10.5118
三味線	-10.5118
棟	-10.5118
看護婦	-10.5118
闘争	-10.5118
」(↓	-10.5119
衣装	-10.5119
式の	-10.512
反射	-10.5121
枯れ	-10.5121
概念	-10.5121
療法	-10.5123
ほこり	-10.5124
▁科学	-10.5127
様式	-10.5127
こい	-10.5128
▁結	-10.5128
畳	-10.5129
外交	-10.513
▁すぐに電卓アプリ	-10.513
まれる	-10.5131
課程	-10.5132
re	-10.5135
婿	-10.5136
散歩	-10.5136
恐ろしい	-10.5137
鶏	-10.5141
弁護士	-10.5142
朱	-10.5142
の変化	-10.5142
竜	-10.5143
牛乳	-10.5146
にあった	-10.5146
違った	-10.5148
だめ	-10.5149
世の中	-10.5149
初夏	-10.5153
▁窓	-10.5153
決め	-10.5155
顔に	-10.5155
記者	-10.5156
政党	-10.5158
石炭	-10.5158
こんで	-10.5158
インク	-10.5159
▁矢	-10.516
▁黄	-10.5163
目つき	-10.5163
近くに	-10.517
いじ	-10.5172
論理	-10.5173
水面	-10.5174
せよ	-10.5177
申し	-10.5178
国際	-10.5183
つまり	-10.5184
聞こえる	-10.5187
浸	-10.5187
評価	-10.5187
立てて	-10.5193
てくれた	-10.5196
みて	-10.5196
h	-10.5204
▁残	-10.5205
▁雄	-10.5206
僕は	-10.5207
タイ	-10.5207
はしない	-10.5208
もつ	-10.5209
きれいに	-10.5215
▁太陽	-10.5216
を付ける	-10.522
太い	-10.5226
気温	-10.5235
何を	-10.5239
▁このメモ記録	-10.5243
メッセ送	-10.5243
の念	-10.5244
締める	-10.5249
どうも	-10.5259
コードのページを置	-10.526
しゃべる	-10.5262
異なる	-10.5264
われた	-10.5264
燃え	-10.5268
定め	-10.5269
霧	-10.5278
▁七	-10.5279
預	-10.5279
項	-10.5279
▁尻	-10.5279
▁細	-10.5282
にあたる	-10.529
▁帰	-10.5297
▁猫	-10.5297
どちら	-10.5298
▁彼は私	-10.5299
事実を	-10.5301
去る	-10.5301
特別	-10.5308
明け	-10.531
に自生する	-10.5314
処	-10.5315
改	-10.5316
束	-10.5318
諸国	-10.5319
さず	-10.5321
意見を	-10.5322
為	-10.5324
▁今は	-10.5327
比較	-10.5328
述	-10.533
欠席	-10.5331
則	-10.5331
往	-10.5333
ったもの	-10.5334
併	-10.5335
残っている	-10.5336
両者	-10.5337
仕方	-10.5337
インターネットのページ置	-10.5339
に住んでいる	-10.534
あるもの	-10.5341
承	-10.5341
隣	-10.5342
▁飛行	-10.5342
えない	-10.5344
姿勢	-10.5346
牢	-10.5347
飼い	-10.5348
仕掛け	-10.5349
アフリカ	-10.5349
笋	-10.535
唇	-10.535
爾	-10.535
諒	-10.535
くちびる	-10.535
官吏	-10.5352
対照	-10.5352
観念	-10.5352
改革	-10.5352
貯金	-10.5353
淡	-10.5355
暇	-10.5356
別に	-10.5356
驚く	-10.5356
の代わりに	-10.5357
〇	-10.5358
見解	-10.5362
と思って	-10.5365
ほうがよい	-10.5365
形勢	-10.5366
構成	-10.537
中毒	-10.5375
きっと	-10.5375
独	-10.5375
稲	-10.5378
濁	-10.538
元気かい私の予約	-10.5386
基準	-10.5387
証人	-10.5388
明るい	-10.5389
明日	-10.539
着る	-10.5391
批判	-10.5392
ところに	-10.5395
大統領	-10.5397
江戸	-10.5398
物理	-10.5401
食糧	-10.5402
設けた	-10.5403
ノー	-10.5404
出血	-10.5404
▁波	-10.5406
読者	-10.5408
スマホ画面	-10.5409
ほお	-10.541
▁職業	-10.5414
▁浮き	-10.5417
漏れ	-10.5418
如	-10.5419
を通して	-10.5419
警官	-10.5421
▁毒	-10.5421
ことはない	-10.5422
死んで	-10.5427
歓迎	-10.543
まれ	-10.5433
石油	-10.5433
▁救急車を呼ぶ	-10.5437
▁相	-10.5439
の間で	-10.5442
▁だれも	-10.5443
種子	-10.5445
▁心配	-10.5446
無し	-10.5453
を調べる	-10.5459
の意味	-10.5464
▁船の	-10.5465
装飾	-10.5471
申し出	-10.5472
にお	-10.5476
通す	-10.5482
そで	-10.5485
私には	-10.5485
▁物を	-10.5487
ーク	-10.5489
▁君に	-10.5489
びる	-10.5492
にわたって	-10.5493
を防ぐ	-10.5497
てしまう	-10.5503
丈夫	-10.5504
細長く	-10.5504
▁減	-10.5506
▁命	-10.5507
花が	-10.5514
吸い	-10.5515
▁黙	-10.5523
▁ただ	-10.5524
圧力	-10.5529
成長	-10.553
屋敷	-10.5531
所で	-10.5534
p	-10.5534
備	-10.5534
会社の	-10.5536
鳴	-10.5538
▁せい	-10.5538
を含む	-10.5541
▁彼女に	-10.5541
気性	-10.5542
日間	-10.5543
さく	-10.5544
すき	-10.5546
手術	-10.5547
▁パン	-10.5547
その他	-10.5551
▁間	-10.5552
▁犬は	-10.5554
▁床	-10.5554
採	-10.5555
用心	-10.5555
続ける	-10.5558
▁is	-10.5561
政権	-10.5561
をつくる	-10.5562
赤く	-10.5563
充分	-10.5563
そっと	-10.5564
の半分	-10.5565
までの経路	-10.5566
▁二つの	-10.5567
人と	-10.5568
実現	-10.5569
に当たって	-10.557
隆	-10.5571
しました	-10.5572
▁落	-10.5572
が非常に	-10.5573
陸	-10.5575
卒	-10.5577
を結ぶ	-10.5579
鈴	-10.558
迷惑	-10.5582
麗	-10.5586
世紀	-10.5587
よかった	-10.5587
フィルム	-10.5588
スカート	-10.5588
男性	-10.5588
▁漢字の偏	-10.5589
災害	-10.5589
俳句	-10.559
観察	-10.5593
と彼女は	-10.5594
▁息	-10.5595
預金	-10.56
かばん	-10.5601
家を	-10.5602
果実	-10.5602
タン	-10.5603
仕上げ	-10.5603
代表	-10.5605
は全く	-10.5607
大陸	-10.5607
▁尊	-10.5607
事だ	-10.5607
行事	-10.5608
執	-10.561
短く	-10.561
感心	-10.5611
を施す	-10.5612
に基づいて	-10.5615
などに用いる	-10.5616
厚く	-10.5616
▁短	-10.5617
あなたの	-10.5618
卒業	-10.5618
一言	-10.5619
▁ロ	-10.5623
直し	-10.5624
乱れ	-10.5629
伸び	-10.5632
郵便	-10.5633
に属する	-10.5635
消え	-10.564
▁安	-10.564
ロープ	-10.5644
扱う	-10.5644
▁どうぞ	-10.5647
;...	-10.5647
敵を	-10.5648
閉	-10.5649
講義	-10.5649
イギリス	-10.5651
業務	-10.5651
小切手	-10.5654
収穫	-10.5654
衣類	-10.5655
の働き	-10.5656
現代	-10.5657
かえること	-10.5657
栄養	-10.5659
りんご	-10.5661
ひま	-10.5662
らないこと	-10.5666
堅い	-10.5666
時は	-10.5668
靴討い	-10.5671
夕方	-10.5672
悔	-10.5672
こっそり	-10.5673
大衆	-10.5674
供給	-10.5674
警	-10.5675
なべ	-10.5679
誓い	-10.5679
配置	-10.5687
▁まあ	-10.5688
などにする	-10.5694
紙を	-10.5699
られていた	-10.5703
無理	-10.5704
▁どうも	-10.5709
緒	-10.5709
目で	-10.5716
るさま	-10.5716
こちら	-10.5718
さい	-10.5718
届け	-10.572
通る	-10.572
はどうなる	-10.5721
託	-10.5727
違います	-10.5729
博士	-10.5738
幾	-10.5738
切れない	-10.5742
ではなかった	-10.5743
直線	-10.5744
てくる	-10.5747
作法	-10.5747
今日の天気	-10.5748
漬け	-10.5753
不注意	-10.5753
招待	-10.5757
合っている	-10.5759
▁そんなに	-10.576
貨	-10.5762
不思議	-10.5766
を落とす	-10.5767
すぐれていること	-10.5779
▁銅	-10.5786
▁人と	-10.5791
コン	-10.5793
主な	-10.5794
彼ら	-10.5794
むら	-10.5801
かえ	-10.5801
▁商売	-10.5805
帝	-10.5805
授	-10.5807
化合物	-10.5807
あま	-10.5808
度の	-10.5809
正しく	-10.581
父親	-10.581
一緒に	-10.5811
司	-10.5812
宅	-10.5818
季	-10.582
あけ	-10.582
事務所	-10.5821
おもしろい	-10.5821
湾	-10.5825
尿	-10.5826
貧	-10.5826
やま	-10.5827
大工	-10.5831
ヌ	-10.5832
罎	-10.5832
芋	-10.5832
功績	-10.5832
往復	-10.5832
境遇	-10.5832
の俗称	-10.5833
を通じて	-10.5833
K	-10.5833
ホール	-10.5833
観測	-10.5833
同盟	-10.5833
射撃	-10.5834
々と	-10.5834
農民	-10.5835
太刀	-10.5835
わずか	-10.5836
テープ	-10.5838
元気かい予約変更	-10.5839
内で	-10.5841
授業	-10.5841
の長さ	-10.5841
が大きい	-10.5842
ぼろ	-10.5842
編み	-10.5842
▁万事	-10.5843
元気かい予約状況を管理	-10.5845
ート	-10.5848
になるだろう	-10.5854
へび	-10.5858
意図	-10.586
自分が	-10.586
共に	-10.5862
それと	-10.5867
▁奥	-10.5867
▁けん	-10.5868
は彼に	-10.5874
見えない	-10.5878
となっている	-10.5878
はえ	-10.5879
の端	-10.5879
専門	-10.5881
索	-10.5881
▁スポーツ	-10.5882
の事	-10.5883
つぶ	-10.5883
フランス語	-10.5895
葉が	-10.5896
▁輪	-10.5896
寄せる	-10.5897
切手	-10.59
▁脳	-10.5901
くずれ	-10.5905
お礼	-10.5906
を覚える	-10.5907
区別	-10.5907
▁その本は	-10.5907
▁風が	-10.5908
詞	-10.5911
▁警察を呼んで	-10.5911
奴	-10.5915
理想	-10.5917
州の人	-10.5917
はどう	-10.5918
降る	-10.5918
股	-10.5919
外側	-10.5919
太鼓	-10.5919
乾燥	-10.5922
いこと	-10.5923
がつかない	-10.5924
酔	-10.5925
ほうが	-10.5928
▁事実	-10.5933
宝石	-10.5938
▁食い	-10.594
▁宗教	-10.5941
唐	-10.5943
▁買い	-10.5948
△□	-10.5949
によく	-10.5951
▁元気かい予約	-10.5952
仕事が	-10.596
迎え	-10.5961
▁議論	-10.5961
使って	-10.5963
やろう	-10.5964
としている	-10.5964
順序	-10.5973
しようとする	-10.5973
替える	-10.5973
まだら	-10.5974
▁けい	-10.5975
壁に	-10.5975
格好	-10.5979
貴	-10.598
▁検	-10.5983
産物	-10.5984
虎	-10.5987
母親	-10.5991
▁表	-10.5994
▁軽い	-10.5997
を始める	-10.5999
粋	-10.5999
わる	-10.6001
をかけた	-10.6006
同時に	-10.6007
でメッセ送信	-10.6007
▁近くの	-10.601
手形	-10.602
につれて	-10.6023
足りない	-10.6025
参加	-10.6027
山の	-10.6028
▁彼と	-10.6028
その問題	-10.603
デ	-10.6037
▁彼は彼女の	-10.6038
背中	-10.6039
没	-10.6039
許可	-10.604
を切って	-10.6043
事に	-10.6044
▁長い	-10.6045
者を	-10.6046
途中で	-10.6049
徴	-10.6052
▁火事	-10.6052
の後	-10.6052
園	-10.6054
わか	-10.6054
▁十	-10.6055
後の	-10.6055
名簿	-10.6061
しょう	-10.6062
黒く	-10.6064
障	-10.6064
関心	-10.6064
▁今まで	-10.6064
彼らの	-10.6065
犠牲	-10.6065
獄	-10.6066
膳	-10.6067
参り	-10.6068
雇	-10.6068
あります	-10.6068
▁音楽	-10.6072
▁彼女には	-10.6072
腓	-10.6073
旋	-10.6074
そら	-10.6074
権限	-10.6076
欧	-10.6077
▁米国の	-10.6078
沼	-10.6081
両手	-10.6082
すばやく	-10.6082
圏	-10.6082
	-10.6082
ing	-10.6082
▁天皇	-10.6084
あなたに	-10.6085
討ち	-10.6086
障子	-10.6088
いつまでも	-10.6088
まく	-10.6089
出入り	-10.6091
を通す	-10.6092
形態	-10.6095
残った	-10.6102
あぶら	-10.6107
投手	-10.6111
▁かい	-10.6111
しょ	-10.6111
なめ	-10.6117
提	-10.6123
ばらばら	-10.6123
厳	-10.6126
なまり	-10.6131
お医者	-10.6135
過ぎて	-10.6135
ねん	-10.6136
u	-10.6137
特徴	-10.6141
もらう	-10.6146
政治家	-10.6147
その他の	-10.6147
何とか	-10.6148
こま	-10.6154
造り	-10.6158
▁銀行	-10.6158
痛い	-10.6158
これは	-10.6158
▁舞台	-10.6162
敬	-10.6162
つけること	-10.6163
▁きのう	-10.6163
自ら	-10.6164
延	-10.6166
▁純	-10.6167
▁復	-10.6167
と読む	-10.6167
▁これが	-10.6172
止める	-10.6173
暴	-10.6174
らせ	-10.6176
金属製の	-10.6178
はほとんど	-10.6183
してはいけない	-10.6184
▁少年は	-10.6184
までは	-10.6188
を加えて	-10.6189
▁テレビ	-10.619
やつだ	-10.6191
負ける	-10.6193
▁船は	-10.6193
易	-10.6195
軍人	-10.6195
▁いろいろな	-10.6195
死後	-10.62
わす	-10.6202
その時	-10.6203
昆虫	-10.6204
▁居	-10.6204
▁一般	-10.6206
承諾	-10.6206
分けて	-10.6208
美術	-10.6209
復	-10.621
何ができる	-10.6211
ではなく	-10.6215
言え	-10.6216
落とし	-10.6218
消	-10.622
を感じる	-10.6221
所得	-10.6224
あわせ	-10.6236
まゆ	-10.6241
の様子	-10.6244
▁こういう	-10.6245
こつ	-10.6245
以後	-10.6246
家が	-10.6247
わり	-10.6248
クロ	-10.625
貫	-10.625
わく	-10.6252
沈黙	-10.6258
読書	-10.6259
借金	-10.6264
でメッセを送信	-10.6265
会話	-10.6266
ばし	-10.6266
日本人	-10.6272
▁運動	-10.6279
▁京都	-10.628
ほしい	-10.6281
ていて	-10.6281
扇	-10.6284
の地	-10.6284
元気かいの予約を追加	-10.6285
ひとりで	-10.6293
▁玉	-10.6294
バター	-10.6297
が一番	-10.6297
言葉を	-10.6302
果物	-10.6302
主君	-10.6303
さお	-10.6303
惨	-10.6306
氏の	-10.6307
▁せん	-10.6309
飲食	-10.631
がわからない	-10.6314
しているさま	-10.6315
向かい	-10.6321
昔の	-10.6326
を全部	-10.6326
▁シ	-10.6328
たりする	-10.6328
停	-10.633
子供を	-10.6331
塀	-10.6334
たより	-10.6334
O	-10.6337
場合に	-10.6338
盆	-10.6338
蜜	-10.6338
予防	-10.6338
符号	-10.6338
集中	-10.6338
熊	-10.6338
遒	-10.6338
雰囲気	-10.6338
たっぷり	-10.6339
僂	-10.6339
滝	-10.6339
サービス	-10.6339
飲	-10.6339
爆弾	-10.6339
〕↓	-10.6339
わけにはいかない	-10.634
▁散	-10.634
思わず	-10.634
機構	-10.634
インチ	-10.634
祖母	-10.634
たか	-10.634
原理	-10.6341
▁犬	-10.6341
元気かいの予約変更	-10.6344
種類が多い	-10.6344
元気かい予約更新	-10.6344
生活の	-10.6346
してくれ	-10.6346
録音	-10.6346
職員	-10.6346
程度の	-10.6347
を図る	-10.6347
兵器	-10.635
きれいな	-10.635
しっかり	-10.635
▁打ち	-10.6351
述べた	-10.6352
だて	-10.6356
車輪	-10.6357
によれば	-10.6359
の肉	-10.636
作ること	-10.6362
の中から	-10.6365
連合	-10.6366
の底	-10.6369
の方が	-10.6371
じり	-10.6371
▁ズボン	-10.6372
を出した	-10.6377
自殺	-10.638
力がある	-10.638
なさま	-10.6381
用事	-10.6381
上から	-10.6381
利子	-10.6386
ないさま	-10.6395
をし	-10.6401
木材	-10.6402
無事	-10.6403
フィート	-10.6406
▁副	-10.6408
ピン	-10.6409
てる	-10.641
などのため	-10.6412
高木	-10.6415
少しずつ	-10.6419
困る	-10.6425
表面	-10.6429
されていた	-10.643
アップ	-10.6432
どおり	-10.6432
部下	-10.6434
だという	-10.6446
するための	-10.6451
止まる	-10.6452
武	-10.646
起こり	-10.646
コードのページ置	-10.6461
利益を	-10.6465
人人	-10.6467
▁ばら	-10.6473
階段	-10.6481
コードを置	-10.6481
を聞いて	-10.6481
体は	-10.6483
スープ	-10.6485
侍	-10.6486
抱	-10.6486
厳しい	-10.6488
きびしい	-10.6489
ぜん	-10.6489
しかた	-10.649
続いて	-10.6492
すわる	-10.6492
野原	-10.6496
後で	-10.6499
捕	-10.65
以前	-10.65
あや	-10.6503
話し	-10.6506
副	-10.6508
スター	-10.6509
がありますか	-10.6511
まずい	-10.6514
著	-10.6514
お医者さん	-10.6514
おど	-10.6515
納める	-10.6515
▁激	-10.6521
上げた	-10.6523
▁航空	-10.6523
に見える	-10.6524
真っ	-10.6524
を得た	-10.6527
▁とう	-10.6527
並べ	-10.6531
昨日	-10.6536
今の	-10.6538
どうして	-10.6539
渡す	-10.654
▁善	-10.6541
を出すこと	-10.6545
一年生植物	-10.6546
l	-10.6549
が足りない	-10.6549
g	-10.655
が長く	-10.6556
▁あらゆる	-10.6556
らぬ	-10.6556
病人	-10.6556
日が	-10.6557
▁友人	-10.6558
全身	-10.6558
漢字	-10.6559
たくさんの	-10.6567
十二	-10.6569
最大の	-10.6572
のあまり	-10.6572
憂	-10.6573
に入れて	-10.6574
▁毛	-10.6576
慢	-10.6576
打って	-10.6577
をかく	-10.6579
ネクタイ	-10.6581
書くこと	-10.6582
軌道	-10.6586
現場	-10.6591
▁神社	-10.6593
住所	-10.6594
▁利	-10.6594
体裁	-10.6594
承認	-10.6594
までルート	-10.6595
鎖	-10.6595
碑	-10.6595
セット	-10.6599
スマホに貼り付け	-10.66
奮	-10.66
縞	-10.66
鳴らす	-10.6601
蜂	-10.6601
栓	-10.6602
鼎	-10.6602
認識	-10.6602
モデル	-10.6602
絵の具	-10.6602
せりふ	-10.6602
故障	-10.6602
元気かいの予約状況を削除	-10.6603
操作	-10.6604
通貨	-10.6604
無色	-10.6604
討論	-10.6605
結論	-10.6608
▁百	-10.6608
めがね	-10.6608
伝説	-10.6609
平たい	-10.661
むしろ	-10.6612
ード	-10.6614
で彼の	-10.6614
ふき	-10.6615
大小	-10.6616
おかしい	-10.662
色が	-10.662
▁微	-10.6621
▁人から	-10.6624
まあ	-10.663
▁危険	-10.6631
肉屋	-10.6635
気味	-10.6635
コード置	-10.6642
▁舌	-10.6642
明かり	-10.665
週	-10.6653
きん	-10.6664
刺	-10.6666
開発	-10.6667
用語	-10.6671
を知る	-10.6671
▁縦	-10.6671
▁自分で	-10.6671
活	-10.6678
日光	-10.6679
用紙	-10.6679
▁少しも	-10.6687
世間の	-10.669
いていた	-10.6695
つもり	-10.6701
▁夫婦	-10.6701
▁電	-10.6702
音声	-10.6703
風俗	-10.6704
はずれた	-10.6706
ショー	-10.6707
到着	-10.6707
一年	-10.6708
彼には	-10.6709
▁元気かいの記録を管理	-10.6709
速く	-10.6716
へ行って	-10.6721
っきり	-10.6725
がたくさん	-10.6728
景色	-10.6729
を争う	-10.6731
電線	-10.6733
元気かい予約状況を更新	-10.6734
漏	-10.6734
ならず	-10.6741
彼女を	-10.6744
蚕	-10.6749
つい	-10.6752
はず	-10.6753
ねえ	-10.6753
染み	-10.6754
供	-10.6756
▁平和	-10.6756
灰色	-10.6758
外の	-10.676
▁戸	-10.6761
リン	-10.6764
奉	-10.6765
ったら	-10.6765
戦い	-10.6767
わい	-10.6768
部屋を	-10.677
かれる	-10.677
行政	-10.6772
どう使えばいい	-10.6773
浮き	-10.6774
眉	-10.6775
を食べる	-10.6775
わざと	-10.6778
大分	-10.6778
幸運	-10.6778
でもない	-10.6779
かしら	-10.678
▁秘密	-10.678
天下	-10.678
恐怖	-10.6781
即	-10.6782
非常	-10.6783
よごれ	-10.6783
浪	-10.6787
残る	-10.6787
農業	-10.6788
退屈	-10.679
最近	-10.6796
▁外国	-10.6797
▁加	-10.6799
▁彼はまだ	-10.6799
▁虚	-10.6801
▁ノー	-10.6802
張った	-10.6803
統	-10.6807
途中	-10.6807
最初の	-10.6816
貨物	-10.6817
とめる	-10.6818
げん	-10.682
▁補	-10.6824
かじ	-10.6833
せない	-10.6834
水中に	-10.6837
安定	-10.6839
三角形	-10.684
立って	-10.684
▁元気かいの履歴を管理	-10.6842
騒ぎ	-10.6845
こんだ	-10.6845
ング	-10.6846
手本	-10.6846
詰める	-10.6846
委員	-10.685
まん	-10.6851
点で	-10.6856
比べ	-10.6856
▁画	-10.686
を抱く	-10.6861
以外に	-10.6862
勝手に	-10.6864
弊	-10.6865
の内容	-10.6868
酷	-10.6869
ペ	-10.687
▁満	-10.6871
摂	-10.6871
腺	-10.6871
紺	-10.6872
ページ貼り付け	-10.6872
峰	-10.6872
干渉	-10.6872
錦	-10.6872
侵入	-10.6872
支出	-10.6872
槍	-10.6872
雀	-10.6872
といって	-10.6872
に違いない	-10.6873
頼む	-10.6873
旧称	-10.6874
改善	-10.6874
絶えず	-10.6874
紙幣	-10.6874
朝廷	-10.6875
保存	-10.6876
残らず	-10.6876
曲芸	-10.6877
近くの	-10.6879
企て	-10.6879
制御	-10.688
するため	-10.688
を好む	-10.6881
まで行き方	-10.6882
したこと	-10.6882
▁霧	-10.6883
守り	-10.6884
ふろ	-10.6885
桜	-10.6887
疑	-10.6889
鉄砲	-10.6889
▁その事	-10.689
ぐら	-10.689
住み	-10.6891
俗に	-10.6891
食堂	-10.6892
▁乾	-10.6893
貸	-10.6894
単語	-10.6896
しめる	-10.6898
一切の	-10.6899
を果たす	-10.6899
ちり	-10.6901
だす	-10.6902
々に	-10.6904
歩いた	-10.6905
ってきた	-10.6906
物や	-10.6907
メッセージをすぐに	-10.6908
▁たくさんの	-10.6909
▁絶	-10.6912
ましい	-10.6918
子ども	-10.6921
の表面	-10.6924
んじ	-10.6925
にはいること	-10.6927
社員	-10.6928
ふり	-10.6929
しゃれ	-10.6931
▁心臓	-10.6932
なければならなかった	-10.6934
試み	-10.6934
元気かいの予約状況を更新	-10.6934
でメッセージ送信	-10.6935
見物	-10.6937
ふた	-10.6937
期日	-10.6939
にしている	-10.6941
坊	-10.6946
を決める	-10.6947
▁商業	-10.6949
▁彼女は彼の	-10.6951
その仕事	-10.6954
の水	-10.6955
の裏	-10.6955
越す	-10.6959
速力	-10.6965
のあたり	-10.6971
足が	-10.6972
たまえ	-10.6984
▁個人	-10.6985
主義者	-10.6987
台所	-10.6993
隠	-10.6996
▁多くの人	-10.6996
消化	-10.6999
茂	-10.7004
ケアマネージャ	-10.7006
心地	-10.7008
▁至	-10.7011
絶対に	-10.7017
待	-10.7017
▁ここ	-10.7018
もり	-10.7018
合わない	-10.7024
致	-10.7031
鉱物	-10.7033
僕の	-10.7037
ポケット	-10.7039
大切な	-10.704
合わせた	-10.704
を招く	-10.7041
▁布	-10.7041
低	-10.7043
がきく	-10.7046
ならない	-10.7056
表面に	-10.7057
▁普通の	-10.706
ばた	-10.7061
診	-10.7068
食べた	-10.707
使うこと	-10.7071
義理	-10.7074
影響	-10.7075
大阪	-10.7075
▁優	-10.7076
はかりごと	-10.7077
▁そのような	-10.7077
▁さい	-10.7078
このあたりの	-10.7086
仏教で	-10.7087
はいない	-10.7087
読むこと	-10.7088
▁テニス	-10.7089
らずに	-10.7089
考えが	-10.7091
発明	-10.7092
体操	-10.7093
分解	-10.7093
海岸	-10.7094
▁地球	-10.7097
前もって	-10.7097
利害	-10.7099
げに	-10.71
過ごす	-10.71
言葉で	-10.7101
▁ゴルフ	-10.7102
常に	-10.7102
レコード	-10.7102
行うこと	-10.7105
特有の	-10.7108
▁進	-10.7109
▁民	-10.7109
もう少し	-10.7112
▁禁	-10.7113
優勝	-10.7118
づく	-10.7118
▁借金	-10.7125
ものは	-10.7126
誤解	-10.7129
を聞く	-10.7129
▁機	-10.713
お薬屋	-10.7134
の人たち	-10.7137
花は	-10.7138
還	-10.7138
担	-10.714
譜	-10.7141
を待つ	-10.7142
配当	-10.7146
潔	-10.7146
よろしい	-10.7146
投資	-10.7147
鹿	-10.7147
遺伝	-10.7149
つながり	-10.7149
憤	-10.7149
原産	-10.7149
ランプ	-10.7149
倉	-10.7149
丹	-10.7149
よろしく	-10.715
オーバー	-10.715
枠	-10.715
逐	-10.715
	-10.715
ごちそう	-10.715
やさしい	-10.715
交替	-10.715
理屈	-10.715
設計	-10.7151
疾	-10.7151
ベルト	-10.7151
の値段	-10.7152
関節	-10.7153
証言	-10.7154
火山	-10.7154
運び	-10.7155
柔らかい	-10.7155
最後まで	-10.7156
高度	-10.7157
視線	-10.7157
めい	-10.716
食欲	-10.7161
喜んで	-10.7162
▁星	-10.7165
▁緑	-10.7169
困った	-10.7172
▁金銭	-10.7173
みずから	-10.7173
▁髪を	-10.7173
のび	-10.7174
珍	-10.7174
あせ	-10.7177
くだ	-10.7178
刃物	-10.718
▁愚	-10.7181
男の	-10.7182
元気かいの予約管理	-10.7183
お客	-10.7185
のまま	-10.7185
干	-10.7186
与えられた	-10.7186
合計	-10.7188
平面	-10.7188
芸術家	-10.719
あとに	-10.719
無知	-10.719
寄る	-10.7192
明るく	-10.7195
▁ある事	-10.7198
その計画	-10.7199
候補者	-10.72
完全な	-10.72
済	-10.7202
移り	-10.7206
殺し	-10.7206
たばこ	-10.7206
おお	-10.7208
飲食物	-10.721
今日	-10.721
たれ	-10.7212
ります	-10.7213
を持ち	-10.7214
口から	-10.7216
を描く	-10.722
してきた	-10.7222
▁商	-10.7222
味方	-10.7223
申	-10.7225
を加え	-10.7227
▁生き	-10.7228
勝つ	-10.7228
着陸	-10.7229
▁彼は私を	-10.7231
ボート	-10.7231
そこで	-10.7232
▁直接	-10.7239
つや	-10.724
私たちに	-10.7242
混乱	-10.7243
の利益	-10.7246
むき	-10.7248
▁敵の	-10.7252
▁いいえ	-10.7253
すきま	-10.7253
映	-10.7256
過ぎた	-10.7258
▁種	-10.7258
にわたる	-10.7258
固く	-10.7258
消し	-10.7263
▁座	-10.7265
の女	-10.7266
名前を	-10.7267
見かけ	-10.7272
気に	-10.7272
▁最	-10.7273
を捨てる	-10.7276
▁人口	-10.7279
が私の	-10.728
売る	-10.728
集まって	-10.7281
▁広	-10.7285
事をする	-10.7287
仏教	-10.7289
並	-10.7291
瞬間	-10.7293
踏	-10.7293
招	-10.7296
の目	-10.7297
いまから送信	-10.7298
▁防	-10.7298
今まで	-10.7299
▁要	-10.7305
草木	-10.7306
▁妻	-10.7308
さか	-10.731
宴会	-10.731
▁ピアノ	-10.7312
絵画	-10.7313
単	-10.7313
っか	-10.7314
静かな	-10.7319
弱い	-10.7323
▁岩	-10.7323
体長	-10.7323
囲	-10.7332
責	-10.7334
航空機	-10.7335
▁衣服	-10.7335
地上	-10.7339
魅力	-10.7342
暮	-10.7344
自転車	-10.7348
その家	-10.7356
▁遊	-10.7357
もう一度	-10.7358
いま	-10.7358
▁どの	-10.7362
震	-10.7362
▁リ	-10.7362
集まる	-10.7364
現れ	-10.7365
零	-10.7366
本当	-10.7366
与える	-10.7367
等級	-10.7367
くい	-10.7368
壊	-10.7373
幾つかの	-10.7374
勝手	-10.7376
井	-10.7377
くれる	-10.7378
そういうもの	-10.7379
フェ	-10.7379
を選ぶ	-10.738
時から	-10.738
に備えて	-10.7381
ックス	-10.7382
被	-10.7384
▁底	-10.7384
生きている	-10.7386
その仕事を	-10.7387
▁えん	-10.7389
だということ	-10.739
需要	-10.7391
になると	-10.7391
の長	-10.7391
心理	-10.7392
仮	-10.7393
低木	-10.7393
凍	-10.7393
考	-10.7395
暮れ	-10.7396
糸を	-10.74
いつでも	-10.7405
豚	-10.7406
理由で	-10.7409
の跡	-10.7409
掛	-10.7411
駆	-10.7416
▁身分	-10.7416
で書く	-10.7417
はずだ	-10.7418
▁現金	-10.7418
ひじ	-10.7418
に住み	-10.7418
いち	-10.7419
ますよ	-10.7419
パリ	-10.742
瓶	-10.7423
しまい	-10.7423
鳴く	-10.7423
石を	-10.7425
人柄	-10.7425
細菌	-10.7427
以前に	-10.7427
日本語	-10.7428
たくない	-10.7429
よそ	-10.7429
進んだ	-10.743
忍	-10.7432
均	-10.7433
喪	-10.7435
操縦	-10.7435
顕微鏡	-10.7435
捜査	-10.7435
沙	-10.7435
硬貨	-10.7435
並び	-10.7436
紛争	-10.7436
染料	-10.7436
塗料	-10.7436
技能	-10.7436
更に広く	-10.7437
▁試	-10.7437
廊下	-10.7437
だいぶ	-10.7438
教訓	-10.7438
腕を	-10.7438
対策	-10.7439
▁身体	-10.744
便利	-10.744
市民	-10.744
元気かいの予約追加	-10.7441
過失	-10.7441
▁流	-10.7441
うるさい	-10.7442
公衆	-10.7442
はるかに	-10.7444
見識	-10.7448
に反する	-10.745
観客	-10.745
▁知識	-10.7452
▁会社	-10.7452
で働く	-10.7455
作戦	-10.7458
さまざまな	-10.7458
本能	-10.7458
おき	-10.7459
を要求する	-10.7459
及ぶ	-10.746
どのくらい	-10.746
▁絹	-10.746
辞職	-10.7462
▁すっかり	-10.7467
ありさま	-10.7471
分布	-10.7471
事柄を	-10.7473
を感じた	-10.7473
伝染病	-10.7474
▁現在	-10.7475
罪人	-10.7475
鉱石	-10.7475
不正	-10.7477
何できる	-10.7477
わかり	-10.7481
米国	-10.7486
に必要な	-10.7487
16	-10.7488
▁空気	-10.7488
▁絶対	-10.7489
電灯	-10.7491
確かに	-10.7495
▁悪い	-10.7496
▁歴史	-10.7497
▁国内	-10.7499
▁言語	-10.7501
▁アン	-10.7502
▁名誉	-10.7502
天体	-10.7502
受けた	-10.7504
述べること	-10.7504
こめ	-10.7505
最大	-10.7505
うけ	-10.7507
▁増	-10.7507
資産	-10.7508
必要がある	-10.7511
に会う	-10.7515
しお	-10.7517
ませる	-10.7523
スマホ画面へ置	-10.7524
80	-10.7525
まくら	-10.7528
小鳥	-10.7531
原子	-10.7534
の夜	-10.7538
夕	-10.7541
身なり	-10.7544
混ぜ	-10.7545
▁配	-10.7546
▁ホテル	-10.7548
人格	-10.7548
を知っている	-10.7548
床に	-10.7549
となり	-10.7553
はどんな	-10.7559
男女	-10.7559
がなくて	-10.756
▁刀	-10.7561
沖	-10.7564
問題を	-10.7566
倒れた	-10.7566
出された	-10.7577
押	-10.7579
引け	-10.7581
最高の	-10.7585
始	-10.7587
かつ	-10.7587
うれしい	-10.7588
姿を	-10.7589
敵に	-10.7589
▁夕食	-10.7591
水分	-10.7592
▁その時	-10.7593
すい	-10.76
入れること	-10.7605
を利用して	-10.7605
動機	-10.7607
仕方がない	-10.761
左右に	-10.761
いけない	-10.7611
▁混	-10.7612
なみ	-10.7614
▁山の	-10.7617
懸	-10.7617
て来た	-10.762
主題	-10.7623
▁ゆう	-10.7624
私たち	-10.7625
の差	-10.7626
▁他人	-10.7627
材は	-10.7629
しまう	-10.7629
にあう	-10.7631
見本	-10.7633
▁車の	-10.7636
ときに	-10.7639
わしい	-10.7641
まさに	-10.7642
黄色の	-10.7643
を売る	-10.7646
栄	-10.7647
注射	-10.7648
ぶどう酒	-10.7649
がみ	-10.7649
効	-10.765
知る	-10.7651
▁法律	-10.7652
しばしば	-10.7653
顔色	-10.7654
何とも	-10.7654
雨が	-10.7655
ているさま	-10.7655
行列	-10.7657
贈	-10.7658
▁義	-10.7659
召	-10.7659
くも	-10.7661
▁こん	-10.7662
以上に	-10.7662
▁献	-10.7666
計略	-10.7666
▁核	-10.7666
▁もと	-10.7668
▁地震	-10.7668
▁銃	-10.7671
もん	-10.7672
我々	-10.7675
悪事	-10.7677
まわる	-10.7684
浴	-10.7685
に行う	-10.7686
むりに	-10.7687
されない	-10.7688
についている	-10.7689
▁だれが	-10.769
争	-10.7693
を見せる	-10.7693
そんな事を	-10.7698
砕	-10.7698
吐	-10.7701
時間に	-10.7702
次第	-10.7702
けち	-10.7703
▁行き	-10.7704
てはいけない	-10.7705
彩	-10.7706
リズム	-10.7707
曲がった	-10.7708
▁あれ	-10.7708
論じ	-10.771
ベル	-10.7711
C	-10.7712
乗る	-10.7714
元気かい予約を変更	-10.7717
勤勉	-10.7717
べる	-10.7717
介	-10.7718
賀	-10.7718
手紙を	-10.7718
楽しい	-10.7718
かぜ	-10.7719
不運	-10.772
斑	-10.7722
責任を	-10.7722
破壊	-10.7722
稿	-10.7723
測定	-10.7723
売れ	-10.7724
泥棒	-10.7725
藤	-10.7725
惜	-10.7727
拡大	-10.7727
瀬	-10.7727
棺	-10.7728
亀	-10.7728
ヨ	-10.7729
ほぼ	-10.7729
磴	-10.773
ユーモア	-10.773
佞	-10.773
椎	-10.773
太平洋	-10.773
硫酸	-10.773
喜ぶ	-10.773
タイヤ	-10.773
寿命	-10.773
いくつかの	-10.7731
飲料	-10.7731
幕府	-10.7731
酔い	-10.7731
は我々の	-10.7732
新たに	-10.7733
代名詞	-10.7733
使い方を教えて	-10.7733
悲しい	-10.7733
コードすぐ	-10.7733
▁天皇の	-10.7734
ページをすぐ	-10.7734
指を	-10.7735
結合	-10.7737
元気かい予約削除	-10.7737
体温	-10.7739
活字	-10.7739
▁家の	-10.7739
配達	-10.774
が立つ	-10.7743
美味	-10.7744
元気かいの予約を更新	-10.7746
行こう	-10.7749
遊女	-10.775
ければ	-10.7751
▁食	-10.7753
気を	-10.7754
幸い	-10.7755
予約	-10.7756
彫り	-10.7757
生ずる	-10.7758
入場	-10.7761
▁気が	-10.7766
訴訟	-10.7767
バック	-10.7771
▁厳	-10.7772
みず	-10.7773
裁	-10.7776
事件の	-10.7778
法則	-10.7779
側の	-10.7779
伏	-10.778
筋道	-10.7781
▁私はその	-10.7781
あらわ	-10.7782
二人の	-10.7785
二度と	-10.7786
▁暴	-10.7786
▁英	-10.7787
の終わり	-10.7788
かつて	-10.779
夏の	-10.779
ができますか	-10.7792
支配	-10.7794
が大きく	-10.7794
▁最後の	-10.7795
▁太	-10.7796
は彼を	-10.7796
かわり	-10.7797
景気	-10.7799
有名な	-10.78
の程度	-10.7801
国会	-10.7802
一同	-10.7803
失敗する	-10.7804
無罪	-10.7805
▁過去	-10.7806
態度が	-10.7806
▁運	-10.7806
体力	-10.781
すぐれている	-10.781
じて	-10.7811
込むこと	-10.7813
不思議な	-10.7815
▁官	-10.7815
飛ばす	-10.7818
物理学	-10.7822
ぶっ	-10.7827
作者	-10.7827
▁仕事を	-10.7828
まっすぐに	-10.7832
白髪	-10.7833
通りを	-10.7835
二人	-10.7836
けること	-10.7837
されること	-10.7839
していて	-10.7839
世辰	-10.7842
▁巨	-10.7842
感動	-10.7843
ちっとも	-10.7849
▁麦	-10.7851
終わった	-10.7855
相当	-10.7855
▁事務	-10.7856
お金	-10.7858
スマホ画面に置	-10.7861
▁議会	-10.7861
大変な	-10.7865
人情	-10.7871
を発する	-10.7875
描いた	-10.7876
回った	-10.7876
出かける	-10.7878
符	-10.7881
甘	-10.7882
登	-10.7883
苦痛	-10.7884
せた	-10.7885
とじ	-10.789
後ろに	-10.789
を誤る	-10.7892
君が	-10.7893
すか	-10.7894
はっきりと	-10.7894
垂	-10.7897
つとめ	-10.7897
▁父は	-10.7898
あれこれと	-10.7898
任垢	-10.79
ちょっと送信	-10.7901
応	-10.7906
光線	-10.7908
反対の	-10.791
▁神経	-10.791
はさみ	-10.7911
以外	-10.7911
をつかむ	-10.7911
なくなること	-10.7915
たな	-10.7916
寄付	-10.7917
わし	-10.7918
▁しゅう	-10.792
を見ると	-10.7921
たび	-10.793
どき	-10.7944
さけ	-10.7947
ねずみ	-10.7949
▁卑	-10.7951
▁釣り	-10.7952
死者	-10.7953
望む	-10.7958
著者	-10.7959
スタ	-10.7961
が長い	-10.7961
語る	-10.7962
仰	-10.7968
育て	-10.797
崩	-10.7971
述べ	-10.7972
ついている	-10.7974
先の	-10.7975
人や	-10.7978
上下	-10.7979
客の	-10.7981
当たる	-10.7981
割れ	-10.7982
フル	-10.7983
縫	-10.7985
▁他の	-10.7985
結構	-10.7986
折れ	-10.7991
髪を	-10.7995
しら	-10.7995
過去	-10.7995
▁漁	-10.7995
にふける	-10.7997
付きの	-10.7997
に言う	-10.7998
燃える	-10.8002
滴	-10.8007
▁元	-10.8007
ニューヨーク	-10.8007
小型の	-10.8008
の位置	-10.8008
騷ぎ	-10.8009
冗談	-10.8009
さなかった	-10.8009
況	-10.8012
当選	-10.8012
脂肪	-10.8014
▁タクシー	-10.8014
余地	-10.8018
実際の	-10.8019
とすること	-10.802
▁霜	-10.8021
質の	-10.8021
うんと	-10.8023
民主	-10.8023
渋	-10.8024
あめ	-10.8024
入学	-10.8024
訪	-10.8026
宣	-10.8027
禍	-10.8028
▁秘	-10.8028
鶴	-10.8029
及ばない	-10.803
塞	-10.803
▁村	-10.8031
慶	-10.8031
叫ぶ	-10.8031
叙	-10.8031
嚢	-10.8032
摩	-10.8032
楼	-10.8032
某	-10.8032
虐	-10.8032
	-10.8033
缺	-10.8033
よろい	-10.8033
描写	-10.8033
独占	-10.8033
セント	-10.8033
300	-10.8033
惑星	-10.8033
業績	-10.8033
横に	-10.8034
▁偏	-10.8034
抗議	-10.8034
宿泊	-10.8034
統制	-10.8034
辞典	-10.8034
はなかなか	-10.8034
限界	-10.8035
散らす	-10.8035
座敷	-10.8035
つらい	-10.8036
▁被	-10.8036
めぐり	-10.8036
不良	-10.8037
綴じ	-10.8037
刷り	-10.8037
行儀	-10.8038
獲物	-10.8038
石井	-10.8038
立ち上がる	-10.8038
▁動物の	-10.8039
々しい	-10.8039
▁先生は	-10.8039
間違っている	-10.804
▁列車	-10.804
筆跡	-10.8041
縁起	-10.8042
車両	-10.8043
ではありません	-10.8044
現在の	-10.8044
箇所	-10.8044
頭痛	-10.8045
上昇	-10.8045
コップ	-10.8046
いずれ	-10.8046
巡	-10.8046
▁あんな	-10.8046
油断	-10.8047
ささ	-10.8049
▁その家は	-10.8051
うわ	-10.8051
秘書	-10.8054
固定	-10.8054
鈍	-10.8055
を集める	-10.8055
マッチ	-10.8056
ねば	-10.8057
核	-10.8057
をやめる	-10.8058
ゴルフ	-10.806
混	-10.8062
空中	-10.8063
▁自動車の	-10.8063
偶然	-10.8063
なま	-10.8064
養子	-10.8064
考えを	-10.8065
を定める	-10.8065
迷い	-10.8066
むち	-10.8067
としても	-10.8067
少	-10.8067
出ること	-10.8068
まして	-10.8071
財政	-10.8073
▁市	-10.8073
進むこと	-10.8073
議長	-10.8074
小形の	-10.8075
元気かい予約を追加	-10.8078
どうぞ	-10.8081
お願い	-10.8084
▁バス	-10.8084
なもの	-10.8086
▁政府	-10.809
ふる	-10.8093
官職	-10.8093
視力	-10.8095
ってしまう	-10.8095
賭け	-10.8097
一種の	-10.8097
うま	-10.8098
実際	-10.8101
下げる	-10.8102
冷え	-10.8102
安心	-10.811
独立	-10.8111
長いこと	-10.8118
黒色	-10.8118
ぬき	-10.8119
方がいい	-10.8123
ものです	-10.8125
▁書き	-10.8127
▁押し	-10.8128
白色の	-10.813
温泉	-10.8135
手先	-10.8135
秘密を	-10.8138
▁物事	-10.8139
を失った	-10.814
のほう	-10.8142
をたたく	-10.8144
▁故	-10.8145
▁富	-10.8146
入って	-10.8151
ごう	-10.8152
物品	-10.8153
のとおり	-10.8155
幸せ	-10.816
その言葉	-10.8166
移動	-10.8166
科の落葉高木	-10.8169
ミリ	-10.8176
うみ	-10.8177
根性	-10.8178
▁郵便	-10.8185
のたとえ	-10.8185
成立	-10.8187
生活を送る	-10.8188
▁顔	-10.8188
▁世間の	-10.8193
なぐる	-10.8196
識	-10.8196
四方	-10.8196
のような形	-10.8197
▁昼	-10.82
▁ビール	-10.8207
▁当時	-10.821
▁がん	-10.8212
とその	-10.8216
を研究する	-10.8216
かれた	-10.8219
▁どちら	-10.8219
三つ	-10.822
残念	-10.822
だらけの	-10.8228
▁次の	-10.823
あう	-10.823
ラー	-10.823
を止める	-10.823
上がって	-10.8231
吹く	-10.8238
▁松	-10.8239
設	-10.824
の土地	-10.8243
▁女性	-10.8245
ブラ	-10.8246
は私	-10.8246
を踏む	-10.8248
の話	-10.8254
数値	-10.8256
書いてある	-10.8256
嫌い	-10.8257
丸い	-10.8257
換	-10.8257
運送	-10.8258
厚	-10.826
が出た	-10.8263
▁せき	-10.8264
優	-10.8267
うちの	-10.827
ぬく	-10.8276
▁党	-10.8279
向きの	-10.8279
ばね	-10.829
に行って	-10.829
親切に	-10.8292
詰	-10.8292
異常	-10.8294
▁はん	-10.8296
化した	-10.8297
力士	-10.83
おこる	-10.8302
▁牛乳	-10.8304
周囲	-10.8305
風邪	-10.8306
をかき	-10.8307
▁いつ	-10.831
ませた	-10.8312
沢	-10.8313
含	-10.8315
st	-10.8315
月に	-10.8315
決断	-10.8315
ぱっと	-10.8316
を起こし	-10.8317
▁鈍	-10.8319
あん	-10.832
▁裸	-10.8322
庫	-10.8322
▁粉	-10.8324
そうと	-10.8325
権威	-10.8326
▁冗談	-10.8329
驚き	-10.8329
私たちの	-10.8329
を追って	-10.833
兵隊	-10.8331
すごい	-10.8335
言ったこと	-10.8337
▁心に	-10.8337
きて	-10.8337
くそ	-10.8338
▁100	-10.8339
療	-10.834
循環	-10.834
敏	-10.834
のようなもの	-10.8341
▁大いに	-10.8341
ミルク	-10.8341
服従	-10.8341
審議	-10.8342
一面	-10.8343
著作	-10.8344
範	-10.8344
は実に	-10.8345
"	-10.8345
妊	-10.8345
溝	-10.8345
男女が	-10.8345
束縛	-10.8345
アジア	-10.8345
味噌	-10.8345
訂正	-10.8345
渡り	-10.8345
診察	-10.8345
▁研究	-10.8346
を欠く	-10.8346
やたらに	-10.8346
オレンジ	-10.8346
給与	-10.8346
救助	-10.8346
味わい	-10.8347
保管	-10.8347
カル	-10.8347
財産を	-10.8347
合唱	-10.8349
元気かいの予約更新	-10.835
どころ	-10.8351
水準	-10.8351
▁卵	-10.8352
党派	-10.8352
喜劇	-10.8352
前提	-10.8352
連続	-10.8353
▁彼はもう	-10.8354
教員	-10.8354
親しみ	-10.8355
▁あらし	-10.8356
ですが	-10.8357
るだろう	-10.8358
ぶち	-10.8359
がついた	-10.8359
付属	-10.8359
終わる	-10.836
風習	-10.8361
▁人生	-10.8361
ふけ	-10.8361
なか	-10.8361
▁立派な	-10.8362
冒険	-10.8362
w	-10.8363
のところ	-10.8363
▁棒	-10.8366
項目	-10.8366
わん	-10.8367
確実な	-10.8367
▁新しく	-10.8369
▁硬	-10.8369
曲線	-10.837
▁最高	-10.837
の小	-10.837
に着く	-10.837
▁だれでも	-10.8373
春の	-10.8375
活気	-10.8375
▁なぜ	-10.8376
例外	-10.8377
▁スキー	-10.8379
無礼	-10.8381
顔をする	-10.8383
▁墨	-10.8383
十分な	-10.8383
発達	-10.8384
▁それには	-10.8385
童	-10.8385
は彼	-10.8385
重量	-10.8385
仮名	-10.8386
塗	-10.8387
請	-10.8388
敷き	-10.8388
今は	-10.8389
を鳴らす	-10.8389
群衆	-10.8391
読んだ	-10.8391
大事な	-10.8392
きなさい	-10.8394
ウイスキー	-10.8396
根本	-10.8397
献	-10.8398
缶	-10.8398
掻き	-10.8398
元気かい予約管理	-10.8398
ジョン	-10.8398
図書館	-10.8399
郊外	-10.84
バラ	-10.84
▁自分が	-10.8402
遠慮	-10.8405
昼	-10.8406
赤色	-10.8406
岩石	-10.8406
粘土	-10.8407
威力	-10.8408
風流	-10.841
面会	-10.8411
▁じょう	-10.8411
70	-10.8412
虚	-10.8412
いくつ	-10.8412
暖かい	-10.8413
支持	-10.8414
どれ	-10.8414
テニス	-10.8414
家柄	-10.8414
死亡	-10.8415
を重ねる	-10.8416
くわ	-10.8419
天才	-10.8419
買う	-10.8419
かたく	-10.8419
カン	-10.8421
臣下	-10.8421
てしまうこと	-10.8422
所へ	-10.8423
ーション	-10.8423
集会	-10.8425
非常な	-10.8426
やってみる	-10.8426
ごま	-10.8426
▁縁	-10.8427
を塗る	-10.8428
の調子	-10.8428
存在する	-10.843
傾斜	-10.8434
話だ	-10.8435
▁約束	-10.8439
物価	-10.8442
発生	-10.8442
を突き	-10.8446
に生える	-10.8447
上流	-10.8448
▁葉	-10.8449
他方	-10.845
▁質	-10.8452
一点	-10.8454
ティー	-10.8456
きわ	-10.8456
▁露	-10.8456
するような	-10.8458
名の	-10.8459
品質	-10.8459
輸出	-10.8462
山田	-10.8465
▁怒り	-10.847
火薬	-10.847
▁ほ	-10.8472
元気かい予約状況を追加	-10.8476
話した	-10.8477
難い	-10.8477
▁そんなこと	-10.8484
いました	-10.8486
▁歌	-10.8491
▁雌	-10.8491
重大な	-10.8491
▁鬼	-10.85
打撃	-10.8507
▁労働	-10.8507
もらった	-10.8507
潜	-10.8509
抜ける	-10.851
が来る	-10.8511
地点	-10.8511
っていること	-10.8513
▁室内	-10.8514
▁ちょうど	-10.8515
不平	-10.8516
▁墓	-10.8519
爆	-10.8522
□□	-10.8523
科目	-10.8523
ろうと	-10.8524
へ行った	-10.8532
▁メッセージを	-10.8533
回転	-10.8533
全体の	-10.8533
上り	-10.8537
▁新年	-10.8544
見せる	-10.8549
ネズミ	-10.8552
あげた	-10.8554
se	-10.8557
確かな	-10.8558
木に	-10.8558
▁温	-10.8564
既に	-10.8565
▁超	-10.8565
歌う	-10.8567
丈夫な	-10.8569
基本	-10.857
が強く	-10.8573
矛盾	-10.8574
つもりだ	-10.8576
元気かい予約を更新	-10.8576
否定	-10.8578
を捕える	-10.8579
そうする	-10.8579
以前の	-10.858
黙って	-10.858
▁午後	-10.8582
きている	-10.8582
午後	-10.8583
の問題	-10.8585
戸口	-10.8586
戻	-10.8586
焦	-10.86
▁若い	-10.8601
▁インド	-10.8605
樹木	-10.8605
大体	-10.8607
示すこと	-10.8607
生まれつき	-10.8608
扱	-10.8608
埋め	-10.861
届	-10.861
▁道理	-10.8611
の内	-10.8614
っておく	-10.8617
資料	-10.8625
を作り	-10.8626
▁ピ	-10.8626
らせて	-10.863
▁議長	-10.8632
四角	-10.8633
▁天気は	-10.8634
縛	-10.8638
の基礎	-10.8639
ちょっと電話する	-10.8639
帝国	-10.864
熱い	-10.864
離婚	-10.864
▁飯	-10.8641
将校	-10.8642
軽蔑	-10.8644
悟	-10.8645
▁芝居	-10.8647
▁農業	-10.8648
▁ニューヨーク	-10.8648
覚	-10.8653
ろうとする	-10.8654
の出来事	-10.8657
裁判官	-10.8658
却	-10.8659
孔	-10.8661
確か	-10.8661
のなか	-10.8662
▁能	-10.8663
に過ぎない	-10.8663
蝶	-10.8664
険	-10.8664
呪	-10.8664
焼いた	-10.8665
相続	-10.8665
発行する	-10.8666
ぞっとする	-10.8666
環	-10.8666
キャ	-10.8667
貌	-10.8667
ドラッグストア	-10.8667
重大	-10.8667
あきらめ	-10.8667
由美子	-10.8667
ごたごた	-10.8668
屬	-10.8668
ハンカチ	-10.8668
娯楽	-10.8668
偉大な	-10.8668
こみ	-10.8668
くちばし	-10.8668
を失って	-10.8668
証券	-10.8669
ろうそく	-10.8669
ものがある	-10.8669
悩み	-10.8669
のうちに	-10.867
国を	-10.8672
真珠	-10.8672
▁生活	-10.8672
前から	-10.8672
農場	-10.8672
▁帆	-10.8673
▁長く	-10.8673
坊主	-10.8674
経費	-10.8674
▁死に	-10.8675
執行	-10.8675
同士	-10.8675
申し上げます	-10.8676
狂言	-10.8677
優先	-10.8678
兄さん	-10.8678
交番	-10.8679
面白い	-10.8682
鉛筆	-10.8682
施	-10.8683
平らな	-10.8683
入れた	-10.8684
目録	-10.8685
戦術	-10.8687
不在	-10.8688
辰討い	-10.8689
めし	-10.869
科の常緑高木	-10.8691
あさ	-10.8692
▁順	-10.8694
ロン	-10.8694
弱点	-10.8697
大津	-10.8698
むずかしい	-10.8699
語句	-10.87
母音	-10.8702
▁狂	-10.8702
元気かいの予約を管理	-10.8705
▁ベ	-10.8707
を読む	-10.8708
▁ぼう	-10.8708
所帯	-10.8709
▁きゅう	-10.8709
上げて	-10.8709
もみ	-10.871
▁激しく	-10.871
▁いえ	-10.8715
▁文学	-10.8716
▁遠く	-10.8716
たりして	-10.8717
うら	-10.8721
おかし	-10.8721
▁土地	-10.8728
合うこと	-10.8728
を洗う	-10.8728
乱暴な	-10.873
駄	-10.8733
形は	-10.8733
苦心	-10.8734
スマホに置	-10.8734
▁印刷	-10.8734
▁その子は	-10.8736
飽き	-10.8738
第三	-10.8739
などによって	-10.8739
鬱	-10.8739
談話	-10.874
通りに	-10.8742
。「―	-10.8743
▁生産	-10.8745
きびしく	-10.8746
走者	-10.8746
危機	-10.8746
幼児	-10.8747
仁	-10.8747
両端	-10.8747
容易に	-10.8748
なぐり	-10.8749
えん	-10.875
野心	-10.8752
脇	-10.8753
爪	-10.8754
山脈	-10.8755
何時	-10.8756
書いて	-10.8757
▁コン	-10.8758
用いる	-10.8762
自己	-10.8763
超	-10.8763
水路	-10.8764
S	-10.8766
音節	-10.8767
▁猿	-10.8768
訴え	-10.8769
とまる	-10.8772
一部	-10.8776
濃い	-10.8777
穀物	-10.8779
いないこと	-10.8782
ヘルパー	-10.8783
すぐに電話かける	-10.8784
があれば	-10.8786
もしない	-10.8787
ぼんやり	-10.8789
備え	-10.8789
▁学校の	-10.8791
せり	-10.8791
しかない	-10.8791
生え	-10.8793
ほめ	-10.8793
木綿	-10.8794
捜し	-10.8794
に多い	-10.8794
▁だれか	-10.8797
じん	-10.8802
▁全身	-10.8802
▁安全	-10.8805
こり	-10.8808
境界	-10.8809
▁ヨーロッパ	-10.8809
ようとした	-10.8809
▁やめ	-10.8811
▁仕事の	-10.8812
▁目の	-10.8816
縮	-10.8819
▁うちの	-10.8821
演ずる	-10.8821
中国の	-10.8822
洋服	-10.8825
その場に	-10.8826
をとった	-10.8826
言葉に	-10.8828
▁寸	-10.8828
に手を	-10.8833
返すこと	-10.8833
▁家族	-10.8834
だまして	-10.8835
▁子供	-10.8836
は何も	-10.8837
墓	-10.8837
行け	-10.8837
気譴	-10.884
さる	-10.8842
みぞ	-10.8843
▁すばらしい	-10.8844
不意	-10.8846
時などに	-10.8846
上手	-10.8849
▁元気	-10.8849
▁うん	-10.885
誠	-10.8851
かに	-10.8853
然たる	-10.8854
片方	-10.8854
プレー	-10.8855
▁嫁	-10.8856
のもとで	-10.8857
拍手	-10.8857
来ること	-10.8864
の縁	-10.8865
ができた	-10.8866
ウェッブページを置	-10.8872
▁割り	-10.8875
地位に	-10.8878
最後に	-10.8878
重ね	-10.8881
▁いろいろの	-10.8882
有罪	-10.8883
▁都	-10.8883
時間が	-10.8888
おしゃべり	-10.8889
機嫌	-10.8894
ed	-10.8894
認められる	-10.8894
大きいこと	-10.8895
っても	-10.8895
腹が	-10.8898
有様	-10.89
んです	-10.89
スーツ	-10.8901
知った	-10.8903
しないように	-10.8905
▁帯	-10.8907
拾い	-10.8908
▁化学	-10.8908
鳴り	-10.891
宣伝	-10.8912
▁気候	-10.8917
蒸	-10.8918
騒	-10.8919
▁参	-10.8919
あうこと	-10.8924
本来	-10.8927
居住	-10.8928
構	-10.8929
金で	-10.8929
▁雷	-10.893
買った	-10.893
が好きだ	-10.893
知り	-10.8933
▁生命	-10.8933
▁読み	-10.8934
下ろす	-10.8935
▁教	-10.8938
▁財産	-10.8941
美しさ	-10.8942
▁煮	-10.8942
の関係	-10.8942
立っていた	-10.8943
なぞ	-10.8944
▁あなたが	-10.8946
▁トムは	-10.895
めく	-10.8951
かけている	-10.8953
▁都市	-10.8955
代理	-10.8956
宮中	-10.8957
集まった	-10.896
望遠鏡	-10.8961
まとまり	-10.8964
▁通り	-10.8965
▁潜	-10.8967
攻	-10.8967
調和	-10.8967
所を	-10.8969
妙な	-10.8969
ぴったり	-10.897
▁僕	-10.8971
あげよう	-10.8972
磨	-10.8973
▁このような	-10.8978
ときの	-10.8978
惑	-10.8978
遅れて	-10.8982
のですが	-10.8986
表す	-10.8986
だんだん	-10.8986
たえ	-10.8987
▁彼はこの	-10.8987
呼び名	-10.8988
敵の	-10.899
▁貸	-10.8991
不明	-10.8993
ところがある	-10.8994
遣い	-10.8994
洗う	-10.8995
書簡	-10.8996
旨	-10.8996
鼓	-10.8998
公務員	-10.8999
吏	-10.8999
覇	-10.8999
紊	-10.9
ホーム画面置	-10.9
冒	-10.9001
八百屋	-10.9001
Г	-10.9001
ストライキ	-10.9001
兇	-10.9001
に沿って	-10.9001
▁of	-10.9001
陳述	-10.9001
しつこく	-10.9001
ゆう	-10.9001
樹脂	-10.9001
だけだ	-10.9001
欠陥	-10.9001
わざわい	-10.9002
教科書	-10.9002
どうにか	-10.9002
グラス	-10.9002
及び	-10.9002
ネット	-10.9002
陶器	-10.9003
ゴール	-10.9003
貴族	-10.9003
社交	-10.9003
技師	-10.9004
まない	-10.9004
編成	-10.9004
補給	-10.9005
工夫	-10.9005
を用いて	-10.9005
分裂	-10.9005
最終	-10.9006
当てる	-10.9006
照明	-10.9006
仮定	-10.9006
あくび	-10.9007
トム	-10.9009
▁相手を	-10.901
害虫	-10.901
▁後ろ	-10.9011
帳面	-10.9011
一行	-10.9011
祝	-10.9013
90	-10.9013
鱗	-10.9014
順番	-10.9015
正午	-10.9017
その知らせ	-10.9018
につき	-10.9019
直美	-10.9022
▁ここから	-10.9024
人数	-10.9024
めでたい	-10.9025
ダース	-10.9025
おいで	-10.9028
体制	-10.9028
牛肉	-10.9029
動かす	-10.903
けば	-10.9031
でメッセージを送信	-10.9031
向く	-10.9032
法案	-10.9032
かち	-10.9032
気圧	-10.9032
陸地	-10.9033
いくらか	-10.9035
まと	-10.9035
包	-10.9035
やってきた	-10.9035
部品	-10.9041
無限	-10.9041
たれる	-10.9045
まわること	-10.9048
吹	-10.905
▁福	-10.905
一枚	-10.9051
頂上	-10.9052
感ずる	-10.9058
危険な	-10.9063
▁皮膚	-10.9066
りません	-10.907
▁彼ら	-10.9071
を受けること	-10.9073
故	-10.9073
部門	-10.9073
の低い	-10.9074
らせた	-10.9075
さば	-10.9076
はわからない	-10.9076
誤	-10.9077
浅	-10.9078
▁目を	-10.9079
それから	-10.908
をうまく	-10.9082
察	-10.9087
上等	-10.9092
我々に	-10.9092
添え	-10.9092
陽気	-10.9094
腕前	-10.9094
口実	-10.9096
られなかった	-10.9098
の絵	-10.9098
を吹く	-10.9098
先例	-10.9101
▁広く	-10.9102
を計る	-10.9103
▁旗	-10.9104
口論	-10.9109
菊	-10.911
繰り返し	-10.9112
読んで	-10.9116
の空	-10.9116
疎	-10.9117
伝統	-10.9117
▁炭	-10.9119
▁ちょっと電話したい	-10.912
じゅう	-10.9121
しっかりした	-10.9121
▁林	-10.9122
休日	-10.9124
出される	-10.9126
を進める	-10.9127
聞かせ	-10.9128
もっとも	-10.9128
前途	-10.9129
ましょうか	-10.913
を立て	-10.9131
▁終	-10.9131
▁休	-10.9131
ふだん	-10.9131
▁節	-10.9132
博	-10.9133
▁米国	-10.9133
▁ちょう	-10.9133
昔から	-10.9136
純	-10.9138
つくり	-10.914
の材料	-10.9142
夜明け	-10.9142
記念	-10.9142
結婚式	-10.9143
成功した	-10.9143
繭	-10.9144
ちょっと電話かける	-10.9148
あちこち	-10.9153
ちょっと電話をかける	-10.9154
が必要だ	-10.9155
遅れた	-10.9155
とんでもない	-10.9155
うず	-10.9156
あぶ	-10.9157
つづ	-10.9158
間を	-10.9163
年代	-10.9164
そのことを	-10.9164
で売る	-10.9165
耳に	-10.9168
起こす	-10.9169
▁浮	-10.9171
盲	-10.9172
眺め	-10.9177
感ずること	-10.9177
上品	-10.9177
天子	-10.9178
固めた	-10.918
金の	-10.9181
納め	-10.9185
▁文章	-10.9186
世間に	-10.9186
魚を	-10.9186
▁ふた	-10.9188
を作った	-10.9189
資	-10.9189
裂け	-10.9193
座席	-10.9195
絶え	-10.9195
は全部	-10.92
出かけ	-10.92
▁料理	-10.92
指図	-10.9205
を助ける	-10.9205
ています	-10.9206
っくり	-10.9207
裂	-10.9212
お前	-10.9212
ンド	-10.9217
を指す	-10.9219
の者	-10.922
日中	-10.9221
引っ	-10.9223
つれ	-10.9223
指定	-10.9223
をあげて	-10.9224
遅れる	-10.9224
等が	-10.9224
▁向こう	-10.9224
状態で	-10.9225
その結果	-10.9226
外れ	-10.9227
だけを	-10.9228
キリスト教	-10.9229
▁弓	-10.9232
▁違います	-10.9232
メッセージをいまから	-10.9232
情報を	-10.9235
を少し	-10.9236
ありますか	-10.9237
▁婦人	-10.9239
▁登	-10.9241
和歌	-10.9243
三度	-10.9244
がっている	-10.9244
ドアを	-10.9245
を教える	-10.9249
元気かい予約状況を変更	-10.925
ゆき	-10.9251
晴	-10.9256
さずに	-10.9257
それぞれの	-10.9259
見通し	-10.9259
恐	-10.9259
▁武	-10.9263
しっかりと	-10.9264
▁堅	-10.9266
邪魔	-10.9267
▁建築	-10.9269
クリスマス	-10.9275
▁しゃ	-10.9275
その事件	-10.9275
は彼女の	-10.9275
については	-10.9275
トラック	-10.9277
ざら	-10.9279
土台	-10.9279
楽しむ	-10.9281
下手	-10.9282
と一緒に	-10.9283
ぶらぶら	-10.9284
のもと	-10.9286
が低い	-10.9286
▁戦闘	-10.9287
ュ	-10.929
りっぱな	-10.9291
を飲む	-10.9292
アパート	-10.9293
誠実	-10.9294
おれ	-10.93
ぶる	-10.9304
これで	-10.9305
正体	-10.9307
ファ	-10.9307
▁ボート	-10.9309
状態にある	-10.931
以	-10.931
珠	-10.9312
▁営業	-10.9314
だし	-10.9314
▁接	-10.9315
を言って	-10.9316
睡眠	-10.9317
区画	-10.9319
▁クロ	-10.932
衛	-10.9322
あとで	-10.9323
は大	-10.9323
▁ガラス	-10.9324
永	-10.9328
に入れた	-10.9329
ばち	-10.9329
なっていた	-10.9329
かせ	-10.9329
大将	-10.9331
に関して	-10.9331
のころ	-10.9332
に引き	-10.9332
の食事	-10.9333
絞	-10.9333
天皇の	-10.9334
問い	-10.9334
ばり	-10.9336
審判	-10.9336
富士	-10.9337
陶	-10.9338
んこ	-10.9338
看板	-10.9339
乙	-10.9339
水道	-10.934
に入った	-10.934
洗たく	-10.9342
防止	-10.9342
久	-10.9343
冥	-10.9344
宜	-10.9344
にしたもの	-10.9344
燐	-10.9345
剥	-10.9345
顕	-10.9346
聯	-10.9346
姫	-10.9346
ハムレット	-10.9346
落ち着いて	-10.9346
梁	-10.9346
科の海魚	-10.9346
窒素	-10.9346
艇	-10.9346
壺	-10.9346
瑠	-10.9346
器械	-10.9346
璽	-10.9346
陶磁器	-10.9346
タイプライター	-10.9346
柔らかく	-10.9346
模範	-10.9346
がち	-10.9346
休憩	-10.9346
タイム	-10.9346
陳列	-10.9346
を救う	-10.9346
見事な	-10.9346
存じます	-10.9347
解雇	-10.9347
太郎	-10.9347
圧迫	-10.9347
ばい	-10.9348
体験	-10.9348
ようやく	-10.9348
新小岩	-10.9348
東大阪	-10.9349
▁彼女は彼	-10.9349
ライン	-10.9349
と思っている	-10.935
ニア	-10.935
忠実	-10.9351
▁胴	-10.9351
戻す	-10.9352
高低	-10.9352
科学者	-10.9353
方向に	-10.9353
容疑者	-10.9356
観音	-10.9358
仕切り	-10.9359
明らかに	-10.936
間もなく	-10.9362
もつれ	-10.9364
布団	-10.9366
結ぶ	-10.9368
急ぐ	-10.9371
ほうがいい	-10.9372
させない	-10.9372
▁盲	-10.9375
ホーム画面に置	-10.9375
地区	-10.9379
出勤	-10.938
かかり	-10.9381
敬称	-10.9381
▁二重	-10.9381
題目	-10.9384
あぶない	-10.9386
複雑な	-10.9387
ぶん	-10.9388
指導者	-10.9388
最新	-10.9388
占め	-10.939
特別の	-10.9392
達者	-10.9394
を用いる	-10.9396
り込む	-10.9397
▁教会	-10.9404
処理する	-10.9405
18	-10.9407
会う	-10.9408
で写真送	-10.9411
▁のど	-10.9413
▁うまい	-10.9413
パイ	-10.9413
してやる	-10.9414
▁利益	-10.9414
高熱	-10.9415
▁深く	-10.9415
▁親の	-10.9416
近所	-10.9418
手足	-10.9418
の方向	-10.942
雌	-10.9422
元気かい予約を管理	-10.9423
の間の	-10.9424
道楽	-10.9425
スマホ置	-10.9429
をふるう	-10.9431
小型	-10.9432
を出し	-10.9435
▁子供たちは	-10.9436
▁一日	-10.9437
わからなかった	-10.9438
▁そうじゃな	-10.9439
めん	-10.9439
▁昨夜	-10.9439
もなかった	-10.944
学部	-10.9443
身の上	-10.9443
▁デ	-10.9444
の光	-10.9445
手袋	-10.9446
▁気温	-10.9447
▁私に	-10.9448
▁心の	-10.945
説き	-10.945
かのように	-10.9452
衝突	-10.9452
空想	-10.9453
▁懐	-10.9453
ーン	-10.9455
▁池	-10.9459
程度が	-10.946
えること	-10.946
▁自動	-10.946
▁4	-10.9461
▁ロケット	-10.9461
▁医学	-10.9461
ことをする	-10.9461
縫う	-10.9462
ある事	-10.9462
大会	-10.9462
書いたもの	-10.9463
支払い	-10.9467
▁登山	-10.9469
失礼	-10.947
平等	-10.947
音を	-10.947
ちょっとした	-10.9472
がまだ	-10.9474
を越えて	-10.9476
▁各	-10.9478
女性の	-10.9489
室内	-10.9489
その金を	-10.9489
おこ	-10.9492
邪	-10.9493
飛	-10.9494
刑務所	-10.9497
ティ	-10.9499
夕食	-10.95
ホームヘルパーさん	-10.95
▁全く	-10.9501
ほん	-10.9504
定められた	-10.9506
▁選	-10.9506
▁モ	-10.9506
序	-10.9507
くち	-10.9507
▁雨が	-10.9508
有効	-10.9508
一方の	-10.9509
多数の	-10.9509
発射	-10.951
そうじゃな	-10.9512
漫	-10.9513
元気かいの予約状況を追加	-10.9515
が少ない	-10.9516
理性	-10.9518
のち	-10.9518
処分	-10.9519
▁・・	-10.952
地獄	-10.952
蚊	-10.952
11	-10.9522
とめ	-10.9523
▁女の	-10.9523
▁ゴム	-10.9523
盗み	-10.9525
近代	-10.9526
木の葉	-10.9526
いまから電話をかける	-10.9528
のそばに	-10.9529
音を立てて	-10.953
救急車を呼んで	-10.9531
を明らかにする	-10.9534
0	-10.9534
▁良	-10.9534
としては	-10.9537
▁世界の	-10.9541
▁君主	-10.9542
逃	-10.9542
の面	-10.9547
の動き	-10.9548
えび	-10.9548
を行うこと	-10.955
生地	-10.955
に来る	-10.9552
のほうが	-10.9552
こぶ	-10.9553
は決して	-10.9553
つきの	-10.9554
だち	-10.9556
最初に	-10.9557
ばん	-10.9557
▁集団	-10.9559
くれませんか	-10.956
▁短い	-10.9562
顔が	-10.9562
足の	-10.9563
昇	-10.9564
の性質	-10.9565
歌い	-10.9568
ありがとう	-10.9572
通行	-10.9573
を取り除く	-10.9575
▁戦い	-10.9576
まめ	-10.9578
あんな	-10.9582
ようとして	-10.9586
てい	-10.959
を抑える	-10.9594
を許す	-10.96
確信	-10.9601
けい	-10.9602
に打ち	-10.9602
留める	-10.9605
モン	-10.9607
偽	-10.9608
精力	-10.9608
工学	-10.9608
はできない	-10.9609
▁中国	-10.9609
▁渋	-10.9613
はいけない	-10.9615
をもっている	-10.9618
国語	-10.9621
をとること	-10.9622
▁目的	-10.9623
態度をとる	-10.9624
の社会	-10.9624
▁毎日	-10.9626
が見えた	-10.9627
当局	-10.9629
規	-10.9632
をもち	-10.9633
で行う	-10.9634
報酬	-10.9634
▁森	-10.9635
▁中間	-10.9637
▁三つ	-10.9638
アウト	-10.9638
▁パリ	-10.9639
▁ドア	-10.964
代金	-10.9642
▁寺	-10.9643
入れて	-10.9644
募集	-10.9644
▁わら	-10.9646
年月	-10.965
▁降	-10.965
っています	-10.9658
注意して	-10.9658
を押し	-10.9658
指揮	-10.9658
口が	-10.966
黙	-10.9661
とらえる	-10.9663
最低	-10.9665
加減	-10.9666
助言	-10.9666
ょ	-10.9667
物資	-10.9672
一節	-10.9674
わずかに	-10.9675
最初	-10.9679
負傷	-10.9679
に設けた	-10.9679
願います	-10.9679
揺れる	-10.9687
胸に	-10.9689
便宜	-10.969
沸	-10.9691
しそう	-10.9691
斜	-10.9691
柔	-10.9693
御用	-10.9694
にかかわる	-10.9694
を入れておく	-10.9694
簡	-10.9695
滞	-10.9696
渡した	-10.9697
あがった	-10.9697
湿度	-10.9698
原則	-10.9699
並ぶ	-10.9699
おくこと	-10.97
拳	-10.97
蕎麦屋	-10.9701
賦	-10.9701
知れ	-10.9701
膿	-10.9701
妄	-10.9703
ショック	-10.9703
汚染	-10.9703
どっち	-10.9703
従業員	-10.9703
纏	-10.9703
▁んー使い方の自己診断	-10.9703
グループ	-10.9703
狼	-10.9703
博物館	-10.9703
塾	-10.9703
貯蔵	-10.9703
うろこ	-10.9703
を持った	-10.9703
いって	-10.9703
泳ぐ	-10.9704
園芸	-10.9704
詳細	-10.9704
経歴	-10.9704
警備	-10.9705
志願	-10.9705
豆腐	-10.9705
書斎	-10.9705
街路	-10.9705
汽車	-10.9706
香料	-10.9706
策略	-10.9706
あげること	-10.9706
消防	-10.9706
接近	-10.9706
内臓	-10.9708
法規	-10.9708
▁弾	-10.9709
入浴	-10.9709
命題	-10.971
元気かいの予約を削除	-10.971
インターネットのページをすぐ	-10.971
崩れ	-10.9711
下がり	-10.9712
曇り	-10.9712
を引いて	-10.9713
水で	-10.9713
指輪	-10.9714
賢	-10.9714
▁その男は	-10.9715
元気かいの予約状況を管理	-10.9715
くつ	-10.9716
お金を	-10.9716
女房	-10.9717
土砂	-10.9718
を呼ぶ	-10.9719
の量	-10.9721
囲い	-10.9721
学術	-10.9721
釮呂	-10.9722
クラ	-10.9722
局面	-10.9724
神聖な	-10.9724
動植物	-10.9724
基地	-10.9725
指示	-10.9726
まじり	-10.9728
角度	-10.9731
ビー	-10.9733
▁植物の	-10.9734
労力	-10.9734
人の心	-10.9735
助力	-10.9736
に与える	-10.9737
血管	-10.9738
平行	-10.9738
わが	-10.9739
財布	-10.974
勝った	-10.9742
抜	-10.9742
まもなく	-10.9748
心理学	-10.9749
やく	-10.975
品物を	-10.975
落葉	-10.975
を造る	-10.9754
▁蒸気	-10.9754
各地	-10.9755
実質	-10.9755
がよくない	-10.9756
▁略	-10.9758
手前	-10.976
▁拝	-10.9762
掛かる	-10.9763
標本	-10.9763
生存	-10.9767
植え	-10.9768
なんだ	-10.9768
所属	-10.977
▁演劇	-10.977
ざん	-10.9771
の時に	-10.9771
暖	-10.9772
相応	-10.9772
大した	-10.9772
尋ねる	-10.9774
によって起こる	-10.9774
通った	-10.9774
おきて	-10.9775
を起こさせる	-10.9775
生み	-10.9776
表紙	-10.9779
時まで	-10.978
警戒	-10.978
画面	-10.9784
雑草	-10.9784
やむ	-10.9785
▁世論	-10.9788
怒	-10.9797
▁殺人	-10.9797
が高く	-10.9797
擦れ	-10.9799
きき	-10.98
おどし	-10.9802
▁離	-10.9803
尽	-10.9803
組み立て	-10.9803
ということは	-10.9804
ができない	-10.9804
冬の	-10.9806
冷たい	-10.9806
さげ	-10.9807
消す	-10.9809
車で	-10.981
▁権力	-10.9812
捕らえ	-10.9812
豊かな	-10.9812
ほかに	-10.9815
▁かく	-10.9815
私も	-10.9815
えさ	-10.9817
頭から	-10.9817
対立	-10.9819
こわい	-10.982
物事に	-10.9821
▁奉	-10.9821
▁ホ	-10.9822
たちまち	-10.9824
▁証拠	-10.9825
旅行する	-10.9825
もって	-10.9825
▁工場	-10.9826
▁乗り	-10.9826
荒れ	-10.9828
結局	-10.9828
べた	-10.9832
▁貴	-10.9835
連中	-10.9836
ずり	-10.9837
人相	-10.9837
▁規則	-10.9841
消毒	-10.9841
との間に	-10.9841
の三	-10.9841
へん	-10.9843
速い	-10.9843
飲んで	-10.9846
を合わせる	-10.9851
はち	-10.9851
▁次	-10.9852
さわ	-10.9854
すべきだ	-10.9855
宴	-10.9856
一歩	-10.9857
戒め	-10.986
秋に	-10.9861
ねり	-10.9862
快	-10.9862
にしよう	-10.9863
集めること	-10.9864
水に	-10.9868
▁自己	-10.9871
にあり	-10.9871
日数	-10.9873
を放つ	-10.9873
を営む	-10.9874
地面に	-10.9874
▁二人	-10.9877
軍事	-10.9878
蔵書	-10.9879
▁深い	-10.9879
▁そうです	-10.988
受信	-10.988
▁どんなに	-10.9883
分離	-10.9885
説教	-10.9885
浄	-10.9888
大勢	-10.9891
救	-10.9892
用いること	-10.9892
適当な	-10.9893
犬を	-10.9894
▁物価	-10.9896
逸	-10.9896
人種	-10.9897
▁恋	-10.9902
快楽	-10.9903
うっかり	-10.9903
▁経験	-10.9903
▁夕	-10.9904
健	-10.9905
スパイ	-10.9905
隠れ	-10.9908
寺院	-10.9912
くだらない	-10.9915
はっきりしない	-10.9916
結構です	-10.9916
進め	-10.9916
繁	-10.9918
を演ずる	-10.9918
小川	-10.9921
話は	-10.9922
きく	-10.9922
一切	-10.9923
禅	-10.9924
リング	-10.9925
▁あちこち	-10.9928
どういう	-10.9928
▁立	-10.9931
を十分に	-10.9932
大和	-10.9937
用に	-10.9937
の儀式	-10.9944
人生の	-10.9944
▁なん	-10.9946
無料	-10.9946
の深い	-10.9947
▁消	-10.9948
様子だ	-10.9953
が広い	-10.9954
▁彼女は私に	-10.9955
大量	-10.9956
靴下	-10.9957
はだれ	-10.9957
民間	-10.9961
者たち	-10.9962
任せ	-10.9962
ひく	-10.9964
森林	-10.9966
ふと	-10.9968
雨で	-10.9972
正面	-10.9972
▁海上	-10.9978
古代	-10.9983
年度	-10.9984
▁臨時	-10.9985
とれる	-10.9987
▁ばか	-10.9988
ついていた	-10.9988
囚	-10.9992
▁心が	-10.9993
らく	-10.9994
器物	-10.9995
はなれ	-10.9996
金品	-10.9997
どうしても	-10.9999
▁理	-10.9999
がわかる	-11
の前で	-11.0002
▁一番	-11.0003
彼も	-11.0003
の最高	-11.0007
に合わせて	-11.0007
偉	-11.0008
将棋	-11.0008
遺憾	-11.0009
▁本当に	-11.0017
考えること	-11.0017
にしておく	-11.0019
事故で	-11.002
写真送	-11.002
衰	-11.0021
収益	-11.0025
▁てい	-11.0028
救急車を呼ぶ	-11.003
主権	-11.0031
にあること	-11.0032
可能性	-11.0035
▁名声	-11.0036
語り	-11.0039
有利	-11.0039
女子	-11.004
出来た	-11.0041
で死ぬ	-11.0041
包帯	-11.0042
皮肉	-11.0046
が彼	-11.0048
を通る	-11.0048
パー	-11.0049
変わって	-11.0049
▁傷	-11.005
かという	-11.005
ll	-11.005
づき	-11.0051
▁計画	-11.0052
そこから	-11.0053
方角	-11.0053
▁ほかの	-11.0053
溶液	-11.0057
かということ	-11.0057
と思います	-11.0062
続	-11.0063
及	-11.0063
知らぬ	-11.0064
を与えた	-11.0064
おか	-11.0065
昨年	-11.0065
ボールを	-11.0066
簿	-11.0066
ェ	-11.0066
藻	-11.0067
▁反対	-11.0067
証書	-11.0068
▁最近	-11.0069
論争	-11.007
妥協	-11.0071
念仏	-11.0071
愁	-11.0072
立つこと	-11.0072
父母	-11.0072
食器	-11.0072
姦	-11.0073
渦	-11.0073
データ	-11.0073
雌雄異株	-11.0073
杖	-11.0073
衝撃	-11.0073
澆	-11.0073
寡	-11.0073
ストーブ	-11.0073
栗	-11.0073
蘭	-11.0073
餡	-11.0073
かっこう	-11.0073
急速に	-11.0073
舞踊	-11.0073
栄誉	-11.0073
トンネル	-11.0073
ぶつぶつ	-11.0074
輪郭	-11.0074
えーっと安全度のチェックチェック	-11.0074
ある事柄	-11.0074
ポンプ	-11.0074
留守	-11.0074
鑑定	-11.0074
封筒	-11.0074
恩恵	-11.0075
立派に	-11.0075
直ちに	-11.0075
未熟	-11.0075
検討	-11.0075
▁この絵は	-11.0075
シェ	-11.0076
解放	-11.0076
思案	-11.0076
育ち	-11.0077
過程	-11.0077
怪しい	-11.0077
失望	-11.0077
ホン	-11.0078
難儀	-11.0078
判定	-11.0078
血統	-11.0079
▁仕	-11.0079
宗派	-11.0079
を満たす	-11.0079
どうすれば	-11.0079
信念	-11.008
素質	-11.008
サイン	-11.008
から出る	-11.008
後悔	-11.0081
見方	-11.0081
▁老人	-11.0082
根は	-11.0082
元気かい予約追加	-11.0083
元気かい予約を削除	-11.0083
楽曲	-11.0083
改めて	-11.0084
ヘビ	-11.0087
よし	-11.0087
現われた	-11.0088
を追う	-11.0088
回路	-11.0089
格式	-11.0089
はありません	-11.009
からとった	-11.0091
かまわない	-11.0091
▁そうだ	-11.0091
んだろう	-11.0091
ぐち	-11.0092
換え	-11.0093
生活費	-11.0094
延べ	-11.0096
を認める	-11.0099
親類	-11.0101
永久	-11.0101
金具	-11.0102
行われた	-11.0103
のあと	-11.0104
市長	-11.0104
つなぎ	-11.0104
知らせる	-11.0104
はずれる	-11.0104
の流れ	-11.0105
意向	-11.0105
▁ほんの	-11.0105
直角	-11.0105
代代	-11.0106
毛皮	-11.0107
▁世	-11.0107
世代	-11.0107
長野	-11.0107
だま	-11.0111
不快	-11.0111
に向けて	-11.0113
格子	-11.0113
そんな事	-11.0114
アル	-11.0116
▁勘定	-11.0116
▁金を	-11.0116
おおい	-11.0119
子供の	-11.0122
上級	-11.0123
すぎた	-11.0124
▁自転車	-11.0124
絶対	-11.0125
母の	-11.0125
規模	-11.0126
二度	-11.0127
▁すべて	-11.0128
言わない	-11.013
は必ず	-11.0131
ライ	-11.0131
なおす	-11.0132
ろりと	-11.0132
はいかがですか	-11.0135
▁相撲で	-11.0135
年金	-11.0136
▁博	-11.0137
場合には	-11.0137
党の	-11.0138
取れ	-11.0138
作られた	-11.0139
ドン	-11.0147
釣	-11.0147
▁前もって	-11.0148
かなかった	-11.0148
▁へい	-11.0148
を共にする	-11.0149
つぶし	-11.015
からぬ	-11.0153
おば	-11.0155
並んで	-11.0156
を迎える	-11.0157
心身	-11.0157
その本	-11.0157
っ子	-11.0159
に入れ	-11.0159
▁電車	-11.0159
住まい	-11.0161
決めること	-11.0161
クリ	-11.0163
ッと	-11.0165
リスト	-11.0166
いまから電話する	-11.0168
が悪いこと	-11.0169
側に	-11.0169
▁既	-11.017
となるもの	-11.0172
▁荷物	-11.0172
▁ごく	-11.0174
それより	-11.0175
さめ	-11.0176
通っている	-11.0176
心配事	-11.0178
が上がる	-11.0179
家来	-11.018
限度	-11.0182
個の	-11.0184
とど	-11.0185
に合わない	-11.0186
て作った	-11.0186
木製の	-11.0188
心は	-11.0195
▁月の	-11.0195
きざ	-11.0195
▁ああ	-11.0197
してもらう	-11.0199
水平	-11.02
方へ	-11.02
用品	-11.0202
向かう	-11.0204
思いやり	-11.0205
で買う	-11.0205
困難な	-11.0206
あけた	-11.0206
意味を	-11.0209
ぶつ	-11.0209
そうして	-11.021
神の	-11.0215
たった	-11.0215
機械の	-11.0217
はある	-11.0219
▁お前	-11.0219
との間	-11.022
▁厚	-11.022
呼んで	-11.0221
時節	-11.0222
を残す	-11.0222
使える	-11.0222
点を	-11.0223
馬の	-11.0223
ために使う	-11.0223
わび	-11.0225
▁偽	-11.0225
もらい	-11.0227
ものもある	-11.0232
衰え	-11.0236
認め	-11.0237
一般の	-11.0238
辛	-11.0241
すぐに電話する	-11.0242
誰	-11.0243
安楽	-11.0243
の席	-11.0243
打者	-11.0246
学校へ	-11.0248
決めた	-11.025
▁読書	-11.0252
日本では	-11.0252
整	-11.0253
解け	-11.0253
▁会議	-11.0254
▁一体	-11.0255
ようだった	-11.0257
帽子を	-11.0258
はん	-11.026
▁蚊	-11.0264
▁水が	-11.0266
でメッセージ送	-11.0267
あお	-11.027
飾	-11.027
しゅ	-11.0272
度合	-11.0274
立候補	-11.0274
▁稲	-11.0275
先生の	-11.0275
▁空腹	-11.0281
労働組合	-11.0282
の女性	-11.0282
こけ	-11.0283
は皆	-11.0284
▁彼は彼女	-11.0284
両方	-11.0285
▁希望	-11.0286
大部分	-11.0289
動脈	-11.0289
極めて	-11.029
その日	-11.0293
方法で	-11.0294
▁麻	-11.0295
返る	-11.0295
本を読む	-11.0295
を下す	-11.0296
の意見	-11.03
現れる	-11.0303
て下さい	-11.0306
を言い	-11.0306
煩	-11.0308
の一番	-11.0308
ではないが	-11.0309
奏者	-11.0311
▁だれ	-11.0315
握り	-11.0316
詳しく	-11.0316
呉	-11.0317
こともある	-11.0317
▁結局	-11.0319
スミス	-11.0321
疑問	-11.0321
ミサイル	-11.0323
▁掛け	-11.0323
塗った	-11.0324
に多く	-11.0324
立てること	-11.0325
▁彼は英語	-11.0326
泡	-11.0326
▁受	-11.0327
碁	-11.0327
あえ	-11.0328
憲法	-11.0329
一人の	-11.033
悪魔	-11.033
今日の天気予報	-11.033
▁何の	-11.033
医療	-11.0331
可	-11.0332
聞いた	-11.0334
ものとして	-11.0336
その事	-11.0337
▁景気	-11.0338
猿	-11.0339
▁S	-11.034
染める	-11.0342
巨	-11.0342
水泳	-11.0343
▁遊び	-11.0347
▁馬の	-11.0347
解決する	-11.0347
聖人	-11.0348
ままに	-11.0349
▁彼は彼女に	-11.0349
どん	-11.0351
多分	-11.0353
あがる	-11.0355
輩	-11.0356
in	-11.0356
いい加減	-11.0358
かめ	-11.0359
▁民間	-11.0366
与えること	-11.0367
人人の	-11.0368
のあるもの	-11.037
▁鶏	-11.0375
厳重に	-11.0378
比例	-11.038
▁世の中	-11.038
吹いて	-11.0382
全国	-11.0385
遊ぶ	-11.0385
っちり	-11.0385
が少し	-11.0387
選び	-11.0387
滞在	-11.039
▁現在の	-11.0391
説明する	-11.0391
にすぎない	-11.0396
はしばしば	-11.0398
を向ける	-11.0398
囚人	-11.0401
▁訴訟	-11.0404
込んでいる	-11.0405
▁多数の	-11.0406
の型	-11.0408
思った	-11.0411
許し	-11.0413
のほか	-11.0415
それだけ	-11.0417
試	-11.0419
と言い	-11.0421
でん	-11.0422
佐	-11.0422
古くから	-11.0424
▁びん	-11.0424
日付	-11.0424
増し	-11.0424
が集まって	-11.0424
▁車は	-11.0425
女王	-11.0425
地中に	-11.0427
体系	-11.0429
火災	-11.043
酒を飲む	-11.0432
をもたらす	-11.0435
耕	-11.0436
ふう	-11.0436
すごく	-11.0439
そっくり	-11.044
フライ	-11.044
廷	-11.0442
気管	-11.0442
消費	-11.0443
郎	-11.0443
忠	-11.0445
経過	-11.0447
用いられる	-11.0447
入りの	-11.0448
軌	-11.0449
るほど	-11.045
それをした	-11.045
争う	-11.045
まじめ	-11.0451
爵	-11.0452
歌舞伎	-11.0452
閲	-11.0454
まとまった	-11.0454
でメッセージを送	-11.0455
秀	-11.0455
の頭	-11.0456
曹	-11.0456
▁はしご	-11.0457
をもらう	-11.0457
捕虜	-11.0457
崇拝	-11.0458
釘	-11.0458
姉妹	-11.0458
疲れた	-11.0458
桁	-11.0458
▁んー安全自己診断	-11.0458
ウサギ	-11.0458
紹介	-11.0458
繋	-11.0458
ダイヤモンド	-11.0458
凌	-11.0458
悗	-11.0458
武蔵小金井	-11.0458
陵	-11.0458
デザイン	-11.0458
疲労	-11.0458
皇后	-11.0458
の異称	-11.0458
脅迫	-11.0458
サイズ	-11.0458
熟練	-11.0458
庶民	-11.0458
スペイン	-11.0458
修繕	-11.0458
多量の	-11.0459
当事者	-11.0459
南越谷	-11.0459
議決	-11.0459
それ以上	-11.046
福井	-11.046
にかなう	-11.046
に比べて	-11.046
民主主義	-11.046
技芸	-11.046
突起	-11.046
によらず	-11.0462
コードをすぐ	-11.0462
うそをつく	-11.0462
▁どうして	-11.0462
採用	-11.0462
育つ	-11.0462
撃ち	-11.0464
れていた	-11.0464
原始	-11.0465
衆生	-11.0465
ブル	-11.0466
▁りょう	-11.0466
よりどころ	-11.0466
ふるい	-11.0466
交代	-11.0467
慣れ	-11.0468
近ごろ	-11.0469
風刺	-11.047
とること	-11.047
誓う	-11.0471
こぶし	-11.0472
どのように	-11.0472
無駄	-11.0472
身振り	-11.0473
家から	-11.0473
体格	-11.0473
に出ている	-11.0474
▁うまく	-11.0474
占領	-11.0475
ああ	-11.0475
の外	-11.0477
薬剤	-11.0477
伝言	-11.0478
特色	-11.0479
解剖	-11.0479
くみ	-11.0481
どっと	-11.0482
四つ	-11.0483
目方	-11.0484
寝室	-11.0485
▁独り	-11.0486
の部屋	-11.0487
年ごろ	-11.0489
固い	-11.0489
きまった	-11.0489
図形	-11.049
湿気	-11.0491
じきに	-11.0497
が出ている	-11.0499
眠っている	-11.0499
離れて	-11.0502
ねらい	-11.0503
▁神の	-11.0504
有利な	-11.0504
彼女が	-11.0506
境地	-11.0508
さっぱり	-11.0508
専用	-11.0513
奇妙な	-11.0514
殺到	-11.0514
しも	-11.0515
親切な	-11.0517
を作って	-11.0519
▁水中	-11.0522
歳の	-11.0523
頭部	-11.0524
はいけません	-11.0525
農家	-11.0525
▁飛び	-11.0527
パイプ	-11.0528
外へ出	-11.0528
▁仲	-11.0529
本位	-11.0529
パス	-11.053
▁紅	-11.053
通ずる	-11.0532
▁情	-11.0533
刺し	-11.0534
並べて	-11.0542
▁わずかな	-11.0545
▁彼はそれを	-11.0545
伝わる	-11.0546
▁病人	-11.0546
▁城	-11.0547
▁受け	-11.0549
倒れる	-11.0551
▁子供を	-11.0553
を下げる	-11.0554
続けた	-11.0555
輸入	-11.0555
はみな	-11.0557
怒る	-11.0558
形を	-11.0561
▁ローマ	-11.0563
▁今の	-11.0563
時々	-11.0564
診断	-11.0566
▁夜間	-11.0567
▁ぼく	-11.0568
中です	-11.0568
親子	-11.057
▁その問題は	-11.0573
除け	-11.0573
すえ	-11.0574
を書いた	-11.0574
花火	-11.0574
▁可	-11.0575
▁逃げ	-11.0575
違	-11.0575
を広げる	-11.0576
▁投	-11.0577
▁正直	-11.0579
▁野球	-11.0581
陽子	-11.0582
などのために	-11.0583
▁土地の	-11.0586
書面	-11.0586
とりで	-11.0587
はお	-11.0587
▁一時	-11.0587
青色	-11.0588
個個の	-11.0588
を立てて	-11.0591
っていった	-11.0592
致しま	-11.0594
動かない	-11.0594
▁切	-11.0595
抱え	-11.0596
▁あす	-11.0597
行ける	-11.0597
学年	-11.0598
年末	-11.0598
煮え	-11.0599
きび	-11.06
それをする	-11.0601
▁キリスト教	-11.0601
にやる	-11.0602
ことば	-11.0603
かたち	-11.0605
▁豆	-11.0606
礼服	-11.0608
の間を	-11.0609
くし	-11.061
だと思う	-11.061
▁それでは	-11.0612
こむこと	-11.0612
にかかっている	-11.0615
▁我々	-11.062
降りる	-11.062
そうなる	-11.0621
インターネットのページを置	-11.0623
女中	-11.0624
ぎわ	-11.0627
をいだく	-11.0628
休む	-11.0629
向いて	-11.0631
主要な	-11.0631
しまって	-11.0632
▁流れ	-11.0634
のうちで	-11.0635
▁おお	-11.0636
生きる	-11.0642
に応じる	-11.0643
だれか	-11.0646
つば	-11.0653
じま	-11.0655
電球	-11.0655
すね	-11.0658
トレ	-11.066
▁空中	-11.0662
っちゃ	-11.0663
連れて	-11.0663
を得て	-11.0663
▁インフレ	-11.0666
とめること	-11.0667
一座	-11.0668
紅色	-11.0669
免	-11.067
▁給料	-11.0672
面に	-11.0672
▁使い	-11.0674
重み	-11.0675
▁りんご	-11.068
候補	-11.0683
土を	-11.0684
薬を	-11.0688
鋼鉄	-11.0688
▁長期	-11.0693
欲しい	-11.0694
悪いこと	-11.0695
気力	-11.0696
見当	-11.07
受け取る	-11.0701
を傷つける	-11.0701
有毒	-11.0702
を敷く	-11.0702
あだ	-11.0704
くない	-11.0707
に終わる	-11.0708
ヘ	-11.0709
英語の	-11.071
三十	-11.071
に着いた	-11.071
心臓	-11.0712
ここで	-11.0715
ある人	-11.0716
ダイ	-11.0716
▁この種の	-11.0716
強硬	-11.0717
▁国家の	-11.0718
奉仕	-11.0718
I	-11.0718
出さない	-11.0719
申し込み	-11.0719
についた	-11.072
吸	-11.0721
言い分	-11.0722
▁地下	-11.0723
▁盛	-11.0724
まらない	-11.0725
一人で	-11.073
かおり	-11.0731
自分に	-11.0734
攻撃する	-11.0736
▁兄	-11.0738
品を	-11.0738
補助	-11.0738
▁夕方	-11.0741
▁大衆	-11.0741
気風	-11.0742
じゃま	-11.0743
月の	-11.0747
グラフ	-11.0749
動力	-11.0751
を増す	-11.0751
を忘れ	-11.0753
硬	-11.0753
闇	-11.0754
ばかな	-11.0754
分けること	-11.0757
透	-11.076
軍艦	-11.0764
みつ	-11.0764
▁賞	-11.0764
間隔	-11.0767
▁たとえ	-11.0767
おさめ	-11.0768
競馬	-11.0768
頼	-11.0769
飽	-11.0771
傍	-11.0771
固体	-11.0772
▁明るい	-11.0773
卓	-11.0774
二つ以上の	-11.0774
美しいこと	-11.0777
吉	-11.0778
その人の	-11.0778
乗客	-11.0779
中国で	-11.0779
▁島	-11.078
▁娘	-11.078
▁貸し	-11.0784
ばな	-11.0784
建てた	-11.0786
人類	-11.0786
▁何となく	-11.0787
▁本を	-11.0788
は一	-11.0788
水中	-11.0789
酸化	-11.079
▁高い	-11.0795
慕	-11.0798
もとになる	-11.0801
胸が	-11.0801
を離れて	-11.0804
に満ちた	-11.0807
▁割	-11.0808
添	-11.0809
見えた	-11.0809
を捜す	-11.0813
▁従	-11.0813
押して	-11.0815
納得	-11.0816
の準備	-11.0816
つかない	-11.0817
た人	-11.0817
買って	-11.0818
▁偶然	-11.0819
踊る	-11.0819
やけ	-11.082
客に	-11.0821
作ったもの	-11.0824
ウイルス	-11.083
▁書物の	-11.0831
良心	-11.0831
速さ	-11.0831
物事をする	-11.0831
川口	-11.0832
を買って	-11.0833
磁	-11.0834
触れる	-11.0835
維持	-11.0835
醜	-11.0836
災	-11.0836
あく	-11.0836
植える	-11.0837
あとから	-11.0839
認める	-11.0842
けれど	-11.0843
▁わき	-11.0844
頼り	-11.0844
に思う	-11.0844
収集	-11.0845
引用	-11.0847
締まった	-11.0847
一生懸命	-11.0848
▁ぼ	-11.0848
洞	-11.0848
節約	-11.0849
えている	-11.085
なくてはならない	-11.0851
けん	-11.0852
▁あれは	-11.0852
な話	-11.0853
糧	-11.0853
芳香	-11.0854
撮影	-11.0855
かたい	-11.0856
潤	-11.0856
▁for	-11.0856
劼	-11.0856
煮た	-11.0856
瞭	-11.0856
希	-11.0856
蓮	-11.0856
廃止	-11.0856
監視	-11.0857
が同じ	-11.0857
辱	-11.0857
ふち	-11.0857
旬	-11.0857
伐	-11.0858
資源	-11.0858
笠	-11.0858
萌	-11.0858
疲れる	-11.0858
宵	-11.0858
遍	-11.0858
椶	-11.0858
蛾	-11.0858
動揺	-11.0858
宣言	-11.0858
柿	-11.0858
鮓	-11.0858
桶	-11.0858
颪	-11.0858
北海道	-11.0858
覚悟	-11.0858
漢方薬	-11.0858
の持ち主	-11.0859
▁ち	-11.0859
元気かい私の予約状況	-11.0859
を伴う	-11.0859
領域	-11.0859
叩き	-11.0859
警告	-11.0859
五十	-11.0859
今日の気温	-11.086
接触	-11.086
超過	-11.086
討議	-11.086
徹底的に	-11.086
直径	-11.086
成果	-11.086
ヒット	-11.0861
登録	-11.0861
往来	-11.0861
弁舌	-11.0862
カラー	-11.0862
元気かい予約状況を削除	-11.0862
コードのページすぐ	-11.0862
付近	-11.0862
ウェッブページをすぐ	-11.0862
を有する	-11.0863
石けん	-11.0863
運営	-11.0864
やわらかい	-11.0864
炭素	-11.0864
を奪う	-11.0864
茶わん	-11.0865
▁甲	-11.0867
サン	-11.0868
ぐっと	-11.0869
マイ	-11.087
かわい	-11.0872
けれども	-11.0873
またその人	-11.0873
飲んだ	-11.0874
を伸ばす	-11.0875
外観	-11.0875
ようになっている	-11.0875
自治	-11.0876
▁ポ	-11.0877
▁この車は	-11.0877
を固める	-11.0878
雇用	-11.0878
会談	-11.0879
広がる	-11.0882
廻	-11.0882
街道	-11.0882
世界の	-11.0882
だれが	-11.0883
正確な	-11.0884
馴れ	-11.0885
情熱	-11.0886
▁人民	-11.0886
磁石	-11.0886
代表的な	-11.0888
天気は	-11.0888
質量	-11.0889
機関車	-11.089
それをする人	-11.089
上位	-11.089
赤ちゃん	-11.0891
トロ	-11.0891
▁ハイ	-11.0895
▁売	-11.0896
変化する	-11.0897
かせた	-11.0897
ものはない	-11.0898
刻み	-11.0899
するだろう	-11.09
メッセージいまから	-11.09
焦げ	-11.09
社会的	-11.0902
地所	-11.0904
▁実験	-11.0904
山林	-11.0907
骨折り	-11.0907
駐車場	-11.0907
を使い	-11.0907
仕上げる	-11.0907
はじめて	-11.0907
クラスの	-11.0908
音階	-11.0909
割引	-11.0909
台風	-11.0911
▁重い	-11.0912
名称	-11.0912
▁独	-11.0912
▁商品	-11.0913
洗礼	-11.0913
大使	-11.0913
たたく	-11.0915
現世	-11.0915
ar	-11.0917
ぐさ	-11.092
相違	-11.092
生計	-11.0921
馬車	-11.0922
取り上げる	-11.0923
麻薬	-11.0927
直接に	-11.0929
フランス	-11.093
すわった	-11.0931
巧みな	-11.0931
臭気	-11.0931
見ると	-11.0933
ついに	-11.0934
意を表す語	-11.0934
の第	-11.0934
▁医者	-11.0935
たての	-11.0936
木村	-11.0937
演奏する	-11.0939
のしかた	-11.094
いり	-11.094
並べた	-11.0943
を支配する	-11.0944
を聞いた	-11.0945
▁汗	-11.0945
ぬけ	-11.0946
▁競	-11.0951
▁どう	-11.0954
▁しゅ	-11.0956
いかない	-11.0957
▁飛行機	-11.0957
これが	-11.0959
に訴える	-11.0961
すら	-11.0962
▁新たに	-11.0962
巧みに	-11.0965
栽培する	-11.0966
車に	-11.0968
周囲に	-11.097
元気かいの予約状況を変更	-11.0978
▁賃金	-11.098
じょう	-11.098
の病気	-11.0983
▁大勢	-11.0983
▁町の	-11.0985
▁天皇が	-11.0987
▁あなたに	-11.0987
ございます	-11.099
正式に	-11.0992
▁人工	-11.0992
を寄せる	-11.0993
▁あの人の	-11.0995
二十	-11.0999
法定	-11.1
ばかりだ	-11.1003
秋の	-11.1004
ことには	-11.1008
を組む	-11.1008
精神的	-11.1009
▁トランプ	-11.1011
中から	-11.1013
追放	-11.1014
を過ごす	-11.1014
▁裁判	-11.1015
ごらん	-11.1016
ファン	-11.1018
ばば	-11.1018
音を立てる	-11.1021
関数	-11.1023
▁浅	-11.1023
へりくだって言う語	-11.1024
香気	-11.1025
去った	-11.1029
回って	-11.1032
▁ショートメッセージ送信	-11.1036
を隠す	-11.1037
▁中国の	-11.104
光る	-11.104
会った	-11.1041
▁速	-11.1046
ものであること	-11.1048
▁八	-11.1048
は非常に	-11.1048
▁猛	-11.1049
を振る	-11.1051
▁イエス	-11.1051
乗り物	-11.1051
の形式	-11.1052
議事	-11.1057
伸びる	-11.1059
まっすぐ	-11.1061
▁すぐに電話をかける	-11.1062
本来の	-11.1066
くさい	-11.1066
ふさが	-11.1066
立ち去る	-11.107
▁強く	-11.1071
人工	-11.1072
▁近代	-11.1072
知性	-11.1074
けない	-11.1074
▁夏の	-11.1077
の時代	-11.1078
かぶる	-11.1078
まち	-11.108
かび	-11.1081
▁つい	-11.1082
▁悲しみ	-11.1082
長官	-11.1082
▁はっきりと	-11.1083
▁上着	-11.1083
等しい	-11.1084
うんざり	-11.1085
に従事する	-11.109
覚えている	-11.1092
呼	-11.1093
▁実際の	-11.1095
この辺	-11.1095
守ること	-11.1095
斜面	-11.1096
を唱える	-11.1097
ように見える	-11.1098
の値	-11.1099
▁頭を	-11.11
▁ぶどう	-11.1101
▁張り	-11.1104
病気が	-11.1104
煮る	-11.1106
誘惑	-11.1106
▁彼は今	-11.1106
調べる	-11.1107
▁折	-11.1108
物音	-11.1109
▁軍事	-11.1109
に働く	-11.111
はだめだ	-11.1111
下り	-11.1112
ばかりで	-11.1113
バイ	-11.1114
報い	-11.1116
昇進	-11.1117
▁わが国	-11.1118
要点	-11.1119
窓から	-11.112
似た	-11.1121
▁私の元気かいの予約	-11.1123
商品を	-11.1123
25	-11.1124
をひく	-11.1125
わずかな	-11.1128
▁水上	-11.1131
小道	-11.1131
変わらない	-11.1133
▁標準	-11.1137
▁机	-11.1137
▁沈	-11.1138
▁熟	-11.114
▁羽	-11.1142
▁全体	-11.1142
光の	-11.1148
▁幼	-11.1148
再生	-11.1149
を持たない	-11.1153
キリスト	-11.1154
不法	-11.1155
▁手紙を	-11.1155
大事に	-11.1156
ためしに	-11.1158
共同	-11.1163
依頼	-11.1164
▁古代	-11.1164
地下	-11.1164
▁プロ	-11.1168
の建物	-11.1169
さまざま	-11.1169
るようにする	-11.1171
償	-11.1171
タイプ	-11.1172
なくても	-11.1172
その地方	-11.1173
▁ビ	-11.1174
誕生日	-11.1176
利き	-11.1176
礼拝	-11.1176
にまで	-11.1178
を見つける	-11.1178
学校で	-11.1182
▁液体	-11.1182
そく	-11.1183
▁食糧	-11.1185
対抗	-11.1185
焼いて	-11.1187
一部分	-11.1189
▁からだ	-11.1191
借りた	-11.1194
ちょうどよい	-11.1194
▁彼は病気	-11.1196
つくった	-11.1196
出世	-11.1197
金を使う	-11.1199
▁準	-11.12
たまった	-11.12
ひろ	-11.1202
飾る	-11.1202
隔	-11.1203
溶	-11.1203
粗末な	-11.1205
膝	-11.1206
ないでください	-11.1206
危	-11.1208
礼儀	-11.1208
▁たん	-11.1209
貧困	-11.1209
▁ろう	-11.121
an	-11.121
▁魔	-11.1211
に出す	-11.1212
れんが	-11.1212
お世辞	-11.1213
昼食	-11.1214
あな	-11.1214
彼らに	-11.1214
やせ	-11.1215
総合	-11.1216
▁人種	-11.1217
気づか	-11.1217
▁猫は	-11.1217
を受けている	-11.1218
恋愛	-11.1218
文芸	-11.1221
合併	-11.1222
▁まったくの	-11.1223
▁雪が	-11.1225
複雑	-11.1226
を与えて	-11.1226
送ること	-11.1226
発生する	-11.1227
▁すべての	-11.1228
伝えること	-11.1228
▁竜	-11.1228
慈悲	-11.1229
暴力	-11.1229
万物	-11.1229
▁英語の	-11.1233
しています	-11.1235
賛	-11.1236
予期	-11.1237
とされる	-11.1237
斜めに	-11.1239
▁その後	-11.124
をあけて	-11.124
制服	-11.124
▁笑い	-11.1242
団結	-11.1242
何度も	-11.1242
長所	-11.1243
巻く	-11.1244
を忘れる	-11.1244
掃	-11.1246
▁相撲	-11.1247
材木	-11.1247
スキー	-11.1247
刑事	-11.125
許す	-11.125
の中には	-11.125
▁me	-11.1252
一文	-11.1252
蒸気	-11.1252
▁第一	-11.1252
▁全部	-11.1254
拠	-11.1254
続け	-11.1255
▁早く	-11.1255
ずること	-11.1256
▁it	-11.1257
展	-11.1258
食べて	-11.1258
▁男の	-11.1259
儒	-11.1259
うわべ	-11.126
▁少年	-11.126
生える	-11.1261
代わりに	-11.1261
▁フランス	-11.1263
一心に	-11.1263
兆	-11.1265
▁不思議な	-11.1266
偶	-11.1267
くらいの	-11.1268
▁干	-11.1268
僚	-11.1268
池田	-11.1268
鑑	-11.1268
由	-11.1269
寺の	-11.1269
河川	-11.1269
を表す語	-11.127
括	-11.1271
江	-11.1271
寿司	-11.1271
間に合う	-11.1271
邸	-11.1272
免許	-11.1273
サラダ	-11.1273
石灰	-11.1274
誌	-11.1274
はなはだしい	-11.1274
流す	-11.1274
櫃	-11.1274
詐欺	-11.1274
適応	-11.1275
にもかかわらず	-11.1275
嵐	-11.1275
佳	-11.1275
督	-11.1275
ゾ	-11.1275
長谷川	-11.1275
鮗	-11.1275
▁んー安全かどうかのチェック	-11.1275
鷲	-11.1275
鹿児島	-11.1275
屑	-11.1275
駒込	-11.1275
働いている	-11.1275
落ち着かない	-11.1275
せっけん	-11.1275
唾	-11.1275
▁そいつは	-11.1275
広がり	-11.1275
余裕	-11.1275
拒絶	-11.1275
思慮	-11.1275
採決	-11.1276
プール	-11.1276
移植	-11.1276
供養	-11.1276
土壌	-11.1276
審理	-11.1276
断わる	-11.1276
冷却	-11.1276
起訴	-11.1276
麻酔	-11.1277
弁当	-11.1277
の群れ	-11.1277
拒否	-11.1277
諸島	-11.1277
を高める	-11.1277
ダム	-11.1278
陣営	-11.1278
詳しい	-11.1278
側面	-11.1278
プラス	-11.1278
ならわし	-11.1278
感想	-11.1279
セ氏	-11.1279
談判	-11.1279
鶴見	-11.128
ジャ	-11.128
推論	-11.1281
定まった	-11.1281
追跡	-11.1281
まともに	-11.1282
いいか教えて	-11.1282
配給	-11.1282
のではない	-11.1283
土地を	-11.1283
何時間も	-11.1283
科の鳥	-11.1284
修正	-11.1284
色彩	-11.1284
元気かいの予約削除	-11.1284
能率	-11.1284
ペンス	-11.1284
熱狂	-11.1285
共有	-11.1285
祖先	-11.1285
卵を	-11.1286
ぶき	-11.1287
おそ	-11.1287
を振るう	-11.1289
早春	-11.129
▁やっと	-11.129
善悪	-11.1291
を詰める	-11.1292
自在	-11.1293
中国原産	-11.1293
奥さん	-11.1293
までの間	-11.1293
特権	-11.1295
書類を	-11.1297
うる	-11.1297
気象	-11.1297
▁難	-11.1298
▁食事	-11.1298
校長	-11.1299
風が	-11.1299
設ける	-11.13
▁信用	-11.1302
▁壁に	-11.1302
富山	-11.1302
毛布	-11.1304
▁人は	-11.1305
っていく	-11.1307
氏名	-11.1307
一気に	-11.1308
天地	-11.1308
になるもの	-11.1309
▁市場	-11.1309
ところを	-11.131
どうやって	-11.1312
に乏しい	-11.1313
▁川の	-11.1313
料理屋	-11.1313
針金	-11.1315
かぎり	-11.1316
▁伝	-11.1316
親しい	-11.1317
んでいた	-11.1318
やってくる	-11.1319
死体	-11.1319
一族	-11.1322
▁海外	-11.1323
▁時計を	-11.1324
子孫	-11.1327
定めること	-11.1327
▁彼女は夫	-11.1328
破り	-11.1328
▁ちょっとした	-11.1328
を犯す	-11.1329
は私に	-11.1329
木の枝	-11.1329
あける	-11.133
交差	-11.1331
外国人	-11.1332
落とした	-11.1333
こな	-11.1334
▁会員	-11.1335
切れる	-11.1335
なぜ	-11.1336
の一人	-11.1337
▁二つ以上の	-11.1337
用法	-11.1337
酸性	-11.1341
スク	-11.1341
食物を	-11.1342
の少ない	-11.1342
巻いた	-11.1343
太り	-11.1345
で写真を送	-11.1346
太く	-11.1348
ねた	-11.1348
返して	-11.1352
責め	-11.1353
につくこと	-11.1353
御徒町	-11.1354
だけだった	-11.1354
発車	-11.1354
元気かいの予約を変更	-11.1355
の成績	-11.1355
▁費用	-11.1356
両面	-11.1357
テレビで	-11.1358
成り	-11.1361
トラ	-11.1362
出ている	-11.1365
を振り	-11.1371
の身	-11.1371
専門家	-11.1372
▁彼らが	-11.1375
公正	-11.1377
国民の	-11.1378
ご親切	-11.1378
▁この仕事は	-11.1382
▁踏み	-11.1386
飲み物	-11.1389
▁欠	-11.139
退く	-11.1392
すわり	-11.1393
去ること	-11.1394
んぼ	-11.1395
の練習	-11.1399
▁晩	-11.1402
家で	-11.1405
ひた	-11.1407
存する	-11.1407
ント	-11.1408
▁水泳	-11.1411
口調で	-11.1411
▁君たち	-11.1414
合金	-11.1415
ガン	-11.1415
を占める	-11.1417
当地	-11.1418
金は	-11.1419
全面	-11.142
なしで	-11.142
を消す	-11.1421
▁食卓	-11.1424
肉体	-11.1428
国家が	-11.1428
子供が	-11.1429
我々を	-11.143
▁皮	-11.1431
▁六	-11.1431
いれる	-11.1431
みせ	-11.1431
よけ	-11.1432
とかく	-11.1433
▁国会	-11.1433
▁筋肉	-11.1434
▁彼女は彼に	-11.1434
▁その計画は	-11.144
▁観	-11.1441
問題だ	-11.1441
を覆う	-11.1442
▁助	-11.1443
▁捨て	-11.1443
道は	-11.1443
外国から	-11.1444
アメリカ人	-11.1446
▁勢い	-11.1447
所がある	-11.1448
大体の	-11.1448
支払う	-11.1451
楽な	-11.1451
きたない	-11.1455
忘れる	-11.1455
▁人気	-11.1456
▁強い	-11.146
お手	-11.146
割合	-11.1462
暗やみ	-11.1462
▁陽	-11.1464
遠くまで	-11.1469
停車	-11.1471
▁飛	-11.1472
▁階段	-11.1472
字形	-11.1472
差し出す	-11.1473
▁返	-11.1474
▁ほう	-11.1475
▁警察は	-11.148
純粋	-11.148
が激しく	-11.1484
対等	-11.1485
いすに	-11.1487
▁風は	-11.1487
世に	-11.1489
遇	-11.1492
▁実際に	-11.1493
歯が	-11.1493
▁ボ	-11.1493
▁中央	-11.1493
の妻	-11.1494
憲	-11.1499
と思っていた	-11.15
まっている	-11.1502
新年	-11.1502
千人	-11.1502
意を表す	-11.1503
▁事件	-11.1504
目下	-11.1505
▁船橋	-11.1507
に耐える	-11.1508
魚の	-11.151
を変えること	-11.1511
▁群	-11.1511
多いこと	-11.1511
社会主義	-11.1512
いません	-11.1514
▁酒を	-11.1515
探	-11.1515
受け入れる	-11.1516
の口	-11.152
▁順序	-11.1522
争うこと	-11.1522
腫	-11.1523
▁ある人	-11.1523
アン	-11.1524
▁□・	-11.1525
がいる	-11.1528
安く	-11.1532
たって	-11.1535
に直接	-11.1537
▁ええ	-11.1537
を変えて	-11.1541
ものを言う	-11.1542
ほし	-11.1542
▁列	-11.1543
をしていた	-11.1544
腕に	-11.1545
をひどく	-11.1546
他国	-11.1552
▁そんなことは	-11.1552
枯	-11.1553
▁子供の	-11.1553
を伝える	-11.1554
品位	-11.1554
直すこと	-11.1555
務め	-11.1555
離れた	-11.1555
が見える	-11.1561
喜	-11.1565
学ぶ	-11.1569
投	-11.157
▁夫	-11.1571
されていない	-11.1572
▁うわさ	-11.1572
遅く	-11.1572
のだろう	-11.1575
いか	-11.1576
毛織物	-11.1576
すわって	-11.1576
近づく	-11.1577
をもった	-11.158
▁二つ	-11.1584
文を	-11.1585
▁だれかが	-11.1589
を聞き	-11.1593
▁皇	-11.1594
調節	-11.1595
隔て	-11.1595
▁照	-11.1597
を催す	-11.16
しだ	-11.1604
絵を	-11.1606
―	-11.1606
ことができた	-11.1607
▁休暇	-11.1607
いろいろと	-11.1607
▁手紙の	-11.1609
に当たった	-11.1609
学説	-11.161
▁三角	-11.1613
顧	-11.1613
注目	-11.1614
▁投票	-11.1614
マス	-11.1617
テレビの	-11.1617
▁建物の	-11.1617
ボートを	-11.1618
は私には	-11.1619
三人	-11.1622
どうした	-11.1622
▁違う	-11.1622
▁ねじ	-11.1624
にふさわしい	-11.1625
求める	-11.1626
▁フォ	-11.1629
痛む	-11.1629
at	-11.163
社会の	-11.1631
を言った	-11.1632
驚	-11.1633
わずかの	-11.1635
最上	-11.1637
▁夜の	-11.1637
工作	-11.164
の法則	-11.1643
を焼く	-11.1647
ままで	-11.1648
図書	-11.1648
▁大声で	-11.1652
▁産	-11.1652
ぜいたく	-11.1654
帰って	-11.1656
▁特別に	-11.1656
果て	-11.1657
にせ	-11.1658
レン	-11.1659
お辞儀	-11.166
▁引っ	-11.1661
を引き起こす	-11.1661
▁ユ	-11.1664
担当	-11.1665
充	-11.1666
▁ペン	-11.1666
賞賛	-11.1667
合わせること	-11.1667
メッセージすぐに	-11.1667
楽に	-11.1669
学期	-11.1669
家事	-11.1671
してくれる	-11.1671
▁推	-11.1672
返り	-11.1673
同じであること	-11.1673
▁何を	-11.1675
できません	-11.1676
漆	-11.1676
浜	-11.1676
飼	-11.1676
うそつき	-11.1677
パーティーに	-11.1677
法人	-11.1679
弁解	-11.168
▁注文	-11.1681
の字	-11.1681
の祝い	-11.1681
遅刻	-11.1682
患	-11.1682
統計	-11.1682
外へ	-11.1682
仙	-11.1683
▁機会	-11.1683
は日本	-11.1684
の幅	-11.1684
民衆	-11.1687
故郷	-11.1687
お父さん	-11.1688
役割	-11.169
役に立	-11.169
告げ	-11.1692
就	-11.1692
の根	-11.1692
異議	-11.1692
頬	-11.1692
拙	-11.1693
真偽	-11.1694
井戸	-11.1694
巾	-11.1697
電信	-11.1697
架	-11.1699
カーテン	-11.1699
もてなす	-11.1699
謡	-11.1701
援	-11.1701
りょう	-11.1702
釈	-11.1703
陸軍	-11.1703
推	-11.1703
三つの	-11.1703
規準	-11.1703
為替	-11.1704
▁相手に	-11.1704
ヨット	-11.1705
仏像	-11.1706
画像	-11.1706
頻	-11.1707
省略	-11.1708
諾	-11.1708
己	-11.1708
意思	-11.1708
▁精神的	-11.1708
改良	-11.1709
篤	-11.1709
疑わしい	-11.1709
センター	-11.1709
糊	-11.1709
蟻	-11.1709
撫	-11.1709
ジョーンズ	-11.1709
新大久保	-11.1709
猶予	-11.1709
▁えーっと安全度の診断	-11.1709
▁えー安全かどうかの自己診断	-11.1709
ヲ	-11.1709
オランダ	-11.1709
鮨	-11.1709
マラリア	-11.1709
舷	-11.1709
昂	-11.1709
に適した	-11.1709
配偶者	-11.1709
茶碗	-11.1709
宣誓	-11.171
大急ぎで	-11.171
プログラム	-11.171
俸給	-11.171
稽古	-11.171
こつこつ	-11.171
孫さん	-11.171
焦点	-11.171
ぼろぼろ	-11.171
暖房	-11.171
企画	-11.171
静岡	-11.171
やかましい	-11.171
起伏	-11.1711
感染	-11.1711
ダブル	-11.1711
▁月が	-11.1711
開閉	-11.1711
1000	-11.1711
をやめて	-11.1711
チュ	-11.1711
ジャック	-11.1711
融通	-11.1711
返答	-11.1712
住居	-11.1712
助かる	-11.1712
孝行	-11.1712
水晶	-11.1712
弦楽器	-11.1712
敗北	-11.1712
ほほえみ	-11.1712
給仕	-11.1712
肺炎	-11.1712
羽織	-11.1712
航路	-11.1712
宮殿	-11.1712
しきたり	-11.1713
同様	-11.1713
バンド	-11.1713
暴風雨	-11.1713
迷信	-11.1713
推進	-11.1713
わがまま	-11.1713
たいへん	-11.1713
測量	-11.1714
大輔	-11.1714
英語を話す	-11.1714
書かれた	-11.1714
学識	-11.1714
仙台	-11.1715
に基づく	-11.1715
あわてて	-11.1715
阿部	-11.1715
講師	-11.1715
牧師	-11.1715
道ばた	-11.1716
集める	-11.1717
別称	-11.1717
南極	-11.1718
女優	-11.1718
およそ	-11.1718
四谷	-11.1718
握手	-11.1718
ことがない	-11.1718
産卵	-11.1719
すこし	-11.1719
重なる	-11.1719
手紙を書く	-11.172
警報	-11.172
ひび	-11.172
▁陸軍	-11.1721
散らし	-11.1722
特性	-11.1722
うちわ	-11.1722
樹皮	-11.1723
領地	-11.1725
を離れる	-11.1725
複数	-11.1727
艦船	-11.1728
▁私は彼に	-11.1728
うまくいった	-11.1729
▁平均	-11.1729
微妙な	-11.1729
神秘	-11.173
食塩	-11.173
退職	-11.1732
は彼が	-11.1733
化石	-11.1735
ききめ	-11.1735
小銃	-11.1735
と言っても	-11.1736
の形に	-11.1737
▁恐怖	-11.1737
好機	-11.1739
二階	-11.1742
食事を	-11.1742
教室	-11.1745
案外	-11.1747
▁日本は	-11.1751
体質	-11.1751
るために	-11.1751
済む	-11.1753
の布	-11.1753
万ドル	-11.1754
あす	-11.1755
必要である	-11.1757
高等	-11.1757
指名	-11.1758
をしない	-11.1758
・△	-11.176
▁何でも	-11.1761
紅葉	-11.1761
いまから電話したい	-11.1762
にわか	-11.1765
の命令	-11.1767
来月	-11.1768
それとも	-11.177
よみ	-11.1771
変わる	-11.1774
水辺	-11.1775
を越える	-11.1778
の場合	-11.1778
大切	-11.1779
香り	-11.1779
ちょっと電話したい	-11.1781
関係がある	-11.1781
はだれも	-11.1782
ざる	-11.1782
▁隣	-11.1782
体つき	-11.1782
発達した	-11.1783
組み合わせ	-11.1783
ぬれ	-11.1784
波が	-11.1784
努力して	-11.1785
通話	-11.1786
設け	-11.1786
染色	-11.1786
en	-11.179
の便	-11.1792
時に使う	-11.1795
を強めて言う	-11.1796
暖か	-11.1796
▁いなか	-11.1798
はしご	-11.1798
かぶり	-11.18
サイ	-11.1801
会見	-11.1803
▁攻撃	-11.1804
与えられる	-11.1806
たね	-11.1808
判事	-11.1808
おこす	-11.1809
何度	-11.181
頑	-11.1811
かかっている	-11.1813
が終わる	-11.1814
なのか	-11.1814
を買い	-11.1815
寄	-11.1816
張って	-11.1818
全体が	-11.1819
むやみに	-11.1819
▁付け	-11.1823
耐え	-11.1824
をあらわす	-11.1826
使用する	-11.1828
▁浄	-11.1828
すべり	-11.183
ップ	-11.183
すべ	-11.1835
▁7	-11.1835
しっと	-11.1836
やってみ	-11.1837
抜け出	-11.1837
言論	-11.1838
のうわさ	-11.1841
鬚垢	-11.1845
もく	-11.1847
ていく	-11.1847
果実は	-11.1849
バン	-11.185
▁弾丸	-11.1852
▁in	-11.1852
を始めた	-11.1852
ブレーキ	-11.1854
ばく	-11.1855
重さ	-11.1855
の先に	-11.1856
▁シャ	-11.1857
面から	-11.1858
個人の	-11.1859
動くこと	-11.1864
漫画	-11.1865
の高さ	-11.1868
気持が	-11.1869
行きたい	-11.1873
形成	-11.1873
▁凡	-11.1875
▁逸	-11.1875
万事	-11.188
▁そこに	-11.1881
▁火の	-11.1882
初期	-11.1883
意外	-11.1887
に代わって	-11.1887
先が	-11.1887
教える	-11.1888
まかせ	-11.1889
目的地	-11.1889
決して	-11.189
うしろ	-11.189
ボン	-11.1893
愉快	-11.1893
群がって	-11.1895
es	-11.1895
前線	-11.1896
滑り	-11.19
▁宣伝	-11.1902
▁田舎	-11.1903
つもりで	-11.1903
なしの	-11.1905
▁寒さ	-11.1907
考えた	-11.1907
ずれ	-11.1909
の内側	-11.191
でメッセ送	-11.1912
お互いに	-11.1913
ルト	-11.1914
たびに	-11.1915
時半	-11.1916
整理する	-11.1917
▁十分に	-11.192
シン	-11.1926
慎重に	-11.1928
のかたまり	-11.193
今日の天気はどう	-11.1931
キス	-11.1932
ふな	-11.1932
▁ここは	-11.1934
▁蹴	-11.1934
の品	-11.1938
は我々	-11.1941
居る	-11.1942
のように見える	-11.1942
▁ぜひ	-11.1942
いかに	-11.1944
信者	-11.1945
▁予備	-11.1945
帰った	-11.1946
苗	-11.1946
▁授業	-11.1948
につけた	-11.1951
の動物	-11.1952
むり	-11.1953
▁何も	-11.1955
▁彼はよく	-11.1958
産の	-11.1958
▁金属	-11.1959
荷車	-11.1967
あれこれ	-11.1967
心中	-11.1967
▁四つ	-11.1971
▁たい	-11.1972
分に	-11.1972
がさ	-11.1973
確かめ	-11.1973
ゆくこと	-11.1973
▁香	-11.1975
加える	-11.1977
いれ	-11.1977
かけら	-11.1978
天然	-11.1978
ほめる	-11.1979
の雨	-11.1979
そなえ	-11.198
働きをする	-11.1981
効力	-11.1982
完全	-11.1982
嫌いだ	-11.1984
面倒	-11.1984
守備	-11.1984
少数	-11.1987
▁ドイツ	-11.1989
骨折	-11.1991
▁一年	-11.1994
行きの	-11.1995
繰り返して	-11.1996
を並べて	-11.1999
染	-11.2001
▁ちょっと電話する	-11.2002
▁陰暦	-11.2003
一等	-11.2004
▁追い	-11.2008
船の	-11.2008
に分ける	-11.2009
るところ	-11.201
▁この本	-11.2011
芸人	-11.2012
作文	-11.2012
起こること	-11.2014
一対	-11.2014
海面	-11.2015
こび	-11.2015
対立する	-11.2016
十字	-11.2016
うた	-11.2018
▁今度	-11.202
っけ	-11.2021
▁宝	-11.2022
貧しい	-11.2026
医者に	-11.203
むだな	-11.2032
本式	-11.2034
保つ	-11.2036
優劣	-11.2037
で見る	-11.204
載せる	-11.2043
を貸す	-11.2045
受け入れ	-11.2047
▁本の	-11.2048
▁頭の	-11.2049
せること	-11.2053
文字を	-11.2054
報告書	-11.2054
けり	-11.2054
て行く	-11.2055
下着	-11.2055
吐き	-11.2057
食事をする	-11.2057
▁すぐに電話かける	-11.2059
をあける	-11.206
総計	-11.2061
▁遠慮	-11.2062
たない	-11.2065
にできる	-11.2068
ことのできる	-11.2072
変な	-11.2073
つぐ	-11.2075
海水	-11.2075
展示	-11.2075
▁粘土	-11.2077
詩文	-11.2079
▁巡	-11.208
先端	-11.2081
青果店	-11.2084
言っている	-11.2085
ゆっくりと	-11.2086
てやる	-11.2086
のほかに	-11.2089
そのための	-11.209
のがれ	-11.2092
を見つけた	-11.2092
を尽くす	-11.2094
を組んで	-11.2098
斬	-11.2098
を要する	-11.21
or	-11.21
いやだ	-11.2101
はやり	-11.2101
大勢の	-11.2101
殺すこと	-11.2102
とするもの	-11.2103
▁高く	-11.2103
話に	-11.2106
探検	-11.2106
けつ	-11.2107
座る	-11.2108
決まった	-11.2109
堀	-11.211
▁彼は金	-11.2112
たりすること	-11.2115
▁朱	-11.2115
▁使い方	-11.2115
▁事故	-11.2117
催し	-11.2117
るもの	-11.2118
長い間	-11.2121
着物の	-11.2127
いも	-11.2129
メッセージちょっと	-11.2129
▁体を	-11.2129
出発する	-11.2132
▁みかん	-11.2133
三角	-11.2133
熱病	-11.2134
▁手を	-11.2139
▁それは君の	-11.2139
柏	-11.214
▁蛇	-11.214
家畜	-11.2141
なければいけない	-11.2143
真の	-11.2144
徹底	-11.2147
寿	-11.2148
▁梅	-11.2148
に通じ	-11.2149
を流す	-11.2149
祈り	-11.2151
▁遅	-11.2153
▁書物	-11.2154
和服	-11.2154
厭	-11.2155
署	-11.2155
口をきく	-11.2157
▁長い間	-11.2158
やること	-11.2158
▁観光	-11.2158
怨	-11.2158
とがめ	-11.2158
億	-11.2158
幸子	-11.2159
幣	-11.216
慣習	-11.216
強制	-11.2161
コンビニ	-11.2161
堕落	-11.2162
ッシュ	-11.2162
酌	-11.2162
英語で	-11.2162
痴	-11.2163
寛	-11.2163
発揮	-11.2163
渇	-11.2163
粛	-11.2163
撰	-11.2163
妓	-11.2163
糠	-11.2164
あちら	-11.2164
システム	-11.2164
錫	-11.2164
チェス	-11.2164
叉	-11.2164
廚	-11.2164
慾	-11.2164
瓜	-11.2164
蛋白質	-11.2164
×	-11.2164
▁船舶	-11.2164
狐	-11.2164
讚	-11.2164
じゃがいも	-11.2164
January	-11.2164
▁あの使い方の診断	-11.2164
▁あの安全チェック	-11.2164
▁えーっと安全かどうかの診断	-11.2164
▁えーっと安全自己診断	-11.2164
を汚す	-11.2164
チャンス	-11.2164
恐ろしさ	-11.2164
葦	-11.2164
キツネ	-11.2164
ワイシャツ	-11.2164
平安時代	-11.2164
杭	-11.2164
稔	-11.2164
蝕	-11.2164
おもむき	-11.2164
鞍	-11.2164
でたらめ	-11.2164
尼崎	-11.2164
都会	-11.2164
セールスマン	-11.2164
ひたすら	-11.2164
措置	-11.2164
あやまち	-11.2164
燃焼	-11.2164
簡易	-11.2164
スケート	-11.2164
摩擦	-11.2164
営利	-11.2165
形容詞	-11.2165
▁そら	-11.2165
救済	-11.2165
工芸	-11.2165
装備	-11.2165
ソース	-11.2165
類似	-11.2166
防衛	-11.2166
雨が降る	-11.2166
まあまあ	-11.2166
▁その船は	-11.2166
砂漠	-11.2166
著しい	-11.2166
あやしい	-11.2166
産する	-11.2167
よくなる	-11.2167
々しく	-11.2167
情緒	-11.2167
武装	-11.2167
高崎	-11.2167
▁去年	-11.2168
にかなった	-11.2168
冷淡	-11.2168
気配	-11.2168
造った	-11.2168
視野	-11.2169
電池	-11.2169
雌雄	-11.2169
調理	-11.2169
▁海岸	-11.2169
円満	-11.2169
ウェッブページすぐ	-11.217
▁台風	-11.217
さつ	-11.217
関内	-11.2171
の壁	-11.2172
ーター	-11.2173
各自	-11.2173
建造物	-11.2173
辞任	-11.2173
漬物	-11.2174
変種	-11.2174
▁カーテン	-11.2175
調布	-11.2176
ののしる	-11.2176
雄弁	-11.2178
智子	-11.2178
平たく	-11.2179
一時的に	-11.2179
田町	-11.2179
▁すぐに電話する	-11.218
が来た	-11.218
鼠	-11.218
不機嫌	-11.2181
好奇心	-11.2181
おとな	-11.2181
▁鉱山	-11.2181
伴奏	-11.2181
▁彼らは彼を	-11.2182
どころか	-11.2182
たとえば	-11.2182
偉い	-11.2182
不景気	-11.2182
奇跡	-11.2183
会計	-11.2183
客が	-11.2183
へた	-11.2184
裂く	-11.2184
俺の元気かいの予約	-11.2186
道義	-11.2187
豪	-11.2188
卑	-11.2188
淫	-11.2189
倫理	-11.2189
泊まる	-11.219
商店	-11.219
統治	-11.219
持ち上げる	-11.2191
教養	-11.2191
衛生	-11.2191
▁体の	-11.2192
流通	-11.2192
▁トラック	-11.2193
伏せ	-11.2193
申し立て	-11.2193
妊娠	-11.2193
を祝う	-11.2193
で写真をちょっと	-11.2194
寂	-11.2195
ユ	-11.2195
どれほど	-11.2196
個ある	-11.2196
続いている	-11.2197
結婚した	-11.2197
月給	-11.2198
打った	-11.2198
旅館	-11.2199
神田	-11.22
経文	-11.2202
組んだ	-11.2202
召使	-11.2202
驚いて	-11.2204
含み	-11.2205
空港	-11.2206
自分たち	-11.2207
一日中	-11.2208
▁染め	-11.2208
人員	-11.2209
育てる	-11.2209
▁凍	-11.221
記憶力	-11.2212
の世話をする	-11.2212
▁お薬屋	-11.2213
批評家	-11.2213
もっともな	-11.2213
延び	-11.2214
▁彼は自分が	-11.2216
新橋	-11.2218
所在	-11.2219
課税	-11.2219
こじき	-11.2219
偽り	-11.222
海軍	-11.2221
ったりして	-11.2221
見張り	-11.2221
刊行	-11.2221
▁彼女はいつも	-11.2221
万人	-11.2222
毛糸	-11.2222
を養う	-11.2223
本人	-11.2224
で話す	-11.2225
向上	-11.2227
ぞう	-11.2227
半分に	-11.2229
目盛り	-11.223
立法	-11.223
出来る	-11.2232
へたな	-11.2234
じめ	-11.2235
戦線	-11.2235
たてる	-11.2237
▁野菜	-11.2239
現状	-11.224
五月	-11.2242
▁漢字	-11.2242
を送	-11.2242
おかね	-11.2244
の立場	-11.2247
その本を	-11.2248
一見	-11.2248
▁主人	-11.2249
の転	-11.225
24	-11.2251
をねらって	-11.2251
声が	-11.2252
▁針	-11.2252
十六	-11.2254
だけが	-11.2254
彼にとって	-11.2259
とがった	-11.2259
止ま	-11.2259
は少しも	-11.2259
賢い	-11.226
うるさく	-11.2261
手腕	-11.2262
メッセージをいまから送信	-11.2262
した人	-11.2263
▁be	-11.2265
を運ぶ	-11.2267
に落ちる	-11.2267
が多くて	-11.2271
現金	-11.2275
なき	-11.2275
▁法廷	-11.2276
しすぎる	-11.2276
不快な	-11.2278
かなければならない	-11.2278
カリ	-11.2278
に耐え	-11.2278
生まれる	-11.2281
てゆく	-11.2284
なんと	-11.2284
行進	-11.2284
▁行政	-11.2285
を示した	-11.2285
動物の	-11.2288
席を	-11.2291
ところです	-11.2294
魚類	-11.2295
運んだ	-11.2296
目玉	-11.2297
▁これから	-11.2299
▁彼はなかなか	-11.23
特別な	-11.23
▁今から	-11.2301
▁お茶	-11.2301
離す	-11.2302
ませて	-11.2305
一致しない	-11.2306
宿屋	-11.2307
▁農	-11.2308
武家	-11.2308
でございます	-11.2309
光沢	-11.231
過去の	-11.2319
▁年の	-11.2323
▁アメリカの	-11.2326
ようにすること	-11.2326
▁彼女は私の	-11.2326
▁ごみ	-11.2327
気分が	-11.2328
▁あの人	-11.233
死の	-11.233
▁誤	-11.2331
乗った	-11.2333
心得	-11.2334
のこ	-11.2334
の内部	-11.2335
茶色の	-11.2336
▁政府の	-11.2338
性的	-11.2339
をまく	-11.2343
▁ここで	-11.2345
つもりです	-11.2345
庭に	-11.2346
▁高級	-11.2348
離れない	-11.2348
▁歩	-11.235
▁焼け	-11.2351
を打って	-11.2353
事務を	-11.2353
寝ること	-11.2354
▁除	-11.2355
科の哺乳動物	-11.2355
意地悪	-11.2356
はすっかり	-11.2357
の表面に	-11.2358
導体	-11.2361
が欲しい	-11.2365
数の	-11.2366
売ること	-11.2367
▁情報	-11.2368
を免れる	-11.2368
ステ	-11.237
心の中	-11.237
主体	-11.2372
ふし	-11.2374
一度に	-11.2381
をつかさどる	-11.2383
に変える	-11.2383
▁冷たい	-11.2384
が弱い	-11.2384
両側	-11.2389
まわし	-11.2389
後ろから	-11.239
二本の	-11.2391
をたてる	-11.2392
▁美術	-11.2392
歌を	-11.2394
▁山野に自生	-11.2397
▁できるだけ	-11.2403
は何ですか	-11.2403
を強く	-11.2404
てくれ	-11.2405
に強い	-11.2405
かたまり	-11.2406
などについて	-11.2407
初めの	-11.2407
▁郵便局	-11.2407
無言	-11.2411
かって	-11.2413
につけて	-11.2414
数える	-11.2416
改め	-11.2417
共通	-11.2417
▁必	-11.2418
身につける	-11.2419
わが国	-11.242
を得ること	-11.242
の四	-11.2421
▁神仏	-11.2422
▁海底	-11.2424
競売	-11.2425
極め	-11.2426
りますか	-11.2427
煮て	-11.2428
▁毎	-11.2432
公平	-11.2432
狭	-11.2433
▁あの子は	-11.2433
妨害	-11.2434
▁税金	-11.2434
▁ダ	-11.2435
▁湿度	-11.2437
防御	-11.244
▁正しい	-11.2443
と考えた	-11.2444
ラム	-11.2447
▁タ	-11.2449
▁演説	-11.2449
貴人の	-11.2454
逮捕	-11.2454
づかい	-11.2455
▁フランス語	-11.2459
▁艶	-11.246
狂い	-11.2461
規律	-11.2461
鉄の	-11.2462
さじ	-11.2464
を張って	-11.2465
の少年	-11.2465
澈	-11.2467
▁何もかも	-11.2467
▁オリンピック	-11.2468
はぎ	-11.2469
降って	-11.2475
さして	-11.2477
開始	-11.2479
▁病気の	-11.2485
協会	-11.2485
挑戦	-11.2486
江戸時代	-11.2487
の巣	-11.2487
健康に	-11.2489
眼球	-11.249
方方	-11.2491
神仏に	-11.2493
消息	-11.2493
▁太陽が	-11.2493
悦	-11.2496
ショートメッセージちょっと	-11.2497
に向かう	-11.2497
▁歳の	-11.2499
に触れる	-11.25
ないようにする	-11.2504
が彼女の	-11.2504
▁今日の天気予報	-11.2505
葉を	-11.2506
よせ	-11.2509
の罪	-11.251
▁輸出	-11.2511
生じた	-11.2515
感じられる	-11.2517
▁地面	-11.2517
出ない	-11.2518
顔の	-11.252
愛する	-11.2521
現れること	-11.2522
足に	-11.2523
▁家具	-11.2523
▁英国の	-11.2526
▁命令	-11.2526
飛行機の	-11.2528
▁不幸	-11.2529
緑色の	-11.2536
空き	-11.2537
続いた	-11.2537
us	-11.2537
黙ってい	-11.2538
先生は	-11.254
は君の	-11.2542
がわ	-11.2543
チン	-11.2545
指で	-11.2545
通して	-11.2547
利口	-11.2548
吸収	-11.255
おち	-11.255
保守	-11.2552
▁元気かいの私の予約	-11.2555
金が	-11.2556
▁砂糖	-11.256
励	-11.256
蒼	-11.2563
は少し	-11.2564
▁特許	-11.2564
のない人	-11.2565
▁パーティー	-11.2569
に富んだ	-11.2575
テン	-11.2576
我々には	-11.2577
伝染	-11.2577
がきかない	-11.2578
▁財政	-11.2579
川の	-11.2579
▁整	-11.2581
▁心を	-11.2583
をさし	-11.2584
尚	-11.2585
誇り	-11.2585
▁ちょっと電話をかける	-11.2586
熱帯	-11.2587
生まれて	-11.2587
押さえ	-11.2588
▁医者は	-11.2588
▁弁護士	-11.2589
忙しく	-11.259
平気で	-11.259
机の上に	-11.259
に答える	-11.2594
忠義	-11.2595
▁寂	-11.2596
主張する	-11.2598
をちょっと	-11.2598
▁あの男	-11.26
捨て	-11.26
便で	-11.2603
友達	-11.2604
すぐれて	-11.2605
うらみ	-11.2605
間違って	-11.2606
遣	-11.2607
▁旅館	-11.2607
ふくれ	-11.2608
いぼ	-11.2609
かねて	-11.2613
一組	-11.2614
ということを	-11.2616
百万	-11.2618
欠乏	-11.2618
▁ワ	-11.2618
特殊	-11.2619
を表わす	-11.2621
啓	-11.2621
惜しい	-11.2622
地形	-11.2622
削り	-11.2622
▁抜き	-11.2622
齢	-11.2623
ダイヤ	-11.2623
を経て	-11.2624
たちに	-11.2625
げない	-11.2629
の中央	-11.2629
に達した	-11.263
従うこと	-11.263
損なう	-11.263
阿佐ヶ谷	-11.263
剛	-11.2631
凡	-11.2632
▁慈善	-11.2633
輿	-11.2634
人間が	-11.2634
胎	-11.2635
穏	-11.2635
申告	-11.2635
隅	-11.2636
▁化粧	-11.2637
曲がり	-11.2637
政府が	-11.2637
肋	-11.2638
著述	-11.2638
を帯びた	-11.2639
陽	-11.2639
運搬	-11.2639
さかずき	-11.2639
芳	-11.2639
爆撃	-11.2639
舵	-11.2639
不自由	-11.2639
誦	-11.2639
紡	-11.2639
鍵	-11.264
オペラ	-11.264
お話し	-11.264
胚	-11.264
尋問	-11.264
尼	-11.264
錬	-11.264
▁喫煙	-11.264
メキシコ	-11.264
喧	-11.264
暁	-11.264
▁えー安全かどうかのチェック	-11.264
▁えー安全自己診断	-11.264
▁んー安全かどうかの診断	-11.264
びっくりした	-11.264
乗組員	-11.264
唄	-11.264
臥	-11.264
諺	-11.264
鞘	-11.264
刺繍	-11.264
稀	-11.264
まなざし	-11.264
よろこび	-11.264
方程式	-11.264
釜	-11.264
ぐるぐる	-11.264
コンクリート	-11.264
屁	-11.264
▁んー安全度のチェック診断	-11.264
はらわた	-11.264
茨木	-11.264
ギター	-11.264
のこぎり	-11.264
威厳	-11.264
是非	-11.2641
専攻	-11.2641
得られる	-11.2641
硫黄	-11.2641
箇条	-11.2641
ow	-11.2641
応援	-11.2641
思考	-11.2641
もらおう	-11.2641
訪ねて	-11.2641
胎児	-11.2641
収縮	-11.2641
簡略	-11.2641
茶の湯	-11.2641
ほんとに	-11.2641
を請う	-11.2641
辛抱	-11.2641
予告	-11.2641
▁国連	-11.2641
科の昆虫	-11.2642
一定期間	-11.2642
節操	-11.2642
楽譜	-11.2642
演芸	-11.2642
スタート	-11.2643
仲裁	-11.2643
知覚	-11.2643
のぞく	-11.2643
あがり	-11.2643
殺菌	-11.2643
うさぎ	-11.2644
単純	-11.2644
▁快	-11.2644
推理	-11.2644
ふとん	-11.2644
コール	-11.2644
公債	-11.2644
山崎	-11.2645
軍備	-11.2645
組合せ	-11.2645
済んだ	-11.2645
木造	-11.2645
表示	-11.2646
を職業とする人	-11.2646
動かし	-11.2646
カバー	-11.2646
▁その場	-11.2646
皮膚が	-11.2646
▁僧	-11.2646
文献	-11.2646
困っている	-11.2647
延長	-11.2648
分担	-11.2648
うどん	-11.2648
▁交	-11.2648
ショート	-11.2649
通勤	-11.2649
▁肌	-11.2649
改正	-11.265
生活を	-11.265
操	-11.265
煙突	-11.265
くらべ	-11.2651
ゆとり	-11.2651
機密	-11.2651
曲がる	-11.2652
選んだ	-11.2652
親族	-11.2652
の精神	-11.2652
を決め	-11.2653
松戸	-11.2653
恵み	-11.2653
▁失業	-11.2653
▁彼女は私	-11.2654
用途	-11.2654
市原	-11.2655
大崎	-11.2655
つまみ	-11.2655
を頼む	-11.2655
活用	-11.2658
甲板	-11.2659
農作物	-11.266
高校	-11.2662
意義	-11.2662
特殊な	-11.2662
機知	-11.2662
▁はっきり	-11.2663
きし	-11.2663
いやしい	-11.2664
運ばれ	-11.2664
常用	-11.2664
▁ド	-11.2664
何もない	-11.2664
てもらいたい	-11.2665
▁契約	-11.2665
生死	-11.2665
縁側	-11.2665
長調	-11.2666
につけ	-11.2666
線路	-11.2667
現われる	-11.2667
結び目	-11.2668
整った	-11.2669
噴火	-11.267
様子が	-11.2671
浴び	-11.2671
ことに決めた	-11.2671
▁貧乏	-11.2671
を変え	-11.2672
番目の	-11.2672
善行	-11.2673
時速	-11.2673
万円の	-11.2673
ハー	-11.2675
種々	-11.2675
を助け	-11.2676
なのだ	-11.268
はすぐ	-11.2681
を働く	-11.2681
▁何とか	-11.2683
魚肉	-11.2684
いなさい	-11.2685
▁養	-11.2685
大声で	-11.2686
腹に	-11.2686
▁競馬	-11.2686
聞こえ	-11.2689
幼	-11.269
ってくる	-11.269
▁馬に	-11.2691
冷たく	-11.2691
泣いて	-11.2692
▁格	-11.2693
寝床	-11.2694
かぶ	-11.2694
結う	-11.2696
よこ	-11.2697
皇	-11.2698
紫色	-11.27
フィ	-11.27
赤字	-11.27
とも言う	-11.2703
てき	-11.2704
を吐く	-11.2705
品行	-11.2705
内外	-11.2707
名高い	-11.2708
▁どうか	-11.2708
準	-11.271
たばこを	-11.2711
新潟	-11.2711
小児	-11.2712
もうける	-11.2712
といった	-11.2712
俺の元気かい予約	-11.2713
コンピューター	-11.2713
下がる	-11.2714
ないもの	-11.2716
正反対	-11.2717
消える	-11.2717
忍び	-11.2717
応用	-11.2718
敷物	-11.2719
トル	-11.2719
知能	-11.2719
田畑	-11.272
陰暦	-11.2721
視する	-11.2722
いちばん	-11.2722
それも	-11.2723
歩道	-11.2724
初めから	-11.2725
に立ち	-11.2725
▁ほとんど	-11.2726
元気かいの私の予約	-11.2726
泊まり	-11.2728
思いがけない	-11.2729
朝食	-11.2729
何となく	-11.2729
笑った	-11.2729
割り当て	-11.2729
メッセージをすぐに送信	-11.2729
長年	-11.2731
通俗	-11.2732
手落ち	-11.2733
こういう	-11.2733
ワン	-11.2735
下落	-11.2736
救急車呼んで呼びに電話	-11.2736
から出た	-11.2737
就職	-11.2738
▁自己の	-11.2738
▁肺	-11.2738
ドルの	-11.2738
が変わる	-11.2738
やがて	-11.2741
そうとする	-11.2742
▁他の人	-11.2742
含む	-11.2743
▁体操	-11.2743
これらの	-11.2747
つくこと	-11.2749
職場	-11.275
上部	-11.2752
移住	-11.2754
▁この問題	-11.2755
▁レコード	-11.2756
蕕覆	-11.2756
▁凶	-11.2757
金町	-11.2757
を防ぐために	-11.2757
興奮する	-11.276
使者	-11.276
航空	-11.2761
その場の	-11.2762
むだに	-11.2762
17	-11.2764
▁弔	-11.2768
▁つる	-11.2768
何よりも	-11.2769
の方法	-11.2769
交わ	-11.277
急な	-11.277
飛んで	-11.2774
を求め	-11.2775
進み	-11.2777
どこへ	-11.2777
ぜいたくな	-11.278
ないだろう	-11.2781
誤って	-11.2782
王子	-11.2783
合せ	-11.2783
意地	-11.2784
▁隠	-11.2784
の士	-11.2794
出席者	-11.2794
候	-11.2796
格別	-11.2799
▁完	-11.28
いったん	-11.2802
来客	-11.2802
などによる	-11.2803
▁貨物	-11.2804
▁エンジン	-11.2807
△・	-11.2811
のだが	-11.2811
を添える	-11.2812
▁物が	-11.2815
▁これ以上	-11.2815
時機	-11.2819
論者	-11.282
の学生	-11.2821
▁きん	-11.2823
東方	-11.2824
すぐに電話したい	-11.2826
逆に	-11.2827
自分自身	-11.2827
▁さて	-11.2828
すぐに送信	-11.2828
プロ	-11.2829
▁完全	-11.2832
▁ヘルプ	-11.2834
▁事態は	-11.2835
を積む	-11.2835
なよ	-11.2836
つな	-11.2837
色素	-11.2837
返事をする	-11.2838
▁森林	-11.2841
▁彼はとても	-11.2842
締	-11.2842
▁人々は	-11.2844
▁警官は	-11.2845
▁鉛筆	-11.2846
へと	-11.2846
に接する	-11.2847
▁野原	-11.2849
残りの	-11.2851
が悪かった	-11.2852
分間	-11.2853
この世に	-11.2854
それについて	-11.2858
類の	-11.2859
の心	-11.2859
▁うそ	-11.2859
しらせ	-11.2859
を改める	-11.286
千万	-11.2861
写真を送	-11.2861
兼ね	-11.2862
の強さ	-11.2862
して行く	-11.2865
約一	-11.2865
に出て	-11.2866
たたき	-11.2867
▁相手	-11.2868
荷物を	-11.2868
お父	-11.2869
他から	-11.287
ラン	-11.287
ロック	-11.2871
▁それは私	-11.2873
▁実際	-11.2873
に役立つ	-11.2873
運転手	-11.2874
▁桜	-11.2875
共通の	-11.2876
掘り	-11.2877
▁哀	-11.2878
しようという	-11.288
にたとえ	-11.2881
▁そのことは	-11.2881
に似る	-11.2881
海の	-11.2883
▁着物	-11.2885
遠方	-11.2886
▁初めて	-11.2887
絹織物	-11.2888
こわれ	-11.2889
付いて	-11.2889
はえている	-11.2889
守る	-11.2893
生じ	-11.2893
▁何ができる	-11.2895
慎重	-11.2898
下男	-11.2901
▁燃え	-11.2902
こも	-11.2903
わかれ	-11.2903
にも使う	-11.2905
たくさんある	-11.2905
いたり	-11.2906
暮らしを	-11.2907
こじ	-11.2907
独身	-11.2907
ことになっている	-11.2909
手柄	-11.291
▁回転	-11.291
▁以前	-11.291
負けた	-11.2913
▁校	-11.2913
田氏	-11.2915
▁秋の	-11.2915
の原因	-11.2916
してしまう	-11.2917
苦しむ	-11.2921
盛る	-11.2924
知らなかった	-11.2925
の進行	-11.2926
▁もう少し	-11.2926
▁閉	-11.2927
海外	-11.2931
聞くこと	-11.2932
きつい	-11.2932
炎症	-11.2934
こく	-11.2934
を見せて	-11.2936
▁即	-11.2942
こえ	-11.2943
で私は	-11.2943
▁広い	-11.2946
勝つこと	-11.2946
がえ	-11.2948
▁擬	-11.295
▁うら	-11.2951
▁文化	-11.2952
がたくさんある	-11.2953
を取り戻す	-11.2954
に同じ	-11.2955
後れ	-11.2955
▁食事の	-11.2958
を利用する	-11.2959
▁軟	-11.296
の範囲	-11.2961
ひっか	-11.2961
今にも	-11.2962
▁母は	-11.2964
山地	-11.2965
ってくれ	-11.2967
▁その日	-11.2969
をふ	-11.2975
称号	-11.2976
重く	-11.2977
置いた	-11.2983
を遂げる	-11.2985
使った	-11.2985
▁しっかり	-11.2986
▁はち	-11.2986
くま	-11.2987
穏やかな	-11.2988
篠つつ	-11.2989
おこった	-11.299
▁広告	-11.299
コーヒーを	-11.299
▁あいつ	-11.2991
前方	-11.2992
だした	-11.2992
ありのまま	-11.2993
延ばす	-11.2993
年は	-11.2997
▁なべ	-11.2997
開ける	-11.2998
どうだ	-11.3
がすっかり	-11.3001
のぼる	-11.3002
をひき	-11.3002
ダー	-11.3003
議案	-11.3004
▁ショートメッセージを送信	-11.3005
情事	-11.3005
のかね	-11.3007
帰ること	-11.3007
借りる	-11.3007
▁金属元素	-11.301
おもしろ	-11.3012
できている	-11.3013
▁楽	-11.3017
輝く	-11.3017
▁ロープを	-11.3019
しあわせ	-11.3023
▁断	-11.3024
の気持	-11.3026
押す	-11.3029
日常生活	-11.3029
ぐいと	-11.303
▁いまから電話かける	-11.303
のしるし	-11.3037
▁我	-11.3038
る様子	-11.3038
どことなく	-11.3041
取り扱う	-11.3043
ともに	-11.3043
だけに	-11.3045
ぐらいの	-11.3046
それによって	-11.3052
こし	-11.3053
▁その仕事は	-11.3057
ないでくれ	-11.3057
▁同情	-11.3057
そんなことを	-11.3058
比較的	-11.3059
▁金融	-11.306
▁本当	-11.3062
隠して	-11.3062
入口	-11.3064
▁原子力	-11.3065
夫人	-11.3066
破る	-11.3066
▁貿易	-11.3067
▁あん	-11.3068
末期	-11.307
よいこと	-11.3071
▁突き	-11.3072
ということだ	-11.3072
以下の	-11.3073
力で	-11.3074
起きる	-11.3074
神仏	-11.3075
弁護	-11.3077
はっきりした	-11.3077
▁水道	-11.3078
タオル	-11.3079
荒荒しい	-11.3082
答える	-11.3083
▁賢	-11.3083
数を	-11.3084
おろす	-11.3084
▁豪	-11.3084
結核	-11.3086
▁枝	-11.309
出てきた	-11.3092
遅い	-11.3093
てもらう	-11.3096
に似ている	-11.3097
寂しい	-11.3098
研究する	-11.3098
ーズ	-11.3099
味が	-11.31
を帯びる	-11.3101
験	-11.3102
▁九	-11.3102
番をする	-11.3105
チームは	-11.3106
ようか	-11.3107
明後日の天気予報	-11.3109
忘	-11.3109
おろし	-11.3109
していないこと	-11.3111
にかかった	-11.3113
▁物事に	-11.3113
▁空港	-11.3114
取り入れ	-11.3114
担保	-11.3114
▁気の	-11.3115
=	-11.3115
▁別に	-11.3116
孝	-11.3117
こね	-11.3118
▁東京の	-11.312
正当	-11.3121
がひどく	-11.3121
複製	-11.3123
法廷	-11.3126
▁凝	-11.3126
勇敢	-11.3127
って来る	-11.3128
別別	-11.3128
▁全国	-11.3129
分からない	-11.3129
盟	-11.3132
▁すぐに電話したい	-11.3132
作成	-11.3132
与えた	-11.3134
隙	-11.3134
拭	-11.3134
降伏	-11.3135
呑	-11.3135
あばれ	-11.3135
扇動	-11.3136
斎	-11.3136
まげ	-11.3136
模	-11.3137
ばーば	-11.3137
開拓	-11.3137
傑	-11.3137
▁ト	-11.3138
一度も	-11.3138
動いて	-11.3138
頸	-11.3138
ぺ	-11.3138
堪	-11.3138
ソーダ	-11.3138
びょう	-11.3139
拡張	-11.3139
弄	-11.3139
恒	-11.3139
越谷	-11.3139
浦和	-11.3139
奸	-11.314
兎	-11.314
碧	-11.314
衛星	-11.314
宇	-11.314
堺	-11.314
莫大な	-11.314
に適する	-11.314
鉤	-11.314
ぞんざい	-11.314
みじめな	-11.314
リットル	-11.314
宛	-11.314
新浦安	-11.314
歎	-11.314
篇	-11.314
X	-11.314
▁えー使い方のチェック	-11.314
ハワイ	-11.314
嵩	-11.314
桜木町	-11.314
罵	-11.314
歪	-11.314
綾	-11.314
ふらふら	-11.314
妾	-11.314
過剰	-11.314
適当に	-11.314
尖	-11.314
芯	-11.314
鵐	-11.314
自尊心	-11.314
マイナス	-11.314
を使わず	-11.314
普及	-11.314
がかり	-11.314
俳諧	-11.314
唯一の	-11.314
急激に	-11.314
キング	-11.314
インディアン	-11.314
審査	-11.314
乗車券	-11.314
疑惑	-11.314
当然の	-11.3141
落ちぶれ	-11.3141
めいめい	-11.3141
整頓	-11.3141
率直に	-11.3141
派閥	-11.3141
標識	-11.3141
顧問	-11.3141
決まり	-11.3141
ゼロ	-11.3141
守護	-11.3141
予測	-11.3141
フランスの	-11.3141
おとなしく	-11.3142
おばあさん	-11.3142
お会い	-11.3142
統率	-11.3142
路傍	-11.3142
復活	-11.3142
ってくれた	-11.3142
雨が降った	-11.3142
音響	-11.3142
吹雪	-11.3142
汲み	-11.3142
確率	-11.3142
検閲	-11.3142
部類	-11.3143
対応	-11.3143
遺跡	-11.3143
譲歩	-11.3143
中枢	-11.3143
垣根	-11.3143
新たな	-11.3144
照らし	-11.3144
かわいがる	-11.3145
のありさま	-11.3145
落第	-11.3145
テレ	-11.3145
講和	-11.3145
ハエ	-11.3146
させられた	-11.3146
地理	-11.3146
講座	-11.3146
絶滅	-11.3147
遠くに	-11.3147
たたいた	-11.3148
農夫	-11.3148
楽観	-11.3148
をはる	-11.3148
しばる	-11.3148
▁あの店は	-11.3148
流儀	-11.3148
毎	-11.3149
の女神	-11.3149
▁そこへ	-11.3149
▁この家は	-11.315
ノート	-11.315
▁金の	-11.315
ゆで	-11.315
定義	-11.3151
一つ一つ	-11.3152
やって来た	-11.3152
加熱	-11.3152
交わり	-11.3152
南部	-11.3152
の下部	-11.3153
大型	-11.3153
小形で	-11.3153
一連の	-11.3154
の山	-11.3154
▁その土地	-11.3154
結んだ	-11.3154
羊毛	-11.3155
巡回	-11.3157
不況	-11.3157
流派	-11.3157
放電	-11.3157
開業	-11.3158
花嫁	-11.3158
災い	-11.3158
待った	-11.3158
▁ケアマネ	-11.3159
織った	-11.3159
平野	-11.3159
ねばり	-11.3159
敵陣	-11.3159
乳児	-11.316
ねうち	-11.316
とら	-11.3161
▁家を	-11.3162
▁高等	-11.3162
北部	-11.3163
多年	-11.3164
羽毛	-11.3164
首席	-11.3165
低下	-11.3165
振る	-11.3165
論説	-11.3166
広げ	-11.3166
▁成人	-11.3167
▁並	-11.3167
煎じ	-11.3169
に帰する	-11.3169
体積	-11.3169
▁ぶどう酒	-11.317
引力	-11.317
撃つ	-11.3171
下関	-11.3171
のごとく	-11.3172
さらし	-11.3172
から降りる	-11.3173
の誤り	-11.3174
辰討	-11.3176
▁教師	-11.3176
慣用	-11.3184
熱湯	-11.3185
のあいだ	-11.3185
続けざまに	-11.3187
黄色い	-11.3187
▁明日の天気	-11.3189
過ごした	-11.3189
帰宅	-11.3191
非行	-11.3191
定規	-11.3194
V	-11.3194
外界	-11.3195
度胸	-11.3196
学業	-11.3196
脚本	-11.3197
こころ	-11.3197
えば	-11.3197
前橋	-11.3199
舞い	-11.3199
左側	-11.3201
お宅	-11.3201
▁仲間	-11.3202
の娘	-11.3203
▁経	-11.3205
▁6	-11.3205
至急	-11.3205
何でもない	-11.3206
乱暴	-11.3207
を大きく	-11.3208
ほぐ	-11.3209
小僧	-11.321
活動の	-11.321
午前	-11.3213
よく知っている	-11.3213
かば	-11.3213
だな	-11.3214
▁魚の	-11.3214
言いなさい	-11.3215
かかって	-11.3216
我が国	-11.3216
を貸して	-11.3217
に起こる	-11.3221
破れ	-11.3221
に通じている	-11.3222
中傷	-11.3223
を除く	-11.3223
▁彼の顔は	-11.3224
勝手な	-11.323
▁聴衆は	-11.3232
を告げる	-11.3232
あふれる	-11.3234
のが好きだ	-11.3234
の作品	-11.3234
かむ	-11.3236
好きなように	-11.3236
人や物	-11.3237
▁君には	-11.3238
職業の人	-11.3241
文章の	-11.3242
うね	-11.3242
その音	-11.3242
こちらの	-11.3242
▁明日	-11.3243
天気予報	-11.3244
もよい	-11.3244
▁傍	-11.3245
の第一	-11.3247
彼から	-11.3248
▁責任	-11.3249
耐	-11.3249
▁小川	-11.325
その知らせを聞いて	-11.3251
邦	-11.3252
無事に	-11.3253
まねをする	-11.3253
▁病気で	-11.3254
▁冷や	-11.3254
将来の	-11.3256
当時	-11.3256
当たった	-11.3257
怪	-11.3258
を高く	-11.3258
支払いを	-11.3259
毎年	-11.3259
じゅうたん	-11.3261
に加わる	-11.3263
便り	-11.3263
もし	-11.3264
シュ	-11.3264
▁何と	-11.3265
髪の毛を	-11.3265
門の	-11.3266
ピストル	-11.3266
ガソリン	-11.3266
音を立て	-11.3266
負けて	-11.3266
▁供	-11.3267
葬儀	-11.3267
▁正義	-11.3268
笑って	-11.3272
悟り	-11.3273
しますか	-11.3273
バイオリン	-11.3275
▁天体	-11.3276
猛	-11.3277
ってはいけない	-11.3277
宝物	-11.3277
手首	-11.3277
累	-11.3278
を打った	-11.3278
の諸	-11.3278
親指	-11.3278
をさっと	-11.328
er	-11.328
を張った	-11.3283
香水	-11.3284
然として	-11.3286
せて	-11.3286
▁専門	-11.3288
回転する	-11.329
に身を	-11.3291
人材	-11.3291
警察呼びに電話	-11.3292
同一	-11.3293
悪口	-11.3293
の町	-11.3294
ぬる	-11.3294
世俗	-11.3296
混ぜる	-11.3296
相場が	-11.3297
知らせること	-11.3298
のまわりに	-11.33
いまから電話かける	-11.3302
をたくさん	-11.3304
▁そこで	-11.3305
焼く	-11.3307
の人が	-11.3309
▁医療	-11.3309
が多かった	-11.3312
ぶた	-11.3314
は約	-11.3316
乗物	-11.3317
まるい	-11.3317
尽くす	-11.3323
法律で	-11.3323
▁訳	-11.3324
書物を	-11.3327
▁田	-11.3329
▁その事故	-11.333
たまる	-11.3334
区役所	-11.3335
擦り	-11.3336
▁禅	-11.3339
と思われる	-11.3339
治める	-11.334
続くこと	-11.334
物を言う	-11.334
どけ	-11.334
▁完全に	-11.3341
をおおう	-11.3341
▁日曜	-11.3341
そうでない	-11.3342
動的	-11.3342
うえ	-11.3344
に戻る	-11.3345
心の中に	-11.3346
借りること	-11.3347
てはならない	-11.3347
物だ	-11.3348
取れる	-11.3348
末に	-11.335
を重んずる	-11.335
男が	-11.3352
いすを	-11.3352
▁資本	-11.3353
身体の	-11.3354
▁それらの	-11.3355
その場所	-11.3355
▁よそ	-11.3358
割に	-11.3358
力が	-11.3359
ことができない	-11.3359
繩	-11.3361
日本に	-11.3361
こぎ	-11.3361
ばかりに	-11.3361
▁脂肪	-11.3363
犬は	-11.3366
▁イタリア	-11.3366
本部	-11.3367
いらっしゃい	-11.3367
▁小麦粉	-11.3368
しかる	-11.3369
▁いま	-11.337
月光	-11.3373
国旗	-11.3374
下にある	-11.3375
外出する	-11.3376
一流の	-11.3378
をつぐ	-11.3378
なだれ	-11.338
天気予報は	-11.3381
暗く	-11.3381
身代	-11.3381
から見て	-11.3382
振動	-11.3382
もら	-11.3383
の形容	-11.3383
大型の	-11.3384
ことではない	-11.339
討い	-11.3392
▁序	-11.3393
を積み	-11.3396
南北	-11.3396
助けること	-11.3396
がどんなに	-11.3396
熱意	-11.3398
現物	-11.3398
はだか	-11.34
神話	-11.3401
めったに	-11.3403
▁主君	-11.3404
▁野外	-11.3406
一瞬	-11.3407
で使う	-11.3407
を断つ	-11.3409
鋳	-11.3411
実例	-11.3412
狭く	-11.3413
ろく	-11.3415
仕事の	-11.3416
日曜日に	-11.3418
感じた	-11.3418
▁洪水	-11.342
誓	-11.3421
祈願	-11.3422
▁意志	-11.3423
債務	-11.3426
▁季節	-11.3426
を授ける	-11.3427
▁長距離	-11.3428
▁立体	-11.3429
んだり	-11.343
そうもない	-11.3431
▁みんな	-11.3433
出家	-11.3435
はかり	-11.3435
行動を	-11.3436
を集めて	-11.3437
▁ガ	-11.3438
によい	-11.3438
の長い	-11.3439
▁知恵	-11.3442
の子供	-11.3443
戯	-11.3447
の温度	-11.3447
▁天気はどう	-11.3448
成功の	-11.3448
で人を	-11.3451
ゼ	-11.3453
▁陸上	-11.3454
を成す	-11.3459
をたく	-11.3459
の中間	-11.346
状態にする	-11.346
▁ふだん	-11.3461
は私が	-11.3465
くわえ	-11.3465
やって来る	-11.3465
あれば	-11.3467
にはいって	-11.3472
リラ	-11.3475
▁ちょっとメッセ	-11.3476
シー	-11.3477
▁子供は	-11.348
酒を	-11.3484
▁産業	-11.3487
山々	-11.3488
賭	-11.349
になってしまった	-11.3491
▁まっ	-11.3492
をふさぐ	-11.3492
の研究	-11.3493
▁付	-11.3494
▁住宅	-11.3494
▁一家の	-11.3497
会うこと	-11.3498
メッセージをちょっと	-11.3498
やりなさい	-11.3498
人に対して	-11.3499
▁彼は我々	-11.35
やり方で	-11.35
おくれ	-11.3503
フレ	-11.3504
到着した	-11.3505
聞かせる	-11.3506
後世	-11.3509
七日	-11.3509
▁ひとり	-11.3509
生糸	-11.351
その地位	-11.3511
事態が	-11.3511
の全	-11.3512
の印	-11.3512
描	-11.3512
を続ける	-11.3512
の空気	-11.3512
とって	-11.3513
▁借り	-11.3514
ふえ	-11.3518
ふれ	-11.3519
激怒	-11.3519
▁申し	-11.3519
いやになる	-11.3521
とは君も	-11.3522
▁切符	-11.3522
調べること	-11.3526
ve	-11.3526
銀行に	-11.3529
▁平塚	-11.353
がなくなる	-11.3533
声を	-11.3536
船が	-11.3537
一般の人	-11.3539
勢いで	-11.3539
▁重大な	-11.3543
昨	-11.3543
垂れる	-11.3544
▁儀式	-11.3545
見られる	-11.3549
しつけ	-11.355
地下茎	-11.355
無理に	-11.3551
▁日光	-11.3552
▁天子の	-11.3557
食べること	-11.3561
本性	-11.3562
▁今日の天気は	-11.3563
はいくら	-11.3564
利益を得る	-11.3566
の勢い	-11.3566
▁暖かい	-11.3571
たちの	-11.3572
駒	-11.3573
られること	-11.3574
迎える	-11.3576
相手が	-11.3576
▁いちばん	-11.3577
こっけいな	-11.3577
▁思いがけない	-11.3577
内側に	-11.3579
▁特別	-11.3582
仲よく	-11.3583
走って	-11.3583
く思う	-11.3585
しうる	-11.3586
方は	-11.3586
の相違	-11.3587
内閣の	-11.3588
やれ	-11.359
ィ	-11.3591
あがって	-11.3591
西方	-11.3594
▁病人は	-11.3595
メートルの	-11.3595
が速い	-11.3597
こしらえ	-11.3597
今や	-11.3598
気持だ	-11.36
厄介	-11.3601
を含んだ	-11.3601
つかみ	-11.3601
▁年齢	-11.3609
芸能	-11.361
てくれる	-11.3611
使われる	-11.3611
▁8	-11.3613
他と	-11.3613
▁予	-11.3614
の敬称	-11.3614
写真いまから送信	-11.3619
大事	-11.362
地主	-11.362
との関係	-11.362
言動	-11.3621
ンタ	-11.3623
▁マッチ	-11.3626
グラ	-11.3627
いただき	-11.3629
に合う	-11.3631
豪雨	-11.3634
衰えた	-11.3634
を休む	-11.3636
決議	-11.3637
徹	-11.3637
▁海軍	-11.3639
▁議論の	-11.3639
行われ	-11.3642
透明	-11.3643
潰	-11.3643
▁今日の気候	-11.3643
中間	-11.3643
が起こって	-11.3644
が低く	-11.3646
十五	-11.3647
槽	-11.3647
履	-11.3648
少なく	-11.3648
▁すい	-11.3649
委任	-11.3649
しようとした	-11.3651
▁それだけ	-11.3651
増加	-11.3652
塚	-11.3653
やりかた	-11.3654
わけではない	-11.3654
忙	-11.3654
寵	-11.3655
旭川	-11.3656
に会った	-11.3658
摘	-11.3658
所にある	-11.3659
査	-11.366
幾何学	-11.3661
を目的とする	-11.3661
坑	-11.3662
止まった	-11.3662
八王子	-11.3663
荘	-11.3663
を祈る	-11.3663
陳	-11.3664
▁わずかの	-11.3664
免疫	-11.3664
要領	-11.3664
飼育	-11.3665
違える	-11.3665
盾	-11.3665
ニュ	-11.3665
視界	-11.3665
撮	-11.3666
信じられない	-11.3666
薪	-11.3666
久美子	-11.3666
因果	-11.3666
阻	-11.3666
かっさい	-11.3666
決勝	-11.3666
桑	-11.3666
叛	-11.3666
W	-11.3666
おめでとう	-11.3666
ソファー	-11.3666
植民地	-11.3666
虹	-11.3666
ばさみ	-11.3666
デパート	-11.3666
梨	-11.3666
裾	-11.3666
.	-11.3666
▁あの使い方の自己診断	-11.3666
▁あの安全かどうかの自己診断	-11.3666
▁えーっと使い方のチェック	-11.3666
みょう	-11.3666
コンサート	-11.3666
ペーパー	-11.3666
肖像画	-11.3666
▁すぐに救急車呼ぶから電話	-11.3666
のんびり	-11.3666
おだやかな	-11.3666
病原体	-11.3666
櫛	-11.3666
瑞	-11.3666
ぅ	-11.3666
当てはまる	-11.3667
きっかけ	-11.3667
▁えーっと安全度のチェック診断	-11.3667
負債	-11.3667
ジョージ	-11.3667
申請	-11.3667
免除	-11.3667
舗装	-11.3667
囃子	-11.3667
容貌	-11.3667
僧侶	-11.3667
もいい	-11.3667
元気かい俺の予約状況	-11.3667
粘液	-11.3667
酒を飲んで	-11.3667
my	-11.3667
盗賊	-11.3667
包装	-11.3667
艦隊	-11.3668
▁意味	-11.3668
閉鎖	-11.3668
到来	-11.3668
スタイル	-11.3668
戯曲	-11.3668
付き合い	-11.3668
モーター	-11.3668
たまたま	-11.3668
爵位	-11.3669
こまかい	-11.3669
態勢	-11.3669
見積もり	-11.3669
渋谷	-11.3669
大金	-11.3669
かせぐ	-11.3669
を襲った	-11.3669
生殖	-11.367
のろい	-11.367
スズメ	-11.367
レール	-11.367
欠けた	-11.3671
協議	-11.3671
風味	-11.3671
厳しく	-11.3671
ともかく	-11.3671
達成	-11.3671
実は食用	-11.3671
実業家	-11.3672
予言	-11.3672
風采	-11.3672
揃い	-11.3672
それとなく	-11.3672
水道橋	-11.3672
不吉	-11.3672
駿さん	-11.3673
がうまく	-11.3673
インターネットのページすぐ	-11.3674
栄光	-11.3674
開放	-11.3674
成行き	-11.3674
鈴木	-11.3675
奉公	-11.3675
と違って	-11.3675
左翼	-11.3675
不動産	-11.3676
のドレス	-11.3676
思い切って	-11.3676
東西	-11.3677
高等学校	-11.3677
に出た	-11.3677
未婚	-11.3677
施行	-11.3677
軍勢	-11.3677
に欠ける	-11.3677
添う	-11.3678
若葉	-11.3678
写生	-11.3678
を利用した	-11.3678
主成分	-11.3678
ラテン語	-11.3679
稲毛	-11.3679
禁煙	-11.3679
下駄	-11.3679
ひいき	-11.3679
社寺	-11.3679
彩色	-11.368
絞り	-11.368
登場	-11.368
響き	-11.368
通商	-11.3681
感じだ	-11.3681
性能	-11.3681
転覆	-11.3682
▁危	-11.3683
▁その犬は	-11.3683
ページすぐ	-11.3683
を求めること	-11.3683
上映	-11.3685
遠慮なく	-11.3686
ひれ	-11.3686
耕作	-11.3686
出入口	-11.3686
公務	-11.3686
▁泥棒	-11.3689
▁コンビニエンスストア	-11.3689
変動	-11.3689
お母さん	-11.3689
概して	-11.3691
たやすく	-11.3692
合同	-11.3693
はさんで	-11.3693
任意	-11.3693
歩行	-11.3694
忘れない	-11.3694
歩き方	-11.3694
に乗り	-11.3694
割れ目	-11.3695
分け前	-11.3695
つめた	-11.3696
でいた	-11.3697
給水	-11.3697
ありがたい	-11.3697
▁その車は	-11.3698
万歳	-11.3698
▁しかし	-11.3698
沈む	-11.3699
無視	-11.3699
▁ソ	-11.37
あえて	-11.3701
子宮	-11.3702
砕く	-11.3702
▁社	-11.3702
おそれ	-11.3702
小舟	-11.3704
きのこ	-11.3704
それら	-11.3706
古来	-11.3706
想像力	-11.3706
▁クリスマスの	-11.3706
まひ	-11.3707
贈物	-11.3707
敵軍	-11.3707
釣り合い	-11.3708
元来	-11.3708
▁牧	-11.3708
新作	-11.3708
▁紫	-11.3708
相当な	-11.3709
恋人	-11.3709
楽しむこと	-11.371
感じがする	-11.3711
不要	-11.3711
祈る	-11.3711
さわやかな	-11.3711
食肉	-11.3711
手順	-11.3712
チャ	-11.3712
木炭	-11.3713
▁必ず	-11.3713
しぼり	-11.3714
忘れた	-11.3715
直立	-11.3716
すう	-11.3716
入札	-11.3716
公害	-11.3716
増大	-11.3717
言行	-11.3717
ケアマネちゃん	-11.3718
食用にする	-11.3719
のそば	-11.372
うすい	-11.372
▁記憶	-11.3721
▁欲	-11.3721
を持つこと	-11.3721
もてなし	-11.3721
▁官庁	-11.3722
ケアマネ	-11.3724
のにおい	-11.3724
内容を	-11.3725
野生	-11.3725
度に	-11.3726
横木	-11.3726
服を着て	-11.3728
▁スト	-11.373
くせ	-11.3731
ところが	-11.3731
▁人間は	-11.3731
開会	-11.3732
背に	-11.3733
▁排	-11.3738
内内	-11.3738
▁チ	-11.3738
よめ	-11.3739
つくす	-11.374
▁組み	-11.374
当たって	-11.374
せみ	-11.3741
群生	-11.3743
人込み	-11.3744
大形で	-11.3745
▁古典	-11.3746
育てること	-11.3748
▁無線	-11.3749
生えている	-11.3749
の方へ	-11.375
捕え	-11.3752
▁出来	-11.3753
余分	-11.3754
を得ようと	-11.3754
会長	-11.3754
息子に	-11.3754
▁暴力	-11.3754
どうか	-11.3757
力量	-11.3757
を測る	-11.3757
▁漫	-11.3757
君には	-11.3758
物腰	-11.3758
の美しさ	-11.3761
▁羊	-11.3762
間違いない	-11.3763
がついて	-11.3763
発火	-11.3764
▁けんか	-11.3766
所がない	-11.3766
出ていた	-11.3767
真相	-11.3768
に強く	-11.3768
あっ	-11.3768
曜	-11.3768
上等の	-11.3769
散る	-11.377
鉄製の	-11.3771
▁トラ	-11.3772
する時	-11.3774
論理学	-11.3775
▁かぎ	-11.3775
細工物	-11.3779
リス	-11.3781
▁小さい	-11.3785
▁別の	-11.3785
物質の	-11.3786
関係がない	-11.3786
大洋	-11.3786
ばった	-11.3786
目立つ	-11.3786
▁はるか	-11.3787
▁顔を	-11.3787
余所	-11.3788
属する	-11.3789
▁知	-11.3789
スピード	-11.379
距離を	-11.3791
正確に	-11.3793
起源	-11.3793
居間	-11.3794
検事	-11.3794
って行く	-11.3796
▁いつもの	-11.3797
陥	-11.3798
で暮らす	-11.38
でメッセを送	-11.3802
異常な	-11.3802
吐き気	-11.3803
だれにも	-11.3803
▁死刑	-11.3804
学生たち	-11.3804
▁薬屋	-11.3806
〕「	-11.3806
▁シン	-11.3807
を踊る	-11.3807
正しくない	-11.3808
メッセをいまから	-11.381
気球	-11.381
削	-11.381
平方	-11.3813
辛い	-11.3814
居所	-11.3815
を動かして	-11.3815
二重	-11.3816
球状	-11.3816
整える	-11.3817
事件を	-11.3821
掛けて	-11.3824
▁口で	-11.3824
つえ	-11.3825
の階級	-11.3826
ドイツ	-11.3828
▁碁	-11.383
穏やか	-11.383
▁げん	-11.3831
できるように	-11.3831
に任せる	-11.3832
の弱い	-11.3833
青銅	-11.3833
びれ	-11.3833
を生ずる	-11.3834
エル	-11.3834
君子	-11.3834
▁車を	-11.3834
なので	-11.3835
の地位	-11.3835
紛れ	-11.3837
の顔	-11.3838
▁続	-11.3841
これに	-11.3844
▁手紙	-11.3845
自分の意見を	-11.3845
透明な	-11.3848
▁衆	-11.3848
倉庫	-11.3848
チーズ	-11.3849
迫る	-11.385
あらかじめ	-11.3852
代々木	-11.3852
となること	-11.3853
M	-11.3854
カップ	-11.3856
上手に	-11.3856
がだんだん	-11.3856
鳩	-11.3858
▁食べ	-11.3858
のあること	-11.3858
見ている	-11.3859
必	-11.3861
いし	-11.3863
烏	-11.3863
トリ	-11.3864
▁外国語	-11.3864
知れない	-11.3865
▁かなりの	-11.3866
▁幾	-11.3867
頭脳	-11.3868
▁一緒に	-11.3868
その話	-11.3868
艶	-11.3868
合成	-11.3868
の目的で	-11.387
大丈夫	-11.387
いてください	-11.3872
▁鋭い	-11.3872
携帯	-11.3876
印刷物	-11.3876
法令	-11.3876
商品の	-11.3877
和紙	-11.3877
寸法	-11.3877
▁足の	-11.3877
私の元気かいの予約	-11.3877
午前中	-11.3879
書籍	-11.388
ほどに	-11.3881
しゃく	-11.3881
警察を呼ぶ	-11.3882
つかず	-11.3886
▁喜び	-11.3886
を書いて	-11.3886
▁事業	-11.3887
▁どこか	-11.3888
を失うこと	-11.3888
とがある	-11.3889
の下で	-11.3896
しゅう	-11.3897
野党	-11.3898
して作った	-11.3898
住むこと	-11.3898
▁おい	-11.3899
▁低い	-11.3899
暮らしている	-11.3899
▁荒れ	-11.3901
▁部屋を	-11.3902
いとこ	-11.3903
出世する	-11.3903
電子	-11.3903
さくら	-11.3904
性質が	-11.3905
▁吹き	-11.3905
何だか	-11.3907
▁寺院	-11.3907
▁畑	-11.3908
うまくいく	-11.3908
▁ほかに	-11.3909
年生	-11.391
今年	-11.391
▁彼女は自分の	-11.3911
▁ダンス	-11.3911
ミス	-11.3913
逃れる	-11.3915
外面	-11.3916
生きて	-11.3917
の上の	-11.3917
▁B	-11.3917
に仕える	-11.3918
を防ぎ	-11.3918
平らに	-11.392
ジー	-11.3925
▁私は彼の	-11.3925
定期	-11.3928
引かれ	-11.3928
意味で	-11.3928
英文学	-11.3929
▁祝	-11.3929
天国	-11.3931
▁座席	-11.3933
を直す	-11.3933
▁悲しい	-11.3933
をごまかす	-11.3935
甘味	-11.3935
やっている	-11.3939
型に	-11.394
を除いた	-11.394
周囲の	-11.3944
▁解	-11.3945
聞こえた	-11.3945
便所	-11.3946
マイク	-11.3947
下書き	-11.3947
移す	-11.3949
あて名	-11.3951
ことが多い	-11.3952
▁水平	-11.3952
ようなことを	-11.3954
入り乱れ	-11.3956
被告人	-11.3958
▁過去の	-11.3958
▁生徒	-11.3961
浮かんだ	-11.3961
▁鳥が	-11.3961
を扱う	-11.3962
▁木の	-11.3962
進める	-11.3962
をまぜて	-11.3964
▁執	-11.3965
▁男女の	-11.3965
調子で	-11.3967
▁核兵器	-11.3967
見えること	-11.3968
全体を	-11.3968
溺	-11.397
ハイ	-11.3974
だます	-11.3974
しがたい	-11.3978
▁太鼓	-11.3979
聞こえない	-11.3984
陰で	-11.3984
はねる	-11.3986
一筆	-11.3988
なれて	-11.399
▁朝食	-11.3991
宗教的	-11.3991
の体	-11.3992
▁彼女と	-11.3992
はいい	-11.3992
は彼女	-11.3992
▁辞書	-11.3993
▁元気かいの予約状況	-11.4
▁珍	-11.4001
その内容	-11.4001
ラブ	-11.4004
▁会合	-11.4004
▁宝石	-11.4009
のだから	-11.401
においがする	-11.401
急ぎの	-11.4013
▁内部	-11.4013
になれ	-11.4014
どうぞお	-11.4015
花びら	-11.4017
びき	-11.4018
換える	-11.4018
をつくること	-11.4019
着く	-11.402
ぶどう	-11.4023
わな	-11.4024
付けた	-11.4024
▁終わり	-11.4026
の寸法	-11.4027
せられる	-11.4027
下がった	-11.4027
初めに	-11.4028
これだけ	-11.4028
からなる	-11.4028
泣	-11.403
一個	-11.403
▁燃料	-11.403
没する	-11.4031
埋	-11.4033
▁小便	-11.4034
動作が	-11.4035
売れる	-11.4036
中で一番	-11.4038
学生が	-11.404
▁物語	-11.4041
を飾る	-11.4044
無く	-11.4046
雄は	-11.4049
の大きい	-11.405
▁記念	-11.4053
取り決め	-11.4053
を減らす	-11.4053
並べる	-11.4053
反抗	-11.4054
▁如	-11.4055
づら	-11.4055
切断	-11.4056
よる	-11.4056
枝を	-11.4056
流れている	-11.4057
とれた	-11.4058
をおろす	-11.4059
どちらか	-11.4062
間に合わせ	-11.4063
変えること	-11.4064
着いた	-11.4064
を整える	-11.4065
▁約	-11.4066
尋ね	-11.4067
▁累	-11.4069
なるほど	-11.4069
として使う	-11.4072
を並べる	-11.4072
尽くし	-11.4074
があります	-11.4075
すむ	-11.4079
を脱ぐ	-11.4079
貯	-11.4081
▁僕が	-11.4085
自動車の	-11.4086
直る	-11.4087
をよくする	-11.4088
隠れた	-11.4089
の際に	-11.4092
国家の	-11.4094
変だ	-11.4095
個体	-11.4099
蒸留	-11.4099
とされている	-11.4099
ゆり	-11.4099
▁家畜	-11.4099
日から	-11.41
高温	-11.41
捜索	-11.4101
前へ	-11.4101
一端	-11.4104
を獲得する	-11.4104
▁射	-11.4106
▁童	-11.4108
先生に	-11.411
▁心身	-11.411
あがること	-11.411
水の	-11.4112
したりして	-11.4112
▁暇	-11.4113
全体に	-11.4113
▁ギリシャ	-11.4114
の中へ	-11.4117
▁緊急	-11.4117
この世	-11.4118
ローマ	-11.4121
▁いったん	-11.4122
自殺する	-11.4122
の広い	-11.4123
なう	-11.4126
▁抜	-11.4126
告げる	-11.4126
らなければならない	-11.4126
思うように	-11.4128
随意	-11.4129
写真をいまから	-11.413
たいてい	-11.413
してはならない	-11.4132
▁さく	-11.4133
▁十分な	-11.4133
が異なる	-11.4134
もろ	-11.4134
本質	-11.4136
▁小さな	-11.4137
▁探	-11.4137
きめる	-11.4138
を害する	-11.4138
たがる	-11.4139
下宿	-11.4141
▁筋	-11.4142
をこめて	-11.4143
行きます	-11.4146
ース	-11.4146
▁彼は我々に	-11.4147
弾力	-11.4147
考えている	-11.4149
染めた	-11.4153
散歩する	-11.4155
訪問する	-11.4157
▁その問題	-11.4157
▁軒	-11.4158
▁声を	-11.4159
▁ちょっと電話かける	-11.4159
釈迦	-11.416
植物の	-11.416
車は	-11.4161
岡	-11.4164
を発揮する	-11.4168
刷	-11.4168
見せかけ	-11.4172
ばかげた	-11.4173
▁恐ろしい	-11.4173
▁猛烈な	-11.4175
誇	-11.4175
かざ	-11.4175
▁じゅ	-11.4176
組んで	-11.4177
建築物	-11.4177
求め	-11.4179
▁しゃく	-11.4183
楽しく	-11.4183
▁へたな	-11.4184
はいられない	-11.4186
▁その仕事	-11.4186
千代子	-11.4188
可能	-11.419
の月	-11.419
本体	-11.4195
国籍	-11.4196
伸	-11.4199
▁活	-11.4199
甚	-11.4199
▁彼はドア	-11.42
すぐれた人	-11.42
の花が咲く	-11.4201
斉	-11.4201
それまで	-11.4202
径	-11.4203
自国	-11.4203
体内に	-11.4204
の所に	-11.4206
やっかいな	-11.4207
抑制	-11.4209
そこなう	-11.421
すわっている	-11.421
恥ずかしい	-11.421
なんとか	-11.421
揚げる	-11.4211
五弁	-11.4211
武蔵小杉	-11.4213
恵比寿	-11.4214
サー	-11.4214
郡山	-11.4214
国分寺	-11.4215
まれな	-11.4216
東戸塚	-11.4216
均衡	-11.4217
をねらう	-11.4218
ほれ	-11.4218
荒い	-11.4218
嫡	-11.4219
だらだら	-11.4219
継続	-11.422
班	-11.422
黄褐色	-11.422
日暮里	-11.422
伯	-11.422
独創	-11.4221
イオン	-11.4221
誕生	-11.4221
田園	-11.4221
殴	-11.4221
牙	-11.4221
契	-11.4221
昭三さん	-11.4222
ョ	-11.4222
k	-11.4222
カルシウム	-11.4222
須	-11.4222
交互に	-11.4222
鯛	-11.4222
すさまじい	-11.4222
チョーク	-11.4222
ドラマ	-11.4222
蔓	-11.4222
カナダ	-11.4222
仲たがい	-11.4222
莫	-11.4222
▁あの安全かどうかのチェック	-11.4222
▁あの安全診断	-11.4222
▁えーっと使い方の自己診断	-11.4222
▁えーっと安全チェック	-11.4222
▁えー安全度の自己診断	-11.4222
▁んー安全度の自己診断	-11.4222
ブランデー	-11.4222
卜	-11.4222
濫	-11.4222
篭	-11.4222
行なわれた	-11.4222
咳	-11.4222
桐	-11.4222
ケーブル	-11.4222
庵	-11.4222
籤	-11.4222
薫	-11.4222
飴	-11.4222
鰐	-11.4222
帥	-11.4222
擇	-11.4222
燗	-11.4222
扉	-11.4222
びっくりして	-11.4222
猛烈に	-11.4222
竿	-11.4222
やかましく	-11.4222
スプーン	-11.4222
子寬燭舛	-11.4222
培養	-11.4222
群れをなして	-11.4222
昭和	-11.4222
▁この上なく	-11.4222
絃	-11.4222
独特の	-11.4222
転換	-11.4222
を築く	-11.4222
粘膜	-11.4222
堤防	-11.4222
包囲	-11.4222
いただけませんか	-11.4222
封建	-11.4222
頑固	-11.4222
誇張	-11.4222
停泊	-11.4223
わかりません	-11.4223
を売って	-11.4223
尽き	-11.4223
助詞	-11.4223
たくましい	-11.4223
効能	-11.4223
補佐	-11.4223
に次ぐ	-11.4223
未知の	-11.4223
規格	-11.4223
人工衛星	-11.4223
恒星	-11.4223
遊戯	-11.4223
われわれ	-11.4223
苦悩	-11.4223
祝賀	-11.4223
少なくとも	-11.4223
あらまし	-11.4224
接待	-11.4224
慣例	-11.4224
征服	-11.4224
知り合い	-11.4224
タンク	-11.4224
調停	-11.4224
何らかの	-11.4224
依存	-11.4224
まぶた	-11.4224
仕組み	-11.4224
貝殻	-11.4224
仕返し	-11.4225
患部	-11.4225
屈折	-11.4225
小学校	-11.4225
就業	-11.4225
かなわない	-11.4225
誤差	-11.4225
わざわざ	-11.4225
のに用いる	-11.4225
勝敗	-11.4225
やりくり	-11.4225
混雑	-11.4226
記載	-11.4226
いっそう	-11.4226
残忍	-11.4226
静脈	-11.4226
往生	-11.4226
コードのページをすぐ	-11.4227
ノン	-11.4227
威光	-11.4227
▁町田	-11.4227
解散	-11.4227
きっぱり	-11.4227
単独	-11.4227
酒に酔って	-11.4228
脱獄	-11.4228
必ずしも	-11.4228
▁国境	-11.4228
座標	-11.4229
真似	-11.4229
絶縁	-11.4229
浄土	-11.423
オール	-11.423
著書	-11.423
▁人情	-11.423
▁勇気	-11.423
強制的に	-11.423
武術	-11.423
剣術	-11.4231
通用	-11.4231
四季	-11.4231
発育	-11.4231
鳥獣	-11.4231
強烈な	-11.4231
敬礼	-11.4231
異なった	-11.4231
決める	-11.4231
信頼できる	-11.4232
世襲	-11.4232
笑顔	-11.4232
政務	-11.4232
連結	-11.4232
食べられる	-11.4233
壊れ	-11.4233
信託	-11.4233
難破	-11.4233
破滅	-11.4234
不可能だ	-11.4234
感じを与える	-11.4234
令状	-11.4234
連邦	-11.4234
順位	-11.4235
定期的に	-11.4235
話し方	-11.4236
全集	-11.4236
廻り	-11.4236
いたしました	-11.4236
ぞっとし	-11.4237
へだて	-11.4237
苦難	-11.4238
もらって	-11.4239
もせず	-11.4239
ある場所	-11.4239
▁強制	-11.4239
えら	-11.4239
溶け	-11.4239
漢文	-11.424
百年	-11.4241
取扱い	-11.4241
値上げ	-11.4242
すがた	-11.4242
本日	-11.4242
大学で	-11.4242
ダン	-11.4242
走っている	-11.4243
喜んだ	-11.4243
伝達	-11.4243
無臭	-11.4243
暗記	-11.4244
を申し込む	-11.4244
障り	-11.4245
▁井戸	-11.4245
つま先	-11.4245
悪党	-11.4246
好きだ	-11.4247
らっぱ	-11.4248
無効	-11.4248
▁年をとって	-11.4249
声明	-11.4249
連隊	-11.4249
からといって	-11.425
性欲	-11.4251
合奏	-11.4251
しぼ	-11.4252
海産	-11.4252
地表	-11.4252
観光客	-11.4253
器量	-11.4253
ひそ	-11.4254
を生む	-11.4254
過ち	-11.4255
自称	-11.4256
乗船	-11.4257
見渡す	-11.4257
とらわれ	-11.4258
▁火山	-11.4258
善意	-11.4259
話して	-11.4259
気絶	-11.426
高松	-11.426
▁その話は	-11.426
渡った	-11.4262
not	-11.4262
ふくらませ	-11.4262
なさけ	-11.4263
品川	-11.4264
▁えい	-11.4264
店員	-11.4264
一段と	-11.4265
くぎり	-11.4265
所有者	-11.4266
答えた	-11.4266
ときは	-11.4271
読み方	-11.4271
通ってい	-11.4271
平凡な	-11.4273
賢明な	-11.4273
の客	-11.4273
唱える	-11.4274
書きしるす	-11.4276
移し	-11.4277
退学	-11.4279
走ること	-11.428
放す	-11.428
▁犬が	-11.4282
▁恐れ	-11.4282
▁冷静	-11.4283
の役	-11.4284
支配者	-11.4284
しょうゆ	-11.4288
これこれ	-11.4291
着ける	-11.4295
上野	-11.4297
▁不可	-11.4298
ほのか	-11.4299
▁漸	-11.4301
の支払い	-11.4303
▁彼は父親	-11.4304
もともと	-11.4305
▁網	-11.4306
海浜幕張	-11.4306
と言われる	-11.4307
こわれた	-11.4307
を構成する	-11.4307
武者	-11.4308
重ねて	-11.4308
▁゚	-11.4309
一刻	-11.431
すす	-11.4312
三日	-11.4313
無関係	-11.4314
寄せ集め	-11.4314
▁巻き	-11.4316
堅	-11.4316
祝う	-11.4317
音便	-11.4317
家へ	-11.4318
希望を	-11.4319
th	-11.432
▁寄	-11.4321
の割合	-11.4321
書画	-11.4322
のではないかと	-11.4324
浄化	-11.4324
中身	-11.4327
さまざまの	-11.4328
分の一	-11.4328
風土	-11.4328
霧が	-11.4329
腕力	-11.4329
▁部屋の	-11.4331
まさ	-11.4332
▁いまから電話したい	-11.4333
積み重ね	-11.4334
熱心な	-11.4334
▁彼は彼女を	-11.4334
いわれ	-11.4334
▁兼	-11.4336
ためになる	-11.4337
のほうへ	-11.4337
に浮かぶ	-11.434
活動する	-11.4342
歌劇	-11.4345
内輪	-11.4348
暴動	-11.435
▁ペ	-11.4351
上方	-11.4353
無作法	-11.4355
▁赤ん坊は	-11.4355
みえ	-11.4356
血が	-11.4358
▁天地	-11.4358
▁さっさと	-11.4361
まっ	-11.4362
すらすらと	-11.4362
亜	-11.4364
言う事	-11.4365
不当	-11.4366
を妨げる	-11.4367
ふたり	-11.4367
知事	-11.4368
めちゃめちゃに	-11.4368
敬意を表する	-11.4368
言ったり	-11.4368
▁彼から	-11.4368
▁事件の	-11.437
▁大便	-11.437
▁水は	-11.4371
漢字の	-11.4371
法会	-11.4371
慣れる	-11.4373
りました	-11.4374
を探る	-11.4376
▁結果は	-11.4378
しめた	-11.4379
as	-11.438
▁台所	-11.4382
▁複	-11.4383
削る	-11.4384
の形で	-11.4384
独自の	-11.4385
強いこと	-11.4386
▁地上	-11.4387
登り	-11.4388
と言えば	-11.4388
ひる	-11.4389
その場	-11.4389
▁信号	-11.4389
月末	-11.4391
▁得	-11.4391
▁疑問	-11.4391
靴討	-11.4392
主語	-11.4394
がね	-11.4396
んじゃない	-11.4396
悪人	-11.4397
を吸う	-11.44
を飛ばす	-11.4401
体重	-11.4404
引いて	-11.4406
▁時代	-11.4409
磁気	-11.441
行か	-11.4411
通う	-11.4411
固有の	-11.4414
一種	-11.4417
こっそりと	-11.442
▁彼はどんな	-11.4421
と水	-11.4421
▁貴人	-11.4422
内部の	-11.4423
をひいて	-11.4424
▁戦争の	-11.4424
▁出産	-11.4425
ふん	-11.4426
国外	-11.4428
下る	-11.4429
まけ	-11.4429
▁健	-11.443
寄って	-11.4432
▁大体	-11.4436
有機	-11.4436
▁彼も	-11.4436
に足りない	-11.4437
の車	-11.4438
相対	-11.4439
足音	-11.4439
国王	-11.444
現す	-11.444
られます	-11.4441
▁今までに	-11.4442
〇〇	-11.4446
▁川口	-11.4446
そこまで	-11.4448
▁呼び	-11.445
▁没	-11.4451
の仲間	-11.4451
すでに	-11.4452
その問題について	-11.4455
の新	-11.4455
年ごとに	-11.4456
▁日常	-11.4458
▁むり	-11.446
固め	-11.446
くてたまらない	-11.4462
涙を流す	-11.4463
タクシー	-11.4463
国土	-11.4464
そうしたもの	-11.4464
弱く	-11.4465
にし	-11.4466
▁先生	-11.4467
▁どん	-11.4467
□・・	-11.4469
に言えば	-11.4469
かねる	-11.447
と考えている	-11.447
きら	-11.4471
仕える	-11.4472
繁殖	-11.4472
▁ヘ	-11.4472
潔白	-11.4472
D	-11.4473
たびたび	-11.4474
いよいよ	-11.4474
伸ばし	-11.4475
そう言った	-11.4476
請け	-11.4476
洪水	-11.4479
ビタミン	-11.448
▁裁縫	-11.4481
公開	-11.4482
の者が	-11.4483
をさせる	-11.4483
▁明後日の天気	-11.4483
翔	-11.4483
ばくち	-11.4484
けし	-11.4484
優しい	-11.4485
大塚	-11.4486
T	-11.4487
建設	-11.4487
どうやら	-11.4487
哀	-11.4489
梅雨	-11.449
▁風呂	-11.4491
山頂	-11.4491
明治	-11.4491
酸味	-11.4491
地味	-11.4492
偏見	-11.4493
郵便局	-11.4493
ことになる	-11.4493
▁恩	-11.4494
▁よし	-11.4494
ぜひ	-11.4495
に現れた	-11.4496
インフレ	-11.4497
われて	-11.4497
▁女子	-11.4497
意味の	-11.4498
倒し	-11.4498
▁兄弟	-11.45
頼んで	-11.4501
の母	-11.4501
しょく	-11.4502
予備	-11.4503
腹を立てる	-11.4503
ld	-11.4505
手に入れた	-11.4506
▁食物	-11.4506
悪意	-11.4506
▁サン	-11.4507
の骨	-11.4507
▁彼はひどく	-11.4508
っぽく	-11.451
蹴	-11.4511
本心	-11.4514
正直に	-11.4514
海底	-11.4514
チョウ	-11.4516
はかない	-11.4517
二人以上	-11.4519
船橋	-11.4521
的には	-11.4522
▁種種の	-11.4522
熱心	-11.4523
▁昆虫	-11.4523
けがれ	-11.4523
違っている	-11.4524
があまり	-11.4525
六つ	-11.4526
甘く	-11.4527
語った	-11.4527
▁地獄	-11.4531
の薬	-11.4531
変え	-11.4533
芸者	-11.4536
のうまい	-11.4536
▁藤沢	-11.454
▁とんでもない	-11.4541
正常	-11.4541
立体	-11.4542
外見	-11.4542
熟した	-11.4544
思っている	-11.4546
写真をいまから送信	-11.4546
仏道	-11.4549
武士の	-11.4551
高値	-11.4555
綴	-11.4555
赤道	-11.4556
セーター	-11.4557
ておきなさい	-11.4557
が落ちる	-11.4557
さも	-11.4559
自分を	-11.456
まさか	-11.456
▁セ	-11.4562
いくさ	-11.4564
▁赤道	-11.4567
先日	-11.4567
同等	-11.4567
▁くず	-11.457
▁和歌	-11.4573
大根	-11.4574
主人の	-11.4576
▁貝	-11.4576
今でも	-11.4578
して下さい	-11.4579
枝が	-11.4579
宿題	-11.4579
▁この問題は	-11.4582
▁彼は妻	-11.4584
の糸	-11.4585
噴	-11.4587
あるものを	-11.4587
▁ヘルパー	-11.4589
集まっている	-11.4591
ぼし	-11.4592
大砲	-11.4592
の旅	-11.4592
▁聴覚	-11.4592
あふれてい	-11.4593
▁烏	-11.4595
▁ポケット	-11.4595
▁江戸時代に	-11.4597
に来た	-11.4598
千万円	-11.4602
▁めでたい	-11.4602
今日の湿度	-11.4603
▁文章の	-11.4603
▁だれにも	-11.4604
の回転	-11.4605
過労	-11.4609
一撃	-11.4609
組む	-11.461
待ってい	-11.4612
いかがですか	-11.4617
鷹	-11.4617
▁千代	-11.4618
をうつ	-11.4618
をたたいて	-11.4618
見掛け	-11.4619
悪口を言う	-11.4619
相談する	-11.4621
乱暴に	-11.4623
▁靴を	-11.4623
父と	-11.4624
駐車	-11.4625
が無い	-11.4625
てやった	-11.4626
りやすい	-11.4627
助けて	-11.4629
のところで	-11.4629
できるだけ	-11.4629
▁熱帯	-11.4632
通過	-11.4632
成る	-11.4632
グレ	-11.4632
を注ぐ	-11.4633
乗せて	-11.4635
散り	-11.4636
ずし	-11.4637
▁こんなに	-11.4637
事を行う	-11.4638
十一	-11.4638
やってみた	-11.4641
▁穀物	-11.4643
▁排水	-11.4644
▁講義	-11.4644
▁応	-11.4645
▁灰	-11.4645
外から	-11.4645
▁do	-11.4648
切に	-11.4648
を開始する	-11.4649
の羽	-11.4651
月日	-11.4651
意見を述べる	-11.4651
▁バイオリン	-11.4653
科の落葉低木	-11.4654
野菜を	-11.4655
皮を	-11.4655
ならなかった	-11.4655
▁堅い	-11.4657
うっとり	-11.4657
打ち解け	-11.4658
ぐり	-11.4658
テント	-11.466
をうかがう	-11.4661
集めて	-11.4661
前兆	-11.4669
行けば	-11.4669
あんなに	-11.4675
手荷物	-11.4676
日常の	-11.4676
土曜日	-11.468
▁妙	-11.4682
キュ	-11.4683
であり	-11.4683
をきれいに	-11.4687
▁言葉を	-11.4688
戦争で	-11.4689
管轄	-11.4689
此	-11.4689
ter	-11.4694
▁春の	-11.4696
はっと	-11.4697
生理	-11.4697
を取った	-11.4698
平地	-11.4698
問題について	-11.4698
悪事を	-11.47
▁まるで	-11.47
この点	-11.4701
俗人	-11.4702
の発達	-11.4703
価値がある	-11.4704
ポン	-11.4704
がとれる	-11.4704
▁インク	-11.4705
に関すること	-11.4705
▁大丈夫	-11.4705
説得	-11.4707
さあ	-11.4707
▁情け	-11.4708
▁非常な	-11.4708
のでなく	-11.4709
を加えた	-11.4713
▁身分の高い人	-11.4713
五センチ	-11.4715
た時	-11.4715
こわす	-11.4717
に添える	-11.4719
▁小麦	-11.472
せられた	-11.472
ずく	-11.4721
▁じゃ	-11.4723
を知らせる	-11.4723
苦しく	-11.4726
間柄	-11.4727
▁ある物	-11.4727
党員	-11.4729
はずいぶん	-11.4731
ぶった	-11.4732
の鳥	-11.4732
かぬ	-11.4732
仮に	-11.4733
呈	-11.4733
金属を	-11.4733
▁天気どう	-11.4734
ことがわかっ	-11.4739
概	-11.474
が出て	-11.474
じた	-11.4742
関係にある	-11.4744
あつ	-11.4744
配り	-11.4747
監禁	-11.4748
発作	-11.4748
貼	-11.475
▁穴	-11.475
つる草	-11.4751
をしのぐ	-11.4752
上陸	-11.4753
を乱す	-11.4754
母親の	-11.4755
職につく	-11.4756
確実	-11.4759
に及ぶ	-11.476
大声	-11.4761
表した	-11.4761
の仲	-11.4762
選ぶ	-11.4763
▁松本	-11.4763
て言う語	-11.4763
を見捨て	-11.4768
にぶい	-11.4768
すみません	-11.4769
滅び	-11.477
▁都会	-11.4771
▁静	-11.4772
▁妊娠	-11.4772
を捜した	-11.4774
推定	-11.4775
尋ねた	-11.4777
▁みだらな	-11.4777
▁エレベーター	-11.4777
を晴らす	-11.4778
作られる	-11.4779
▁ショート	-11.4779
何事も	-11.4782
お薬屋さん	-11.4783
ウエスト	-11.4783
不愉快	-11.4784
召し	-11.4784
を浴びる	-11.4785
の政治	-11.4786
漠	-11.4786
箇	-11.4787
▁昨夜は	-11.4788
不定	-11.4789
産地	-11.4789
でこぼこ	-11.4791
提供	-11.4791
供える	-11.4791
宣告	-11.4792
▁豊	-11.4792
認	-11.4792
始末	-11.4794
になるような	-11.4795
絹布	-11.4796
永遠	-11.4796
錦糸町	-11.4796
一か所に	-11.4796
模型	-11.4797
大学の	-11.4797
かなりの	-11.4798
▁そばの	-11.4798
注ぎ	-11.4798
をすっかり	-11.48
をあて	-11.4801
媒	-11.4801
▁妻の	-11.4802
嘆願	-11.4803
ブラウン	-11.4803
西川口	-11.4803
鋒	-11.4804
を禁じ	-11.4805
賓	-11.4805
岡山	-11.4806
静けさ	-11.4806
▁相互	-11.4806
▁東洋	-11.4807
ねばならない	-11.4807
委	-11.4807
蕩	-11.4807
に値する	-11.4807
提携	-11.4808
に伴う	-11.4808
▁電力	-11.4808
惜しみ	-11.4808
蹐	-11.4808
錯	-11.4808
をたたき	-11.4809
斗	-11.4809
F	-11.4809
弥	-11.4809
需	-11.4809
▁鉄道の	-11.4809
杉	-11.4809
せっせと	-11.481
を払って	-11.481
苛	-11.481
拳銃	-11.481
悊	-11.481
奨	-11.481
款	-11.481
喝	-11.481
にかかわらず	-11.481
次から次へと	-11.481
タッチ	-11.481
朴	-11.481
燕	-11.481
L	-11.481
ホルモン	-11.481
奨学金	-11.481
憐	-11.481
▁えー使い方の診断	-11.481
▁えー安全度のチェック自己診断	-11.481
▁んー安全かどうかの自己診断	-11.481
▁んー安全診断	-11.481
ぎゅっと	-11.481
を慰める	-11.481
吾	-11.481
鯉	-11.481
G	-11.481
▁飢え	-11.481
うろたえ	-11.481
ちゅうちょ	-11.481
ジャングル	-11.481
スイッチ	-11.481
大げさに	-11.481
文房具	-11.481
痔	-11.481
いわゆる	-11.481
をきわめる	-11.481
大井町	-11.481
閨	-11.481
トマト	-11.481
を仰ぐ	-11.481
コルク	-11.481
曚	-11.481
廃棄物	-11.481
徐々に	-11.481
詮	-11.481
▁二十四気	-11.481
紗	-11.481
誼	-11.481
表彰	-11.481
煩悩	-11.481
イングランド	-11.481
夜が明け	-11.481
催促	-11.481
たきぎ	-11.481
買い物	-11.481
巡査	-11.4811
結末	-11.4811
プリント	-11.4811
保障	-11.4811
五月ごろ	-11.4811
混合	-11.4811
に入っている	-11.4811
外套	-11.4811
カーブ	-11.4811
潜水艦	-11.4811
周旋	-11.4811
発酵	-11.4811
ミシン	-11.4811
やさしく	-11.4811
池袋	-11.4811
激励	-11.4811
セメント	-11.4811
放射線	-11.4812
ウェ	-11.4812
賃上げ	-11.4812
関東	-11.4812
功労	-11.4812
腐敗	-11.4812
ミング	-11.4812
大輝さん	-11.4812
ギヤ	-11.4812
簿記	-11.4812
郷里	-11.4812
デート	-11.4813
皇族	-11.4813
土俵	-11.4813
光栄	-11.4813
休止	-11.4813
婚礼	-11.4813
見出し	-11.4813
誠意	-11.4813
デモ	-11.4814
球技	-11.4814
長い年月	-11.4814
ジャム	-11.4814
に含まれる	-11.4814
鮮明	-11.4814
冷凍	-11.4814
發里	-11.4814
浜辺	-11.4814
たくみに	-11.4814
住んでいた	-11.4814
ソン	-11.4815
因縁	-11.4815
焼ける	-11.4815
工具	-11.4815
手に入れ	-11.4815
神秘的な	-11.4816
百姓	-11.4816
ほんの少し	-11.4816
から南浦和まで	-11.4816
ある種の	-11.4816
群集	-11.4817
情景	-11.4817
音を出す	-11.4817
危害	-11.4817
失策	-11.4817
自動的に	-11.4818
売り上げ	-11.4818
はげしく	-11.4818
緑色で	-11.4818
草稿	-11.4818
卒業生	-11.4818
▁この部屋は	-11.4818
寄生	-11.4818
荒廃	-11.4818
映画館	-11.4819
殺害	-11.4819
の列車	-11.4819
に報いる	-11.4819
メモ	-11.4819
引き出し	-11.482
▁男性	-11.482
に相当する	-11.482
実施	-11.4821
三郎	-11.4821
けがをした	-11.4821
泣いた	-11.4821
体育	-11.4821
カット	-11.4821
可能な	-11.4822
明らか	-11.4822
成句	-11.4822
▁なお	-11.4822
要約	-11.4823
会わない	-11.4823
クマ	-11.4823
和歌山	-11.4823
八戸	-11.4823
断定	-11.4823
こぼし	-11.4823
高貴	-11.4823
定刻	-11.4824
半島	-11.4824
おおもと	-11.4824
不便	-11.4824
▁中古	-11.4825
皮膚病	-11.4825
合議	-11.4825
パンチ	-11.4825
みがき	-11.4825
反省	-11.4825
逆転	-11.4825
一晩中	-11.4825
九州	-11.4825
▁表面	-11.4825
にあずかる	-11.4825
生育	-11.4826
火鉢	-11.4826
重荷	-11.4826
真価	-11.4826
くじら	-11.4826
を愛する	-11.4826
市川	-11.4827
▁処女	-11.4828
原野	-11.4828
長生き	-11.4828
利息	-11.4829
手がかり	-11.4829
計器	-11.483
▁悲	-11.4831
ちがい	-11.4832
▁女性の	-11.4832
▁頬	-11.4832
歴史的	-11.4832
を証明する	-11.4833
▁拙	-11.4833
すっきり	-11.4834
上司	-11.4834
純白	-11.4834
粒子	-11.4835
もはや	-11.4835
▁興行	-11.4835
▁幽	-11.4836
たぐい	-11.4836
ていないこと	-11.4836
黄色で	-11.4837
選手権	-11.4837
読み書き	-11.4838
となえる	-11.4838
ところがあった	-11.484
暗示	-11.484
をなしている	-11.484
あげく	-11.4841
出帆	-11.4841
あとの	-11.4843
▁20	-11.4843
多くの人	-11.4845
整数	-11.4845
陣地	-11.4845
にあてる	-11.4845
いっぱいに	-11.4847
▁ペンキ	-11.4847
砂利	-11.4848
▁脊椎動物の	-11.4848
会社に	-11.4848
▁費用は	-11.4849
単なる	-11.4849
一まとまり	-11.4849
あざやかな	-11.485
なくては	-11.485
に気づいた	-11.4851
救い	-11.4852
▁身長	-11.4852
松山	-11.4852
不和	-11.4852
をこしらえる	-11.4853
歌曲	-11.4853
時ごろ	-11.4853
穂状	-11.4853
ちがう	-11.4854
公判	-11.4854
枚方	-11.4855
当座	-11.4855
▁シェイクスピア	-11.4856
な男	-11.4856
米を	-11.4857
坊や	-11.4859
▁新聞の	-11.486
学位	-11.486
獲得	-11.486
好ましくない	-11.4862
▁私は彼女	-11.4862
を結び	-11.4862
日常	-11.4863
かんで	-11.4863
たぶん	-11.4863
その上	-11.4864
▁湖	-11.4864
通例	-11.4864
浅く	-11.4865
斜め	-11.4867
資本家	-11.4867
ぶね	-11.4867
解き	-11.4868
を確かめる	-11.4868
にすむ	-11.4868
▁吸	-11.487
水や	-11.487
▁こちら	-11.487
▁ほら	-11.4871
帆船	-11.4871
▁技術	-11.4871
▁安全チェックや	-11.4873
柔らかな	-11.4875
に参加する	-11.4876
浮かぶ	-11.4876
くだもの	-11.4876
してから	-11.4876
谷間	-11.4877
▁れい	-11.4878
をいう	-11.4878
方策	-11.4878
音程	-11.4878
主任	-11.4878
不完全	-11.4879
々たる	-11.488
▁あの男の	-11.4881
包む	-11.4881
いじめ	-11.4881
休息	-11.4882
そうな様子	-11.4883
いいですか	-11.4884
との中間	-11.4885
不明の	-11.4886
帰国	-11.4886
第三者	-11.4886
才気	-11.4887
中島	-11.4888
下院	-11.4889
の側	-11.4889
この計画	-11.489
のないように	-11.4891
▁肥	-11.4892
の景色	-11.4892
酔う	-11.4895
をたどる	-11.4895
実が	-11.4895
▁聖書	-11.4895
に似ているが	-11.4896
▁不平	-11.4896
▁昼食	-11.4898
半期	-11.4898
送金	-11.4898
▁北千住	-11.4898
▁ここに	-11.4899
▁こく	-11.4899
あいている	-11.49
▁ゆ	-11.49
▁舟	-11.49
ーム	-11.4902
▁°	-11.4903
▁ジョン	-11.4904
示した	-11.4904
度数	-11.4904
吉田	-11.4907
▁絵画	-11.4907
戸塚	-11.4907
がちだ	-11.4908
説く	-11.4908
もらいたい	-11.4908
僕が	-11.491
上尾	-11.491
た食品	-11.4912
返した	-11.4912
▁濃	-11.4912
▁キリスト教で	-11.4913
学校の	-11.4915
のしみ	-11.4916
作物の	-11.4917
ないうちに	-11.4917
土地の	-11.4918
▁警戒	-11.4918
▁透	-11.4918
金持	-11.4918
だれの	-11.4919
音の	-11.492
創作	-11.492
▁遠い	-11.4922
王国	-11.4922
へや	-11.4923
おかず	-11.4923
砂糖を	-11.4923
にそむく	-11.4924
蕕譴	-11.4926
全世界	-11.4933
小説家	-11.4933
のおかげで	-11.4935
▁私たちの	-11.4936
正確	-11.4937
▁困難	-11.4938
腐れ	-11.4938
▁職務	-11.4938
▁質問	-11.494
▁国の	-11.4941
▁つめ	-11.4942
生物が	-11.4943
▁しばらく	-11.4944
を他の	-11.4945
もも	-11.4945
▁彼は友人	-11.4946
▁公共	-11.4946
よくよく	-11.4948
あわせること	-11.495
大宮	-11.4951
▁株式	-11.4953
滑	-11.4953
貯え	-11.4954
をなくした	-11.4955
物事を行う	-11.4956
▁軍艦	-11.4957
てきている	-11.4957
詩の	-11.4958
越年生	-11.4962
巻きつけ	-11.4962
の荒い	-11.4963
と聞いて	-11.4963
登る	-11.4963
に分けて	-11.4964
とらえ	-11.4965
銃声	-11.4965
ふところ	-11.4965
を巻く	-11.4967
▁ジャ	-11.4967
白色で	-11.497
不作	-11.497
一年中	-11.497
つやがある	-11.4971
道が	-11.4973
お茶を	-11.4973
大笑い	-11.4974
▁しょ	-11.4977
点数	-11.4978
はめ	-11.4979
に話す	-11.498
のだろうか	-11.498
どく	-11.4981
実地に	-11.4981
▁軍人	-11.4981
すわること	-11.4983
よくわかる	-11.4983
政界	-11.4983
日曜	-11.4984
加わる	-11.4986
を握る	-11.4988
を上げて	-11.499
上演	-11.499
自分から	-11.4991
に悩む	-11.4991
割れた	-11.4992
かぶと	-11.4992
▁釣	-11.4992
の花が	-11.4993
そうだった	-11.4994
西日暮里	-11.4994
大家	-11.4995
けもの	-11.4998
助けてくれ	-11.4998
の一派	-11.4999
東洋	-11.5
の責任	-11.5001
お話	-11.5002
くれない	-11.5004
▁カメラ	-11.5005
▁食物を	-11.5009
を見ること	-11.501
求めること	-11.5011
かろう	-11.5011
きました	-11.5011
▁頓	-11.5011
▁かわいい	-11.5012
せなかった	-11.5013
ター	-11.5014
新聞で	-11.5017
夏に	-11.502
▁悪魔	-11.502
▁彼女を	-11.502
▁又	-11.5021
を勤める	-11.5021
▁狩猟	-11.5021
目白	-11.5021
が切れ	-11.5021
ができ	-11.5022
船を	-11.5023
▁運賃	-11.5023
とどめ	-11.5024
降った	-11.5024
首に	-11.5025
を掘り	-11.5025
なまけ	-11.5026
▁人類	-11.5027
投げる	-11.5028
急所	-11.5029
したものだ	-11.5031
を述べた	-11.5032
を抜いて	-11.5034
もんか	-11.5034
をつなぐ	-11.5035
計画を立てる	-11.5037
廃物	-11.5038
水戸	-11.5038
しません	-11.5039
小便	-11.5041
▁会場	-11.5041
ならす	-11.5044
もしなかった	-11.5045
すぐれたもの	-11.5047
▁まさか	-11.5049
申し上げ	-11.5052
その上に	-11.5055
がれる	-11.506
▁そういう	-11.5061
じょうず	-11.5064
▁枕	-11.5065
▁邪	-11.5065
あれほど	-11.5065
せば	-11.5066
▁ベッド	-11.5067
▁家屋	-11.5067
▁敬	-11.5068
海上	-11.5068
一通り	-11.5069
花の	-11.5069
▁侍	-11.5074
共鳴	-11.5076
▁意地	-11.5076
▁この世	-11.5082
その場で	-11.5082
を楽しむ	-11.5083
になります	-11.5084
▁やり	-11.5085
一派	-11.5086
通じている	-11.5086
実体	-11.5086
きる	-11.5086
細君	-11.5087
▁実物	-11.5088
じき	-11.509
ウェッブページ置	-11.5091
端に	-11.5091
に咲く	-11.5092
分別	-11.5092
論ずる	-11.5095
当時の	-11.5097
行ない	-11.5098
▁明かり	-11.5099
日曜日	-11.51
順調に	-11.5101
だらけ	-11.5103
はかま	-11.5104
▁当て	-11.5104
▁工事	-11.5106
をつけない	-11.5106
もありません	-11.5109
▁かき	-11.511
の報道	-11.5111
ひね	-11.5111
君も	-11.5112
の小説	-11.5115
▁話の	-11.5115
をなして	-11.5115
の価格	-11.5118
▁公園	-11.5121
不幸な	-11.5123
▁保険	-11.5123
幾つ	-11.5124
音が	-11.5124
飼う	-11.5127
▁ジョンは	-11.5129
時期に	-11.5129
閉じる	-11.513
遅	-11.5131
を望む	-11.5132
▁怪	-11.5133
紙の	-11.5134
▁むだ	-11.5134
▁長さ	-11.5135
名古屋	-11.5137
で書いた	-11.5137
H	-11.5141
▁正面	-11.5141
等で	-11.5141
▁ホームヘルパーさん	-11.5142
帳簿	-11.5143
▁彼女は自分	-11.5143
グル	-11.5143
▁T	-11.5143
を加えること	-11.5144
▁建設	-11.5144
の作用	-11.5145
靴覆	-11.5145
去って	-11.5145
陰謀	-11.5146
そろえ	-11.5146
面が	-11.5146
紛	-11.5147
ジャズ	-11.5149
元気かいの俺の予約	-11.5151
凶	-11.5152
歩調	-11.5153
▁メッセージを送信	-11.5154
▁すでに	-11.5155
排	-11.5155
▁運命	-11.5156
に走る	-11.5157
の保護	-11.5157
イタリア	-11.5158
小麦粉	-11.5158
に残る	-11.5158
から離れて	-11.5158
大気	-11.5159
をかむ	-11.516
焼けて	-11.5162
▁誤った	-11.5162
食卓	-11.5163
▁原子	-11.5163
拾	-11.5163
それでも	-11.5164
田舎	-11.5165
流出	-11.5165
の豊かな	-11.5166
食料	-11.5169
虫が	-11.5169
当日	-11.5171
野外	-11.5172
がたまる	-11.5174
任命	-11.5174
持っていること	-11.5176
小石	-11.5177
▁いまから電話をかける	-11.5179
大人	-11.5181
神道	-11.5181
税金	-11.5182
▁パイプ	-11.5183
かかっていた	-11.5184
済み	-11.5186
田さん	-11.5187
運動をする	-11.5188
その辺	-11.5189
仕入れ	-11.5195
知ること	-11.5195
私たちは	-11.5198
私の元気かい予約	-11.5198
北方	-11.5198
▁かぜ	-11.5198
ばか者	-11.5199
書物の	-11.52
伝える	-11.5201
人人が	-11.5202
なれば	-11.5203
粉末	-11.5203
つみ	-11.5205
映画の	-11.5208
西部	-11.5208
▁書籍	-11.5208
▁代々木	-11.5209
らせること	-11.5211
▁施	-11.5212
を与えること	-11.5214
告白	-11.5215
▁洗濯	-11.5215
すぐに電話をかける	-11.5216
▁禁酒	-11.5217
普通より	-11.522
▁通信	-11.522
女だ	-11.5221
に属し	-11.5223
一か月	-11.5226
▁きょうの	-11.5227
吹く風	-11.523
▁なぞ	-11.5231
版画	-11.5231
すし	-11.5233
本国	-11.5234
の着物	-11.5236
を去る	-11.5237
で打つ	-11.5238
▁袖	-11.5239
▁憲法	-11.524
あの世	-11.5243
降ろ	-11.5244
現れた	-11.5244
時だ	-11.5244
馬に乗って	-11.5245
を帯びて	-11.5249
プレ	-11.5251
信じる	-11.5251
▁特別の	-11.5251
を引いた	-11.5251
はいる	-11.5252
敬意	-11.5252
寬	-11.5252
▁彼は何	-11.5253
尊重	-11.5253
がかかる	-11.5257
▁彼らに	-11.5257
▁細かく	-11.5258
▁老い	-11.5259
▁駄	-11.5261
はまるで	-11.5262
糸で	-11.5263
ったりする	-11.5264
は僕の	-11.5265
力学	-11.5265
の知識	-11.5265
▁準備	-11.5266
▁爪	-11.5266
打ち明け	-11.5267
恐れて	-11.5267
▁昨日	-11.5269
▁栄養	-11.5269
接する	-11.5271
切ること	-11.5275
に立って	-11.5277
▁予想	-11.5277
抜いて	-11.5278
桜の	-11.5279
▁濃い	-11.528
清さん	-11.5282
六月	-11.5284
新人	-11.5284
始まる	-11.5286
くっつく	-11.5288
頑張	-11.5289
の戦い	-11.5296
部屋の中	-11.5297
番目	-11.53
経済的	-11.53
▁いつか	-11.5301
多くの人が	-11.5301
の力で	-11.5301
▁手術	-11.5302
大都市	-11.5302
フォー	-11.5303
表現する	-11.5306
写真いまから	-11.5306
▁まめ	-11.5307
一番よい	-11.5307
を動かす	-11.5308
▁天才	-11.5309
はじき	-11.5309
▁p	-11.5309
の計画	-11.5309
額に	-11.531
▁就職	-11.531
きれない	-11.5311
債	-11.5312
その日の	-11.5314
僕に	-11.5316
同類の	-11.5317
▁かなり	-11.5318
青空	-11.5319
右手	-11.5319
ずき	-11.5321
ないのに	-11.5321
世を	-11.5322
▁品質	-11.5323
ローマ字	-11.5325
の重さ	-11.5325
▁値段	-11.5327
▁図書館	-11.5328
こもって	-11.5329
値打ち	-11.5329
▁いっしょに	-11.533
している人	-11.533
腰掛け	-11.5333
から成り	-11.5334
で写真ちょっと	-11.5334
飛んでい	-11.5334
▁やがて	-11.5334
赤ん坊を	-11.5336
▁方方	-11.5338
しかけ	-11.534
暖地	-11.5341
時刻に	-11.5342
ドライブ	-11.5342
の順序	-11.5343
▁冒険	-11.5344
の和	-11.5345
は薬用	-11.5346
▁まっすぐ	-11.5346
言われる	-11.5349
簡単	-11.535
してやった	-11.5355
この仕事	-11.5355
飛行機が	-11.5356
に分かれて	-11.5356
学士	-11.5358
休め	-11.5358
があったら	-11.5358
警察に	-11.5358
▁何が	-11.536
公認	-11.5361
の幼虫	-11.5362
あじ	-11.5363
▁彼らは彼の	-11.5365
に産する	-11.5366
▁彼は私より	-11.5367
燃	-11.5368
出入	-11.5368
▁畳	-11.5369
見ても	-11.537
の中にある	-11.5373
突き出た	-11.5376
▁婚約	-11.5377
分割	-11.5378
▁ある事を	-11.5379
ひっくり返	-11.538
まとめた	-11.5381
痛みが	-11.5382
大胆	-11.5382
が切れる	-11.5387
をつぶす	-11.5387
ぐれ	-11.5389
▁会計	-11.5392
軽率	-11.5392
臨終	-11.5395
が悪く	-11.5395
未開	-11.5395
ドリ	-11.5396
▁内閣	-11.5397
ためには	-11.5398
気になった	-11.5398
やすく	-11.5398
御所	-11.5399
恨	-11.5401
掘	-11.5401
反乱	-11.5401
縁組	-11.5402
山道	-11.5402
が残る	-11.5404
に気をつけ	-11.5404
努力した	-11.5405
▁アイ	-11.5406
募	-11.5406
▁独立	-11.5408
別れる	-11.5408
液体の	-11.5411
歩き回る	-11.5411
反逆	-11.5412
車に乗	-11.5413
をしないこと	-11.5413
の主人	-11.5414
をもらって	-11.5415
共産主義	-11.5415
僕には	-11.5417
般	-11.5417
杯の	-11.5418
巣鴨	-11.5419
厄	-11.542
婦人用	-11.542
征	-11.5421
こっち	-11.5421
小作	-11.5423
稼ぎ	-11.5423
▁メッセを送信	-11.5423
ージ	-11.5424
茅ヶ崎	-11.5424
捻	-11.5425
は言えない	-11.5426
究	-11.5426
を挙げる	-11.5426
余る	-11.5426
高田馬場	-11.5426
▁船を	-11.5427
▁もう一度	-11.5427
汽	-11.5427
出資	-11.5427
痕	-11.5428
威勢	-11.5428
鶯谷	-11.5429
▁はな	-11.5429
▁抗	-11.543
申しあげます	-11.543
囲碁	-11.543
婆	-11.543
わた	-11.5431
の技術	-11.5431
にはいる	-11.5431
を支える	-11.5431
広島	-11.5432
臼	-11.5432
まんまと	-11.5432
研	-11.5432
郡	-11.5432
さいたま	-11.5433
容赦	-11.5433
謹	-11.5433
肢	-11.5433
絵をかく	-11.5434
をこうむる	-11.5434
いかがわしい	-11.5434
スピーチ	-11.5434
粟	-11.5435
出てくる	-11.5435
爐	-11.5435
遡	-11.5435
瘡	-11.5435
屠	-11.5435
畔	-11.5435
x	-11.5435
あこがれ	-11.5435
狡	-11.5435
欺	-11.5435
ステレオ	-11.5435
ちょっぴり	-11.5435
ナトリウム	-11.5435
斧	-11.5435
灌	-11.5435
オフィス	-11.5435
丁寧に	-11.5435
孟	-11.5435
窟	-11.5435
註	-11.5435
途方もない	-11.5435
▁えーっと安全かどうかの自己診断	-11.5435
▁んー安全チェック	-11.5435
そわそわ	-11.5435
ボクサー	-11.5435
俊	-11.5435
吠	-11.5435
猥	-11.5435
疵	-11.5435
誅	-11.5435
躯	-11.5435
鄙	-11.5435
▁えーっと使い方の診断	-11.5435
ぐるりと	-11.5435
とは限らない	-11.5435
只	-11.5435
オーケストラ	-11.5435
准	-11.5435
祥	-11.5435
そろばん	-11.5435
幾重にも	-11.5435
廓	-11.5435
撥	-11.5435
未亡人	-11.5435
謙遜	-11.5435
聾	-11.5435
アルミニウム	-11.5435
サーカス	-11.5435
稜	-11.5435
▁あの安全度のチェックチェック	-11.5435
びっくりする	-11.5435
漿	-11.5435
▁えー安全度のチェック診断	-11.5435
グラム	-11.5435
いろんな	-11.5435
プラスチック	-11.5435
伸縮	-11.5435
が伴う	-11.5435
膨張	-11.5435
けしからぬ	-11.5435
鎌倉	-11.5435
かろうじて	-11.5435
認可	-11.5435
正方形	-11.5435
用途が広い	-11.5435
採掘	-11.5436
浜松	-11.5436
徴候	-11.5436
調味料	-11.5436
ニュー	-11.5436
のらくら	-11.5436
崩壊	-11.5436
か否か	-11.5436
中年	-11.5436
至る所	-11.5436
強引に	-11.5436
ラッパ	-11.5436
ブラック	-11.5436
問答	-11.5436
こまかく	-11.5436
実践	-11.5436
誓約	-11.5436
包丁	-11.5436
きく科の多年生植物	-11.5436
を越えた	-11.5436
も同然だ	-11.5436
同種の	-11.5436
諸侯	-11.5436
圧縮	-11.5437
のぞき	-11.5437
何年も	-11.5437
▁ボール	-11.5437
完結	-11.5437
語彙	-11.5437
意匠	-11.5437
隔たり	-11.5437
喪失	-11.5437
了解	-11.5437
しのぎ	-11.5437
索引	-11.5437
謝礼	-11.5437
傍聴	-11.5438
設けられた	-11.5438
弊害	-11.5438
傑作	-11.5438
保有	-11.5438
容積	-11.5438
参照	-11.5438
どなた	-11.5438
曇った	-11.5438
わきまえ	-11.5438
海苔	-11.5438
充実	-11.5438
堅固	-11.5438
限定	-11.5439
He	-11.5439
例えば	-11.5439
全般	-11.5439
炊事	-11.5439
進退	-11.5439
身分の低い	-11.5439
担任	-11.5439
ペット	-11.5439
引退	-11.544
あんまり	-11.544
ちょろ	-11.544
ジム	-11.544
▁その川は	-11.544
▁たいていの	-11.544
溶接	-11.544
さいころ	-11.544
呑み	-11.5441
▁地球は	-11.5441
から登戸まで	-11.5441
になるように	-11.5442
荷造り	-11.5443
牢屋	-11.5443
減少	-11.5443
容量	-11.5443
返礼	-11.5443
しかたがない	-11.5443
偽造	-11.5443
特質	-11.5443
を備えた	-11.5443
▁彼は僕	-11.5443
ジェット機	-11.5443
選挙区	-11.5444
記した	-11.5445
酒宴	-11.5445
言葉づかい	-11.5445
▁その劇は	-11.5445
問題が	-11.5445
優良	-11.5445
を刈る	-11.5445
採点	-11.5445
逃亡	-11.5445
女郎	-11.5446
修士	-11.5446
太陽が	-11.5446
指紋	-11.5446
無分別	-11.5446
▁山野	-11.5447
勇さん	-11.5447
察する	-11.5447
手を振って	-11.5447
がほしい	-11.5447
泳いで	-11.5448
不振	-11.5448
あたま	-11.5448
天災	-11.5448
▁幸運	-11.5448
の全体	-11.5449
ひ孫	-11.5449
美容	-11.5449
忌み	-11.545
敵意	-11.545
羽根	-11.545
技法	-11.5451
合い図	-11.5451
に至る	-11.5451
即席	-11.5452
伝記	-11.5452
骨組	-11.5452
片づける	-11.5453
昼夜	-11.5453
占い	-11.5453
大輝	-11.5453
こども	-11.5454
打ち上げ	-11.5454
複写	-11.5454
▁海水浴	-11.5455
豊富な	-11.5455
▁浜	-11.5455
をつけたもの	-11.5455
ハム	-11.5455
慣れた	-11.5455
学級	-11.5456
金庫	-11.5456
傷害	-11.5457
皇室	-11.5457
考えられる	-11.5457
円の	-11.5457
類を	-11.5458
▁余計な	-11.5458
力のある	-11.5458
愛好	-11.5459
▁問題を	-11.5459
の度合	-11.546
露骨	-11.546
文壇	-11.546
引っぱる	-11.546
競技場	-11.5461
学校へ行く	-11.5461
好んで	-11.5461
にしても	-11.5462
平常	-11.5462
額面	-11.5462
秋田	-11.5463
ぴったり合う	-11.5463
今頃	-11.5463
もめん	-11.5463
▁自然の	-11.5463
食料品	-11.5464
フォ	-11.5464
消費者	-11.5464
婦人服	-11.5464
和解	-11.5465
▁新木場	-11.5465
領主	-11.5466
▁P	-11.5466
化粧品	-11.5466
▁にわかに	-11.5467
草原	-11.5468
血筋	-11.5469
列車に間に合	-11.5469
地盤	-11.5469
債権者	-11.5469
通常	-11.5471
話し合う	-11.5472
をなくす	-11.5472
実在	-11.5473
旅費	-11.5473
金沢	-11.5473
年頃	-11.5474
後退	-11.5474
年寄り	-11.5475
を引き出す	-11.5475
薄弱	-11.5475
遺産	-11.5475
君を	-11.5475
▁その人の	-11.5476
魔法	-11.5476
天罰	-11.5477
晴れた	-11.5477
▁責め	-11.5478
の成功を	-11.5478
国防	-11.5478
優美な	-11.5479
▁彼は仕事	-11.5479
▁書物を	-11.548
霊魂	-11.548
▁原文	-11.5482
っ面	-11.5483
ページを開け	-11.5484
かれて	-11.5485
海辺	-11.5486
我慢する	-11.5486
病気になった	-11.5486
▁酸	-11.5487
下ろし	-11.5487
第二	-11.5489
つむ	-11.5489
あわせて	-11.5489
買手	-11.5489
なことをする	-11.5489
仮面	-11.549
着用	-11.549
いわき	-11.5492
▁計算	-11.5493
言う言葉	-11.5495
ある期間	-11.5495
▁馬を	-11.5496
腹は白	-11.5496
背が高い	-11.5497
親に	-11.5498
出なかった	-11.5499
呂覆	-11.55
進路	-11.5501
防火	-11.5501
船乗り	-11.5502
一般的な	-11.5506
▁群衆は	-11.5506
┐	-11.5506
▁体重	-11.5506
が最も	-11.5507
に上る	-11.5507
たいした	-11.5508
計算する	-11.5508
でもある	-11.5509
見張る	-11.551
主役	-11.551
に書く	-11.5512
あいだ	-11.5512
歩み	-11.5513
どうでも	-11.5513
▁いまから電話する	-11.5513
に反して	-11.5514
本当だ	-11.5514
できます	-11.5515
などで作った	-11.5517
文筆	-11.5518
一塁	-11.5518
」、「	-11.5519
野鳥	-11.552
じろ	-11.5521
が短い	-11.5522
陸上	-11.5524
道化	-11.5526
斬り	-11.5527
高め	-11.5528
られず	-11.5528
親等	-11.5529
で遊ぶ	-11.5529
看護	-11.5529
なかま	-11.5529
▁恋愛	-11.553
▁ちゅう	-11.5531
周期	-11.5531
気候は	-11.5531
旗を	-11.5532
直行	-11.5534
個人的な	-11.5535
妨げ	-11.5536
▁修	-11.5538
方々	-11.5539
を捜して	-11.5541
の周り	-11.5541
淡水	-11.5543
今後	-11.5544
を負う	-11.5544
そのため	-11.5547
ごし	-11.5548
そうな顔	-11.5549
明日の気温	-11.5549
してよい	-11.5551
に帰る	-11.5552
あらい	-11.5553
皮膚に	-11.5553
哀れな	-11.5554
▁少女	-11.5554
右側	-11.5556
放送局	-11.5556
苦しめる	-11.5557
関税	-11.5557
▁駐車場	-11.5559
高級	-11.556
つけている	-11.556
罰金	-11.556
防水	-11.5562
天気予報どう	-11.5564
さびしい	-11.5565
がよかった	-11.5565
真空	-11.5565
こない	-11.5572
▁喜んで	-11.5574
▁琴	-11.5575
▁紅茶	-11.5579
見せること	-11.5579
応じ	-11.558
量を	-11.558
▁芝居で	-11.5581
私にとって	-11.5585
悲	-11.5585
あたる	-11.5586
▁辛	-11.5587
じょうずな	-11.5587
に分け	-11.5589
結果として	-11.5591
個性	-11.5592
を感ずる	-11.5593
待って	-11.5593
に変わる	-11.5593
指先	-11.5596
というのが	-11.5597
同行	-11.5597
▁その事件は	-11.5597
で歩く	-11.56
辰雄さん	-11.56
が合わない	-11.5602
▁平面	-11.5603
の模様	-11.5603
なやつ	-11.5603
▁隠れ	-11.5603
大波	-11.5604
来世	-11.5606
メッセージいまから送信	-11.5606
刺す	-11.5606
論点	-11.5607
の季節	-11.5609
▁いん	-11.5609
▁受験	-11.561
雑用	-11.5613
地震で	-11.5614
引いた	-11.5616
の後ろ	-11.5616
▁刺	-11.5617
見切り	-11.5618
車が	-11.5619
▁支払い	-11.562
式に	-11.562
▁おれ	-11.5621
沈んで	-11.5622
絶望	-11.5624
▁ほお	-11.5627
暮れる	-11.5627
犬に	-11.5633
との間の	-11.5634
あいつ	-11.5634
言を言う	-11.5635
捨てること	-11.5635
語法	-11.5636
その物	-11.5637
噴出	-11.5637
説明した	-11.5638
つなぐ	-11.5638
▁おや	-11.5639
戻り	-11.564
が上手	-11.5642
▁足が	-11.5643
聞いている	-11.5646
よごれた	-11.565
▁そこは	-11.5651
の機会	-11.5651
生意気な	-11.5652
▁海の	-11.5653
またはその	-11.5653
もちろん	-11.5657
味を	-11.5657
に注意	-11.5658
固める	-11.5659
▁いか	-11.566
穴から	-11.5661
支配人	-11.5661
洗って	-11.5662
演習	-11.5662
終わりまで	-11.5663
製本	-11.5663
▁近頃	-11.5664
悪い事	-11.5665
▁ちょ	-11.5666
ひとみ	-11.5668
さかい	-11.5669
を大いに	-11.567
とうてい	-11.567
▁別れ	-11.5671
▁あご	-11.5673
▁スピード	-11.5674
っこい	-11.5674
に少し	-11.5674
まとめて	-11.5675
▁締め	-11.5675
▁同一	-11.5675
▁他人が	-11.5676
を付けた	-11.5678
じょうずに	-11.5679
の意志	-11.5679
書き方	-11.568
まぜて	-11.568
▁暑さ	-11.5681
生徒たち	-11.5683
として用いる	-11.5684
▁武力	-11.5685
▁白い	-11.5686
糸で織った	-11.5687
進化	-11.5688
ができて	-11.5689
▁他のもの	-11.5689
の茎	-11.569
子音	-11.5691
なのです	-11.5692
熱心に	-11.5692
がしら	-11.5695
債券	-11.5696
▁とん	-11.5696
高いこと	-11.5697
仏事	-11.5698
▁仏教	-11.5699
結婚の	-11.57
▁悪い事	-11.5701
宿題を	-11.5702
わないこと	-11.5703
共同で	-11.5703
▁食料	-11.5703
圧倒	-11.5705
▁ゆっくり	-11.5706
尽きる	-11.5707
信心	-11.5708
るため	-11.5709
指に	-11.5714
▁スープ	-11.5714
おこう	-11.5715
▁きびしい	-11.5716
の時間	-11.5716
それらの	-11.5717
になりますか	-11.5718
に苦しむ	-11.5719
▁細かい	-11.572
に出席する	-11.572
世間で	-11.5722
▁元気かいの俺の予約	-11.5726
▁蚕	-11.5727
後足	-11.5727
▁水を	-11.5727
死者の	-11.5727
したりすること	-11.5728
に構える	-11.5729
食べない	-11.5732
生気	-11.5733
のとき	-11.5735
味をつけた	-11.5737
はく	-11.5738
今では	-11.5739
して行う	-11.574
くじけ	-11.5743
方言	-11.5743
振って	-11.5746
▁もち	-11.5747
▁動物が	-11.5747
小数	-11.5749
▁ついに	-11.575
めったにない	-11.5752
▁ヒ	-11.5754
メッセちょっと送信	-11.5755
数が多い	-11.5756
種目	-11.5756
▁彼は仕事に	-11.5756
に変わった	-11.5757
▁感情を	-11.5757
▁週	-11.5757
状態である	-11.5764
いう音	-11.5765
▁仏の	-11.5765
会場	-11.5767
きいた	-11.5767
つかまえる	-11.5768
▁he	-11.5772
▁僕には	-11.5773
人類の	-11.5776
決算	-11.5777
▁月に	-11.5779
そこへ	-11.5783
分配	-11.5784
がとても	-11.5785
われている	-11.5785
学生の	-11.5786
入れ物	-11.5788
が痛む	-11.579
▁波が	-11.5791
▁我々が	-11.5793
ばかりだった	-11.5793
▁翔	-11.5794
▁どうやら	-11.5795
を登る	-11.5795
〕(	-11.5796
犯罪者	-11.5797
分けた	-11.5797
し合う	-11.5798
訴える	-11.5799
が広く	-11.58
場合の	-11.5801
残した	-11.5801
▁梅雨	-11.5803
よく考え	-11.5805
映え	-11.5806
をせず	-11.5806
預かり	-11.5806
事情が	-11.5807
▁箱	-11.5809
は人間	-11.5811
▁国王	-11.5811
天性	-11.5812
▁亜	-11.5812
を離れた	-11.5813
すぐ近く	-11.5814
まつる	-11.5814
動物が	-11.5815
というものは	-11.5816
天気予報はどう	-11.5816
▁江戸時代の	-11.5816
小枝	-11.582
を証明し	-11.5821
秘蔵	-11.5821
トップ	-11.5821
を使った	-11.5822
山の中	-11.5822
正規の	-11.5823
▁はく	-11.5824
▁英語を	-11.5824
が大嫌い	-11.5826
を習う	-11.5826
のに必要な	-11.5826
ホテルに	-11.5827
はますます	-11.583
考慮	-11.583
▁ろく	-11.583
ゲル	-11.5831
▁ボートは	-11.5832
きらう	-11.5833
洗濯	-11.5834
▁なるほど	-11.5834
下級の	-11.5836
立たせる	-11.5837
召集	-11.5838
▁田中	-11.5838
のを防ぐ	-11.584
をつか	-11.5841
なめらかで	-11.5844
流感	-11.5845
▁成功	-11.5846
マー	-11.5847
▁代金	-11.5848
にひた	-11.5848
に勝つ	-11.5849
▁便	-11.585
愛想	-11.5853
ホームセンター	-11.5854
に等しい	-11.5855
乏しい	-11.5859
目上の人	-11.586
気持を表す	-11.5862
市役所	-11.5862
▁藪	-11.5863
▁あいにく	-11.5863
放射能	-11.5864
▁機械の	-11.5864
我慢できない	-11.5864
家に帰	-11.5865
▁法令	-11.5865
頓	-11.5866
▁側	-11.5866
ドイツ語	-11.5867
又	-11.5867
狩猟	-11.5868
▁一人	-11.5868
両方の	-11.5869
完	-11.5869
二枚	-11.5869
言い伝え	-11.5869
運賃	-11.5869
▁もとの	-11.5869
近頃	-11.5869
料理の	-11.587
の費用	-11.5872
キン	-11.5873
▁耐	-11.5873
シャ	-11.5874
柔道	-11.5874
かっている	-11.5876
動いた	-11.5877
だん	-11.5878
評価する	-11.5878
▁陸地	-11.5878
穴をあける	-11.588
ロケット	-11.5881
実を結ぶ	-11.5883
核実験	-11.5883
警察を呼んで	-11.5885
▁劇場	-11.5885
から離れた	-11.5885
朝早く	-11.5886
万年	-11.5887
同点	-11.5888
に当てる	-11.5888
間接	-11.5889
登山	-11.589
きのう	-11.589
武力	-11.5891
▁才	-11.5892
して歩く	-11.5894
重病	-11.5895
今日の天気どう	-11.5895
外国語	-11.5895
商業	-11.5895
をまぜ	-11.5896
が出来	-11.5896
だったので	-11.5896
明け方	-11.5897
るでしょう	-11.5897
変える	-11.5897
れなかった	-11.5897
の要求	-11.5898
一時に	-11.59
ボス	-11.59
ふやすこと	-11.5901
鳥類	-11.5902
▁彼の目	-11.5904
▁少	-11.5904
▁収穫	-11.5905
を包む	-11.5905
を送った	-11.5905
科の魚	-11.5906
その年の	-11.5907
極度	-11.591
le	-11.591
▁労働者	-11.5911
よりずっと	-11.5912
を設ける	-11.5913
株式	-11.5914
生徒に	-11.5915
若く	-11.5916
おそい	-11.5919
ひもで	-11.5919
▁脇	-11.5922
▁攻め	-11.5925
いつか	-11.5926
しなければならなかった	-11.5929
▁民族	-11.5931
り込んだ	-11.5932
本文	-11.5934
生きた	-11.5936
努力する	-11.5936
集まること	-11.5939
これ以上	-11.594
横たわる	-11.5941
と違った	-11.5943
で旅行する	-11.5943
▁淡	-11.5944
本文の	-11.5944
ある場所に	-11.5945
▁水銀	-11.5947
の特徴	-11.5947
裁断	-11.5947
っていて	-11.5948
▁彼らは我々	-11.5948
をかわす	-11.595
天文	-11.5952
▁臨	-11.5953
▁水の	-11.5953
彼女の顔	-11.5953
の端に	-11.5955
言いつけ	-11.5956
▁会は	-11.5957
を当てる	-11.5958
▁圧力	-11.5958
肩を	-11.5959
即座に	-11.596
をはずす	-11.5961
すてき	-11.5962
▁詩歌	-11.5963
山腹	-11.5963
▁飲み	-11.5964
▁雲が	-11.5968
投票で	-11.5969
▁主要	-11.597
しましたか	-11.597
何人かの	-11.597
ボクシング	-11.5972
は大変な	-11.5975
の通り	-11.5976
んでしょう	-11.5977
言っても	-11.5978
▁予算	-11.5979
▁批判	-11.598
▁大変な	-11.598
▁宮	-11.5982
前後に	-11.5982
突く	-11.5983
設立	-11.5983
を認めた	-11.5984
倍の	-11.5984
派遣する	-11.5988
より先に	-11.5988
▁フィ	-11.5988
放つ	-11.5989
▁掻き	-11.5991
▁彼は自分	-11.5992
▁きっと	-11.5993
▁ほこり	-11.5994
ざま	-11.5995
▁これを	-11.5995
▁かすかな	-11.5996
豊か	-11.5996
▁田畑	-11.5997
▁知能	-11.5997
唱え	-11.5997
▁岩石	-11.5998
我が	-11.5999
しているのか	-11.5999
▁テーブル	-11.6001
国に	-11.6001
を合わせて	-11.6003
▁官職	-11.6005
服用	-11.6005
▁最初	-11.6006
砲火	-11.6008
はいつ	-11.6009
たので	-11.6009
はただ	-11.601
非難する	-11.601
行動をとる	-11.6011
スコットランド	-11.6011
▁丁	-11.6012
出発した	-11.6012
くろ	-11.6014
延期	-11.6014
▁町中	-11.6015
監督する	-11.6015
した食品	-11.6015
塗る	-11.6016
を打ち込む	-11.6019
金色の	-11.602
かわいい	-11.602
▁土木	-11.6024
定める	-11.6024
付いた	-11.6025
老年	-11.6026
おもて	-11.6026
▁死者の	-11.6027
気をつける	-11.6027
その道	-11.6031
ドルで	-11.6031
尽くした	-11.6035
斯	-11.6035
の発生	-11.6035
技巧	-11.6036
玄	-11.6036
クル	-11.6037
▁治安	-11.6037
はかなり	-11.6038
▁婿	-11.6042
▁その人が	-11.6042
賢明	-11.6044
つくる	-11.6044
▁刀を	-11.6047
抑え	-11.6048
加えた	-11.6049
オックスフォード大学	-11.6049
▁芸術	-11.6049
恋の	-11.605
を私に	-11.605
卒業する	-11.605
来週	-11.6051
すまい	-11.6052
うぬぼれ	-11.6054
言われた	-11.6054
▁軍隊の	-11.6055
おこって	-11.6058
の努力を	-11.6058
裁ち	-11.606
上品な	-11.606
叫び声	-11.6061
首位	-11.6061
自宅	-11.6061
三位	-11.6062
ゅ	-11.6063
しるした	-11.6065
▁淫	-11.6065
▁教養	-11.6067
死者の霊	-11.6067
を問わず	-11.6067
絡	-11.607
▁蒸し	-11.6071
金銭を	-11.6071
帝王	-11.6072
思わない	-11.6073
新聞社	-11.6074
翻	-11.6075
一般的	-11.6076
燐酸	-11.6078
箱に	-11.6079
▁いまからメッセを	-11.6079
おろか	-11.608
小さいこと	-11.608
放射	-11.6081
すすめる	-11.6084
▁最も	-11.6084
業とする人	-11.6084
互いの	-11.6084
光が	-11.6085
、000	-11.6085
▁我が	-11.6086
倒産	-11.6086
勲章	-11.6086
ただし	-11.6086
に出かけた	-11.6086
▁フットボール	-11.6087
を禁ずる	-11.6088
閣	-11.609
神聖	-11.609
▁基礎	-11.6091
狩	-11.6091
から落ちる	-11.6091
隻	-11.6091
全力を尽く	-11.6091
粘	-11.6091
北朝霞	-11.6091
五反田	-11.6092
少しもない	-11.6092
余計	-11.6092
宇都宮	-11.6092
▁犯罪	-11.6092
+	-11.6093
に移る	-11.6093
宮崎	-11.6094
春日井	-11.6094
紐	-11.6094
どぶ	-11.6094
殖	-11.6095
監	-11.6095
生き生き	-11.6095
惰	-11.6095
浪費	-11.6095
さいたま副都心	-11.6095
北九州	-11.6095
直美さん	-11.6096
積んで	-11.6097
看	-11.6097
遷	-11.6097
を失わせる	-11.6097
駐	-11.6097
叢	-11.6098
疾患	-11.6098
骸	-11.6098
しつつある	-11.6099
良く	-11.61
是	-11.61
寓	-11.61
臆	-11.61
爛	-11.61
卦	-11.6101
拘	-11.6101
租	-11.6101
ぎりぎり	-11.6101
断わった	-11.6102
はなはだ	-11.6102
▁えー安全度のチェック	-11.6102
▁んー安全度のチェック	-11.6102
ちくしょう	-11.6102
をそそる	-11.6102
鎌	-11.6102
》	-11.6102
癌	-11.6102
ユダヤ	-11.6102
浩	-11.6102
沃	-11.6102
選ばれる	-11.6102
ブラジル	-11.6102
挿	-11.6102
眩	-11.6102
アクセント	-11.6102
肘	-11.6102
輝かしい	-11.6102
▁あの安全自己診断	-11.6102
▁濡れ	-11.6102
えーっと安全度のチェック自己診断	-11.6102
カウント	-11.6102
憑	-11.6102
蠅	-11.6102
ハンドル	-11.6102
劫	-11.6102
大げさな	-11.6102
柵	-11.6102
檀	-11.6102
癒	-11.6102
盃	-11.6102
芥	-11.6102
袴	-11.6102
鞭	-11.6102
のろのろ	-11.6102
シーズン	-11.6102
伽	-11.6102
思わぬ	-11.6102
撚	-11.6102
訛	-11.6102
轍	-11.6102
遥	-11.6102
けばけばし	-11.6102
たくらみ	-11.6102
歿	-11.6102
翅	-11.6102
著名な	-11.6102
鉾	-11.6102
けいれん	-11.6102
憤慨	-11.6102
ふすま	-11.6102
歓喜	-11.6102
抄	-11.6102
石器時代	-11.6102
寛大な	-11.6102
岡崎	-11.6102
にぎやかに	-11.6102
むなしく	-11.6102
盂蘭盆	-11.6102
蛙	-11.6102
に先立って	-11.6102
閣僚	-11.6102
あらわす	-11.6102
スーツケース	-11.6102
のうちの	-11.6102
go	-11.6102
何回も	-11.6102
最良の	-11.6102
なじみ	-11.6102
醤油	-11.6102
ざらざら	-11.6102
小言	-11.6102
選ばれた	-11.6102
参詣	-11.6102
ボストン	-11.6102
虐待	-11.6102
伊勢	-11.6102
協同	-11.6102
始終	-11.6103
ビロード	-11.6103
じりじり	-11.6103
シーツ	-11.6103
澱粉	-11.6103
屈辱	-11.6103
ジェ	-11.6103
The	-11.6103
繁栄	-11.6103
二枚貝	-11.6103
旋律	-11.6103
リンゴ	-11.6103
増進	-11.6103
メント	-11.6103
ケース	-11.6103
といわれる	-11.6103
つまらぬ	-11.6103
の苦しみ	-11.6103
雪が	-11.6103
とは思えない	-11.6103
憎しみ	-11.6103
隔離	-11.6103
持続	-11.6103
どろぼう	-11.6103
会いたい	-11.6103
亭主	-11.6104
お願いします	-11.6104
▁お母	-11.6104
装束	-11.6104
淡水魚	-11.6104
記述	-11.6104
レーダー	-11.6104
視覚	-11.6104
に起こった	-11.6104
思う存分	-11.6104
堂々と	-11.6104
接続	-11.6104
とにかく	-11.6104
失敬	-11.6104
考案	-11.6104
▁じゅん	-11.6104
誤植	-11.6104
見晴らし	-11.6105
お断わり	-11.6105
▁この辞書は	-11.6105
かまわず	-11.6105
規制	-11.6105
こわくて	-11.6105
課題	-11.6105
傍観	-11.6105
リボン	-11.6105
に付する	-11.6105
晴天	-11.6105
士官	-11.6105
ブック	-11.6105
低気圧	-11.6105
含まれている	-11.6105
ろうばい	-11.6105
絶頂	-11.6105
あわれみ	-11.6106
助動詞	-11.6106
図案	-11.6106
通り過ぎる	-11.6106
静止	-11.6106
おじいさん	-11.6106
を持たず	-11.6106
官僚	-11.6106
見えなかった	-11.6106
欲求	-11.6106
石膏	-11.6106
悲しむ	-11.6106
を混ぜて	-11.6106
から蕨まで	-11.6106
謝罪	-11.6106
祭礼	-11.6106
テレビ番組	-11.6107
湾曲	-11.6107
さえすれば	-11.6107
重複	-11.6107
きめられた	-11.6107
立ち上がった	-11.6107
男女間の	-11.6107
ごろごろ	-11.6107
順順に	-11.6107
通告	-11.6107
悪くない	-11.6107
になりそうだ	-11.6107
めぐって	-11.6108
厳格	-11.6108
満塁	-11.6108
祝辞	-11.6108
機関銃	-11.6108
ひ孫さん	-11.6108
落胆	-11.6108
軽快	-11.6108
感激	-11.6108
余暇	-11.6108
婿ちゃん	-11.6108
にらむ	-11.6109
財界	-11.6109
暴徒	-11.6109
ぜんまい	-11.6109
幹部	-11.6109
探知	-11.6109
呼吸器	-11.611
順次	-11.611
▁彼の行為は	-11.611
雑貨	-11.611
堅苦しい	-11.611
改造	-11.611
断片	-11.611
を指した	-11.611
圧制	-11.611
組立て	-11.611
種をまく	-11.6111
判明	-11.6111
厳密	-11.6111
代用	-11.6111
大森	-11.6112
多大の	-11.6112
根本的な	-11.6112
技量	-11.6113
しばらくの間	-11.6113
処方	-11.6113
右翼	-11.6113
申し分	-11.6113
沈んだ	-11.6113
電圧	-11.6113
授業料	-11.6113
上皇	-11.6114
口語	-11.6114
主婦	-11.6115
かまど	-11.6115
高齢	-11.6115
平気だ	-11.6115
言わずに	-11.6116
夏休み	-11.6116
並んでいる	-11.6116
おいしい	-11.6117
首都	-11.6117
戸籍	-11.6117
を拾う	-11.6117
検定	-11.6117
もっぱら	-11.6117
人から	-11.6117
極秘	-11.6117
証明書	-11.6117
曲がっている	-11.6118
尽力	-11.6118
つぼみ	-11.6118
仕様	-11.6119
んば	-11.6119
溜め	-11.6119
おおわれ	-11.612
嘆き	-11.612
勤めている	-11.612
抽象	-11.612
杯の水	-11.612
▁資金	-11.612
というたとえ	-11.6121
断面	-11.6121
アジ	-11.6121
なりゆき	-11.6121
けわしい	-11.6122
禁制	-11.6122
有限	-11.6122
▁航海	-11.6122
水蒸気	-11.6122
こぼれた	-11.6123
むかし	-11.6123
目で見る	-11.6123
▁彼らは彼に	-11.6123
配合	-11.6123
石英	-11.6123
▁その国は	-11.6123
性交	-11.6124
所持	-11.6124
能楽	-11.6124
女性が	-11.6124
やなぎ	-11.6124
体長約	-11.6125
通訳	-11.6125
てない	-11.6125
見世物	-11.6125
武芸	-11.6126
不当な	-11.6126
三〇センチ	-11.6126
告げ知らせる	-11.6126
作曲	-11.6127
の店	-11.6128
ふくら	-11.6128
風紀	-11.6129
すくい	-11.6129
まじない	-11.6129
責める	-11.613
はげしい	-11.6131
何もしないで	-11.6131
文脈	-11.6132
風潮	-11.6133
引き続いて	-11.6133
が上手だ	-11.6133
断言	-11.6133
参上	-11.6134
水溶液	-11.6134
畜	-11.6134
を採る	-11.6135
てもらえ	-11.6135
いのち	-11.6135
戦場で	-11.6135
歳月	-11.6136
摺り	-11.6136
を業とする	-11.6136
▁芝生	-11.6136
▁ウエ	-11.6136
引き受けた	-11.6136
そこら	-11.6136
を早める	-11.6137
構内	-11.6137
おわり	-11.6138
▁戦略	-11.6138
球面	-11.6138
が一つ	-11.6139
兵役	-11.6139
疑う	-11.6139
形式の	-11.6139
黄緑色	-11.6139
▁使い方を教えて	-11.6141
メン	-11.6141
話すこと	-11.6141
早朝	-11.6141
一応	-11.6141
照会	-11.6142
調達	-11.6142
ざお	-11.6142
▁市内	-11.6143
▁何事も	-11.6143
あざ	-11.6144
官位	-11.6144
▁彼は大	-11.6145
▁走り	-11.6145
取り柄	-11.6145
問い合わせ	-11.6145
きざし	-11.6147
▁バラ	-11.6147
だと思った	-11.6147
腰を	-11.6148
伏せる	-11.6148
気持で	-11.6148
のぼり	-11.6148
病気で	-11.6148
のふち	-11.6149
をほどく	-11.615
政治上の	-11.6151
現役	-11.6151
大騷ぎ	-11.6153
認めること	-11.6153
のなら	-11.6153
彫像	-11.6153
学び	-11.6153
明朝	-11.6154
インターネットのページスマホ画面	-11.6154
船員	-11.6156
明白	-11.6156
空模様	-11.6157
つきあい	-11.6157
悪くなった	-11.6158
出生	-11.6158
有料	-11.616
それに使う	-11.616
ずくで	-11.616
その時の	-11.6161
度量	-11.6161
▁we	-11.6161
人夫	-11.6162
箱根	-11.6164
添えた	-11.6164
雑音	-11.6164
減ること	-11.6165
過ご	-11.6165
で読む	-11.6166
をなめる	-11.6168
▁出発	-11.6169
斯く	-11.6169
熱情	-11.617
汗を	-11.617
ランド	-11.617
▁仏法	-11.617
かかわり	-11.6171
▁材木	-11.6171
たちが	-11.6172
て彼は	-11.6172
壁紙	-11.6173
鳴き	-11.6176
▁藩	-11.6176
まぜ	-11.6177
大きさは	-11.6177
チック	-11.6177
散文	-11.6177
無精	-11.6177
出会った	-11.6177
釈迦の	-11.6178
相手方	-11.6178
が始まる	-11.6179
生活している	-11.6179
が互いに	-11.618
お返し	-11.618
点検	-11.618
しわざ	-11.6181
今のところ	-11.6181
棒を	-11.6183
出費	-11.6184
いでいる	-11.6184
差す	-11.6184
▁鳥の	-11.6186
下品な	-11.6187
晴れる	-11.6187
総会	-11.6188
▁競走	-11.6188
浮気	-11.619
悲劇	-11.6191
腕白	-11.6191
打たれ	-11.6192
木戸	-11.6192
▁柳	-11.6192
命名	-11.6193
わきへ	-11.6193
▁細菌	-11.6194
▁金銭を	-11.6195
爆薬	-11.6195
インター	-11.6196
押しのけ	-11.6196
のを見た	-11.6197
苦労して	-11.6197
▁神戸	-11.6198
助手	-11.6198
自生	-11.6198
▁奈良	-11.62
▁そのことで	-11.62
見られた	-11.6202
▁刑事	-11.6203
になるまで	-11.6204
▁道路の	-11.6207
▁アイス	-11.6208
を許さない	-11.6208
はま	-11.6209
とんぼ	-11.621
装飾用	-11.621
拝む	-11.6211
熱帯地方	-11.6211
すわ	-11.6212
できる限り	-11.6213
▁花屋	-11.6215
試験を受ける	-11.6216
かすり	-11.6216
感じる	-11.622
は十分	-11.6221
ばって	-11.6222
点火	-11.6223
だけでも	-11.6224
▁目が	-11.6226
埋葬	-11.6227
めんどう	-11.6229
上にある	-11.6229
似ている	-11.623
大層	-11.623
値段が	-11.6232
人目	-11.6233
▁海水	-11.6233
原子核	-11.6233
縮める	-11.6234
系の	-11.6235
豊橋	-11.6237
▁文語	-11.6238
クタ	-11.6239
▁落ち	-11.6239
捜す	-11.624
かゆ	-11.6241
人出	-11.6241
で写真をちょっと送信	-11.6242
肥え	-11.6243
正式の	-11.6243
を曲げる	-11.6244
▁幾ら	-11.6244
無数の	-11.6244
ものがない	-11.6244
したくない	-11.6246
の後に	-11.6247
状のもの	-11.6248
空軍	-11.6249
を与え	-11.6252
しゅん	-11.6253
を決する	-11.6254
おぼれる	-11.6254
から他の	-11.6255
頭上に	-11.6255
台本	-11.6256
家系	-11.6257
大臣の	-11.6259
▁ちょっとショートメッセージ	-11.626
▁スミス	-11.626
作り出す	-11.6261
▁交渉	-11.6262
同様に	-11.6265
公平な	-11.6265
出産	-11.6267
味の	-11.6267
駅で	-11.6268
を示すため	-11.6269
が急に	-11.6269
水夫	-11.627
言わせ	-11.6271
▁眠り	-11.6271
人々が	-11.6271
が下がる	-11.6272
そちら	-11.6273
絹糸	-11.6273
地元	-11.6274
うとうと	-11.6275
用など	-11.6276
▁幽霊	-11.6276
▁アラビア	-11.6277
悲観	-11.6277
▁きつね	-11.6277
んだね	-11.6279
等に	-11.628
▁顔の	-11.628
胸を	-11.6281
ほしいと	-11.6281
二次	-11.6281
をふく	-11.6282
しかも	-11.6282
▁ドレス	-11.6284
の出身	-11.6286
りましたか	-11.6287
町を	-11.6288
をかけること	-11.6289
意外な	-11.6289
はいり	-11.629
を二つ	-11.629
を突く	-11.629
をまねる	-11.6291
つぶした	-11.6292
資力	-11.6293
みがく	-11.6295
は君に	-11.6295
他のもの	-11.6299
くずれる	-11.6302
支配する	-11.6303
酒場	-11.6304
をはく	-11.6304
使用者	-11.6304
機械など	-11.6305
▁練習	-11.6305
▁帽子	-11.6306
その後	-11.6306
all	-11.6306
▁救	-11.6308
乗り換え	-11.6313
はありませんか	-11.6313
気品	-11.6317
のかしら	-11.6318
来るだろう	-11.6321
近寄	-11.6323
越え	-11.6323
▁鏡	-11.6324
▁ものの	-11.6325
記入する	-11.6327
やめろ	-11.6328
底に	-11.6328
の出る	-11.6329
▁中世	-11.6329
▁剣	-11.633
ばせ	-11.633
ひだ	-11.6332
まっすぐな	-11.6332
くだく	-11.6332
安心した	-11.6333
何より	-11.6333
▁翻	-11.6335
能力がある	-11.6337
▁ちり	-11.6338
先で	-11.6344
極端	-11.6344
正式	-11.6344
▁ミサイル	-11.6344
▁特定の	-11.6346
▁放射能	-11.6346
▁その点	-11.635
▁愛想	-11.635
の種子	-11.6351
▁地方	-11.6353
清水	-11.6353
急性	-11.6355
ようなものだ	-11.6355
▁女王	-11.6356
人前で	-11.6356
▁この薬は	-11.6358
いまからメッセを送信	-11.6363
製作	-11.6364
▁公式	-11.6365
大半	-11.6365
伝えた	-11.6367
でしたか	-11.6367
どちらも	-11.6367
北に	-11.6368
何だ	-11.6369
なぎ	-11.6369
▁文明の	-11.6369
14	-11.637
▁労	-11.637
おさめる	-11.6371
に終わった	-11.6372
▁太陽の	-11.6373
を判断する	-11.6374
天下に	-11.6375
千代さん	-11.6375
取得	-11.6375
生んだ	-11.6377
を集めた	-11.6377
▁大和	-11.6378
送った	-11.6378
から見た	-11.6386
天気どう	-11.6386
遊びに	-11.6387
いつまで	-11.639
労働者の	-11.6391
▁実用	-11.6393
▁頭が	-11.6395
▁どうしても	-11.6397
水の流れ	-11.6402
▁調子	-11.6403
▁女の子	-11.6404
四十	-11.6404
▁午前	-11.6407
▁厳しい	-11.641
などに対して	-11.641
さげる	-11.6411
▁洋服	-11.6411
桜の花	-11.6413
の緒	-11.6415
▁世に	-11.6416
▁講	-11.6416
もその	-11.6417
▁ジャズ	-11.6418
ふるまいをする	-11.6418
▁経済学	-11.6422
目の前に	-11.6423
▁私の考え	-11.6426
の不足	-11.6428
▁用意	-11.6428
に出ること	-11.6428
最中	-11.643
を免れ	-11.643
木の実	-11.6431
ふえる	-11.6433
▁正常	-11.6433
本物の	-11.6435
▁せつ	-11.6438
出頭	-11.6442
乗っている	-11.6442
眺める	-11.6443
月曜日	-11.6443
錐	-11.6444
を願う	-11.6452
▁私の元気かい予約	-11.6454
ほかの人	-11.6454
の末	-11.6456
▁最低	-11.6457
▁倹約	-11.6457
▁勢いよく	-11.6458
にはまだ	-11.6458
くれたまえ	-11.6459
が二つ	-11.6459
服装をしてい	-11.6459
写真ちょっと送信	-11.6459
いられない	-11.6459
どうし	-11.646
つある	-11.646
ひと組	-11.646
▁彼らには	-11.646
仏教の	-11.646
呂い	-11.6461
ておいた	-11.6462
歓迎する	-11.6463
手紙は	-11.6463
相当の	-11.6464
の象徴	-11.6465
到着する	-11.6465
▁感謝の	-11.6466
てから	-11.6467
そろって	-11.6468
▁明治	-11.647
なんでも	-11.6471
に使った	-11.6473
取り除く	-11.6473
▁珍しい	-11.6473
社会に	-11.6473
数日	-11.6474
印刷した	-11.6474
▁易	-11.6475
バル	-11.6475
腹の中	-11.6476
安く買	-11.6478
うれしそう	-11.6485
▁有効	-11.6485
がなくなった	-11.6486
クス	-11.6487
ある者	-11.6488
などして	-11.6489
▁キャンプ	-11.6489
泣くこと	-11.649
をめぐらす	-11.6491
は知らない	-11.6492
▁公開	-11.6492
▁優しい	-11.6492
▁芸者	-11.6494
に置け	-11.6495
その作品	-11.6495
から作る	-11.6496
をもらった	-11.6498
法律上	-11.6498
ぶつかる	-11.6498
この本	-11.65
回した	-11.65
だつ	-11.65
明かす	-11.6501
始めて	-11.6502
▁人体	-11.6505
の主	-11.6506
だめになる	-11.6508
境目	-11.6508
北アメリカ	-11.6508
戦場	-11.6512
▁徳	-11.6512
とお	-11.6515
微生物	-11.6516
活発な	-11.6517
精一杯	-11.6519
そと	-11.6522
▁前途	-11.6522
の必要	-11.6523
▁時計の	-11.6526
ように作った	-11.6526
快感	-11.6527
続けること	-11.6527
知っていた	-11.6528
取れた	-11.6528
額を	-11.6529
[...]
