<unk>	0
<s>	0
</s>	0
▁	-2.39565
。	-3.15492
、	-3.74151
の	-4.02984
・	-4.27316
を	-4.54572
。「	-4.55818
」	-4.59879
に	-4.63322
する	-4.8328
が	-4.91871
は	-4.9386
こと	-5.09611
で	-5.0976
と	-5.37119
)	-5.58277
▁彼は	-5.6314
る	-5.64143
た	-5.7447
」「	-5.99101
人	-5.99892
した	-6.02016
また	-6.07554
や	-6.07725
な	-6.08546
だ	-6.11969
して	-6.12219
から	-6.13001
(	-6.27226
て	-6.32895
その	-6.40387
も	-6.4957
い	-6.50466
もの	-6.58913
し	-6.64779
か	-6.70413
など	-6.77468
である	-6.79977
▁その	-6.80034
す	-6.8216
をする	-6.83488
物	-6.84924
□	-6.86798
者	-6.86963
った	-6.87479
り	-6.87703
▁(	-6.95749
」(	-6.96775
く	-7.00142
▁この	-7.00418
▁彼女は	-7.00687
1	-7.01715
特に	-7.05421
すること	-7.07398
になる	-7.11966
などの	-7.13022
がある	-7.16092
さま	-7.19492
には	-7.20501
または	-7.21833
所	-7.22036
家	-7.23034
って	-7.25604
手	-7.28606
▁彼の	-7.2887
ること	-7.29218
として	-7.30423
ない	-7.30622
時	-7.31734
▁...	-7.33466
している	-7.36701
大	-7.39663
ー	-7.40092
う	-7.40162
▁〔	-7.40216
子	-7.40963
心	-7.41318
日	-7.41474
ある	-7.41527
水	-7.42178
などを	-7.42297
▁SMS	-7.42573
一	-7.42763
語	-7.43679
SMS	-7.44826
▁えー	-7.44918
▁LINE	-7.44933
目	-7.46454
いた	-7.4729
本	-7.47452
〕	-7.48144
的	-7.4835
です	-7.48353
ている	-7.48515
き	-7.48625
さ	-7.4895
力	-7.48966
お	-7.50892
よ	-7.51875
だった	-7.52624
地	-7.54268
事	-7.56263
転じて	-7.57143
;	-7.57459
2	-7.57488
み	-7.57609
送る	-7.58775
用	-7.59367
という	-7.59682
へ	-7.60124
ように	-7.60212
色	-7.60659
金	-7.61183
では	-7.61908
国	-7.63038
ら	-7.63082
気	-7.67167
▁あの	-7.67691
口	-7.67766
年	-7.69231
上	-7.69968
つ	-7.70554
道	-7.70617
3	-7.70982
中	-7.71831
▁電話	-7.72015
ちょっと	-7.73522
風	-7.7386
っと	-7.73946
いる	-7.77901
まで	-7.78255
などが	-7.78366
法	-7.78551
む	-7.78708
▁ちょっと	-7.79628
にする	-7.80647
によって	-7.81117
的な	-7.82211
▁大	-7.82377
▁彼らは	-7.82577
させる	-7.83221
名	-7.83601
見	-7.83631
された	-7.83977
分	-7.84671
木	-7.85142
体	-7.86109
書	-7.86438
俗	-7.86584
下	-7.8716
などで	-7.8732
性	-7.87594
のある	-7.878
方	-7.88305
の一つ	-7.88599
数	-7.90036
すぐに	-7.90182
め	-7.90449
点	-7.90649
より	-7.91219
!	-7.92044
学	-7.93859
いまから	-7.93916
ような	-7.94536
取り	-7.94679
会	-7.94748
▁「	-7.94963
話	-7.95119
メッセージを	-7.95631
110	-7.95701
仏	-7.9733
▁いまから	-7.97448
音	-7.97556
119	-7.98259
▁すぐに	-8.01187
よく	-8.01479
電話	-8.01561
...	-8.01621
車	-8.02272
小	-8.02376
船	-8.02645
いい	-8.0289
5	-8.03005
時間	-8.03248
ほど	-8.03321
出	-8.03643
仕事	-8.03778
長	-8.04747
▁それは	-8.04865
ね	-8.05132
線	-8.05532
▁人の	-8.05609
形	-8.05612
生	-8.05786
場	-8.06454
「	-8.06653
紙	-8.06779
山	-8.06941
月	-8.06949
文	-8.07085
火	-8.07093
ご	-8.07104
の一種	-8.075
がない	-8.07546
考え	-8.07908
▁一	-8.08008
間	-8.08223
だろう	-8.09732
のない	-8.101
言葉	-8.10705
声	-8.10867
頭	-8.1158
▁お	-8.11655
女	-8.1188
彼は	-8.12524
になった	-8.12662
こ	-8.13291
▁ん	-8.13716
ず	-8.13724
人の	-8.14042
送信する	-8.14081
海	-8.14237
例	-8.14491
前	-8.15223
品	-8.15546
下さい	-8.15755
行	-8.15763
される	-8.17521
様子	-8.18426
などに	-8.1847
もう	-8.18802
それ	-8.19238
え	-8.19876
▁手	-8.2033
屋	-8.20595
メッセージ	-8.2078
足	-8.21673
ために	-8.22834
▁人を	-8.22968
▁私は	-8.2347
のように	-8.23932
この	-8.23972
ていた	-8.24434
戦	-8.24518
よい	-8.24529
そう	-8.248
着	-8.24843
男	-8.25245
の略	-8.264
よう	-8.27085
に対して	-8.27756
花	-8.27945
馬	-8.28151
状態	-8.28401
何	-8.28596
かった	-8.28778
10	-8.29555
▁無	-8.29737
先	-8.2979
いて	-8.30273
っている	-8.30301
んだ	-8.30621
石	-8.30822
切り	-8.30864
なく	-8.31153
のために	-8.31348
度	-8.33557
番	-8.33778
れ	-8.33835
世	-8.34215
▁彼が	-8.34353
(=	-8.34463
後	-8.34999
顔	-8.35136
論	-8.35405
じ	-8.35548
面	-8.35623
ん	-8.35833
▁もう	-8.36023
出す	-8.36881
彼の	-8.37027
言	-8.3721
自分の	-8.37577
神	-8.38377
▁小	-8.38693
食	-8.39145
内	-8.39467
靴	-8.39596
問題	-8.40226
▁水	-8.41536
式	-8.41895
身	-8.42415
等	-8.431
的に	-8.43215
白	-8.43355
歌	-8.43488
何ができるか教えて	-8.43629
熱	-8.44022
LINE	-8.44314
高	-8.44479
だけ	-8.45061
にも	-8.45243
なさい	-8.45388
時に	-8.45996
け	-8.46129
ですか	-8.46176
ば	-8.46272
草	-8.46677
三	-8.46951
業	-8.47215
二	-8.47258
▁人に	-8.47433
これ	-8.47552
ます	-8.47963
役	-8.47969
▁彼はその	-8.48007
空	-8.48041
)「	-8.48154
引き	-8.48171
板	-8.48257
なかった	-8.48846
それを	-8.49186
さん	-8.49666
となる	-8.49994
書き	-8.50033
なら	-8.50207
をつける	-8.50449
できる	-8.51326
服	-8.51392
部	-8.51888
ながら	-8.51966
来	-8.52151
骨	-8.52252
にある	-8.5264
ため	-8.52918
薬	-8.52962
流	-8.53323
ち	-8.53328
部分	-8.53408
酒	-8.53435
作	-8.53897
でも	-8.53928
4	-8.54001
による	-8.54147
外	-8.54288
量	-8.54652
そ	-8.55103
の総称	-8.55225
▁不	-8.55565
台	-8.55668
のため	-8.55844
言う	-8.56123
もと	-8.5619
っ	-8.56369
夜	-8.56515
しない	-8.56959
代	-8.57132
毛	-8.57139
店	-8.57378
場所	-8.57477
生活	-8.57594
字	-8.57909
天	-8.58343
光	-8.58465
に対する	-8.58611
任	-8.58697
主義	-8.58745
ものだ	-8.58818
込む	-8.58952
ス	-8.59262
病	-8.59349
わ	-8.59552
表	-8.59775
送信	-8.60035
ま	-8.60069
死	-8.60258
状	-8.60494
ぐ	-8.60598
無	-8.61246
垢	-8.61294
器	-8.61324
意	-8.61388
植物	-8.61729
雨	-8.61759
▁私の	-8.61882
兵	-8.61908
とする	-8.62317
主	-8.62402
布	-8.62515
のような	-8.62544
態度	-8.62818
愛	-8.63157
土	-8.63639
ための	-8.63648
魚	-8.63738
権	-8.64125
▁金	-8.64149
に電話	-8.64686
入れ	-8.64785
病気	-8.65269
機	-8.65282
せ	-8.65466
関係	-8.65491
職	-8.65569
はない	-8.65921
ぞ	-8.66125
あなた	-8.66324
をした	-8.66369
していた	-8.66583
味	-8.66976
上の	-8.67298
運動	-8.6734
室	-8.67395
であること	-8.67404
▁彼女の	-8.67643
か教えて	-8.67899
行為	-8.67908
について	-8.68458
の人	-8.69491
大きな	-8.69632
前に	-8.69809
鳥	-8.69961
がいい	-8.70331
装置	-8.70365
ル	-8.70453
発	-8.70688
もない	-8.70756
られた	-8.70775
油	-8.70965
悪	-8.71035
髪	-8.71218
五	-8.71264
曲	-8.71284
道具	-8.71354
中に	-8.71651
をとる	-8.72045
音楽	-8.72214
角	-8.72599
感	-8.72854
肉	-8.7286
られる	-8.7296
を出す	-8.73302
用の	-8.73319
雲	-8.73333
客	-8.73447
血	-8.73733
御	-8.7411
ところ	-8.74394
筆	-8.74469
元	-8.7455
▁本	-8.74702
化	-8.74845
波	-8.75166
▁自分の	-8.75205
命	-8.75262
行く	-8.75537
める	-8.75721
葉	-8.75767
持ち	-8.75806
ください	-8.75832
▁新	-8.76025
比ゆ的に	-8.76194
組織	-8.76394
料理	-8.76553
でない	-8.76604
計画	-8.76634
腹	-8.76717
部屋	-8.76739
人を	-8.76762
性質	-8.77209
何ができる	-8.77345
こう	-8.7747
人に	-8.77607
人が	-8.77689
付け	-8.77743
位	-8.77761
物を	-8.77762
学校	-8.77791
絵	-8.77967
を受ける	-8.78309
▁これは	-8.7833
不	-8.78337
他の	-8.78477
立	-8.78542
米	-8.78573
える	-8.78676
合	-8.79059
▁山	-8.79066
種	-8.79118
になっている	-8.79575
動	-8.79767
門	-8.80186
座	-8.80234
をして	-8.80248
イ	-8.80303
実	-8.80318
ぶ	-8.80344
入	-8.80708
れる	-8.80819
会社	-8.81283
思い	-8.8131
相	-8.81429
▁これ	-8.81514
根	-8.81734
何できる	-8.81741
』	-8.81872
図	-8.81956
犬	-8.82276
であった	-8.82311
を作る	-8.82544
説	-8.82859
その人	-8.82942
時代	-8.83481
師	-8.8366
/	-8.83686
ど	-8.83796
ルビ	-8.83818
制	-8.83871
席	-8.84106
とは	-8.84113
私の	-8.84221
ぎ	-8.84283
になって	-8.84287
砲	-8.84309
ものを	-8.84391
▁1	-8.84601
▁『	-8.84605
節	-8.85016
類	-8.85113
打ち	-8.85182
▁彼には	-8.8538
罪	-8.85419
歩く	-8.85453
土地	-8.85471
雪	-8.85867
重	-8.85892
のは	-8.86092
画	-8.86108
を取る	-8.86157
意見	-8.86463
▁電話かける	-8.86477
に使う	-8.87161
そういう	-8.87337
ろ	-8.87359
▁君は	-8.87403
▁ある	-8.87456
官	-8.87554
▁あなた	-8.87558
しい	-8.87629
期	-8.87705
川	-8.87826
界	-8.87852
▁我々は	-8.87938
文字	-8.8795
リ	-8.87955
▁口	-8.88301
々	-8.88841
様	-8.88909
眼	-8.88969
▁電話したい	-8.89051
▁私	-8.89189
$	-8.89334
食用	-8.89585
回	-8.89651
町	-8.89985
なる	-8.90167
通り	-8.90735
▁電話をかける	-8.90899
管	-8.91061
つき	-8.91143
とも	-8.91185
べき	-8.91248
▁出	-8.91255
をかける	-8.91432
路	-8.91461
箱	-8.91462
▁内	-8.91513
私	-8.91534
軍	-8.91815
茶	-8.92015
たち	-8.92339
一回	-8.92365
事を	-8.92376
別	-8.9255
まだ	-8.9273
び	-8.92744
首	-8.93304
子供	-8.93501
立ち	-8.93705
▁電話する	-8.93764
敵	-8.93797
▁彼	-8.93931
美しい	-8.94238
直	-8.94414
糸	-8.94499
ン	-8.94564
刀	-8.9461
事実	-8.94708
ラ	-8.94792
正	-8.95041
入り	-8.95276
6	-8.95283
夏	-8.95284
なこと	-8.95329
のか	-8.95488
すぐ	-8.95615
柱	-8.95811
質	-8.95838
輪	-8.96099
社会	-8.96188
ではない	-8.96188
傷	-8.96284
然	-8.96562
旅行	-8.967
額	-8.96788
父	-8.96991
んで	-8.97172
虫	-8.97252
見る	-8.97328
新しい	-8.974
行動	-8.97417
小説	-8.97486
つく	-8.97686
中の	-8.97725
ぬ	-8.97932
売り	-8.98069
新	-8.98084
親	-8.98345
かす	-8.98433
▁夜	-8.98504
印	-8.99179
姿	-8.99434
劇	-8.99488
事柄	-8.99651
ア	-8.99729
棒	-8.99794
をすること	-8.99915
出し	-9.00059
▁2	-9.00531
きた	-9.00545
教育	-9.00585
したもの	-9.00604
円	-9.00626
知	-9.00776
詩	-9.00973
に行く	-9.00975
歯	-9.01061
縁	-9.01225
高い	-9.01284
僧	-9.01481
六	-9.01558
情	-9.01944
ける	-9.02091
玉	-9.02252
値	-9.02338
ばかり	-9.02601
たり	-9.0263
ナ	-9.02821
▁空	-9.02871
母	-9.02988
君	-9.03154
あり	-9.03359
言い	-9.03376
されている	-9.03404
げ	-9.03507
つけ	-9.03511
なり	-9.0364
ト	-9.03667
星	-9.03747
利	-9.03782
できない	-9.03837
立て	-9.0405
古	-9.04098
湯	-9.04163
映画	-9.04179
人間	-9.04213
▁下	-9.04249
感じ	-9.04295
計	-9.04446
通	-9.04508
れば	-9.0458
強	-9.04689
日本	-9.04704
句	-9.04741
が悪い	-9.04914
帯	-9.04931
札	-9.05088
よりも	-9.0517
▁木	-9.05239
私は	-9.05261
っていた	-9.05412
の中に	-9.05798
員	-9.05817
妻	-9.05863
}	-9.06172
辰	-9.06278
背	-9.06609
あと	-9.06675
とり	-9.06763
試験	-9.06935
記	-9.07028
次	-9.07145
覆	-9.07262
団	-9.07461
里	-9.07527
ひ	-9.07562
▁生	-9.0793
同じ	-9.07957
非常に	-9.07998
版	-9.08029
戦争	-9.08061
動物	-9.08143
▁何	-9.08349
定	-9.08405
文章	-9.08689
オ	-9.08701
約束	-9.09062
があった	-9.09204
かけ	-9.09208
原	-9.09301
建物	-9.09311
らしい	-9.09595
を与える	-9.09672
春	-9.09682
掛け	-9.0976
成	-9.09862
▁神	-9.09873
たる	-9.09888
型	-9.09918
赤	-9.09987
地方	-9.10032
ドル	-9.10187
まる	-9.10667
製	-9.10737
▁君の	-9.10792
粉	-9.10825
筋	-9.1092
試合	-9.11168
そういう人	-9.11193
戸	-9.1136
いっぺん	-9.11467
すこと	-9.11554
事件	-9.1166
尾	-9.11981
▁上	-9.12002
▁三	-9.12178
メッセージを送信	-9.12181
▁気	-9.12346
柄	-9.12518
▁目	-9.12559
事業	-9.12569
四	-9.1263
煙	-9.12652
楽	-9.12793
耳	-9.12952
合い	-9.12995
穴	-9.13087
▁御	-9.13133
難	-9.13306
▁自	-9.13381
ないこと	-9.13425
費	-9.13458
造	-9.13637
地位	-9.1393
竹	-9.1406
ひと	-9.14114
杯	-9.14228
袋	-9.14237
▁天	-9.14314
活動	-9.14321
相手	-9.14442
らない	-9.14475
案	-9.1448
になること	-9.14505
腰	-9.14512
▁高	-9.14549
網	-9.14564
村	-9.14676
研究	-9.14733
▁後	-9.14876
を示す	-9.15031
長い	-9.15101
とき	-9.15258
人物	-9.15356
マ	-9.15399
の中で	-9.15579
黒	-9.15687
に対し	-9.15866
写真	-9.15917
税	-9.16021
機械	-9.16241
感情	-9.16317
書物	-9.1661
調子	-9.16634
合う	-9.16679
公	-9.16863
やり直し	-9.17064
かい	-9.17081
一番	-9.17121
小さな	-9.17149
が多い	-9.17185
美	-9.17409
への	-9.17473
▁白	-9.17677
電話をかける	-9.17856
張り	-9.17927
だけで	-9.17966
カ	-9.1797
術	-9.18121
ちゃん	-9.18153
悪い	-9.18323
害	-9.18375
同	-9.18633
強い	-9.19096
▁彼に	-9.1919
▁心	-9.19225
▁前	-9.19275
s	-9.19314
▁中	-9.19392
政治	-9.19427
をしている	-9.19439
取引	-9.19524
鼻	-9.19655
いや	-9.19859
信	-9.19934
半	-9.19964
となった	-9.20264
電	-9.20281
番呼び出して	-9.20306
弁	-9.20616
寝	-9.20634
あ	-9.20744
しか	-9.20928
▁同	-9.21015
ができますか	-9.21132
制度	-9.21212
方法	-9.21221
まい	-9.21303
明	-9.21324
タ	-9.21353
田	-9.21493
でしょう	-9.21536
民	-9.21861
当	-9.22244
球	-9.223
八	-9.22371
。↓	-9.22472
断	-9.22512
乗り	-9.22534
報	-9.22808
読	-9.22814
皮	-9.23089
士	-9.23131
そうだ	-9.23142
塩	-9.23282
なし	-9.23527
料	-9.23564
払い	-9.23602
遊び	-9.23734
乗	-9.23801
ロ	-9.23859
20	-9.23886
彼に	-9.23962
能力	-9.24282
ろう	-9.24416
調	-9.2444
像	-9.24482
と思う	-9.24541
▁二	-9.24599
結婚	-9.24833
のに使う	-9.24836
▁僕は	-9.24838
焼き	-9.24913
学問	-9.24947
広く	-9.25017
30	-9.25046
ウ	-9.25131
違い	-9.25135
談	-9.25173
歩	-9.25261
毒	-9.25276
学者	-9.25343
に入る	-9.25365
ッ	-9.25501
平	-9.25674
王	-9.2573
番に電話して	-9.25918
大学	-9.25951
号	-9.26005
議論	-9.26011
進む	-9.26045
作用	-9.26065
隊	-9.26094
娘	-9.26136
幕	-9.26153
何か	-9.26155
シ	-9.26236
▁外	-9.26283
秋	-9.26301
産	-9.26547
運	-9.26549
多	-9.26642
立つ	-9.26734
出した	-9.2676
気持	-9.26808
野	-9.2683
上げる	-9.26862
てしまった	-9.26943
得	-9.27005
抜き	-9.27159
▁ご	-9.27187
経験	-9.27269
ケ	-9.27805
卵	-9.27932
かた	-9.27941
規則	-9.27957
小さい	-9.2797
横	-9.27983
押し	-9.27984
くる	-9.28031
ひどく	-9.28128
深い	-9.28142
物質	-9.28177
史	-9.28224
どう	-9.28311
和	-9.28334
▁～	-9.28391
壁	-9.28581
▁全	-9.28673
7	-9.28702
夫	-9.28714
針	-9.28747
連	-9.28811
つける	-9.28909
|	-9.29181
をもつ	-9.29447
城	-9.29491
やる	-9.29601
を入れる	-9.29704
朝	-9.29755
自動車	-9.2985
息	-9.29961
全	-9.29964
番呼び出す	-9.30002
いつも	-9.30041
に関する	-9.30057
欲	-9.30093
じゃない	-9.30101
手紙	-9.30119
取る	-9.30169
込み	-9.30421
出る	-9.30449
起	-9.30465
言った	-9.30504
行う	-9.30534
経済	-9.30598
鉄	-9.30651
道路	-9.30655
なければならない	-9.30674
電話したい	-9.30723
うまく	-9.30732
新聞	-9.30771
肩	-9.30784
社	-9.3092
メッセ	-9.31075
牛	-9.31082
ゆ	-9.31133
食事	-9.31175
法律	-9.31207
フ	-9.31208
ニ	-9.31255
使い	-9.31285
策	-9.31295
▁火	-9.31332
真	-9.31352
落ち	-9.31386
番に電話かける	-9.31487
万	-9.31603
表現	-9.31718
▁船	-9.31757
ふ	-9.31938
飯	-9.32047
?	-9.32208
しなさい	-9.32236
形の	-9.32414
▁ショートメッセージ	-9.32442
科の	-9.32509
一定の	-9.32514
橋	-9.32671
笑い	-9.32705
窓	-9.32922
変化	-9.32943
やり直す	-9.32963
時の	-9.32998
させた	-9.33009
▁悪	-9.33083
メッセージ送信	-9.33099
そうな	-9.33177
歳	-9.33214
を言う	-9.33222
彼が	-9.33231
切る	-9.3332
模様	-9.33405
にして	-9.33551
	-9.33623
港	-9.33649
損	-9.33791
局	-9.3385
電話かける	-9.33997
▁国	-9.34077
命令	-9.34096
ずる	-9.34235
政	-9.34343
チ	-9.34418
片	-9.34424
進	-9.34443
'	-9.34464
競技	-9.34566
英語	-9.3461
長く	-9.34734
▁先	-9.34744
ますか	-9.34784
白い	-9.3482
多くの	-9.34919
殺	-9.34982
のうち	-9.34991
財産	-9.35052
機関	-9.35104
世界	-9.35134
の上	-9.35287
私に	-9.35306
を見	-9.3536
付	-9.35563
時計	-9.35596
すっかり	-9.35626
回り	-9.35628
せる	-9.35715
剤	-9.35727
権利	-9.3578
一般に	-9.35899
有	-9.3597
他	-9.36031
▁―	-9.36058
▁真	-9.36066
▁何か	-9.36159
居	-9.36296
▁風	-9.36388
なった	-9.36465
がよい	-9.36548
ません	-9.36633
失	-9.36693
化する	-9.36697
▁まだ	-9.36903
証拠	-9.36963
行き	-9.36963
数学	-9.36967
危険	-9.37064
層	-9.3708
詰め	-9.37087
旗	-9.37123
付ける	-9.37241
十	-9.37293
吹き	-9.37478
8	-9.37522
少年	-9.37535
	-9.37553
かな	-9.37715
▁茶	-9.37726
七	-9.37911
電気	-9.37926
くなる	-9.38123
安	-9.3817
▁正	-9.38183
算	-9.38204
島	-9.38213
レ	-9.38224
党	-9.38242
老	-9.38251
の上に	-9.38355
ほう	-9.38368
II	-9.38425
食べる	-9.38485
使う	-9.38509
金銭	-9.38519
を起こす	-9.38537
のよい	-9.38768
薄	-9.38894
説明	-9.38906
破	-9.38908
あった	-9.38967
▁第	-9.3902
地域	-9.3904
品物	-9.3904
記号	-9.39144
率	-9.39258
たい	-9.39394
メートル	-9.39435
うち	-9.3948
心配	-9.3948
しく	-9.39543
立てる	-9.39594
条件	-9.39599
向き	-9.39633
全部	-9.39745
送	-9.39751
児	-9.39763
文書	-9.39773
▁日本	-9.39796
50	-9.39839
燭	-9.3987
大きく	-9.39892
普通	-9.39988
差	-9.40068
の部分	-9.40099
やすい	-9.40142
d	-9.40219
電話する	-9.40277
乱	-9.40382
たもの	-9.40389
されて	-9.40392
失敗	-9.40396
100	-9.40434
団体	-9.40437
菓子	-9.40472
苦	-9.40657
技術	-9.40708
▁日	-9.40919
才	-9.41145
働き	-9.41272
を立てる	-9.41375
いない	-9.41442
彼	-9.41794
切	-9.41841
切れ	-9.41856
とした	-9.4199
株	-9.42167
とても	-9.42189
手段	-9.42194
▁非常に	-9.422
番に電話	-9.42201
作った	-9.42217
指	-9.4229
ク	-9.42591
色の	-9.42709
雑誌	-9.4275
多く	-9.42758
分の	-9.42766
ごと	-9.4277
好	-9.42881
影	-9.42927
庭	-9.43013
ました	-9.4304
床	-9.43271
対	-9.43306
ぼ	-9.43369
付き	-9.43413
ころ	-9.43626
に向かって	-9.43681
を見る	-9.43797
じる	-9.43799
▁3	-9.43919
の間	-9.44015
解	-9.44055
巻	-9.4411
あい	-9.4419
気が	-9.44281
来た	-9.44442
折	-9.44603
思想	-9.44676
個	-9.44739
引	-9.4474
端	-9.44798
すぐれた	-9.44843
日に	-9.44925
ずっと	-9.45003
目的	-9.45008
コ	-9.45076
がなく	-9.45142
▁こう	-9.45191
があり	-9.45265
徳	-9.45341
伝	-9.45422
万円	-9.4555
称	-9.45573
作品	-9.45587
分け	-9.4559
▁重	-9.45613
列	-9.45633
らす	-9.45649
はまだ	-9.45657
工	-9.45672
▁雪	-9.45712
千	-9.45748
つけた	-9.45759
だと	-9.45768
流れ	-9.45889
話す	-9.45912
だけの	-9.45952
酸	-9.46053
利益	-9.46174
込んだ	-9.46239
▁月	-9.4636
訳	-9.46382
わけ	-9.46446
望	-9.46505
を守る	-9.46519
つか	-9.46574
散	-9.46602
返す	-9.46648
結果	-9.46682
派	-9.46693
注意	-9.46821
工場	-9.46914
皿	-9.46998
に出る	-9.47132
▁海	-9.47241
せず	-9.47326
もなく	-9.47344
教	-9.47351
知識	-9.47366
▁同じ	-9.47375
⇒	-9.47437
花が咲く	-9.47491
▁花	-9.476
段	-9.47821
ひどい	-9.47838
降り	-9.47883
週間	-9.48038
落	-9.48107
盛り	-9.48111
▁見	-9.48167
言うこと	-9.48197
を使って	-9.48204
そんな	-9.48211
現象	-9.48309
かん	-9.48329
意味	-9.4837
なんて	-9.48473
陰	-9.48508
宿	-9.48547
▁古	-9.48618
▁実	-9.48763
すべき	-9.48925
一つ	-9.48966
あまり	-9.49087
韻	-9.49118
取りやめ	-9.49234
理	-9.49251
番する	-9.4934
胸	-9.49375
の下	-9.49376
▁そう	-9.49406
▁そんな	-9.49438
家族	-9.49448
読み	-9.49546
の名	-9.4964
礼	-9.49702
砂	-9.49775
変	-9.49859
▁他人の	-9.49872
番して	-9.49885
早く	-9.49966
らせる	-9.50058
目に	-9.50192
事情	-9.50257
入れる	-9.50316
▁初	-9.504
両	-9.5058
陣	-9.50624
他人の	-9.50672
転	-9.50742
▁公	-9.50746
▁昔	-9.50792
建築	-9.50793
価値	-9.5083
▁平	-9.50982
大いに	-9.51085
岩	-9.51163
間に	-9.51179
跡	-9.51191
葉は	-9.51203
勢力	-9.51344
灯	-9.51363
女性	-9.51433
行った	-9.51487
され	-9.51504
好き	-9.5158
▁有	-9.51713
強く	-9.5182
金を	-9.51912
を失う	-9.51915
▁警察	-9.5202
▁今	-9.52043
を持つ	-9.52088
▁酒	-9.52202
▁彼は私に	-9.52242
どんな	-9.52342
義	-9.52382
具	-9.52389
▁長	-9.52398
羽	-9.52462
ということ	-9.52567
▁物事の	-9.5257
します	-9.52618
向	-9.52629
投げ	-9.52722
取り消す	-9.52798
てきた	-9.52801
今	-9.52832
夢	-9.53013
▁血	-9.53076
を得る	-9.53125
くれ	-9.53235
取	-9.53421
約	-9.53467
べ	-9.53503
演説	-9.53545
判断	-9.53612
受け	-9.53657
校	-9.53701
{	-9.53786
来る	-9.53808
としての	-9.53834
題	-9.53893
腕	-9.53895
組	-9.5394
▁名	-9.53959
▁雨	-9.53962
婦人	-9.5403
芸	-9.5403
検査	-9.54068
記録	-9.54305
辞	-9.54319
余	-9.54342
息子	-9.54392
ほどの	-9.54475
により	-9.54481
肌	-9.5451
近	-9.54512
ごろ	-9.54537
理論	-9.54637
格	-9.54763
t	-9.54929
さない	-9.54953
取り消し	-9.55103
倍	-9.55307
辺	-9.55313
ものが	-9.55327
銀	-9.55411
一つの	-9.55431
はい	-9.55442
の一	-9.55471
政府	-9.55472
市	-9.5548
位置	-9.55526
賞	-9.55566
うそ	-9.55572
のですか	-9.55624
▁ひと	-9.5572
精神	-9.55807
氏	-9.55933
衣	-9.55948
れた	-9.55976
寒	-9.56101
▁横	-9.56111
やり	-9.56206
枚	-9.56244
起こる	-9.56324
質問	-9.56336
追い	-9.56345
示	-9.5637
箸	-9.56426
末	-9.56443
かね	-9.56522
高く	-9.5663
聞き	-9.56674
そば	-9.56678
そこ	-9.56819
見える	-9.56841
互いに	-9.56846
いること	-9.56851
くて	-9.56916
全く	-9.56933
幅	-9.57095
営	-9.57107
がつく	-9.57118
込んで	-9.57147
液	-9.57157
▁よく	-9.57176
しよう	-9.57196
程度	-9.57262
に当たる	-9.57272
はっきり	-9.57283
成功	-9.57288
氷	-9.57328
友	-9.57336
前の	-9.57369
衣服	-9.574
入る	-9.57405
職業	-9.57424
釮	-9.57456
はその	-9.57469
林	-9.57475
、「	-9.57494
帽子	-9.57697
工業	-9.57745
不足	-9.57796
解決	-9.5784
言語	-9.57843
矢	-9.57892
弱	-9.57987
場合	-9.58099
さえ	-9.58105
彼女は	-9.58176
寺	-9.58265
岸	-9.58277
▁多	-9.58389
▁戦争	-9.58454
打	-9.58576
人は	-9.58582
反対	-9.58591
責任	-9.586
かかる	-9.58746
速	-9.58757
青	-9.58766
相手の	-9.58951
でなく	-9.58954
それに	-9.58955
パン	-9.58958
状の	-9.59015
キ	-9.5902
飾り	-9.59103
せん	-9.59107
がないこと	-9.59118
のだ	-9.59161
▁君が	-9.59278
ざ	-9.5932
茲	-9.59443
自	-9.59446
ド	-9.59453
激しく	-9.59698
すり	-9.59702
▁強	-9.59732
配	-9.59813
大きい	-9.59831
持	-9.599
商売	-9.59972
政策	-9.6
バ	-9.60063
炎	-9.60092
上がる	-9.60113
墨	-9.60134
良	-9.60143
滅	-9.60251
が彼の	-9.60314
一方	-9.60326
▁早	-9.60336
にした	-9.60357
者が	-9.60473
▁川	-9.60525
を送る	-9.60549
略	-9.60571
院	-9.60596
空気	-9.60643
当たり	-9.6065
逆	-9.6066
と言った	-9.60671
抜け	-9.60677
ことだ	-9.6076
▁入	-9.60845
なって	-9.60952
すれば	-9.60983
階級	-9.61055
仕事を	-9.61056
どうすれば	-9.61058
▁それ	-9.61071
皆	-9.61101
OK	-9.61158
距離	-9.61162
▁女	-9.61274
上げ	-9.61325
と言う	-9.61345
経	-9.61503
違う	-9.61535
材	-9.61569
反	-9.61617
修	-9.61687
北	-9.61775
かさ	-9.61779
飛び	-9.61817
の類	-9.61905
契約	-9.61916
列車	-9.61949
恩	-9.61949
彼女の	-9.62156
援助	-9.62157
さし	-9.62162
原因	-9.6218
少し	-9.62245
ガラス	-9.62253
～	-9.62259
▁警察を呼ぶ	-9.62272
犯罪	-9.62322
見て	-9.62345
まえ	-9.62409
ひも	-9.62454
科	-9.62538
やめ	-9.6254
健康	-9.62616
ぶり	-9.628
かどうか	-9.62802
差し	-9.62834
価格	-9.62863
できた	-9.62905
織物	-9.62938
素	-9.62957
期間	-9.62962
金属	-9.62968
られて	-9.63009
材料	-9.6303
才能	-9.6307
程	-9.63117
乳	-9.63164
軸	-9.63274
晩	-9.63323
A	-9.6333
を見て	-9.63406
離	-9.63431
等の	-9.63436
装	-9.63543
言って	-9.63545
▁ショートメッセージを	-9.63564
放送	-9.63657
働く	-9.63701
のもの	-9.63821
最も	-9.63922
まったく	-9.63992
▁これらの	-9.64003
彼を	-9.6402
おく	-9.6407
給	-9.64115
願	-9.64162
習	-9.64171
便	-9.64213
すべて	-9.64237
▁足	-9.64241
会議	-9.64245
に住む	-9.64292
汁	-9.64293
善	-9.64319
いった	-9.64334
生徒	-9.64394
清	-9.64418
裏	-9.64425
▁赤	-9.64445
泥	-9.64458
霊	-9.64459
のいい	-9.64532
に電話する	-9.6478
おり	-9.6484
意識	-9.64868
スト	-9.64873
つる	-9.64887
器具	-9.6494
要	-9.64946
銃	-9.65029
務	-9.65219
学生	-9.65222
綿	-9.65339
弟	-9.65357
ブ	-9.65371
自然	-9.65384
聞	-9.65396
▁直	-9.65514
ム	-9.65629
▁親	-9.65632
などに使う	-9.65797
仕	-9.65829
は何	-9.65865
知恵	-9.65882
留	-9.65888
食物	-9.65917
飲む	-9.65932
境	-9.66049
委員会	-9.6606
攻撃	-9.66073
弾	-9.66127
▁年	-9.66141
選	-9.66155
▁再	-9.66214
計算	-9.66234
係	-9.66278
死んだ	-9.66308
希望	-9.66341
積	-9.66371
苦労	-9.66387
事故	-9.66547
しまった	-9.66551
潮	-9.66576
努力	-9.66608
▁新しい	-9.66647
望み	-9.66696
食い	-9.66807
をもって	-9.66826
▁救急車呼ぶ	-9.66887
られている	-9.66898
費用	-9.66927
作る	-9.67118
体を	-9.67132
枝	-9.67161
の悪い	-9.67253
問	-9.67283
物事の	-9.67288
堂	-9.67389
痛	-9.67411
うちに	-9.67498
習慣	-9.67503
を打つ	-9.6752
罰	-9.67534
孫	-9.67588
性の	-9.676
もち	-9.67713
中である	-9.67758
死ぬ	-9.67813
がよく	-9.6796
収	-9.67982
勝	-9.68093
かり	-9.68132
仲間	-9.68134
割り	-9.68293
各	-9.68319
作り	-9.68369
評判	-9.68377
▁救急車を呼ぶ	-9.68389
▁逆	-9.68427
批評	-9.68449
もっと	-9.68457
紅	-9.68573
深く	-9.68628
ついて	-9.68653
言い方	-9.68666
▁野	-9.68666
させ	-9.68757
▁総	-9.68799
昔	-9.68814
剣	-9.68921
判	-9.6895
討	-9.68951
犯	-9.68986
▁朝	-9.69024
天気	-9.69029
祭	-9.69059
気分	-9.69109
、...	-9.69187
ばか	-9.69192
たちは	-9.69227
都市	-9.69499
教え	-9.69765
ネ	-9.698
者は	-9.69804
を使う	-9.6992
食品	-9.69956
返事	-9.70121
在	-9.70168
集	-9.7017
念	-9.70176
正しい	-9.70207
舌	-9.70221
属	-9.70225
飛行	-9.70306
上に	-9.70351
▁救急車呼びに電話	-9.70362
予定	-9.70384
編	-9.70446
細工	-9.70456
領	-9.70464
籍	-9.70541
ほとんど	-9.70545
を張る	-9.70555
に達する	-9.70562
すぎる	-9.70587
雄	-9.70657
涙	-9.70671
くず	-9.70691
ページ	-9.70728
商	-9.7074
ほ	-9.70875
キロ	-9.70891
旅	-9.70907
それが	-9.70925
につく	-9.70928
マイル	-9.70945
章	-9.70994
ましたか	-9.71095
もある	-9.71188
観	-9.71201
所に	-9.71214
丸	-9.71277
舟	-9.71292
▁自然	-9.7132
置き	-9.71331
まず	-9.71349
年齢	-9.71381
立派な	-9.71448
振り	-9.71458
製品	-9.71467
残	-9.71521
銭	-9.71532
急	-9.71544
離れ	-9.71577
綱	-9.71587
産業	-9.71607
底	-9.71764
笑う	-9.71866
な人	-9.7187
の多い	-9.71897
顔つき	-9.71981
内容	-9.72028
に似た	-9.72065
蝿	-9.72239
▁君	-9.72299
泣く	-9.7232
次の	-9.72322
ガス	-9.72407
▁とても	-9.72463
れて	-9.72518
黄	-9.72544
人だ	-9.72581
九	-9.72609
は彼の	-9.72617
松	-9.72707
ずに	-9.72808
立場	-9.72816
従	-9.72825
条	-9.72844
別の	-9.72872
ミ	-9.72943
黒い	-9.73036
年間	-9.73041
服装	-9.73109
香	-9.73119
考える	-9.73142
合わせ	-9.73172
理由	-9.73256
茎	-9.73295
すぐに電話	-9.73376
兄	-9.73508
があって	-9.73573
趣味	-9.73608
芸術	-9.73622
初めて	-9.73623
へ行く	-9.73629
水を	-9.73641
階	-9.7383
軍隊	-9.73853
▁熱	-9.73872
▁土	-9.7388
過	-9.73885
冬	-9.73937
15	-9.73987
冠	-9.74035
▁彼は私の	-9.7416
を取り	-9.74201
勢い	-9.74212
文学	-9.74217
資金	-9.74333
わざ	-9.74522
やった	-9.74588
友人	-9.74665
らず	-9.74726
▁肉	-9.74752
ハ	-9.74783
▁鉄	-9.74808
必要	-9.7488
駅	-9.74911
▁それを	-9.74932
圧	-9.74989
芝居	-9.75024
保護	-9.75026
うこと	-9.7512
情報	-9.75137
症	-9.75138
Δ	-9.752
生物	-9.75205
諸	-9.75212
売	-9.7527
▁ひ	-9.75271
南	-9.75272
患者	-9.75287
国家	-9.75315
ぐらい	-9.75357
要求	-9.75362
級	-9.75393
をやる	-9.75395
裁判所	-9.7542
▁自動車	-9.75467
▁両	-9.75474
期待	-9.75566
やか	-9.75666
何の	-9.75676
体の	-9.7579
わら	-9.75798
走る	-9.75831
紋	-9.75877
見た	-9.75884
▁電気	-9.75892
商品	-9.75918
蔵	-9.75926
替え	-9.75964
極	-9.75975
メ	-9.75998
州	-9.76068
みな	-9.76082
勢	-9.76118
▁主	-9.7613
けた	-9.76171
傾向	-9.76194
炭	-9.76202
バス	-9.76212
心が	-9.76246
密	-9.76247
▁青	-9.76253
メッセを	-9.76357
▁他	-9.76379
▁愛	-9.76393
部隊	-9.76394
▁それが	-9.76421
全体	-9.76564
の中	-9.76566
屋根	-9.7661
パ	-9.76674
と同じ	-9.76723
▁救急車	-9.76756
に電話かける	-9.76835
交	-9.76848
▁多くの	-9.76929
狂	-9.76961
納	-9.77075
しゃ	-9.7711
したり	-9.77137
十分	-9.77146
泙	-9.77172
家に	-9.77227
助	-9.77234
▁警察呼びに電話	-9.77241
を行なう	-9.77294
癖	-9.773
▁黒	-9.77316
省	-9.77342
始めた	-9.77462
一日	-9.77467
結	-9.77497
]	-9.77512
販売	-9.77527
呂	-9.77643
人形	-9.77684
られない	-9.77829
知っている	-9.78119
たくさん	-9.78142
彼女	-9.78214
割	-9.78231
短い	-9.78343
▁半	-9.78363
ようにする	-9.78428
収入	-9.78431
を受けて	-9.78445
ちょっと電話	-9.78471
左	-9.78481
宮	-9.78487
苦しい	-9.78532
いまから電話	-9.78562
9	-9.78723
物事	-9.78741
かもしれない	-9.78746
かわ	-9.7879
治	-9.78855
心を	-9.78877
めた	-9.78893
▁身	-9.79033
ポンド	-9.79063
交渉	-9.79098
の称	-9.79134
受	-9.79203
の言葉	-9.79259
を入れて	-9.79287
印刷	-9.7929
ていない	-9.79343
ちゃ	-9.79416
志	-9.79475
相談	-9.79488
処理	-9.79534
止め	-9.79546
動作	-9.79566
脚	-9.7958
食べ	-9.79771
鵑	-9.79879
走	-9.79881
撃	-9.79897
側	-9.79929
物語	-9.80017
チーム	-9.80027
サ	-9.80083
▁OK	-9.80105
ヤ	-9.80131
豆	-9.80187
B	-9.80196
畑	-9.80209
▁物事を	-9.80216
露	-9.80221
筒	-9.80257
▁5	-9.80351
となって	-9.80367
景	-9.80411
家の	-9.80608
わからない	-9.80745
一人	-9.80746
東	-9.80912
▁寝	-9.80941
▁和	-9.80946
いく	-9.81006
動き	-9.81068
設備	-9.81085
議	-9.81158
教師	-9.81202
とう	-9.81255
急に	-9.81312
選手	-9.81345
でき	-9.81417
▁馬	-9.81491
手を	-9.81495
死ぬこと	-9.81506
百	-9.8152
後に	-9.8156
君の	-9.81669
テーブル	-9.81698
なかなか	-9.81703
▁急	-9.81778
ができる	-9.818
▁石	-9.81806
を求める	-9.81931
性格	-9.81935
飲み	-9.82135
さっと	-9.82223
テ	-9.82272
施設	-9.82297
縄	-9.82302
に立つ	-9.82319
細	-9.82335
何も	-9.82338
きり	-9.82441
あの	-9.82456
直接	-9.82484
しても	-9.82583
を引く	-9.82626
達	-9.82656
生まれ	-9.82751
巻き	-9.82759
▁地	-9.82814
がら	-9.82854
の時	-9.82874
ホ	-9.82933
▁文	-9.82943
当て	-9.83042
をつけた	-9.83126
▁一つの	-9.83314
回る	-9.83341
▁旧	-9.83343
典	-9.83408
▁男	-9.83425
▁片	-9.83489
ヒ	-9.83523
▁反	-9.83546
▁メッセを	-9.83577
症状	-9.83577
電車	-9.83581
態	-9.83618
効果	-9.83641
二つの	-9.83691
ガ	-9.8371
▁試験	-9.83822
秘密	-9.83877
たら	-9.83964
させて	-9.83995
若い	-9.84042
丁	-9.84076
令	-9.84085
喜び	-9.84125
目を	-9.84178
ようだ	-9.84237
書類	-9.84278
早	-9.84305
をさす	-9.8434
範囲	-9.84356
近く	-9.84364
単に	-9.84377
負け	-9.84394
決定	-9.84406
織り	-9.84409
返	-9.8441
間違い	-9.84412
ついた	-9.84575
勘定	-9.84608
決	-9.84663
行い	-9.84725
障害	-9.84737
俳優	-9.8476
重い	-9.84836
まま	-9.84849
物事を	-9.84938
管理	-9.84958
間の	-9.84974
能	-9.84983
勉強	-9.85091
徒	-9.85139
聞く	-9.8516
づ	-9.85165
▁かん	-9.85172
作家	-9.85178
▁こ	-9.85203
を切る	-9.85274
▁彼らの	-9.85326
が強い	-9.85359
ても	-9.85371
答え	-9.85378
▁腹	-9.85392
殿	-9.85484
絹	-9.85504
単位	-9.85578
盤	-9.85946
主に	-9.86033
やつ	-9.86106
▁引き	-9.86161
違うよ	-9.86174
▁彼女が	-9.86346
雑	-9.86376
蕕	-9.86388
西	-9.86404
以上	-9.86622
が出る	-9.86661
の間に	-9.86694
菜	-9.86729
退	-9.86754
荷	-9.8686
発する	-9.86882
際	-9.86891
反応	-9.8694
甲	-9.8708
勝利	-9.87088
選挙	-9.87141
票	-9.87169
教授	-9.87191
-	-9.87218
ましょう	-9.8722
涼	-9.87252
作業	-9.87256
総	-9.87256
のことを	-9.87285
財	-9.87311
▁老	-9.87362
型の	-9.87384
していない	-9.87397
▁sho	-9.87462
とか	-9.8749
んでいる	-9.87519
を持っている	-9.87528
▁転	-9.87529
中で	-9.87611
報告	-9.87635
資格	-9.87644
労働者	-9.87655
襪	-9.87662
▁原	-9.87718
▁牛	-9.87839
漢	-9.87861
願い	-9.87891
方向	-9.87964
絶	-9.87979
しん	-9.8807
▁客	-9.88109
文句	-9.88163
工事	-9.88187
ずつ	-9.88193
ニュース	-9.88377
覚え	-9.88389
に電話したい	-9.88421
一面に	-9.88432
手で	-9.88448
▁非	-9.88463
ul	-9.8847
砂糖	-9.88511
闘	-9.8856
放	-9.88619
飛ぶ	-9.88645
料金	-9.88666
扱い	-9.88704
▁もっと	-9.88777
気持ち	-9.88816
男だ	-9.88876
哲学	-9.88891
常	-9.88896
ひき	-9.88964
とし	-9.88991
のための	-9.88992
忘れ	-9.891
緑	-9.89102
順	-9.89109
▁ア	-9.89151
合って	-9.89205
初	-9.89229
▁ス	-9.89291
考え方	-9.89357
券	-9.89358
多くは	-9.89448
遊	-9.8945
粒	-9.89456
臭	-9.89475
ごとに	-9.89477
▁きょうは	-9.8953
知らせ	-9.89554
はもう	-9.89592
革	-9.89592
▁あの人は	-9.89615
麦	-9.89626
刃	-9.89641
遠	-9.897
化学	-9.89795
精	-9.89803
勇	-9.89864
一杯	-9.89872
▁法	-9.89891
e	-9.89904
でメッセ	-9.89904
役目	-9.8992
につける	-9.89962
あたり	-9.90008
をなす	-9.90031
▁明	-9.90067
▁しょう	-9.90095
激しい	-9.901
ボール	-9.90155
ないように	-9.90161
自分で	-9.90176
メッセ送信	-9.90219
時期	-9.90314
ツ	-9.9039
旧	-9.90414
をつけ	-9.90415
ていること	-9.90445
関	-9.90476
満足	-9.90506
▁雑	-9.9052
湖	-9.9053
リー	-9.90613
異	-9.9062
させること	-9.90665
▁コ	-9.9076
でメッセージ	-9.90777
メッセを送信	-9.90779
右	-9.90835
だよ	-9.90872
▁警察呼ぶ	-9.90891
樹	-9.90918
▁連	-9.90921
▁国際	-9.90972
やめる	-9.90978
自由に	-9.91003
ておく	-9.91009
身分	-9.91011
▁薄	-9.91035
国民	-9.9105
儀	-9.9112
づけ	-9.91191
渡し	-9.91251
眠	-9.91269
塔	-9.91282
民族	-9.91283
まき	-9.91303
▁社会	-9.91303
深	-9.91376
灰	-9.91407
顔を	-9.91423
細い	-9.91442
るように	-9.91519
パーティー	-9.91535
寒い	-9.91535
通信	-9.91855
▁死	-9.91911
調査	-9.91928
らい	-9.92005
思う	-9.92052
心に	-9.92055
▁彼は自分の	-9.9208
置	-9.92189
我々の	-9.92189
またその	-9.92193
かき	-9.922
銀行	-9.92218
▁何ができるか教えて	-9.92221
わき	-9.92243
そこに	-9.92251
太陽	-9.92264
録	-9.9227
出して	-9.92274
譴	-9.92275
▁別	-9.92288
テレビ	-9.92365
を表す	-9.92462
の木	-9.92516
うつ	-9.92548
▁自由	-9.92551
ただ	-9.92688
許	-9.92689
普通の	-9.92731
評	-9.92754
をつけて	-9.92766
みんな	-9.92903
猫	-9.92917
エ	-9.92999
見え	-9.93008
を敬って言う	-9.93023
がん	-9.93048
モ	-9.93082
私が	-9.93105
があること	-9.93147
▁未	-9.93164
▁どんな	-9.93194
▁胸	-9.93198
現	-9.9321
ことがある	-9.93229
において	-9.93239
載	-9.93327
将来	-9.93345
こんな	-9.93389
▁変	-9.9341
▁健康	-9.93443
▁すぐに電話	-9.93522
美人	-9.93529
しなければならない	-9.93547
出すこと	-9.93571
自分	-9.93636
年の	-9.93695
待ち	-9.93701
物体	-9.93702
そうに	-9.93718
になり	-9.93739
と彼は	-9.93796
得意	-9.93862
で作った	-9.93885
尺	-9.93897
宝	-9.93972
系統	-9.94007
科学	-9.94033
合わせる	-9.94062
脈	-9.94067
初め	-9.9408
企業	-9.94091
芽	-9.94114
狭い	-9.94122
私を	-9.9413
勇気	-9.94138
話題	-9.9414
金額	-9.94218
年に	-9.94219
弔	-9.94317
盛んに	-9.94363
ソ	-9.94386
元気	-9.94405
池	-9.94428
暗	-9.94493
名前	-9.94635
▁五	-9.94643
が高い	-9.94652
われ	-9.94664
▁歯	-9.94671
突	-9.95018
▁鼻	-9.95027
それは	-9.95041
忠告	-9.95053
やって	-9.95055
▁魚	-9.95137
▁詩	-9.95146
▁耳	-9.95226
られ	-9.95246
宗教	-9.95262
かみ	-9.9536
刑	-9.95371
限り	-9.95379
▁を用いないことが多い	-9.95394
演技	-9.95398
▁腕	-9.95401
あること	-9.95425
打つ	-9.95483
一時	-9.95529
▁物事が	-9.95578
しながら	-9.9558
▁銀	-9.95663
任務	-9.95775
わかる	-9.95783
▁仮	-9.95881
時代の	-9.95894
困	-9.95896
かぎ	-9.95942
運転	-9.95953
変わった	-9.95986
怒り	-9.96142
臣	-9.96164
紫	-9.96199
製の	-9.9623
ことができる	-9.96264
こむ	-9.96335
▁そ	-9.96349
道を	-9.96352
▁ひどく	-9.96378
まわり	-9.964
系	-9.96417
▁塩	-9.96427
がうまい	-9.96432
存在	-9.96501
を行う	-9.96602
源	-9.96604
守	-9.96637
感覚	-9.96641
宗	-9.9666
労働	-9.96672
巣	-9.9668
形式	-9.96685
再	-9.96693
しないこと	-9.96695
をあげる	-9.96707
さらに	-9.96708
構造	-9.96748
規定	-9.96781
連絡	-9.96798
信仰	-9.96801
細長い	-9.96809
手に	-9.96916
少しも	-9.96959
出た	-9.97038
笑	-9.9705
世間	-9.97077
縫い	-9.97171
みち	-9.97191
ット	-9.9721
鏡	-9.9722
投票	-9.97303
勝負	-9.97326
▁相手の	-9.97522
目の	-9.97535
めて	-9.97552
▁大きな	-9.97568
かける	-9.97611
なければ	-9.97649
ことを言う	-9.97684
口を	-9.97748
かし	-9.97807
暗い	-9.97812
あき	-9.9783
益	-9.9788
なくなる	-9.9788
古い	-9.97935
匹	-9.97986
べきだ	-9.98058
指導	-9.98061
小屋	-9.98069
▁根	-9.98103
実験	-9.9817
一生	-9.98189
せき	-9.9819
恥	-9.98194
膜	-9.98205
發	-9.98212
署名	-9.98213
保証	-9.98303
折り	-9.98343
ふるまい	-9.98383
きちんと	-9.98411
ドア	-9.98414
だから	-9.98515
接	-9.98516
していること	-9.98529
▁春	-9.9861
ようにした	-9.98611
たけ	-9.98665
▁背	-9.9867
処置	-9.98747
荷物	-9.9875
▁the	-9.98875
▁こんな	-9.98877
▁新聞	-9.98951
イン	-9.9899
死に	-9.98995
▁彼を	-9.99002
信号	-9.99069
不安	-9.99092
うわさ	-9.99116
相手に	-9.99117
げる	-9.99174
▁軽	-9.99219
ようにして	-9.99338
ドレス	-9.99366
買い	-9.99398
調べ	-9.99419
楽器	-9.99442
を受けた	-9.99466
以外の	-9.99501
商人	-9.99507
恐れ	-9.99523
▁旅	-9.99526
他人	-9.9954
生産	-9.99552
塗り	-9.99616
貸し	-9.99622
けが	-9.99657
戮	-9.9967
休み	-9.99698
ぐあい	-9.99712
小さく	-9.99782
祭り	-9.99804
先に	-9.99819
にかける	-9.99826
のです	-9.99865
使	-9.99872
▁さあ	-9.9988
戦う	-9.99966
煮	-10.0001
ショートメッセージ	-10.0017
子供たち	-10.0018
突き	-10.0023
我	-10.0028
族	-10.003
除	-10.0031
に近い	-10.0032
谷	-10.0036
神経	-10.0037
防	-10.0038
しま	-10.0044
咲く	-10.0045
必ず	-10.0053
はとても	-10.0055
を上げる	-10.0062
作物	-10.0067
静かに	-10.0072
偏	-10.0074
市場	-10.0076
帳	-10.0077
釣り	-10.0077
▁発	-10.0078
グ	-10.0079
われる	-10.0091
の音	-10.0093
つり	-10.0106
賛成	-10.0106
菌	-10.0106
翼	-10.0109
の家	-10.0111
阿	-10.0113
弦	-10.0114
の日	-10.0114
揚げ	-10.0119
速度	-10.012
むこと	-10.0121
▁私が	-10.0133
発見	-10.0133
▁学問	-10.0138
帰り	-10.0139
開	-10.0141
地帯	-10.0143
!、	-10.0145
アメリカ	-10.0147
うまい	-10.0151
渡	-10.0155
くなった	-10.0158
焼	-10.0162
刻	-10.0164
▁分	-10.0165
かえる	-10.018
▁油	-10.018
寒さ	-10.0183
誤り	-10.0192
君は	-10.0198
歩いて	-10.0199
趣	-10.02
住む	-10.0204
のみ	-10.0209
温	-10.0215
非難	-10.022
の実	-10.0239
因	-10.0241
美しく	-10.0241
くって	-10.0244
河	-10.0248
迫	-10.0249
泣き	-10.0251
営業	-10.0254
液体	-10.0257
華	-10.0258
貨幣	-10.0263
区域	-10.0265
暮らす	-10.027
思	-10.027
の中の	-10.0272
思い出	-10.0273
手続き	-10.0277
送り	-10.0289
写し	-10.0296
容器	-10.0299
びん	-10.03
欠点	-10.03
ませんか	-10.0301
ビ	-10.0303
役所	-10.0309
▁病気	-10.0312
事務	-10.0317
なっている	-10.0326
越し	-10.0335
を出して	-10.0339
を加える	-10.0344
寄り	-10.0344
演	-10.0345
薄く	-10.0351
にとって	-10.0356
くら	-10.0365
これを	-10.0366
利用	-10.0369
区	-10.037
むし	-10.0377
ってしまった	-10.0378
養	-10.0379
▁学校	-10.0379
張	-10.038
とる	-10.0381
の子	-10.0383
発音	-10.0385
名声	-10.0389
抵抗	-10.039
肥料	-10.0391
環境	-10.0395
▁{	-10.04
貿易	-10.0404
刺激	-10.0405
講	-10.0406
減	-10.0406
▁カ	-10.0409
戦闘	-10.0409
および	-10.041
実は	-10.041
薄い	-10.041
禁止	-10.0412
閑	-10.0412
の道	-10.0414
殻	-10.0414
ザ	-10.0415
笛	-10.0416
きょう	-10.0417
子寬	-10.0419
あるいは	-10.0419
▁軍	-10.0422
方針	-10.0424
本の	-10.0426
品種	-10.0428
▁深	-10.0431
出席	-10.0432
レース	-10.0437
をつく	-10.0439
価	-10.0449
▁砂	-10.0449
さら	-10.0451
中国	-10.0452
運命	-10.0454
▁草	-10.0458
分ける	-10.0458
をお	-10.0471
▁ちょっと電話	-10.0471
かかった	-10.0473
あて	-10.0474
器官	-10.0474
下の	-10.0479
しなかった	-10.048
写	-10.0486
っぱ	-10.0491
殺す	-10.05
白く	-10.0504
課	-10.0505
周	-10.0511
▁常	-10.0513
コーヒー	-10.0513
東京	-10.0516
ことのたとえ	-10.0517
野菜	-10.0523
ジ	-10.0525
詩人	-10.0525
払う	-10.0531
の方	-10.0532
敗	-10.0535
主張	-10.0537
理解	-10.0539
立った	-10.0544
人々	-10.0546
外出	-10.0546
▁宿	-10.0553
降	-10.0554
結び	-10.0556
出来事	-10.0557
義務	-10.0562
予算	-10.0564
炉	-10.0569
共和国	-10.0569
千円	-10.0574
かげ	-10.0575
にかけて	-10.0576
暑い	-10.0577
▁我々の	-10.0577
尻	-10.0581
しみ	-10.0584
食べ物	-10.0585
家具	-10.0585
ノ	-10.0588
はいよ	-10.0598
軽く	-10.0605
a	-10.0605
におい	-10.0606
がる	-10.0611
立っている	-10.0618
ック	-10.0622
歴史	-10.0623
科の多年生植物	-10.0628
ひとつ	-10.0641
実に	-10.0643
っぽ	-10.0655
に入れる	-10.0655
段階	-10.0658
いだ	-10.0659
物事が	-10.0659
始め	-10.066
してください	-10.066
に電話をかける	-10.0662
垂れ	-10.067
塁	-10.0672
解釈	-10.0672
自由	-10.0674
をよく	-10.0679
▁取り	-10.068
幸福	-10.0682
広い	-10.0687
広告	-10.07
上がり	-10.0702
状態になる	-10.0702
番号	-10.0711
壇	-10.0713
いと	-10.0718
犯人	-10.0718
忙しい	-10.0724
真実	-10.0725
瓩	-10.0726
餅	-10.0726
講演	-10.0726
コート	-10.0727
獣	-10.0729
紳士	-10.073
そのまま	-10.0732
掛ける	-10.0733
ていった	-10.0733
焼け	-10.0735
のある人	-10.0736
袖	-10.0741
でしょうか	-10.0747
でないこと	-10.075
それぞれ	-10.0751
限	-10.0751
に乗る	-10.0754
種類の	-10.0755
ばかりの	-10.0756
鬼	-10.0758
観賞用	-10.0761
証	-10.0762
平和	-10.0764
銅	-10.0765
ひざ	-10.0777
集団	-10.0792
奪	-10.0792
値段	-10.0795
ダ	-10.0809
落とす	-10.0817
▁奇	-10.0821
災難	-10.0827
上着	-10.0833
建	-10.084
訪問	-10.084
どおりに	-10.0846
行って	-10.0847
答	-10.0849
の下に	-10.085
がなかった	-10.0852
と言って	-10.0864
続き	-10.0865
功	-10.0868
続く	-10.0869
ホテル	-10.0869
太	-10.0869
街	-10.0872
┐	-10.0873
魂	-10.0873
ごみ	-10.0883
智	-10.0884
仕事をする	-10.0885
エネルギー	-10.0885
目標	-10.0896
▁-	-10.0899
身を	-10.09
仕事に	-10.0904
の大	-10.0906
裁判	-10.0907
▁筆	-10.0907
愚	-10.0912
時刻	-10.0912
でした	-10.0913
業者	-10.0916
勝ち	-10.0918
きず	-10.0918
良い	-10.0918
ズ	-10.0918
福	-10.0923
射	-10.0924
冷	-10.0924
机	-10.0925
すばらしい	-10.0927
悲しみ	-10.0928
呼び	-10.0932
つま	-10.0932
▁ふ	-10.0936
▁彼はいつも	-10.0938
触れ	-10.0939
そうした	-10.094
時には	-10.0951
黄色	-10.0956
争い	-10.096
水が	-10.0963
いき	-10.0964
地震	-10.0971
重要な	-10.0972
脱	-10.0973
内に	-10.0976
▁開	-10.0977
事が	-10.0988
の意	-10.099
ごく	-10.1
借り	-10.1005
地面	-10.1006
いたずら	-10.1008
資本	-10.101
かなり	-10.1014
返し	-10.1015
歳だ	-10.1016
センチ	-10.1022
▁対	-10.1023
なること	-10.1023
案内	-10.1025
微	-10.1026
意志	-10.1028
腸	-10.1031
▁パ	-10.1033
▁秋	-10.1034
売買	-10.1035
わせる	-10.1035
の結果	-10.1036
自身	-10.104
ひげ	-10.1043
いている	-10.1043
▁近	-10.1043
繊維	-10.1043
風に	-10.1043
とび	-10.1045
医学	-10.1046
▁腰	-10.1048
▁互いに	-10.1049
抜く	-10.1051
彼女に	-10.1056
縦	-10.1058
会員	-10.106
▁紙	-10.106
▁人間	-10.1064
視	-10.1064
出来	-10.107
▁10	-10.1072
かない	-10.1075
鐘	-10.1078
外国	-10.1079
舞台	-10.1081
若	-10.1086
後ろ	-10.1094
▁来	-10.1096
ったり	-10.1098
脳	-10.1101
▁あなたの	-10.1103
出版	-10.1103
なくなった	-10.1105
▁湯	-10.1108
封	-10.1109
遠い	-10.111
□・	-10.1112
▁メッセ	-10.1117
用意	-10.1118
あって	-10.112
と思った	-10.1122
好きな	-10.1127
▁ひどい	-10.1128
鉄道	-10.113
締め	-10.1136
実際に	-10.1136
まり	-10.1141
かご	-10.1141
いろいろな	-10.1142
荒	-10.1144
羊	-10.1144
▁好	-10.1149
▁着	-10.1158
高さ	-10.116
並み	-10.1162
恋	-10.1162
まじ	-10.1163
るような	-10.1166
左右	-10.1167
頂	-10.1169
つけて	-10.1169
の前に	-10.1169
都	-10.1171
こそ	-10.1179
表情	-10.1182
方式	-10.1185
ようとする	-10.1186
過ぎる	-10.1187
はこの	-10.1191
房	-10.1191
技	-10.1191
▁数	-10.1192
寄せ	-10.1195
どり	-10.1195
▁裏	-10.1203
▁子寬	-10.1203
吟	-10.1206
籠	-10.1209
个	-10.121
トン	-10.1215
n	-10.1217
温度	-10.1217
長さ	-10.1217
鬚	-10.1227
▁自分	-10.1228
臭い	-10.1231
ピ	-10.1235
論文	-10.1236
▁差し	-10.1247
いっぱい	-10.1252
動詞	-10.1255
交通	-10.1255
についての	-10.1255
▁冬	-10.1255
ものである	-10.1256
鋭い	-10.1258
落ちる	-10.1258
つぎ	-10.1259
書いた	-10.126
タバコ	-10.126
廃	-10.1261
したい	-10.1261
見込み	-10.1265
▁極	-10.1265
▁頭	-10.1268
二つ	-10.127
の仕事	-10.127
提案	-10.1273
▁思い	-10.1274
の数	-10.1277
頃	-10.1278
薬品	-10.128
に応じて	-10.1282
してある	-10.1284
役人	-10.1287
組み	-10.1288
以上の	-10.1293
▁いや	-10.1296
広	-10.1297
▁丸	-10.13
さき	-10.1304
手が	-10.1307
はよく	-10.1308
▁敵	-10.131
▁ラジオ	-10.1313
人たち	-10.1313
機会	-10.1319
ないで	-10.1328
ぼう	-10.1331
非	-10.1336
▁光	-10.1337
家庭	-10.1342
一本	-10.1345
仲	-10.1346
譲	-10.1347
具合	-10.1352
はじめ	-10.1352
屈	-10.136
住	-10.1363
経営	-10.1365
で彼は	-10.1366
医者	-10.1367
軽	-10.1369
奥	-10.1369
▁この本は	-10.137
△	-10.1372
さす	-10.1375
洋	-10.1376
気候	-10.1379
使用	-10.1379
身の	-10.1383
増	-10.1384
差別	-10.1386
かけた	-10.1387
以下	-10.1392
つめ	-10.1398
▁清	-10.1399
洗い	-10.1401
▁胃	-10.1403
流行	-10.1405
直す	-10.1407
しり	-10.1408
のついた	-10.141
取った	-10.142
▁I	-10.1424
突然	-10.1425
の形	-10.1432
▁結婚	-10.144
踏み	-10.1441
を開く	-10.1444
やり方	-10.1446
一定	-10.145
進んで	-10.1451
あいさつ	-10.1453
がその	-10.1457
にくい	-10.1459
ダンス	-10.1461
起こった	-10.1462
導	-10.1463
順に	-10.1466
だろうか	-10.1468
わかった	-10.1469
いす	-10.147
▁古い	-10.1476
スポーツ	-10.1476
みそ	-10.1479
の本	-10.1482
まって	-10.1483
おじ	-10.1484
揚	-10.1485
取って	-10.1486
を書く	-10.1487
痛み	-10.1489
▁あ	-10.1494
栽培	-10.1495
盛	-10.1496
参	-10.15
君主	-10.1504
想	-10.1515
つまらない	-10.1515
者に	-10.1516
隠し	-10.1517
回復	-10.1519
▁骨	-10.1522
みる	-10.1523
容	-10.1524
もうけ	-10.1525
▁現代	-10.1526
拍子	-10.1528
回し	-10.153
いなか	-10.1531
ひとり	-10.1532
冊	-10.1532
出て	-10.1532
刈り	-10.1538
帰	-10.1542
舎	-10.1542
訓	-10.1543
細胞	-10.1543
君に	-10.1544
更に	-10.1546
▁選挙	-10.155
かえって	-10.1552
弟子	-10.1552
頼み	-10.1556
困難	-10.1558
いう	-10.1558
注	-10.1559
相手を	-10.1564
らなかった	-10.1571
と共に	-10.1581
次第に	-10.1584
興	-10.1584
を保つ	-10.1598
議会	-10.1602
記憶	-10.1602
くれた	-10.1603
▁一定の	-10.1605
休暇	-10.1607
英	-10.1609
▁政	-10.161
漁	-10.1612
梅	-10.1614
汗	-10.1623
挙	-10.1624
出発	-10.1626
細く	-10.1628
短	-10.1628
未	-10.1629
伝え	-10.163
血液	-10.163
進歩	-10.1631
マン	-10.1631
にあって	-10.1632
▁米	-10.1636
まった	-10.1644
▁異	-10.1646
奇	-10.1647
▁唐	-10.1649
クラス	-10.1651
興奮	-10.1656
れない	-10.1658
▁大学	-10.1659
▁低	-10.1663
赤い	-10.1663
下げ	-10.1664
ズボン	-10.1664
承知	-10.1666
そり	-10.1667
都合	-10.1667
胴	-10.1671
▁世間	-10.1671
かく	-10.1677
大形の	-10.168
光景	-10.1682
覧	-10.1684
遅れ	-10.1685
だって	-10.1685
▁人が	-10.1688
いつ	-10.1689
道徳	-10.1692
プ	-10.1693
ちゃんと	-10.1694
走り	-10.1699
▁石油	-10.17
▁交通	-10.1705
館	-10.1709
欄	-10.171
▁雲	-10.1712
聴	-10.1713
勘	-10.1715
秒	-10.1717
注文	-10.1723
栄養	-10.1724
賃	-10.1727
▁言い	-10.1728
過ぎ	-10.1728
感謝	-10.1729
▁まったく	-10.173
ポ	-10.1735
第	-10.1738
けんか	-10.174
文化	-10.1744
▁彼らはその	-10.1765
件	-10.1769
行動する	-10.1773
親切	-10.178
の前	-10.1782
かど	-10.1789
▁映画	-10.1791
なんか	-10.1792
種類	-10.1798
に従って	-10.1798
しき	-10.1798
そうじゃない	-10.1802
からだ	-10.1803
歌手	-10.1804
▁物の	-10.1808
えて	-10.181
▁現	-10.181
他人に	-10.1814
▁オ	-10.1815
12	-10.1815
来て	-10.1818
になっていた	-10.1821
にすること	-10.1823
僕	-10.1824
成績	-10.1825
魔	-10.1826
っこ	-10.1831
武士	-10.1833
競走	-10.1835
恵	-10.1836
まね	-10.1838
化粧	-10.1842
肺	-10.1846
兵士	-10.1847
の世界	-10.1848
てください	-10.1854
錠	-10.1855
当然	-10.1858
胃	-10.186
変わり	-10.1862
医	-10.1862
越	-10.1863
暮らし	-10.1864
口に	-10.1864
を抜く	-10.1873
本当に	-10.1873
真理	-10.1876
開いた	-10.1876
声で	-10.1881
人口	-10.1882
婚	-10.1885
給料	-10.1887
郷	-10.1887
緊張	-10.1893
車を	-10.1893
苦しみ	-10.1894
輸送	-10.1894
シャツ	-10.1895
逃げ	-10.1905
に用いる	-10.1908
の一部	-10.1908
▁鉄道	-10.1911
ール	-10.1911
付く	-10.1916
話を	-10.1926
補	-10.1931
方の	-10.1935
意気	-10.1936
おけ	-10.1941
意にも	-10.1943
じゃないか	-10.1945
の声	-10.1946
練習	-10.1949
形で	-10.1949
動く	-10.1952
であろう	-10.1952
でメッセを	-10.1953
▁特	-10.1957
演奏	-10.1959
満	-10.1959
国の	-10.1959
▁氷	-10.1962
一般	-10.1962
包み	-10.1962
余り	-10.1966
先生	-10.1966
正直	-10.1968
肥	-10.1969
まし	-10.1982
戒	-10.1982
攻め	-10.1991
▁乳	-10.1995
疑い	-10.1996
▁彼女はその	-10.2001
書く	-10.2003
妙	-10.2004
持つ	-10.2005
あか	-10.2009
茂	-10.201
▁左	-10.2011
ようになる	-10.2017
激	-10.202
交際	-10.2022
助け	-10.2036
でメッセージを	-10.2036
の自由	-10.2037
興行	-10.2038
幸	-10.204
くじ	-10.204
さび	-10.2042
愛情	-10.2044
勉強する	-10.2051
は私の	-10.2051
富	-10.2051
報道	-10.2052
病院	-10.2053
ビール	-10.2054
継ぎ	-10.2055
すべての	-10.2058
ようと	-10.2059
競争	-10.2062
雅	-10.2063
嫌	-10.2067
繰り	-10.2068
▁東	-10.2068
妹	-10.2069
楽しみ	-10.2071
圓	-10.2072
寮	-10.2072
彫刻	-10.2073
パーセント	-10.2073
▁夏	-10.2073
集合	-10.2076
いろいろ	-10.2076
▁国家	-10.208
しないで	-10.2082
すぎて	-10.2098
続けて	-10.2103
気体	-10.2105
▁庭	-10.2111
▁放	-10.2113
▁聖	-10.2114
細かい	-10.2121
鳴る	-10.2124
持っている	-10.2125
十分に	-10.2125
婦	-10.2128
▁粗	-10.2129
回す	-10.2134
▁単	-10.2134
▁いまから電話	-10.2134
なしに	-10.2138
練	-10.2144
鋼	-10.2148
ほか	-10.2152
どろ	-10.2169
簡単に	-10.2177
の状態	-10.2179
だが	-10.2183
なくて	-10.2188
方面	-10.2191
o	-10.2192
外に	-10.2193
の花	-10.2193
を買う	-10.2194
切った	-10.2194
刊	-10.2195
ものだった	-10.2196
亡	-10.22
最後	-10.2203
夫婦	-10.2204
ならぬ	-10.2205
穂	-10.2206
してしまった	-10.2209
修行	-10.2213
エンジン	-10.2215
なお	-10.2215
地に	-10.2217
▁鳥	-10.2218
制限	-10.222
▁精神	-10.2222
雷	-10.2226
霜	-10.2227
バー	-10.2228
驚いた	-10.2228
ボ	-10.2233
だめだ	-10.2235
天井	-10.2236
庁	-10.2238
教会	-10.2239
▁定	-10.2239
甘い	-10.2239
の手紙	-10.2242
m	-10.2242
否	-10.2244
ふるまう	-10.2245
好み	-10.2246
詩歌	-10.2246
慮	-10.2249
役者	-10.225
を持って	-10.225
ピアノ	-10.2251
がけ	-10.2251
姉	-10.2252
あらゆる	-10.2253
附	-10.2254
ひそかに	-10.2255
手当	-10.2256
してくれた	-10.2256
象	-10.2257
そのように	-10.2257
英雄	-10.2259
勤務	-10.2261
生命	-10.2262
前後	-10.2263
知らず	-10.2264
てある	-10.2267
道理	-10.2269
▁万	-10.2273
をとり	-10.2274
火事	-10.2276
場面	-10.2277
を引き	-10.2283
奏	-10.2284
たとえ	-10.2286
▁人間の	-10.2291
社長	-10.2292
読む	-10.2292
▁美	-10.2293
下に	-10.23
生活をする	-10.2305
番組	-10.2305
電流	-10.231
準備	-10.2316
ほかの	-10.2328
▁立ち	-10.2329
すじ	-10.2329
f	-10.2334
見ること	-10.2341
いたします	-10.2348
多数	-10.2351
▁薬	-10.2351
別れ	-10.2354
するさま	-10.2358
そうよ	-10.2358
の色	-10.236
▁日本の	-10.2362
ものと	-10.2367
なあ	-10.2368
▁弱	-10.2368
▁フ	-10.2368
体に	-10.2371
しめ	-10.2371
同情	-10.2375
しやすい	-10.2378
れている	-10.2378
信用	-10.2378
狩り	-10.2385
▁あの男は	-10.2389
数量	-10.2389
すぎ	-10.2391
職人	-10.2396
製造	-10.2396
軒	-10.24
頭に	-10.2403
将	-10.2412
りして	-10.2415
比	-10.2418
▁泥	-10.2418
主として	-10.2423
臨	-10.2425
▁メッセージ	-10.2425
帽	-10.2426
事態	-10.2427
姓	-10.2428
の強い	-10.2428
ところで	-10.243
じっと	-10.2431
おし	-10.2431
青年	-10.2431
以来	-10.244
ゲーム	-10.244
訓練	-10.244
ボタン	-10.244
途	-10.2449
▁王	-10.2453
くり	-10.2459
物が	-10.2461
を払う	-10.2461
至	-10.2466
話をする	-10.2469
▁僕の	-10.2471
興味	-10.2477
くさ	-10.2484
ずいぶん	-10.2485
に従う	-10.2486
らん	-10.2487
で行く	-10.2488
あげる	-10.2489
勤	-10.2489
取ること	-10.2501
が早い	-10.2503
逃げる	-10.2505
日の	-10.2506
▁あなたは	-10.2506
儀式	-10.2509
▁きわめて	-10.2513
かせる	-10.2526
を入れた	-10.253
世話	-10.2532
▁よい	-10.2532
▁改	-10.2533
の原料	-10.2533
去	-10.2538
終わり	-10.2541
どこ	-10.2541
行くこと	-10.2547
しろ	-10.2549
▁きょう	-10.2555
受ける	-10.2555
立てた	-10.2558
▁切り	-10.2559
訴	-10.256
本を	-10.2564
得た	-10.2565
聞いて	-10.2567
成分	-10.2568
はあまり	-10.2568
▁キャンセル	-10.2569
を取って	-10.2569
舞	-10.2571
首を	-10.2571
確	-10.2572
少女	-10.2575
います	-10.2576
▁当	-10.2576
標	-10.2577
▁密	-10.2579
▁遠	-10.2583
髪の毛	-10.2583
▁千	-10.2584
迷	-10.2588
構え	-10.2589
心の	-10.2589
▁夢	-10.2595
なす	-10.2596
をはかる	-10.2598
盗	-10.2601
航	-10.2602
翻訳	-10.2602
時代に	-10.2603
毎日	-10.2603
老人	-10.2605
せい	-10.2608
ものか	-10.2611
労	-10.2611
重要	-10.2614
他に	-10.2616
貧乏	-10.2617
浮	-10.2621
厚い	-10.2622
たま	-10.2625
秘	-10.2625
染め	-10.2628
ケーキ	-10.2628
元素記号	-10.2629
踊り	-10.2631
500	-10.2631
天候	-10.2633
勢いよく	-10.2636
風景	-10.2638
ワ	-10.2645
▁やめる	-10.2645
を述べる	-10.2646
将軍	-10.265
条約	-10.2652
住宅	-10.2654
しておく	-10.2656
倒	-10.2663
はなかった	-10.2665
あし	-10.2667
の単位	-10.2668
2、3	-10.2672
ほお	-10.2672
大変	-10.2673
日本の	-10.2673
未来	-10.2674
であるさま	-10.2679
標準	-10.268
▁一度	-10.2683
ようになった	-10.2685
のないこと	-10.2688
与	-10.269
▁コーヒー	-10.269
物の	-10.2695
▁在	-10.2697
あら	-10.27
敷	-10.2702
人生	-10.2707
寝る	-10.271
一度	-10.2711
くらい	-10.2712
そんなに	-10.2714
灯火	-10.2715
体が	-10.2723
布地	-10.2724
▁少し	-10.2726
頭を	-10.2726
個人	-10.2734
▁過	-10.2736
もとの	-10.2737
整理	-10.274
の葉	-10.2747
頭の	-10.275
傾	-10.2751
たん	-10.2752
▁追	-10.2759
▁機械	-10.2766
がき	-10.2772
▁綿	-10.2776
▁彼女	-10.2783
残り	-10.2784
時間を	-10.2786
全然	-10.2788
▁私には	-10.2794
の選手	-10.2798
襲	-10.28
流し	-10.28
の上で	-10.2801
紀	-10.2806
傘	-10.2811
▁角	-10.2814
塊	-10.2818
坐	-10.282
期限	-10.2822
公園	-10.2823
40	-10.2825
微笑	-10.2825
対象	-10.283
▁サ	-10.2832
▁首	-10.2832
まるで	-10.2833
▁いつも	-10.2833
多い	-10.2835
予想	-10.2838
のことで	-10.2838
つつ	-10.284
するために	-10.2842
特定の	-10.2844
▁陰	-10.2844
近い	-10.2845
幹	-10.2847
画家	-10.2848
の人々	-10.2848
想像	-10.285
留め	-10.2852
ものではない	-10.2852
ゴ	-10.2856
の手	-10.2857
すみ	-10.2857
しましょう	-10.2858
貝	-10.286
実行	-10.2865
▁焼き	-10.2865
引く	-10.2866
ゴム	-10.2872
辞書	-10.2873
爆発	-10.2875
若者	-10.2878
損害	-10.2881
キャンセル	-10.2881
▁北	-10.2883
▁ロンドン	-10.2884
いかにも	-10.289
▁昔の	-10.2895
こわ	-10.2895
中央	-10.2897
麻	-10.2899
呼ぶ	-10.2908
くぎ	-10.2909
彼らは	-10.291
までの	-10.2913
いろ	-10.2916
▁肩	-10.2917
文法	-10.2919
が起こる	-10.292
▁学生	-10.2921
合った	-10.2923
倒れ	-10.2932
青い	-10.2935
▁西	-10.2935
▁世界	-10.2936
休	-10.2938
▁はい	-10.2942
いろいろの	-10.2942
▁すぐれた	-10.2947
男子	-10.2948
を打ち	-10.2949
の皮	-10.295
はまったく	-10.2961
贈り物	-10.2966
職務	-10.2979
▁ひざ	-10.2979
ぜ	-10.2986
しようと	-10.2988
▁遺	-10.2988
▁荒	-10.2988
多年生植物	-10.2997
坂	-10.2998
流れる	-10.3
艦	-10.3002
会合	-10.3004
円形	-10.3013
銘	-10.3014
蓋	-10.3014
詠	-10.3016
泳ぎ	-10.3017
インド	-10.3018
決意	-10.3019
祝い	-10.302
損失	-10.3021
形に	-10.3022
をかけ	-10.3025
急いで	-10.3034
組合	-10.3034
実力	-10.3042
監督	-10.3048
y	-10.3053
りする	-10.3054
をかけて	-10.3054
クラブ	-10.306
▁劇	-10.3063
▁ガス	-10.3064
気質	-10.3065
を見た	-10.3068
▁廃	-10.307
保険	-10.3073
▁東京	-10.3076
終	-10.3078
丘	-10.3078
弓	-10.3079
▁これで	-10.3082
大きさ	-10.3082
珍しい	-10.3083
切符	-10.3084
遠く	-10.3086
いっしょに	-10.3087
宇宙	-10.3087
ヨーロッパ	-10.3089
▁母	-10.3089
ええ	-10.3092
ラジオ	-10.3092
▁脱	-10.3092
かれ	-10.3094
が違う	-10.3095
持って	-10.3099
中心	-10.31
風呂	-10.31
に似て	-10.3101
の先	-10.3104
熟	-10.311
乾	-10.3111
を変える	-10.3111
行かない	-10.3113
赤ん坊	-10.3115
照	-10.3116
要素	-10.312
b	-10.3122
ギ	-10.3133
いますか	-10.3135
▁私たちは	-10.3137
ペン	-10.3138
ところだった	-10.3142
固	-10.3143
▁エ	-10.3143
などから	-10.3144
負	-10.3144
唱	-10.3145
▁退	-10.3148
文明	-10.3149
▁共	-10.3152
現実	-10.3159
上がった	-10.3159
てくれた	-10.3159
▁罪	-10.316
府	-10.3165
ばら	-10.3169
らか	-10.3169
▁普通	-10.3173
帆	-10.3175
治療	-10.3186
干し	-10.3186
までに	-10.319
軽い	-10.3195
咲き	-10.3195
しかった	-10.3197
安全	-10.32
現在	-10.3202
共	-10.3202
っぽい	-10.3203
▁代	-10.3206
しるし	-10.3209
護	-10.321
始める	-10.3213
▁家庭	-10.3213
権力	-10.3216
瓦	-10.3216
に富む	-10.3217
に乗って	-10.3217
児童	-10.3217
印象	-10.3217
少々	-10.3218
切って	-10.3218
革命	-10.3218
酸素	-10.3219
名詞	-10.3219
多少	-10.3219
カード	-10.3219
強盗	-10.322
のど	-10.3222
運ぶ	-10.3222
通知	-10.3222
ですね	-10.3225
眼鏡	-10.3228
はずれ	-10.3239
一層	-10.3248
寸	-10.3255
頭が	-10.3258
ゆく	-10.3259
皮膚	-10.3259
▁余	-10.3259
錣	-10.3261
証明	-10.3265
農	-10.3267
完成	-10.3268
落ちた	-10.3268
薬用	-10.3271
ちょう	-10.3279
緑色	-10.3281
開き	-10.3281
をつけること	-10.3289
ゲ	-10.329
種種の	-10.329
等を	-10.3291
面目	-10.3292
そのもの	-10.3298
花を	-10.3299
医師	-10.33
ベッド	-10.3301
遺	-10.3301
はし	-10.3302
枕	-10.3302
律	-10.3305
燃料	-10.3305
編集	-10.3308
向こう	-10.331
はね	-10.3313
記事	-10.3316
女の子	-10.332
電報	-10.3325
生涯	-10.3329
足を	-10.3329
通し	-10.3331
に出かける	-10.3331
身体	-10.3333
▁聞き	-10.3333
侮辱	-10.3335
そうです	-10.334
金持ち	-10.3342
腐	-10.3342
筋肉	-10.3344
の中を	-10.3346
▁病	-10.3348
あれ	-10.3349
物に	-10.3353
事は	-10.3353
をとって	-10.3356
英国	-10.3358
威	-10.336
えり	-10.3364
大臣	-10.338
生まれた	-10.3398
覆い	-10.3403
よくない	-10.3405
▁道路	-10.3413
▁しん	-10.3415
▁軍隊	-10.3415
▁駅	-10.3416
歴	-10.3416
▁ど	-10.342
ディ	-10.342
すなわち	-10.3421
アルコール	-10.3421
レンズ	-10.3421
友だち	-10.3421
我々は	-10.3423
▁江戸時代	-10.3424
あわ	-10.3425
暑さ	-10.3428
▁四	-10.3428
主人	-10.343
代わり	-10.343
から成る	-10.3431
ひな	-10.3433
再び	-10.3433
の神	-10.3439
▁右	-10.3441
きまり	-10.3445
▁西洋	-10.3449
▁端	-10.345
かる	-10.3454
とおり	-10.3456
でいる	-10.3466
大工	-10.347
▁レ	-10.3472
ついで	-10.3475
▁苦	-10.3478
人と	-10.3481
不幸	-10.3482
▁若	-10.3484
結晶	-10.3484
▁素	-10.3486
のり	-10.3488
足が	-10.349
方が	-10.3494
▁通	-10.3495
生き	-10.3503
尊	-10.3503
ちょうど	-10.3503
劇場	-10.3507
述べる	-10.3507
空間	-10.351
蛇	-10.3512
のもとに	-10.3517
における	-10.3521
相場	-10.3522
正月	-10.3523
原稿	-10.3524
庭園	-10.3525
カメラ	-10.3528
に置く	-10.3529
ビル	-10.3533
兄弟	-10.3533
脂	-10.3533
ロンドン	-10.3533
きわめて	-10.3534
風の	-10.3538
カー	-10.3538
▁激しい	-10.354
懐	-10.3541
住んでいる	-10.3541
にかかる	-10.3543
▁もし	-10.3543
粗	-10.3546
ふく	-10.3547
平均	-10.3549
どこか	-10.3551
の姿	-10.3552
合わせて	-10.3552
幾ら	-10.3552
▁共同	-10.3553
果	-10.3556
触	-10.3558
所有	-10.3564
加	-10.3564
▁指	-10.3565
名を	-10.3567
▁政治	-10.357
泉	-10.3572
何を	-10.3572
継	-10.3572
げた	-10.3574
求	-10.3575
なん	-10.3577
あらし	-10.3578
たく	-10.358
住民	-10.3583
文体	-10.3583
▁アメリカ	-10.3585
測	-10.3586
保	-10.3586
はすべて	-10.3591
▁漢字の	-10.3593
むだ	-10.3597
上で	-10.3603
だね	-10.3604
々に	-10.3605
はいつも	-10.3606
祖	-10.3607
謀	-10.3607
19	-10.361
っていない	-10.3613
壮	-10.3614
了	-10.3618
掌	-10.362
謝	-10.362
分析	-10.3625
椅子	-10.3629
クリーム	-10.3629
テスト	-10.363
元素	-10.363
刑罰	-10.363
協定	-10.363
一体	-10.3631
内閣	-10.3631
最初の	-10.3632
▁面	-10.3641
晴れ	-10.3641
買	-10.3642
飛行機	-10.3651
殺人	-10.3657
▁国民	-10.3662
暑	-10.3662
▁精	-10.3662
発展	-10.3664
いくら	-10.3665
着物	-10.3665
積み	-10.3667
心から	-10.3675
季節	-10.368
燃え	-10.3684
▁you	-10.3685
擦	-10.3694
眠り	-10.3695
はえ	-10.3698
不満	-10.3698
森	-10.3698
ジョーク	-10.3702
群	-10.3703
へい	-10.3704
存	-10.371
を解く	-10.3711
信頼	-10.3711
人間の	-10.3712
▁荷	-10.3713
呼吸	-10.3713
そのような	-10.3717
▁町	-10.3718
力を	-10.3718
隠れ	-10.3721
▁末	-10.3722
棚	-10.3722
の生活	-10.3723
の際	-10.3724
成功する	-10.3724
ですよ	-10.373
欠	-10.3733
情勢	-10.3734
分類	-10.3739
状に	-10.3739
ながめ	-10.374
倒す	-10.3744
張る	-10.3745
濃	-10.3746
進行	-10.3747
やみ	-10.3748
漬け	-10.3753
分野	-10.3753
琴	-10.3763
名誉	-10.3766
すそ	-10.377
演劇	-10.3771
安い	-10.3771
しばらく	-10.3772
告	-10.3773
白色	-10.3774
分子	-10.3775
たて	-10.3775
捨てる	-10.3785
藩	-10.3788
駆け	-10.3788
鍋	-10.3788
本当の	-10.379
決心	-10.3792
最	-10.3796
専	-10.3799
佑	-10.3801
地球	-10.3801
しきりに	-10.3807
判決	-10.3809
停止	-10.3812
追	-10.3814
いいえ	-10.3819
▁陸	-10.3821
ほんの	-10.3821
有名	-10.3822
っか	-10.3829
半分	-10.383
烈	-10.3832
振	-10.3833
事項	-10.3839
請求	-10.3839
いなかった	-10.3839
丈	-10.3839
鉛	-10.3839
役に立たない	-10.3839
舛	-10.384
蝋	-10.384
盛んな	-10.3841
肝	-10.3841
どんどん	-10.3842
勤め	-10.3842
堅く	-10.3845
一家	-10.3848
少しずつ	-10.385
▁店	-10.3851
最高	-10.3851
言い訳	-10.3851
簡単な	-10.3853
ざっと	-10.3854
自信	-10.3854
半ば	-10.3858
部屋に	-10.3859
賃金	-10.3859
▁それで	-10.3862
▁やめ	-10.3862
それで	-10.3865
身に	-10.3868
鉢	-10.3872
水素	-10.3873
てくる	-10.3877
催	-10.3877
自慢	-10.3879
の力	-10.388
ロー	-10.3881
が多く	-10.3882
難しい	-10.3886
議員	-10.3892
▁人生の	-10.3894
を受け	-10.3898
跳び	-10.3898
の高い	-10.3907
事を言う	-10.3911
かけて	-10.3914
暦	-10.3914
を知らない	-10.3917
じゃ	-10.3918
▁石炭	-10.3925
たつ	-10.3929
失敗した	-10.3932
を避ける	-10.3935
▁すぐ	-10.3937
を破る	-10.3938
第一	-10.3942
ところだ	-10.3945
早い	-10.3947
を食う	-10.3953
大名	-10.3956
▁門	-10.3958
ありません	-10.396
くこと	-10.3961
衆	-10.3963
似	-10.3963
歩き	-10.3963
キー	-10.3966
60	-10.3968
植	-10.3968
▁急に	-10.3968
用具	-10.3973
の大きさ	-10.3973
わす	-10.3975
丸く	-10.3975
被害	-10.398
▁バ	-10.3981
賊	-10.3981
いやな	-10.3985
忌	-10.3985
何でも	-10.3986
▁霊	-10.3987
だい	-10.3989
示す	-10.3991
を求めて	-10.3992
県	-10.3994
▁甘	-10.3996
を作ること	-10.3996
得点	-10.3997
柳	-10.3997
つぼ	-10.3997
借	-10.3999
なわ	-10.4
相撲	-10.4005
目が	-10.4006
▁皆	-10.4007
ベ	-10.4007
育	-10.4007
おい	-10.4007
稲	-10.4009
弾丸	-10.4011
時間の	-10.4014
せずに	-10.4015
▁a	-10.4016
創	-10.4016
官庁	-10.4018
かえ	-10.4019
躍	-10.4019
普通は	-10.402
更	-10.4021
言えば	-10.4028
開く	-10.403
ここ	-10.4033
がついている	-10.4036
on	-10.4037
ナイフ	-10.4042
伴	-10.4044
垣	-10.4047
少ない	-10.4048
特	-10.4051
羅	-10.4053
根拠	-10.4054
やぶ	-10.4055
桃	-10.4058
糞	-10.4059
掃除	-10.4059
200	-10.406
情況	-10.4061
協力	-10.4061
渡る	-10.4061
友情	-10.4062
武器	-10.4065
とげ	-10.4066
ことができなかった	-10.4067
学習	-10.4067
▁戦	-10.4069
方に	-10.407
役に立つ	-10.4071
葬	-10.4072
▁ハ	-10.4079
かず	-10.408
▁泣き	-10.4082
えた	-10.4082
わない	-10.4082
新しく	-10.4086
つら	-10.4088
浅い	-10.4095
顔色	-10.4097
うす	-10.4097
統一	-10.4099
区分	-10.4099
▁父	-10.4106
c	-10.4107
信じ	-10.4111
▁虫	-10.4111
必要な	-10.4116
人民	-10.412
やや	-10.4121
ここに	-10.4121
移	-10.4125
知らない	-10.4127
▁合	-10.4127
を置く	-10.414
▁大統領	-10.414
▁あまり	-10.4141
を掛ける	-10.4142
▁寒	-10.4143
連れ	-10.4146
▁諸	-10.4148
交換	-10.4152
▁突然	-10.4153
つもり	-10.4162
ート	-10.4163
食う	-10.4176
まれた	-10.4179
織	-10.418
行われる	-10.4184
低く	-10.4184
ますます	-10.4185
天皇	-10.4188
泊	-10.4201
ゆっくり	-10.4206
▁回	-10.4208
ワイン	-10.4211
▁いかにも	-10.4213
だれも	-10.4213
者の	-10.4214
ことはできない	-10.4216
得る	-10.4217
猟	-10.422
▁壁	-10.423
がたい	-10.4231
▁痛	-10.4231
定めた	-10.4233
話が	-10.4234
々と	-10.4236
聴衆	-10.424
▁英国	-10.4241
つぶ	-10.4244
航海	-10.4245
禁	-10.4247
ひじ	-10.4253
数字	-10.4253
▁暗	-10.4261
双	-10.4262
あげ	-10.4268
ねじ	-10.4268
きめ	-10.4269
神社	-10.4269
▁流行	-10.427
に陥る	-10.4272
▁野球で	-10.4273
▁板	-10.4277
彼ら	-10.4278
入った	-10.428
おもちゃ	-10.428
▁to	-10.4281
ヌ	-10.4281
おう	-10.4281
	-10.4281
塵	-10.4281
玄関	-10.4281
に入って	-10.4282
推測	-10.4282
待遇	-10.4282
欲望	-10.4284
ショー	-10.4284
機能	-10.4284
あご	-10.4286
解説	-10.4286
両親	-10.4289
陸	-10.4289
電波	-10.4291
合図	-10.4293
集まり	-10.4293
走った	-10.4296
発言	-10.4298
帰る	-10.43
にあった	-10.43
の中心	-10.4303
が起こった	-10.4305
家屋	-10.4306
顔に	-10.4307
分量	-10.431
▁糸	-10.4311
完全に	-10.4311
去る	-10.4311
てん	-10.4317
違った	-10.4322
尊敬	-10.4323
▁破	-10.4328
にならない	-10.4329
聖	-10.433
地図	-10.4331
人気	-10.4335
西洋	-10.4337
できなかった	-10.4339
止	-10.434
わず	-10.434
ぬか	-10.4344
あの人	-10.4345
やっと	-10.4346
内の	-10.4347
▁船が	-10.4351
▁動物	-10.4354
無用	-10.4355
の男	-10.4356
したりする	-10.4357
▁経済	-10.4357
▁絵	-10.4366
洋服	-10.4366
▁マ	-10.4366
コース	-10.4367
沈	-10.4376
恨み	-10.4389
こん	-10.4398
最後の	-10.4414
われた	-10.4417
を調べる	-10.442
全員	-10.442
違反	-10.4424
真っ	-10.4425
まれる	-10.4428
目的で	-10.443
▁屋根	-10.4432
世の	-10.4432
自然に	-10.4434
の所	-10.4435
あるもの	-10.4441
▁竹	-10.4446
建て	-10.4446
状況	-10.4447
面積	-10.4452
に出	-10.4453
にいる	-10.4456
発表	-10.4458
かま	-10.446
▁教育	-10.4463
拝	-10.4476
ほこり	-10.448
きれいに	-10.4481
掛かり	-10.4485
畳	-10.4487
言う語	-10.4487
申し	-10.449
負担	-10.4491
いこと	-10.4493
恐ろしい	-10.4495
糖	-10.4499
i	-10.4499
▁洋	-10.45
鶏	-10.45
男の子	-10.45
承	-10.45
朱	-10.45
勅	-10.45
弁護士	-10.45
竜	-10.4501
審	-10.4502
随	-10.4503
ところに	-10.4503
外交	-10.4504
牛乳	-10.4505
好意	-10.4506
髄	-10.4506
世の中	-10.4506
秩序	-10.4507
僕は	-10.4508
餌	-10.4509
看護婦	-10.4509
足で	-10.4509
闘争	-10.4509
課程	-10.451
」(↓	-10.451
衣装	-10.451
概念	-10.4512
反射	-10.4512
枯れ	-10.4513
▁A	-10.4514
の変化	-10.4515
どの	-10.4515
療法	-10.4515
漁業	-10.4516
警察	-10.4516
様式	-10.4517
石炭	-10.4517
くび	-10.4519
待つ	-10.4519
インク	-10.452
さや	-10.452
かばん	-10.4521
政党	-10.4522
▁急いで	-10.4523
の種	-10.4525
りすること	-10.4529
こんで	-10.4532
散歩	-10.4534
に暮らす	-10.4536
▁円	-10.4541
初夏	-10.4542
異なる	-10.4544
記者	-10.4547
目つき	-10.4553
原料	-10.4556
明日	-10.456
つまり	-10.4563
せよ	-10.4564
論理	-10.4566
を付ける	-10.4566
困る	-10.4567
特別	-10.4568
しわ	-10.4572
だめ	-10.4574
▁振り	-10.4576
決め	-10.4578
の念	-10.4583
仕立て	-10.4584
▁雄	-10.4585
浸	-10.4587
▁太陽	-10.4592
修理	-10.4597
水面	-10.4599
太い	-10.46
ひら	-10.4606
洗	-10.4607
▁警	-10.4607
▁間	-10.461
通じ	-10.4614
のお	-10.4616
をする人	-10.4616
意見を	-10.4617
霧	-10.462
re	-10.4623
▁矢	-10.4629
締める	-10.4632
みた	-10.4633
▁宇宙	-10.464
▁残	-10.4645
眠る	-10.4654
扱う	-10.4655
態度で	-10.4662
にあたる	-10.4663
▁彼は私	-10.4665
定め	-10.4665
項	-10.4667
もつ	-10.4669
きれ	-10.4671
はどう	-10.4673
立てて	-10.4673
預	-10.4678
直し	-10.4679
改	-10.4682
▁細	-10.4683
いえ	-10.4693
嘆	-10.4693
隣	-10.4699
にお	-10.47
▁尻	-10.4701
処	-10.4702
歩くこと	-10.4706
▁猫	-10.4709
淡	-10.4711
暇	-10.4713
為	-10.4713
どうも	-10.4715
だれ	-10.4715
京	-10.4716
気の	-10.4718
おいて	-10.4718
欠席	-10.4719
さず	-10.472
諸国	-10.4721
束	-10.4722
則	-10.4722
女の	-10.4723
往	-10.4724
併	-10.4724
てる	-10.4726
大統領	-10.4728
さい	-10.4731
を通して	-10.4732
やら	-10.4732
独	-10.4733
ったもの	-10.4737
姿勢	-10.4737
関心	-10.474
仕掛け	-10.474
笋	-10.4741
唇	-10.4741
別に	-10.4741
諒	-10.4741
爾	-10.4741
くちびる	-10.4741
官吏	-10.4743
改革	-10.4743
観念	-10.4743
残っている	-10.4743
貯金	-10.4744
驚く	-10.4746
▁今は	-10.4747
批判	-10.475
基準	-10.4755
ほうがよい	-10.4756
見解	-10.4756
食糧	-10.476
裸	-10.4764
にわたって	-10.4764
さく	-10.4765
中毒	-10.4767
証人	-10.4767
▁乱	-10.4767
▁犬は	-10.4776
こちら	-10.4776
仕事が	-10.4776
よかった	-10.4782
時は	-10.4784
形勢	-10.4785
の半分	-10.4786
まつ	-10.4786
▁潮	-10.4788
ましい	-10.4791
静	-10.4791
石油	-10.4792
置く	-10.4793
設けた	-10.4794
同意	-10.4796
まれ	-10.4797
国際	-10.4798
ことはない	-10.4799
読者	-10.48
▁飛行	-10.4801
構成	-10.4805
警官	-10.4806
歓迎	-10.4807
漏れ	-10.481
物理	-10.4812
は今	-10.4813
ぼく	-10.4816
死んで	-10.4817
▁波	-10.4821
▁列車は	-10.4822
はら	-10.4824
種子	-10.4827
▁浮き	-10.4829
▁英語	-10.4831
▁ノー	-10.4834
以前	-10.4835
▁何できる	-10.4836
▁命	-10.484
両者	-10.484
無し	-10.4846
装飾	-10.4855
つの	-10.4858
山の	-10.4863
私には	-10.4864
そで	-10.4869
▁だれも	-10.4871
▁結	-10.4872
事実を	-10.4879
▁職業	-10.4886
▁黄	-10.4887
〇	-10.4894
丈夫	-10.4895
屋敷	-10.4899
ホーム	-10.4899
通す	-10.4899
▁君に	-10.4903
置いて	-10.4904
手術	-10.4912
野球	-10.4912
▁心配	-10.4915
▁床	-10.4916
▁毒	-10.4918
すき	-10.4918
鉱	-10.4918
そっと	-10.4921
厚く	-10.4924
▁旅行	-10.4926
気性	-10.4929
その他	-10.493
圧力	-10.4931
成長	-10.4934
▁将来	-10.494
▁メ	-10.494
をつくる	-10.4944
用心	-10.4946
政権	-10.4947
▁黙	-10.4948
の間で	-10.4948
▁船の	-10.4949
つけること	-10.4949
事の	-10.4949
男性	-10.495
充分	-10.4954
赤く	-10.4955
を結ぶ	-10.4956
こい	-10.4959
▁減	-10.4959
▁is	-10.496
を落とす	-10.496
築	-10.4963
タン	-10.4965
は全く	-10.4966
卒	-10.4966
敵を	-10.4967
続ける	-10.4968
が非常に	-10.4971
鈴	-10.4971
短く	-10.4972
▁せい	-10.4973
迷惑	-10.4973
に当たって	-10.4976
禄	-10.4979
棟	-10.4979
フィルム	-10.4979
レストラン	-10.4979
承認	-10.4979
スカート	-10.4979
▁漢字の偏	-10.498
災害	-10.498
一言	-10.4981
観察	-10.4984
▁ただ	-10.4986
に属する	-10.4987
▁落	-10.4987
郵便	-10.499
代表	-10.4992
▁パン	-10.4994
乱れ	-10.4995
果実	-10.4995
セ	-10.4996
大陸	-10.5
を施す	-10.5002
仕上げ	-10.5003
に基づいて	-10.5003
湿	-10.5004
行事	-10.5005
感心	-10.5006
などにする	-10.5006
講義	-10.5007
などに用いる	-10.5007
検	-10.5007
業務	-10.5009
収穫	-10.5012
現代	-10.5014
▁彼女に	-10.5016
りんご	-10.5019
卒業	-10.502
遠慮	-10.5023
会社の	-10.5024
▁尊	-10.5025
堅い	-10.5026
低い	-10.5027
▁短	-10.5027
▁二つの	-10.5028
伸び	-10.503
夕方	-10.503
大衆	-10.5032
近くに	-10.5034
世紀	-10.5035
なべ	-10.5035
警察呼びに電話	-10.5035
イギリス	-10.5037
;...	-10.5042
わい	-10.5042
小切手	-10.5043
消え	-10.5054
こっそり	-10.506
誓い	-10.5061
▁どうぞ	-10.5063
靴討い	-10.5064
の意味	-10.5068
州の人	-10.5068
無理	-10.5068
ひま	-10.5073
供給	-10.5074
か月	-10.5076
するように	-10.5084
の働き	-10.5085
緒	-10.5086
と思って	-10.5089
違います	-10.509
▁どうも	-10.5097
▁安	-10.51
ではなかった	-10.5105
▁まあ	-10.5111
届け	-10.5118
明け	-10.5119
▁息	-10.5124
託	-10.5125
直線	-10.5129
衣類	-10.5132
▁帰	-10.5134
不注意	-10.5138
作法	-10.514
招待	-10.5141
コン	-10.5141
不思議	-10.5142
切れない	-10.5146
貨	-10.5147
▁七	-10.515
タイ	-10.5159
すぐれていること	-10.5171
しょう	-10.5179
られていた	-10.518
主な	-10.5181
どちら	-10.5182
わずか	-10.5184
らせ	-10.5185
▁南	-10.5187
びる	-10.5188
自分が	-10.519
ーク	-10.519
一緒に	-10.5192
帝	-10.5196
あま	-10.5197
授業	-10.5198
化合物	-10.5198
父親	-10.52
らしく	-10.5201
実現	-10.5203
胆	-10.5203
宅	-10.521
季	-10.5211
むら	-10.5211
▁そんなに	-10.5212
おもしろい	-10.5213
の端	-10.5213
湾	-10.5216
尿	-10.5216
飼い	-10.5221
みて	-10.5222
テープ	-10.5223
芋	-10.5223
功績	-10.5223
往復	-10.5223
境遇	-10.5224
の俗称	-10.5224
観測	-10.5224
延	-10.5224
ホール	-10.5224
同盟	-10.5225
農民	-10.5226
▁ロ	-10.5227
▁天皇	-10.5229
るさま	-10.5231
編み	-10.5234
かえること	-10.5235
専門	-10.5236
をし	-10.5239
内で	-10.5241
気味	-10.5245
へび	-10.5248
▁万事	-10.5251
フランス語	-10.5252
の長さ	-10.5252
意図	-10.5252
を切って	-10.5256
細かく	-10.5258
濁	-10.526
メッセージをいまから	-10.5263
わる	-10.5264
▁科学	-10.5271
に住んでいる	-10.5271
索	-10.5272
奴	-10.5273
理想	-10.5273
▁橋	-10.5276
お医者	-10.5276
股	-10.5277
太鼓	-10.5277
葉が	-10.5278
▁商売	-10.5279
共に	-10.5279
出血	-10.528
乾燥	-10.5281
無い	-10.5284
恐怖	-10.5287
着る	-10.5287
を入れ	-10.5287
江戸	-10.5289
お礼	-10.5289
▁人と	-10.529
健	-10.5291
切手	-10.5292
降る	-10.5292
▁その本は	-10.5295
宝石	-10.5296
▁けん	-10.5298
うん	-10.53
唐	-10.5302
詞	-10.5302
▁奥	-10.5306
区別	-10.5308
者を	-10.5311
合っている	-10.5312
評価	-10.5314
▁火事	-10.5314
▁脳	-10.5319
▁スポーツ	-10.532
ではなく	-10.5321
がつかない	-10.5321
所で	-10.5325
▁うん	-10.5327
外部	-10.5327
を始める	-10.5329
r	-10.5329
くずれ	-10.5331
待	-10.5335
▁輪	-10.5338
貴	-10.5339
△□	-10.5341
寄せる	-10.5341
替える	-10.5342
壁に	-10.5343
順序	-10.5346
事だ	-10.5349
▁宗教	-10.5352
途中で	-10.536
しようとする	-10.5361
▁けい	-10.5367
虎	-10.5375
出入り	-10.5375
わり	-10.5376
首相	-10.5379
産物	-10.538
手形	-10.5381
によく	-10.5386
粋	-10.5388
▁軽い	-10.539
その問題	-10.5392
を知る	-10.54
▁食い	-10.54
▁純	-10.5402
足りない	-10.5404
起こり	-10.5406
没	-10.5406
につれて	-10.5411
参加	-10.5417
となっている	-10.5418
同時に	-10.5419
てしまう	-10.5419
までは	-10.5423
母親	-10.5428
使って	-10.5431
許可	-10.5433
徴	-10.5437
京都	-10.5439
日間	-10.5443
園	-10.5443
らないこと	-10.5444
名簿	-10.5451
述	-10.5453
障	-10.5454
犠牲	-10.5454
加工	-10.5456
と彼女は	-10.5456
目で	-10.5456
▁米国の	-10.5457
膳	-10.5457
腓	-10.5463
旋	-10.5465
過ぎて	-10.5466
参り	-10.5466
むく	-10.5467
を通す	-10.5468
欧	-10.5468
権限	-10.5469
を通じて	-10.5472
そら	-10.5472
沼	-10.5472
	-10.5473
翔	-10.5473
すばやく	-10.5473
ing	-10.5474
ほうが	-10.5474
▁相	-10.5474
u	-10.5477
▁彼女には	-10.5477
討ち	-10.5478
きっと	-10.5479
事物	-10.5479
厳	-10.5479
いつまでも	-10.5479
障子	-10.5479
がって	-10.548
しょ	-10.548
あります	-10.5482
形態	-10.5486
今の	-10.5489
残った	-10.5494
p	-10.5498
投手	-10.5504
が大きい	-10.5505
どうして	-10.5505
▁十	-10.5507
あぶら	-10.5509
くだ	-10.5511
はしない	-10.5514
なまり	-10.5518
基	-10.5519
提	-10.552
になるだろう	-10.5522
をかけた	-10.5529
通る	-10.5529
はり	-10.5531
表面	-10.5532
ばらばら	-10.5534
メッセージちょっと	-10.5536
と読む	-10.5537
それと	-10.5538
聞こえる	-10.554
なめ	-10.5541
痛い	-10.5546
上から	-10.5546
承諾	-10.5551
易	-10.5552
開け	-10.5553
造り	-10.5554
軍人	-10.5555
政治家	-10.5555
自ら	-10.5557
やつだ	-10.556
昆虫	-10.5562
してはいけない	-10.5563
その他の	-10.5565
美術	-10.5566
▁きのう	-10.5567
イエス	-10.5568
h	-10.557
死後	-10.557
金属製の	-10.557
特徴	-10.5571
鉛筆	-10.5572
酔	-10.5574
▁少年は	-10.5576
所得	-10.5581
悔	-10.5581
致	-10.5584
負ける	-10.5587
▁船は	-10.5591
▁議論	-10.5591
何とか	-10.5594
▁舞台	-10.5599
▁銀行	-10.5602
してくれ	-10.5606
としている	-10.5606
の代わりに	-10.5608
がわからない	-10.561
読書	-10.5612
まく	-10.5617
▁一般	-10.5623
▁テレビ	-10.563
▁音楽	-10.5634
▁とう	-10.5637
▁いろいろな	-10.5637
たか	-10.5638
以後	-10.5638
後の	-10.5639
最大の	-10.5639
沈黙	-10.564
落とし	-10.5642
▁こういう	-10.5651
▁物を	-10.5652
主君	-10.5657
▁彼と	-10.5657
やろう	-10.5661
日本人	-10.5664
会話	-10.5667
域	-10.5669
だて	-10.567
関連	-10.5683
▁彼は彼女の	-10.5683
さお	-10.5689
▁風が	-10.5695
採	-10.5695
怠	-10.5696
飲食	-10.5697
惨	-10.5697
卓	-10.5697
バター	-10.57
ひとりで	-10.5703
は彼に	-10.5706
惑	-10.5707
司	-10.5708
を出した	-10.5714
黒く	-10.5718
停	-10.5721
やま	-10.5722
しっかり	-10.5723
合格	-10.5724
塀	-10.5725
事務所	-10.5726
くれる	-10.5727
盆	-10.5729
蜜	-10.5729
符号	-10.5729
生活の	-10.5729
高木	-10.5729
僂	-10.573
たっぷり	-10.573
サービス	-10.573
雰囲気	-10.573
遒	-10.573
集中	-10.573
爆弾	-10.573
〕↓	-10.573
わけにはいかない	-10.5731
思わず	-10.5731
機構	-10.5731
射撃	-10.5731
止める	-10.5731
インチ	-10.5731
借金	-10.5732
原理	-10.5732
太刀	-10.5733
でメッセ送信	-10.5734
種類が多い	-10.5735
仕方	-10.5736
録音	-10.5737
職員	-10.5737
を図る	-10.5738
まゆ	-10.5738
ぼろ	-10.574
あけ	-10.5741
きれいな	-10.5742
兵器	-10.5742
▁買い	-10.5743
作ること	-10.5746
言葉を	-10.5747
果物	-10.575
ならない	-10.5752
の様子	-10.5753
ード	-10.5755
愛さん	-10.5757
▁今まで	-10.5757
どおり	-10.5758
連合	-10.5758
木材	-10.576
フィート	-10.5762
たより	-10.5763
家を	-10.5767
おど	-10.577
場合に	-10.5771
の方が	-10.5774
ぜん	-10.5774
利子	-10.5775
述べた	-10.5784
ども	-10.5784
自殺	-10.5789
無事	-10.5792
これは	-10.5796
▁散	-10.5796
▁電	-10.5797
力がある	-10.5798
ピン	-10.5801
貸	-10.5801
期日	-10.5802
わか	-10.5803
▁復	-10.5804
その仕事	-10.5807
▁事実	-10.5811
申し出	-10.5811
▁ズボン	-10.5812
茶色	-10.5815
部下	-10.5816
子供を	-10.5817
武	-10.5819
その時	-10.5824
▁副	-10.583
体は	-10.5831
ボールを	-10.5832
▁せん	-10.5833
▁玉	-10.5836
アップ	-10.5837
▁航空	-10.5837
を感じる	-10.5839
襟	-10.5839
止まる	-10.584
を聞いて	-10.584
の肉	-10.5841
▁シ	-10.5843
スープ	-10.5843
に自生する	-10.5843
侍	-10.5843
式の	-10.5844
されていた	-10.5845
厳しい	-10.5846
きびしい	-10.5847
如	-10.5851
階段	-10.5852
利益を	-10.5852
▁検	-10.5853
昨日	-10.5854
野原	-10.5854
警	-10.5858
向け	-10.5859
度の	-10.5862
副	-10.5868
続いて	-10.5868
後で	-10.5875
捕	-10.5879
たくさんの	-10.5879
すわる	-10.588
格好	-10.5881
まずい	-10.5883
▁ばら	-10.5885
しゃべる	-10.5885
がありますか	-10.5886
なさま	-10.5891
▁銅	-10.5893
を得た	-10.5893
しかた	-10.5894
細長く	-10.5898
を防ぐ	-10.5901
著	-10.5902
言え	-10.5902
デ	-10.5908
納める	-10.5908
分けて	-10.5909
▁表	-10.5909
漢字	-10.5909
あわせ	-10.591
吸い	-10.5912
▁子供	-10.5913
三味線	-10.5913
見えない	-10.5915
一年	-10.5916
立って	-10.5918
全身	-10.5919
桜	-10.592
小川	-10.5924
病人	-10.5925
l	-10.5926
などのため	-10.5929
備	-10.5934
▁善	-10.5934
現場	-10.594
一年生植物	-10.5945
十二	-10.5946
の地	-10.5947
話し	-10.5948
俳句	-10.5955
▁激	-10.5957
並べ	-10.5959
一部分	-10.5968
に見える	-10.5968
はどんな	-10.5971
憂	-10.5973
ネクタイ	-10.5975
を覚える	-10.5976
軌道	-10.5976
が一番	-10.5977
住所	-10.5981
をかく	-10.5983
セット	-10.5984
表す	-10.5985
体裁	-10.5985
碑	-10.5987
無色	-10.5989
隆	-10.5989
麗	-10.599
▁広	-10.599
渡り	-10.5991
まあ	-10.5991
奮	-10.5991
縞	-10.5992
蜂	-10.5992
栓	-10.5993
鼎	-10.5993
認識	-10.5993
ふき	-10.5993
モデル	-10.5993
絵の具	-10.5993
せりふ	-10.5993
故障	-10.5993
▁あらゆる	-10.5994
通貨	-10.5995
操作	-10.5995
討論	-10.5996
で彼の	-10.5997
伝説	-10.6
平たい	-10.6
あなたの	-10.6001
が長く	-10.6002
むしろ	-10.6004
週	-10.6004
▁運動	-10.6004
ぶち	-10.6005
の底	-10.6005
ていて	-10.6006
▁友人	-10.6008
まん	-10.6012
▁打ち	-10.6012
によれば	-10.6013
家が	-10.6015
鳴らす	-10.6016
いち	-10.6017
クロ	-10.602
あなたに	-10.6022
大小	-10.6022
▁神社	-10.6022
活	-10.6023
救急車呼ぶ	-10.6023
の中から	-10.6028
けて	-10.6031
▁人から	-10.6032
ぼんやり	-10.6034
おかしい	-10.6035
を全部	-10.6047
かれる	-10.6047
はず	-10.6052
とめる	-10.6057
▁霧	-10.6058
書くこと	-10.6058
刺	-10.6059
ないさま	-10.606
がたくさん	-10.6061
世間の	-10.6065
用紙	-10.6068
▁微	-10.6068
景色	-10.6069
ります	-10.6069
用語	-10.6072
開発	-10.6076
でメッセを送信	-10.6084
つい	-10.6088
音声	-10.6096
を捨てる	-10.6097
▁これが	-10.6099
はずれた	-10.6099
風俗	-10.61
▁絶	-10.6101
▁自分で	-10.6102
を争う	-10.6104
の事	-10.6104
かじ	-10.6104
戦い	-10.6105
蚕	-10.6105
到着	-10.6106
ノー	-10.6109
事に	-10.6112
はほとんど	-10.6112
ったら	-10.6113
▁舌	-10.6114
▁縦	-10.6116
電線	-10.6117
漏	-10.6117
かしら	-10.6119
あう	-10.6119
部屋を	-10.6125
を食べる	-10.6126
酢	-10.6127
ならず	-10.6127
を含む	-10.613
残る	-10.6131
眉	-10.6132
▁夫婦	-10.6133
行政	-10.6133
わざと	-10.6133
非常	-10.6135
幸運	-10.6135
しているさま	-10.6136
たりする	-10.614
浮き	-10.6143
復	-10.6143
だという	-10.6144
人人	-10.6145
▁少しも	-10.6145
農業	-10.6146
灰色	-10.6146
色が	-10.6146
奉	-10.6146
ねえ	-10.615
を出すこと	-10.6157
さけ	-10.6157
天下	-10.6158
まだら	-10.6162
ほしい	-10.6162
速く	-10.6163
家は	-10.6164
考えて	-10.6165
使うこと	-10.6165
するための	-10.6165
の裏	-10.6166
▁戸	-10.6167
▁市	-10.617
よごれ	-10.6171
浪	-10.6177
退屈	-10.6177
げん	-10.6179
消	-10.6188
白色の	-10.6189
でもない	-10.6192
▁百	-10.6192
もらう	-10.6196
統	-10.6197
上げた	-10.6198
張った	-10.6199
▁平和	-10.6202
▁彼はまだ	-10.6203
▁かい	-10.6204
扇	-10.6208
ペ	-10.6214
せない	-10.6216
▁補	-10.622
ってきた	-10.6221
住み	-10.6225
▁秘密	-10.6226
安定	-10.6227
幾	-10.6227
水中に	-10.6228
騒ぎ	-10.6235
こんだ	-10.6235
彼には	-10.6238
▁虚	-10.6238
三角形	-10.6242
はいない	-10.6244
敬	-10.6244
比べ	-10.6247
雇	-10.6249
▁その事	-10.6253
を知っている	-10.6256
酷	-10.626
鹿	-10.626
摂	-10.6262
倉	-10.6263
予防	-10.6263
峰	-10.6263
侵入	-10.6263
支出	-10.6263
槍	-10.6263
干渉	-10.6263
滝	-10.6263
錦	-10.6263
雀	-10.6263
に違いない	-10.6264
旧称	-10.6265
紙幣	-10.6265
絶えず	-10.6266
しました	-10.6266
朝廷	-10.6267
残らず	-10.6267
曲芸	-10.6268
口から	-10.6269
を好む	-10.6271
企て	-10.6271
制御	-10.6272
ちり	-10.6273
▁外国	-10.6276
ふろ	-10.6277
のまま	-10.628
鉄砲	-10.6281
疑	-10.6282
食堂	-10.6282
車輪	-10.6283
昔の	-10.629
顔をする	-10.6293
を抱く	-10.6295
ぐら	-10.6295
歩いた	-10.6296
▁居	-10.6298
ふり	-10.63
といって	-10.6301
しゃれ	-10.6304
子ども	-10.6307
ふた	-10.6308
▁満	-10.6314
なければならなかった	-10.6316
社員	-10.632
にはいること	-10.6322
見物	-10.6322
試み	-10.6324
▁乾	-10.6328
だす	-10.6329
の内容	-10.6333
坊	-10.6335
ポケット	-10.6336
守り	-10.6336
ものは	-10.6337
程度の	-10.6338
▁心臓	-10.6341
▁銃	-10.6343
▁何ができる	-10.6344
▁折り	-10.6345
▁画	-10.6347
名前を	-10.6348
一切の	-10.635
速力	-10.635
低	-10.6352
▁商業	-10.6353
黄色の	-10.6354
台所	-10.6355
▁山の	-10.6358
むき	-10.6362
▁彼女は彼の	-10.6364
越す	-10.6364
▁危険	-10.6364
してきた	-10.6365
きん	-10.6367
を決める	-10.6369
の関係	-10.6377
メッセージをすぐに	-10.6377
鉱物	-10.6377
物や	-10.6382
掛	-10.6382
主義者	-10.6383
花が	-10.6384
俗に	-10.6387
の人たち	-10.6389
消化	-10.6392
▁多くの人	-10.6392
▁長い	-10.6393
が私の	-10.6402
合わない	-10.6406
たまえ	-10.6408
▁空気	-10.641
心地	-10.641
らずに	-10.641
食べた	-10.6415
暴	-10.6415
今まで	-10.6415
供	-10.6416
が足りない	-10.6416
ケアマネ	-10.6423
絶対に	-10.6426
▁金銭	-10.6427
を招く	-10.6428
大切な	-10.6429
g	-10.643
の表面	-10.6433
はかりごと	-10.6435
▁至	-10.6436
がきく	-10.6437
過ぎた	-10.6438
嫁	-10.6443
時から	-10.6445
常に	-10.6449
レコード	-10.6449
勝手に	-10.645
体操	-10.6451
僕の	-10.6452
海岸	-10.6455
合わせた	-10.6455
前もって	-10.6456
花は	-10.6458
診	-10.6459
らぬ	-10.6461
男の	-10.6462
義理	-10.6462
くも	-10.6465
▁松	-10.6468
もう少し	-10.6473
表面に	-10.6478
貨物	-10.6478
そんな事を	-10.648
お薬屋	-10.6482
発明	-10.6482
▁気が	-10.6484
仏教で	-10.6484
利害	-10.6489
▁優	-10.6492
読むこと	-10.6494
もり	-10.6497
分解	-10.6497
ますよ	-10.6499
寄る	-10.6499
のあたり	-10.65
氏の	-10.6504
を聞く	-10.6505
一致	-10.6507
珍	-10.6507
優勝	-10.6507
たくない	-10.6508
▁テニス	-10.6509
特有の	-10.6509
高度	-10.6509
原産	-10.651
火山	-10.6514
を待つ	-10.6516
申	-10.6516
▁そのような	-10.652
誤解	-10.652
喜んで	-10.652
勝手	-10.6522
ねん	-10.6526
塗	-10.6529
とじ	-10.653
担	-10.6531
▁さい	-10.6532
鎖	-10.6533
沢	-10.6534
潔	-10.6537
配当	-10.6537
投資	-10.6539
遺伝	-10.6539
圏	-10.654
つながり	-10.654
憤	-10.654
ランプ	-10.654
丹	-10.654
オーバー	-10.6541
枠	-10.6541
吉田	-10.6541
	-10.6541
逐	-10.6541
やさしい	-10.6541
交替	-10.6541
理屈	-10.6541
疾	-10.6542
K	-10.6542
設計	-10.6542
ベルト	-10.6542
関節	-10.6544
干	-10.6545
証言	-10.6545
▁禁	-10.6545
運び	-10.6546
平面	-10.6546
柔らかい	-10.6546
▁あんな	-10.6547
にしている	-10.6547
結論	-10.6547
配置	-10.6548
視線	-10.6548
▁ばか	-10.6549
行うこと	-10.655
▁ある事	-10.6551
食欲	-10.6553
困った	-10.6555
▁冗談	-10.6556
彼女を	-10.6556
いけ	-10.6556
のび	-10.6557
を加えて	-10.6558
あや	-10.6559
頼む	-10.656
みずから	-10.6562
合計	-10.6566
しまう	-10.6567
刃物	-10.6568
んじ	-10.6568
混乱	-10.6571
▁ビール	-10.6572
与えられた	-10.6579
明るく	-10.6579
無知	-10.658
▁普通の	-10.6581
▁毛	-10.6582
あとに	-10.6584
メッセージいまから	-10.6591
たばこ	-10.6592
を描く	-10.6594
完全な	-10.6595
の後	-10.6595
▁個人	-10.6595
ボート	-10.6596
事件の	-10.6597
移り	-10.6599
▁布	-10.6599
飲食物	-10.6603
その仕事を	-10.6605
味方	-10.6605
手紙を	-10.6607
候補者	-10.6609
さか	-10.6612
消し	-10.6614
日光	-10.6615
仏教	-10.6617
▁生き	-10.6617
勝つ	-10.6617
▁たくさんの	-10.6618
▁彼は私を	-10.6619
▁愚	-10.6623
着陸	-10.663
▁緑	-10.6637
すきま	-10.6641
踏	-10.6642
売る	-10.6645
見かけ	-10.6646
にわたる	-10.6647
あせ	-10.6653
石を	-10.6655
つや	-10.6657
並	-10.666
くい	-10.6661
▁民	-10.6663
▁防	-10.6667
草木	-10.6668
▁地球	-10.6668
絵画	-10.667
詰める	-10.6671
集まって	-10.6672
っきり	-10.6675
いま	-10.668
瞬間	-10.6683
うれしい	-10.6686
航空機	-10.6689
に入れて	-10.669
▁機	-10.6692
▁敵の	-10.6695
自転車	-10.6696
宴会	-10.6696
の跡	-10.6696
▁最	-10.6697
じり	-10.6697
▁商	-10.6699
▁直接	-10.6702
本当	-10.6703
その家	-10.6707
もう一度	-10.6714
の利益	-10.6716
体長	-10.6717
責	-10.6719
弱い	-10.672
囲	-10.6721
固く	-10.6721
とその	-10.6721
リン	-10.6722
事をする	-10.6725
▁ピアノ	-10.673
二人	-10.6731
て来た	-10.6732
魅力	-10.6734
▁要	-10.6736
生きている	-10.6741
被	-10.6742
を選ぶ	-10.6744
等級	-10.6745
貫	-10.6745
即	-10.6747
▁どの	-10.6748
凍	-10.6751
集まる	-10.6753
婿	-10.6753
壊	-10.6755
暮	-10.6759
ックス	-10.676
いつでも	-10.6762
需要	-10.6762
かれた	-10.6765
地上	-10.6765
に備えて	-10.677
幾つかの	-10.6771
パリ	-10.6772
スター	-10.6773
▁人口	-10.6777
になると	-10.6778
問題を	-10.6782
低木	-10.6782
私たち	-10.6783
細菌	-10.6784
心理	-10.6785
皮肉	-10.6785
考	-10.6785
最近	-10.6788
を持ち	-10.6789
そういうもの	-10.679
の水	-10.6792
の女	-10.6792
人柄	-10.6792
過ごす	-10.6793
てはいけない	-10.6793
▁座	-10.6796
獄	-10.6796
博士	-10.6798
▁妻	-10.6801
慢	-10.6801
飲	-10.6802
のあまり	-10.6802
めがね	-10.6804
よそ	-10.6804
予約	-10.6805
委員	-10.6805
理由で	-10.6806
日本語	-10.6809
で書く	-10.6809
どき	-10.6811
はずだ	-10.6811
向かい	-10.6812
▁岩	-10.6812
ばた	-10.6813
進んだ	-10.6813
瓶	-10.6814
は我々の	-10.6819
▁底	-10.6821
の目	-10.6821
ング	-10.6824
均	-10.6824
おお	-10.6824
喪	-10.6826
腺	-10.6826
津	-10.6826
紺	-10.6826
久美子	-10.6826
操縦	-10.6826
硬貨	-10.6826
沙	-10.6826
顕微鏡	-10.6827
捜査	-10.6827
紛争	-10.6827
染料	-10.6827
技能	-10.6827
塗料	-10.6828
はさみ	-10.6828
更に広く	-10.6828
鳴く	-10.6828
廊下	-10.6829
だいぶ	-10.6829
教訓	-10.6829
対策	-10.6831
便利	-10.6831
▁現金	-10.6831
市民	-10.6832
過失	-10.6832
公衆	-10.6833
うるさい	-10.6833
▁窓	-10.6834
見識	-10.6838
は彼	-10.6839
に反する	-10.6841
現れ	-10.6843
をかき	-10.6843
おき	-10.6844
米国	-10.6846
を要求する	-10.6846
かつ	-10.6848
すい	-10.6849
作戦	-10.6849
鳴	-10.6849
本能	-10.685
さまざまな	-10.685
じて	-10.6851
となり	-10.6852
▁その家は	-10.6858
ありさま	-10.6858
天体	-10.6859
▁流	-10.6859
▁身体	-10.6859
確かに	-10.686
不正	-10.686
▁身分	-10.6861
分布	-10.6862
わかり	-10.6862
押	-10.6862
点で	-10.6864
伝染病	-10.6864
罪人	-10.6865
▁星	-10.6866
しめる	-10.6867
及ぶ	-10.6869
備え	-10.6871
明かり	-10.6874
を感じた	-10.6876
しまい	-10.6876
▁髪を	-10.6877
に必要な	-10.6878
両手	-10.6878
どのくらい	-10.6881
電灯	-10.6883
▁利	-10.6884
16	-10.6886
▁元	-10.6889
原子	-10.6892
の値段	-10.6894
▁絶対	-10.6896
夕	-10.69
▁国内	-10.6903
受けた	-10.6904
を送信	-10.6905
に会う	-10.6906
▁会社	-10.6907
ぬき	-10.6908
身なり	-10.691
▁いいえ	-10.6916
男女	-10.6917
の長	-10.6923
以前に	-10.6923
小鳥	-10.6925
80	-10.6926
述べること	-10.6927
ませる	-10.6927
▁絹	-10.6929
混ぜ	-10.6933
こめ	-10.6934
外の	-10.6934
が立つ	-10.6942
▁現在	-10.6943
人格	-10.6943
っていること	-10.6946
▁歴史	-10.6946
私たちに	-10.6949
を加え	-10.6952
もん	-10.696
倒れた	-10.6963
沖	-10.6964
▁リ	-10.6966
そこで	-10.6966
水分	-10.6967
まくら	-10.6968
最高の	-10.6974
悪事	-10.6978
気に	-10.6983
招	-10.6984
がなくて	-10.6985
静かな	-10.6986
単	-10.6986
を利用して	-10.6988
▁言語	-10.6989
メッセージすぐに	-10.6989
泥棒	-10.699
▁知識	-10.6995
えない	-10.7001
主題	-10.7006
ぶどう酒	-10.7009
▁夕食	-10.7009
動機	-10.7009
蒸	-10.701
うけ	-10.7012
わく	-10.7012
必要がある	-10.7013
を売る	-10.7017
なみ	-10.7019
執	-10.702
▁仕事を	-10.7021
左右に	-10.7021
見本	-10.7022
▁私はその	-10.7022
染み	-10.7024
腕を	-10.7027
震	-10.7032
を見ると	-10.7034
▁車の	-10.7035
▁家の	-10.7037
雨が	-10.7038
▁ゆう	-10.7038
ばり	-10.7038
効	-10.7039
▁すっかり	-10.704
しばしば	-10.704
お金	-10.7044
栄	-10.7044
責任を	-10.7045
▁配	-10.7045
過去	-10.7046
▁遊	-10.7047
贈	-10.7052
我々	-10.7054
渋	-10.7055
を見せる	-10.7056
行列	-10.7057
けち	-10.7058
計略	-10.7058
▁他人	-10.706
次第	-10.7062
フェ	-10.7064
▁こん	-10.7065
にあう	-10.7067
C	-10.7069
まわる	-10.7071
浴	-10.7076
わしい	-10.7076
楽しい	-10.7076
不運	-10.7077
をやめる	-10.7077
るだろう	-10.7082
いけない	-10.7083
▁献	-10.7087
むりに	-10.7088
▁彼ら	-10.7088
▁核	-10.7088
▁だれが	-10.7094
▁ゴルフ	-10.7094
以上に	-10.7096
敵に	-10.7096
悲しい	-10.7096
▁その時	-10.7097
リズム	-10.7097
ベル	-10.7098
▁増	-10.7098
新たに	-10.7099
とすること	-10.71
測定	-10.7102
殺し	-10.7104
たれ	-10.7105
考えを	-10.7106
井	-10.7108
▁悪い	-10.7109
還	-10.711
賀	-10.711
フル	-10.7111
介	-10.7111
何とも	-10.7112
斑	-10.7113
稿	-10.7113
活字	-10.7114
まさに	-10.7115
▁地震	-10.7116
ヘルパー	-10.7117
比較	-10.7117
▁法律	-10.7118
並び	-10.7119
棺	-10.712
ほぼ	-10.712
論じ	-10.712
佞	-10.7121
椎	-10.7121
ユーモア	-10.7121
亀	-10.7121
太平洋	-10.7121
ごちそう	-10.7121
硫酸	-10.7121
保存	-10.7121
酔い	-10.7121
拡大	-10.7121
タイヤ	-10.7121
寿命	-10.7122
飲料	-10.7122
いくつかの	-10.7122
最後まで	-10.7122
幕府	-10.7122
ときに	-10.7122
代名詞	-10.7124
すか	-10.7125
結合	-10.7128
訴訟	-10.7128
失敗する	-10.713
体温	-10.713
配達	-10.7132
誠	-10.7133
美味	-10.7134
に行う	-10.7135
観客	-10.7136
有名な	-10.7136
日が	-10.7139
以外に	-10.7139
遊女	-10.7141
の夜	-10.7146
幸い	-10.7146
彫り	-10.7146
廻	-10.7147
生ずる	-10.7147
召	-10.7148
▁義	-10.7156
▁あれ	-10.7157
甘	-10.7157
今日	-10.7159
法則	-10.7159
景気	-10.716
国会	-10.7164
お客	-10.7164
がみ	-10.7165
二度と	-10.7167
裁	-10.7168
▁刀	-10.7169
筋道	-10.7173
▁アン	-10.7174
かつて	-10.7177
▁天皇の	-10.7178
入学	-10.7182
済	-10.7183
みず	-10.7185
はっきりと	-10.7186
▁冷	-10.7187
の終わり	-10.7188
物理学	-10.7189
すぐれている	-10.7189
かわり	-10.7194
一同	-10.7195
無罪	-10.7198
支配	-10.7199
体力	-10.72
迎え	-10.7201
出ること	-10.7201
続	-10.7202
側の	-10.7203
▁最後の	-10.7203
▁官	-10.7205
▁厳	-10.7205
打って	-10.7207
作者	-10.7214
飛ばす	-10.7215
語る	-10.7215
込むこと	-10.7217
の差	-10.7218
▁英	-10.7224
苦痛	-10.7225
白髪	-10.7228
ちっとも	-10.7231
態度が	-10.7232
の程度	-10.7233
相当	-10.7235
人情	-10.7237
知る	-10.7238
応	-10.7238
しお	-10.724
されること	-10.724
に行って	-10.7241
夏の	-10.7243
▁涙	-10.7247
春の	-10.7248
▁過去	-10.7251
授	-10.7253
▁種	-10.7255
世辰	-10.7259
出かける	-10.7261
床に	-10.7263
描いた	-10.7267
最大	-10.7267
符	-10.7267
大変な	-10.727
あれこれと	-10.7271
▁麦	-10.7272
▁加	-10.7272
売れ	-10.7275
▁父は	-10.7283
出された	-10.7286
▁政府	-10.7286
垂	-10.7286
▁進	-10.7289
ねば	-10.7289
▁混	-10.729
のところ	-10.7291
任垢	-10.7293
が大きく	-10.7293
質の	-10.7295
光線	-10.7297
懸	-10.7297
▁煙	-10.7301
死者	-10.7303
をつかむ	-10.7305
かぜ	-10.7305
▁ええ	-10.731
うんと	-10.7314
たび	-10.7314
ぶっ	-10.7314
つとめ	-10.7314
信する	-10.7316
寄付	-10.7316
入れること	-10.7317
上下	-10.7325
▁どちら	-10.7327
▁しゅう	-10.7327
まして	-10.7328
彼らの	-10.7333
ねずみ	-10.7336
▁試	-10.7343
へ行って	-10.7344
行こう	-10.7345
著者	-10.7346
糸を	-10.7346
暮れ	-10.7349
▁運	-10.735
▁動物の	-10.7352
反対の	-10.7355
で働く	-10.7356
絶え	-10.7357
▁事務	-10.7358
仰	-10.7358
▁卑	-10.7362
ニューヨーク	-10.7363
冗談	-10.7363
育て	-10.7363
崩	-10.7364
の位置	-10.7365
脂肪	-10.7366
述べ	-10.737
結構	-10.7373
いていた	-10.7373
当たる	-10.7375
縫	-10.7375
されない	-10.7383
さなかった	-10.7383
なま	-10.7383
はなかなか	-10.7383
実際の	-10.7384
を集める	-10.7386
▁ここ	-10.7391
割れ	-10.7394
手本	-10.7396
滴	-10.7396
横に	-10.7397
騷ぎ	-10.7399
彩	-10.74
▁えん	-10.7401
ついている	-10.7401
を定める	-10.7402
況	-10.7403
駆	-10.7403
巡	-10.7403
豚	-10.7404
与える	-10.7404
小型の	-10.7409
▁釣り	-10.741
ものです	-10.741
気を	-10.7412
▁タクシー	-10.7413
マッチ	-10.7414
弊	-10.7414
民主	-10.7415
核	-10.7415
訪	-10.7417
うま	-10.7418
宣	-10.7418
禍	-10.7419
つらい	-10.7419
▁もと	-10.742
及ばない	-10.742
塞	-10.7421
偶然	-10.7421
慶	-10.7422
叫ぶ	-10.7422
叙	-10.7422
嚢	-10.7423
摩	-10.7423
楼	-10.7423
某	-10.7423
虐	-10.7423
が長い	-10.7423
よろしく	-10.7423
喜ぶ	-10.7424
缺	-10.7424
	-10.7424
よろい	-10.7424
鶴	-10.7424
描写	-10.7424
独占	-10.7424
セント	-10.7424
300	-10.7424
変わって	-10.7424
業績	-10.7425
抗議	-10.7425
宿泊	-10.7425
統制	-10.7425
ゴルフ	-10.7425
辞典	-10.7425
限界	-10.7426
座敷	-10.7427
刷り	-10.7429
行儀	-10.7429
綴じ	-10.7429
立ち上がる	-10.743
下げる	-10.743
間違っている	-10.7431
筆跡	-10.7433
実際	-10.7433
議長	-10.7433
ではありません	-10.7433
縁起	-10.7434
空中	-10.7435
車両	-10.7435
箇所	-10.7436
虚	-10.7436
ふる	-10.7436
頭痛	-10.7436
上昇	-10.7437
指を	-10.7438
油断	-10.7438
どうぞ	-10.7439
なもの	-10.744
ちょっと電話をかける	-10.7441
をたたく	-10.7443
官職	-10.7444
髪を	-10.7444
▁漁	-10.7445
伏	-10.7445
ってしまう	-10.7446
▁バス	-10.7447
話した	-10.7448
▁ここから	-10.7449
乗る	-10.7452
言葉で	-10.7453
迷い	-10.746
▁被	-10.7461
カル	-10.7464
に住み	-10.7465
小形の	-10.7466
鉱石	-10.7467
が出た	-10.7468
▁霜	-10.7469
▁せき	-10.7471
泡	-10.7471
芸術家	-10.7472
独立	-10.7472
▁物事	-10.7472
計画を	-10.7476
進むこと	-10.7478
冷え	-10.748
のたとえ	-10.7483
走者	-10.7484
折れ	-10.7485
ミリ	-10.7485
途中	-10.7486
視力	-10.7487
▁秘	-10.749
温泉	-10.7492
▁偏	-10.7493
事柄を	-10.7496
品質	-10.7499
資産	-10.75
賭け	-10.7504
一種の	-10.7506
長いこと	-10.7508
しら	-10.7508
黒色	-10.7508
対照	-10.7511
時間に	-10.7511
▁列車	-10.7511
げに	-10.7519
その計画	-10.7521
その言葉	-10.7523
方がいい	-10.7526
安心	-10.7528
移動	-10.7529
不思議な	-10.7529
きて	-10.7536
後ろに	-10.754
に言う	-10.7543
連続	-10.7544
三つ	-10.7546
うみ	-10.7548
幸せ	-10.755
識	-10.7553
たな	-10.7554
するため	-10.7554
▁当時	-10.7555
を止める	-10.7555
科の落葉高木	-10.7555
ごう	-10.7557
現在の	-10.7557
がついた	-10.7562
今は	-10.7564
根性	-10.7566
を失った	-10.7566
人や	-10.7567
を誤る	-10.7568
▁神経	-10.7568
抱	-10.7571
警察を呼ぶ	-10.7571
優	-10.7572
成立	-10.7575
なぐる	-10.7576
四方	-10.7581
のような形	-10.7582
驚き	-10.7589
あらわ	-10.7591
生活を送る	-10.7594
入って	-10.7594
▁食	-10.7596
上がって	-10.7596
▁いまから電話する	-10.7597
きわ	-10.7604
財産を	-10.7605
▁郵便	-10.7609
を研究する	-10.761
周囲	-10.7612
残念	-10.7613
設	-10.7619
▁昼	-10.7621
材は	-10.7622
終わった	-10.7625
だらけの	-10.7625
くわ	-10.7629
吹く	-10.7629
なくなること	-10.7632
隠	-10.7633
運送	-10.7635
嫌い	-10.7636
を踏む	-10.7638
▁世間の	-10.7638
は実に	-10.7641
終わる	-10.7644
仮	-10.7647
していて	-10.7648
ているさま	-10.7649
数値	-10.7656
ぬく	-10.7656
以外	-10.7656
丸い	-10.7663
書いてある	-10.7664
ばね	-10.7672
わし	-10.7673
うちの	-10.7675
詰	-10.7681
領土	-10.7681
異常	-10.7681
あん	-10.7681
するような	-10.7685
付きの	-10.7687
力士	-10.7689
じん	-10.7693
おこる	-10.7694
争	-10.7698
含	-10.7703
くそ	-10.7703
▁はん	-10.7704
決断	-10.7705
▁裸	-10.7706
いました	-10.7707
を追って	-10.7707
浅	-10.771
回った	-10.7712
庫	-10.7712
姿を	-10.7713
権威	-10.7717
兵隊	-10.7719
▁行き	-10.772
▁顔	-10.7721
余地	-10.7722
のようなもの	-10.7722
譜	-10.7722
発達	-10.7722
▁渋	-10.7723
どころ	-10.7725
すごい	-10.7726
▁次の	-10.7728
破壊	-10.7729
療	-10.7731
循環	-10.7731
ミルク	-10.7732
審議	-10.7733
著作	-10.7734
並ぶ	-10.7734
範	-10.7735
罎	-10.7736
妊	-10.7736
磴	-10.7736
姦	-10.7736
溝	-10.7736
"	-10.7736
束縛	-10.7736
アジア	-10.7736
訂正	-10.7736
ぞっとする	-10.7736
診察	-10.7737
▁生産	-10.7737
やたらに	-10.7737
給与	-10.7737
オレンジ	-10.7737
救助	-10.7737
▁女性	-10.7738
保管	-10.7738
味わい	-10.7738
▁牛乳	-10.774
合唱	-10.774
男女が	-10.7741
牢	-10.7741
水準	-10.7742
影響	-10.7742
親切に	-10.7742
童	-10.7742
党派	-10.7743
喜劇	-10.7743
前提	-10.7744
教員	-10.7745
アフリカ	-10.7745
疎	-10.7746
どれ	-10.7747
群衆	-10.7748
請	-10.7749
入場	-10.7749
気温	-10.775
そうじゃな	-10.7751
十分な	-10.7751
風習	-10.7751
付属	-10.7751
言ったこと	-10.7752
言わない	-10.7752
ウイスキー	-10.7754
掻き	-10.7755
献	-10.7756
図書館	-10.7757
ジョン	-10.7757
項目	-10.7758
確実な	-10.7759
バラ	-10.7759
根本	-10.7761
曲線	-10.7761
ませた	-10.7762
鈍	-10.7764
岩石	-10.7765
▁富	-10.7765
粘土	-10.7765
昼	-10.7766
に着く	-10.7767
例外	-10.7769
暖かい	-10.7772
テニス	-10.7773
無礼	-10.7774
▁それには	-10.7774
を鳴らす	-10.7775
に出す	-10.7778
▁彼はもう	-10.7778
仮名	-10.7778
天才	-10.7778
臣下	-10.7779
読んだ	-10.7779
郊外	-10.778
ばし	-10.7781
バック	-10.7782
▁党	-10.7782
大事な	-10.7783
非常な	-10.7785
きなさい	-10.7785
ごま	-10.7787
▁なぜ	-10.7791
なか	-10.7794
▁書き	-10.7794
▁スキー	-10.7794
赤色	-10.7795
缶	-10.7796
死亡	-10.7798
物品	-10.7799
▁新しく	-10.7799
威力	-10.78
存在する	-10.78
家柄	-10.7801
面会	-10.7801
物価	-10.7802
風流	-10.7803
のとおり	-10.7804
を重ねる	-10.7804
ラー	-10.7805
けること	-10.7805
やってみる	-10.7806
べる	-10.7806
支持	-10.7808
かたく	-10.7808
▁そんなこと	-10.7809
を果たす	-10.7814
集会	-10.7815
▁がん	-10.7816
▁故	-10.7817
を発する	-10.7817
所へ	-10.7818
の話	-10.7818
いくつ	-10.7822
あうこと	-10.7823
てしまうこと	-10.7824
▁最高	-10.7824
傾斜	-10.7825
の土地	-10.7826
少	-10.7827
st	-10.7828
▁自分が	-10.7829
火薬	-10.783
は私	-10.783
先の	-10.7831
▁巨	-10.7833
に生える	-10.7836
発生	-10.7836
▁名誉	-10.7838
ティー	-10.7839
▁ほ	-10.7843
▁立派な	-10.7847
他方	-10.7847
映	-10.7851
一点	-10.7851
▁学校の	-10.7854
私たちの	-10.7857
話だ	-10.7857
買う	-10.7858
▁100	-10.7858
▁あらし	-10.7859
明るい	-10.7863
抜ける	-10.7864
月に	-10.7865
不平	-10.7867
打撃	-10.7869
▁大いに	-10.787
▁研究	-10.7872
そうする	-10.7872
との間に	-10.7874
▁デ	-10.7875
ですが	-10.7875
ければ	-10.788
わん	-10.7884
▁露	-10.7885
救急車を呼ぶ	-10.7891
黙って	-10.7898
常識	-10.7904
全体の	-10.7904
が強く	-10.7904
閉	-10.7906
地点	-10.7906
▁安全	-10.7908
▁雌	-10.7912
科目	-10.7915
たえ	-10.792
ケアマネージャ	-10.7922
▁いつ	-10.7922
を捕える	-10.7924
客の	-10.7926
けない	-10.7931
チャ	-10.7932
▁室内	-10.7933
上り	-10.7938
ネズミ	-10.7939
▁墓	-10.7941
動かす	-10.7942
前から	-10.7944
□□	-10.7947
確かな	-10.7949
燃える	-10.7949
歌う	-10.7952
▁先生は	-10.7953
丈夫な	-10.7954
▁鬼	-10.7956
▁心の	-10.7956
▁卵	-10.7963
▁新年	-10.7963
▁じょう	-10.7964
国を	-10.7968
あげた	-10.7968
既に	-10.7969
考えが	-10.797
▁福	-10.797
▁労働	-10.797
矛盾	-10.7972
▁人生	-10.7973
否定	-10.7977
大体	-10.7981
▁超	-10.7981
一面	-10.7982
確か	-10.7985
▁ちょうど	-10.7985
se	-10.7991
▁違います	-10.7994
▁死に	-10.7995
▁そうです	-10.7996
▁午後	-10.7996
とく	-10.7996
樹木	-10.7997
生まれつき	-10.7997
辞職	-10.7998
届	-10.8
を出し	-10.8
埋め	-10.8001
戸口	-10.8003
資料	-10.8008
難い	-10.8009
▁他の	-10.8011
が彼	-10.8011
つもりだ	-10.8012
についている	-10.8014
見せる	-10.8015
ところがある	-10.8021
縛	-10.8022
四角	-10.8022
▁温	-10.8022
ざら	-10.8022
換	-10.8023
帝国	-10.803
示すこと	-10.803
たりして	-10.8032
離婚	-10.8034
悟	-10.8035
将校	-10.804
したら	-10.804
熱い	-10.8041
が来る	-10.8043
施	-10.8045
裁判官	-10.8046
あめ	-10.8048
却	-10.8051
孔	-10.8052
重大	-10.8052
はるかに	-10.8053
に過ぎない	-10.8054
焼いた	-10.8055
呪	-10.8055
を欠く	-10.8056
発行する	-10.8057
相続	-10.8057
▁議長	-10.8057
環	-10.8057
貌	-10.8058
あきらめ	-10.8058
屬	-10.8059
ごたごた	-10.8059
ハンカチ	-10.8059
娯楽	-10.8059
偉大な	-10.8059
のなか	-10.8059
くちばし	-10.8059
70	-10.8059
証券	-10.806
悩み	-10.806
▁道理	-10.806
ろうそく	-10.806
こみ	-10.806
申し上げます	-10.806
辰雄	-10.8061
軽蔑	-10.8063
農場	-10.8063
獲物	-10.8065
▁農業	-10.8065
坊主	-10.8065
執行	-10.8065
同士	-10.8066
々しい	-10.8067
狂言	-10.8068
を作り	-10.8069
▁暴	-10.8071
念仏	-10.8071
面白い	-10.8071
は彼を	-10.8074
▁狂	-10.8074
平らな	-10.8075
▁だれでも	-10.8075
粉末	-10.8075
午後	-10.8076
形は	-10.8076
を失って	-10.8076
目録	-10.8077
▁ニューヨーク	-10.8078
戦術	-10.8078
不在	-10.8079
▁土地	-10.808
単語	-10.8082
の問題	-10.8083
を洗う	-10.8085
むずかしい	-10.8087
弱点	-10.8089
っても	-10.809
駄	-10.8091
母音	-10.8092
語句	-10.8093
わからなかった	-10.8094
むち	-10.8098
演ずる	-10.8099
あさ	-10.81
▁若い	-10.81
なっていた	-10.81
カン	-10.8101
祖父	-10.8102
所帯	-10.8102
あげよう	-10.8103
きびしく	-10.8103
危機	-10.8104
幼児	-10.8104
仁	-10.8104
らせて	-10.8107
混	-10.8107
ロープ	-10.8108
まわること	-10.8108
お願い	-10.8109
を読む	-10.8111
脇	-10.8111
爪	-10.8112
もみ	-10.8113
▁きゅう	-10.8114
18	-10.8114
に多い	-10.8116
▁飯	-10.8117
預金	-10.8117
お父さん	-10.8118
財政	-10.812
のうちに	-10.8121
自己	-10.8121
雑草	-10.8123
留める	-10.8125
S	-10.8125
めし	-10.8125
超	-10.8127
ものがある	-10.8129
▁縁	-10.8129
▁その子は	-10.813
乱暴な	-10.813
談話	-10.8131
第三	-10.8134
ふけ	-10.8135
えん	-10.8135
穀物	-10.8135
濃い	-10.8137
両端	-10.8137
いまから電話をかける	-10.8138
。「―	-10.8139
▁僕	-10.8139
せり	-10.8139
などによって	-10.814
▁粉	-10.8143
▁文学	-10.8144
▁能	-10.8146
を吹く	-10.8146
容易に	-10.8146
訴え	-10.8147
▁棒	-10.8147
山脈	-10.8148
よろしい	-10.8149
合うこと	-10.8151
ブラ	-10.8152
の出来事	-10.8155
▁コン	-10.8155
▁貸	-10.8158
水路	-10.816
音節	-10.816
こつ	-10.8161
変え	-10.8161
一部	-10.8168
社会的	-10.8168
当てる	-10.8171
ドアを	-10.8173
戻	-10.8173
科の常緑高木	-10.8174
▁だれか	-10.8174
▁押し	-10.8178
縮	-10.818
▁質	-10.818
もしない	-10.8182
木綿	-10.8184
墓	-10.8186
▁猿	-10.8187
▁激しく	-10.8187
▁ぼう	-10.8191
しかない	-10.8195
その場に	-10.8202
があれば	-10.8202
▁自動車の	-10.8203
▁長く	-10.8203
とれる	-10.8204
こり	-10.8204
してやる	-10.8206
まと	-10.8207
ほめ	-10.821
に手を	-10.8215
▁寸	-10.822
▁印刷	-10.8222
名の	-10.8223
生え	-10.8224
▁仕事の	-10.8225
気譴	-10.8228
はわからない	-10.8228
▁全身	-10.8233
▁あの人	-10.8234
不意	-10.8235
片方	-10.8235
ようとした	-10.8236
上手	-10.8236
▁順	-10.8237
書いて	-10.8238
ときの	-10.8239
入れた	-10.824
みぞ	-10.8241
返すこと	-10.8242
せた	-10.8243
敵の	-10.8243
境界	-10.8245
▁割り	-10.8246
っておく	-10.8247
プレー	-10.8255
▁ヨーロッパ	-10.8255
耳に	-10.8265
につき	-10.8265
としても	-10.8266
▁うちの	-10.8267
とまる	-10.8267
認められる	-10.8268
おしゃべり	-10.8271
が好きだ	-10.8273
鳴り	-10.8273
知った	-10.8275
宣伝	-10.8279
ed	-10.828
スーツ	-10.8288
ヨ	-10.829
拾い	-10.8291
機嫌	-10.8292
クリスマス	-10.8292
有様	-10.8292
大きいこと	-10.8292
▁インド	-10.8295
時などに	-10.8296
をとった	-10.8297
知り	-10.8297
溶	-10.8298
▁歌	-10.8302
▁すばらしい	-10.8303
▁ちょっと電話したい	-10.8303
我々に	-10.8307
言葉に	-10.8309
頼	-10.831
なぞ	-10.8312
の小	-10.8313
下ろす	-10.8313
ロン	-10.8314
騒	-10.8316
▁生活	-10.8316
構	-10.8318
買った	-10.8319
▁いろいろの	-10.8324
最後に	-10.8324
上げて	-10.8326
美しさ	-10.8326
づく	-10.8328
へ行った	-10.8334
立っていた	-10.8334
だんだん	-10.8335
成功した	-10.8336
を用いて	-10.8336
宮中	-10.834
かけている	-10.8341
▁トムは	-10.8343
▁家族	-10.8343
だけだ	-10.8344
代理	-10.8345
こま	-10.8347
れん	-10.8349
ゆう	-10.8352
まとまり	-10.8353
腹が	-10.8355
不明	-10.8361
もらった	-10.8364
▁目の	-10.8365
妙な	-10.8367
警察呼ぶ	-10.8368
調和	-10.8371
ぴったり	-10.8371
曲がった	-10.8371
おいで	-10.8375
もっとも	-10.8376
捜し	-10.8376
呼び名	-10.8378
時間が	-10.8378
でメッセージ送信	-10.8378
たれる	-10.8379
以前の	-10.838
▁ちょっとした	-10.838
しないように	-10.838
その知らせ	-10.8381
ライ	-10.8381
▁雷	-10.8381
▁化学	-10.8382
▁参	-10.8383
▁このような	-10.8385
遣い	-10.8385
忍	-10.8387
書簡	-10.8387
旨	-10.8387
そうと	-10.8389
鼓	-10.8389
吏	-10.839
公務員	-10.839
覇	-10.839
紊	-10.8391
冒	-10.8392
に沿って	-10.8392
兇	-10.8392
ストライキ	-10.8392
Г	-10.8392
▁of	-10.8392
陳述	-10.8392
しつこく	-10.8392
樹脂	-10.8392
殺到	-10.8392
欠陥	-10.8393
めでたい	-10.8393
教科書	-10.8393
わざわい	-10.8393
どうにか	-10.8393
及び	-10.8393
ネット	-10.8393
グラス	-10.8393
陶器	-10.8394
ゴール	-10.8394
秘密を	-10.8394
社交	-10.8395
▁生命	-10.8395
技師	-10.8395
編成	-10.8396
補給	-10.8396
工夫	-10.8396
陸地	-10.8396
分裂	-10.8396
照明	-10.8396
最終	-10.8397
仮定	-10.8397
モン	-10.8399
向きの	-10.8399
働いて	-10.84
害虫	-10.8401
帳面	-10.8402
親しみ	-10.8402
90	-10.8404
鱗	-10.8405
順番	-10.8407
正午	-10.8408
洗う	-10.8409
祝	-10.8412
▁煮	-10.8413
らせた	-10.8414
それから	-10.8414
通りに	-10.8415
▁写真	-10.8416
一行	-10.8417
ダース	-10.8417
牛肉	-10.842
やってきた	-10.842
体制	-10.8421
法案	-10.8424
包	-10.8428
がち	-10.8429
出される	-10.8432
部品	-10.8433
無限	-10.8434
▁あなたが	-10.8435
然たる	-10.8437
読んで	-10.8437
一枚	-10.8444
頂上	-10.8452
いくらか	-10.8452
遅れて	-10.8455
覚	-10.8456
の縁	-10.8457
▁帯	-10.8458
危険な	-10.8458
▁相手を	-10.846
については	-10.8463
スタ	-10.8465
上等	-10.8465
部門	-10.8465
陽気	-10.8467
を塗る	-10.8467
菊	-10.8468
伝統	-10.8471
と思っている	-10.8472
▁都市	-10.8473
▁財産	-10.8474
かち	-10.8475
トム	-10.8476
あお	-10.8478
野心	-10.8478
▁読み	-10.8481
▁台風	-10.8482
衰え	-10.8483
腕前	-10.8485
君が	-10.8486
方方	-10.8486
前途	-10.8487
られなかった	-10.8489
ふだん	-10.849
を計る	-10.8491
じょう	-10.8491
さる	-10.8493
察	-10.8494
ぎわ	-10.8495
先例	-10.8496
人数	-10.8498
▁後ろ	-10.8499
▁犬	-10.85
結婚式	-10.8501
を進める	-10.8501
重大な	-10.8502
口論	-10.8504
中国の	-10.8506
救急車呼びに電話	-10.8507
の空	-10.851
お前	-10.8511
▁彼女は彼	-10.8512
ができた	-10.8512
とんでもない	-10.8515
聞かせ	-10.8515
日中	-10.8516
しっかりした	-10.8517
繭	-10.852
ろうとする	-10.852
の間の	-10.8521
すぐに電話をかける	-10.8521
▁終	-10.8523
年代	-10.8523
遅れた	-10.8526
で売る	-10.8527
盲	-10.8528
んです	-10.8529
夜明け	-10.853
口実	-10.8531
かに	-10.8532
繰り返し	-10.8533
を立て	-10.8533
拍手	-10.8534
感動	-10.8536
を飲む	-10.8538
天子	-10.8539
遅れる	-10.8543
が必要だ	-10.8544
を助ける	-10.8547
あぶ	-10.8548
を少し	-10.855
つくり	-10.8552
ぶる	-10.8555
ばい	-10.8557
座席	-10.8557
のほう	-10.8558
▁皮膚	-10.856
をあげて	-10.8562
上品	-10.8563
ンド	-10.8564
本来	-10.8565
納め	-10.8567
▁休	-10.8569
固めた	-10.8569
ゆき	-10.8572
▁森	-10.8572
▁ちょう	-10.8574
メッセージをちょっと	-10.8574
始	-10.8577
▁米国	-10.8577
起こす	-10.8578
と一緒に	-10.8582
の材料	-10.8584
居住	-10.8584
つれ	-10.8586
の低い	-10.8589
指図	-10.8589
▁怒り	-10.8593
▁墨	-10.8594
は全部	-10.8594
っくり	-10.8596
0	-10.8599
道は	-10.86
出する	-10.86
▁炭	-10.86
資	-10.8603
あとで	-10.8604
を指す	-10.8606
どこで	-10.8608
輸出	-10.8611
世間に	-10.8614
とど	-10.8616
は決して	-10.8617
外れ	-10.8619
▁ふた	-10.8619
トラック	-10.862
おれ	-10.8622
指定	-10.8623
へ電話	-10.8629
さずに	-10.863
吐	-10.8631
晴	-10.8637
その結果	-10.8638
三度	-10.8639
何時	-10.864
に入れた	-10.864
楽しむ	-10.8644
▁目を	-10.8644
▁しゃ	-10.8646
うず	-10.8647
は何も	-10.8647
下手	-10.8648
ありますか	-10.865
▁京都	-10.8651
等が	-10.8656
邪魔	-10.8657
▁私に	-10.8659
のもと	-10.8661
りっぱな	-10.8661
▁村	-10.8664
回転	-10.8665
を教える	-10.8667
さっぱり	-10.8668
土台	-10.8668
を言って	-10.8675
望む	-10.8675
誠実	-10.8676
▁ピ	-10.8676
アパート	-10.8678
それぞれの	-10.8681
おくこと	-10.8682
ふう	-10.8688
にあること	-10.8693
▁クロ	-10.8693
▁鈍	-10.8696
に入った	-10.8696
▁武	-10.8697
以	-10.8701
を用いる	-10.8701
裂	-10.8702
とること	-10.8704
天皇の	-10.8706
睡眠	-10.8707
に関して	-10.8708
区画	-10.8709
問い	-10.871
衛	-10.8713
情報を	-10.8714
ュ	-10.8715
の食事	-10.8716
ばち	-10.8718
永	-10.8718
の基礎	-10.872
▁婦人	-10.8721
用いる	-10.8723
パイ	-10.8724
絞	-10.8724
勤勉	-10.8724
大将	-10.8725
審判	-10.8725
水道	-10.8728
陶	-10.8729
看板	-10.8729
乙	-10.873
に与える	-10.873
蝶	-10.8733
防止	-10.8734
瀬	-10.8734
冥	-10.8735
あちこち	-10.8736
顕	-10.8737
聯	-10.8737
梁	-10.8737
科の海魚	-10.8737
艇	-10.8737
壺	-10.8737
器械	-10.8737
瑠	-10.8737
ハムレット	-10.8737
窒素	-10.8737
璽	-10.8737
タイプライター	-10.8737
陶磁器	-10.8737
休憩	-10.8737
陳列	-10.8737
を救う	-10.8738
存じます	-10.8738
太郎	-10.8738
解雇	-10.8738
圧迫	-10.8738
明美さん	-10.8738
シェ	-10.8739
に来る	-10.8739
阿部	-10.8739
体験	-10.874
ましょうか	-10.874
ようやく	-10.874
知れ	-10.8741
ライン	-10.8741
ニア	-10.8741
忠実	-10.8742
させない	-10.8743
高低	-10.8743
手先	-10.8744
ちょっと電話する	-10.8745
まない	-10.8746
ファ	-10.8746
観音	-10.875
まもなく	-10.875
▁彼はこの	-10.875
針金	-10.8751
仕切り	-10.8751
厚	-10.8753
ジュ	-10.8753
▁戦闘	-10.8753
間もなく	-10.8754
方向に	-10.8755
布団	-10.8757
にふける	-10.8757
は彼女の	-10.8757
すぐに電話する	-10.8757
▁旗	-10.8759
▁節	-10.8759
渡す	-10.8759
かかり	-10.876
急ぐ	-10.8763
うわ	-10.8763
結ぶ	-10.8763
のころ	-10.8764
はかり	-10.8765
不良	-10.8768
特別の	-10.8768
敬称	-10.8769
処理する	-10.877
▁ボート	-10.877
ほうがいい	-10.877
感ずる	-10.8772
▁二重	-10.8773
題目	-10.8776
あぶない	-10.8777
▁ガラス	-10.878
複雑な	-10.878
雌	-10.8781
▁営業	-10.8781
指導者	-10.8781
重量	-10.8782
柔らかく	-10.8784
を受けること	-10.8787
平等	-10.8787
敷き	-10.8789
正しく	-10.879
▁接	-10.8791
占め	-10.8792
会う	-10.8794
▁稲	-10.8794
の絵	-10.8796
紙を	-10.8796
の方向	-10.8798
高熱	-10.88
▁盲	-10.8801
誤	-10.8804
▁胴	-10.8806
が上がる	-10.8807
明らかに	-10.881
小型	-10.881
注意して	-10.881
▁うまい	-10.8814
飽き	-10.8816
▁なん	-10.8818
でメッセージを送信	-10.8818
道楽	-10.8818
をふるう	-10.8819
▁すぐに電話かける	-10.8821
免	-10.8822
ています	-10.8823
程度が	-10.8823
手足	-10.8824
▁子供たちは	-10.8826
をうまく	-10.8828
うら	-10.8831
んこ	-10.8832
を押し	-10.8833
やく	-10.8834
整	-10.8834
失礼	-10.8835
手袋	-10.8836
書いたもの	-10.8837
見通し	-10.8837
身の上	-10.8837
投	-10.8837
ほん	-10.8837
ろうと	-10.8838
縫う	-10.8841
説き	-10.8842
▁懐	-10.8843
はできない	-10.8844
空想	-10.8844
▁潜	-10.8847
まっすぐに	-10.885
めん	-10.885
▁教会	-10.8852
▁親の	-10.8854
邪	-10.8854
刑務所	-10.8854
おこ	-10.8856
じゅう	-10.8856
大会	-10.8856
▁建築	-10.8858
▁昨夜	-10.8859
鬱	-10.8859
ある事	-10.886
夕食	-10.8861
序	-10.8865
飛	-10.8865
有効	-10.8866
を越えて	-10.8867
▁ロケット	-10.8869
▁浮	-10.887
を明らかにする	-10.8871
漫	-10.8871
地獄	-10.8872
盗み	-10.8872
かのように	-10.8874
を作った	-10.8874
▁登山	-10.8875
理性	-10.8876
蚊	-10.8879
最初に	-10.8882
その金を	-10.8882
くち	-10.8883
▁太	-10.8884
近代	-10.8884
を呼ぶ	-10.8886
▁世界の	-10.8887
の光	-10.8887
室内	-10.889
定められた	-10.8897
▁心に	-10.89
ことをする	-10.8901
ティ	-10.8904
多数の	-10.8905
けば	-10.8907
支払い	-10.8909
発射	-10.891
をもち	-10.8911
音を	-10.8918
状態にある	-10.8919
▁寺	-10.892
て下さい	-10.892
処分	-10.8921
が見える	-10.8922
のそばに	-10.8924
▁一日	-10.8927
こぶ	-10.8928
きている	-10.8928
来ること	-10.8928
▁医学	-10.8932
のほうが	-10.8932
えび	-10.8933
11	-10.8934
引け	-10.894
あんな	-10.8943
を行うこと	-10.8944
▁女の	-10.8945
爆	-10.8946
▁自動	-10.8946
歌い	-10.8946
てい	-10.8949
を突き	-10.8954
▁各	-10.8955
彼も	-10.8956
▁選	-10.8956
昇	-10.8957
そのことを	-10.8958
が出	-10.896
▁利益	-10.8961
が少ない	-10.8961
黙	-10.8963
通行	-10.8964
女性の	-10.8966
▁料理	-10.8966
だち	-10.8966
のもとで	-10.8967
▁ゴム	-10.8975
精力	-10.8977
の動き	-10.8978
顔が	-10.8984
賢	-10.8985
生地	-10.8989
代金	-10.899
和歌	-10.8991
所を	-10.8992
を引いて	-10.8993
ちょっとした	-10.8995
だし	-10.8998
▁君主	-10.9001
が見えた	-10.9003
▁戦い	-10.9004
▁弓	-10.9004
ばん	-10.9004
▁全く	-10.9005
とらえる	-10.9007
に打ち	-10.9011
にしたもの	-10.9012
つきの	-10.9016
当局	-10.9016
のち	-10.9016
報酬	-10.9017
工学	-10.9018
国語	-10.9019
くつ	-10.902
焦	-10.9021
態度をとる	-10.9022
最低	-10.9023
はだれ	-10.9024
すぐに送信	-10.9024
をもっている	-10.9025
▁集団	-10.9026
吹	-10.9026
いないこと	-10.9028
はっきりしない	-10.9032
募集	-10.9037
年月	-10.9042
最初	-10.9042
の性質	-10.9043
▁三つ	-10.9043
▁教	-10.9043
▁中国	-10.9046
財布	-10.9047
▁中間	-10.9048
▁硬	-10.9049
指揮	-10.905
なんだ	-10.9052
助言	-10.9053
▁良	-10.9054
をとること	-10.9056
▁短い	-10.9057
で行う	-10.9058
加減	-10.9059
物資	-10.9059
一節	-10.906
がまだ	-10.9061
時まで	-10.9062
てやる	-10.9064
負傷	-10.9068
に設けた	-10.9072
の量	-10.9073
胸に	-10.9075
揺れる	-10.9075
渡した	-10.9075
の調子	-10.9078
廷	-10.9078
▁パリ	-10.9078
わずかに	-10.9079
便宜	-10.9081
沸	-10.9081
してもらう	-10.9082
柔	-10.9083
▁毎日	-10.9083
を入れておく	-10.9085
簡	-10.9085
にかかわる	-10.9086
滞	-10.9087
あがった	-10.9088
洗たく	-10.9088
を持った	-10.909
原則	-10.909
拳	-10.9091
おどし	-10.9092
賦	-10.9092
膿	-10.9092
願います	-10.9092
キャ	-10.9093
妄	-10.9094
味噌	-10.9094
ショック	-10.9094
汚染	-10.9094
どっち	-10.9094
博物館	-10.9094
従業員	-10.9094
熊	-10.9094
塾	-10.9094
狼	-10.9094
纏	-10.9094
グループ	-10.9094
うろこ	-10.9094
貯蔵	-10.9094
覚悟	-10.9094
泳ぐ	-10.9095
園芸	-10.9095
経歴	-10.9095
警備	-10.9096
▁いえ	-10.9096
志願	-10.9096
書斎	-10.9097
街路	-10.9097
汽車	-10.9097
消防	-10.9097
予期	-10.9097
策略	-10.9097
香料	-10.9098
接近	-10.9098
を起こさせる	-10.9099
法規	-10.9099
崩れ	-10.9099
内臓	-10.9099
入浴	-10.91
命題	-10.9101
曇り	-10.9103
下がり	-10.9104
御用	-10.9104
指輪	-10.9105
ドン	-10.9106
▁その男は	-10.9107
女房	-10.9108
土砂	-10.9109
基地	-10.9109
っています	-10.9112
釮呂	-10.9113
としては	-10.9113
絵美	-10.9113
囲い	-10.9113
旅行する	-10.9114
学術	-10.9114
との間	-10.9114
の社会	-10.9115
局面	-10.9115
神聖な	-10.9116
動植物	-10.9116
けい	-10.9117
間隔	-10.9118
は大	-10.9119
▁元気	-10.912
まじり	-10.912
▁わら	-10.9121
労力	-10.9122
角度	-10.9123
気圧	-10.9124
がよくない	-10.9125
さげ	-10.9126
注目	-10.9128
助力	-10.9128
平行	-10.9129
血管	-10.913
人の心	-10.913
▁彼は彼女	-10.9134
▁弾	-10.9134
を立てて	-10.9134
植え	-10.9138
勝った	-10.9139
心理学	-10.9139
化した	-10.9139
品物を	-10.9141
を造る	-10.9142
実質	-10.9142
ために使う	-10.9142
豊かな	-10.9143
だけを	-10.9143
お金を	-10.9144
手前	-10.9145
各地	-10.9146
遺憾	-10.9147
警戒	-10.9148
▁のど	-10.9149
ができない	-10.9154
標本	-10.9155
表紙	-10.9155
相応	-10.9155
掛かる	-10.9157
暖	-10.9159
生存	-10.9162
あく	-10.9162
おきて	-10.9164
これで	-10.9165
▁降	-10.9165
所属	-10.9166
冷たい	-10.9167
頭から	-10.9167
なぐり	-10.9169
生み	-10.9169
通った	-10.9169
怒	-10.917
ざん	-10.9171
近所	-10.9173
私も	-10.9174
おおい	-10.9174
すべきだ	-10.9174
▁ドア	-10.9175
やむ	-10.9177
を合わせる	-10.9179
きき	-10.9181
▁希望	-10.9186
結局	-10.9187
こわい	-10.919
▁植物の	-10.9191
くない	-10.9191
あげること	-10.9193
▁世論	-10.9194
の者	-10.9195
組み立て	-10.9198
もなかった	-10.9198
▁略	-10.92
擦れ	-10.92
ほかに	-10.9201
尽	-10.9203
▁深く	-10.9204
画面	-10.9205
の前で	-10.9209
まめ	-10.9211
消す	-10.9212
対立	-10.9215
快	-10.9217
▁演劇	-10.9218
潜	-10.922
冬の	-10.9221
金で	-10.9223
の面	-10.9223
飲んで	-10.9226
ひく	-10.9227
▁自己	-10.9227
一歩	-10.9227
パー	-10.9228
木に	-10.9228
消毒	-10.9228
休日	-10.923
人相	-10.923
が出ている	-10.9231
連中	-10.9231
抜	-10.9232
きく	-10.9233
速い	-10.9233
水で	-10.9235
へん	-10.9236
大した	-10.9237
彼らに	-10.9238
を営む	-10.9241
▁殺人	-10.9243
軍事	-10.9246
浄	-10.9247
▁文章	-10.9247
受信	-10.9249
が高く	-10.925
適当な	-10.9251
一切	-10.9254
逸	-10.9255
▁ホ	-10.9258
を放つ	-10.9261
についた	-10.9261
▁へい	-10.9262
うっかり	-10.9262
進め	-10.9263
スパイ	-10.9263
O	-10.9265
日数	-10.9265
戒め	-10.9267
▁権力	-10.9268
かび	-10.9268
寺院	-10.927
ねり	-10.927
▁貴	-10.9273
蔵書	-10.9273
緩	-10.9273
くだらない	-10.9273
どういう	-10.9276
繁	-10.9277
人種	-10.9277
説教	-10.928
▁心が	-10.9281
わが	-10.9284
▁消	-10.9285
思った	-10.929
いって	-10.9294
▁どんなに	-10.9295
すぐに電話したい	-10.9297
を迎える	-10.9298
かめ	-10.9299
を十分に	-10.9307
ヘビ	-10.9309
はち	-10.9312
人生の	-10.9316
感ずること	-10.9317
結構です	-10.9319
民間	-10.9319
大勢	-10.932
▁雨が	-10.9322
▁物価	-10.9323
を許す	-10.9324
もらい	-10.9324
ようとして	-10.9329
考えること	-10.9329
▁あちこち	-10.9331
古代	-10.9331
▁池	-10.9331
車で	-10.9332
正面	-10.9334
見方	-10.9335
無料	-10.9337
ビー	-10.9338
▁4	-10.934
秋に	-10.9343
▁夕	-10.9346
リング	-10.9346
大量	-10.9347
地面に	-10.9348
靴下	-10.9349
▁彼女は私に	-10.935
を取り除く	-10.935
かわからない	-10.9351
女王	-10.9351
おか	-10.9354
が広い	-10.9354
の儀式	-10.9357
▁工場	-10.936
▁恋	-10.9361
様子だ	-10.9363
集めること	-10.9363
▁都	-10.9367
偉	-10.9368
▁証拠	-10.9368
母の	-10.9369
に合わせて	-10.937
静子	-10.937
年度	-10.9371
物事に	-10.9372
▁臨時	-10.9375
任せ	-10.9376
▁かく	-10.9376
▁離	-10.9377
偽	-10.938
囚	-10.9381
がわかる	-10.9382
正確に	-10.9382
キリスト教	-10.9384
▁規則	-10.9385
から出る	-10.9389
ついていた	-10.9389
将棋	-10.9396
の深い	-10.9396
▁海上	-10.9396
扱	-10.9397
はなれ	-10.9397
女子	-10.9401
金品	-10.9401
正体	-10.9402
器物	-10.9405
に引き	-10.9407
収益	-10.9407
そうして	-10.9408
改善	-10.9409
▁ホテル	-10.941
えさ	-10.9412
事故で	-10.9414
ょ	-10.9416
らく	-10.9418
ごらん	-10.9419
胸が	-10.9419
出かけ	-10.942
主権	-10.942
分離	-10.9422
望遠鏡	-10.9422
換え	-10.9423
雨で	-10.9424
にやる	-10.9426
可能性	-10.9426
音を立てて	-10.9426
の最高	-10.9426
そこから	-10.9429
有利	-10.9429
衰	-10.9429
包帯	-10.943
出来た	-10.9432
ふと	-10.9437
を演ずる	-10.9437
語り	-10.9441
取れ	-10.9444
▁深い	-10.9444
方角	-10.9444
じーじ	-10.9445
かということ	-10.9446
証書	-10.9447
溶液	-10.9448
▁てい	-10.9448
を与えた	-10.9449
知らぬ	-10.9451
づき	-10.9453
昨年	-10.9454
よし	-10.9455
▁我々	-10.9456
ヘルパーさん	-10.9456
ッと	-10.9456
郎	-10.9457
論争	-10.9457
簿	-10.9457
藻	-10.9458
由	-10.9458
父母	-10.9459
なおす	-10.946
根は	-10.9461
▁経験	-10.9462
宜	-10.9462
愁	-10.9463
妥協	-10.9463
にしよう	-10.9463
データ	-10.9464
寡	-10.9464
杖	-10.9464
雌雄異株	-10.9464
餡	-10.9464
栗	-10.9464
ストーブ	-10.9464
澆	-10.9464
衝撃	-10.9464
姫	-10.9464
舞踊	-10.9464
栄誉	-10.9464
かっこう	-10.9465
蘭	-10.9465
急速に	-10.9465
留守	-10.9465
輪郭	-10.9465
ポンプ	-10.9465
見事な	-10.9465
封筒	-10.9465
鑑定	-10.9465
直ちに	-10.9466
未熟	-10.9466
いずれ	-10.9466
引っ	-10.9466
恩恵	-10.9466
と思います	-10.9466
立派に	-10.9466
検討	-10.9466
▁この絵は	-10.9467
食器	-10.9467
思案	-10.9467
解放	-10.9467
信念	-10.9468
▁だれ	-10.9468
過程	-10.9468
失望	-10.9468
怪しい	-10.9468
ホン	-10.9469
難儀	-10.9469
おばあさん	-10.9469
を認める	-10.947
宗派	-10.947
血統	-10.947
魚を	-10.947
判定	-10.947
後藤	-10.947
を満たす	-10.947
クリ	-10.9471
絶対	-10.9471
サイン	-10.9471
後悔	-10.9472
▁お前	-10.9472
だということ	-10.9473
改めて	-10.9473
楽曲	-10.9475
容疑者	-10.9476
お薬屋さん	-10.9476
優先	-10.9477
立つこと	-10.9477
▁受	-10.9477
を追う	-10.9479
方法で	-10.9479
素質	-10.948
格式	-10.948
回路	-10.9481
現われた	-10.9481
かまわない	-10.9481
ある事柄	-10.9482
生活費	-10.9485
ぐち	-10.9485
永久	-10.9486
広がる	-10.9486
▁目的	-10.9486
はありません	-10.9487
▁名声	-10.9491
かという	-10.9491
すぎた	-10.9491
辰討い	-10.9491
者たち	-10.9492
親類	-10.9493
知らせる	-10.9493
入れて	-10.9493
はずれる	-10.9494
▁帆	-10.9494
金具	-10.9494
世代	-10.9495
つなぎ	-10.9496
直角	-10.9496
行われた	-10.9497
意向	-10.9497
のあと	-10.9498
市長	-10.9498
代代	-10.9498
毛皮	-10.95
のですが	-10.9501
▁本当に	-10.9503
地区	-10.9504
格子	-10.9505
用いること	-10.9506
釣	-10.9507
からとった	-10.9507
上級	-10.9507
規模	-10.9507
ろりと	-10.9509
意味を	-10.9511
達者	-10.9517
んだろう	-10.9518
を抑える	-10.9518
点を	-10.9518
▁老人	-10.952
はいかがですか	-10.9521
つづ	-10.9523
二度	-10.9527
心身	-10.9528
はいけない	-10.9528
▁相撲で	-10.9529
作られた	-10.9533
▁自転車	-10.9535
▁ベ	-10.9535
その本	-10.9535
場合には	-10.9535
を共にする	-10.9539
の流れ	-10.9541
っ子	-10.9545
を通る	-10.9545
にしておく	-10.9551
▁ほんの	-10.9555
となるもの	-10.9556
住まい	-10.9558
▁既	-10.9563
▁傷	-10.9565
通っている	-10.9565
ございます	-10.9571
家来	-10.9571
おかし	-10.9572
限度	-10.9573
に合わない	-10.9573
動かない	-10.9577
学校へ	-10.9579
きざ	-10.9581
木製の	-10.9581
▁前もって	-10.9583
行け	-10.9584
思いやり	-10.9585
決めること	-10.9585
▁一番	-10.9586
水平	-10.9587
それより	-10.9589
▁ああ	-10.9591
▁反対	-10.9593
わび	-10.9595
党の	-10.9595
重ね	-10.9597
さば	-10.9597
で買う	-10.9598
▁最近	-10.9599
あけた	-10.9599
▁すべて	-10.9599
個の	-10.96
使える	-10.9607
▁勘定	-10.9607
ばかりだ	-10.9608
の女性	-10.9608
困難な	-10.9609
時節	-10.9613
呼んで	-10.9615
こけ	-10.9616
しゅ	-10.9616
用品	-10.9616
安楽	-10.9622
▁ごく	-10.9623
口が	-10.9629
日本では	-10.963
ものもある	-10.963
誰	-10.963
気力	-10.9631
仕方がない	-10.9634
を唱える	-10.9636
すえ	-10.9638
ぶらぶら	-10.9639
はある	-10.9639
打者	-10.964
心配事	-10.9641
稔	-10.9644
▁電車	-10.9647
度合	-10.965
て作った	-10.965
ようだった	-10.9655
▁小川	-10.9657
先生の	-10.9659
立候補	-10.9665
っていった	-10.9666
労働組合	-10.9668
決めた	-10.9668
メッセすぐに	-10.9672
は皆	-10.9673
注射	-10.9673
詳しく	-10.9674
握り	-10.9674
本を読む	-10.9675
スミス	-10.9677
家から	-10.9677
を下す	-10.9678
疑問	-10.9679
▁遠く	-10.9679
ミサイル	-10.968
の品	-10.968
両方	-10.9681
碁	-10.9685
憲法	-10.9686
クラ	-10.9688
悪魔	-10.9688
るほど	-10.9689
医療	-10.9689
▁蚊	-10.9691
▁空腹	-10.9692
解決する	-10.9692
▁読書	-10.9692
▁荷物	-10.9693
▁月の	-10.9694
大部分	-10.9694
猿	-10.9698
いまから電話したい	-10.9698
水泳	-10.9702
で死ぬ	-10.9705
奏者	-10.9705
大分	-10.9706
▁一体	-10.9708
in	-10.9711
ではないが	-10.9713
はん	-10.9714
くみ	-10.9715
どん	-10.9719
が少し	-10.9719
多分	-10.9721
立てること	-10.9721
の席	-10.9724
染める	-10.9724
▁彼は英語	-10.9725
こともある	-10.9727
▁立	-10.9728
中です	-10.9728
アル	-10.9728
その事	-10.9728
▁浅	-10.973
▁健	-10.9731
馬の	-10.9733
増し	-10.9734
輩	-10.9738
▁仕	-10.9738
全国	-10.9743
いい加減	-10.9745
あがる	-10.9745
開ける	-10.9754
説明する	-10.9755
恐	-10.9755
採用	-10.9755
▁彼は彼女に	-10.9755
▁すぐに電話をかける	-10.9757
▁結局	-10.9758
囚人	-10.9761
▁水が	-10.9761
煩	-10.9762
飽	-10.9762
聖人	-10.9763
▁会議	-10.9767
を向ける	-10.9768
▁S	-10.9769
話は	-10.9769
さめ	-10.977
比例	-10.977
帳簿	-10.977
っちり	-10.9772
与えること	-10.9775
聞いた	-10.9776
▁現在の	-10.9778
砕	-10.9779
選び	-10.9781
ままに	-10.9782
アウト	-10.9783
心は	-10.9784
にすぎない	-10.9787
▁民間	-10.9788
はしばしば	-10.9788
パイプ	-10.9788
をもらう	-10.979
滞在	-10.9793
倒れる	-10.9794
ものとして	-10.9795
▁世の中	-10.9797
子供の	-10.9798
▁景気	-10.98
▁明るい	-10.9801
それだけ	-10.9801
▁野球	-10.9802
光る	-10.9802
が低い	-10.9803
いじ	-10.9805
ありがとう	-10.9805
人人の	-10.9805
まじめ	-10.9805
攻	-10.9806
が集まって	-10.9806
体系	-10.9808
けん	-10.9809
慣れ	-10.981
許し	-10.9812
古くから	-10.9813
地位に	-10.9815
地中に	-10.9816
珠	-10.9819
酒を飲む	-10.982
▁鶏	-10.9821
磨	-10.9822
火災	-10.9822
経過	-10.9824
で使う	-10.9824
のほか	-10.9826
耕	-10.9826
どうか	-10.9826
込んでいる	-10.9827
外側	-10.9829
をもたらす	-10.9829
そっくり	-10.983
▁多数の	-10.983
フライ	-10.9831
の型	-10.9832
すごく	-10.9832
消費	-10.9833
▁訴訟	-10.9834
技芸	-10.9835
忠	-10.9836
用いられる	-10.9836
気管	-10.9836
四つ	-10.9836
一人の	-10.9838
▁飛び	-10.9838
けれど	-10.9839
それをする	-10.9839
争う	-10.984
▁群	-10.9841
歌舞伎	-10.9843
爵	-10.9843
背中	-10.9843
ルート	-10.9844
閲	-10.9845
久	-10.9845
まとまった	-10.9845
違	-10.9846
秀	-10.9846
曹	-10.9847
免許	-10.9847
渦	-10.9848
捕虜	-10.9848
崇拝	-10.9849
はいけません	-10.9849
釘	-10.9849
凌	-10.9849
繋	-10.9849
陵	-10.9849
ダイヤモンド	-10.9849
悗	-10.9849
ウサギ	-10.9849
デザイン	-10.9849
紹介	-10.9849
▁for	-10.9849
桁	-10.9849
姉妹	-10.9849
脅迫	-10.9849
皇后	-10.9849
の異称	-10.9849
サイズ	-10.9849
スペイン	-10.9849
庶民	-10.9849
修繕	-10.985
タイム	-10.985
当事者	-10.985
多量の	-10.985
にかなう	-10.985
詳細	-10.985
議決	-10.985
に比べて	-10.9851
民主主義	-10.9851
突起	-10.9852
豆腐	-10.9852
祖母	-10.9852
によらず	-10.9853
ブル	-10.9853
育つ	-10.9853
うそをつく	-10.9854
さわ	-10.9854
原始	-10.9855
衆生	-10.9856
撃ち	-10.9856
を使い	-10.9856
があります	-10.9857
産卵	-10.9857
それ以上	-10.9857
よりどころ	-10.9857
交代	-10.9858
機械の	-10.9859
誓う	-10.986
近ごろ	-10.986
風刺	-10.9861
身振り	-10.9863
こぶし	-10.9863
無駄	-10.9864
遊ぶ	-10.9864
学部	-10.9864
体格	-10.9865
占領	-10.9866
薬剤	-10.9868
伝言	-10.9869
特色	-10.9869
ああ	-10.9871
解剖	-10.9871
▁はしご	-10.9874
きまった	-10.9874
決して	-10.9875
刺し	-10.9876
寝室	-10.9876
目方	-10.9878
ドイツ語	-10.988
年ごろ	-10.9881
固い	-10.9882
▁衣服	-10.9883
図形	-10.9884
それをした	-10.9884
ということは	-10.9885
▁りょう	-10.9886
確認	-10.9887
ことば	-10.9889
ことができた	-10.9889
▁独り	-10.9892
▁びん	-10.9896
有利な	-10.9897
湿気	-10.99
境地	-10.9901
眠っている	-10.9903
専用	-10.9904
奇妙な	-10.9905
に出ている	-10.9909
▁お薬屋	-10.991
せて	-10.9911
をいだく	-10.9911
見ると	-10.9911
その日	-10.9912
はみな	-10.9913
頭部	-10.9915
によって起こる	-10.9915
▁遊び	-10.9916
ばな	-10.9917
飾	-10.9919
主要な	-10.992
本位	-10.992
親切な	-10.9921
どっと	-10.9922
歳の	-10.9922
を下げる	-10.9923
疲れた	-10.9923
並べて	-10.9927
どのように	-10.9936
▁どうして	-10.9938
伝わる	-10.9938
通ずる	-10.994
べた	-10.9943
犬を	-10.9944
怒る	-10.9945
彼女が	-10.9945
を書いた	-10.9945
農家	-10.9949
神の	-10.995
▁流れ	-10.9951
▁嫁	-10.9954
輸入	-10.9956
▁水中	-10.9956
の間を	-10.9956
診断	-10.9957
時々	-10.9959
続けた	-10.9959
▁神の	-10.9962
親子	-10.9963
▁投	-10.9964
変更	-10.9964
そうなる	-10.9965
花火	-10.9966
知れない	-10.9968
▁病人	-10.9969
めく	-10.997
▁夜間	-10.9971
会った	-10.9971
物事をする	-10.9972
青色	-10.9972
行ける	-10.9973
▁ローマ	-10.9973
▁その問題は	-10.9974
に入れ	-10.9978
水に	-10.9978
個個の	-10.9982
商品を	-10.9983
ダイ	-10.9984
きび	-10.9985
じま	-10.9986
年末	-10.9988
降りる	-10.9989
が悪いこと	-10.9994
の部屋	-10.9994
抱え	-10.9996
だと思う	-10.9996
じきに	-10.9997
しも	-10.9999
▁仲	-11.0001
かたち	-11.0001
▁理	-11.0005
▁今の	-11.0006
礼服	-11.0008
かなかった	-11.0008
▁金を	-11.0008
書面	-11.0011
紅色	-11.0011
▁麻	-11.0013
こむこと	-11.0013
向かう	-11.0013
くし	-11.0014
▁土地の	-11.0015
形を	-11.0016
除け	-11.0017
▁それでは	-11.0017
かおり	-11.002
学年	-11.0021
宴	-11.0021
女中	-11.0022
生きる	-11.0022
▁彼はそれを	-11.0022
とりで	-11.0023
探	-11.0024
に応じる	-11.0026
休む	-11.0028
重み	-11.0031
▁情	-11.0034
悪いこと	-11.0035
にかかっている	-11.0036
致しま	-11.0036
方へ	-11.0037
塗った	-11.0038
り込む	-11.0039
月の	-11.004
▁紅	-11.0042
▁正直	-11.0043
▁使い	-11.0044
ここで	-11.0047
知性	-11.0047
冒険	-11.0049
電球	-11.0049
のうちで	-11.0051
▁馬の	-11.0053
しまって	-11.0054
つば	-11.0055
の一番	-11.0056
トレ	-11.0057
はお	-11.0058
薬を	-11.0058
▁向こう	-11.0059
などのために	-11.0061
▁一時	-11.0062
一座	-11.0064
とめること	-11.0065
買って	-11.0065
の外	-11.0069
を忘れ	-11.007
候補	-11.0072
のあるもの	-11.0072
を敷く	-11.0074
年金	-11.0076
を傷つける	-11.0076
I	-11.0077
にあり	-11.0077
ようになっている	-11.0077
極めて	-11.0079
鋼鉄	-11.008
▁インフレ	-11.008
有毒	-11.0081
▁長期	-11.0083
攻撃する	-11.0084
土を	-11.0086
受け取る	-11.0088
▁受け	-11.0088
快楽	-11.0088
煮え	-11.0088
英語の	-11.0088
▁切	-11.0089
に終わる	-11.0089
▁空中	-11.0091
欲しい	-11.0093
だれか	-11.0093
だま	-11.0096
補助	-11.0096
吸	-11.0096
ヘ	-11.0096
たちまち	-11.0096
あだ	-11.0096
連れて	-11.0097
▁モ	-11.0099
を離れて	-11.0099
▁豆	-11.0104
見当	-11.0106
▁議会	-11.0106
は私に	-11.0111
強硬	-11.0111
動力	-11.0111
奉仕	-11.0111
闇	-11.0111
すね	-11.0113
▁城	-11.0114
一般の	-11.0114
▁この種の	-11.0117
▁地下	-11.0118
▁りんご	-11.0118
森林	-11.0121
軍艦	-11.0123
可	-11.0124
納得	-11.0126
競馬	-11.0127
ものはない	-11.0127
固体	-11.0128
に着いた	-11.013
▁机	-11.0131
記念	-11.0132
気風	-11.0132
の頭	-11.0133
二つ以上の	-11.0133
▁恐怖	-11.0134
心臓	-11.0137
乗客	-11.0137
品を	-11.0137
自分に	-11.0137
グラフ	-11.014
▁広く	-11.0143
じゃま	-11.0145
しそう	-11.0147
▁林	-11.0147
おさめ	-11.0148
▁彼は今	-11.0149
人類	-11.0149
つぶし	-11.0152
ちょっと電話かける	-11.0153
申し込み	-11.0157
分けること	-11.016
を捜す	-11.0162
▁給料	-11.0163
中国で	-11.0163
の出	-11.0165
まらない	-11.0167
がっている	-11.0168
は一	-11.0169
五十	-11.017
▁国家の	-11.017
選択	-11.0171
一方の	-11.0173
ーン	-11.0175
っていく	-11.0176
ちょっと送信	-11.0177
やけ	-11.0177
振る	-11.0179
▁勇	-11.0181
植える	-11.0182
水中	-11.0184
酸化	-11.0185
▁夕方	-11.0186
▁大衆	-11.0187
の三	-11.0187
三十	-11.0189
慕	-11.0189
その人の	-11.0192
かたい	-11.0193
美しいこと	-11.0194
言い分	-11.0196
認める	-11.0196
一人で	-11.0197
に満ちた	-11.0197
ll	-11.0198
添	-11.02
ップ	-11.02
ないでください	-11.0202
▁何となく	-11.0205
用に	-11.0206
いで	-11.0208
だれが	-11.0211
踊る	-11.0213
佐	-11.0213
面に	-11.0213
んでいた	-11.0213
あとから	-11.0218
ウイルス	-11.0219
な話	-11.0219
の準備	-11.0223
速さ	-11.0223
磁	-11.0225
醜	-11.0225
災	-11.0226
見えた	-11.0227
良心	-11.0228
維持	-11.0229
▁あれは	-11.0229
吉	-11.023
状態で	-11.0235
▁盛	-11.0235
▁たとえ	-11.0236
▁貸し	-11.0237
▁書物の	-11.0238
収集	-11.0238
たての	-11.0238
締まった	-11.0238
に思う	-11.0239
軌	-11.0239
洞	-11.0239
敏	-11.024
引用	-11.0241
節約	-11.0242
▁従	-11.0242
どうしても	-11.0242
ェ	-11.0242
演奏する	-11.0242
糧	-11.0244
惜	-11.0245
芳香	-11.0245
ようにすること	-11.0245
▁町の	-11.0245
燐	-11.0246
撮影	-11.0246
ふち	-11.0246
ッシュ	-11.0247
希	-11.0247
瞭	-11.0247
廃止	-11.0248
蓮	-11.0248
監視	-11.0248
旬	-11.0249
笠	-11.0249
資源	-11.0249
蛾	-11.0249
宵	-11.0249
椶	-11.0249
遍	-11.0249
北海道	-11.0249
動揺	-11.0249
柿	-11.0249
颪	-11.0249
鮓	-11.0249
桶	-11.0249
散らす	-11.0249
の持ち主	-11.025
領域	-11.025
を伴う	-11.025
漢方薬	-11.025
叩き	-11.025
警告	-11.0251
接触	-11.0251
徹底的に	-11.0251
討議	-11.0251
超過	-11.0251
直径	-11.0251
登録	-11.0251
ヒット	-11.0251
陽子	-11.0252
往来	-11.0253
カラー	-11.0253
弁舌	-11.0253
▁偶然	-11.0254
付近	-11.0254
を有する	-11.0254
石けん	-11.0254
炭素	-11.0255
運営	-11.0255
▁逃げ	-11.0255
やわらかい	-11.0255
戻す	-11.0255
を奪う	-11.0255
茶わん	-11.0256
の建物	-11.0256
飲んだ	-11.0263
出勤	-11.0264
を固める	-11.0265
自治	-11.0265
を伸ばす	-11.0265
上位	-11.0265
▁割	-11.0265
外観	-11.0266
変化する	-11.0268
雇用	-11.0268
▁この車は	-11.0269
会談	-11.027
るために	-11.0272
台風	-11.0272
煮た	-11.0273
▁車は	-11.0273
街道	-11.0274
正確な	-11.0276
質量	-11.0277
延べ	-11.0277
磁石	-11.0278
情熱	-11.0278
馴れ	-11.028
代表的な	-11.028
またその人	-11.0282
それをする人	-11.0284
赤ちゃん	-11.0284
を聞いた	-11.0284
フランス	-11.0285
▁ハイ	-11.0285
仕上げる	-11.0287
相違	-11.0289
客に	-11.029
刻み	-11.029
焦げ	-11.0291
に答える	-11.0293
切れる	-11.0293
はじめて	-11.0294
洗礼	-11.0295
ついに	-11.0297
中から	-11.0297
骨折り	-11.0299
山林	-11.0299
ぐっと	-11.0299
落葉	-11.0303
大使	-11.0303
山田	-11.0304
入りの	-11.0304
▁甲	-11.0305
の時に	-11.0306
地所	-11.0306
▁実験	-11.0307
名称	-11.0307
おうと	-11.0307
割引	-11.0309
出てきた	-11.0309
みつ	-11.0309
すわった	-11.0311
生計	-11.0313
取り上げる	-11.0315
馬車	-11.0316
麻薬	-11.0316
とった	-11.0317
現世	-11.0317
臭気	-11.0319
めぐり	-11.032
目的地	-11.0321
並べた	-11.0321
巧みな	-11.0322
並んで	-11.0327
が同じ	-11.0327
を支配する	-11.0334
を作って	-11.0336
栽培する	-11.0337
▁人民	-11.0338
▁人工	-11.0339
なくても	-11.0341
を増す	-11.0346
とされる	-11.0347
いかない	-11.0349
ばかな	-11.035
のしかた	-11.035
の第	-11.0351
に訴える	-11.0352
アン	-11.0352
土地を	-11.0352
ファン	-11.0353
に多く	-11.0354
巧みに	-11.0356
リスト	-11.0358
の病気	-11.036
マイ	-11.0361
ぐさ	-11.0361
長官	-11.0362
▁独	-11.0363
二十	-11.0363
▁競	-11.0364
▁可	-11.0365
精神的	-11.0365
▁わき	-11.0369
周囲に	-11.0372
▁ポ	-11.0372
ところを	-11.0373
▁どうすれば	-11.0373
するもの	-11.0375
▁医者	-11.0381
を得て	-11.0384
まっすぐ	-11.0391
正式に	-11.0392
法定	-11.0394
を組む	-11.0394
添え	-11.0395
▁しゅ	-11.0397
意地悪	-11.0397
▁大勢	-11.0398
は非常に	-11.04
た人	-11.0403
▁ホームヘルパー	-11.0403
▁うまく	-11.0405
▁新たに	-11.0407
▁熟	-11.0408
▁トランプ	-11.0409
関数	-11.0409
▁おお	-11.0414
へりくだって言う語	-11.0414
登	-11.0415
支払う	-11.0415
▁乗り	-11.0415
▁飛行機	-11.0416
去った	-11.0416
直接に	-11.0417
香気	-11.0422
うる	-11.0423
▁高い	-11.0424
もとになる	-11.0424
金の	-11.0428
▁折	-11.0428
追放	-11.0432
すら	-11.0432
に従事する	-11.0438
乗り物	-11.0439
を寄せる	-11.0439
伸びる	-11.044
作ったもの	-11.0442
たたく	-11.0443
立ち去る	-11.0444
っちゃ	-11.0446
昇進	-11.0446
ものであること	-11.0447
服従	-11.0448
議事	-11.045
先が	-11.0451
剥	-11.0452
ふさが	-11.046
押して	-11.0462
かわい	-11.0466
窓から	-11.0466
トロ	-11.0467
▁猛	-11.0469
くさい	-11.0469
ように見える	-11.0469
うんざり	-11.0474
等しい	-11.0475
地下	-11.0476
報い	-11.0477
覚えている	-11.0482
呼	-11.0482
我々を	-11.0483
斜面	-11.0484
煮る	-11.0487
ことには	-11.0489
動脈	-11.049
バイ	-11.049
返る	-11.0491
▁裁判	-11.0491
と言い	-11.0492
まち	-11.0493
誘惑	-11.0494
を振る	-11.0496
似た	-11.0497
▁近代	-11.0502
はだめだ	-11.0504
たまった	-11.0507
▁夏の	-11.0508
▁ユ	-11.0512
▁水上	-11.0512
物音	-11.0513
を隠す	-11.0516
要点	-11.0516
の形式	-11.0516
▁ぶどう	-11.0517
さまざま	-11.0518
再生	-11.0519
▁あの人の	-11.0521
25	-11.0522
共同	-11.0524
▁プロ	-11.0525
変わらない	-11.0528
このごろ	-11.053
▁掛け	-11.0531
▁わが国	-11.0533
▁実際の	-11.0533
の意見	-11.0534
キリスト	-11.0535
ばかりで	-11.0536
ためしに	-11.0537
依頼	-11.0538
▁川の	-11.0539
下り	-11.054
▁軍事	-11.054
▁幼	-11.0543
▁はっきりと	-11.0546
守ること	-11.0548
▁標準	-11.055
▁堅	-11.0551
わずかな	-11.0551
償	-11.0554
▁英語の	-11.0556
浜	-11.0557
▁悲しみ	-11.0557
タイプ	-11.0559
ぶつ	-11.056
を持たない	-11.0561
粗末な	-11.0563
▁孫	-11.0563
誕生日	-11.0563
膝	-11.0564
礼拝	-11.0565
に働く	-11.0565
危	-11.0565
礼儀	-11.0566
貧困	-11.0566
を見つける	-11.0566
▁速	-11.0566
小道	-11.0568
禅	-11.0571
お世辞	-11.0571
▁何の	-11.0571
昼食	-11.0572
仙	-11.0573
総合	-11.0574
を忘れる	-11.0575
そく	-11.0576
恋愛	-11.0577
巨	-11.0577
ちょうどよい	-11.0577
文芸	-11.0579
対抗	-11.0579
を詰める	-11.0581
ある人	-11.0581
▁沈	-11.0583
暴力	-11.0586
▁古代	-11.0587
規	-11.0589
透	-11.059
出さない	-11.0592
生える	-11.0593
隔	-11.0594
飾る	-11.0598
用事	-11.06
▁上着	-11.0602
気づか	-11.0603
▁猫は	-11.0603
刑事	-11.0604
出世	-11.0604
発生する	-11.0606
蒸気	-11.0608
舞い	-11.0608
スキー	-11.0608
ゼ	-11.0609
▁羽	-11.061
▁全体	-11.0612
すぐに電話かける	-11.0614
▁彼は病気	-11.0615
複雑	-11.0615
合併	-11.0617
万物	-11.0618
許す	-11.0618
金を使う	-11.0618
▁準	-11.0619
借りた	-11.0623
つくった	-11.0623
をあけて	-11.0624
何度も	-11.0625
を貸す	-11.0625
賛	-11.0627
▁貧	-11.063
続け	-11.0631
▁ほかの	-11.0632
ジャ	-11.0634
▁食糧	-11.0634
制服	-11.0636
長所	-11.0637
▁まったくの	-11.0638
あな	-11.0639
▁商品	-11.0639
数の	-11.0641
巻く	-11.0644
拠	-11.0645
▁すべての	-11.0646
の身	-11.0646
してくれる	-11.0648
つかない	-11.0648
儒	-11.0649
うわべ	-11.065
死体	-11.065
死を	-11.0651
斜	-11.0652
のではない	-11.0653
なくてはならない	-11.0654
伝えること	-11.0655
▁me	-11.0656
の中には	-11.0656
▁人種	-11.0656
▁からだ	-11.0657
偶	-11.0657
なしで	-11.0657
一文	-11.0659
側面	-11.0659
団結	-11.0659
僚	-11.0659
鑑	-11.0659
河川	-11.066
兆	-11.066
模範	-11.0661
括	-11.0661
江	-11.0662
邸	-11.0663
▁it	-11.0663
れんが	-11.0664
サラダ	-11.0664
石灰	-11.0664
をちょっと	-11.0665
誌	-11.0665
開始	-11.0665
を祝う	-11.0665
櫃	-11.0665
詐欺	-11.0665
疑わしい	-11.0666
督	-11.0666
ゾ	-11.0666
嵐	-11.0666
適応	-11.0666
鷲	-11.0666
にもかかわらず	-11.0666
唾	-11.0666
佳	-11.0666
屑	-11.0666
落ち着かない	-11.0666
鮗	-11.0666
せっけん	-11.0666
余裕	-11.0666
広がり	-11.0666
拒絶	-11.0667
採決	-11.0667
思慮	-11.0667
移植	-11.0667
供養	-11.0667
土壌	-11.0667
冷却	-11.0667
天地	-11.0667
審理	-11.0667
断わる	-11.0667
プール	-11.0667
麻酔	-11.0668
起訴	-11.0668
▁値段	-11.0668
を高める	-11.0668
▁フランス	-11.0669
ダム	-11.0669
詳しい	-11.0669
陣営	-11.0669
弁当	-11.0669
談判	-11.067
セ氏	-11.067
の成績	-11.067
感想	-11.067
ならわし	-11.067
定まった	-11.0671
諸島	-11.0671
推論	-11.0672
追跡	-11.0672
配給	-11.0673
▁信用	-11.0673
まともに	-11.0673
指示	-11.0674
間に合う	-11.0674
科の鳥	-11.0675
色彩	-11.0675
ペンス	-11.0676
何時間も	-11.0676
共有	-11.0676
▁葉	-11.0677
祖先	-11.0677
画像	-11.0677
けれども	-11.0677
働いている	-11.0677
までの間	-11.0678
▁魔	-11.0678
▁借金	-11.0679
▁竜	-11.068
を振るう	-11.068
一心に	-11.0681
善悪	-11.0683
中国原産	-11.0683
食べて	-11.0684
日付	-11.0684
自在	-11.0684
奥さん	-11.0685
どうやって	-11.0686
なぜ	-11.0688
気象	-11.0688
外国人	-11.069
校長	-11.0691
設ける	-11.0695
毛布	-11.0696
▁相撲	-11.0699
やってくる	-11.0699
一気に	-11.0699
氏名	-11.0701
早春	-11.0703
かせ	-11.0704
料理屋	-11.0704
▁干	-11.0706
親しい	-11.0707
は我々	-11.0707
に乏しい	-11.0708
重なる	-11.0708
金は	-11.0708
かぎり	-11.071
を過ごす	-11.0711
に向けて	-11.0712
は必ず	-11.0712
こな	-11.0712
一族	-11.0715
ねらい	-11.0715
責め	-11.0716
破り	-11.0722
交差	-11.0722
スク	-11.0723
パス	-11.0723
を犯す	-11.0725
▁液体	-11.0725
くれませんか	-11.0725
あける	-11.0725
▁手紙を	-11.0726
木の枝	-11.0727
酸性	-11.073
音を立てる	-11.0731
子孫	-11.0732
▁男の	-11.0734
巻いた	-11.0735
になるもの	-11.0736
ar	-11.0736
出ている	-11.0736
▁壁に	-11.0737
用法	-11.0738
落とした	-11.0741
存する	-11.0741
大事に	-11.0743
▁やっと	-11.0743
は彼が	-11.0748
▁次	-11.075
発車	-11.075
▁ろう	-11.0751
どうした	-11.0752
▁海外	-11.0753
両面	-11.0753
だけだった	-11.0755
の一人	-11.0756
退く	-11.0758
成り	-11.076
専門家	-11.076
▁二つ以上の	-11.0762
▁賃金	-11.0763
代わりに	-11.0763
▁キリスト教	-11.0763
ご親切	-11.0767
やってみ	-11.0767
遠くまで	-11.0769
肉体	-11.0769
するだろう	-11.077
テレビで	-11.0771
建てた	-11.0772
▁笑い	-11.0772
ガン	-11.0774
の少ない	-11.0776
公正	-11.0777
ざる	-11.0782
とかく	-11.0782
飲み物	-11.0784
去ること	-11.0786
▁以前	-11.0786
▁機会	-11.0786
▁彼らが	-11.0787
▁その計画は	-11.0789
すわり	-11.0789
定めること	-11.079
流す	-11.0794
を消す	-11.0795
は君	-11.0795
国民の	-11.0796
▁市場	-11.0799
▁観	-11.0802
ーション	-11.0802
締	-11.0804
口調で	-11.0804
ぬけ	-11.0806
所がある	-11.081
もく	-11.0811
合金	-11.0812
▁この仕事は	-11.0813
当地	-11.0813
全面	-11.0814
の布	-11.0814
▁子供を	-11.0814
学校で	-11.0815
できません	-11.0816
そこまで	-11.0817
▁そいつは	-11.082
▁奉	-11.0821
太く	-11.0822
▁人気	-11.0823
字形	-11.0824
▁天皇が	-11.0826
▁早く	-11.083
子供が	-11.0831
割合	-11.0831
暗やみ	-11.0832
▁あす	-11.0833
をひどく	-11.0833
差し出す	-11.0833
▁食卓	-11.0834
は私には	-11.0834
個人の	-11.0837
▁年の	-11.0837
▁水泳	-11.0838
を置いて	-11.084
を言い	-11.0841
藤	-11.0841
きたない	-11.0843
メッセをいまから	-11.0843
▁強い	-11.0846
を聞き	-11.0851
を覆う	-11.0851
帰って	-11.0852
▁踏み	-11.0852
▁君たち	-11.0852
しています	-11.0855
an	-11.0856
新年	-11.0857
大体の	-11.0857
に見	-11.0858
太り	-11.0858
▁風は	-11.0862
▁晩	-11.0862
純粋	-11.0863
▁国会	-11.0863
▁汗	-11.0864
停車	-11.0865
対等	-11.0869
故	-11.0869
ほし	-11.0869
逃	-11.0872
▁売	-11.0873
アメリカ人	-11.0874
の妻	-11.0875
ひた	-11.0875
に耐える	-11.0878
▁中国の	-11.0879
ずり	-11.0879
が激しく	-11.088
憲	-11.0882
▁本を	-11.0884
▁飛	-11.0886
受け入れる	-11.0888
▁全部	-11.0888
魚の	-11.0888
▁費用	-11.0888
遇	-11.0891
いすに	-11.0893
腫	-11.0894
いれる	-11.0896
▁筋肉	-11.0896
▁ほう	-11.0897
家で	-11.0897
れていた	-11.0901
狭く	-11.0903
▁兄	-11.0904
社会主義	-11.0904
千人	-11.0907
に当たった	-11.0914
安く	-11.0917
を伝える	-11.0918
目下	-11.0919
にわか	-11.0922
と思っていた	-11.0923
がいる	-11.0932
に直接	-11.0932
ものを言う	-11.0933
近づく	-11.0934
抜け出	-11.0943
離れた	-11.0944
真の	-11.0945
品位	-11.0946
もって	-11.0947
▁ボ	-11.0949
▁中央	-11.0951
▁食事	-11.0951
枯	-11.0952
▁張り	-11.0952
レン	-11.0952
おち	-11.0953
意を表す	-11.0955
喜	-11.0956
▁ある人	-11.0957
―	-11.0958
されていない	-11.096
学ぶ	-11.096
争うこと	-11.0961
▁助	-11.0963
をもった	-11.0964
▁勢い	-11.0966
ボートを	-11.0967
▁順序	-11.0968
毛織物	-11.0968
マス	-11.0969
務め	-11.0971
と言っても	-11.0972
直すこと	-11.0974
いか	-11.0974
かけら	-11.0974
▁そんなことは	-11.0975
▁会員	-11.0976
▁推	-11.0983
焼いて	-11.0983
▁雪が	-11.0984
腕に	-11.0985
苦心	-11.0989
すわって	-11.0991
▁ちょっとメッセを	-11.0993
顧	-11.0994
間を	-11.0995
調節	-11.0996
他国	-11.1
本来の	-11.1003
多いこと	-11.1003
学説	-11.1004
図書	-11.1006
を振り	-11.1009
ぜいたく	-11.1011
テレビの	-11.1012
いれ	-11.1013
にふさわしい	-11.1014
▁産	-11.1015
求める	-11.1016
痛む	-11.1016
▁時計を	-11.102
を始めた	-11.102
ってくれ	-11.1021
▁お医者	-11.1025
工作	-11.1028
▁だれかが	-11.1029
すべり	-11.1029
▁皇	-11.1031
たって	-11.1031
▁□・	-11.1032
遅く	-11.1032
を催す	-11.1034
▁カーテン	-11.1035
わずかの	-11.1035
at	-11.1036
硬	-11.1038
統計	-11.104
三人	-11.104
▁三角	-11.1042
故郷	-11.1044
民衆	-11.1045
▁うわさ	-11.1045
▁ペン	-11.1046
▁強く	-11.1046
初期	-11.1046
家事	-11.1048
指で	-11.105
の法則	-11.105
頬	-11.105
拙	-11.1051
お辞儀	-11.1051
傍	-11.1052
電信	-11.1052
を引き起こす	-11.1052
井戸	-11.1052
▁うそ	-11.1054
気持が	-11.1055
賞賛	-11.1055
充	-11.1056
弁解	-11.1058
担当	-11.1058
楽に	-11.1059
の命令	-11.106
トンネル	-11.1061
りょう	-11.1061
▁特別に	-11.1061
学期	-11.1061
陸軍	-11.1062
仏像	-11.1064
光の	-11.1065
の高さ	-11.1065
うそつき	-11.1068
をしない	-11.1068
▁鉛筆	-11.1069
役割	-11.1069
▁大声で	-11.1072
▁子供の	-11.1072
まっている	-11.1072
▁拝	-11.1072
返り	-11.1073
患	-11.1073
▁ねじ	-11.1076
遅刻	-11.1077
異議	-11.1077
みせ	-11.1078
漆	-11.108
真偽	-11.1081
就	-11.1081
世に	-11.1082
告げ	-11.1082
▁手紙	-11.1083
寿	-11.1083
一生懸命	-11.1085
教室	-11.1085
を表す語	-11.1086
川の	-11.1086
巾	-11.1088
▁照	-11.1088
パーティーに	-11.1089
架	-11.1089
及	-11.1089
面から	-11.109
もてなす	-11.1091
謡	-11.1091
ままで	-11.1091
援	-11.1092
かかっている	-11.1092
食物を	-11.1092
▁不思議な	-11.1093
釈	-11.1093
規準	-11.1094
ヨット	-11.1094
為替	-11.1095
▁手紙の	-11.1097
改良	-11.1098
頻	-11.1098
意思	-11.1098
えている	-11.1098
己	-11.1099
諾	-11.1099
浩	-11.1099
辱	-11.1099
社会の	-11.11
省略	-11.11
篤	-11.11
▁休暇	-11.11
糊	-11.11
オランダ	-11.11
配偶者	-11.11
に適した	-11.11
蟻	-11.11
ヲ	-11.11
撫	-11.11
ジョーンズ	-11.11
疲労	-11.11
鮨	-11.11
センター	-11.1101
焦点	-11.1101
茶碗	-11.1101
宣誓	-11.1101
プログラム	-11.1101
こつこつ	-11.1101
俸給	-11.1101
稽古	-11.1101
ぼろぼろ	-11.1101
暖房	-11.1101
企画	-11.1101
開閉	-11.1101
やかましい	-11.1102
起伏	-11.1102
感染	-11.1102
ダブル	-11.1102
チュ	-11.1102
1000	-11.1102
ジャック	-11.1102
▁捨て	-11.1102
返答	-11.1103
融通	-11.1103
住居	-11.1103
助かる	-11.1103
迷信	-11.1103
ほほえみ	-11.1103
水晶	-11.1103
法人	-11.1103
孝行	-11.1103
弦楽器	-11.1103
宮殿	-11.1103
給仕	-11.1103
肺炎	-11.1103
羽織	-11.1103
航路	-11.1104
しきたり	-11.1104
敗北	-11.1104
暴風雨	-11.1104
たいへん	-11.1104
バンド	-11.1104
わがまま	-11.1104
測量	-11.1105
講師	-11.1105
に基づく	-11.1105
英語を話す	-11.1106
あわてて	-11.1106
学識	-11.1106
牧師	-11.1107
道ばた	-11.1108
▁酒を	-11.1108
旅館	-11.1108
集める	-11.1108
別称	-11.1109
女優	-11.1109
およそ	-11.1109
握手	-11.111
の祝い	-11.111
熱狂	-11.111
寂しい	-11.111
すこし	-11.111
警報	-11.111
▁少年	-11.1112
特性	-11.1113
樹皮	-11.1114
うちわ	-11.1115
南部	-11.1115
を離れる	-11.1116
同じであること	-11.1116
高等	-11.1117
領地	-11.1117
▁金属	-11.1118
複数	-11.1119
艦船	-11.112
うまくいった	-11.112
を言った	-11.112
微妙な	-11.1121
▁相手に	-11.1121
▁私は彼に	-11.1121
神秘	-11.1121
退職	-11.1122
大切	-11.1126
うた	-11.1127
化石	-11.1127
来月	-11.1127
判事	-11.1128
合わせること	-11.113
ことがない	-11.113
側に	-11.113
小銃	-11.113
好機	-11.1131
▁精神的	-11.1131
万ドル	-11.1131
二階	-11.1133
▁重い	-11.1134
ずること	-11.1134
あす	-11.1134
てもらいたい	-11.1137
案外	-11.1138
同様	-11.1141
済む	-11.1142
あえ	-11.1144
▁陸軍	-11.1145
必要である	-11.1145
不快	-11.1145
試	-11.1148
寄	-11.115
努力して	-11.115
の場合	-11.1151
指名	-11.1151
▁頭を	-11.1151
▁伝	-11.1152
香り	-11.1152
んぼ	-11.1152
紅葉	-11.1152
ふるい	-11.1157
よみ	-11.1163
それとも	-11.1164
ぬれ	-11.1166
を越える	-11.1167
水辺	-11.1167
やること	-11.1169
・△	-11.117
体質	-11.117
時に使う	-11.1171
むり	-11.1174
▁ぼく	-11.1174
体つき	-11.1174
発達した	-11.1177
通話	-11.1179
疲れる	-11.1179
暖か	-11.118
染色	-11.1181
足の	-11.1181
変わる	-11.1182
を要する	-11.1182
外国から	-11.1184
はしご	-11.1185
かぶり	-11.1186
を強めて言う	-11.1187
なのか	-11.1189
与えられる	-11.1192
組み合わせ	-11.1193
て行く	-11.1193
設け	-11.1194
関係がある	-11.1195
むやみに	-11.1195
ホームヘルパー	-11.1195
会見	-11.1196
頑	-11.1199
めい	-11.1201
につくこと	-11.1202
てゆく	-11.1202
の根	-11.1203
の便	-11.1206
おこす	-11.1206
何度	-11.121
波が	-11.1212
にせ	-11.1214
手紙を書く	-11.1215
を与えて	-11.1218
問題だ	-11.1225
全体が	-11.1225
ブレーキ	-11.1229
ばく	-11.1229
言論	-11.123
▁二人	-11.1231
鬚垢	-11.1233
果実は	-11.1237
万事	-11.1238
回って	-11.1241
▁隣	-11.1242
使用する	-11.1245
重さ	-11.1246
席を	-11.1249
張って	-11.125
二人の	-11.125
▁八	-11.1253
▁偽	-11.1254
▁浄	-11.1254
漫画	-11.1254
いろいろと	-11.1254
信者	-11.1255
ずれ	-11.1257
▁ちょっと電話かける	-11.1261
意外	-11.1263
けり	-11.1263
教える	-11.1264
動くこと	-11.1264
外へ	-11.1266
形成	-11.1266
結婚した	-11.1268
▁つい	-11.1268
▁蹴	-11.1271
▁一年	-11.1271
▁月が	-11.1274
大勢の	-11.1274
いません	-11.1274
に代わって	-11.1274
▁平均	-11.1275
群がって	-11.1275
クラスの	-11.1276
▁ここは	-11.1276
▁in	-11.1279
うしろ	-11.1279
を示した	-11.128
まかせ	-11.1282
をひく	-11.1282
▁彼女は彼に	-11.1284
バン	-11.1285
キス	-11.1288
ボン	-11.1288
前線	-11.1288
に通じ	-11.1288
整理する	-11.129
を受けている	-11.129
の形に	-11.1292
▁列	-11.1295
からぬ	-11.1296
いり	-11.1297
▁いなか	-11.1298
ほめる	-11.1298
▁凡	-11.1299
▁博	-11.1301
の先に	-11.1305
▁逸	-11.1306
時半	-11.1306
考えた	-11.1307
茶色の	-11.1307
の時代	-11.131
es	-11.1313
あれこれ	-11.1315
を大きく	-11.1317
たびに	-11.1317
これが	-11.1317
▁田舎	-11.1318
ふな	-11.1321
帰った	-11.1321
▁攻撃	-11.1325
を変えること	-11.1334
慎重に	-11.1335
苗	-11.1337
繰り返して	-11.1338
産の	-11.1345
意を表す語	-11.1345
▁宣伝	-11.1347
よけ	-11.1348
▁シャ	-11.1349
守備	-11.135
文を	-11.135
につけた	-11.1351
のように見える	-11.1352
少数	-11.1352
に似る	-11.1356
に向かう	-11.1356
荷車	-11.1358
▁ぜひ	-11.1359
は日本	-11.1359
本式	-11.136
▁予備	-11.1361
天然	-11.1363
完全	-11.1363
面倒	-11.1363
働きをする	-11.1365
が終わる	-11.1366
▁宝	-11.1366
いかに	-11.1368
骨折	-11.1368
そなえ	-11.1374
いても	-11.1375
効力	-11.1377
▁ドイツ	-11.138
▁イエス	-11.1381
嫌いだ	-11.1382
▁彼はよく	-11.1384
の幅	-11.1385
▁島	-11.1386
を広げる	-11.1386
十字	-11.1388
▁そこに	-11.1391
を並べて	-11.1391
一等	-11.1391
染	-11.1391
出ない	-11.1394
▁四つ	-11.1394
文字を	-11.1395
いやだ	-11.1395
▁建物の	-11.1395
の動物	-11.1396
一対	-11.1396
対立する	-11.1398
けつ	-11.1398
サイ	-11.1399
芸人	-11.14
不法	-11.1401
向く	-11.1402
医者に	-11.1402
人工	-11.1402
心中	-11.1402
確かめ	-11.1402
サン	-11.1403
作文	-11.1403
ゆっくりと	-11.1404
▁授業	-11.1405
酒を	-11.1407
行きの	-11.1408
▁頭の	-11.1409
耳を	-11.1411
るようにする	-11.1411
よくなる	-11.1416
ラム	-11.1417
こび	-11.1417
▁第一	-11.1417
▁皮	-11.142
載せる	-11.142
座る	-11.1421
▁陰暦	-11.1422
貧しい	-11.1423
を流す	-11.1423
保つ	-11.1424
海面	-11.1425
の雨	-11.1426
現れる	-11.1426
送ること	-11.1428
に分ける	-11.1429
るもの	-11.1429
をあける	-11.1429
車に	-11.1429
とれた	-11.143
▁ミ	-11.1431
卵を	-11.1431
辛	-11.1432
食事をする	-11.1434
▁フォ	-11.1434
下着	-11.1435
利き	-11.1435
優劣	-11.144
吐き	-11.1442
つもりで	-11.1442
報告書	-11.1445
むだな	-11.1446
をやめて	-11.1447
▁引っ	-11.1449
▁今度	-11.145
総計	-11.1452
当選	-11.1452
en	-11.1453
▁夫	-11.1453
▁彼は金	-11.1456
さを	-11.1458
加える	-11.1458
つぐ	-11.1459
▁静	-11.1459
先端	-11.1461
▁賞	-11.1463
のがれ	-11.1465
零	-11.1468
変な	-11.147
ことのできる	-11.1472
でん	-11.1473
たりすること	-11.1473
詩文	-11.1474
はやり	-11.1474
▁六	-11.1474
起こること	-11.1474
▁7	-11.1475
長い間	-11.1476
出発する	-11.1476
おそ	-11.1478
押さえ	-11.1478
▁何でも	-11.1479
がさ	-11.148
を組んで	-11.148
テン	-11.1484
探検	-11.1484
驚	-11.1488
家畜	-11.1489
三角	-11.1492
斬	-11.1493
のかたまり	-11.1493
そのための	-11.1493
ィ	-11.1493
ショートメッセージを送信	-11.1493
を見つけた	-11.1497
すべ	-11.1497
つもりです	-11.15
のほかに	-11.15
事件を	-11.15
止ま	-11.15
決まった	-11.15
るところ	-11.1502
堀	-11.1502
慈悲	-11.1506
催し	-11.1507
の世話をする	-11.1507
ショートメッセージをすぐに	-11.1514
の口	-11.1515
▁粘土	-11.1515
の内側	-11.1517
▁巡	-11.152
都会	-11.152
しだ	-11.1521
で見る	-11.1521
救	-11.1522
熱病	-11.1525
掃	-11.1526
▁気の	-11.1527
につけて	-11.1527
気配	-11.1529
w	-11.1529
▁返	-11.153
とがめ	-11.153
和服	-11.1532
殺すこと	-11.1532
なければいけない	-11.1532
ひろ	-11.1533
▁人は	-11.1533
惑星	-11.1536
を運ぶ	-11.1537
鼠	-11.1538
徹底	-11.1538
好奇心	-11.1538
のうわさ	-11.1539
▁みかん	-11.154
会計	-11.154
英語で	-11.154
そちら	-11.1541
▁香	-11.1541
▁警察は	-11.1544
署	-11.1545
厭	-11.1545
▁梅	-11.1545
豪	-11.1546
淫	-11.1547
口をきく	-11.1547
商店	-11.1548
祈り	-11.1549
教養	-11.1549
怨	-11.1549
おば	-11.1549
億	-11.1549
衛生	-11.1549
険	-11.155
卑	-11.155
幣	-11.155
慣習	-11.1551
泊まる	-11.1551
妊娠	-11.1551
純	-11.1552
堕落	-11.1553
着物の	-11.1553
劼	-11.1553
酌	-11.1553
貧	-11.1553
寛	-11.1554
痴	-11.1554
渇	-11.1554
粛	-11.1554
発揮	-11.1554
妓	-11.1554
撰	-11.1554
はなはだしい	-11.1554
熟練	-11.1554
営利	-11.1555
糠	-11.1555
錫	-11.1555
チェス	-11.1555
プラス	-11.1555
鞍	-11.1555
廚	-11.1555
システム	-11.1555
叉	-11.1555
恐ろしさ	-11.1555
慾	-11.1555
杭	-11.1555
を汚す	-11.1555
讚	-11.1555
蝕	-11.1555
×	-11.1555
じゃがいも	-11.1555
キツネ	-11.1555
チャンス	-11.1555
ワイシャツ	-11.1555
久子さん	-11.1555
斉藤さん	-11.1555
葦	-11.1555
平安時代	-11.1555
January	-11.1555
▁船舶	-11.1555
瓜	-11.1555
狐	-11.1555
おもむき	-11.1555
セールスマン	-11.1555
ひたすら	-11.1555
審査	-11.1555
措置	-11.1555
簡易	-11.1555
燃焼	-11.1555
スケート	-11.1555
強制	-11.1555
摩擦	-11.1556
ソース	-11.1556
形容詞	-11.1556
▁何も	-11.1556
工芸	-11.1556
救済	-11.1556
あやまち	-11.1556
装備	-11.1556
類似	-11.1557
ユ	-11.1557
防衛	-11.1557
雨が降る	-11.1557
まあまあ	-11.1557
砂漠	-11.1557
あやしい	-11.1557
▁その船は	-11.1558
著しい	-11.1558
冷淡	-11.1558
武装	-11.1558
情緒	-11.1559
にかなった	-11.1559
▁去年	-11.1559
コール	-11.1559
雌雄	-11.156
視野	-11.156
調理	-11.156
々しく	-11.156
電池	-11.156
円満	-11.1561
造った	-11.1561
建造物	-11.1564
各自	-11.1564
辞任	-11.1565
漬物	-11.1565
空港	-11.1565
▁観光	-11.1568
一日中	-11.1568
お医者さん	-11.1568
おとな	-11.1568
雄弁	-11.1569
コップ	-11.1569
一時的に	-11.157
倫理	-11.1571
いまから電話かける	-11.1571
平たく	-11.1571
▁実際に	-11.1571
不機嫌	-11.1572
▁朱	-11.1572
裂く	-11.1572
伴奏	-11.1573
どころか	-11.1573
たとえば	-11.1574
▁彼らは彼を	-11.1574
偉い	-11.1574
明美	-11.1575
さつ	-11.1576
食塩	-11.1578
統治	-11.1578
が変わる	-11.1578
道義	-11.158
海軍	-11.158
▁長い間	-11.1581
人員	-11.1583
流通	-11.1584
浴び	-11.1584
どれほど	-11.1587
▁芝居	-11.1587
育てる	-11.1587
悲し	-11.1588
驚いて	-11.1588
個ある	-11.1589
▁蛇	-11.1589
光沢	-11.159
▁鉱山	-11.159
月給	-11.159
続いている	-11.159
伏せ	-11.1592
組んだ	-11.1592
で話す	-11.1592
経文	-11.1593
申し立て	-11.1594
自分たち	-11.1596
へたな	-11.1598
打った	-11.1599
出来る	-11.1599
を養う	-11.16
▁たん	-11.16
ステ	-11.16
含み	-11.1601
▁彼は自分が	-11.1603
記憶力	-11.1603
半分に	-11.1604
批評家	-11.1605
毛糸	-11.1606
偽り	-11.1606
はだれも	-11.1607
もっともな	-11.1607
協会	-11.1608
ぞう	-11.1608
こじき	-11.161
所在	-11.161
▁そら	-11.1612
延び	-11.1613
見張り	-11.1613
課税	-11.1615
の内部	-11.1615
▁あの男	-11.1615
刊行	-11.1616
▁彼女はいつも	-11.1616
へた	-11.1617
わが国	-11.1617
▁夜の	-11.1619
とめ	-11.162
が多くて	-11.1621
向上	-11.1622
なんと	-11.1624
いも	-11.1626
▁手を	-11.1626
書かれた	-11.1628
戦線	-11.1628
その本を	-11.163
をねらって	-11.1634
万人	-11.1635
おかね	-11.1635
目盛り	-11.1636
▁彼女は夫	-11.1636
の壁	-11.1637
認め	-11.1637
現金	-11.1639
現状	-11.1639
▁トラック	-11.164
居る	-11.1641
数える	-11.1641
ーター	-11.1642
を打って	-11.1643
24	-11.1644
が弱い	-11.1645
動物の	-11.1647
▁本の	-11.1648
ところです	-11.1649
荒れ	-11.1649
捨て	-11.1651
っけ	-11.1652
の立場	-11.1653
不快な	-11.1653
▁凍	-11.1655
賢い	-11.1655
▁高く	-11.1655
手腕	-11.1657
▁海岸	-11.1658
うるさく	-11.1659
お話し	-11.1661
彼にとって	-11.1662
▁この本	-11.1662
関係にある	-11.1662
つくこと	-11.1663
▁be	-11.1667
科の哺乳動物	-11.1667
集まった	-11.1669
▁主人	-11.1669
話に	-11.1671
客が	-11.1673
▁欠	-11.1676
離す	-11.1676
しすぎる	-11.1677
魚類	-11.1678
▁漢字	-11.168
▁今から	-11.168
行進	-11.1682
こも	-11.1685
書類を	-11.1686
本人	-11.1686
▁染め	-11.1687
▁遅	-11.1687
の練習	-11.1688
へと	-11.169
耐え	-11.169
目玉	-11.1692
の群れ	-11.1693
武家	-11.1693
▁法廷	-11.1696
宿屋	-11.1697
▁彼はなかなか	-11.1699
愛する	-11.1702
なき	-11.1705
にできる	-11.1709
をまく	-11.1713
固定	-11.1716
でございます	-11.1718
世界の	-11.1718
離れない	-11.1718
性的	-11.1723
を残す	-11.1724
いたり	-11.1724
▁誤	-11.1726
▁付け	-11.1732
特別な	-11.1733
行きたい	-11.1739
▁アメリカの	-11.1741
忘れる	-11.1744
は少しも	-11.1745
▁行政	-11.1746
▁寒さ	-11.1747
が欲しい	-11.1747
心得	-11.1749
寝ること	-11.1749
改め	-11.175
後ろから	-11.175
を免れる	-11.175
▁あなたに	-11.1753
まわし	-11.1759
▁登	-11.1761
主体	-11.1763
ふし	-11.1763
▁ここで	-11.1763
▁高級	-11.1763
の転	-11.1764
をつかさどる	-11.1765
働か	-11.1767
楽な	-11.177
を張って	-11.1773
の全	-11.1775
に変える	-11.1781
を助け	-11.1786
売ること	-11.1787
導体	-11.1788
ロック	-11.1788
飛行機の	-11.1788
二本の	-11.1788
りません	-11.1791
は少し	-11.1791
▁野菜	-11.1792
の表面に	-11.1792
は何ですか	-11.1795
▁山野に自生	-11.1797
と考えた	-11.1798
身につける	-11.1798
共通	-11.1799
狂い	-11.1801
をたてる	-11.1804
▁階段	-11.1806
江戸時代	-11.1807
向いて	-11.1807
競売	-11.1807
▁ぼ	-11.1808
無言	-11.1809
一度に	-11.1811
煮て	-11.1813
▁注文	-11.1816
などについて	-11.1816
逮捕	-11.1817
▁できるだけ	-11.1817
▁冷たい	-11.1818
絵を	-11.1818
極め	-11.1818
りますか	-11.182
のこ	-11.1822
約一	-11.1823
防御	-11.1826
死の	-11.1826
てき	-11.1826
規律	-11.1827
貴族	-11.1828
▁体の	-11.1832
感じられる	-11.1832
にも使う	-11.1832
▁ビ	-11.1832
昔から	-11.1832
の四	-11.184
▁すぐにメッセ	-11.1841
だけが	-11.1842
▁海底	-11.1843
▁美術	-11.1845
づかい	-11.1845
▁毎	-11.1846
貴人の	-11.1847
庭に	-11.1847
さじ	-11.1848
▁病気の	-11.1853
▁難	-11.1853
有罪	-11.1856
澈	-11.1859
▁輸出	-11.1864
▁ごみ	-11.1867
▁何もかも	-11.187
▁オリンピック	-11.187
をさし	-11.1872
悦	-11.1873
を強く	-11.1873
▁それは君の	-11.1875
とがある	-11.1876
眼球	-11.1877
▁税金	-11.1878
▁艶	-11.188
▁針	-11.188
消息	-11.1881
先生は	-11.1883
▁歳の	-11.1884
▁投票	-11.1885
ておいた	-11.1885
挑戦	-11.1887
に強い	-11.1888
▁書物	-11.1895
ささ	-11.1895
▁馬に	-11.1897
生じた	-11.1901
はすぐ	-11.1903
机の上に	-11.1904
を尽くす	-11.1904
機関車	-11.191
と思い	-11.191
▁フランス語	-11.1914
降って	-11.1915
▁追い	-11.1916
us	-11.1921
▁十分に	-11.1921
空き	-11.1923
▁不幸	-11.1923
の原因	-11.1924
隔て	-11.1926
▁閉	-11.1926
チン	-11.1926
初めの	-11.1927
▁遠慮	-11.1927
続いた	-11.193
心の中	-11.193
励	-11.1931
していないこと	-11.1932
▁英国の	-11.1936
鉄の	-11.1937
保守	-11.1941
▁パーティー	-11.1942
▁財政	-11.1943
皮膚が	-11.1946
熱帯	-11.1947
を決め	-11.1948
くらいの	-11.1948
吸収	-11.1948
の巣	-11.195
うえ	-11.1951
緑色の	-11.1952
宣言	-11.1956
すぐれて	-11.1958
平気で	-11.1959
蒼	-11.1961
健康に	-11.1961
▁ケアマネージャ	-11.1961
百万	-11.1961
主張する	-11.1964
なしの	-11.1964
に富んだ	-11.1966
▁太陽が	-11.1966
言っている	-11.1969
食事を	-11.1969
誇り	-11.197
▁特許	-11.197
▁たい	-11.197
▁医者は	-11.1972
がきかない	-11.1973
さして	-11.1977
修正	-11.1977
岡	-11.1977
歯が	-11.1977
▁正しい	-11.1977
トラ	-11.1979
忙しく	-11.1982
てくれる	-11.1986
忠義	-11.1986
ゆくこと	-11.1989
こえ	-11.199
凡	-11.199
の罪	-11.1991
のまわり	-11.1992
を教え	-11.1992
のない人	-11.1992
友達	-11.1995
果て	-11.1996
遣	-11.1996
間違って	-11.1997
うらみ	-11.1997
衝突	-11.1999
あがり	-11.2
何もない	-11.2003
ないでくれ	-11.2004
不自由	-11.2004
損なう	-11.2006
欠乏	-11.2008
便で	-11.2008
啓	-11.2009
特殊	-11.2009
風が	-11.2009
トル	-11.2009
を経て	-11.2011
操	-11.2011
▁抜き	-11.2012
ダイヤ	-11.2013
といった	-11.2013
困っている	-11.2013
齢	-11.2014
▁演説	-11.2015
▁ダ	-11.2016
従うこと	-11.2017
とって	-11.2017
▁家具	-11.2017
を頼む	-11.2018
農作物	-11.2018
地形	-11.2018
通して	-11.2018
を表わす	-11.2018
かば	-11.2019
▁肌	-11.2019
尚	-11.202
の士	-11.2021
剛	-11.2021
ふくれ	-11.2021
陽	-11.2021
削り	-11.2023
▁慈善	-11.2023
輿	-11.2024
胎	-11.2025
申告	-11.2026
穏	-11.2026
落ち着いて	-11.2026
隅	-11.2027
潔白	-11.2027
伐	-11.2028
曲がり	-11.2028
肋	-11.2029
呉	-11.2029
著述	-11.2029
さかずき	-11.203
爆撃	-11.203
芳	-11.203
運搬	-11.203
蛋白質	-11.203
舵	-11.203
誦	-11.203
紡	-11.203
鍵	-11.2031
オペラ	-11.2031
尼	-11.2031
尋問	-11.2031
喧	-11.2031
メキシコ	-11.2031
猶予	-11.2031
かねて	-11.2031
ぐるぐる	-11.2031
唄	-11.2031
びっくりした	-11.2031
マラリア	-11.2031
暁	-11.2031
▁喫煙	-11.2031
方程式	-11.2031
稀	-11.2031
臥	-11.2031
釜	-11.2031
錬	-11.2031
鞘	-11.2031
まなざし	-11.2031
胚	-11.2031
よろこび	-11.2031
コンクリート	-11.2031
屁	-11.2031
刺繍	-11.2031
諺	-11.2031
よせ	-11.2031
是非	-11.2031
ギター	-11.2031
はらわた	-11.2031
のこぎり	-11.2031
ow	-11.2032
硫黄	-11.2032
専攻	-11.2032
威厳	-11.2032
箇条	-11.2032
応援	-11.2032
木造	-11.2032
思考	-11.2032
ほんとに	-11.2032
を請う	-11.2032
収縮	-11.2032
げない	-11.2032
訪ねて	-11.2032
茶の湯	-11.2032
予告	-11.2032
得られる	-11.2033
さらさら	-11.2033
科の昆虫	-11.2033
楽譜	-11.2033
一定期間	-11.2033
節操	-11.2033
演芸	-11.2034
スタート	-11.2034
仲裁	-11.2034
のぞく	-11.2034
知覚	-11.2034
殺菌	-11.2034
うさぎ	-11.2035
推理	-11.2035
いぼ	-11.2035
常用	-11.2035
軍備	-11.2035
公債	-11.2035
済んだ	-11.2036
ふとん	-11.2036
組合せ	-11.2036
音階	-11.2037
を職業とする人	-11.2037
カバー	-11.2037
文献	-11.2038
通勤	-11.2038
剣術	-11.2039
分担	-11.2039
煙突	-11.2039
延長	-11.2039
うどん	-11.2039
ゆとり	-11.2039
生死	-11.204
表示	-11.2041
改正	-11.2041
ひび	-11.2042
くらべ	-11.2043
機密	-11.2043
選んだ	-11.2043
親族	-11.2044
用途	-11.2044
ようか	-11.2046
暗記	-11.2046
幼	-11.2046
動かし	-11.2047
曲がる	-11.2047
つまみ	-11.2047
▁彼女は私の	-11.2048
ということを	-11.2048
惜しい	-11.2049
コーヒーを	-11.205
▁弁護士	-11.205
甲板	-11.205
船の	-11.205
活用	-11.205
田氏	-11.205
▁国連	-11.205
視する	-11.2051
▁弾丸	-11.2051
高校	-11.2052
皇	-11.2052
つめた	-11.2054
いやしい	-11.2054
機知	-11.2054
意義	-11.2054
▁凶	-11.2054
運ばれ	-11.2054
縁側	-11.2054
▁その場	-11.2054
特殊な	-11.2055
北部	-11.2055
恵み	-11.2056
長調	-11.2057
持ち上げる	-11.2057
大声で	-11.2058
噴火	-11.206
▁火の	-11.206
線路	-11.206
結び目	-11.206
整った	-11.2061
を働く	-11.2062
▁失業	-11.2063
ききめ	-11.2064
ことに決めた	-11.2064
もつれ	-11.2064
善行	-11.2065
時速	-11.2065
シュ	-11.2066
種々	-11.2067
▁お茶	-11.2067
現われる	-11.2068
準	-11.2068
風邪	-11.2069
に欠ける	-11.2073
番目の	-11.2073
コンピューター	-11.2073
魚肉	-11.2074
忍び	-11.2075
活気	-11.2076
ないようにする	-11.2077
知能	-11.2077
田畑	-11.2078
陰暦	-11.2079
いちばん	-11.208
泣いて	-11.2081
冷たく	-11.2082
して行く	-11.2082
結う	-11.2082
寝床	-11.2084
とも言う	-11.2084
政府が	-11.2084
▁彼女は私	-11.2085
たばこを	-11.2086
思いがけない	-11.2087
何となく	-11.2087
朝食	-11.2088
▁体を	-11.2089
聞こえ	-11.209
とら	-11.209
国家が	-11.209
よこ	-11.209
赤字	-11.209
もうける	-11.209
こういう	-11.2092
声が	-11.2092
そうとする	-11.2095
を吐く	-11.2096
消える	-11.2097
応用	-11.2097
やがて	-11.2098
▁砂糖	-11.2099
名高い	-11.2101
品行	-11.2102
なのだ	-11.2102
の精神	-11.2102
カーテン	-11.2103
を改める	-11.2103
三つの	-11.2103
▁情報	-11.2103
正反対	-11.2104
とがった	-11.2104
▁ワ	-11.2104
▁快	-11.2105
一組	-11.2105
の字	-11.2105
小児	-11.2106
これらの	-11.2108
足に	-11.2109
職場	-11.211
初めから	-11.211
敷物	-11.2113
▁競馬	-11.2114
加え	-11.2115
▁この問題	-11.2116
乗った	-11.2116
▁化粧	-11.2117
五月	-11.2118
運転手	-11.2118
きし	-11.2119
どうだ	-11.2119
かせた	-11.2121
てやった	-11.2122
上部	-11.2122
泊まり	-11.2123
通俗	-11.2124
下落	-11.2125
▁命令	-11.2127
▁ケアマネ	-11.2127
▁他の人	-11.2127
興奮する	-11.213
顔の	-11.213
から出た	-11.213
してしまう	-11.2131
ないもの	-11.2131
使者	-11.2132
下がる	-11.2133
たてる	-11.2134
▁昔から	-11.2136
手落ち	-11.2136
で私は	-11.2136
割り当て	-11.2136
▁つる	-11.2137
運んだ	-11.2137
生まれる	-11.2139
移住	-11.2142
生まれて	-11.2147
▁貧乏	-11.2148
届く	-11.2149
蕕覆	-11.2149
を防ぐために	-11.2154
▁あの子は	-11.2155
黙ってい	-11.2155
東方	-11.2157
いったん	-11.2158
▁突き	-11.216
17	-11.216
をあらわす	-11.2161
気分が	-11.2162
に耐え	-11.2162
その場の	-11.2162
様子が	-11.2167
歌を	-11.2168
▁w	-11.217
急な	-11.2171
事務を	-11.2172
然として	-11.2172
の学生	-11.2172
▁物が	-11.2173
過去の	-11.2173
何よりも	-11.2173
ぜいたくな	-11.2174
▁政府の	-11.2177
飛んで	-11.2177
▁交	-11.2179
▁魚の	-11.218
▁森林	-11.2182
交わ	-11.2182
誤って	-11.2182
格別	-11.2182
腹に	-11.2183
進み	-11.2184
来客	-11.2188
ないだろう	-11.2188
を添える	-11.2189
商品の	-11.2189
出席者	-11.219
▁レコード	-11.2193
▁体操	-11.2193
をはる	-11.2194
候	-11.2196
主語	-11.2198
を見せて	-11.22
などによる	-11.2203
合せ	-11.2203
のだろう	-11.2204
母さん	-11.2204
時機	-11.2208
ドルの	-11.2208
▁はっきり	-11.2211
木の葉	-11.2211
に任せる	-11.2211
自分自身	-11.2213
他から	-11.2213
の中央	-11.2215
吹いて	-11.2215
▁さて	-11.2215
▁完	-11.2215
▁事故	-11.2217
に接する	-11.2217
色素	-11.2218
▁きん	-11.2218
論者	-11.222
当たった	-11.222
▁自己の	-11.2225
△・	-11.2228
▁約束	-11.2229
▁契約	-11.223
現れること	-11.223
▁これ以上	-11.2232
返事をする	-11.2234
▁桜	-11.2236
それについて	-11.2237
▁必	-11.2239
▁完全	-11.224
▁警官は	-11.224
▁着物	-11.2241
金が	-11.2246
▁ほとんど	-11.2248
なよ	-11.2248
▁わずかな	-11.2249
こじ	-11.2249
のだが	-11.225
▁彼はとても	-11.225
の方法	-11.2251
兼ね	-11.2254
千万	-11.2255
愉快	-11.2257
の強さ	-11.2258
▁格	-11.226
両側	-11.226
共通の	-11.2261
尽くす	-11.2263
数を	-11.2263
▁これから	-11.2264
年は	-11.2265
ってくる	-11.2265
はえている	-11.2266
神仏	-11.2266
遠方	-11.2267
守る	-11.2267
人間が	-11.2268
慎重	-11.2268
絹織物	-11.227
▁どこ	-11.2271
分間	-11.2272
▁そのことは	-11.2273
ゆで	-11.2275
に役立つ	-11.2276
しようという	-11.2277
この世に	-11.2279
おもしろ	-11.2281
ませて	-11.2281
を焼く	-11.2281
▁実際	-11.2284
▁母は	-11.2286
篠つつ	-11.2287
掘り	-11.2287
▁その後	-11.2288
はすっかり	-11.2289
とは君も	-11.229
手柄	-11.2292
くま	-11.2292
しらせ	-11.2292
たくさんある	-11.2294
海外	-11.2295
ったりして	-11.2295
下男	-11.23
盛る	-11.2301
▁野原	-11.2303
▁哀	-11.2306
苦しむ	-11.2307
▁うら	-11.2308
がついて	-11.2309
▁歩	-11.2314
残りの	-11.2316
負けた	-11.2316
わかれ	-11.2316
生じ	-11.2316
どこへ	-11.2317
独身	-11.2317
▁即	-11.2318
こく	-11.2319
知らなかった	-11.2319
しっかりと	-11.2321
を得ること	-11.2323
今にも	-11.2325
を利用する	-11.2328
をしていた	-11.2328
の進行	-11.2329
受け入れ	-11.2333
▁それは私	-11.234
きつい	-11.2342
にたとえ	-11.2343
がたくさんある	-11.2343
を取り戻す	-11.2345
▁食事の	-11.235
聞くこと	-11.2351
▁擬	-11.2352
▁エンジン	-11.2355
つな	-11.2357
▁軟	-11.2358
▁二つ	-11.2359
できている	-11.2359
ということだ	-11.2363
山地	-11.2364
よいか	-11.2364
山本	-11.2365
勝つこと	-11.2367
前方	-11.2368
を積む	-11.237
▁神仏	-11.2373
称号	-11.2374
の範囲	-11.2374
▁もう少し	-11.2375
輝く	-11.2376
おこった	-11.2376
の人が	-11.2379
示している	-11.2379
置いた	-11.2383
▁地面	-11.2385
穏やかな	-11.2386
病気が	-11.2387
にかかった	-11.2387
議案	-11.2393
海の	-11.2397
シン	-11.2397
帰ること	-11.2398
▁どうか	-11.2398
▁そうじゃな	-11.24
研究する	-11.24
▁しっかり	-11.2403
情事	-11.2406
ーズ	-11.2408
▁心を	-11.2412
使った	-11.2413
▁金属元素	-11.2414
遠くに	-11.2416
しあわせ	-11.2416
▁その仕事は	-11.2417
日常生活	-11.2418
につけ	-11.2418
に同じ	-11.2418
そんなことを	-11.2419
類の	-11.2419
▁はち	-11.242
▁初めて	-11.242
押す	-11.2423
▁質問	-11.2424
のドレス	-11.2429
▁あいつ	-11.2429
起きる	-11.243
いいですか	-11.243
に身を	-11.2432
▁文化	-11.2432
よいこと	-11.2435
どことなく	-11.2436
たたき	-11.244
カリ	-11.2441
支払いを	-11.2442
以下の	-11.2444
が来た	-11.2444
はっきりした	-11.245
入口	-11.2452
延ばす	-11.2452
のしるし	-11.2453
それによって	-11.2453
おろす	-11.2454
末期	-11.2455
の気持	-11.2456
こら	-11.2457
▁なべ	-11.2458
重く	-11.2463
弁護	-11.2465
タオル	-11.2466
▁金融	-11.2467
がかり	-11.2467
その地位	-11.2468
こね	-11.2468
荒荒しい	-11.2469
▁広い	-11.2469
その場所	-11.247
として使う	-11.247
or	-11.2471
▁原子力	-11.2472
結核	-11.2472
動いて	-11.2472
を買って	-11.2472
食べること	-11.2474
織った	-11.2478
のかね	-11.2478
る様子	-11.2481
ぶつぶつ	-11.2481
▁校	-11.2481
夫人	-11.2481
に似ている	-11.2482
▁ひとり	-11.2483
法廷	-11.2484
迫る	-11.2484
ことになっている	-11.2486
を帯びる	-11.2488
ぐらいの	-11.2488
▁広告	-11.2489
別別	-11.2489
比較的	-11.2491
験	-11.2492
をたくさん	-11.2494
した人	-11.2494
ってはいけない	-11.2495
おろし	-11.2496
後れ	-11.2497
が彼女の	-11.25
忘	-11.25
してから	-11.2502
お手	-11.2503
は私が	-11.2504
=	-11.2505
のあいだ	-11.2505
とするもの	-11.2506
担保	-11.2506
勇敢	-11.2507
海水	-11.2507
孝	-11.2507
▁賢	-11.2508
ぐいと	-11.2509
与えた	-11.251
複製	-11.251
▁豪	-11.2511
▁あん	-11.2513
する時	-11.2516
▁その日	-11.2517
分からない	-11.2519
盟	-11.2523
潤	-11.2523
展	-11.2524
毎	-11.2524
隙	-11.2525
が悪かった	-11.2525
呑	-11.2526
一つ一つ	-11.2526
かかって	-11.2527
あばれ	-11.2527
拒否	-11.2527
がわ	-11.2527
斎	-11.2527
模	-11.2528
を帯びて	-11.2528
開拓	-11.2528
散らし	-11.2529
扇動	-11.2529
頸	-11.2529
堪	-11.2529
ぺ	-11.2529
ソーダ	-11.2529
びょう	-11.253
拡張	-11.253
弄	-11.253
舷	-11.2531
奸	-11.2531
▁水道	-11.2531
碧	-11.2531
宇	-11.2531
莫大な	-11.2531
衛星	-11.2531
宛	-11.2531
に適する	-11.2531
みじめな	-11.2531
ハワイ	-11.2531
歪	-11.2531
罵	-11.2531
ぞんざい	-11.2531
ふらふら	-11.2531
歎	-11.2531
篇	-11.2531
鵐	-11.2531
X	-11.2531
尖	-11.2531
嵩	-11.2531
過剰	-11.2531
適当に	-11.2531
鉤	-11.2531
妾	-11.2531
綾	-11.2531
自尊心	-11.2531
芯	-11.2531
マイナス	-11.2531
普及	-11.2531
急激に	-11.2531
俳諧	-11.2531
唯一の	-11.2531
キング	-11.2531
落ちぶれ	-11.2531
インディアン	-11.2531
乗車券	-11.2532
一度も	-11.2532
率直に	-11.2532
めいめい	-11.2532
整頓	-11.2532
疑惑	-11.2532
派閥	-11.2532
決まり	-11.2532
標識	-11.2532
顧問	-11.2532
を使わず	-11.2532
多年	-11.2532
▁金の	-11.2532
部類	-11.2532
守護	-11.2532
ゼロ	-11.2533
予測	-11.2533
路傍	-11.2533
統率	-11.2533
おとなしく	-11.2533
復活	-11.2533
わかりません	-11.2533
▁凝	-11.2533
吹雪	-11.2533
雨が降った	-11.2533
音響	-11.2533
検閲	-11.2533
確率	-11.2533
汲み	-11.2533
対応	-11.2534
▁あの店は	-11.2534
遺跡	-11.2534
譲歩	-11.2534
冷酷	-11.2534
講和	-11.2534
やって来た	-11.2534
中枢	-11.2535
▁その犬は	-11.2535
垣根	-11.2535
新たな	-11.2535
落第	-11.2536
講座	-11.2536
ハエ	-11.2537
ともに	-11.2537
かわいがる	-11.2537
▁同情	-11.2537
まげ	-11.2538
させられた	-11.2538
絶滅	-11.2538
地理	-11.2539
楽観	-11.2539
お宅	-11.254
流儀	-11.254
しばる	-11.2541
の女神	-11.2541
郵便局	-11.2542
定義	-11.2542
▁空港	-11.2542
息子さん	-11.2543
加熱	-11.2543
ノート	-11.2543
交わり	-11.2544
作成	-11.2544
に出て	-11.2544
の下部	-11.2544
破る	-11.2544
不景気	-11.2545
結んだ	-11.2545
小形で	-11.2545
一連の	-11.2546
のありさま	-11.2546
花嫁	-11.2546
▁東京の	-11.2546
羊毛	-11.2547
取り入れ	-11.2548
放電	-11.2548
不況	-11.2548
▁物事に	-11.2548
流派	-11.2548
開業	-11.2549
巡回	-11.255
平野	-11.255
敵陣	-11.2551
災い	-11.2551
乳児	-11.2552
特権	-11.2552
大型	-11.2552
黄色い	-11.2552
する装置	-11.2552
を打った	-11.2552
辰討	-11.2552
付けた	-11.2553
待った	-11.2553
ねばり	-11.2554
羽毛	-11.2555
に帰する	-11.2556
暮らしを	-11.2557
葉を	-11.2557
首席	-11.2557
低下	-11.2557
論説	-11.2558
体積	-11.2559
▁全国	-11.256
のごとく	-11.2561
から降りる	-11.2562
▁成人	-11.2562
引力	-11.2563
撃つ	-11.2563
▁タ	-11.2564
▁貿易	-11.2564
▁明日	-11.2565
フランスの	-11.2566
遅い	-11.2567
役に立	-11.2568
もらおう	-11.2569
当たって	-11.257
笑った	-11.257
午前	-11.2571
を続ける	-11.2573
▁本当	-11.2574
フィ	-11.2574
慣用	-11.2575
したりして	-11.2576
熱湯	-11.2576
価値がある	-11.2578
欠けた	-11.2579
左側	-11.258
続けざまに	-11.258
乱暴	-11.258
▁ちょっと電話をかける	-11.2582
忘れない	-11.2583
外へ出	-11.2584
er	-11.2584
非行	-11.2584
▁何を	-11.2585
V	-11.2586
の第一	-11.2586
▁高等	-11.2588
こころ	-11.2588
脚本	-11.2589
長年	-11.2589
十六	-11.259
学業	-11.259
度胸	-11.2591
帰宅	-11.2592
▁冷や	-11.2595
我が国	-11.2596
当時	-11.2596
は君の	-11.2598
うね	-11.2598
▁ロープを	-11.2601
何でもない	-11.2601
メートルの	-11.2602
かたまり	-11.2603
を告げる	-11.2604
の娘	-11.2606
あふれる	-11.2606
よく知っている	-11.2606
一見	-11.2607
えば	-11.2608
▁仲間	-11.2608
小僧	-11.2609
紫色	-11.2609
邦	-11.2609
かぶ	-11.261
を除く	-11.2612
てくれ	-11.2613
ろく	-11.2614
▁彼の顔は	-11.2614
怪	-11.2615
毎年	-11.2616
▁並	-11.2616
中傷	-11.2616
真珠	-11.2618
▁ぶどう酒	-11.2619
言いなさい	-11.2619
回転する	-11.2619
推	-11.2619
に通じている	-11.262
を占める	-11.2621
召使	-11.2621
人や物	-11.2621
触れる	-11.2622
経費	-11.2622
ガソリン	-11.2624
基本	-11.2624
ハー	-11.2625
葬儀	-11.2625
職業の人	-11.2625
▁聴衆は	-11.2626
大和	-11.2626
はいくら	-11.2626
のが好きだ	-11.2627
秘書	-11.2627
内外	-11.2628
書物を	-11.2628
逆に	-11.2629
答える	-11.2629
のけ	-11.263
ぬる	-11.2631
▁この家は	-11.2632
をさっと	-11.2632
▁豊	-11.2632
猛	-11.2633
バイオリン	-11.2633
▁九	-11.2635
博	-11.2636
それも	-11.2636
同一	-11.2639
勝手な	-11.2639
を張った	-11.264
生活を	-11.2642
世俗	-11.2642
てもらう	-11.2643
養子	-11.2645
▁事件	-11.2646
を動かして	-11.2646
まねをする	-11.2647
当然の	-11.2648
やって来る	-11.2649
その知らせを聞いて	-11.2649
▁病気で	-11.265
▁断	-11.2652
無事に	-11.2653
髪の毛を	-11.2653
万円の	-11.2655
をおおう	-11.2658
の誤り	-11.2658
行動を	-11.266
▁そこへ	-11.2661
好きなように	-11.2661
▁恵	-11.2665
その音	-11.2666
▁君には	-11.2666
▁肺	-11.2667
宝物	-11.2669
門の	-11.2672
便り	-11.2673
たちの	-11.2675
▁供	-11.2678
混ぜる	-11.268
香水	-11.268
ぶた	-11.2681
▁人々は	-11.2683
▁正義	-11.2683
人材	-11.2687
▁枝	-11.2687
求め	-11.2688
▁何とか	-11.2688
たない	-11.2689
▁別に	-11.2689
ぶき	-11.269
手首	-11.2691
は約	-11.2693
の作品	-11.2693
悪口	-11.2694
はぎ	-11.2695
手に入れ	-11.2701
性質が	-11.2703
つかず	-11.2703
こし	-11.2703
まるい	-11.2704
に起こる	-11.2706
にまで	-11.2707
知らせること	-11.2707
が多かった	-11.2708
▁そこで	-11.2711
離して	-11.2712
▁教師	-11.2714
相場が	-11.2718
がどんなに	-11.2719
と思われる	-11.2723
しますか	-11.2725
物を言う	-11.2725
擦り	-11.2726
▁天体	-11.2726
▁楽	-11.2727
乗物	-11.2727
そうでない	-11.2728
動的	-11.273
▁彼は我々に	-11.273
を重んずる	-11.2731
法律で	-11.2731
▁その事故	-11.2731
治める	-11.2731
育ち	-11.2733
取れる	-11.2733
▁何と	-11.2733
に戻る	-11.2734
やれ	-11.2735
番をする	-11.2735
南北	-11.2739
腰を	-11.274
外出する	-11.274
繩	-11.2741
一流の	-11.2742
▁医療	-11.2745
寺の	-11.2746
りたい	-11.2747
調べる	-11.2747
▁専門	-11.2751
力で	-11.2751
弱く	-11.2751
続くこと	-11.2752
の町	-11.2754
リラ	-11.2755
本部	-11.2757
たちに	-11.2757
暗く	-11.2758
を積み	-11.276
含む	-11.276
いらっしゃい	-11.276
▁日曜	-11.2761
隠して	-11.2763
月光	-11.2764
に落ちる	-11.2765
付いて	-11.2765
なだれ	-11.2765
討い	-11.2767
をつぐ	-11.2771
たまる	-11.2771
さも	-11.2772
身代	-11.2776
振動	-11.2776
の形容	-11.2778
▁それらの	-11.278
割に	-11.2782
負けて	-11.2782
ばかりに	-11.2782
▁回転	-11.2783
めったに	-11.2784
▁イタリア	-11.2785
国旗	-11.2785
出家	-11.2786
秋の	-11.2786
▁小麦粉	-11.2787
を断つ	-11.2787
集めて	-11.2787
はだか	-11.2789
大型の	-11.2789
▁借り	-11.2789
感じた	-11.279
▁責任	-11.2791
熱意	-11.2791
まけ	-11.2791
▁地図	-11.2792
実例	-11.2794
しかる	-11.2795
味が	-11.2796
神話	-11.2798
身体の	-11.2798
だした	-11.2798
を授ける	-11.2798
そうもない	-11.2798
ことができない	-11.28
一瞬	-11.2801
▁焼け	-11.2803
▁相手	-11.2803
鋳	-11.2803
から見て	-11.2808
戯	-11.2813
に入っている	-11.2814
▁寂	-11.2815
日曜日に	-11.2816
▁脂肪	-11.2818
▁知恵	-11.2819
大事	-11.2819
ことではない	-11.2821
だな	-11.2823
▁陽	-11.2825
▁野外	-11.2826
▁完全に	-11.2826
をたく	-11.2827
▁長距離	-11.283
祈願	-11.2831
▁序	-11.2832
現物	-11.2838
の温度	-11.2839
債務	-11.284
末に	-11.2841
を成す	-11.2841
賭	-11.2842
君も	-11.2842
▁判	-11.2844
▁ちょっとショートメッセージを	-11.2846
文章の	-11.2847
おくれ	-11.2848
のあること	-11.2848
その地方	-11.2848
▁立体	-11.2849
助けること	-11.2851
を集めて	-11.2852
▁資本	-11.2853
りました	-11.2855
妨害	-11.2857
にはいって	-11.2858
▁家を	-11.2859
▁よそ	-11.2859
▁主君	-11.286
▁彼は彼女を	-11.2868
▁おい	-11.2869
走って	-11.287
▁陸上	-11.2875
▁切符	-11.2875
てはならない	-11.2875
▁いま	-11.2878
▁整	-11.2879
の心	-11.288
になってしまった	-11.288
の中間	-11.2886
▁すぐにショートメッセージを	-11.2886
いやになる	-11.2887
確信	-11.2887
はく	-11.2889
物だ	-11.2892
▁僧	-11.2893
内容を	-11.2895
聞かせる	-11.2896
▁一家の	-11.2897
描	-11.29
▁ふだん	-11.2902
七日	-11.2902
後世	-11.2904
垂れる	-11.2904
会うこと	-11.2904
▁付	-11.2904
生糸	-11.2905
やりなさい	-11.2905
▁訳	-11.2905
フレ	-11.2907
▁季節	-11.2908
▁重大な	-11.291
やり方で	-11.2911
一般の人	-11.2913
激怒	-11.2917
行われ	-11.2918
▁まっ	-11.2921
事態が	-11.2921
▁申し	-11.2922
ラン	-11.2925
▁日光	-11.2925
方は	-11.2926
借りること	-11.2926
あがって	-11.2927
▁8	-11.2927
ve	-11.2928
がすっかり	-11.293
到着した	-11.293
すみません	-11.2932
荷物を	-11.2937
人に対して	-11.2937
ていく	-11.2938
をふさぐ	-11.2938
の諸	-11.294
たいてい	-11.294
地下茎	-11.2945
と水	-11.2945
の空気	-11.2947
駒	-11.2948
悟り	-11.2949
山々	-11.2949
輝	-11.295
勢いで	-11.295
▁みんな	-11.2952
調べること	-11.2952
無理に	-11.2954
ルト	-11.2954
銀行に	-11.2955
西方	-11.2957
▁天子の	-11.2958
ふえ	-11.2958
▁子供は	-11.2959
の研究	-11.296
▁ガ	-11.296
もし	-11.2961
基礎	-11.2964
使われる	-11.2966
本性	-11.2967
しつけ	-11.2967
車は	-11.2967
こっけいな	-11.2968
がひどく	-11.297
しうる	-11.2975
▁6	-11.2976
行きます	-11.2976
▁住宅	-11.2977
せること	-11.2977
によい	-11.2978
中間	-11.2979
▁意志	-11.298
美咲さん	-11.2982
と違って	-11.2983
こしらえ	-11.2985
成功の	-11.2986
▁病人は	-11.2986
▁ド	-11.2986
で人を	-11.2987
の勢い	-11.299
厄介	-11.299
を含んだ	-11.2992
船が	-11.2995
く思う	-11.2995
▁そうだ	-11.2995
の山	-11.2996
に触れる	-11.2996
が速い	-11.2997
芸能	-11.3
▁いちばん	-11.3004
▁思いがけない	-11.3004
昨	-11.3006
を休む	-11.3006
の相違	-11.3007
言動	-11.3009
に出た	-11.3011
の敬称	-11.3011
男が	-11.3013
やりかた	-11.3014
ってくれた	-11.3015
地主	-11.3016
▁暖かい	-11.3017
が低く	-11.3018
飼	-11.3023
胎児	-11.3023
グラ	-11.3023
浮かんだ	-11.3023
内閣の	-11.3024
豪雨	-11.3025
▁予	-11.3025
徹	-11.3028
所にある	-11.3028
決議	-11.3029
増加	-11.303
ふれ	-11.3032
透明	-11.3032
力が	-11.3032
新作	-11.3034
▁儀式	-11.3034
つかみ	-11.3035
を祈る	-11.3037
槽	-11.3038
やせ	-11.3038
耕作	-11.3038
仲よく	-11.3039
▁特別	-11.3042
気持だ	-11.3042
忙	-11.3044
しようとした	-11.3044
十五	-11.3044
寵	-11.3045
わけではない	-11.3046
の印	-11.3047
釣り合い	-11.3048
摘	-11.3049
のにおい	-11.3049
に達した	-11.305
を目的とする	-11.3052
な言葉	-11.3052
幾何学	-11.3052
ニュ	-11.3052
坑	-11.3052
は彼女	-11.3053
荘	-11.3054
チームは	-11.3054
止まった	-11.3054
陳	-11.3055
視界	-11.3055
免疫	-11.3055
要領	-11.3055
飼育	-11.3056
違える	-11.3056
盾	-11.3056
を帯びた	-11.3056
昂	-11.3057
因果	-11.3057
信じられない	-11.3057
薪	-11.3057
がえ	-11.3057
阻	-11.3057
かっさい	-11.3057
萌	-11.3057
みょう	-11.3057
きっかけ	-11.3057
ばさみ	-11.3057
決勝	-11.3057
おめでとう	-11.3057
桑	-11.3057
W	-11.3058
ぅ	-11.3058
櫛	-11.3058
瑞	-11.3058
のんびり	-11.3058
コンサート	-11.3058
ソファー	-11.3058
デパート	-11.3058
ペーパー	-11.3058
叛	-11.3058
梨	-11.3058
.	-11.3058
塚	-11.3058
植民地	-11.3058
裾	-11.3058
おだやかな	-11.3058
虹	-11.3058
病原体	-11.3058
当てはまる	-11.3058
ジョージ	-11.3058
申請	-11.3058
舗装	-11.3058
囃子	-11.3058
僧侶	-11.3058
容貌	-11.3058
免除	-11.3058
酒を飲んで	-11.3058
盗賊	-11.3058
my	-11.3059
包装	-11.3059
粘液	-11.3059
閉鎖	-11.3059
付き合い	-11.3059
到来	-11.3059
スタイル	-11.3059
戯曲	-11.3059
モーター	-11.3059
爵位	-11.306
たまたま	-11.306
今や	-11.306
かせぐ	-11.306
態勢	-11.306
すむ	-11.306
を襲った	-11.306
見積もり	-11.306
スズメ	-11.3061
協議	-11.3061
生殖	-11.3061
レール	-11.3061
のろい	-11.3062
感じだ	-11.3062
こまかい	-11.3062
ひれ	-11.3062
ともかく	-11.3063
実は食用	-11.3063
揃い	-11.3063
厳しく	-11.3063
予言	-11.3063
風采	-11.3063
それとなく	-11.3063
不吉	-11.3063
響き	-11.3064
たたいた	-11.3064
衰えた	-11.3065
開放	-11.3065
栄光	-11.3065
実業家	-11.3065
奉公	-11.3065
成行き	-11.3066
高等学校	-11.3067
思い切って	-11.3067
不動産	-11.3067
左翼	-11.3067
東西	-11.3067
添う	-11.3068
若葉	-11.3068
▁海軍	-11.3068
登場	-11.3068
未婚	-11.3068
軍勢	-11.3069
写生	-11.3069
社寺	-11.3069
施行	-11.307
▁それだけ	-11.307
主成分	-11.307
ラテン語	-11.307
を利用した	-11.307
変種	-11.307
彩色	-11.3071
ひいき	-11.3071
下駄	-11.3071
絞り	-11.3072
通商	-11.3072
性能	-11.3073
同然	-11.3073
上映	-11.3074
そんな事	-11.3075
▁マッチ	-11.3075
転覆	-11.3075
が起こって	-11.3076
出入口	-11.3077
奇跡	-11.3078
概して	-11.3078
公務	-11.3078
遠慮なく	-11.3078
掛けて	-11.3078
▁わずかの	-11.308
変動	-11.3081
砕く	-11.3082
風味	-11.3082
▁犬が	-11.3082
がうまく	-11.3084
合同	-11.3084
池田	-11.3085
たやすく	-11.3085
任意	-11.3086
歩き方	-11.3086
歩行	-11.3086
割れ目	-11.3086
あえて	-11.3087
散る	-11.3088
万歳	-11.3089
分け前	-11.3089
想像力	-11.3089
くする	-11.309
ありがたい	-11.309
給水	-11.309
内内	-11.309
笑って	-11.3092
子宮	-11.3092
恋人	-11.3093
▁その車は	-11.3093
たね	-11.3094
明さん	-11.3094
▁日本は	-11.3095
おそれ	-11.3096
▁低い	-11.3097
に強く	-11.3098
きのこ	-11.3098
敵軍	-11.3098
まひ	-11.3098
古来	-11.3099
最上	-11.3099
贈物	-11.3099
元来	-11.31
祈る	-11.31
小舟	-11.3101
▁クリスマスの	-11.3101
不要	-11.3101
さわやかな	-11.3102
入札	-11.3102
相当な	-11.3103
食肉	-11.3103
しぼり	-11.3104
無視	-11.3104
木炭	-11.3106
過ごした	-11.3106
を掘り	-11.3106
手順	-11.3107
内側に	-11.3107
直立	-11.3107
公害	-11.3108
くせ	-11.3109
楽しむこと	-11.311
君には	-11.311
増大	-11.311
ぞっとし	-11.311
▁傍	-11.3111
言行	-11.3111
▁しかし	-11.3112
食用にする	-11.3114
うすい	-11.3114
横木	-11.3115
よめ	-11.3115
に合う	-11.3116
すう	-11.3116
▁危	-11.3116
もてなし	-11.3116
少なく	-11.3118
▁牧	-11.3121
▁洪水	-11.3121
って行く	-11.3122
真相	-11.3122
生えている	-11.3123
野生	-11.3124
を貸して	-11.3125
開会	-11.3126
を変えて	-11.3129
▁すい	-11.3132
せみ	-11.3133
いるさま	-11.3133
余分	-11.3137
ておきなさい	-11.3137
だれにも	-11.3137
の方へ	-11.3138
大形で	-11.3141
▁産業	-11.3143
を得ようと	-11.3143
あれば	-11.3144
を測る	-11.3146
それら	-11.3146
との関係	-11.3147
力量	-11.315
居間	-11.315
会長	-11.3152
車に乗	-11.3153
をふ	-11.3155
声を	-11.3155
物腰	-11.3155
上等の	-11.3155
間違いない	-11.3155
発火	-11.3156
二重	-11.3157
曜	-11.3158
▁古典	-11.316
人込み	-11.316
▁意味	-11.3162
できるように	-11.3162
鉄製の	-11.3162
の美しさ	-11.3163
論理学	-11.3164
▁無線	-11.3166
▁禅	-11.3166
大洋	-11.3166
日から	-11.3168
捕え	-11.317
科学者	-11.317
細工物	-11.3172
でいた	-11.3173
▁年齢	-11.3174
をなくした	-11.3174
リス	-11.3175
を持つこと	-11.3175
▁プ	-11.3177
目立つ	-11.3182
余所	-11.3182
を生ずる	-11.3184
辛い	-11.3184
削	-11.3184
検事	-11.3185
属する	-11.3187
▁暴力	-11.3187
ドイツ	-11.3188
からなる	-11.3188
エル	-11.3188
学生たち	-11.3189
いてください	-11.3191
▁官庁	-11.3191
いとこ	-11.3192
起源	-11.3193
を踊る	-11.3193
平方	-11.3195
異常な	-11.3196
で暮らす	-11.3197
▁いつもの	-11.3199
吐き気	-11.3199
居所	-11.32
を書いて	-11.3201
▁漫	-11.3202
気球	-11.3203
逃れる	-11.3203
倉庫	-11.3206
つくす	-11.3206
チーズ	-11.3206
〕「	-11.3206
▁知	-11.3207
上手に	-11.3208
ピストル	-11.3209
あらかじめ	-11.3209
の階級	-11.321
整える	-11.321
の長い	-11.3211
陥	-11.3212
M	-11.3212
▁記憶	-11.3213
カップ	-11.3214
穏やか	-11.3214
▁経	-11.3214
滑り	-11.3215
▁死刑	-11.3215
鳩	-11.3216
頭脳	-11.3218
ワン	-11.3218
がれる	-11.3221
烏	-11.3221
しゃく	-11.3222
▁必ず	-11.3222
累	-11.3222
君子	-11.3223
青銅	-11.3223
▁ちょっと電話する	-11.3225
艶	-11.3226
合成	-11.3227
大丈夫	-11.3228
▁事態は	-11.3229
っていて	-11.3231
▁組み	-11.3232
つえ	-11.3233
けし	-11.3233
あくび	-11.3234
▁別の	-11.3234
法令	-11.3235
の目的で	-11.3235
自分の意見を	-11.3237
和紙	-11.3237
プロ	-11.3238
書籍	-11.3239
紛れ	-11.3241
見られる	-11.3244
▁けんか	-11.3245
して作った	-11.3247
透明な	-11.3251
▁羊	-11.3252
物質の	-11.3252
がだんだん	-11.3254
となること	-11.3258
何だか	-11.3259
しゅう	-11.326
▁紫	-11.3261
度に	-11.3261
午前中	-11.3263
を直す	-11.3264
電子	-11.3264
材木	-11.3264
▁社	-11.3265
携帯	-11.3266
▁碁	-11.3267
▁口で	-11.3268
印刷物	-11.3268
ちょっと電話したい	-11.3269
なので	-11.327
▁信号	-11.3276
他と	-11.3276
出世する	-11.3282
▁外国語	-11.3283
住むこと	-11.3285
その話	-11.3287
▁喜び	-11.3287
▁箱	-11.3287
さくら	-11.3289
▁げん	-11.329
あて名	-11.329
定期	-11.3291
野党	-11.3291
こちらの	-11.3292
見ている	-11.3295
をまぜて	-11.3297
感じがする	-11.3297
を失うこと	-11.33
外面	-11.3301
の弱い	-11.3303
上流	-11.3303
を防ぎ	-11.3304
▁どう	-11.3304
▁スト	-11.3305
はねる	-11.3309
うまくいく	-11.3309
▁一緒に	-11.3309
▁泥棒	-11.3314
ダー	-11.3315
仕事の	-11.3315
▁ボール	-11.3317
▁記念	-11.3317
▁会合	-11.332
に仕える	-11.332
着く	-11.332
平らに	-11.3321
今年	-11.3322
甘味	-11.3322
▁彼女は自分の	-11.3324
▁ダンス	-11.3329
になれ	-11.3329
▁私は彼の	-11.3331
ハイ	-11.3331
寸法	-11.3333
▁緩	-11.3335
▁かなりの	-11.3336
そろって	-11.3337
しがたい	-11.3338
天国	-11.3339
を除いた	-11.3339
下書き	-11.334
▁内部	-11.334
木の葉が	-11.3342
ようなことを	-11.3343
被告人	-11.3345
▁過去の	-11.3346
▁如	-11.3346
▁ほかに	-11.3347
▁寺院	-11.3348
尽くし	-11.3353
▁欲	-11.3353
の寸法	-11.3353
▁どこか	-11.3355
のだから	-11.3355
▁湿	-11.3356
▁珍	-11.3357
▁出来	-11.3357
進める	-11.3357
溺	-11.3359
思うように	-11.3359
正しくない	-11.336
が無い	-11.336
引かれ	-11.3362
でメッセを送	-11.3365
彼から	-11.3366
希望を	-11.3367
移す	-11.3367
▁鳥が	-11.3368
▁核兵器	-11.3369
▁彼女と	-11.3369
入り乱れ	-11.3371
みなさい	-11.3371
所がない	-11.3371
▁座席	-11.3373
▁鋭い	-11.3374
ぶどう	-11.3375
▁かぎ	-11.3377
見えること	-11.3377
宗教的	-11.338
聞こえた	-11.338
一筆	-11.3385
ラブ	-11.3385
▁水平	-11.3386
だます	-11.3388
どちらか	-11.3388
聞こえない	-11.3389
産する	-11.339
花びら	-11.3391
その内容	-11.3392
売れる	-11.3392
を飾る	-11.3395
だまして	-11.3396
びき	-11.3397
がなくなる	-11.3397
尋ね	-11.3398
づら	-11.34
没する	-11.34
▁男女の	-11.3401
動作が	-11.3404
どうぞお	-11.3405
をつくること	-11.3405
迎える	-11.3407
を整える	-11.3412
雄は	-11.3417
なれて	-11.3419
埋	-11.3421
▁朝食	-11.3422
調査する	-11.3422
を遂げる	-11.3423
急ぎの	-11.3423
周囲の	-11.3425
やっている	-11.3425
ことが多い	-11.3425
▁弟	-11.3427
この世	-11.3431
陰で	-11.3432
泣	-11.3432
を扱う	-11.3432
られます	-11.3432
型に	-11.3432
着いた	-11.3433
中で一番	-11.3434
▁ソ	-11.3435
を並べる	-11.3435
を減らす	-11.3436
貯	-11.3438
▁悲しい	-11.3438
のぼる	-11.3439
一個	-11.344
▁太鼓	-11.3441
寂	-11.3442
もろ	-11.3442
行か	-11.3443
▁吹き	-11.3443
世を	-11.3443
ローマ	-11.3444
▁食べ	-11.3445
初めに	-11.3445
▁小便	-11.3446
決める	-11.3447
▁小さい	-11.3448
ゆり	-11.345
切断	-11.345
▁畑	-11.3452
個体	-11.3452
せられる	-11.3452
先生に	-11.3455
ジー	-11.3455
反抗	-11.3455
取り決め	-11.3455
をおろす	-11.3455
▁隠	-11.3458
流れている	-11.3461
▁B	-11.3463
無く	-11.3474
▁宝石	-11.3474
間に合わせ	-11.3474
敬意	-11.3476
誇	-11.3477
▁辞書	-11.3478
らなければならない	-11.348
を獲得する	-11.3483
変えること	-11.3483
自殺する	-11.3486
なう	-11.3487
わな	-11.3487
高温	-11.3488
捜索	-11.3492
変だ	-11.3494
蒸留	-11.3495
せなかった	-11.3497
国家の	-11.3498
を求めること	-11.3499
をひいて	-11.3499
を害する	-11.3501
んだり	-11.3508
▁物語	-11.3508
▁家畜	-11.3511
▁生徒	-11.3512
の大きい	-11.3513
いなさい	-11.3515
▁僕が	-11.352
訪問する	-11.352
と見	-11.3521
▁ギリシャ	-11.3522
弾力	-11.3524
あがること	-11.3524
散歩する	-11.3525
▁緊急	-11.3526
ほどに	-11.3527
▁シン	-11.3527
見せかけ	-11.3527
ばかげた	-11.3527
意味で	-11.3528
てきている	-11.353
告げる	-11.3532
をこめて	-11.3533
下宿	-11.3535
大金	-11.3535
のまわりに	-11.3535
小学校	-11.3535
の中へ	-11.3535
服を着て	-11.3538
が異なる	-11.3538
伝染	-11.354
本質	-11.3544
染めた	-11.3547
全体に	-11.3547
してはならない	-11.3547
▁終わり	-11.3549
▁心身	-11.355
を発揮する	-11.355
▁いまから電話をかける	-11.355
▁いったん	-11.3551
考えている	-11.3554
学生が	-11.3556
いすを	-11.3557
▁童	-11.3557
刷	-11.3557
を脱ぐ	-11.3558
▁書類	-11.3559
調子で	-11.356
においがする	-11.3564
▁蒸気	-11.3564
って来る	-11.3564
百年	-11.357
直る	-11.3572
自国	-11.3574
組んで	-11.3577
本体	-11.3579
▁猛烈な	-11.3579
▁排	-11.358
可能	-11.358
▁十分な	-11.3581
なんとか	-11.3582
▁その事件	-11.3583
▁暇	-11.3584
揚げる	-11.3585
楽しく	-11.3585
▁じゅ	-11.3586
国籍	-11.3589
伸	-11.3589
本日	-11.3589
甚	-11.3589
▁続	-11.359
尽き	-11.3592
径	-11.3594
▁荒れ	-11.3594
まれな	-11.3595
やっかいな	-11.3596
すわっている	-11.3597
▁養	-11.3597
それまで	-11.3597
荒い	-11.3597
が切れ	-11.3598
そこなう	-11.36
すぐれた人	-11.36
▁抜	-11.36
隠れた	-11.3601
抑制	-11.3602
恥ずかしい	-11.3602
狭	-11.3603
均衡	-11.3608
ダン	-11.3608
駐	-11.3609
嫡	-11.361
だらだら	-11.361
推進	-11.361
継続	-11.3611
班	-11.3611
黄褐色	-11.3611
恒	-11.3611
伯	-11.3611
独創	-11.3612
誕生	-11.3612
イオン	-11.3612
田園	-11.3612
牙	-11.3612
殴	-11.3612
契	-11.3612
ョ	-11.3613
k	-11.3613
須	-11.3613
拓也	-11.3613
カルシウム	-11.3613
乗組員	-11.3613
庵	-11.3613
桐	-11.3613
咳	-11.3613
鯛	-11.3613
チョーク	-11.3613
卜	-11.3613
濫	-11.3613
竿	-11.3613
莫	-11.3613
薫	-11.3613
カナダ	-11.3613
ドラマ	-11.3613
仲たがい	-11.3613
擇	-11.3613
行なわれた	-11.3613
ケーブル	-11.3613
ブランデー	-11.3613
燗	-11.3613
篭	-11.3613
蔓	-11.3613
すさまじい	-11.3613
扉	-11.3613
絃	-11.3613
鰐	-11.3613
びっくりして	-11.3613
子寬燭舛	-11.3613
交互に	-11.3613
飴	-11.3613
▁この上なく	-11.3613
帥	-11.3613
猛烈に	-11.3613
やかましく	-11.3613
スプーン	-11.3613
籤	-11.3613
群れをなして	-11.3613
培養	-11.3613
独特の	-11.3613
転換	-11.3613
を築く	-11.3613
昭和	-11.3613
堤防	-11.3613
包囲	-11.3613
粘膜	-11.3613
天気予報	-11.3614
頑固	-11.3614
誇張	-11.3614
いただけませんか	-11.3614
に次ぐ	-11.3614
停泊	-11.3614
助詞	-11.3614
補佐	-11.3614
規格	-11.3614
たくましい	-11.3614
効能	-11.3614
人工衛星	-11.3614
苦悩	-11.3614
遊戯	-11.3614
祝賀	-11.3614
少なくとも	-11.3615
あらまし	-11.3615
慣例	-11.3615
征服	-11.3615
恒星	-11.3615
接待	-11.3615
知り合い	-11.3615
われわれ	-11.3615
富士	-11.3615
調停	-11.3615
貝殻	-11.3615
かなわない	-11.3615
宿題	-11.3615
勝敗	-11.3616
仕組み	-11.3616
タンク	-11.3616
未知の	-11.3616
患部	-11.3616
▁へたな	-11.3616
記載	-11.3616
就業	-11.3616
どけ	-11.3616
屈折	-11.3616
何らかの	-11.3616
わざわざ	-11.3616
とらわれ	-11.3616
やりくり	-11.3616
追加	-11.3616
誤差	-11.3616
混雑	-11.3616
残忍	-11.3617
いっそう	-11.3617
静脈	-11.3617
海産	-11.3618
往生	-11.3618
正一さん	-11.3618
脱獄	-11.3619
威光	-11.3619
単独	-11.3619
きっぱり	-11.3619
必ずしも	-11.3619
ミス	-11.3619
▁娘	-11.3619
解散	-11.3619
酒に酔って	-11.3619
真似	-11.362
強制的に	-11.362
ほれ	-11.362
座標	-11.362
▁国境	-11.362
値上げ	-11.362
世襲	-11.362
オール	-11.3621
絶縁	-11.3621
信託	-11.3621
浄土	-11.3621
さいころ	-11.3622
著書	-11.3622
四季	-11.3622
敬礼	-11.3622
武術	-11.3622
発育	-11.3622
強烈な	-11.3623
鳥獣	-11.3623
異なった	-11.3623
を構成する	-11.3623
信頼できる	-11.3623
連結	-11.3623
笑顔	-11.3623
ののしる	-11.3624
政務	-11.3624
難破	-11.3624
令状	-11.3625
破滅	-11.3625
感じを与える	-11.3625
連邦	-11.3625
いたしました	-11.3626
移し	-11.3626
順位	-11.3627
定期的に	-11.3627
相手が	-11.3627
話し方	-11.3627
全集	-11.3628
へだて	-11.3629
苦難	-11.363
のに用いる	-11.3631
漢文	-11.3631
▁約	-11.3631
▁さく	-11.3632
通用	-11.3632
取扱い	-11.3632
走っている	-11.3632
喜んだ	-11.3633
廻り	-11.3633
を申し込む	-11.3634
きめる	-11.3634
伝達	-11.3634
無臭	-11.3635
枝を	-11.3635
泣いた	-11.3635
声明	-11.3636
すがた	-11.3636
これだけ	-11.3636
からといって	-11.3636
障り	-11.3637
ねうち	-11.3637
悪党	-11.3638
の顔	-11.3639
ときは	-11.3639
サー	-11.3639
ほぐ	-11.364
無効	-11.3641
を免れ	-11.3641
連隊	-11.3641
見渡す	-11.3642
▁疲れ	-11.3642
観光客	-11.3642
釈迦	-11.3643
を生む	-11.3644
まさ	-11.3644
性欲	-11.3644
器量	-11.3644
合奏	-11.3644
まぶた	-11.3645
をひき	-11.3645
壊れ	-11.3645
一段と	-11.3645
の上の	-11.3646
▁恐ろしい	-11.3646
はさんで	-11.3647
らっぱ	-11.3647
答えた	-11.3647
をうかがう	-11.3648
乗船	-11.3649
過ち	-11.3649
気絶	-11.3649
▁その問題	-11.3649
ひそ	-11.3649
煎じ	-11.3649
自称	-11.365
体内に	-11.365
の所に	-11.365
善意	-11.3651
はいい	-11.3651
くぎり	-11.3651
に会った	-11.3653
▁軒	-11.3653
まっ	-11.3654
not	-11.3654
唱える	-11.3655
▁その話は	-11.3656
店員	-11.3656
とされている	-11.3657
もせず	-11.3657
を取った	-11.3657
三日	-11.3658
所有者	-11.3659
こわれた	-11.366
堅	-11.366
独自の	-11.366
▁年をとって	-11.3662
賢明な	-11.3662
なさけ	-11.3663
読み方	-11.3664
積み重ね	-11.3664
平凡な	-11.3665
の際に	-11.3665
敬意を表する	-11.3667
退学	-11.3668
ねばならない	-11.3668
滑	-11.3669
書きしるす	-11.3669
距離を	-11.367
▁えい	-11.367
放す	-11.367
定規	-11.3671
外界	-11.3673
▁その土地	-11.3674
書画	-11.3675
支配者	-11.3676
の体	-11.3677
家へ	-11.3677
に浮かぶ	-11.3678
▁井戸	-11.3678
しょうゆ	-11.3679
をたたき	-11.3681
活動する	-11.3682
▁人情	-11.3685
▁人間は	-11.3685
メッセちょっと	-11.3685
上方	-11.3686
▁幾	-11.3686
村上	-11.3688
▁議論の	-11.3689
ほのか	-11.369
広げ	-11.369
▁彼はドア	-11.3692
走ること	-11.3693
もともと	-11.3694
▁チ	-11.3694
を吸う	-11.3694
▁冷静	-11.3696
重ねて	-11.3696
てから	-11.3696
▁彼から	-11.3698
立法	-11.37
▁彼は父親	-11.37
ためになる	-11.37
武者	-11.3702
の責任	-11.3702
植物の	-11.3703
▁゚	-11.3703
▁活	-11.3703
一刻	-11.3704
大学で	-11.3704
換える	-11.3705
にし	-11.3706
いわれ	-11.3708
腕力	-11.3708
びれ	-11.3708
歌劇	-11.3709
無関係	-11.3709
音便	-11.371
のそば	-11.371
ケアマネさん	-11.3711
無作法	-11.3711
▁不可	-11.3712
地表	-11.3714
会社に	-11.3715
▁火山	-11.3715
▁漸	-11.3715
の割合	-11.372
のではないかと	-11.3721
浄化	-11.3722
の月	-11.3722
熱心な	-11.3722
風土	-11.3723
▁秋の	-11.3724
尋ねる	-11.3725
並べる	-11.3727
祝う	-11.3729
しぼ	-11.3732
離れて	-11.3733
をさせる	-11.3734
▁筋	-11.3735
登り	-11.3736
と言えば	-11.3738
▁赤ん坊は	-11.374
内輪	-11.3741
かむ	-11.3741
不当	-11.3743
自分を	-11.3743
磁気	-11.3745
漢字の	-11.3745
中身	-11.3746
関係がない	-11.3746
すらすらと	-11.3746
しめた	-11.3749
▁兼	-11.3752
を探る	-11.3753
知事	-11.3755
その場	-11.3755
▁厚	-11.3758
▁水は	-11.3759
を妨げる	-11.3759
暴動	-11.376
えら	-11.3761
ふたり	-11.3761
▁農	-11.3764
マイク	-11.3767
▁部屋の	-11.3768
慣れる	-11.3768
▁大便	-11.3769
日の出	-11.377
削る	-11.3772
法会	-11.3773
▁ケアマネさん	-11.3773
さまざまの	-11.3774
▁声を	-11.3775
こっそりと	-11.3777
月末	-11.3777
の支払い	-11.3778
▁さっさと	-11.3778
の客	-11.3779
体重	-11.3779
着ける	-11.378
▁恩	-11.3781
▁悲	-11.3781
強いこと	-11.3783
を飛ばす	-11.3784
音を立て	-11.3785
の形で	-11.3785
清水	-11.3786
▁寄	-11.3788
靴討	-11.3788
違っている	-11.3789
耐	-11.379
の広い	-11.3791
一種	-11.3793
仕える	-11.3795
を勤める	-11.3796
トリ	-11.3799
に加わる	-11.3799
通う	-11.38
▁複	-11.3801
皮を	-11.3801
国王	-11.3804
ld	-11.3804
▁勇気	-11.3806
▁その仕事	-11.3807
んじゃない	-11.3808
固有の	-11.3809
暮らしている	-11.381
計画を立てる	-11.3811
的には	-11.3812
有機	-11.3813
これこれ	-11.3813
▁ペ	-11.3814
国外	-11.3815
タクシー	-11.3816
すでに	-11.3816
▁はるか	-11.3817
めちゃめちゃに	-11.3817
▁恐れ	-11.3818
▁貨物	-11.3822
▁戦争の	-11.3822
分に	-11.3823
▁車を	-11.3823
▁地上	-11.3824
けがれ	-11.3826
に現れた	-11.3826
▁すぐに電話する	-11.3826
▁小さな	-11.3829
〇〇	-11.383
D	-11.383
を高く	-11.3831
たびたび	-11.3831
いよいよ	-11.3832
忘れた	-11.3832
かねる	-11.3832
▁疑問	-11.3832
▁解	-11.3833
の母	-11.3836
をうつ	-11.3837
ビタミン	-11.3837
寄って	-11.3837
年生	-11.3838
請け	-11.3839
衣類を	-11.384
公開	-11.3841
に足りない	-11.3842
ばくち	-11.3843
優しい	-11.3843
▁台所	-11.3843
就職	-11.3844
▁文章の	-11.3844
言ったり	-11.3844
年ごとに	-11.3845
どうやら	-11.3845
T	-11.3845
建設	-11.3846
と考えている	-11.3846
▁貴人	-11.3846
▁ヘ	-11.3848
▁舟	-11.3848
▁出産	-11.3848
梅雨	-11.3849
哀	-11.3849
▁彼はどんな	-11.3849
山頂	-11.385
固め	-11.385
偏見	-11.385
悪人	-11.3851
の仲間	-11.3852
ース	-11.3853
話して	-11.3855
ぜひ	-11.3855
熱心	-11.3855
インフレ	-11.3855
涙を流す	-11.3857
すす	-11.3857
心の中に	-11.3858
そう言った	-11.3859
繁殖	-11.386
予備	-11.3861
国土	-11.3861
しょく	-11.3862
伸ばし	-11.3863
悪意	-11.3865
海底	-11.3866
そうしたもの	-11.3866
ずく	-11.3866
の少年	-11.3867
を愛する	-11.3867
二人以上	-11.3867
シャ	-11.3869
酸味	-11.3874
▁今までに	-11.3876
チョウ	-11.3876
▁日常	-11.3878
を引いた	-11.3879
最新の	-11.388
明治	-11.388
その問題について	-11.388
▁裁縫	-11.3882
外から	-11.3884
ぼし	-11.3886
の役	-11.3886
地味	-11.3887
▁ト	-11.3887
が出て	-11.3887
▁大体	-11.3888
はかない	-11.3892
芸者	-11.3895
に立ち	-11.3897
正常	-11.3899
外見	-11.39
六つ	-11.39
▁どん	-11.3902
▁むり	-11.3903
立体	-11.3904
□・・	-11.3908
腹を立てる	-11.3909
かなりの	-11.391
倒し	-11.3911
▁彼はひどく	-11.3912
赤道	-11.3918
召し	-11.3919
おぼれ	-11.3921
があまり	-11.3921
▁没	-11.3921
まさか	-11.3921
足音	-11.3924
いくさ	-11.3928
引き出し	-11.393
うっとり	-11.3931
熟した	-11.3932
▁事件の	-11.3933
▁彼は我々	-11.3936
▁燃料	-11.3936
セーター	-11.3937
▁よし	-11.3938
大根	-11.3938
綴	-11.394
▁女子	-11.394
意味の	-11.3941
高値	-11.3941
に言えば	-11.3945
私にとって	-11.3946
▁すぐに電話したい	-11.3946
を注ぐ	-11.3947
▁巻き	-11.3949
同等	-11.3949
先日	-11.3951
やってみた	-11.3955
大砲	-11.3956
語った	-11.3957
仏道	-11.3957
てない	-11.396
の者が	-11.3962
▁彼も	-11.3965
通過	-11.3966
を求め	-11.3967
相談する	-11.3968
の下で	-11.3968
▁種種の	-11.3973
千万円	-11.3974
▁風呂	-11.3978
▁得	-11.3979
▁兄弟	-11.3983
▁とんでもない	-11.3986
▁一人	-11.3986
▁和歌	-11.3986
▁この問題は	-11.3988
一撃	-11.3988
成る	-11.3989
▁昆虫	-11.399
▁彼は妻	-11.3991
▁赤道	-11.3994
▁聴覚	-11.3997
炎症	-11.3997
▁do	-11.3997
全体を	-11.3998
自動車の	-11.3999
主人の	-11.3999
過労	-11.4
集まっている	-11.4
悪口を言う	-11.4001
頼んで	-11.4001
の骨	-11.4001
の糸	-11.4002
組む	-11.4004
▁国の	-11.4005
as	-11.4008
▁我	-11.4009
みえ	-11.401
の新	-11.401
母親の	-11.4012
いかがですか	-11.4014
本心	-11.4016
鷹	-11.4016
くわえ	-11.4018
▁江戸時代に	-11.4018
乱暴に	-11.4018
▁累	-11.4019
を開始する	-11.402
▁烏	-11.4021
あの世	-11.4023
▁網	-11.4024
事を行う	-11.4025
テント	-11.4026
けもの	-11.4028
▁靴を	-11.4029
分の一	-11.403
に来た	-11.4032
見掛け	-11.4032
▁だれにも	-11.4035
正直に	-11.4036
買い物	-11.4036
十一	-11.4038
散り	-11.4038
ーム	-11.4038
水の	-11.4039
の旅	-11.404
科の落葉低木	-11.404
月日	-11.4041
▁事業	-11.4041
この点	-11.4042
意見を述べる	-11.4044
できるだけ	-11.4044
さあ	-11.4046
▁めでたい	-11.405
ならなかった	-11.4051
打ち解け	-11.4051
噴	-11.4054
ぐり	-11.4055
▁こんなに	-11.4056
の花が	-11.4056
平地	-11.4058
ばった	-11.406
の薬	-11.4062
▁熱帯	-11.4064
グレ	-11.4065
公平に	-11.4065
作物の	-11.4066
▁新聞の	-11.4067
土曜日	-11.4067
手荷物	-11.4068
▁貝	-11.4069
武士の	-11.4069
に添える	-11.4077
作られる	-11.4078
を知らせる	-11.4079
▁応	-11.4079
此	-11.4079
いし	-11.408
ter	-11.4081
供える	-11.4081
問題について	-11.4081
▁バイオリン	-11.4082
をあて	-11.4082
日常の	-11.4084
厳重に	-11.4085
あとの	-11.4088
甘く	-11.4091
管轄	-11.4092
▁情け	-11.4092
であり	-11.4093
を加えた	-11.4094
生理	-11.4094
切に	-11.4094
▁穀物	-11.4094
抜いて	-11.4096
説得	-11.41
こわす	-11.4108
俗人	-11.4111
▁身分の高い人	-11.4114
て言う語	-11.4115
に及ぶ	-11.4116
の羽	-11.4116
▁講義	-11.4117
ことになる	-11.4118
間柄	-11.4119
ことがわかっ	-11.412
せられた	-11.4121
がとれる	-11.4121
五センチ	-11.4122
に関すること	-11.4123
簡略	-11.4124
せば	-11.4125
▁堅い	-11.4126
呈	-11.4126
党員	-11.413
かぬ	-11.413
▁小麦	-11.413
▁大丈夫	-11.4132
大声	-11.4133
概	-11.4135
監禁	-11.4135
▁言葉を	-11.4136
そこへ	-11.4138
燃	-11.4139
何事も	-11.4141
ごし	-11.4141
上陸	-11.4142
溶け	-11.4143
を乱す	-11.4144
送金	-11.4144
つる草	-11.4145
通ってい	-11.4146
戦争で	-11.4147
の成功を	-11.4148
▁まるで	-11.4149
もよい	-11.415
▁ある物	-11.4152
メッセをちょっと	-11.4154
▁ある事を	-11.4154
焼ける	-11.4155
貼	-11.4155
にぶい	-11.4159
▁非常な	-11.4162
だれの	-11.4162
尋ねた	-11.4162
を捜した	-11.4164
滅び	-11.4165
▁昨夜は	-11.4166
あんなに	-11.4167
ポン	-11.4168
ウエスト	-11.4168
▁先生	-11.4168
悪事を	-11.4169
を浴びる	-11.4172
選ぶ	-11.4173
▁インク	-11.4174
漠	-11.4174
模型	-11.4175
▁ポケット	-11.4175
を晴らす	-11.4175
潰	-11.4176
になるような	-11.4177
不定	-11.4177
を見捨て	-11.4177
をすっかり	-11.4177
箇	-11.4177
▁じゃ	-11.4178
嘆願	-11.4179
のでなく	-11.418
米を	-11.418
でこぼこ	-11.4181
の発達	-11.4181
推定	-11.4181
配り	-11.4182
詩の	-11.4182
に話す	-11.4182
認	-11.4183
提供	-11.4183
を動かす	-11.4183
宣告	-11.4184
始末	-11.4184
絹布	-11.4184
永遠	-11.4185
の仲	-11.4187
▁みだらな	-11.4189
▁灰	-11.4189
▁エレベーター	-11.4189
一か所に	-11.4189
注ぎ	-11.419
へや	-11.4191
土地の	-11.4191
きる	-11.4191
媒	-11.4191
多くの人	-11.4192
le	-11.4192
明らか	-11.4194
もらって	-11.4194
査	-11.4195
鋒	-11.4195
を禁じ	-11.4195
賓	-11.4196
▁相互	-11.4197
に値する	-11.4197
委	-11.4197
蕩	-11.4198
に伴う	-11.4199
惜しみ	-11.4199
提携	-11.4199
蹐	-11.4199
錯	-11.4199
▁田	-11.4199
F	-11.42
弥	-11.42
需	-11.42
混合	-11.42
杉	-11.4201
せっせと	-11.4201
肖像画	-11.4201
ないうちに	-11.4201
を払って	-11.4201
苛	-11.4201
を禁ずる	-11.4201
兎	-11.4201
拳銃	-11.4201
奨	-11.4201
款	-11.4201
鯉	-11.4201
にかかわらず	-11.4201
吾	-11.4201
憐	-11.4201
曚	-11.4201
朴	-11.4201
ショートメッセージ送信	-11.4201
閨	-11.4201
G	-11.4201
ジャングル	-11.4201
トマト	-11.4201
次から次へと	-11.4201
燕	-11.4201
郡	-11.4201
うろたえ	-11.4201
ホルモン	-11.4201
詮	-11.4201
▁飢え	-11.4201
ぎゅっと	-11.4201
ちゅうちょ	-11.4201
タッチ	-11.4201
大げさに	-11.4201
奨学金	-11.4201
文房具	-11.4201
痔	-11.4201
紗	-11.4201
L	-11.4201
をきわめる	-11.4201
スイッチ	-11.4201
誼	-11.4201
喝	-11.4201
を慰める	-11.4201
いわゆる	-11.4201
を仰ぐ	-11.4201
コルク	-11.4201
辛抱	-11.4201
徐々に	-11.4201
煩悩	-11.4201
たぶん	-11.4201
表彰	-11.4201
▁二十四気	-11.4202
イングランド	-11.4202
夜が明け	-11.4202
たきぎ	-11.4202
催促	-11.4202
巡査	-11.4202
プリント	-11.4202
カーブ	-11.4202
潜水艦	-11.4202
五月ごろ	-11.4202
外套	-11.4202
放射線	-11.4202
発酵	-11.4202
周旋	-11.4202
セメント	-11.4203
激励	-11.4203
ウェ	-11.4203
腐敗	-11.4203
やさしく	-11.4203
藤田	-11.4203
功労	-11.4203
関東	-11.4203
艦隊	-11.4203
結末	-11.4203
賃上げ	-11.4203
ギヤ	-11.4203
となえる	-11.4203
ミシン	-11.4203
簿記	-11.4203
僕が	-11.4203
郷里	-11.4203
光栄	-11.4204
土俵	-11.4204
皇族	-11.4204
休止	-11.4204
冷凍	-11.4204
デート	-11.4204
婚礼	-11.4204
鮮明	-11.4204
▁都会	-11.4205
長い年月	-11.4205
デモ	-11.4205
誠意	-11.4205
球技	-11.4205
に含まれる	-11.4205
ジャム	-11.4205
浜辺	-11.4205
住んでいた	-11.4206
たくみに	-11.4206
發里	-11.4206
▁妊娠	-11.4206
因縁	-11.4206
ソン	-11.4206
工具	-11.4207
ほんの少し	-11.4207
百姓	-11.4207
達成	-11.4207
神秘的な	-11.4207
ある種の	-11.4208
テレ	-11.4208
情景	-11.4208
農夫	-11.4209
失策	-11.4209
沈む	-11.4209
危害	-11.4209
自動的に	-11.4209
売り上げ	-11.4209
草稿	-11.4209
▁この部屋は	-11.4209
荒廃	-11.4209
卒業生	-11.4209
殺害	-11.421
日常	-11.421
に報いる	-11.421
映画館	-11.421
はげしく	-11.421
考えてみ	-11.421
に相当する	-11.4211
カット	-11.4211
メモ	-11.4211
減少	-11.4212
実施	-11.4212
体育	-11.4212
高貴	-11.4212
平静	-11.4213
会わない	-11.4213
クマ	-11.4214
不愉快	-11.4214
こぼし	-11.4214
成句	-11.4214
可能な	-11.4214
禁煙	-11.4214
要約	-11.4214
断定	-11.4214
▁妻の	-11.4215
おおもと	-11.4215
不便	-11.4215
定刻	-11.4215
パンチ	-11.4216
皮膚病	-11.4216
反省	-11.4216
夏休み	-11.4216
合議	-11.4216
にあずかる	-11.4216
歴史的	-11.4216
生育	-11.4217
一晩中	-11.4217
火鉢	-11.4217
▁中古	-11.4217
逆転	-11.4217
みがき	-11.4217
真価	-11.4218
▁彼は何	-11.4218
重荷	-11.4218
利息	-11.4218
くじら	-11.4218
手がかり	-11.4219
ふん	-11.4219
見出し	-11.4219
生きて	-11.4219
長生き	-11.422
▁電力	-11.422
▁処女	-11.422
▁春の	-11.422
原野	-11.422
緑色で	-11.4221
計器	-11.4221
破れ	-11.4223
上司	-11.4224
のところで	-11.4225
すっきり	-11.4225
純白	-11.4225
九州	-11.4225
ちがい	-11.4226
あげく	-11.4226
もはや	-11.4227
粒子	-11.4227
▁東洋	-11.4227
選手権	-11.4229
音を出す	-11.4229
黄色で	-11.423
たぐい	-11.423
暗示	-11.423
単なる	-11.423
読み書き	-11.423
がね	-11.423
群集	-11.4231
けがをした	-11.4231
をなしている	-11.4233
出帆	-11.4233
ところがあった	-11.4234
にあてる	-11.4234
整数	-11.4236
砂利	-11.4238
半島	-11.4238
陣地	-11.4238
公判	-11.4238
のないように	-11.424
救い	-11.424
▁脊椎動物の	-11.424
▁困難	-11.4241
ずし	-11.4241
一まとまり	-11.4241
あざやかな	-11.4242
▁くず	-11.4242
▁費用は	-11.4242
▁れい	-11.4243
をこしらえる	-11.4244
翌日	-11.4244
に気づいた	-11.4244
歌曲	-11.4245
好ましくない	-11.4245
砂糖を	-11.4245
時ごろ	-11.4246
不和	-11.4247
かって	-11.4247
当座	-11.4248
ちがう	-11.4248
をいう	-11.425
▁幽	-11.425
学位	-11.4253
坊や	-11.4253
帆船	-11.4254
を確かめる	-11.4254
問題が	-11.4254
と聞いて	-11.4255
通例	-11.4256
一年中	-11.4256
確実	-11.4256
との中間	-11.4257
と言われる	-11.4257
▁ペンキ	-11.4258
▁シェイクスピア	-11.4258
資本家	-11.4258
主役	-11.426
▁顔を	-11.4261
穂状	-11.4261
浅く	-11.4261
不完全	-11.4264
に参加する	-11.4265
▁身長	-11.4266
獲得	-11.4266
浮かぶ	-11.4268
柔らかな	-11.4268
▁頬	-11.4269
音程	-11.4269
▁食物	-11.4269
▁拙	-11.427
方策	-11.427
谷間	-11.427
▁送	-11.4271
自分から	-11.4271
主任	-11.4272
▁私は彼女	-11.4273
そうな様子	-11.4274
帰国	-11.4275
の政治	-11.4275
々たる	-11.4276
くだもの	-11.4276
▁ほら	-11.4276
包む	-11.4277
説く	-11.4278
才気	-11.4278
第三者	-11.4278
活動の	-11.4279
ばかりだった	-11.428
下院	-11.4281
今では	-11.4281
助けてくれ	-11.4282
正確	-11.4284
酔う	-11.4284
をたどる	-11.4284
▁探	-11.4285
血が	-11.4287
休息	-11.4287
切ること	-11.4288
示した	-11.4288
はかま	-11.4289
ぶね	-11.4289
の鳥	-11.429
あいている	-11.4291
大学の	-11.4291
に似ているが	-11.4292
▁女性の	-11.4292
ある場所	-11.4293
半期	-11.4294
実が	-11.4294
にすむ	-11.4294
ふところ	-11.4295
登る	-11.4295
▁男性	-11.4296
おかず	-11.4297
▁°	-11.4297
育てること	-11.4298
杯の	-11.4298
▁興行	-11.4302
▁キリスト教で	-11.4302
度数	-11.4302
仮に	-11.4303
金持	-11.4305
▁表面	-11.4305
蕕譴	-11.4305
不明の	-11.4307
よくよく	-11.4307
▁聖書	-11.4307
▁こく	-11.4308
きました	-11.4309
創作	-11.431
がちだ	-11.431
全世界	-11.4311
▁結果は	-11.4313
王国	-11.4317
霧が	-11.4317
その上	-11.4318
枝が	-11.432
の景色	-11.432
斜めに	-11.4321
な男	-11.4321
歩道	-11.4324
投げる	-11.4325
にそむく	-11.4326
小説家	-11.4327
▁公共	-11.4328
政界	-11.4329
乗せて	-11.4329
を巻く	-11.433
▁当て	-11.4332
に分けて	-11.4335
た食品	-11.4336
▁肥	-11.4336
▁昼食	-11.4336
を述べた	-11.4339
加わる	-11.434
東洋	-11.4342
もも	-11.4342
日曜	-11.4344
腐れ	-11.4344
物事を行う	-11.4345
▁不平	-11.4345
どく	-11.4345
を他の	-11.4345
をごまかす	-11.4346
▁こちら	-11.4346
▁彼は友人	-11.4346
くてたまらない	-11.4347
越年生	-11.4349
あふれてい	-11.435
降った	-11.435
生物が	-11.435
上演	-11.4351
寄せ集め	-11.4352
いっぱいに	-11.4353
この計画	-11.4354
つやがある	-11.4356
新聞で	-11.4356
を見ること	-11.4359
不作	-11.436
かぶと	-11.436
銃声	-11.4361
▁私たちの	-11.4361
▁ジョン	-11.4366
ント	-11.4368
の荒い	-11.4368
の模様	-11.437
▁絵画	-11.437
大笑い	-11.4372
水や	-11.4375
▁株式	-11.4375
に悩む	-11.4375
大家	-11.4376
▁衆	-11.4376
実地に	-11.4376
の車	-11.4378
▁なお	-11.4378
▁P	-11.4379
よる	-11.438
の地位	-11.438
▁警戒	-11.4382
貯え	-11.4382
を結び	-11.4382
点数	-11.4382
すわること	-11.4383
りやすい	-11.4384
▁敬	-11.4384
の子供	-11.4386
をきれいに	-11.4387
は僕の	-11.4389
▁食物を	-11.439
割れた	-11.4391
▁しばらく	-11.4391
▁呼び	-11.4392
なれば	-11.4395
船を	-11.4395
▁軍艦	-11.4397
▁濃	-11.4397
小便	-11.4399
とどめ	-11.4399
ひね	-11.4399
を握る	-11.44
▁ジャ	-11.4407
の一派	-11.4407
返した	-11.4408
出発した	-11.4411
▁頓	-11.4413
海上	-11.4415
でもある	-11.4416
もしなかった	-11.4419
に咲く	-11.442
をつなぐ	-11.4421
急所	-11.4422
を抜いて	-11.4426
かれて	-11.4429
かろう	-11.443
ていないこと	-11.443
▁かわいい	-11.4431
誓	-11.4434
▁職務	-11.4435
スピード	-11.4436
廃物	-11.4437
▁釣	-11.4439
分別	-11.444
ならす	-11.4441
▁ここに	-11.4442
去って	-11.4442
▁又	-11.4442
▁狩猟	-11.4442
ができ	-11.4444
▁運賃	-11.4445
あれほど	-11.445
ホームヘルパーさん	-11.4452
▁人類	-11.4454
大波	-11.4454
▁いまからショートメッセージ	-11.4455
巻きつけ	-11.4455
のだろうか	-11.4456
シー	-11.4459
▁稔	-11.4461
斜め	-11.4461
▁軍人	-11.4462
共鳴	-11.4462
▁会場	-11.4463
その上に	-11.4464
▁悪魔	-11.4464
ができて	-11.4465
遅	-11.4467
下にある	-11.4468
すぐれたもの	-11.4469
一派	-11.447
▁しょ	-11.4471
を起こし	-11.4473
細君	-11.4473
を望む	-11.4473
論ずる	-11.4474
求めること	-11.4476
してやった	-11.4477
皮膚に	-11.4477
実体	-11.4478
▁まさか	-11.4478
通じている	-11.4479
▁彼女は自分	-11.4481
日曜日	-11.4481
になります	-11.4481
をつけない	-11.4482
道が	-11.4482
をなして	-11.4485
しません	-11.4487
だらけ	-11.4488
▁排水	-11.4488
▁彼女を	-11.4488
▁つめ	-11.4489
おぼれる	-11.449
その日の	-11.4493
その場で	-11.4493
もありません	-11.4494
▁カメラ	-11.4496
▁実物	-11.4498
必	-11.4499
大気	-11.45
が落ちる	-11.4501
▁英語を	-11.4502
▁この世	-11.4503
グル	-11.4503
陰謀	-11.4503
したものだ	-11.4506
紛	-11.4506
ジャズ	-11.4507
行ない	-11.4507
かざ	-11.4508
英文学	-11.4508
凶	-11.451
N	-11.4511
歩調	-11.4511
▁ジョンは	-11.4512
じた	-11.4512
を楽しむ	-11.4512
をかむ	-11.4513
液体の	-11.4513
幾つ	-11.4513
不幸な	-11.4514
▁老い	-11.4515
イタリア	-11.4516
小麦粉	-11.4516
▁邪	-11.4516
飼う	-11.4521
とらえ	-11.4522
食卓	-11.4523
田舎	-11.4523
そろえ	-11.4524
はいる	-11.4525
食料	-11.4527
▁技術	-11.453
夏に	-11.453
メン	-11.4531
航空	-11.4531
▁彼は彼ら	-11.4531
から離れて	-11.4532
料理の	-11.4532
野外	-11.4532
日本に	-11.4534
で打つ	-11.4534
▁鉄道の	-11.4537
したりすること	-11.4538
▁20	-11.4539
状態にする	-11.4539
申し上げ	-11.4542
▁侍	-11.4544
当日	-11.4544
税金	-11.4544
便所	-11.4545
私たちは	-11.4545
一通り	-11.4545
北方	-11.4547
端に	-11.4548
焼けて	-11.4549
がたまる	-11.455
を加えること	-11.455
▁家屋	-11.4551
靴覆	-11.4553
伝える	-11.4554
▁すぐにショートメッセージ	-11.4555
▁枕	-11.4557
▁側	-11.4557
に走る	-11.4559
▁ベッド	-11.456
もんか	-11.456
▁怪	-11.4561
に残る	-11.4561
に属し	-11.4562
▁正面	-11.4565
を上げて	-11.4566
▁誤った	-11.4566
済み	-11.4568
▁T	-11.457
▁建設	-11.4571
任命	-11.4573
の着物	-11.4574
かかっていた	-11.4574
っぽく	-11.4576
の豊かな	-11.4577
ドリ	-11.4578
▁すでに	-11.4582
赤ん坊を	-11.4582
飛んでい	-11.4582
その辺	-11.4584
つみ	-11.4585
▁白い	-11.4587
運動をする	-11.4587
神道	-11.4587
小石	-11.4588
の回転	-11.4589
▁洗濯	-11.4591
野菜を	-11.4591
ぶった	-11.4592
がかかる	-11.4593
を証明する	-11.4594
の価格	-11.4595
正規の	-11.4597
られること	-11.4597
の要求	-11.4599
息子を	-11.46
仕入れ	-11.46
意地	-11.4602
▁運命	-11.4603
本国	-11.4604
じき	-11.4604
花の	-11.4607
僕に	-11.461
の作用	-11.4611
西部	-11.4612
くれと	-11.4612
虫が	-11.4612
のしみ	-11.4612
告白	-11.4615
金属を	-11.4617
たがる	-11.4618
版画	-11.4619
経済的	-11.4619
▁保険	-11.4619
吹く風	-11.4621
等で	-11.4623
▁禁酒	-11.4623
を与えること	-11.4624
らせること	-11.4625
▁原子	-11.4627
流出	-11.4627
表現する	-11.4627
でメッセージ送	-11.4631
▁工事	-11.4632
の保護	-11.4634
持っていること	-11.4635
の小説	-11.4636
▁書籍	-11.4637
プレ	-11.4637
の表	-11.4637
青空	-11.4638
信じる	-11.4641
くっつく	-11.4641
寬	-11.4642
接する	-11.4643
はまるで	-11.4644
馬に乗って	-11.4645
下がった	-11.4646
フォー	-11.4647
言いつけ	-11.4647
恐れて	-11.4649
なくては	-11.465
当時の	-11.4652
ありのまま	-11.4653
尊重	-11.4655
▁長さ	-11.4655
降ろ	-11.4656
▁雲が	-11.4657
▁射	-11.4659
▁きょうの	-11.466
打ち明け	-11.466
時だ	-11.4662
▁施	-11.4663
建築物	-11.4664
始まる	-11.4673
力学	-11.4674
人人が	-11.4675
▁とん	-11.4675
六月	-11.4676
書物の	-11.4678
きれない	-11.4679
の力で	-11.4679
糸で	-11.468
▁かき	-11.4682
▁問題を	-11.4684
頑張	-11.4685
▁いつか	-11.4686
はじき	-11.4686
じょうずに	-11.4686
女だ	-11.4687
▁なぞ	-11.4688
▁まめ	-11.469
をつぶす	-11.4694
▁憲法	-11.4694
音の	-11.4697
債	-11.4698
の順序	-11.4699
番目	-11.4701
多くの人が	-11.4702
から成り	-11.4702
▁パイプ	-11.4703
同類の	-11.4704
右手	-11.4705
▁成功	-11.4706
値打ち	-11.4706
▁ほお	-11.4707
努力を	-11.4712
▁まっすぐ	-11.4712
ローマ字	-11.4713
簡単	-11.4713
かぶる	-11.4714
▁予想	-11.4714
▁かなり	-11.4715
▁かぜ	-11.4715
大都市	-11.4716
の戦い	-11.4716
▁駄	-11.4716
▁特別の	-11.4716
見ても	-11.4717
学士	-11.4717
部屋の中	-11.4719
は薬用	-11.472
▁爪	-11.4721
新人	-11.4727
据え	-11.4731
すし	-11.4731
まぶ	-11.4734
暖地	-11.4734
▁セ	-11.4734
▁濃い	-11.4736
の重さ	-11.4736
たいした	-11.4738
一番よい	-11.4739
ずき	-11.474
ドライブ	-11.4741
をもらって	-11.4742
に分かれて	-11.4743
延期	-11.4744
あじ	-11.4745
があったら	-11.4748
言われる	-11.4753
公認	-11.4753
五弁	-11.4754
はずいぶん	-11.4754
くれない	-11.4756
こもって	-11.4758
大人	-11.476
音が	-11.4762
飛行機が	-11.4762
つかまえる	-11.4763
▁袖	-11.4763
未開	-11.4764
▁天才	-11.4765
▁通信	-11.4765
の幼虫	-11.4766
別れる	-11.4766
▁婚約	-11.4766
いただき	-11.4766
▁やがて	-11.4768
▁昨日	-11.4769
突き出た	-11.4769
を捜して	-11.477
の技術	-11.4771
ひっくり返	-11.4772
▁準備	-11.4774
を挙げる	-11.4774
に帰る	-11.4776
千代ちゃん	-11.4776
まとめた	-11.4776
出入	-11.4777
をたたいて	-11.4778
腰掛け	-11.4779
人々が	-11.4779
軽率	-11.4781
▁書物を	-11.4781
▁しゃく	-11.4782
余る	-11.4782
臨終	-11.4782
▁手術	-11.4782
に立って	-11.4783
が悪く	-11.4784
をしないこと	-11.4785
時刻に	-11.4786
▁図書館	-11.4786
やすく	-11.4787
の中にある	-11.4789
恨	-11.4793
にはいる	-11.4796
が残る	-11.4797
募	-11.4797
気になった	-11.4798
本当だ	-11.4798
痛みが	-11.4799
歩き回る	-11.48
婦人用	-11.48
でたらめ	-11.4802
健太	-11.4802
反逆	-11.4802
太陽が	-11.4802
山道	-11.4802
休め	-11.4803
▁たいていの	-11.4804
御所	-11.4806
共産主義	-11.4806
かなければならない	-11.4806
▁穴	-11.4807
履	-11.4807
般	-11.4807
努力した	-11.4808
▁部屋を	-11.4808
よりずっと	-11.4808
ぐれ	-11.4808
縁組	-11.481
厄	-11.481
が切れる	-11.4811
征	-11.4811
こっち	-11.4811
首に	-11.4812
の側	-11.4812
正当	-11.4813
稼ぎ	-11.4814
捻	-11.4815
がほしい	-11.4815
くろ	-11.4816
究	-11.4816
出資	-11.4817
汽	-11.4817
ぎょ	-11.4818
威勢	-11.4819
痕	-11.4819
キュ	-11.482
囲碁	-11.4821
申しあげます	-11.4821
婆	-11.4821
に産する	-11.4821
旗を	-11.4821
を支える	-11.4822
出てくる	-11.4822
傑	-11.4822
臼	-11.4823
▁地球は	-11.4823
まんまと	-11.4823
研	-11.4823
計算する	-11.4824
容赦	-11.4824
謹	-11.4824
肢	-11.4824
絵をかく	-11.4825
小作	-11.4825
リットル	-11.4825
いかがわしい	-11.4825
している人	-11.4825
察する	-11.4825
スピーチ	-11.4826
映画の	-11.4826
爐	-11.4826
悊	-11.4826
遡	-11.4826
記した	-11.4826
瘡	-11.4826
屠	-11.4826
畔	-11.4826
x	-11.4826
あこがれ	-11.4826
註	-11.4826
ナトリウム	-11.4826
窟	-11.4826
オーケストラ	-11.4826
欺	-11.4826
丁寧に	-11.4826
孟	-11.4826
幾重にも	-11.4826
途方もない	-11.4826
准	-11.4826
祥	-11.4826
誅	-11.4826
そわそわ	-11.4826
とは限らない	-11.4826
アルミニウム	-11.4826
ステレオ	-11.4826
ボクサー	-11.4826
俊	-11.4826
吠	-11.4826
廓	-11.4826
猥	-11.4826
疵	-11.4826
鄙	-11.4826
オフィス	-11.4826
只	-11.4826
撥	-11.4826
斧	-11.4826
漿	-11.4826
聾	-11.4826
ぐるりと	-11.4826
ちょっぴり	-11.4826
未亡人	-11.4826
躯	-11.4826
そろばん	-11.4826
灌	-11.4826
稜	-11.4826
謙遜	-11.4826
びっくりする	-11.4826
が伴う	-11.4826
プラスチック	-11.4826
膨張	-11.4826
けしからぬ	-11.4826
伸縮	-11.4827
認可	-11.4827
いろんな	-11.4827
かろうじて	-11.4827
採掘	-11.4827
用途が広い	-11.4827
グラム	-11.4827
正方形	-11.4827
か否か	-11.4827
徴候	-11.4827
鎌倉	-11.4827
調味料	-11.4827
崩壊	-11.4827
進退	-11.4827
至る所	-11.4827
のらくら	-11.4827
強引に	-11.4827
ラッパ	-11.4827
ブラック	-11.4827
実践	-11.4827
誓約	-11.4827
問答	-11.4827
包丁	-11.4827
を越えた	-11.4827
きく科の多年生植物	-11.4827
を売って	-11.4828
圧縮	-11.4828
同種の	-11.4828
意匠	-11.4828
諸侯	-11.4828
したことを	-11.4828
完結	-11.4828
のぞき	-11.4828
語彙	-11.4828
預かり	-11.4828
も同然だ	-11.4828
隔たり	-11.4828
何年も	-11.4828
喪失	-11.4828
傑作	-11.4828
索引	-11.4828
こまかく	-11.4828
しのぎ	-11.4828
傍聴	-11.4829
▁会計	-11.4829
弊害	-11.4829
謝礼	-11.4829
了解	-11.4829
容積	-11.4829
設けられた	-11.4829
参照	-11.4829
保有	-11.4829
どなた	-11.4829
堅固	-11.4829
をねらう	-11.4829
曇った	-11.4829
わきまえ	-11.483
海苔	-11.483
ペット	-11.483
限定	-11.483
充実	-11.483
例えば	-11.483
全般	-11.483
炊事	-11.483
引退	-11.483
あんまり	-11.4831
答案	-11.4831
じょうず	-11.4831
担任	-11.4831
ちょろ	-11.4831
身分の低い	-11.4831
ジム	-11.4831
▁その川は	-11.4831
ニュー	-11.4831
呑み	-11.4832
ノン	-11.4832
を備えた	-11.4832
▁仙	-11.4832
メッセージホームヘルパー	-11.4833
特質	-11.4833
偽造	-11.4834
溶接	-11.4834
荷造り	-11.4834
しかたがない	-11.4834
逃亡	-11.4835
返礼	-11.4835
ジェット機	-11.4835
動物が	-11.4835
の度合	-11.4835
酒宴	-11.4836
選挙区	-11.4836
になりたい	-11.4836
採点	-11.4836
容量	-11.4836
を刈る	-11.4836
優良	-11.4837
修士	-11.4837
▁その劇は	-11.4837
泳いで	-11.4837
女郎	-11.4837
指紋	-11.4837
無分別	-11.4837
して下さい	-11.4839
不振	-11.4839
▁船を	-11.4839
▁トラ	-11.4839
食べられる	-11.4839
あたま	-11.484
美容	-11.484
手を振って	-11.484
天災	-11.484
に至る	-11.4841
▁江戸時代の	-11.4841
言葉づかい	-11.4841
不可能だ	-11.4841
牢屋	-11.4841
敵意	-11.4842
片づける	-11.4842
忌み	-11.4842
占い	-11.4842
羽根	-11.4842
合い図	-11.4842
伝記	-11.4842
こども	-11.4843
即席	-11.4843
技法	-11.4843
▁抗	-11.4844
骨組	-11.4844
昼夜	-11.4844
なことをする	-11.4844
複写	-11.4846
▁意地	-11.4846
豊富な	-11.4847
学級	-11.4847
金庫	-11.4848
傷害	-11.4848
の主人	-11.4848
た時	-11.4849
なすべき	-11.4849
▁品質	-11.4849
愛好	-11.485
文壇	-11.485
▁余計な	-11.485
好んで	-11.4851
引っぱる	-11.4851
露骨	-11.4851
中年	-11.4852
平常	-11.4852
競技場	-11.4854
▁畳	-11.4854
ぴったり合う	-11.4854
通常	-11.4854
を引き出す	-11.4854
警察に	-11.4855
今頃	-11.4855
僕には	-11.4855
食料品	-11.4856
消費者	-11.4856
額面	-11.4856
婦人服	-11.4857
領主	-11.4857
倍の	-11.4858
をなくす	-11.4858
化粧品	-11.4858
は言えない	-11.4859
草原	-11.486
血筋	-11.4861
霊魂	-11.4861
▁馬を	-11.4861
和解	-11.4861
▁にわかに	-11.4861
債権者	-11.4861
考えられる	-11.4862
後退	-11.4862
▁内閣	-11.4863
▁山野	-11.4863
話し合う	-11.4863
をつけたもの	-11.4863
ないのに	-11.4864
実在	-11.4864
地盤	-11.4864
遺産	-11.4865
旅費	-11.4865
年頃	-11.4866
薄弱	-11.4866
慣れた	-11.4867
分割	-11.4867
年寄り	-11.4867
国防	-11.4869
魔法	-11.4869
ホテルに	-11.4869
優美な	-11.487
天罰	-11.487
ばば	-11.487
我慢する	-11.4871
っ面	-11.4871
渡った	-11.4872
あわせて	-11.4874
晴れた	-11.4875
海辺	-11.4876
着用	-11.4876
買手	-11.4877
▁あの男の	-11.4879
▁戦場	-11.488
病気になった	-11.488
▁もう一度	-11.488
▁独立	-11.4881
第二	-11.4882
下ろし	-11.4882
腹は白	-11.4883
言う言葉	-11.4884
で遊ぶ	-11.4887
表した	-11.4889
打ち上げ	-11.489
ある期間	-11.4891
防火	-11.4891
解き	-11.4891
質が	-11.4892
呂覆	-11.4892
▁幸運	-11.4894
▁群衆は	-11.4896
陸上	-11.4896
を曲げる	-11.4897
▁原文	-11.4897
洗って	-11.4897
┐	-11.4897
お知らせ	-11.4898
▁ニュース	-11.4899
一般的な	-11.4899
▁透	-11.4899
に上る	-11.49
船乗り	-11.4901
どうでも	-11.4902
見張る	-11.4903
歩み	-11.4904
できます	-11.4905
高級	-11.4905
引き抜く	-11.4906
に反して	-11.4908
文筆	-11.4909
のほうへ	-11.4909
どぶ	-11.4913
斬り	-11.4913
などで作った	-11.4914
野鳥	-11.4914
力のある	-11.4915
が最も	-11.4918
に気をつけ	-11.492
時期に	-11.492
なかま	-11.4921
妨げ	-11.4921
道化	-11.4922
▁責め	-11.4922
罰金	-11.4923
の全体	-11.4923
近くの	-11.4924
親等	-11.4924
周期	-11.4925
▁ブ	-11.4925
直行	-11.4926
個人的な	-11.4927
してよい	-11.4929
▁体重	-11.493
一塁	-11.493
看護	-11.4932
今後	-11.4932
下る	-11.4934
淡水	-11.4936
の周り	-11.494
▁自然の	-11.4942
噴出	-11.4946
▁芝居で	-11.4946
苦しめる	-11.4947
がとても	-11.4947
方々	-11.4949
▁ちゅう	-11.4949
一か月	-11.4949
哀れな	-11.495
放送局	-11.4951
さびしい	-11.4951
さらし	-11.4951
が短い	-11.4951
至急	-11.4952
関税	-11.4952
あらい	-11.4952
たちが	-11.4953
防水	-11.4954
真空	-11.4955
▁スピード	-11.4957
」、「	-11.4957
あわせること	-11.496
そのため	-11.4961
じろ	-11.4962
▁浜	-11.4964
右側	-11.4964
の意志	-11.4964
出なかった	-11.4966
▁その人の	-11.497
▁修	-11.4972
開けた	-11.4972
▁恋愛	-11.4973
学校へ行く	-11.4973
の午後	-11.4975
じょうずな	-11.4976
高め	-11.4977
進路	-11.4978
お話	-11.4979
お茶を	-11.4979
桜の	-11.4981
個性	-11.4982
▁彼らに	-11.4982
絶望	-11.4982
こない	-11.4983
好きだ	-11.4984
の和	-11.4985
かんで	-11.4987
▁いか	-11.4989
それらの	-11.4991
に変わる	-11.4991
▁婿	-11.4992
棒を	-11.4992
はめ	-11.4992
同行	-11.4993
指先	-11.4994
ためには	-11.4995
結果として	-11.4998
▁紅茶	-11.5
あいだ	-11.5002
来世	-11.5002
雑用	-11.5002
が合わない	-11.5002
▁彼は仕事	-11.5004
応じ	-11.5007
論点	-11.5009
▁彼は僕	-11.501
のうちの	-11.5012
▁酔っぱら	-11.5014
との間の	-11.5017
刺す	-11.5019
あいつ	-11.502
あるものを	-11.502
言を言う	-11.5023
の季節	-11.5023
そうだった	-11.5023
のおかげで	-11.5026
地震で	-11.5028
▁酸	-11.5028
沈んで	-11.5029
あたる	-11.503
▁受験	-11.503
つなぐ	-11.5034
引いた	-11.5034
▁いん	-11.5034
が上手	-11.5034
戻り	-11.5037
とうてい	-11.5038
▁そこは	-11.5038
もちろん	-11.504
見切り	-11.504
なのです	-11.5041
▁平面	-11.5042
▁喜んで	-11.5043
終わりまで	-11.5043
演習	-11.5044
▁天地	-11.5045
▁おれ	-11.5046
穴から	-11.5047
よごれた	-11.5047
高いこと	-11.5048
支配人	-11.505
生意気な	-11.505
さかい	-11.5051
語法	-11.5051
待ってい	-11.5051
にしても	-11.5052
固める	-11.5056
なやつ	-11.5056
ひとみ	-11.5056
製本	-11.506
出ていた	-11.5061
▁話の	-11.5061
上にある	-11.5063
ひる	-11.5067
▁琴	-11.5067
圧倒	-11.5069
書き方	-11.507
▁他人が	-11.507
として用いる	-11.507
に分け	-11.5073
に書く	-11.5074
をせず	-11.5074
糸で織った	-11.5077
生徒たち	-11.5077
▁背中	-11.5079
▁同一	-11.5079
を無視して	-11.5079
▁おや	-11.5082
進化	-11.5082
を二つ	-11.5083
に少し	-11.5086
▁刺	-11.5087
債券	-11.5087
▁近頃	-11.5087
子音	-11.5088
聞いている	-11.5088
▁支払い	-11.5088
面が	-11.5089
説明した	-11.5089
しかけ	-11.509
▁湖	-11.509
掘	-11.5091
がしら	-11.5092
死者の	-11.5093
悪い事	-11.5096
仏事	-11.5097
を感ずる	-11.51
を証明し	-11.5102
つけている	-11.5102
亜	-11.5103
▁計算	-11.5104
うれしそう	-11.5104
るため	-11.5108
▁武力	-11.511
になるまで	-11.511
尽きる	-11.5111
そうな顔	-11.5113
犬に	-11.5114
は人間	-11.5115
に苦しむ	-11.5116
というのが	-11.5116
▁他のもの	-11.5118
分けた	-11.512
▁悪い事	-11.512
まとめて	-11.512
もらいたい	-11.5124
熱心に	-11.5124
方言	-11.5125
に構える	-11.5125
▁食料	-11.5129
に出席する	-11.513
共同で	-11.513
手に入れた	-11.5131
れなかった	-11.5132
その物	-11.5132
の時間	-11.5133
捨てること	-11.5134
取り除く	-11.5134
になりますか	-11.5137
の機会	-11.5138
味をつけた	-11.5139
会場	-11.5141
状態である	-11.5141
ばか者	-11.5143
円の	-11.5143
すぐ近く	-11.5145
気持で	-11.5149
▁海の	-11.5151
またはその	-11.5152
▁N	-11.5152
▁冒険	-11.5153
てもらえ	-11.5153
▁原稿	-11.5155
▁彼は仕事に	-11.5158
小数	-11.5158
▁別れ	-11.5158
が痛む	-11.5158
っこい	-11.5161
▁仏教	-11.5163
きいた	-11.5165
に変わった	-11.5165
▁何が	-11.5166
めったにない	-11.5167
をつか	-11.5167
決算	-11.5169
▁木の	-11.5169
があ	-11.517
人から	-11.517
洪水	-11.5171
それでも	-11.5172
まつる	-11.5173
世間で	-11.5174
めかし	-11.5176
結婚の	-11.5176
を登る	-11.5176
車が	-11.5178
訴える	-11.5178
▁暑さ	-11.5179
振って	-11.518
ージ	-11.5181
を離れた	-11.5183
ショートメッセージすぐに	-11.5184
残した	-11.5185
はま	-11.5186
種目	-11.5186
▁劇場	-11.5186
▁スープ	-11.5189
気持を表す	-11.519
▁きびしい	-11.5191
犯罪者	-11.5192
の茎	-11.5194
来週	-11.5194
▁耐	-11.5194
入れ物	-11.5195
トップ	-11.5195
▁ついに	-11.5196
▁he	-11.5196
分配	-11.5197
をよくする	-11.5198
考慮	-11.5199
▁僕には	-11.5201
人類の	-11.5203
くじけ	-11.5203
映え	-11.5204
▁動物が	-11.5205
秘蔵	-11.5205
召集	-11.5205
▁蚕	-11.5205
親に	-11.5206
▁締め	-11.5207
というものは	-11.521
天性	-11.521
愛想	-11.5211
▁労	-11.5211
両方の	-11.5212
▁ちょっと警察	-11.5213
▁我々が	-11.5213
に注意	-11.5214
が大嫌い	-11.5214
して歩く	-11.5215
し合う	-11.5218
目上の人	-11.5218
のを防ぐ	-11.5219
小枝	-11.522
▁就職	-11.522
してもらった	-11.522
放射能	-11.5222
▁どうやら	-11.5224
▁仏の	-11.5224
▁天気	-11.5224
又	-11.5225
狩猟	-11.5226
▁波が	-11.5226
完	-11.5227
運賃	-11.5227
二枚	-11.5227
近頃	-11.5228
▁細かい	-11.5228
下級の	-11.5229
ある所	-11.5231
▁梅雨	-11.5233
▁週	-11.5233
なめらかで	-11.5233
代用	-11.5234
に勝つ	-11.5234
柔道	-11.5234
蹴	-11.5234
の特徴	-11.5234
はかなり	-11.5235
山の中	-11.5236
流感	-11.5237
が広く	-11.5238
▁ボートは	-11.5238
ゲル	-11.5239
ロケット	-11.5239
あざ	-11.524
▁国王	-11.5241
に等しい	-11.5242
見せること	-11.5244
乏しい	-11.5245
指に	-11.5245
いう音	-11.5245
のに必要な	-11.5245
間接	-11.5245
頓	-11.5246
登山	-11.5246
きのう	-11.525
武力	-11.525
群れ	-11.525
にひた	-11.5251
▁弔	-11.5254
商業	-11.5255
外国語	-11.5255
から離れた	-11.5256
つむ	-11.5256
〕(	-11.5257
努力する	-11.5257
朝早く	-11.5258
同点	-11.5259
我慢できない	-11.526
をまぜ	-11.526
鳥類	-11.5261
きらう	-11.5261
言い伝え	-11.5262
事情が	-11.5262
木村	-11.5263
▁ゆっくり	-11.5266
底に	-11.5266
いつか	-11.5267
キン	-11.5267
場合の	-11.5268
株式	-11.527
核実験	-11.527
▁藪	-11.527
▁あいにく	-11.527
は大変な	-11.5271
▁月に	-11.5272
設立	-11.5273
極度	-11.5275
▁少女	-11.5276
明け方	-11.5276
動いた	-11.5277
穴をあける	-11.5279
の生産	-11.528
肩を	-11.5282
▁ろく	-11.5282
を送って	-11.5283
ボス	-11.5283
式に	-11.5284
借金の	-11.5287
込んでいた	-11.5291
マー	-11.5291
▁盛り	-11.5292
に思うこと	-11.5294
を合わせて	-11.5295
などして	-11.5296
を設ける	-11.5296
▁法令	-11.5297
万年	-11.53
科の魚	-11.53
だったので	-11.5301
労働者の	-11.5302
▁きっと	-11.5303
実を結ぶ	-11.5303
と違った	-11.5303
▁代金	-11.5303
▁はく	-11.5303
おそい	-11.5305
ある場所に	-11.5308
ところは	-11.5309
横たわる	-11.5309
気をつける	-11.5312
本文の	-11.5313
乗り換え	-11.5314
学生の	-11.5317
価値を	-11.5318
変える	-11.5318
その年の	-11.532
クタ	-11.5321
まぜて	-11.5323
をかわす	-11.5326
重病	-11.5327
▁もとの	-11.5328
を借りる	-11.5329
でメッセちょっと	-11.5332
ひもで	-11.5332
▁もち	-11.5332
を習う	-11.5334
▁宮	-11.5335
裁断	-11.5335
を包む	-11.5335
▁陸地	-11.5336
で旅行する	-11.5337
をはずす	-11.5338
▁細かく	-11.5341
しなければならなかった	-11.5342
▁彼らは我々	-11.5344
生きた	-11.5344
ざま	-11.5345
▁アイ	-11.5346
集まること	-11.5346
の費用	-11.5347
言う事	-11.5348
すてき	-11.535
投票で	-11.5351
照らし	-11.5351
▁ほこり	-11.5353
何人かの	-11.5354
ボクシング	-11.5354
一時に	-11.5355
君を	-11.5356
▁妙	-11.5356
▁水銀	-11.5357
突く	-11.5358
に当てる	-11.5359
胸を	-11.5361
ごまかし	-11.5362
てくれませんか	-11.5363
▁彼の目	-11.5363
▁会は	-11.5363
山腹	-11.5365
生徒に	-11.5365
▁世に	-11.5366
彼女の顔	-11.5366
派遣する	-11.5368
しるした	-11.5369
わた	-11.5369
▁攻め	-11.5369
これ以上	-11.537
つくる	-11.537
▁フィ	-11.5373
唱え	-11.5375
▁やり	-11.5375
監督する	-11.5376
はただ	-11.5378
すまい	-11.5379
を認めた	-11.538
▁脇	-11.538
おいし	-11.5381
▁お父さん	-11.5381
一致しない	-11.5384
駅で	-11.5385
放つ	-11.5387
▁収穫	-11.5388
んでしょう	-11.5389
を業とする	-11.5392
砲火	-11.5394
即座に	-11.5396
翻	-11.5397
▁明かり	-11.5399
より先に	-11.5399
晴れる	-11.54
スコットランド	-11.5402
非難する	-11.5402
▁彼は自分	-11.5402
定める	-11.5402
▁救	-11.5403
付いた	-11.5403
たいと思う	-11.5404
の像	-11.5404
金色の	-11.5405
塗る	-11.5405
抑え	-11.5406
▁かすかな	-11.5408
卒業する	-11.5409
に起こった	-11.5409
を与え	-11.541
服用	-11.5411
おもて	-11.5412
▁飲み	-11.5413
出生	-11.5415
▁大変な	-11.5416
▁才	-11.5418
▁治安	-11.542
斯	-11.5421
上品な	-11.5422
かわいい	-11.5422
玄	-11.5425
▁町中	-11.5425
技巧	-11.5427
叫び声	-11.5428
▁刀を	-11.5428
▁淡	-11.5429
▁彼らは彼の	-11.5433
▁田畑	-11.5434
▁知能	-11.5435
ドルで	-11.5435
▁土木	-11.5436
賢明	-11.5437
言っても	-11.5437
から落ちる	-11.5438
▁圧力	-11.5439
うぬぼれ	-11.5442
の発生	-11.5444
おこって	-11.5445
尽くした	-11.5445
するところ	-11.5446
▁田中	-11.5446
積んで	-11.5446
若く	-11.5447
発作	-11.5447
▁いっしょに	-11.5448
自宅	-11.5449
三位	-11.545
を問わず	-11.5452
一般的	-11.5452
▁掻き	-11.5453
ゅ	-11.5453
▁死者の	-11.5454
をしのぐ	-11.5454
はますます	-11.5456
釈迦の	-11.5457
たまらない	-11.5457
町を	-11.5458
▁詩歌	-11.5458
▁その人が	-11.5459
裁ち	-11.5459
▁辛	-11.546
送った	-11.5461
帝王	-11.5461
に出かけた	-11.5461
▁岩石	-11.5461
新聞社	-11.5461
▁臨	-11.5462
▁最初	-11.5462
首位	-11.5463
▁批判	-11.5467
少しもない	-11.5467
単純	-11.5469
思わない	-11.5469
死者の霊	-11.5469
燐酸	-11.5469
おろか	-11.547
放射	-11.5472
委任	-11.5473
▁便	-11.5474
勲章	-11.5474
絡	-11.5475
、000	-11.5475
互いの	-11.5476
倒産	-11.5477
▁目が	-11.5478
すすめる	-11.5479
拭	-11.548
閣	-11.5481
▁手の	-11.5481
神聖	-11.5481
狩	-11.5481
粘	-11.5482
全力を尽く	-11.5482
隻	-11.5482
越え	-11.5482
▁蒸し	-11.5482
余計	-11.5483
▁サン	-11.5483
歩いていった	-11.5483
+	-11.5483
に移る	-11.5484
監	-11.5485
紐	-11.5485
殖	-11.5485
惰	-11.5486
伊	-11.5486
をこうむる	-11.5486
恋の	-11.5487
生き生き	-11.5487
を失わせる	-11.5487
だけでも	-11.5488
した食品	-11.5488
看	-11.5488
浪費	-11.5488
遷	-11.5488
疾患	-11.5489
叢	-11.5489
骸	-11.5489
しつつある	-11.549
寓	-11.5491
是	-11.5491
臆	-11.5491
爛	-11.5491
斗	-11.5491
拘	-11.5492
ぎりぎり	-11.5492
租	-11.5492
あらわす	-11.5492
はなはだ	-11.5492
正子さん	-11.5493
▁はな	-11.5493
鎌	-11.5493
をそそる	-11.5493
癌	-11.5493
ユダヤ	-11.5493
R	-11.5493
ブラジル	-11.5493
歿	-11.5493
ぎざぎざ	-11.5493
眩	-11.5493
沃	-11.5493
鞭	-11.5493
のろのろ	-11.5493
伽	-11.5493
名古屋	-11.5493
挿	-11.5493
柵	-11.5493
盂蘭盆	-11.5493
轍	-11.5493
カウント	-11.5493
ハンドル	-11.5493
檀	-11.5493
肘	-11.5493
訛	-11.5493
輝かしい	-11.5493
ふすま	-11.5493
もその	-11.5493
アクセント	-11.5493
劫	-11.5493
大げさな	-11.5493
撚	-11.5493
盃	-11.5493
蠅	-11.5493
▁濡れ	-11.5493
シーズン	-11.5493
思わぬ	-11.5493
眺める	-11.5493
遥	-11.5493
鉾	-11.5493
けばけばし	-11.5493
著名な	-11.5493
袴	-11.5493
》	-11.5493
寛大な	-11.5493
芥	-11.5493
たくらみ	-11.5493
石器時代	-11.5493
歓喜	-11.5493
むなしく	-11.5493
go	-11.5493
もっぱら	-11.5493
蛙	-11.5493
に先立って	-11.5493
閣僚	-11.5493
スーツケース	-11.5493
抄	-11.5493
にぎやかに	-11.5493
なじみ	-11.5493
醤油	-11.5493
ざらざら	-11.5493
参詣	-11.5493
最良の	-11.5493
選ばれた	-11.5493
何回も	-11.5493
ボストン	-11.5493
始終	-11.5493
協同	-11.5493
シーツ	-11.5494
ビロード	-11.5494
じりじり	-11.5494
ジェ	-11.5494
虐待	-11.5494
屈辱	-11.5494
澱粉	-11.5494
The	-11.5494
繁栄	-11.5494
リンゴ	-11.5494
彫像	-11.5494
といわれる	-11.5494
ケース	-11.5494
ベース	-11.5494
旋律	-11.5494
裕子	-11.5494
メント	-11.5494
つまらぬ	-11.5494
増進	-11.5494
隔離	-11.5494
とは思えない	-11.5494
憎しみ	-11.5494
どろぼう	-11.5495
お願いします	-11.5495
持続	-11.5495
亭主	-11.5495
記述	-11.5495
に付する	-11.5495
とにかく	-11.5495
淡水魚	-11.5495
装束	-11.5495
絵美ちゃん	-11.5495
思う存分	-11.5495
視覚	-11.5495
堂々と	-11.5495
失敬	-11.5495
規制	-11.5495
こわくて	-11.5496
考案	-11.5496
誤植	-11.5496
仕返し	-11.5496
お断わり	-11.5496
かまわず	-11.5496
士官	-11.5496
▁この辞書は	-11.5496
▁じゅん	-11.5496
図案	-11.5496
低気圧	-11.5496
ブック	-11.5496
リボン	-11.5496
けいれん	-11.5496
課題	-11.5496
晴天	-11.5496
静止	-11.5497
依存	-11.5497
を持たず	-11.5497
の端に	-11.5497
絶頂	-11.5497
を混ぜて	-11.5497
ろうばい	-11.5497
あわれみ	-11.5497
助動詞	-11.5497
官僚	-11.5497
石膏	-11.5497
金銭を	-11.5497
会いたい	-11.5497
通り過ぎる	-11.5497
欲求	-11.5497
おじいさん	-11.5497
見えなかった	-11.5498
湾曲	-11.5498
謝罪	-11.5498
テレビ番組	-11.5498
レーダー	-11.5498
さえすれば	-11.5498
重複	-11.5498
祝辞	-11.5498
男女間の	-11.5498
立ち上がった	-11.5498
きめられた	-11.5498
ごろごろ	-11.5498
通告	-11.5498
になりそうだ	-11.5499
落胆	-11.5499
厳格	-11.5499
悪くない	-11.5499
軽快	-11.5499
機関銃	-11.5499
呼吸器	-11.5499
駐車場	-11.5499
暴徒	-11.5499
▁民族	-11.55
余暇	-11.55
作り出す	-11.55
めぐって	-11.55
感激	-11.55
にらむ	-11.55
堅苦しい	-11.55
幹部	-11.55
探知	-11.55
ぜんまい	-11.55
ケアマネージャちゃん	-11.5501
雑貨	-11.5501
の苦しみ	-11.5501
順次	-11.5501
断片	-11.5501
改造	-11.5501
判明	-11.5502
▁彼の行為は	-11.5502
種をまく	-11.5502
圧制	-11.5502
組立て	-11.5502
厳密	-11.5502
を指した	-11.5503
しばらくの間	-11.5504
小さいこと	-11.5504
小言	-11.5504
よく似ている	-11.5504
根本的な	-11.5504
申し分	-11.5504
技量	-11.5504
断面	-11.5504
右翼	-11.5504
処方	-11.5504
を拾う	-11.5505
授業料	-11.5505
宿題を	-11.5505
上皇	-11.5505
電圧	-11.5505
高齢	-11.5505
▁フットボール	-11.5505
▁淫	-11.5505
かまど	-11.5506
けわしい	-11.5506
並んでいる	-11.5506
平気だ	-11.5506
証明書	-11.5506
主婦	-11.5507
▁教養	-11.5507
おおわれ	-11.5507
多大の	-11.5507
畜	-11.5507
首都	-11.5507
検定	-11.5508
言わずに	-11.5508
ゆったり	-11.5508
選ばれる	-11.5508
ないかと	-11.5508
曲がっている	-11.5508
戸籍	-11.5509
極秘	-11.5509
尽力	-11.551
つぼみ	-11.551
仕様	-11.551
嘆き	-11.551
成果	-11.5511
アジ	-11.5511
勤めている	-11.5512
溜め	-11.5513
がよかった	-11.5513
というたとえ	-11.5514
禁制	-11.5514
有限	-11.5514
留学	-11.5514
▁その国は	-11.5514
むかし	-11.5514
なりゆき	-11.5515
配合	-11.5515
所持	-11.5515
石英	-11.5515
能楽	-11.5515
こぼれた	-11.5515
体長約	-11.5516
水蒸気	-11.5516
性交	-11.5516
通訳	-11.5517
女性が	-11.5517
断わった	-11.5517
やなぎ	-11.5517
武芸	-11.5517
責める	-11.5517
見世物	-11.5518
告げ知らせる	-11.5518
不当な	-11.5518
▁予算	-11.5519
作曲	-11.5519
大きさは	-11.552
▁鳥の	-11.552
風紀	-11.5521
はげしい	-11.5521
すくい	-11.5522
類を	-11.5522
まじない	-11.5522
父さん	-11.5523
人夫	-11.5523
を採る	-11.5523
の知識	-11.5523
文脈	-11.5523
▁すぐにメッセージ	-11.5523
おいしい	-11.5524
森さん	-11.5524
ター	-11.5524
引き続いて	-11.5524
断言	-11.5524
摺り	-11.5525
水溶液	-11.5525
なしだ	-11.5526
風潮	-11.5527
を早める	-11.5528
歳月	-11.5529
しましたか	-11.5529
黄緑色	-11.5529
いのち	-11.5529
が上手だ	-11.5529
伏せる	-11.5529
球面	-11.553
おわり	-11.553
疑う	-11.553
をほどく	-11.5531
感じる	-11.5531
引き受けた	-11.5532
そこら	-11.5532
口語	-11.5532
早朝	-11.5532
ざお	-11.5532
兵役	-11.5533
一応	-11.5534
照会	-11.5535
構内	-11.5535
調達	-11.5535
官位	-11.5535
▁彼は私が	-11.5535
種種	-11.5537
に終わった	-11.5537
取り柄	-11.5538
▁市内	-11.5538
加えた	-11.5539
のぼり	-11.5539
明朝	-11.5539
知ること	-11.5539
明白	-11.554
ずくで	-11.554
▁いまから電話かける	-11.554
▁官職	-11.554
それに使う	-11.5541
きざし	-11.5542
ふくらませ	-11.5544
学び	-11.5544
政治上の	-11.5544
空模様	-11.5546
大騷ぎ	-11.5546
のふち	-11.5546
良く	-11.5547
つきあい	-11.5548
鳴き	-11.5549
添えた	-11.5549
をなめる	-11.5549
度量	-11.5552
その道	-11.5552
有料	-11.5553
ふくら	-11.5553
三〇センチ	-11.5553
現役	-11.5553
▁芝生	-11.5554
悲しむ	-11.5554
インター	-11.5555
雑音	-11.5555
▁戦略	-11.5556
▁海水	-11.5556
ランド	-11.5558
順順に	-11.5558
が互いに	-11.556
減ること	-11.556
熱情	-11.556
かかわり	-11.5562
苦労して	-11.5563
相手方	-11.5563
斯く	-11.5565
箱根	-11.5565
が一つ	-11.5566
点検	-11.5566
生活している	-11.5566
▁何事も	-11.5567
出産	-11.5567
病気で	-11.5567
▁主要	-11.5569
行けば	-11.5569
出会った	-11.5569
散文	-11.557
話すこと	-11.557
無精	-11.5571
わきへ	-11.5571
チック	-11.5572
形式の	-11.5572
とんぼ	-11.5572
が始まる	-11.5574
で読む	-11.5577
出費	-11.5577
しわざ	-11.5577
▁穂	-11.5578
お返し	-11.5579
爆薬	-11.5579
下品な	-11.5579
悲劇	-11.558
総会	-11.558
浮気	-11.558
▁道路の	-11.5581
今のところ	-11.5582
腕白	-11.5584
のなら	-11.5588
問い合わせ	-11.5588
命名	-11.5589
拝む	-11.559
差す	-11.559
木戸	-11.559
助手	-11.5591
公平な	-11.5591
めんどう	-11.5594
をふく	-11.5595
▁吸	-11.5596
を許さない	-11.5597
▁そのことで	-11.5598
まぜ	-11.5599
見られた	-11.5601
装飾用	-11.5601
ブリ	-11.5604
できる限り	-11.5605
▁出発	-11.5605
味の	-11.5608
の前兆	-11.561
▁敗	-11.561
豊か	-11.561
を大いに	-11.5611
正式の	-11.5611
認めること	-11.5612
業とする人	-11.5613
ものがない	-11.5613
▁バラ	-11.5613
が出来	-11.5614
熱帯地方	-11.5615
▁航海	-11.5616
点火	-11.5617
詩を	-11.562
埋葬	-11.5622
原子核	-11.5623
縮める	-11.5624
頭上に	-11.5624
はいり	-11.5627
▁仏法	-11.5627
大層	-11.5628
▁アイス	-11.5628
▁違う	-11.5629
を決する	-11.5633
を捨てて	-11.5633
のを見た	-11.5636
でメッセすぐに	-11.5637
空軍	-11.5637
▁金銭を	-11.5637
を私に	-11.5638
から見た	-11.564
すわ	-11.5641
捜す	-11.5643
職につく	-11.5643
▁感情を	-11.5643
しゅん	-11.5646
ふえる	-11.5646
が下がる	-11.5646
を当てる	-11.5647
打たれ	-11.5647
人出	-11.5647
▁走り	-11.5647
極端	-11.5648
家系	-11.5648
▁芸術	-11.5648
抽象	-11.5649
かすり	-11.5649
無数の	-11.5654
ったりする	-11.5654
台本	-11.5656
▁最も	-11.5656
▁文語	-11.5659
▁刑事	-11.5659
絹糸	-11.5659
状のもの	-11.566
家に帰	-11.5661
地元	-11.5661
信心	-11.5662
うとうと	-11.5663
水夫	-11.5664
系の	-11.5665
▁細菌	-11.5665
光が	-11.5666
▁なるほど	-11.5666
支配する	-11.5669
▁藩	-11.5669
二次	-11.567
あつ	-11.5671
悲観	-11.5674
▁アラビア	-11.5674
が急に	-11.5675
受け取った	-11.5677
意外な	-11.5679
を突く	-11.5679
をまねる	-11.5679
の店	-11.5682
でやる	-11.5683
▁誤り	-11.5683
資力	-11.5685
の出身	-11.5686
含まれている	-11.5686
年間の	-11.5686
をはく	-11.5689
かべ	-11.5689
▁柳	-11.569
んだね	-11.569
大臣の	-11.5696
はありませんか	-11.5696
その時の	-11.5697
しかも	-11.5699
▁足の	-11.57
▁幽霊	-11.57
ヘルパーちゃん	-11.57
用など	-11.57
正式	-11.5701
▁きつね	-11.5701
のかしら	-11.5701
らないで	-11.5703
りましたか	-11.5703
酒場	-11.5705
何より	-11.5706
▁競走	-11.5707
評価する	-11.5709
記入する	-11.571
使用者	-11.571
▁軍隊の	-11.5714
みがく	-11.5715
安心した	-11.5715
くだく	-11.5718
all	-11.5718
▁スミス	-11.5719
を捨て	-11.572
かゆ	-11.5725
似ている	-11.5728
肥え	-11.5728
まっすぐな	-11.573
やめろ	-11.5731
▁幾ら	-11.5731
その後	-11.5732
能力がある	-11.5733
▁どうしても	-11.5736
おこう	-11.5738
急性	-11.5738
ふやすこと	-11.5739
▁資金	-11.574
あの子	-11.5741
を示すため	-11.5745
の後に	-11.5746
人前で	-11.5747
到着する	-11.5751
をかけること	-11.5752
近寄	-11.5752
羽の	-11.5753
の両	-11.5753
▁狭	-11.5753
▁丁	-11.5754
▁公式	-11.5755
▁中世	-11.5756
クス	-11.5756
製作	-11.5756
なぎ	-11.5757
どちらも	-11.5758
▁翻	-11.5758
いつまで	-11.5759
▁この薬は	-11.5759
機械など	-11.576
でしたか	-11.576
おさめる	-11.5763
大半	-11.5763
14	-11.5763
他のもの	-11.5764
伝えた	-11.5765
汗を	-11.5765
を使った	-11.5766
▁犯罪	-11.5766
生んだ	-11.5766
▁水を	-11.5766
▁顔の	-11.5767
箱に	-11.5768
の涙	-11.577
▁ドレス	-11.5771
▁文明の	-11.5771
取得	-11.5771
▁ちょ	-11.5772
▁放射能	-11.5772
の種子	-11.5774
▁愛想	-11.5776
こぎ	-11.5778
ようなものだ	-11.5781
天下に	-11.5782
▁実用	-11.5784
本文	-11.5789
▁さし	-11.5791
して行う	-11.5792
▁労働者	-11.5793
▁水の	-11.5793
▁ミサイル	-11.5797
女に	-11.5797
▁太陽の	-11.5797
を願う	-11.58
四十	-11.5801
ひだ	-11.5801
この本	-11.5802
さげる	-11.5803
いじめ	-11.5804
▁ちり	-11.5805
現れた	-11.5805
ほしいと	-11.5805
の出る	-11.5808
水の流れ	-11.5812
▁胡	-11.5813
の象徴	-11.5814
最中	-11.5814
り込んだ	-11.5817
木の実	-11.5817
▁たった	-11.5818
などに対して	-11.582
▁経済学	-11.5821
を集めた	-11.5823
▁眠り	-11.5825
が二つ	-11.5826
バル	-11.5827
本物の	-11.5827
人目	-11.5827
歓迎する	-11.5827
目の前に	-11.5827
を送った	-11.5827
引いて	-11.5828
そと	-11.5829
乗っている	-11.5829
▁私の考え	-11.5833
▁遠い	-11.5835
われている	-11.5838
の不足	-11.5838
に使った	-11.584
▁交渉	-11.584
出頭	-11.584
いられない	-11.5841
錐	-11.5841
▁段	-11.5843
握	-11.5844
の緒	-11.5844
ひと組	-11.5846
ぶつかる	-11.5846
▁祝	-11.5847
▁ジャズ	-11.5847
来るだろう	-11.585
内容が	-11.585
▁彼らには	-11.5851
▁午前	-11.5851
▁剣	-11.5852
の場所	-11.5853
をもらった	-11.5854
戦場で	-11.5855
の通り	-11.5856
順調に	-11.5856
前後に	-11.5857
▁特定の	-11.5858
▁明治	-11.586
閉め	-11.586
▁女王	-11.586
▁正常	-11.5863
▁せつ	-11.5864
▁O	-11.5864
ith	-11.5868
月曜日	-11.5869
仏教の	-11.587
はげ	-11.5871
法律上	-11.5872
メッセージをお薬屋	-11.5873
から作る	-11.5875
戦場	-11.5876
▁鏡	-11.588
にはまだ	-11.5881
相当の	-11.5881
つぶれる	-11.5882
安く買	-11.5882
まわって	-11.5884
腹の中	-11.5884
▁倹約	-11.5885
印刷した	-11.5886
内部の	-11.5889
に出ること	-11.589
▁二人の	-11.589
▁厳しい	-11.5891
快感	-11.5891
だめになる	-11.5893
の列車	-11.5895
▁キャンプ	-11.5895
泣くこと	-11.5895
つある	-11.5897
数日	-11.5898
▁地獄	-11.5898
▁襟	-11.59
その作品	-11.59
微生物	-11.5903
の上を	-11.5903
▁we	-11.5906
洗濯	-11.5907
この仕事	-11.5907
▁女の子	-11.591
生気	-11.591
じゅうたん	-11.591
▁彼は私より	-11.591
グロ	-11.5911
目は	-11.5913
▁最低	-11.5913
行っても	-11.5917
がなくなった	-11.5919
なるように	-11.5921
活発な	-11.5923
被告	-11.5923
▁公開	-11.5924
▁優しい	-11.5924
▁芸者	-11.5925
回した	-11.5926
学科	-11.5927
取れた	-11.5928
の報道	-11.5929
▁時計の	-11.5932
将来に	-11.5934
▁あいつは	-11.5935
▁感謝の	-11.5935
ん坊	-11.5935
をめぐらす	-11.5936
始めて	-11.5938
折れる	-11.5938
小包	-11.5938
知っていた	-11.5941
てんで	-11.5942
調整	-11.5942
▁むだ	-11.5943
くどく	-11.5943
▁有効	-11.5943
にひどく	-11.5945
ったりすること	-11.5946
の所で	-11.5947
やかん	-11.5948
▁その事件は	-11.595
▁ここでは	-11.5951
賞金	-11.5952
▁勢いよく	-11.5953
▁p	-11.5953
の影響	-11.5954
頭髪	-11.5956
利口	-11.5956
呂い	-11.5956
▁用意	-11.5957
に倒れる	-11.5958
長時間	-11.5958
▁易	-11.5958
北アメリカ	-11.596
を回す	-11.596
だつ	-11.5961
演奏会	-11.5962
できず	-11.5963
書き入れる	-11.5964
兼	-11.5964
呼び出し	-11.5969
▁肛門	-11.5969
▁定期	-11.5971
鮮	-11.5971
その土地の	-11.5971
仮の	-11.5971
▁彼は新しい	-11.5974
神経が	-11.5975
鎮	-11.5976
はしなかった	-11.5977
を生じ	-11.5977
▁ものの	-11.5977
電子計算機	-11.5978
▁大ばか	-11.5979
ペンキ	-11.598
月曜日に	-11.598
▁その町	-11.5981
を使ってする	-11.5983
▁前途	-11.5984
▁珍しい	-11.5984
権力を	-11.5984
をみがく	-11.5984
ぬれる	-11.5984
▁スミスさん	-11.5985
幻	-11.5985
おしろい	-11.5985
も言う	-11.5986
てもいい	-11.5988
新車	-11.5988
柔らか	-11.5988
満員	-11.599
生物学	-11.599
境目	-11.599
そろそろ	-11.5991
幽霊	-11.5991
馬鹿	-11.5992
下剤	-11.5992
刀剣	-11.5993
どこまでも	-11.5993
生意気	-11.5993
▁鳩	-11.5994
排	-11.5994
ように作った	-11.5994
P	-11.5995
きつね	-11.5995
飛行機など	-11.5995
値段が	-11.5995
になっていること	-11.5997
さっさと	-11.5997
ワシ	-11.5999
昨夜	-11.6
とりこ	-11.6001
ちゃら	-11.6001
の人口は	-11.6003
のとき	-11.6005
額を	-11.6008
正義	-11.601
勤める	-11.601
騎	-11.6011
受験	-11.6012
旅客	-11.6013
悩む	-11.6013
法廷で	-11.6014
を弾く	-11.6016
方面に	-11.6017
ふるまいをする	-11.6017
精一杯	-11.6018
の両側に	-11.6018
を割る	-11.6019
特売	-11.6019
持っていた	-11.602
抜けた	-11.6023
練り	-11.6024
は十分	-11.6025
五つの	-11.6025
▁言葉の	-11.6028
惨事	-11.603
展覧会	-11.603
の手段	-11.603
クル	-11.6032
からずっと	-11.6033
あげて	-11.6033
▁股	-11.6035
▁年代	-11.6036
▁徳	-11.6038
寒中	-11.604
▁ウイスキー	-11.6041
▁憎	-11.6042
単数	-11.6042
的な態度	-11.6042
はいつ	-11.6043
言いたい	-11.6044
外国に	-11.6045
万一	-11.6046
まことに	-11.6047
ション	-11.6048
規模の	-11.6048
▁豊作	-11.6048
などがある	-11.6048
量を	-11.605
すまない	-11.6052
利く	-11.6054
服装をしてい	-11.6054
はうまく	-11.6055
を通って	-11.6059
はまず	-11.6059
アリ	-11.6061
通路	-11.6062
▁我が	-11.6062
味わう	-11.6064
戻る	-11.6065
ぷ	-11.6067
の評判	-11.6068
▁勝ち	-11.6068
世論	-11.6069
負債	-11.6072
の主	-11.6073
▁地方	-11.6074
▁彼は大	-11.6074
したまえ	-11.6077
▁震	-11.6081
▁人生は	-11.6081
おります	-11.6082
わずに	-11.6083
握る	-11.6084
の段	-11.6085
のよしあし	-11.6085
▁文法	-11.6089
茎は	-11.6089
▁いね科の	-11.609
幹線道路	-11.6092
▁移	-11.6093
しているのか	-11.6093
の余地がない	-11.6093
灯台	-11.6096
従来の	-11.6096
確実に	-11.6096
▁操	-11.6097
▁被告	-11.6097
フィートの	-11.6098
の後ろ	-11.61
とま	-11.61
普通より	-11.61
二本	-11.6101
許さない	-11.6101
きら	-11.6101
ジャー	-11.6102
服を着	-11.6102
メッセいまから	-11.6104
▁痛み	-11.6104
▁詳	-11.6105
底の	-11.6105
随意	-11.6107
でひどく	-11.6108
▁苦痛	-11.6109
地下の	-11.6112
を凝らす	-11.6113
▁今にも	-11.6115
▁健全な	-11.6118
澄	-11.6119
▁雁	-11.6121
の本質	-11.6123
これに	-11.6125
▁ぜいたく	-11.6125
▁皆さん	-11.6128
▁衣服の	-11.6129
粉にしたもの	-11.6131
▁機械の	-11.6131
他の事	-11.6131
▁書画	-11.6132
アイロン	-11.6133
を敬っ	-11.6133
遊びに	-11.6133
▁空中に	-11.6134
条件を	-11.6134
川が	-11.6135
目立って	-11.6136
巧	-11.6136
を去る	-11.6136
油絵	-11.6137
がすぐれている	-11.6138
▁忍び	-11.6139
▁男子	-11.614
相手と	-11.6142
の柄	-11.6143
あしら	-11.6145
騒ぐ	-11.6146
昭三さん	-11.6147
を着ている	-11.6147
平凡	-11.6148
ではないか	-11.6148
▁終身	-11.6148
だけでなく	-11.6149
▁コンピューター	-11.6149
の入口	-11.6149
▁はっきりした	-11.615
から受ける	-11.6151
▁それは彼の	-11.6151
穀	-11.6151
▁罪人を	-11.6151
守って	-11.6152
者だ	-11.6153
は嫌いだ	-11.6154
訪れる	-11.6155
▁あるもの	-11.6159
適切な	-11.6159
寝て	-11.616
第二次大戦	-11.6161
▁大気	-11.6162
射る	-11.6163
繰り返す	-11.6163
泳	-11.6163
威圧	-11.6164
社会的地位	-11.6165
郵便物	-11.6165
豊富	-11.6165
をくじく	-11.6166
てみた	-11.6167
の上部	-11.6168
ざと	-11.6168
厚かましい	-11.6169
捲	-11.6169
▁たいそう	-11.6169
沈んだ	-11.6171
▁無理に	-11.6171
結果を	-11.6174
お伺い	-11.6174
▁他から	-11.6176
得ない	-11.6177
▁正気	-11.6177
りながら	-11.6179
医薬	-11.618
お出で	-11.618
導く	-11.6181
健太さん	-11.6182
午	-11.6182
文章を	-11.6182
倫	-11.6182
面の	-11.6183
カトリック	-11.6184
大胆	-11.6184
唯	-11.6184
▁ぐずぐず	-11.6185
ごくわずか	-11.6185
返済	-11.6185
の先生	-11.6186
の記録	-11.6187
いん	-11.6188
▁海水浴	-11.6189
寄生	-11.6189
をかいて	-11.619
か月間	-11.619
モー	-11.619
に通ずる	-11.6192
苦しんで	-11.6193
試し	-11.6197
▁故郷	-11.6197
やわらかく	-11.6197
▁過ぎ去った	-11.6198
到	-11.6198
秤	-11.6198
桂	-11.6198
に加えて	-11.6199
つち	-11.6199
メダル	-11.6199
を知って	-11.6199
采	-11.6199
兵卒	-11.6199
やってのける	-11.62
メアリー	-11.62
着るもの	-11.62
裏付け	-11.6201
E	-11.6201
播	-11.6201
言わなかった	-11.6201
匠	-11.6201
あちこちに	-11.6202
猪	-11.6202
飼料	-11.6203
を抱いている	-11.6203
硫	-11.6203
ロシア	-11.6203
芝	-11.6203
決まる	-11.6203
績	-11.6204
奔	-11.6204
メートルある	-11.6205
砥	-11.6205
駿	-11.6205
杯の水	-11.6205
呼ばれ	-11.6205
確証	-11.6205
繊	-11.6205
普	-11.6206
亭	-11.6206
▁連続	-11.6206
廟	-11.6206
促	-11.6206
諭	-11.6206
危うく	-11.6206
峠	-11.6206
撮	-11.6206
禽	-11.6206
貪	-11.6206
サーカス	-11.6206
争議	-11.6207
舗	-11.6207
薦	-11.6207
漕	-11.6207
皺	-11.6207
螢	-11.6207
坪	-11.6207
痘	-11.6207
封建	-11.6207
蒙	-11.6207
ひょっと	-11.6207
虜	-11.6207
ギリシア	-11.6207
ばかばかしい	-11.6207
宙	-11.6207
昧	-11.6207
ぎっしり	-11.6207
ぢ	-11.6207
些	-11.6207
廃棄物	-11.6207
篆	-11.6207
鴨	-11.6207
カクテル	-11.6207
オートバイ	-11.6207
汎	-11.6207
琶	-11.6207
ちょうちん	-11.6207
湧	-11.6207
皇太子	-11.6207
	-11.6207
U	-11.6207
にぎやかな	-11.6207
オルガン	-11.6207
ギャンブル	-11.6207
スモッグ	-11.6207
樽	-11.6207
殺虫剤	-11.6207
灸	-11.6207
痰	-11.6207
蹟	-11.6207
錆	-11.6207
▁遭難	-11.6207
ソフト	-11.6207
チャンネル	-11.6207
ボーイ	-11.6207
匂	-11.6207
支援	-11.6207
穢	-11.6207
スーパー	-11.6207
取っ手	-11.6207
咾	-11.6207
旁	-11.6207
ぴかぴか	-11.6207
サッカー	-11.6207
大言壮語	-11.6207
礫	-11.6207
はどちらですか	-11.6207
パレード	-11.6207
ぬかるみ	-11.6207
櫓	-11.6207
癪	-11.6207
ライター	-11.6207
をめざして	-11.6207
篩	-11.6207
苑	-11.6207
識別	-11.6207
楚	-11.6207
管弦楽	-11.6207
ふざけて	-11.6207
喝采	-11.6207
はやめなさい	-11.6207
冷蔵庫	-11.6207
接続詞	-11.6207
グリーン	-11.6208
履歴	-11.6208
墜落	-11.6208
day	-11.6208
以内に	-11.6208
否認	-11.6208
なければなりません	-11.6208
邸宅	-11.6208
マレー	-11.6208
しゃくにさわる	-11.6208
公然と	-11.6208
の尊称	-11.6208
敏感	-11.6208
テンポ	-11.6208
養殖	-11.6208
アーチ	-11.6208
閲覧	-11.6208
驚異	-11.6208
朽ち	-11.6208
概略	-11.6208
を募る	-11.6208
を呈する	-11.6208
くよくよ	-11.6208
悲鳴	-11.6208
憲章	-11.6208
概算	-11.6208
封鎖	-11.6208
双眼鏡	-11.6208
展望	-11.6208
攻勢	-11.6208
象牙	-11.6208
斑点	-11.6208
告訴	-11.6209
に囲まれて	-11.6209
おのおの	-11.6209
使われた	-11.6209
謹んで	-11.6209
財貨	-11.6209
▁熱烈な	-11.6209
農耕	-11.6209
疑念	-11.6209
一覧表	-11.6209
十干	-11.6209
暗礁	-11.6209
成就	-11.6209
▁少年たちは	-11.6209
バッター	-11.6209
称賛	-11.6209
提灯	-11.6209
快活	-11.621
決められた	-11.621
反響	-11.621
下等な	-11.621
険悪	-11.621
立証	-11.621
ばけもの	-11.621
短縮	-11.621
徹夜	-11.621
こわがる	-11.621
請負	-11.621
にもどる	-11.621
やっとのことで	-11.621
陪審員	-11.621
シーン	-11.6211
買物	-11.6211
オーストラリア	-11.6211
制裁	-11.6211
▁暗号	-11.6211
▁音楽の	-11.6211
陽子さん	-11.6211
ペスト	-11.6211
スイス	-11.6211
融	-11.6211
をそらす	-11.6211
放浪	-11.6211
ボルト	-11.6211
雷鳴	-11.6212
紅茶	-11.6212
残念なこと	-11.6212
飲酒	-11.6212
売店	-11.6212
▁海洋	-11.6212
怒りを抑える	-11.6212
損益	-11.6212
老婆	-11.6212
に伴って	-11.6212
志望	-11.6212
危急	-11.6212
呼んだ	-11.6213
徴兵	-11.6213
離陸	-11.6213
評論	-11.6213
飲食店	-11.6213
▁その少年は	-11.6213
就学	-11.6213
にこにこ	-11.6214
全快	-11.6214
受精	-11.6214
平行線	-11.6214
ゆかり	-11.6214
めぐらし	-11.6214
連鎖	-11.6214
多忙	-11.6214
あらため	-11.6214
独力で	-11.6214
使節	-11.6214
富士山	-11.6214
重要でない	-11.6215
おやじ	-11.6215
▁透き	-11.6215
断絶	-11.6215
に迷う	-11.6215
お手伝い	-11.6215
けだもの	-11.6215
妹さん	-11.6215
目の前	-11.6215
の中で最も	-11.6216
白い花が咲く	-11.6216
▁高圧	-11.6216
信義	-11.6216
精霊	-11.6216
言い回し	-11.6217
うまくいっている	-11.6217
識見	-11.6217
うなずく	-11.6217
動物園	-11.6217
▁天気が	-11.6217
▁兵士たちは	-11.6218
部族	-11.6218
速達	-11.6218
権能	-11.6218
革新	-11.6218
▁男女	-11.6218
▁蔵	-11.6218
解明	-11.6218
つやのある	-11.6218
機雷	-11.6218
泙靴	-11.6219
執着	-11.6219
背広	-11.6219
温度計	-11.6219
発動機	-11.6219
低温	-11.6219
いきなり	-11.622
会衆	-11.622
乾杯	-11.622
オックスフォード	-11.622
仕舞い	-11.622
具体的な	-11.6221
極限	-11.6221
雪が	-11.6221
調印	-11.6221
をそろえる	-11.6221
氷河	-11.6221
やりとり	-11.6221
の腕	-11.6221
乾し	-11.6222
正統	-11.6222
没頭	-11.6222
ご機嫌	-11.6223
▁衛生	-11.6223
清める	-11.6223
に接して	-11.6224
満潮	-11.6224
開くこと	-11.6224
口径	-11.6224
神経質	-11.6224
まわす	-11.6224
気擦	-11.6224
禁欲	-11.6224
▁その映画は	-11.6224
▁鼠	-11.6225
そのとおり	-11.6225
湿地	-11.6225
に襲われる	-11.6225
800	-11.6225
翌年	-11.6226
続けること	-11.6226
今週	-11.6226
衣食	-11.6226
市中	-11.6226
ぞうり	-11.6226
▁執	-11.6226
功名	-11.6227
▁強制	-11.6227
ご返事	-11.6227
清らかな	-11.6227
証文	-11.6228
浸水	-11.6228
まるく	-11.6228
旧友	-11.6228
名刺	-11.6228
旋回	-11.6228
敷地	-11.6228
情欲	-11.6229
用件	-11.6229
何もしないで	-11.623
投球	-11.623
あっ	-11.6231
主将	-11.6231
零下	-11.6231
立案	-11.6231
前へ	-11.6232
▁話を	-11.6232
御殿	-11.6232
▁それはまったく	-11.6232
ゆび	-11.6233
洋風の	-11.6233
▁赤ん坊が	-11.6233
残高	-11.6233
縁談	-11.6234
卑しい	-11.6235
温室	-11.6235
もできない	-11.6235
飲物	-11.6235
陽光	-11.6236
親密	-11.6236
健太ちゃん	-11.6236
甚だ	-11.6236
紅白	-11.6236
▁日本人は	-11.6236
短刀	-11.6236
つづり	-11.6236
のはよくない	-11.6236
混合物	-11.6237
しろうと	-11.6237
▁製造	-11.6237
美術品	-11.6237
▁彼らは彼に	-11.6237
仲立ち	-11.6237
捕り	-11.6237
同封	-11.6238
おしまい	-11.6238
▁さすが	-11.6238
を演じる	-11.6239
図表	-11.6239
三枚	-11.6239
学派	-11.6239
枝葉	-11.6239
隠居	-11.624
思いつき	-11.624
暴行	-11.6242
の必要	-11.6242
▁ここまで	-11.6242
等しく	-11.6242
きること	-11.6243
広場	-11.6243
千鳥	-11.6244
心構え	-11.6244
ものが多い	-11.6244
基金	-11.6245
▁あれこれ	-11.6245
無関心	-11.6245
作り上げる	-11.6245
追いかける	-11.6246
こぐ	-11.6246
女が	-11.6247
心の働き	-11.6248
酒は	-11.6248
醜い	-11.6248
体面	-11.6248
▁人体	-11.6249
られず	-11.6249
目当て	-11.6249
▁あの人には	-11.6249
▁毎月	-11.6249
要点を	-11.625
を考える	-11.625
ぎり	-11.625
ごめ	-11.625
くさり	-11.625
神霊	-11.6251
という名	-11.6251
不渡り	-11.6251
に穴をあける	-11.6251
どうし	-11.6251
しなやかな	-11.6252
当直	-11.6252
開店	-11.6252
重なり	-11.6253
面接	-11.6253
気軽に	-11.6254
▁湯気	-11.6254
顔料	-11.6256
北に	-11.6256
深み	-11.6256
線を引く	-11.6257
当番	-11.6258
雑種	-11.6258
褒め	-11.6259
あかり	-11.6259
同様に	-11.6259
職権	-11.6259
高速	-11.626
雨量	-11.626
えらい	-11.626
失った	-11.626
選挙権	-11.626
▁ジン	-11.6261
つつある	-11.6261
盲目	-11.6261
配分	-11.6262
逃げ出す	-11.6262
通らない	-11.6262
指数	-11.6262
同調	-11.6262
▁競技で	-11.6263
▁予約	-11.6264
そこない	-11.6264
の情	-11.6265
▁クレ	-11.6265
路線	-11.6266
やぎ	-11.6267
天文学	-11.6267
病状	-11.6268
合戦	-11.6268
夏は	-11.6268
計画が	-11.6269
▁ウエ	-11.6269
▁それから	-11.6269
んまり	-11.6269
興味が	-11.627
親父	-11.627
厚さ	-11.627
だと思った	-11.6271
七月	-11.6271
逃れ	-11.6272
はならない	-11.6273
行き方	-11.6273
▁ひょう	-11.6273
▁遣り	-11.6273
一定の場所	-11.6274
剣道	-11.6274
を得ない	-11.6275
変形	-11.6276
武道	-11.6277
発着	-11.6278
巨大な	-11.6278
畜生	-11.6279
は知らない	-11.6279
向ける	-11.628
右へ	-11.6281
にせもの	-11.6281
語尾	-11.6282
息子に	-11.6283
見事に	-11.6283
▁一国の	-11.6284
政体	-11.6285
背が高い	-11.6286
首長	-11.6286
▁精密	-11.6286
▁記録	-11.6286
一杯に	-11.6287
書状	-11.6289
▁その二つの	-11.6289
ことだった	-11.6289
て彼は	-11.629
縛る	-11.6291
言葉や	-11.6291
人々の	-11.6294
番地	-11.6295
造花	-11.6295
真意	-11.6295
法師	-11.6296
一覧	-11.6296
[...]
